<unk>	0
<s>	0
</s>	0
[PAD]	0
[UNK]	0
[CLS]	0
[MASK]	0
[C-SEP]	0
.	-2.66765
▁de	-3.42278
▁van	-3.58076
▁een	-3.66389
,	-3.7676
▁met	-3.96336
▁en	-3.96866
▁in	-4.07448
▁het	-4.15772
:	-4.32049
▁geen	-4.43067
▁bij	-4.52858
▁	-4.56182
▁(	-4.65397
▁is	-4.94176
▁voor	-4.96052
-	-5.04073
▁er	-5.12507
e	-5.16062
▁op	-5.18631
▁werd	-5.26197
)	-5.32949
▁was	-5.56438
▁niet	-5.58401
▁beeld	-5.60898
▁obductie	-5.68516
▁rechts	-5.69277
▁links	-5.74265
▁-	-5.79795
▁na	-5.84838
▁linker	-5.85224
▁zijn	-5.88407
▁afwijkingen	-5.96067
▁aan	-5.97673
▁oud	-5.98248
▁patient	-5.9836
▁onderzoek	-5.99025
).	-5.99886
▁uitgebreide	-5.9998
▁ook	-6.00295
▁overlijden	-6.00341
▁gezien	-6.01034
▁of	-6.01687
carcinoom	-6.03047
▁maligniteit	-6.03474
▁rechter	-6.07844
▁hart	-6.09599
▁te	-6.10162
▁worden	-6.10678
▁als	-6.10821
▁ontsteking	-6.11408
▁tot	-6.11425
▁deze	-6.12197
▁passend	-6.12237
▁zonder	-6.13951
▁overleden	-6.1468
▁aanwijzingen	-6.14845
▁jaar	-6.16559
▁longen	-6.19775
▁aangetroffen	-6.20002
/	-6.20817
▁door	-6.2095
▁man	-6.21232
▁geworden	-6.24415
▁kan	-6.29233
▁lever	-6.29465
;	-6.32234
▁dit	-6.32917
▁tekenen	-6.35266
▁wordt	-6.38388
▁betreft	-6.38652
▁cm	-6.39892
▁gevonden	-6.4108
):	-6.4538
▁i	-6.45498
▁huidexcisie	-6.49159
▁geringe	-6.51487
▁mogelijk	-6.53678
▁die	-6.54668
▁vrouw	-6.55592
▁microscopisch	-6.56568
▁ventrikel	-6.58352
▁gram	-6.59124
▁tevens	-6.60724
▁veranderingen	-6.6317
▁*******	-6.63342
▁t	-6.63843
▁waarschijnlijk	-6.64302
▁tumor	-6.64746
▁basis	-6.66307
▁status	-6.66701
▁adenocarcinoom	-6.66813
▁waren	-6.67176
d	-6.70008
s	-6.70134
▁zeer	-6.70441
▁basaalcel	-6.70665
▁onder	-6.71172
▁werden	-6.71809
▁sprake	-6.73524
▁atherosclerose	-6.74098
▁acute	-6.74585
▁dysplasie	-6.74879
▁ernstige	-6.74987
▁chronische	-6.7649
▁zie	-6.77347
▁toonde	-6.80527
▁goed	-6.81495
▁waarbij	-6.81678
▁pneumonie	-6.81707
▁dat	-6.8204
▁huidbiopt	-6.82912
▁vrij	-6.83249
▁aorta	-6.83687
▁patiente	-6.85303
▁ter	-6.85919
▁bekend	-6.86016
▁epicrise	-6.86318
en	-6.89512
▁verder	-6.89569
▁long	-6.89779
▁sepsis	-6.89882
▁opgenomen	-6.90116
▁bevindingen	-6.90289
jarige	-6.9058
▁2	-6.91511
▁toont	-6.92804
▁1	-6.92916
▁milt	-6.9349
v	-6.9376
▁recente	-6.94272
▁beiderzijds	-6.95009
▁d	-6.96681
▁naar	-6.96811
▁enkele	-6.97143
▁biopten	-6.99889
▁*	-6.99931
▁bloeding	-7.00022
▁infarct	-7.00854
▁carcinoom	-7.02228
▁beide	-7.02345
▁myocardinfarct	-7.02565
▁kunnen	-7.04622
▁passen	-7.05279
gedifferentieerd	-7.06313
▁ten	-7.07481
▁uit	-7.07484
▁nieren	-7.07792
▁stuwing	-7.07895
▁myocard	-7.09549
▁3	-7.0968
▁klinisch	-7.10095
▁dagen	-7.10448
▁volgt	-7.11741
▁a	-7.12464
▁hersenen	-7.13066
▁echter	-7.14528
bronchopneumonie	-7.14854
▁nog	-7.15758
▁waarin	-7.15831
▁name	-7.15839
▁kleine	-7.16096
▁conclusie	-7.16249
▁g	-7.16445
▁huid	-7.17438
▁biopt	-7.17715
▁wel	-7.17847
▁deels	-7.18187
▁verricht	-7.1844
▁materiaal	-7.18771
voorgeschiedenis	-7.19044
▁heeft	-7.19379
▁ii	-7.20593
a	-7.20952
▁excisie	-7.21216
▁weken	-7.21299
▁aanwezig	-7.22774
▁gevolg	-7.24957
▁actieve	-7.25233
▁waarvoor	-7.29218
▁infarcering	-7.29771
▁focaal	-7.30117
t	-7.30424
▁duidelijke	-7.30602
▁klinische	-7.31238
▁type	-7.31371
▁maar	-7.31676
▁insufficientie	-7.32916
isch	-7.33769
ii	-7.33953
▁mm	-7.34239
▁ischemie	-7.34548
▁gevolge	-7.3462
▁fibrose	-7.34665
▁prostaat	-7.35567
▁wat	-7.35998
▁colon	-7.36491
▁oorzaak	-7.37448
▁dan	-7.3753
▁cordis	-7.38153
▁nier	-7.38214
▁matige	-7.3843
▁verband	-7.38521
▁maag	-7.39452
▁verwijderd	-7.39618
▁grote	-7.39942
▁definitieve	-7.40627
▁reactieve	-7.42063
▁forse	-7.43151
▁matig	-7.43273
▁metastase	-7.44105
▁oude	-7.44694
▁bloed	-7.45017
▁lymfklier	-7.45037
▁aanvullend	-7.45504
▁enige	-7.45565
▁meer	-7.45792
),	-7.45889
▁past	-7.4605
▁verklaren	-7.46679
▁plaatse	-7.46898
▁naevus	-7.47018
▁cardiale	-7.47438
▁uitgebreid	-7.47475
▁lymfklieren	-7.47548
▁4	-7.4787
▁voorts	-7.48023
▁tonen	-7.48061
▁lokalisatie	-7.48133
▁sterk	-7.4872
▁groeiend	-7.49528
▁diagnose	-7.50798
▁zou	-7.50862
▁darm	-7.50994
m	-7.51106
▁doodsoorzaak	-7.51265
▁groei	-7.51515
▁hypertrofie	-7.51849
▁organen	-7.52383
▁metastasen	-7.52412
▁hypertensie	-7.52878
▁hebben	-7.53654
▁normaal	-7.5427
▁plaveiselcel	-7.55322
▁diameter	-7.55697
▁daarnaast	-7.55744
▁recent	-7.55792
▁gr	-7.56643
▁decompensatio	-7.56789
▁negatief	-7.56904
▁pleuravocht	-7.57411
▁dood	-7.57729
▁uur	-7.58526
▁bleek	-7.58897
▁aanvulling	-7.59188
▁overleed	-7.59316
▁macroscopisch	-7.59885
▁shock	-7.60186
▁reanimatie	-7.60239
▁b	-7.60363
▁laesie	-7.60583
▁acuut	-7.60907
▁zij	-7.60984
▁arteria	-7.6241
▁oedeem	-7.63593
▁hij	-7.63683
▁microscopie	-7.65571
▁/	-7.65581
▁andere	-7.65769
▁respiratoire	-7.65979
▁intra	-7.66545
▁aneurysma	-7.66683
2	-7.67363
▁conform	-7.6763
us	-7.67979
coronairsclerose	-7.68231
▁overige	-7.6844
▁nodulair	-7.68551
▁achterwand	-7.68834
▁mamma	-7.68945
g	-7.69066
▁ischaemie	-7.69469
▁bericht	-7.71256
▁c	-7.72125
▁gewicht	-7.72536
▁dunne	-7.73214
b	-7.74961
n	-7.75089
▁aanwezigheid	-7.75636
▁groot	-7.75712
▁ontstaan	-7.75881
▁over	-7.75893
▁meerdere	-7.76176
▁aangetoond	-7.76234
▁multipele	-7.76458
▁zich	-7.77174
▁pancreas	-7.77451
▁kader	-7.77598
▁sterke	-7.77713
▁histologisch	-7.77903
▁positief	-7.78015
▁alle	-7.78069
▁5	-7.78103
▁hier	-7.78239
1	-7.78322
▁maligne	-7.7836
▁beenmerg	-7.78395
▁dag	-7.79211
▁necrose	-7.79309
▁welke	-7.80175
▁opname	-7.80737
▁coronair	-7.8244
le	-7.83388
▁endometrium	-7.83584
▁jarige	-7.83632
?	-7.84048
▁toonden	-7.84303
▁zowel	-7.84346
▁resectie	-7.84538
▁verdenking	-7.85741
gewicht	-7.86122
aanvulling	-7.86244
▁aspiratie	-7.86883
▁vermoedelijk	-7.8706
▁stenose	-7.87315
▁lad	-7.8746
▁diffuse	-7.87728
▁atypie	-7.87839
▁klein	-7.87852
▁wegens	-7.87893
▁verruca	-7.88333
▁metaplasie	-7.88374
▁ca	-7.88519
▁afwijking	-7.89214
▁zien	-7.89641
▁geheel	-7.90802
▁placenta	-7.90915
▁infectie	-7.91404
▁slijmvlies	-7.91508
▁twee	-7.91651
▁combinatie	-7.91672
▁hyperplasie	-7.91867
▁graad	-7.92037
▁kenmerken	-7.92049
▁6	-7.92383
▁veel	-7.92839
▁lymfoom	-7.92989
▁meest	-7.93306
▁hierbij	-7.94649
▁onderkwab	-7.9476
▁had	-7.95
▁longoedeem	-7.95056
▁foetus	-7.95448
▁al	-7.95998
▁naevocellularis	-7.96127
▁hetgeen	-7.96249
c	-7.97937
▁vaten	-7.9809
▁p	-7.99419
▁peritonitis	-7.99687
▁linkerventrikel	-8.00257
▁uiteindelijk	-8.00372
▁verklaard	-8.00907
▁beginnende	-8.01432
▁geweest	-8.01686
hypertrofie	-8.02251
zie	-8.02706
▁situ	-8.02733
▁bevestigd	-8.0282
▁doorgemaakte	-8.03137
▁onvoldoende	-8.03277
▁reeds	-8.04449
de	-8.04581
▁weinig	-8.05036
▁seborrhoica	-8.05112
▁geleid	-8.0579
▁lijkt	-8.05852
▁iii	-8.06283
▁cellen	-8.07115
▁schade	-8.07211
▁dilatatie	-8.07278
▁ischemische	-8.0785
▁bekende	-8.07854
▁1.	-8.07985
▁uitslag	-8.08053
ische	-8.08078
▁pathologie	-8.08335
▁daarbij	-8.08565
▁rug	-8.08686
▁tijdens	-8.09221
▁om	-8.09293
▁uitgesloten	-8.09406
▁specifieke	-8.09428
▁gevolgen	-8.09476
▁kon	-8.09518
▁slecht	-8.09575
▁adenoom	-8.09647
▁waarna	-8.09668
biopten	-8.0973
▁2.	-8.0983
▁morb	-8.10844
▁uitbreiding	-8.1123
▁pulmonale	-8.11581
▁eerder	-8.12254
▁ernstig	-8.12676
▁solide	-8.13136
▁oesophagus	-8.13279
▁helicobacter	-8.13913
▁ascites	-8.14279
▁chronisch	-8.14284
▁weefsel	-8.14513
▁we	-8.14778
▁derhalve	-8.14996
▁postmortaal	-8.15654
▁intestinale	-8.15792
▁duidelijk	-8.15986
▁benigne	-8.16192
▁pa	-8.16596
▁betrof	-8.16647
▁circa	-8.16758
i	-8.16977
▁behandeling	-8.17108
▁buik	-8.17116
▁dermale	-8.17182
▁wand	-8.17999
▁gebied	-8.18041
▁blaas	-8.18073
▁congenitale	-8.18353
▁boven	-8.19346
▁10	-8.19454
▁aspect	-8.19937
▁neuropatholog	-8.20124
▁u	-8.20133
▁gering	-8.20713
▁perforatie	-8.2073
in	-8.20994
▁primaire	-8.21166
▁superficieel	-8.21379
▁zoals	-8.21443
▁gemetastaseerd	-8.21762
▁evidente	-8.21871
▁hoogte	-8.21947
▁plaatselijk	-8.22046
▁bestaande	-8.22143
▁verslag	-8.226
▁schildklier	-8.22771
▁duodenum	-8.22794
▁3.	-8.23416
▁atrofie	-8.23584
▁massale	-8.23802
▁septum	-8.24131
▁ongeveer	-8.24565
▁waarvan	-8.25301
▁hoog	-8.25395
3	-8.25671
▁vastgesteld	-8.25748
▁n	-8.26054
▁litteken	-8.26469
▁verklaring	-8.26921
▁poliep	-8.27244
▁atherosclerot	-8.27604
▁deel	-8.27606
▁gelegen	-8.28334
▁radicaal	-8.28605
▁cc	-8.29496
insufficientie	-8.29685
▁minder	-8.29728
▁hals	-8.30835
▁naast	-8.3105
▁copd	-8.3107
▁m	-8.31147
▁hartfalen	-8.31318
▁cyste	-8.31543
▁bovenkwab	-8.31551
▁gedilateerd	-8.31578
▁tussen	-8.3208
▁diffuus	-8.32082
▁focus	-8.32328
gegeneraliseerde	-8.32506
▁rest	-8.3268
p	-8.33039
▁vocht	-8.33819
▁atypische	-8.34334
▁longembolieen	-8.34386
▁overwogen	-8.34418
▁galblaas	-8.34821
▁aanvullende	-8.3489
▁bijzonderheden	-8.35128
▁gedacht	-8.35509
geen	-8.36247
▁bloedingen	-8.36462
▁septische	-8.36571
▁licht	-8.3667
▁fors	-8.36783
▁steatose	-8.36873
'	-8.36876
▁syndroom	-8.36953
▁12	-8.36957
▁sinds	-8.37103
▁micro	-8.37324
▁sigmoid	-8.37436
▁ontwikkelde	-8.37773
excisie	-8.37948
▁wij	-8.38045
▁*******,	-8.38265
▁zal	-8.38301
▁reikend	-8.38461
▁epitheel	-8.38675
▁consult	-8.39081
▁cardiomyopathie	-8.39305
▁hiervan	-8.40225
▁keratose	-8.4133
▁langer	-8.41458
▁pylori	-8.41709
▁veroorzaakt	-8.41882
▁7	-8.4197
▁rond	-8.41984
▁normale	-8.42835
▁diabetes	-8.42912
▁abdominale	-8.42966
▁aortaklep	-8.43648
▁o	-8.43872
▁operatie	-8.43943
▁ischaemische	-8.44273
▁4.	-8.44287
▁falen	-8.444
▁punctie	-8.44462
▁cabg	-8.44545
▁sectie	-8.44562
▁sclerose	-8.446
▁s	-8.44785
▁delen	-8.4507
▁coupes	-8.4542
▁proces	-8.45423
▁tractus	-8.45908
▁multi	-8.46183
▁drie	-8.46423
▁voorwand	-8.46565
▁ruptuur	-8.46674
▁z	-8.46812
▁hypertrofisch	-8.46852
▁carcinomatosa	-8.4703
▁primair	-8.47058
▁pleura	-8.47064
links	-8.47359
▁inwendig	-8.47653
▁definitief	-8.47677
▁beleid	-8.47807
▁alsmede	-8.47859
▁immuunhistochem	-8.4789
▁opgetreden	-8.48036
▁longembolie	-8.48312
▁coronairarterie	-8.48412
▁revisie	-8.4846
▁thrombus	-8.48549
▁vetweefsel	-8.48624
▁samenvattend	-8.48663
▁slechts	-8.48814
▁eerste	-8.4887
preparaat	-8.49417
▁lichte	-8.49461
▁uterus	-8.4972
▁differentiaal	-8.49731
▁eerdere	-8.50164
▁elders	-8.50234
▁ml	-8.50258
▁gegevens	-8.50342
▁8	-8.50365
l	-8.50374
▁week	-8.50506
▁rectum	-8.50689
stoornissen	-8.51001
▁kleuring	-8.5127
▁laaggradige	-8.51514
▁ascendens	-8.51701
▁dissectie	-8.5183
iii	-8.51848
▁verspreid	-8.52055
▁hpv	-8.52175
▁pancreatitis	-8.52286
▁moet	-8.52298
▁l	-8.52398
▁aantoonbaar	-8.52427
▁maanden	-8.52451
▁invasieve	-8.52862
▁v	-8.52866
▁component	-8.53044
▁eveneens	-8.53342
▁gehele	-8.53536
▁cardiaal	-8.53657
▁doorgankelijk	-8.5445
▁diagnostisch	-8.54683
▁vanwege	-8.54706
▁actinisch	-8.54982
▁gecompliceerd	-8.5531
▁arterie	-8.55359
▁snijvlakken	-8.56367
▁mutatie	-8.56412
▁zijde	-8.56463
▁re	-8.56633
h	-8.57008
▁distale	-8.5727
▁argumenten	-8.57344
▁granulocyten	-8.57344
▁haarden	-8.57407
▁interstitiele	-8.57632
▁vergroot	-8.57722
▁abdominalis	-8.58099
▁infarcten	-8.58214
▁melanoom	-8.58297
▁colitis	-8.58456
▁onderbeen	-8.58539
▁concluderend	-8.58571
▁emfyseem	-8.58583
▁metastasering	-8.59327
▁ramus	-8.60022
▁slechte	-8.60712
▁ulcus	-8.6076
▁ductaal	-8.60939
▁voorkeur	-8.61226
▁ondanks	-8.61385
▁analyse	-8.61734
▁verdacht	-8.61882
▁voorlopige	-8.62201
▁grootcellig	-8.62246
▁behouden	-8.62375
▁infiltrerend	-8.62421
▁recidief	-8.62514
▁urine	-8.62519
▁descendens	-8.62822
▁kleincellig	-8.62934
▁toestemming	-8.62962
▁mellitus	-8.63289
wangerschapsduur	-8.63574
▁toename	-8.63676
▁iv	-8.63688
coronairarterien	-8.63749
▁causa	-8.6387
▁uitgesproken	-8.6396
▁afkomstig	-8.63965
▁liter	-8.63974
▁marge	-8.64144
▁terminale	-8.64256
▁dd	-8.6483
▁basale	-8.6489
▁lumen	-8.64945
▁weke	-8.64968
(	-8.65101
▁stent	-8.65319
▁urotheelcel	-8.65345
▁toch	-8.65447
▁nummer	-8.65475
ve	-8.65756
▁+	-8.65839
▁corpus	-8.65976
▁beoordelen	-8.65999
▁5.	-8.66014
cel	-8.663
▁behandeld	-8.66314
▁nodulaire	-8.6635
▁vrijwel	-8.66453
▁bijnieren	-8.6654
▁bilaterale	-8.66699
er	-8.66786
▁hersenobductie	-8.66986
▁hoeveelheid	-8.67212
▁cervix	-8.67237
▁digestivus	-8.67271
▁snijvlak	-8.67375
ste	-8.67432
▁diagnostiek	-8.67459
▁localisatie	-8.67526
▁afsluiting	-8.67878
▁mortis	-8.67963
▁nader	-8.68051
▁pre	-8.68094
▁vorm	-8.68098
▁wang	-8.68295
▁coronairen	-8.68714
▁doch	-8.69332
▁volledig	-8.69393
▁ct	-8.69445
▁perineurale	-8.69575
▁alveolaire	-8.69577
▁secundair	-8.69777
▁dyspnoe	-8.70113
diameter	-8.70638
r	-8.70965
▁her	-8.71101
▁opvallende	-8.71301
▁ldh	-8.71321
▁leeftijd	-8.7136
4	-8.71442
▁mammacarcinoom	-8.72506
▁zekerheid	-8.72506
▁ziekte	-8.72724
▁15	-8.72777
▁rca	-8.73053
▁samen	-8.73142
▁microscopische	-8.73296
▁20	-8.73549
▁arterien	-8.73753
▁non	-8.74137
▁morfologisch	-8.74484
▁centraal	-8.74525
▁minimale	-8.74527
▁nieuwe	-8.74731
▁necrotiserende	-8.74832
▁x	-8.74929
▁positieve	-8.75109
▁afwijkend	-8.75416
▁sprieterig	-8.75482
▁blijkt	-8.75727
▁snede	-8.7615
▁lateraal	-8.76381
▁ovarium	-8.76548
▁bovenstaande	-8.76911
▁distaal	-8.76923
▁papillair	-8.76946
▁e	-8.76946
▁schouwing	-8.76998
▁verhoogd	-8.77006
▁resectievlak	-8.77395
ie	-8.774
▁doorgroei	-8.7766
▁pijn	-8.77736
▁gebieden	-8.77889
▁later	-8.77947
▁tubulair	-8.78688
▁bijnier	-8.78691
▁temporaal	-8.78749
▁volgens	-8.7876
▁waardoor	-8.7881
▁myocarditis	-8.79241
▁samengestelde	-8.79272
▁mediastinum	-8.79405
▁macroscopische	-8.79469
▁mannelijke	-8.79539
▁uitwendig	-8.80009
▁opvallend	-8.80041
▁vena	-8.80138
▁gestuwd	-8.80282
▁pulmonalis	-8.80317
▁pericard	-8.80463
▁zijwand	-8.80641
▁anatomische	-8.8122
▁trachea	-8.81438
▁darmen	-8.81486
▁daar	-8.8153
▁buikholte	-8.81979
▁koorts	-8.8219
▁proximale	-8.82536
pre	-8.82679
▁bestond	-8.82816
▁oesofagus	-8.83662
▁bovenbeen	-8.83812
▁endocarditis	-8.8382
ritmestoornissen	-8.83912
▁oudere	-8.83947
▁reikt	-8.83977
lichaamsobductie	-8.84022
▁inklemming	-8.84057
al	-8.84099
▁aanwijzing	-8.84251
▁pericarditis	-8.84307
▁kort	-8.84364
▁oppervlakkige	-8.84487
▁purulente	-8.84862
▁beschreven	-8.84906
▁eventuele	-8.85111
▁hierin	-8.85328
▁trombus	-8.85404
▁6.	-8.85458
▁plaques	-8.85495
▁hiervoor	-8.85627
▁oppervlakkig	-8.85766
▁best	-8.85863
▁verse	-8.85941
▁therapie	-8.86033
▁ileum	-8.86045
.^	-8.86205
▁cerebellum	-8.8638
▁ulceratie	-8.86386
cholecystectomie	-8.86435
▁significante	-8.86495
▁immunohistochem	-8.865
▁rondom	-8.86522
x	-8.86716
rechts	-8.86864
▁uitwendige	-8.8691
▁autolyse	-8.87093
▁borst	-8.872
▁schedelobductie	-8.8743
▁post	-8.87578
▁klachten	-8.87649
▁cerebrale	-8.87811
▁1,5	-8.87827
▁voorhoofd	-8.88031
uteriene	-8.883
▁kweken	-8.8864
slijmvlies	-8.88721
▁progressieve	-8.8879
▁h	-8.89172
pneumonie	-8.89178
▁zeker	-8.89247
▁totale	-8.89279
▁decompensatie	-8.89392
▁enig	-8.89403
▁gemacereerde	-8.89417
▁gedilateerde	-8.89679
▁para	-8.89929
▁helder	-8.89977
▁abdomen	-8.9032
met	-8.90472
▁biopsie	-8.91377
▁invasief	-8.91441
▁veneuze	-8.91513
re	-8.91685
neu	-8.9171
▁dikke	-8.918
▁laterale	-8.91874
▁plotseling	-8.91948
▁laatste	-8.92227
o	-8.92443
▁reactief	-8.92623
▁mate	-8.92642
▁9	-8.92763
▁beloop	-8.92818
0	-8.92936
▁abstinerend	-8.93055
▁totaal	-8.93082
▁neuro	-8.93101
▁hypoxie	-8.93139
wel	-8.93275
▁ards	-8.93431
▁pt	-8.93657
▁longcarcinoom	-8.93675
▁vaatlijden	-8.93735
▁kweek	-8.93746
▁bodem	-8.93762
cm	-8.94318
▁iets	-8.94332
▁vooral	-8.94486
▁moleculaire	-8.94535
▁coronairlijden	-8.94548
rteriolosclerose	-8.94615
▁resectievlakken	-8.95054
▁vergrote	-8.9532
▁tenminste	-8.95346
f	-8.95457
▁maximale	-8.95798
▁11	-8.95829
▁hoe	-8.9605
▁antrum	-8.96214
▁jaren	-8.96224
▁vrouwelijke	-8.96314
▁ileus	-8.96342
▁toto	-8.96548
▁cd	-8.96943
▁obstructie	-8.9718
▁proliferatie	-8.9718
▁overigens	-8.97198
▁overtuigende	-8.97283
▁hematoom	-8.97342
▁cerebrum	-8.97386
▁zwaar	-8.97412
▁*******/	-8.97532
);	-8.97677
▁maagslijmvlies	-8.97761
▁organiserende	-8.97859
▁cva	-8.97902
▁mede	-8.97968
▁frontaal	-8.98326
bij	-8.98492
te	-8.98568
▁infiltratie	-8.98707
▁specifiek	-8.98729
▁diepe	-8.9892
▁occlusie	-8.99142
▁thorax	-8.9929
▁nevenbevinding	-8.99629
▁ritmestoornis	-8.99727
▁schouder	-9.00107
▁dermatitis	-9.00513
▁bijkomende	-9.00547
▁bijgedragen	-9.00693
▁geven	-9.00719
▁zekere	-9.00727
▁keratosis	-9.01321
▁chemotherapie	-9.01518
▁infarceringen	-9.01885
▁ontvangt	-9.01974
▁bowen	-9.01988
▁toestand	-9.02103
▁ruim	-9.02436
▁mogelijke	-9.02441
▁pathologisch	-9.02462
▁diagnosen	-9.02908
▁13	-9.02913
▁colonslijmvlies	-9.03341
▁gestuwde	-9.03435
▁inderdaad	-9.03543
invasieve	-9.03577
▁plaats	-9.03676
▁directe	-9.03857
▁score	-9.03898
▁perifeer	-9.03908
ze	-9.03994
▁beoordeling	-9.04086
▁proximaal	-9.04179
▁doorgemaakt	-9.04246
▁waar	-9.04383
▁trivasculaire	-9.04611
▁gegeneraliseerd	-9.04755
▁algehele	-9.04885
▁gleason	-9.04934
▁overwegend	-9.04961
▁14	-9.04966
▁aanknopingspunt	-9.05055
▁ik	-9.05351
▁bespreking	-9.05365
▁hoge	-9.05392
▁ingroei	-9.05497
▁voornamelijk	-9.05614
▁iliaca	-9.05906
▁eventueel	-9.06017
▁cytologisch	-9.06043
▁verklaart	-9.06074
▁beperkte	-9.06322
▁diverse	-9.06324
▁abcederende	-9.06543
▁postoperatief	-9.06779
▁schedelsectie	-9.07026
▁infiltraat	-9.07068
▁maagbiopten	-9.07143
▁vermeld	-9.07154
▁overleg	-9.07254
▁kreeg	-9.07537
▁coecum	-9.07811
▁reactie	-9.07972
▁anterior	-9.08254
▁thoracale	-9.08272
▁bloedverlies	-9.08326
▁hypertroof	-9.0833
▁danwel	-9.08568
materiaal	-9.08631
▁vooralsnog	-9.08696
▁gegeven	-9.08742
▁toenemend	-9.09022
▁arteriosclerose	-9.09121
▁geduid	-9.09336
▁separaat	-9.09738
▁lengte	-9.09907
▁bevinding	-9.09913
▁groeiwijze	-9.09927
▁24	-9.09992
▁onderarm	-9.10045
▁actinica	-9.10172
▁vanuit	-9.10256
▁oksel	-9.10292
▁18	-9.10497
▁amyloid	-9.10679
▁haar	-9.10798
▁onderging	-9.10803
▁substraat	-9.10977
▁ontbreken	-9.10977
▁on	-9.11047
▁haardvormige	-9.11081
▁hemorragische	-9.11152
▁overgang	-9.1126
▁antibiotica	-9.1131
▁ontstond	-9.11325
▁vasculitis	-9.11372
▁vruchtdood	-9.11697
▁lichaam	-9.11715
▁medisch	-9.11919
▁beoordeelbaar	-9.12065
resectie	-9.12175
▁dieper	-9.12243
metastasen	-9.12263
▁littekenweefsel	-9.12443
▁afdeling	-9.1247
▁plaatsen	-9.12504
▁tumorcellen	-9.12564
▁haard	-9.12703
▁pleuritis	-9.12709
▁harttamponade	-9.12722
▁hypertrofische	-9.12738
▁snijranden	-9.1319
▁zichtbaar	-9.13253
▁media	-9.13503
▁superior	-9.13516
▁circulatie	-9.13561
▁neus	-9.13599
▁parenchym	-9.13872
▁16	-9.13909
▁ontvangen	-9.13994
of	-9.14026
▁bronchopneumoni	-9.1412
▁stolsels	-9.14151
▁levercirrose	-9.14454
▁waarop	-9.14643
▁focale	-9.14758
▁transversum	-9.14901
biopt	-9.15056
▁gecontraheerd	-9.15551
▁achteruitgang	-9.15567
▁origine	-9.1578
▁failure	-9.15814
hyperplasie	-9.16043
▁carcinoma	-9.16168
▁macroscopie	-9.16237
▁mitralisklep	-9.16548
▁longstuwing	-9.166
▁verleden	-9.16711
▁aantal	-9.16724
naaldbiopten	-9.16725
▁hoofd	-9.16773
▁maturatie	-9.16804
▁ons	-9.17093
▁appendectomie	-9.17285
▁laat	-9.17368
▁wervelkolom	-9.1739
▁oppervlak	-9.17502
▁kleuringen	-9.17654
▁prothese	-9.17665
▁verminderde	-9.17798
op	-9.17863
▁thuis	-9.17956
▁ze	-9.18112
▁asystolie	-9.18159
▁coronaire	-9.18237
▁prostaatbiopten	-9.18259
▁hersenstam	-9.18397
▁intact	-9.1854
▁nu	-9.18566
▁zware	-9.18643
▁subendocardiale	-9.19024
▁perifere	-9.1922
▁diverticulitis	-9.19279
▁diafragma	-9.1932
▁gastritis	-9.19508
▁trombo	-9.19526
▁open	-9.19543
▁granulomen	-9.19815
▁bovenarm	-9.19855
ing	-9.19938
bevindingen	-9.1998
▁achter	-9.19987
▁afstand	-9.20174
▁sluiten	-9.20194
▁plaque	-9.20276
▁uren	-9.2029
▁longemfyseem	-9.2029
▁neutrofiele	-9.20468
▁zagen	-9.20485
infarcering	-9.20503
▁thrombo	-9.20532
▁vonden	-9.20615
embolieen	-9.20723
▁besloten	-9.20773
▁ductus	-9.20883
▁19	-9.209
orgaanfalen	-9.20975
▁thrombi	-9.21029
▁dient	-9.21056
▁midden	-9.21114
▁21	-9.2126
▁eosinofiele	-9.21322
▁hyperplastische	-9.21528
mw	-9.21706
organismen	-9.21998
▁fixatie	-9.22188
▁stadium	-9.22216
▁gaarne	-9.22311
ca	-9.2259
invasie	-9.22727
▁zover	-9.22764
▁dus	-9.22971
▁datum	-9.23068
▁'	-9.23179
▁hepatitis	-9.23218
▁leverstuwing	-9.23224
▁slap	-9.23228
▁atrium	-9.23292
«	-9.23379
▁via	-9.23706
▁7.	-9.23781
▁ivm	-9.23806
▁respiratoir	-9.23867
▁*******.	-9.2389
▁familie	-9.2389
▁foci	-9.24019
▁gekweekt	-9.24205
▁cortex	-9.24316
▁melanocytaire	-9.2442
▁(*******	-9.24533
▁bypass	-9.24603
▁blanco	-9.24812
▁mesenterica	-9.24829
▁naaldbiopten	-9.24869
▁hartinfarct	-9.24875
▁trombose	-9.24997
▁onderkwabben	-9.2503
▁mediastinale	-9.25143
▁ge	-9.25232
▁gastro	-9.25462
▁30	-9.25572
deze	-9.25577
▁bekken	-9.25647
▁rol	-9.25796
▁witte	-9.25904
▁peri	-9.25954
▁middels	-9.26058
5	-9.26256
▁shave	-9.26631
▁zwelling	-9.26727
▁bronchus	-9.2698
▁ic	-9.27031
▁been	-9.27087
▁hersensectie	-9.27111
▁lies	-9.27276
▁secundaire	-9.27432
▁vast	-9.27472
▁tweede	-9.27552
sinfiltraat	-9.27568
▁septisch	-9.27934
▁liet	-9.28277
lomerulosclerose	-9.283
▁tijd	-9.28321
▁histologische	-9.28331
▁ontkleuring	-9.284
▁grond	-9.28507
▁ziekenhuis	-9.28652
▁pathologische	-9.28712
▁lijden	-9.28932
▁macrofagen	-9.29113
▁invasie	-9.29137
▁kliniek	-9.29155
sche	-9.29158
▁ulcererende	-9.29358
▁darmischemie	-9.29461
▁per	-9.29674
▁poliepectomie	-9.29731
▁=	-9.29747
▁abces	-9.29829
▁vers	-9.29947
ook	-9.29947
jaar	-9.30036
▁extra	-9.30065
receptor	-9.30473
▁17	-9.30577
voor	-9.30607
▁coupe	-9.30623
▁st	-9.30664
▁carotis	-9.30683
k	-9.30765
▁daarna	-9.30796
▁zouden	-9.31006
▁relatief	-9.3101
▁toegenomen	-9.31207
▁thrombose	-9.31315
▁mucosa	-9.3142
▁aanleiding	-9.31637
▁70	-9.31663
▁geschat	-9.31693
▁22	-9.32106
▁waargenomen	-9.32409
▁oedemateus	-9.3242
▁omentum	-9.32454
▁hodgkin	-9.32745
▁opgegeven	-9.32979
▁nierfunctie	-9.33028
▁celbeeld	-9.33193
▁indien	-9.33431
▁rechterlong	-9.33458
▁fragmenten	-9.33498
▁huidbiopsie	-9.33576
▁bevestigt	-9.33639
▁graft	-9.33854
▁80	-9.33956
▁suggestief	-9.33978
▁postmortale	-9.34034
▁granulomateuze	-9.3414
▁laag	-9.34303
linker	-9.34413
▁emfysemateuze	-9.3443
▁hemicolectomie	-9.34459
▁volledige	-9.34513
▁lymfocytaire	-9.34622
▁gestart	-9.34663
▁fase	-9.34792
▁abdominaal	-9.34988
▁hersenonderzoek	-9.35023
▁iuvd	-9.3504
epitheliale	-9.35255
iv	-9.35273
▁geruptureerd	-9.35472
▁levercirrhose	-9.35474
▁snel	-9.35652
het	-9.35652
▁ad	-9.35721
▁cerebri	-9.35841
▁vanaf	-9.35893
▁ingreep	-9.35988
▁vet	-9.35991
laveiselepitheel	-9.36103
▁hartspier	-9.36446
▁zodat	-9.36613
▁lichen	-9.36749
▁partiele	-9.36788
▁kernen	-9.3679
▁egfr	-9.36836
▁eczeem	-9.36958
▁haemorrhagische	-9.37088
fibrilleren	-9.37261
▁2,5	-9.37271
▁pyelonefritis	-9.37446
▁berusten	-9.37489
▁procedure	-9.37502
▁degeneratieve	-9.37579
▁bestaan	-9.3763
▁25	-9.37646
▁diep	-9.37757
▁noch	-9.3779
▁extern	-9.37871
▁instantie	-9.3801
▁alleen	-9.38018
rechterventrikel	-9.38029
▁enkel	-9.38089
▁embolieen	-9.38124
12	-9.3817
▁betreffende	-9.38399
▁vier	-9.38527
▁hartkamer	-9.38627
▁arterio	-9.38659
▁hooggradig	-9.38661
▁systeem	-9.38775
kleuring	-9.38902
>	-9.38972
▁bed	-9.39089
▁klep	-9.39358
▁colonbiopten	-9.39459
ontstekingsbeeld	-9.39513
▁onduidelijk	-9.39556
▁retour	-9.3967
▁volgen	-9.39716
▁oedemateuze	-9.3979
▁respectievelijk	-9.39874
▁tur	-9.3988
▁traject	-9.39922
tal	-9.4038
▁ver	-9.40404
▁aortae	-9.40422
▁necrotisch	-9.40435
▁bindweefsel	-9.40472
▁mesenterium	-9.40531
▁conditie	-9.40656
transplantatie	-9.40675
rechter	-9.40772
▁coloncarcinoom	-9.40795
▁eosinofilie	-9.40873
▁richting	-9.40926
▁doorsnede	-9.4093
▁exon	-9.40959
na	-9.40967
▁bronchitis	-9.4098
▁galwegen	-9.41141
▁lichenoide	-9.41151
▁moleculair	-9.41166
▁epidermale	-9.41206
y	-9.41275
▁dubbelzijdige	-9.41292
status	-9.41505
.*******	-9.41521
▁ouderdom	-9.41563
▁mitralis	-9.41766
▁littekens	-9.418
▁500	-9.42121
▁maand	-9.42361
▁resten	-9.42432
▁onbekend	-9.42515
▁bepaling	-9.42524
▁gevuld	-9.42628
▁slokdarm	-9.42647
▁blijft	-9.42834
▁multifocaal	-9.42852
toevalsbevinding	-9.43005
▁lymfocyten	-9.43151
▁circumflexus	-9.43239
▁candida	-9.43399
aanvullend	-9.43447
▁coeur	-9.43654
"	-9.43741
▁aanwezige	-9.43786
▁hierover	-9.43956
▁bron	-9.44036
retroperitoneaal	-9.44076
▁diverticulose	-9.44097
▁virale	-9.4417
▁dysplastische	-9.44201
▁tumorweefsel	-9.44287
▁degeneratie	-9.44356
▁haardjes	-9.44364
▁opnieuw	-9.44364
▁subendocardiaal	-9.44589
▁geboren	-9.44837
▁splenitis	-9.44848
▁peritoneum	-9.45038
normaal	-9.45167
20	-9.45188
▁oor	-9.45399
▁huisarts	-9.45448
▁braken	-9.45595
▁cor	-9.45679
▁cholelithiasis	-9.46109
triumfibrilleren	-9.46128
onderzoek	-9.46207
▁beperkt	-9.46318
▁lymfangitis	-9.46374
▁uitgevoerd	-9.46417
▁gedaan	-9.46485
▁superficiele	-9.46608
▁celrijk	-9.46983
lokalisatie	-9.4713
▁pancreaskop	-9.47195
▁net	-9.4721
▁radiotherapie	-9.47307
▁contact	-9.4747
nummer	-9.47594
▁val	-9.47601
▁kras	-9.47707
▁ventrikels	-9.47775
▁doorbraak	-9.47837
▁75	-9.47952
▁uitgaande	-9.48104
▁onderliggende	-9.48122
▁dermatofibroom	-9.48168
▁rand	-9.4824
▁bacteriele	-9.48262
uterusextirpatie	-9.48266
▁talrijke	-9.48286
▁verschillende	-9.48307
▁vernauwing	-9.48336
▁systemische	-9.48382
▁verslechtering	-9.48417
▁*******:	-9.48446
▁ureter	-9.48627
▁voornaam	-9.4867
▁buikpijn	-9.48868
▁defect	-9.48947
▁gebruik	-9.49174
▁gespeeld	-9.49195
▁betekenis	-9.49201
cellymfoom	-9.49364
▁stroma	-9.49382
▁"	-9.4951
▁hippocampus	-9.49709
▁onwel	-9.49877
▁navelstreng	-9.50097
beeld	-9.5012
▁bifurcatie	-9.50161
▁afgenomen	-9.50253
▁appendix	-9.50298
▁splenomegalie	-9.50308
▁73	-9.50509
▁oestrogeen	-9.50514
▁anastomose	-9.50637
▁auto	-9.50668
▁74	-9.50671
▁aureus	-9.50806
▁duiden	-9.50985
▁0,5	-9.51102
▁dorsaal	-9.51113
▁dementie	-9.51306
▁linkerlong	-9.51613
▁duodenumbiopten	-9.51629
▁mediale	-9.51631
▁hyper	-9.51635
▁direct	-9.51688
▁onderzocht	-9.51862
▁classificeren	-9.51992
▁vlokatrofie	-9.51995
▁barrett	-9.52322
▁tamponade	-9.52358
▁ingezet	-9.52389
▁folliculair	-9.52456
▁regio	-9.52535
▁lipoom	-9.52537
▁the	-9.52566
8	-9.52578
▁meningitis	-9.53113
tumor	-9.53147
▁drietaks	-9.53209
▁tubulusnecrose	-9.53368
▁communis	-9.53495
▁trombi	-9.53537
▁cysten	-9.53713
▁pleuraholte	-9.5387
▁naadlekkage	-9.53933
▁vervolgens	-9.54053
▁truncus	-9.5407
▁alzheimer	-9.54082
▁portale	-9.5411
pa	-9.54166
▁achtergrond	-9.54405
▁wisselende	-9.54413
▁coli	-9.54443
▁beschouwd	-9.54607
▁recidiverende	-9.54718
▁onderwand	-9.54729
▁af	-9.54819
▁nr	-9.54841
▁72	-9.54963
▁necrotische	-9.55016
▁tegen	-9.55093
-1	-9.55331
▁schimmels	-9.55387
heid	-9.55449
▁cholecystitis	-9.55583
▁nodus	-9.55628
▁beschadiging	-9.55776
▁23	-9.55854
▁cardio	-9.55936
▁binnen	-9.55977
▁lage	-9.56074
▁veranderd	-9.56132
▁invasiediepte	-9.56201
▁77	-9.56228
▁zelf	-9.56291
▁leukemie	-9.56321
▁atelectase	-9.56356
▁moment	-9.56366
▁samengevat	-9.56426
▁buikwand	-9.56446
▁geval	-9.56562
▁terminaal	-9.56627
▁progesteron	-9.5663
klinisch	-9.56784
▁flank	-9.56819
▁mediaal	-9.56972
▁gestaakt	-9.57271
▁arrest	-9.57309
▁vriescoupe	-9.57407
▁subtotale	-9.5743
▁uw	-9.5762
▁79	-9.5764
▁gereanimeerd	-9.57699
6	-9.57811
▁vaso	-9.57838
▁69	-9.57843
▁dermis	-9.5785
▁ontstoken	-9.57852
nevenbevindingen	-9.5789
▁angio	-9.58013
▁afwezig	-9.58015
mm	-9.58097
▁stof	-9.58195
▁76	-9.58266
▁mogelijkheid	-9.58279
▁50	-9.58286
▁lokaal	-9.58438
▁cirrhose	-9.58748
▁bloedvaten	-9.58756
▁slijm	-9.58815
▁krap	-9.5895
▁tumoren	-9.58955
?)	-9.59108
veranderingen	-9.59201
▁ulcera	-9.59205
▁maagantrum	-9.59393
▁bloederig	-9.59527
▁leverfalen	-9.59602
▁infectieuze	-9.59647
▁verlies	-9.59743
▁plots	-9.59768
▁65	-9.59817
▁casus	-9.59855
▁nadere	-9.59928
▁maximaal	-9.59991
▁coronairvaten	-9.60026
▁hierna	-9.60078
▁gewichten	-9.60098
▁68	-9.60153
▁malaise	-9.60161
▁maceratie	-9.60166
▁pacemaker	-9.60184
▁78	-9.60192
▁pipelle	-9.60381
▁hypotensie	-9.6045
squameuze	-9.60562
▁low	-9.60566
▁risico	-9.60576
▁pr	-9.60596
▁teken	-9.60603
▁gehad	-9.60604
▁geconstateerd	-9.6062
▁vele	-9.60761
▁aspergillus	-9.60776
▁icterus	-9.60934
▁classificatie	-9.60948
?).	-9.61071
▁langdurige	-9.61265
▁aspecifieke	-9.61289
▁ruiterembolus	-9.6142
▁waaronder	-9.61429
▁vasculaire	-9.61508
▁ging	-9.61563
▁braf	-9.61572
een	-9.61592
▁sub	-9.61678
▁kleppen	-9.61746
▁amenorroeduur	-9.61816
▁60	-9.62058
▁concordant	-9.62095
diagnosen	-9.62115
▁occipitaal	-9.62126
▁massaal	-9.62127
▁infiltratiev	-9.62127
microscopisch	-9.62293
▁uitspraak	-9.62394
▁organisatie	-9.62412
aortaklepstenose	-9.6246
▁pons	-9.62464
▁interna	-9.62529
▁adipeuze	-9.62543
▁anemie	-9.62689
▁300	-9.62719
meer	-9.62803
▁67	-9.62913
▁perivasculaire	-9.62915
▁71	-9.63045
▁kwam	-9.63092
▁ventrikelwand	-9.63106
▁max	-9.6327
▁thoracaal	-9.63412
▁spierweefsel	-9.63462
cin	-9.63528
infarct	-9.63579
▁huidstukje	-9.63599
▁concentrische	-9.63691
▁liquor	-9.63762
▁pas	-9.63832
▁differentiatie	-9.6415
▁cardiac	-9.64251
▁centrale	-9.64591
▁wijzen	-9.64628
uterien	-9.64857
graad	-9.64908
▁81	-9.64922
▁voldoende	-9.64982
▁tgv	-9.65007
▁komen	-9.65008
▁problematiek	-9.65046
▁82	-9.65065
▁fibrineuze	-9.65156
▁basaal	-9.65293
▁blijken	-9.65301
▁amyloidose	-9.65322
▁preparaat	-9.6545
▁bleken	-9.65475
▁ander	-9.65921
▁apex	-9.65966
▁zo	-9.66017
▁vragen	-9.66062
▁transmurale	-9.66069
type	-9.6613
7	-9.66155
conclusie	-9.66181
parenchymateuze	-9.66215
▁3-	-9.66368
▁verkregen	-9.66372
▁calcificaties	-9.66911
▁vliezen	-9.67022
▁afwijkende	-9.67044
▁gepaard	-9.67093
▁hulp	-9.67151
▁level	-9.67235
▁neurologische	-9.67311
▁voorlopig	-9.67448
16	-9.67474
▁100	-9.67553
▁panel	-9.67626
▁hooggradige	-9.67789
▁grotendeels	-9.67812
▁choledochus	-9.68185
▁resectieranden	-9.68192
▁kleinere	-9.6832
▁lymfeklier	-9.68393
▁200	-9.68431
▁sneevlak	-9.68484
▁bestaand	-9.68488
▁fistel	-9.68683
▁intreden	-9.68899
▁plasmacellen	-9.68907
▁vitaal	-9.68928
▁cava	-9.69042
▁complicaties	-9.69042
▁posterior	-9.69057
▁origo	-9.69063
▁cerebellaire	-9.69211
▁echo	-9.69279
▁morfologische	-9.69279
▁alcohol	-9.69337
▁haemorrhagisch	-9.69394
necrose	-9.69428
▁vorming	-9.6943
▁bacterien	-9.6957
▁mutaties	-9.69627
▁onderbuik	-9.6969
▁hypovolemische	-9.69736
▁cardiogene	-9.69817
▁stolling	-9.69852
▁vlak	-9.69955
▁66	-9.69977
10	-9.69998
▁presenteerde	-9.70029
▁aangezien	-9.70125
▁struma	-9.7023
tumorlokalisatie	-9.70309
▁parietaal	-9.70436
achterwand	-9.70483
▁bloedingsfocus	-9.70521
▁levermetastasen	-9.70688
▁relatie	-9.71134
▁evenmin	-9.71165
▁mesothelioom	-9.71259
▁mohs	-9.71299
▁infiltraten	-9.71348
▁aangegeven	-9.71377
▁aankleuring	-9.71475
▁transmuraal	-9.71508
▁etiologie	-9.71516
▁geplaatst	-9.71918
▁stenoserende	-9.71951
z	-9.71999
▁vi	-9.7206
▁vastgestelde	-9.72495
▁progressief	-9.72511
▁laaggradig	-9.72512
▁arm	-9.72531
▁disease	-9.72546
▁daarin	-9.72553
▁bleke	-9.72864
▁hypoxische	-9.72997
retroperitoneale	-9.73093
▁hemangioom	-9.73127
▁verkalkingen	-9.73241
▁gevolgd	-9.73311
▁subarachnoidale	-9.73331
▁leiomyoom	-9.73652
▁dna	-9.73736
▁foetale	-9.73834
▁sprieterige	-9.73848
aortaal	-9.73986
▁hemisfeer	-9.73997
▁besproken	-9.74049
▁ischemisch	-9.7411
▁moeilijk	-9.74158
▁laesies	-9.74285
longen	-9.74521
▁hooguit	-9.74591
▁pericardvocht	-9.74679
▁middenkwab	-9.74805
53	-9.74824
▁epitheliale	-9.74855
▁komt	-9.74859
▁pulmonaal	-9.74926
▁400	-9.75086
▁genen	-9.75108
▁beste	-9.75355
▁endocervicale	-9.75367
▁langs	-9.7541
▁85	-9.75415
▁coronaria	-9.75483
▁appendicitis	-9.75496
▁verklevingen	-9.7561
▁representatief	-9.75731
▁bestaat	-9.75862
▁verlittekening	-9.75904
▁evident	-9.75913
▁maten	-9.76005
ter	-9.76029
▁oorzaken	-9.76033
▁benen	-9.76067
▁vraagstelling	-9.76134
▁8.	-9.76146
▁cmv	-9.7615
▁trauma	-9.7615
niercelcarcinoom	-9.76202
▁ostium	-9.76254
▁gezichtspunten	-9.76376
afwijkingen	-9.76433
pcl	-9.76448
▁hierdoor	-9.76566
▁inferior	-9.7658
▁uitbreidend	-9.76585
▁cysteuze	-9.76726
▁tumorproces	-9.76754
▁microbiologisch	-9.76754
dat	-9.76792
▁dcis	-9.77048
▁basocellulair	-9.77069
▁gerelateerd	-9.77079
▁gaat	-9.77193
existente	-9.77243
▁1:	-9.77273
▁83	-9.7729
▁bovenbuik	-9.77305
▁geopereerd	-9.7735
▁overlijdt	-9.77421
weefsel	-9.77496
▁evenals	-9.77609
▁maaginhoud	-9.77618
▁aanvankelijk	-9.77771
▁buiten	-9.77791
▁grootste	-9.77816
▁fibro	-9.7798
uit	-9.78002
▁verbloeding	-9.78018
▁longweefsel	-9.78043
▁ok	-9.78099
▁duodeni	-9.78119
▁bovendien	-9.78121
▁haematoom	-9.78137
▁metastatisch	-9.78157
▁cardiovasculair	-9.78416
lijmvliesbiopten	-9.78485
is	-9.78728
▁28	-9.78761
metastase	-9.78848
▁sereus	-9.78886
▁care	-9.78962
▁muscularis	-9.79001
▁zwangerschap	-9.79047
▁aanduiding	-9.79187
▁et	-9.79213
▁26	-9.79229
▁64	-9.79285
▁fibroserende	-9.79366
▁negatieve	-9.79418
▁algemene	-9.79538
▁40	-9.79615
▁pigment	-9.79616
▁62	-9.79776
▁r	-9.79815
▁onbekende	-9.79867
▁omdat	-9.79932
▁takken	-9.80009
▁aldaar	-9.80069
▁fibrine	-9.80075
▁laparotomie	-9.80136
risico	-9.80265
▁beoordeeld	-9.80295
▁druk	-9.80451
w	-9.80454
▁50%	-9.80482
▁hand	-9.80627
▁350	-9.80764
▁kahler	-9.80823
▁grotere	-9.8092
▁bijvoorbeeld	-9.80941
mogelijk	-9.80955
▁uitgenomen	-9.80972
▁vetnecrose	-9.81017
▁voet	-9.8103
▁63	-9.81098
▁opnemen	-9.81147
▁naaldbiopt	-9.8122
▁circulatoire	-9.81224
▁cin	-9.81248
▁knie	-9.81248
▁naad	-9.81277
▁gen	-9.81283
▁anteroseptaal	-9.81354
▁ribfracturen	-9.81355
el	-9.81367
▁bijna	-9.81524
▁obv	-9.81573
▁nefrectomie	-9.81708
▁stolsel	-9.81769
▁cervixbiopt	-9.82019
hpv	-9.82048
lever	-9.82072
▁lymfeklieren	-9.82193
▁propria	-9.82252
▁circulair	-9.82255
▁seh	-9.82425
▁cystitis	-9.8245
▁afgesloten	-9.82606
▁collaps	-9.82638
▁thoraxwand	-9.82669
▁medicatie	-9.82798
▁lymfadenopathie	-9.828
▁bevond	-9.82872
▁urosepsis	-9.82974
▁beenmergbiopt	-9.82999
▁regressie	-9.83014
▁longparenchym	-9.83019
ed	-9.83041
▁bedraagt	-9.83158
▁prognose	-9.83169
orgaan	-9.832
▁pus	-9.83305
▁lekkage	-9.83339
▁gesteld	-9.83383
▁rectosigmoid	-9.83433
▁interne	-9.83533
▁verslechterde	-9.83569
▁hepato	-9.83726
▁ontwikkeling	-9.83726
▁sarcoidose	-9.83727
▁juist	-9.8376
tweetal	-9.83856
▁84	-9.83889
▁(1	-9.83895
▁bot	-9.83998
▁arteriele	-9.84163
▁adipositas	-9.84299
▁gaan	-9.84386
▁nabij	-9.84428
▁vinden	-9.84467
▁ventraal	-9.84531
▁slaap	-9.84531
▁periode	-9.84552
▁gelaat	-9.84584
06	-9.85092
▁glomeruli	-9.85217
den	-9.8537
▁plaatsing	-9.85384
▁output	-9.85424
▁rcx	-9.8545
▁niveau	-9.85507
▁cholestase	-9.85595
▁alcoholabusus	-9.856
▁pinpoint	-9.85645
se	-9.85783
▁heup	-9.85862
▁;	-9.85885
▁ovaria	-9.85984
▁effect	-9.86054
q	-9.86078
▁teruggevonden	-9.86158
▁nb	-9.86227
▁bevindt	-9.86348
▁bilateraal	-9.86364
▁lentigo	-9.86365
▁aannemelijk	-9.86387
▁stenosering	-9.86465
▁micronodulaire	-9.86477
ale	-9.86636
▁kunt	-9.8673
▁pathogene	-9.86752
▁geassocieerd	-9.86777
▁nek	-9.86865
▁pcr	-9.86878
▁hierop	-9.86961
▁ontwikkeld	-9.87093
▁fibrosering	-9.87223
▁vrije	-9.8724
▁instabiele	-9.87392
▁ruimte	-9.87525
▁inhoud	-9.87739
▁folliculitis	-9.87754
▁aard	-9.87827
▁korte	-9.87916
▁geruptureerde	-9.87926
▁kapsel	-9.87983
hart	-9.88006
▁trad	-9.88275
▁ibd	-9.88312
▁adnex	-9.88314
.^^	-9.88323
▁cho	-9.88347
▁vijf	-9.88515
▁epidermis	-9.88628
▁belangrijk	-9.88649
▁nauwelijks	-9.88672
▁stress	-9.88727
▁diarree	-9.88871
▁actief	-9.88881
▁bdz	-9.88882
cc	-9.88923
▁lobulair	-9.88929
▁passende	-9.88935
intestinale	-9.88969
▁oog	-9.89006
▁afsluitende	-9.89126
▁0	-9.89152
▁adhesies	-9.89202
▁laten	-9.89349
▁longembolien	-9.89349
▁hb	-9.89522
▁informatie	-9.89584
▁intensive	-9.89646
▁pyelum	-9.89732
▁150	-9.89779
▁zullen	-9.8984
rest	-9.90003
▁centrum	-9.90131
▁tuba	-9.90234
▁lymfoide	-9.90343
▁leverde	-9.90534
▁cirrose	-9.90661
▁beademing	-9.90674
▁minimaal	-9.90735
▁circumflex	-9.90757
▁onderzochte	-9.90841
▁persisterende	-9.90863
▁ongewijzigd	-9.90882
▁optreden	-9.90947
▁metabole	-9.91048
▁%	-9.91091
▁papilloom	-9.91138
▁randen	-9.91443
▁omgevend	-9.91534
▁uteri	-9.9154
▁stroomgebied	-9.91645
▁61	-9.91792
▁compleet	-9.91835
▁coronairsysteem	-9.91864
1,	-9.91916
▁structuren	-9.91939
▁beslag	-9.91979
▁profiel	-9.92129
▁anus	-9.9213
▁sinus	-9.92187
▁longbeeld	-9.92214
dometriumpoliep	-9.92269
▁corticale	-9.92292
sverschijnselen	-9.92395
▁29	-9.92502
▁(2	-9.92548
▁uitsluitend	-9.92615
▁nigra	-9.92871
▁staat	-9.93105
▁bloedstolsels	-9.93112
▁stenosen	-9.93184
▁58	-9.93234
▁lymfocytose	-9.93481
▁nierfalen	-9.93683
▁and	-9.93798
▁zone	-9.93834
▁hoofdstam	-9.93874
▁27	-9.9393
▁milde	-9.93972
▁stoma	-9.93992
▁ambulance	-9.94075
▁massa	-9.94081
▁fibreuze	-9.94093
▁staphylococcus	-9.94111
▁volgende	-9.94228
kleincellig	-9.94271
▁verzoek	-9.94281
▁aandoening	-9.94341
▁bulleus	-9.94537
▁fibrotische	-9.94551
▁lumpectomie	-9.94555
▁geeft	-9.94716
▁curettage	-9.94882
▁gedurende	-9.94917
▁consistentie	-9.95113
▁enigszins	-9.95329
2-	-9.95329
stwaarschijnlijk	-9.95368
▁dr	-9.95379
11	-9.95435
▁tubulovilleus	-9.95535
▁tezamen	-9.95632
gr	-9.95633
▁fish	-9.95729
▁crohn	-9.95974
▁diepte	-9.96116
▁secretariaat	-9.96156
▁lokalisaties	-9.96192
▁hemorragisch	-9.96221
▁gelokaliseerd	-9.96223
▁aangelegd	-9.96428
▁huidstansbiopt	-9.96454
lecystolithiasis	-9.96663
▁leek	-9.9679
▁hydronefrose	-9.96799
▁hernia	-9.96807
▁mucineus	-9.96856
▁renalis	-9.97025
rug	-9.97093
endocriene	-9.97129
▁longafwijkingen	-9.97138
▁verkleuring	-9.9714
▁soms	-9.97238
▁600	-9.97258
▁openen	-9.9729
08	-9.97329
▁(3	-9.97358
▁daarvan	-9.97436
▁radicaliteit	-9.97452
▁deposities	-9.97491
thorax	-9.9751
▁achteruit	-9.9755
▁gemetastaseerde	-9.97571
plaveiselcellige	-9.97601
oom	-9.97643
▁palliatief	-9.97649
▁toe	-9.97664
▁arteriolosclero	-9.97792
▁59	-9.97851
▁erosieve	-9.97863
▁stellen	-9.97892
▁ontstekingsrest	-9.97906
▁subcutis	-9.98042
▁situatie	-9.98141
▁afwezigheid	-9.98302
▁out	-9.98351
gen	-9.98364
▁cachectische	-9.98386
▁patroon	-9.9841
▁dikte	-9.9848
▁melaena	-9.98516
▁hepatocellulair	-9.98524
▁sigmoidresectie	-9.98575
▁klasse	-9.98584
nt	-9.98735
▁lumina	-9.98737
▁grafts	-9.98762
▁papillairspier	-9.98771
j	-9.98805
▁maken	-9.98848
▁intravasa	-9.98876
▁volgde	-9.98884
▁*******)	-9.98904
▁minuten	-9.98928
▁waaraan	-9.98932
▁hierboven	-9.98942
tische	-9.9897
▁urineblaas	-9.98983
▁verloop	-9.99118
pathologie	-9.9928
▁serosa	-9.9935
▁reexcisie	-9.99357
hmh	-9.99591
15	-9.99659
▁fractuur	-9.99666
▁thoracalis	-9.99797
▁functie	-9.99811
▁lokale	-9.99828
▁longfibrose	-9.99863
▁onderliggend	-9.99893
▁verandering	-10.0018
respiratoire	-10.0036
▁fibreus	-10.0048
▁activiteit	-10.0056
▁weer	-10.0059
▁alk	-10.0059
revisie	-10.0068
▁blokje	-10.0087
▁aanleggen	-10.009
▁thoraxholte	-10.0091
▁omgeving	-10.0111
▁holte	-10.0112
▁bijbehorend	-10.0112
▁multiple	-10.0115
decompensatie	-10.0122
▁dank	-10.0132
setting	-10.014
▁variant	-10.0141
▁neuropathologie	-10.0146
▁drain	-10.0148
▁dunnedarm	-10.0149
▁2:	-10.0157
▁gesuperponeerd	-10.0158
▁lastig	-10.0158
▁neusrug	-10.0171
▁hiermee	-10.0173
sreactie	-10.0187
▁chirurgie	-10.0192
▁varices	-10.0198
▁vulgaris	-10.02
▁telefonisch	-10.0206
▁aftakkingen	-10.0207
▁wond	-10.021
17	-10.0211
▁troebel	-10.0211
▁adnexen	-10.0212
▁lijken	-10.0223
▁classificerend	-10.0224
▁trivasculair	-10.0233
huidbiopt	-10.0243
▁aantoonbare	-10.0245
▁infectieus	-10.0245
▁vaat	-10.0247
sis	-10.0247
▁geboorte	-10.0264
▁intracerebrale	-10.0268
gebied	-10.0289
▁verwerkt	-10.0292
niet	-10.03
▁wisselend	-10.0301
▁compressie	-10.0319
▁expressie	-10.032
▁bleef	-10.0335
▁spongiotische	-10.0336
ad	-10.0361
▁hele	-10.0382
▁beginnend	-10.0398
▁lymfangio	-10.0406
u	-10.0409
03	-10.0423
▁onverwacht	-10.0424
▁musculus	-10.0429
▁myeloide	-10.0432
▁gevallen	-10.0434
▁toxisch	-10.0444
▁insufficient	-10.0453
▁nefropathie	-10.0458
▁duidend	-10.0462
▁macro	-10.0469
▁hiernaast	-10.0473
18	-10.0477
▁3,5	-10.0478
prothese	-10.0481
▁verkalking	-10.0493
▁darmlissen	-10.0495
▁hepatomegalie	-10.0497
▁hersen	-10.051
▁medulla	-10.0515
▁neuropatholoog	-10.0521
ritmestoornis	-10.0538
▁darmslijmvlies	-10.0539
▁herkenbaar	-10.054
▁lewy	-10.0543
▁patholoog	-10.0546
▁hemodynamische	-10.0561
▁neuronen	-10.0567
▁heldercellig	-10.0568
scan	-10.0575
04	-10.0576
▁hieraan	-10.0588
▁zes	-10.0594
▁rode	-10.06
▁leven	-10.0601
▁uiting	-10.0611
urineweginfectie	-10.062
▁huidshave	-10.0623
▁atypisch	-10.0627
▁complicatie	-10.0646
epitheel	-10.0651
▁giardia	-10.0656
▁aanvrager	-10.0656
▁grensvlak	-10.0657
▁luchtwegen	-10.0658
▁circulaire	-10.066
▁jejunum	-10.0662
▁verdachte	-10.0666
▁huidstans	-10.0698
existent	-10.0699
▁larynx	-10.0701
behaarde	-10.0703
▁inclusief	-10.0709
▁f	-10.0721
▁staken	-10.0727
▁vitale	-10.0733
▁externa	-10.0745
▁cerebraal	-10.0754
▁succesvol	-10.0761
9	-10.0761
splenomegalie	-10.0767
▁k	-10.0769
gie	-10.0781
▁86	-10.0783
cellen	-10.0803
▁belangrijke	-10.0823
▁derden	-10.0849
▁craniaal	-10.0859
pt	-10.0871
▁graag	-10.0873
aortale	-10.0907
▁dominant	-10.0913
▁bevat	-10.0915
▁nefrosclerose	-10.0916
▁verbetering	-10.0916
▁doorgankelijke	-10.0924
▁flow	-10.0932
on	-10.0939
▁mesenteriale	-10.0942
▁cachexie	-10.0945
▁operatiegebied	-10.095
▁node	-10.0956
▁ischaemisch	-10.0958
▁noemenswaardig	-10.0964
ar	-10.0965
▁dextra	-10.0966
2,	-10.0966
▁pseudomonas	-10.0967
▁punctaat	-10.0971
▁morfologie	-10.0972
▁subcutaan	-10.0992
klepvervanging	-10.0999
▁<	-10.1003
▁wellicht	-10.1014
▁hilus	-10.1015
▁57	-10.1018
▁astma	-10.1026
▁ruggenmerg	-10.1035
▁alhier	-10.1039
▁dermaal	-10.1043
▁papmilt	-10.1048
▁2000	-10.1055
▁correlatie	-10.1061
her	-10.1066
▁verhoornend	-10.1069
▁genomen	-10.107
▁kruin	-10.1071
▁coeliacus	-10.1086
▁extirpatie	-10.1088
▁ecg	-10.1089
▁typisch	-10.1091
▁leverparenchym	-10.1096
▁̄d	-10.1099
▁maart	-10.1103
hyperkeratotisch	-10.111
▁beeldvorming	-10.1121
▁bijbevinding	-10.113
▁hospital	-10.1133
▁schors	-10.1135
▁55	-10.1136
▁januari	-10.1137
li	-10.1141
ten	-10.1143
score	-10.1151
▁structurele	-10.1159
▁gedecompenseerd	-10.1161
▁geleden	-10.1162
skenmerken	-10.1168
▁bronchi	-10.1186
ergens	-10.1188
▁multipel	-10.1204
▁naden	-10.1205
gecompromitteerd	-10.1207
▁toegestaan	-10.1208
▁gekend	-10.1209
▁interstitieel	-10.1211
▁brein	-10.1215
▁aanleg	-10.1223
▁receptor	-10.1232
▁hyperkeratose	-10.1233
▁embolus	-10.1234
▁snelle	-10.1235
▁hydrothorax	-10.1235
▁stenen	-10.1239
▁j	-10.1239
▁mitraalklep	-10.1243
sch	-10.1244
▁gliose	-10.1258
▁opruimreactie	-10.1259
▁steatosis	-10.1259
▁aml	-10.127
▁embolie	-10.1275
▁spier	-10.1277
▁scheur	-10.1279
▁ruime	-10.1283
▁poliepen	-10.1285
▁leverfunctie	-10.1292
09	-10.1293
▁geel	-10.1303
▁geslacht	-10.1308
+	-10.1317
.(	-10.132
▁restlumen	-10.132
▁tel	-10.1329
▁reden	-10.1334
▁buikklachten	-10.1334
▁intradermale	-10.1335
▁epicard	-10.1335
▁orgaan	-10.1369
▁wervel	-10.1371
positieve	-10.1378
um	-10.1379
supraclaviculair	-10.1383
▁aankomst	-10.1384
▁leverhilus	-10.1392
▁fragment	-10.1399
auriculair	-10.1404
▁klier	-10.1409
intracraniele	-10.141
▁lange	-10.141
vorming	-10.1411
▁51	-10.1421
chorioamnionitis	-10.1435
▁inflammatoire	-10.145
▁ondergaan	-10.1459
▁schimmel	-10.146
*******/	-10.1466
▁resultaat	-10.1469
sclerose	-10.1482
▁dehydratie	-10.1489
▁overwegingen	-10.1491
▁kg	-10.15
▁bevatten	-10.1508
▁gecollabeerd	-10.1528
ranulatieweefsel	-10.1528
▁vertakkingen	-10.1541
▁respons	-10.1541
▁tau	-10.1567
▁dissociatie	-10.1585
▁inspectie	-10.1585
▁90	-10.1587
▁ascitesvocht	-10.1587
▁segment	-10.1596
▁atrofisch	-10.1606
▁intacte	-10.161
negatief	-10.1622
▁helft	-10.1629
▁vond	-10.1631
▁aa	-10.1636
▁hersenoedeem	-10.1637
▁granuloma	-10.1641
30	-10.1647
hodgkin	-10.1661
▁globale	-10.1663
▁mid	-10.1664
▁lab	-10.1664
maligniteit	-10.1674
14	-10.1677
voorwand	-10.1687
▁overgeplaatst	-10.1688
▁lisexcisie	-10.1699
lab	-10.1716
▁geirriteerde	-10.1722
jw	-10.1725
▁45	-10.1726
▁laboratorium	-10.1726
▁problemen	-10.1744
▁architectuur	-10.1745
▁neoplasie	-10.1747
▁acuta	-10.1766
▁epilepsie	-10.1768
operatie	-10.1771
▁co	-10.1784
▁onderlip	-10.1804
▁thalamus	-10.1806
1;	-10.1808
▁enterococcus	-10.182
▁maagcorpus	-10.1829
ecompromitteerde	-10.1833
▁plaatsgevonden	-10.1844
▁fibroadenoom	-10.1845
▁steatohepatitis	-10.1846
▁literatuur	-10.1846
▁gerelateerde	-10.1852
▁overeen	-10.1853
▁letsel	-10.1855
▁herstel	-10.1859
▁overvulling	-10.1861
▁coeliakie	-10.1871
▁doorsnijdingen	-10.1872
▁cll	-10.1879
▁2-	-10.1882
coronairlijden	-10.1884
▁ingenomen	-10.1886
st	-10.1888
▁56	-10.1889
▁ngs	-10.1894
▁exacerbatie	-10.1899
▁diabetische	-10.1903
an	-10.1916
▁verkleefd	-10.1919
▁gemaakt	-10.1925
▁caudaal	-10.1939
▁tepel	-10.1959
▁87	-10.1974
▁ulcerosa	-10.1977
▁heb	-10.198
▁verkalkte	-10.1982
▁tumorvrij	-10.2001
▁diverticulosis	-10.2005
▁hartfunctie	-10.2005
▁rood	-10.2018
▁800	-10.2028
▁sinistra	-10.203
▁extranodale	-10.203
▁adenomateuze	-10.2034
▁feit	-10.2036
coli	-10.2052
▁spreidend	-10.2057
▁spoedeisende	-10.2057
▁myometrium	-10.2059
▁retroperitoneum	-10.2059
▁cel	-10.2062
▁54	-10.2077
▁klieren	-10.2079
▁vernauwd	-10.208
ehalve	-10.2084
▁opgestuurd	-10.2088
▁darmwand	-10.2089
▁huidbiopten	-10.2095
▁zijdigheid	-10.2102
ediagnosticeerde	-10.2119
infectie	-10.212
▁amplificatie	-10.2129
▁bevestiging	-10.2139
▁handrug	-10.2152
▁beelden	-10.2156
▁immuno	-10.2167
▁stansbiopt	-10.2169
▁hartstilstand	-10.2173
▁verzocht	-10.2192
▁nee	-10.2194
▁neusvleugel	-10.2203
▁antistolling	-10.2208
▁bloederige	-10.2209
gediagnosticeerd	-10.2211
▁250	-10.2212
▁creutzfeldt	-10.2221
mechanische	-10.2231
▁kond	-10.2237
reactie	-10.2238
▁schedel	-10.2251
▁diam	-10.2252
▁nefritis	-10.2252
▁vegetaties	-10.2253
huidexcisie	-10.2256
immuun	-10.226
▁genetisch	-10.2276
▁station	-10.2291
▁planus	-10.2302
▁cardiomyocyten	-10.2302
▁wijst	-10.2304
waarschijnlijk	-10.2305
exon	-10.2307
▁hemorrhagische	-10.2311
▁men	-10.2314
bloeding	-10.2315
▁amputatie	-10.232
▁ribben	-10.2332
▁myocardischemie	-10.2333
▁mammaweefsel	-10.2336
▁atrofische	-10.2339
▁achterhalen	-10.2357
voedingstoestand	-10.2357
▁pneumothorax	-10.2363
proliferatie	-10.2367
▁lang	-10.2368
▁valt	-10.2371
▁700	-10.2383
▁lucht	-10.2386
▁anti	-10.24
▁staan	-10.2407
1/	-10.2419
▁hoofdbronchus	-10.242
▁48	-10.2426
cbd	-10.2436
▁longkwabben	-10.2441
▁lobectomie	-10.2441
sub	-10.2445
▁shocknieren	-10.2448
▁divertikel	-10.2464
▁aanspreekbaar	-10.2465
▁correleren	-10.2468
▁postoperatieve	-10.2468
▁purulent	-10.247
▁parotis	-10.2473
▁dorsale	-10.2476
onwaarschijnlijk	-10.2491
2/	-10.2498
▁parkinson	-10.2499
specifieke	-10.25
▁verwijd	-10.2511
stoornis	-10.2517
▁geperforeerde	-10.252
▁ulcererend	-10.2524
01	-10.2524
▁fraai	-10.2525
▁subduraal	-10.2525
▁squameus	-10.2526
▁uiteinden	-10.2532
▁bloedinkjes	-10.2535
▁35	-10.2538
▁be	-10.2544
▁langdurig	-10.2552
▁pericardholte	-10.2553
▁complete	-10.2555
▁stoornissen	-10.2557
▁atherosclerosis	-10.256
▁variatie	-10.2562
▁verdikte	-10.2568
▁31	-10.2575
13	-10.2577
▁w	-10.258
▁oblongata	-10.258
▁ernst	-10.2585
▁sarcoom	-10.2597
▁longemboli	-10.2598
▁compact	-10.2599
amputatie	-10.2599
adequate	-10.2609
▁denken	-10.2613
▁aortadissectie	-10.2616
▁49	-10.2616
▁ttf	-10.2631
▁subcutane	-10.2635
▁slijmvormend	-10.2639
▁gecombineerd	-10.2641
▁zogenaamd	-10.2644
zijdigheid	-10.2647
▁sentinel	-10.2653
▁waarschijnlijke	-10.2654
▁plotselinge	-10.2656
▁papil	-10.2671
▁rib	-10.2674
▁wijzend	-10.2676
▁verwijde	-10.2684
▁hepatis	-10.2694
▁haardje	-10.2694
▁neurologisch	-10.2698
▁palliatie	-10.2699
▁cholangitis	-10.2702
lad	-10.271
ectomie	-10.2715
▁evenwel	-10.2723
▁galstenen	-10.2726
▁infiltratief	-10.2731
▁kuit	-10.2731
▁romp	-10.2733
▁arts	-10.2742
▁wenkbrauw	-10.2749
onder	-10.275
▁histologie	-10.2756
▁immuun	-10.2766
wand	-10.2781
▁discrete	-10.2782
▁nagenoeg	-10.2783
▁april	-10.2787
▁plaveisel	-10.28
▁willis	-10.2803
▁levercelverval	-10.281
▁terug	-10.2816
▁verval	-10.2818
▁mei	-10.2822
▁zondermeer	-10.2822
▁thymus	-10.2845
▁ingesloten	-10.285
▁ouder	-10.2862
coupes	-10.2866
▁cavum	-10.2869
▁veranderde	-10.287
▁grootte	-10.289
▁ligt	-10.2897
▁uiteinde	-10.2903
at	-10.291
▁betreffen	-10.291
je	-10.292
▁afmeting	-10.2924
▁petechien	-10.2929
▁celarm	-10.2929
ewel	-10.2932
▁huidresectie	-10.2938
gediagnostiseerd	-10.2946
ge	-10.2951
alveolaire	-10.2954
▁betrekking	-10.2955
▁oesofagitis	-10.2959
▁posteroseptaal	-10.296
▁tpv	-10.2969
▁urotheel	-10.297
▁levert	-10.2971
▁immature	-10.2986
▁papillaire	-10.2992
▁transplantatie	-10.3003
▁voorkomen	-10.3008
▁36	-10.3027
▁rechtszijdig	-10.3047
▁forward	-10.3047
▁achterste	-10.3051
▁th	-10.3066
▁ureteren	-10.3067
02	-10.3071
▁cysteus	-10.3084
▁dezelfde	-10.3085
▁76-	-10.3093
▁basilaris	-10.3108
▁9.	-10.3112
ktegeschiedenis	-10.3116
▁vaak	-10.3133
▁li	-10.3135
▁path	-10.3145
▁resterende	-10.3158
▁rectumcarcinoom	-10.316
▁partus	-10.3164
▁substantia	-10.3165
▁influx	-10.3166
00	-10.317
23	-10.3185
verantwoordelijk	-10.3193
▁acidose	-10.3198
▁bovengenoemde	-10.3198
▁broncho	-10.3207
ng	-10.321
▁(4	-10.322
▁beschouwen	-10.3223
sepsis	-10.3238
▁derde	-10.324
▁thv	-10.3242
▁lienalis	-10.3253
▁infaust	-10.3255
▁darmischaemie	-10.3255
▁februari	-10.3257
▁samenhangend	-10.326
▁kwabben	-10.3261
▁der	-10.3271
▁instabiel	-10.3272
▁hemodynamisch	-10.3287
▁bil	-10.3299
▁70-	-10.331
▁74-	-10.331
diagnose	-10.3315
▁hr	-10.3316
▁gedeelte	-10.332
▁berust	-10.332
▁pleuraholten	-10.3324
▁maagresectie	-10.3336
▁sneevlakken	-10.3338
ide	-10.3347
▁sternum	-10.3348
▁posterolateraal	-10.3348
▁gleasonscore	-10.336
helaas	-10.3375
▁instabiliteit	-10.3379
▁merg	-10.3392
▁hepatica	-10.3406
▁anaplastisch	-10.3408
▁hypoxisch	-10.3411
▁2,	-10.3411
▁voorwandinfarct	-10.3417
▁1000	-10.3418
anat	-10.3421
▁angiopathie	-10.3428
▁73-	-10.3433
▁bevestigen	-10.3436
▁endocervicaal	-10.3439
▁lumbaal	-10.3448
▁agonale	-10.3449
▁rechternier	-10.345
▁eindstadium	-10.3473
▁52	-10.3487
▁+/-	-10.3496
▁vaatwand	-10.3496
▁pleurale	-10.3504
▁hersenbloeding	-10.3504
▁wie	-10.3505
▁geperforeerd	-10.3505
▁fatty	-10.3512
▁relevante	-10.3523
▁min	-10.3528
▁vaatjes	-10.3533
▁abcessen	-10.3539
filtratiediepte	-10.3552
taks	-10.3553
▁anatomisch	-10.3575
▁plak	-10.3588
▁progressie	-10.359
▁simplex	-10.3592
▁psoriasis	-10.3593
vi	-10.3594
▁bewustzijn	-10.3595
▁infect	-10.3597
▁frontale	-10.3598
▁ruimten	-10.36
▁atria	-10.3604
▁lobaire	-10.3604
▁doorsneden	-10.3609
maximale	-10.3613
▁testis	-10.3621
▁obesitas	-10.3623
▁backward	-10.3627
▁destructie	-10.3628
▁kin	-10.3631
▁blasten	-10.3637
▁volume	-10.3649
▁lv	-10.3658
▁oesophagitis	-10.3659
▁locatie	-10.3661
▁angina	-10.3664
▁verminderd	-10.3678
▁ontstane	-10.3686
▁streaks	-10.3687
▁tak	-10.3691
▁flexura	-10.3697
▁setting	-10.3708
▁stam	-10.3714
▁factor	-10.3715
▁hersenarterien	-10.3718
▁tumorload	-10.3718
▁stuwingsbeeld	-10.372
▁celrijke	-10.373
19	-10.3739
▁plotse	-10.3741
abdominale	-10.3741
maal	-10.3748
▁subacute	-10.3753
▁breslow	-10.376
▁vagina	-10.3763
▁stollings	-10.3766
rwijl	-10.3766
▁verwekker	-10.377
van	-10.377
▁alcoholische	-10.3773
▁pols	-10.3779
▁hadden	-10.3787
consult	-10.3791
▁groep	-10.3795
▁uitval	-10.3797
▁erfelijke	-10.3801
fragmenten	-10.3802
▁mechanische	-10.3802
▁ooghoek	-10.3807
1.	-10.3809
▁kind	-10.3809
ende	-10.3811
▁with	-10.3814
▁hydrocephalus	-10.3814
▁dicht	-10.3818
▁pneumoniae	-10.3837
▁consultatie	-10.3848
▁aortaboog	-10.3851
▁harthypertrofie	-10.386
▁prominente	-10.3863
▁darmperforatie	-10.387
▁patia	-10.3878
▁lima	-10.3879
▁dysmorfe	-10.3879
▁oorschelp	-10.3888
▁bestraling	-10.3891
▁mediaan	-10.3903
▁context	-10.391
antrum	-10.3917
uitslag	-10.3923
▁positiviteit	-10.3926
▁abusus	-10.3929
▁middel	-10.3929
resectievlak	-10.3931
▁onderscheid	-10.3933
eeds	-10.3934
▁kleur	-10.3935
▁detrusor	-10.3945
▁dubieus	-10.3947
▁aantasting	-10.395
omtrent	-10.397
▁parietalis	-10.3975
▁zin	-10.3976
21	-10.3978
ct	-10.3978
▁december	-10.3978
▁hypoplasie	-10.398
▁gefragmenteerd	-10.3985
▁67-	-10.3985
▁900	-10.3989
multiorgaanfalen	-10.3991
▁gaande	-10.4
▁behulp	-10.4007
▁faecale	-10.401
▁longlijden	-10.4011
▁juni	-10.4013
▁keratine	-10.4015
▁axilla	-10.4018
▁>	-10.4023
▁cristabiopt	-10.4036
▁jonge	-10.4037
▁onderrug	-10.4038
▁hematopoese	-10.404
▁editie	-10.404
▁gelocaliseerd	-10.4041
▁interpretatie	-10.4041
▁simpele	-10.4041
▁75-	-10.4045
▁subclavia	-10.4046
▁typering	-10.4053
▁belang	-10.4073
klierdissectie	-10.4077
▁mesenteriaal	-10.4078
▁verwijding	-10.4096
▁urethra	-10.4105
▁90%	-10.4106
▁vervetting	-10.4109
embolie	-10.411
▁maagperforatie	-10.4111
▁suspect	-10.4112
▁seniele	-10.4117
▁1,2	-10.4119
▁peritoneale	-10.412
circa	-10.4133
▁myeloom	-10.4139
▁mediastinaal	-10.4144
▁voorste	-10.4148
▁78-	-10.4153
▁vraag	-10.4158
▁maagcarcinoom	-10.4169
▁verschijnselen	-10.4171
34	-10.4184
▁georganiseerde	-10.4189
▁dialyse	-10.4196
▁hartdood	-10.4206
▁maligna	-10.4207
▁geinfecteerde	-10.4212
▁magere	-10.4213
positief	-10.4221
▁bovenlip	-10.4221
▁53	-10.4222
▁divertikels	-10.4226
▁tenslotte	-10.4238
▁collega	-10.424
▁november	-10.4241
▁waarme	-10.4247
rechteronderkwab	-10.4264
▁restant	-10.4272
▁vasculopathie	-10.4275
▁oktober	-10.4276
▁lymfo	-10.4276
▁redelijk	-10.4281
▁scapula	-10.4282
▁externe	-10.4302
▁virus	-10.4302
▁whipple	-10.4309
max	-10.431
▁femoralis	-10.431
▁88	-10.4311
punctie	-10.4316
▁top	-10.4325
istomorfologisch	-10.4328
▁afgezien	-10.4339
broekprothese	-10.4343
▁vermoeden	-10.4344
▁ck	-10.4347
▁bijschildklier	-10.4358
▁speekselklier	-10.4369
▁augustus	-10.4377
long	-10.4389
▁resp	-10.4395
▁alho	-10.4403
▁excisiebiopt	-10.4407
▁sclerosus	-10.4409
▁opzichte	-10.4411
▁81-	-10.4416
endocrien	-10.4416
▁maakt	-10.4419
▁77-	-10.4427
embolus	-10.4441
▁amenorrhoeduur	-10.4441
▁misselijkheid	-10.4442
▁4,5	-10.445
▁histopatholog	-10.4453
▁corpustype	-10.4461
▁overweging	-10.4468
▁lymfogene	-10.4475
▁membranen	-10.4479
▁juli	-10.448
syndroom	-10.4495
▁doen	-10.4503
▁lichaamssectie	-10.4509
paraneoplastisch	-10.4516
▁bloedkweek	-10.4518
▁who	-10.4519
deels	-10.4528
▁glandulaire	-10.4531
▁leverbiopt	-10.4537
▁ieder	-10.4543
▁controle	-10.4548
myocardischaemie	-10.4548
▁vermoedelijke	-10.4551
enkele	-10.4558
▁tumorhaarden	-10.4559
▁pin	-10.4575
betrouwbare	-10.4578
hals	-10.4584
coronairarterie	-10.4587
aal	-10.4588
▁geobjectiveerd	-10.4588
▁intima	-10.4602
▁translocatie	-10.4607
am	-10.4609
▁mc	-10.4609
▁toen	-10.4615
▁450	-10.4617
▁los	-10.4617
▁ptca	-10.4622
▁slijmvliesbiopt	-10.4622
stv	-10.4625
▁multinodulair	-10.4628
▁pectoris	-10.4629
▁tubulus	-10.463
▁encefalopathie	-10.4632
▁cell	-10.4636
▁toxische	-10.4639
▁herkend	-10.4647
▁stents	-10.4653
▁drainage	-10.4658
effect	-10.4658
▁ebv	-10.4659
▁69-	-10.4665
▁psoas	-10.4671
▁oorsprong	-10.4681
regio	-10.4682
▁38	-10.4694
▁gisten	-10.4694
▁cardia	-10.4694
▁65-	-10.4699
▁porta	-10.4707
▁bradycardie	-10.4708
▁verweking	-10.4712
▁geadviseerd	-10.4717
▁mammareductie	-10.4717
▁beta	-10.473
▁intern	-10.4737
▁72-	-10.4747
-2	-10.4748
minder	-10.4752
▁trisomie	-10.4755
▁granulerende	-10.4756
▁hypofyse	-10.4757
▁he	-10.4757
▁myocardiale	-10.4765
▁aortawand	-10.4765
sactiviteit	-10.4774
▁botbiopt	-10.4787
▁dergelijke	-10.4789
*	-10.4795
▁ros	-10.4799
▁prostaatweefsel	-10.48
▁rechterzijde	-10.4802
▁cholangio	-10.4806
biopsie	-10.4806
▁tp	-10.4813
schimmelinfectie	-10.4814
▁vater	-10.4824
▁hematomen	-10.4825
▁ritme	-10.4834
▁71-	-10.4835
geschiedenis	-10.4836
▁07	-10.4852
▁3)	-10.4855
▁multifocale	-10.4858
▁vulva	-10.4863
▁tumorpositief	-10.4872
▁80%	-10.4896
▁elkaar	-10.4898
▁klebsiella	-10.49
▁pretibiaal	-10.4904
▁82-	-10.4905
▁venen	-10.4915
▁wervels	-10.4917
▁ablatio	-10.4924
▁gaaf	-10.4929
▁anaemie	-10.4929
▁papillomatosus	-10.4931
▁geneesmiddelen	-10.4937
▁hyperplastisch	-10.4943
▁bijnierschors	-10.495
▁kerato	-10.4958
▁depositie	-10.4959
beensamputatie	-10.4959
abdominaal	-10.4964
▁enzymkleuring	-10.4964
analyse	-10.4966
dikte	-10.4967
curettage	-10.4978
▁80-	-10.4985
▁dame	-10.5001
verruceuze	-10.5002
▁perfusie	-10.5007
▁68-	-10.5017
dit	-10.5017
▁bepaald	-10.5018
▁random	-10.5024
▁organ	-10.5035
▁pijnklachten	-10.5038
▁chromosomale	-10.5039
▁windingen	-10.5043
▁reflux	-10.506
cs	-10.5071
▁betrouwbaar	-10.5073
▁groeirestrictie	-10.5073
▁pulpa	-10.5073
▁granulocytair	-10.5075
▁gastropathie	-10.5075
▁gebarsten	-10.5076
▁lcx	-10.5078
▁hartkleppen	-10.5079
▁2014	-10.5086
▁carcinoid	-10.5088
▁afname	-10.5088
▁encephalopathie	-10.5092
▁stemband	-10.5107
prostaat	-10.5111
=	-10.5113
▁2010	-10.5115
▁art	-10.5123
▁tia	-10.5131
▁uitrijping	-10.514
▁ulceraties	-10.5141
▁tubuli	-10.5146
dd	-10.5148
▁begin	-10.5149
▁0,8	-10.5158
▁(*******)	-10.5159
▁papperig	-10.5164
▁orgaanfalen	-10.5166
▁bovenste	-10.5168
nb	-10.5168
▁solitaire	-10.5172
mutatie	-10.5175
▁spoed	-10.5175
▁empyeem	-10.5178
▁rejectie	-10.5183
▁doet	-10.5183
▁66-	-10.5183
▁chirurgisch	-10.521
▁submucosa	-10.5214
▁posterieur	-10.5218
▁lieten	-10.5218
▁fasciitis	-10.5221
▁algemeen	-10.5222
▁ondersteuning	-10.5223
▁lobulaire	-10.5234
eerd	-10.5238
▁1-2	-10.5249
▁bovenkwabben	-10.5257
▁alles	-10.5267
chirurgische	-10.5283
▁2013	-10.5289
▁behoeve	-10.5294
▁(8	-10.5296
▁resttumor	-10.5297
▁longvaten	-10.5297
▁streptococcus	-10.5298
▁cervicale	-10.5305
lo	-10.5306
▁factoren	-10.5312
▁minste	-10.5329
▁tumoreus	-10.5335
▁transformatie	-10.5336
▁linkernier	-10.534
ediagnostiseerde	-10.5343
▁verdikt	-10.5348
05	-10.5349
▁39	-10.5351
▁nacht	-10.5364
▁leidend	-10.5366
▁woog	-10.5368
▁leiomyomen	-10.5369
▁visceralis	-10.5369
▁vol	-10.5371
▁intubatie	-10.5373
itis	-10.5375
▁flr	-10.5397
▁verkleving	-10.5399
▁02	-10.54
▁allen	-10.5404
▁eigenlijk	-10.5406
rh	-10.5415
operatief	-10.5421
▁0,3	-10.5423
▁(5	-10.5435
aanvullende	-10.5437
▁nucle	-10.5442
▁vulling	-10.5445
ic	-10.5445
▁cirkel	-10.5446
▁darmpakket	-10.5446
▁hypertrofe	-10.5447
▁bcl	-10.5457
stenose	-10.5464
▁1500	-10.5469
▁spontaan	-10.5475
▁aangevraagd	-10.5481
▁hydrops	-10.5483
▁compatibel	-10.5484
▁nierarterien	-10.5486
▁autolytische	-10.5494
▁linkerzijde	-10.5503
atie	-10.5503
▁hilaire	-10.5505
▁erytrocyten	-10.5519
▁stentplaatsing	-10.5519
▁maagbloeding	-10.5528
▁gestelde	-10.5538
▁aneurysmatische	-10.5543
▁cardiopulmonale	-10.5557
▁uitsluiting	-10.5557
▁gevoerd	-10.5564
▁reuscellen	-10.5567
▁01	-10.5573
▁79-	-10.5578
▁2001	-10.5586
▁tubae	-10.5592
▁bovenkwadrant	-10.5598
mortaal	-10.5598
▁aangenomen	-10.5598
▁vii	-10.5622
▁regionale	-10.5638
▁supra	-10.565
▁genoemde	-10.5663
▁64-	-10.5665
▁2012	-10.5672
▁eenduidig	-10.5673
▁glad	-10.5678
▁perivasculair	-10.5691
▁dm	-10.57
▁congestie	-10.5704
▁av	-10.5706
▁staven	-10.571
▁pseudo	-10.5713
acanthoom	-10.5721
▁vlekkig	-10.5733
oesofagusbiopten	-10.5743
▁herseninfarct	-10.5748
▁dissecans	-10.5749
▁biologisch	-10.5754
rechterbovenkwab	-10.5758
▁erosie	-10.5783
▁colectomie	-10.5792
▁fatale	-10.5793
gelet	-10.5798
▁doorlopend	-10.5799
▁digitus	-10.5799
▁velden	-10.58
▁iga	-10.58
uitsluitend	-10.5801
▁icterische	-10.5806
▁curettement	-10.5807
▁overwegen	-10.5811
▁verwijderde	-10.5815
procedure	-10.5819
▁ochtend	-10.5823
▁2002	-10.5826
▁emfysemateus	-10.5827
▁renum	-10.5827
ontsteking	-10.5827
▁pancreasstaart	-10.5827
▁hypoperfusie	-10.583
▁longbloeding	-10.5831
▁sluit	-10.5835
▁meerkernige	-10.5835
▁2011	-10.5836
▁stamcel	-10.5843
▁neuspunt	-10.5847
lomerulonefritis	-10.5847
▁3:	-10.5851
ne	-10.5852
▁micronodulair	-10.5853
▁mond	-10.5863
▁implantatie	-10.5864
▁gezwollen	-10.587
▁gewenst	-10.5871
tumorlocalisatie	-10.5873
▁bloom	-10.5878
incontinentie	-10.5879
▁tweemaal	-10.5883
▁richardson	-10.5883
▁gepigmenteerde	-10.5891
▁succes	-10.5896
▁kamer	-10.5899
▁klierbuizen	-10.591
differentiatie	-10.592
▁vene	-10.5923
kweek	-10.5924
▁vroege	-10.5924
diagnostisch	-10.5931
▁tumormassa	-10.5948
▁buismaag	-10.595
gleason	-10.5959
vermoedelijk	-10.596
▁prednison	-10.5962
▁lok	-10.5968
▁retro	-10.5968
acute	-10.5986
▁hypercellulair	-10.5988
rt	-10.5991
▁bulbus	-10.5993
▁bowenoide	-10.5994
▁2009	-10.5995
definitief	-10.6
40	-10.6002
▁2016	-10.6015
10)	-10.6016
▁62-	-10.6018
▁stukje	-10.602
▁fulminante	-10.6021
▁atheromateuze	-10.6025
verschuiving	-10.6039
▁overtuigend	-10.6049
or	-10.6058
▁2003	-10.606
▁ijzerstapeling	-10.6064
▁extremiteiten	-10.6065
localisatie	-10.6068
▁beschadigde	-10.607
▁clark	-10.6074
▁aortastenose	-10.6076
hypertensieve	-10.6091
▁tong	-10.611
gebruik	-10.6117
▁0,6	-10.6121
ocaal	-10.6122
▁idiopathische	-10.6127
▁stoornis	-10.6132
ventrikelsysteem	-10.6142
▁herpes	-10.6145
▁mocht	-10.6145
▁september	-10.6151
▁verwijdering	-10.6153
▁ulceratieve	-10.6156
▁igg	-10.6158
▁46	-10.6162
▁̄de	-10.6162
▁bronchien	-10.6162
▁blaaswand	-10.6163
▁vlekkerig	-10.6168
▁echogeleid	-10.6169
▁onderooglid	-10.6184
cholesterolemie	-10.6186
as	-10.619
▁myelodysplast	-10.6195
▁crista	-10.6195
blaas	-10.6198
milt	-10.6202
▁89	-10.6218
▁myomatosus	-10.6226
▁cave	-10.6232
adenocarcinoom	-10.6239
▁tijde	-10.6239
▁alveoli	-10.6239
▁gemarkeerde	-10.624
▁thrombotische	-10.6245
▁4:	-10.6245
▁hp	-10.6247
embolien	-10.6247
▁groeit	-10.6255
aspiratie	-10.6256
29	-10.6261
▁geindiceerd	-10.6267
▁hypotensief	-10.6271
▁bacteriemie	-10.6271
▁heel	-10.6273
▁locus	-10.6274
▁scheenbeen	-10.6279
▁0,4	-10.6283
▁geassocieerde	-10.6291
▁05	-10.6292
onderwandinfarct	-10.6293
door	-10.6294
▁06	-10.6299
▁to	-10.6305
▁aangedaan	-10.6309
▁jw	-10.631
▁contractieband	-10.6315
veneuze	-10.6327
▁lymfoid	-10.6327
ring	-10.6328
ch	-10.633
jarig	-10.6333
▁recentere	-10.6336
▁luchthoudend	-10.6347
▁gewichtsverlies	-10.6349
▁collabeerde	-10.6349
07	-10.6353
▁08	-10.6367
▁37	-10.6375
▁63-	-10.6375
nieren	-10.6384
circumferentiele	-10.6388
▁adenocarcinoma	-10.6394
▁resulterend	-10.6394
voorlopig	-10.6395
parenchym	-10.6401
▁poliepje	-10.6405
▁relaparotomie	-10.6422
to	-10.6429
▁hoeverre	-10.6432
▁verrichte	-10.6432
▁matuur	-10.6435
▁situs	-10.6439
▁arterietakken	-10.6441
▁10%	-10.645
▁scherp	-10.6474
▁pericentrale	-10.6476
▁wederom	-10.6477
▁lymfatische	-10.6477
▁pleiomorf	-10.648
▁brca	-10.648
▁ronde	-10.6481
▁mogelijkheden	-10.6485
curettement	-10.6487
▁obductieverslag	-10.649
▁antibiotisch	-10.6496
mo	-10.65
▁vervanging	-10.6502
▁cholesterol	-10.651
▁03	-10.6516
▁calcificatie	-10.6517
▁radicale	-10.6518
▁(<	-10.6523
▁tbc	-10.6523
▁neuroendocrien	-10.6523
marge	-10.6526
▁brush	-10.6529
▁os	-10.6537
▁troebele	-10.654
▁ductale	-10.6542
▁samenvatting	-10.6558
▁onderbenen	-10.6558
aritmogene	-10.6558
▁myelo	-10.6559
▁elektro	-10.6561
▁34	-10.6562
▁nras	-10.6569
6,	-10.657
alwaar	-10.6572
▁bovenrug	-10.6575
▁inclusies	-10.6575
ruptuur	-10.6576
▁ventrale	-10.6577
▁2008	-10.658
▁gradering	-10.6588
end	-10.6588
▁0,1	-10.6591
tnm	-10.6594
▁47	-10.66
▁100%	-10.6607
▁tien	-10.6613
▁fibroom	-10.6614
▁schouderblad	-10.6615
▁longtumor	-10.6619
▁vat	-10.6625
▁metaplastisch	-10.663
▁artritis	-10.6642
▁geexcideerd	-10.6642
▁msi	-10.6655
▁marginal	-10.6659
▁endocervix	-10.666
▁bethesda	-10.6667
▁lymfocytair	-10.667
▁preexistente	-10.6671
▁vermeldt	-10.6676
▁blaasslijmvlies	-10.6678
▁asfyxie	-10.6685
▁tuberculose	-10.6688
▁bypasses	-10.6689
adenoom	-10.6692
einde	-10.6704
▁84-	-10.6707
▁duur	-10.6707
over	-10.6721
▁reanimeren	-10.6734
▁maagwand	-10.6737
▁adenomen	-10.6738
▁intestinaal	-10.674
ardiorespiratoir	-10.6742
▁pars	-10.6746
dr	-10.6757
▁83-	-10.676
carcinoma	-10.6764
▁verdikking	-10.6769
▁nodularis	-10.677
▁hersenweefsel	-10.6771
▁buikaorta	-10.6772
▁inzichten	-10.6773
▁vaatafwijkingen	-10.6773
▁urinewegen	-10.6773
▁thrombusvorming	-10.6774
▁gal	-10.6778
▁leiden	-10.6782
dilatatie	-10.6787
▁oorspronkelijke	-10.6789
minstens	-10.6791
▁2004	-10.6797
▁rok	-10.6797
▁2005	-10.68
▁extramedullair	-10.6814
▁doorsnijden	-10.6815
▁striatum	-10.6816
para	-10.6823
▁cq	-10.6824
▁onderste	-10.6826
▁longembolus	-10.6826
▁verspreide	-10.6837
▁kwab	-10.684
▁autolytisch	-10.6842
▁gekregen	-10.6857
▁thrombosering	-10.6858
▁buitenzijde	-10.686
▁littekenvorming	-10.6861
18-	-10.6868
▁scalp	-10.6875
▁gekomen	-10.6881
▁icd	-10.6885
3,	-10.6894
▁sclerotisch	-10.6895
▁inzage	-10.69
▁specificiteit	-10.69
▁zijsnijvlak	-10.6904
▁beter	-10.6905
▁jakob	-10.6916
▁kappa	-10.692
▁stase	-10.6924
micro	-10.6926
▁kleiner	-10.6936
▁ziektebeeld	-10.6939
▁embolien	-10.6941
dysplasie	-10.6945
▁osteoporose	-10.6946
▁leverkwab	-10.6948
▁vroeger	-10.6974
▁bemoeilijkt	-10.6977
▁subpleuraal	-10.699
passend	-10.6996
dissectie	-10.6998
▁lumbale	-10.6999
eren	-10.7008
▁vormen	-10.7012
hodgkinlymfoom	-10.7015
hr	-10.7027
▁daling	-10.7029
▁raakte	-10.703
▁middelgro	-10.7038
45	-10.7044
▁hyaliene	-10.7045
▁pap	-10.7046
reticulaire	-10.7053
diam	-10.7054
deel	-10.7055
▁papperige	-10.7057
▁blaascarcinoom	-10.7068
▁pneumosepsis	-10.7078
▁verwikkelingen	-10.708
▁alfa	-10.7082
▁voetlengte	-10.7083
▁labium	-10.7087
▁04	-10.7089
▁adhaesies	-10.7091
1).	-10.7091
1)	-10.7101
▁mannelijk	-10.7112
component	-10.7116
▁noodzakelijk	-10.7121
▁kalk	-10.7121
▁clostridium	-10.7124
▁lymfogeen	-10.7124
▁serosale	-10.7129
▁compensatoire	-10.7134
▁helix	-10.7136
sgraad	-10.7136
sigmoid	-10.7149
▁kraakbeen	-10.715
▁episode	-10.7154
▁exacte	-10.7159
▁2007	-10.7167
▁spontane	-10.7168
▁meningeoom	-10.7169
▁microbiologie	-10.717
ventrikelfunctie	-10.7172
▁bloedkweken	-10.7173
classificatie	-10.718
▁circulatoir	-10.7193
ta	-10.7196
▁2006	-10.7198
▁vergroeid	-10.7199
▁sporadisch	-10.7199
▁2)	-10.7204
▁schimmeldraden	-10.721
▁normocellulair	-10.721
▁onzeker	-10.7213
▁enerzijds	-10.7222
▁proliferatieve	-10.723
▁omliggend	-10.723
▁ijzer	-10.7231
▁60-	-10.7242
▁anders	-10.7245
▁fibrotisch	-10.7252
▁lytische	-10.7253
▁septaal	-10.7254
▁collumfractuur	-10.7256
▁nierbiopt	-10.7258
▁clavicula	-10.7261
▁paar	-10.7272
ver	-10.7273
▁sclerotische	-10.7289
▁associatie	-10.7305
▁galgang	-10.7305
▁ileusbeeld	-10.7305
26	-10.7307
▁asymmetrische	-10.7317
▁2015	-10.7318
who	-10.7333
▁erg	-10.7343
▁nieuw	-10.7343
▁thyreoiditis	-10.7346
▁daarmee	-10.7346
▁abcesvorming	-10.7347
▁hypoplastisch	-10.7348
▁operatief	-10.7349
▁61-	-10.736
scomponent	-10.7366
▁avond	-10.7381
▁cytologie	-10.7389
▁annulare	-10.7391
▁mevrouw	-10.7391
▁bewijs	-10.7391
▁ijzerpigment	-10.7391
jes	-10.7393
▁geinfarceerd	-10.7394
2;	-10.7395
oud	-10.7404
▁(1)	-10.7409
▁41	-10.7411
▁(7	-10.7411
cd	-10.7413
▁nasi	-10.7415
co	-10.7421
▁at	-10.7431
▁pylorus	-10.7432
▁reeks	-10.7432
▁lamelleren	-10.7437
!	-10.7438
▁linkeronderkwab	-10.7444
▁prostatectomie	-10.7444
▁elleboog	-10.7445
▁trombotische	-10.7453
▁bullae	-10.7454
fluorescentie	-10.746
2)	-10.7462
▁pulmonales	-10.7475
3:	-10.7479
▁bepalen	-10.7483
▁lamblia	-10.7483
▁desondanks	-10.7483
▁hartzakje	-10.7484
▁suboptimaal	-10.7484
▁59-	-10.7486
punctaat	-10.7513
metastasering	-10.7516
maag	-10.7516
▁slappe	-10.7519
▁vaste	-10.7522
31	-10.7528
lateraal	-10.7528
▁spongiose	-10.753
▁patent	-10.7532
▁hieruit	-10.7541
▁gesloten	-10.7541
▁apicaal	-10.7556
▁tricuspidalis	-10.7559
occipitaal	-10.7565
▁snijrand	-10.7569
▁dankzegging	-10.7576
▁hoesten	-10.7577
▁gyrus	-10.7579
90	-10.7582
▁0,7	-10.7583
▁tumorrest	-10.7584
▁verspreiding	-10.7586
▁zorg	-10.7603
lijn	-10.7606
▁bijkomend	-10.7612
09-	-10.7614
▁550	-10.7618
▁vreemdlichaams	-10.7619
*******	-10.762
segmentale	-10.762
▁broekprothese	-10.7627
▁glandula	-10.7629
▁radiologisch	-10.763
▁bronchiolitis	-10.7631
▁2017	-10.7643
▁gebouwde	-10.7647
▁diagnoses	-10.7668
▁gestenoseerd	-10.767
▁meisje	-10.767
▁hydropische	-10.7676
klachten	-10.7678
▁eci	-10.7682
▁650	-10.7692
▁750	-10.7697
▁catheter	-10.7703
▁heldere	-10.771
▁hartoor	-10.771
sproces	-10.7712
es	-10.7713
▁vaker	-10.7717
▁prostatitis	-10.7718
▁parietale	-10.7718
▁gaf	-10.7726
gezien	-10.7728
proliferatieve	-10.7733
▁krapst	-10.7745
▁vernauwingen	-10.7754
▁verkalkt	-10.7754
▁hemorrhagisch	-10.7757
▁sedatie	-10.7764
▁anderzijds	-10.7764
▁diafragmatica	-10.7765
▁trans	-10.7765
▁echografisch	-10.7769
▁contaminatie	-10.7769
ek	-10.7773
▁1400	-10.7775
▁09	-10.7779
▁grootcellige	-10.7788
ul	-10.7788
▁verstoorde	-10.7794
om	-10.7801
angio	-10.7806
▁buisprothese	-10.7811
▁dyspneu	-10.7812
▁zenuwstelsel	-10.7812
▁duidt	-10.7813
▁mediane	-10.7813
▁anderhal	-10.7815
onderverdelingen	-10.7816
degeneratieve	-10.7818
▁70%	-10.7827
▁schrompelnieren	-10.7827
lokalisaties	-10.7828
▁antrumtype	-10.7833
▁overig	-10.7839
▁coma	-10.7841
moleculair	-10.7842
▁schrompelnier	-10.7852
▁aspecifiek	-10.7853
calcificaties	-10.7853
79	-10.7855
▁complex	-10.7859
▁aeruginosa	-10.786
▁grensvlaknaevus	-10.786
▁alcoholgebruik	-10.7861
▁mastectomie	-10.7861
daling	-10.7862
50	-10.7864
▁nodi	-10.7866
▁genetica	-10.7867
▁infarcthaarden	-10.7871
▁1200	-10.7873
th	-10.7873
▁tumormetastasen	-10.7883
▁thoracotomie	-10.7889
beschadiging	-10.789
conform	-10.7898
▁mogen	-10.7907
▁getroffen	-10.7909
▁medicamenteuze	-10.7909
▁confluerende	-10.7914
▁zwak	-10.7914
▁tubulo	-10.7923
▁ret	-10.7927
▁acht	-10.7928
versus	-10.7947
▁wil	-10.7952
▁nbt	-10.7953
▁carotiden	-10.7958
entree	-10.7967
▁mds	-10.7971
▁viraal	-10.7971
▁endometriose	-10.7975
▁kans	-10.7993
aantal	-10.7998
voorhoofd	-10.7998
▁plekke	-10.8001
▁betrokken	-10.8001
▁33	-10.8003
▁bewezen	-10.8005
▁buikorganen	-10.8005
▁percentage	-10.8006
▁heupprothese	-10.8006
▁placentaire	-10.8007
▁subcapsulaire	-10.8011
▁58-	-10.8014
▁aneurysmata	-10.8014
▁rbk	-10.8015
▁dominante	-10.8025
▁enteritis	-10.8027
▁septa	-10.8028
▁asthma	-10.8032
samen	-10.8038
▁verzwaard	-10.8048
embolische	-10.8051
intern	-10.8052
▁fragmentje	-10.8053
▁longhypoplasie	-10.8054
▁ileostoma	-10.8057
▁daarvoor	-10.806
▁wijde	-10.8066
congestieve	-10.8067
01-	-10.8068
▁eind	-10.8071
▁tubulaire	-10.8072
anvraagformulier	-10.8079
▁verstoring	-10.8089
fibrose	-10.8102
lymf	-10.8102
ma	-10.8102
▁genitalia	-10.8103
▁verwardheid	-10.8103
▁lichamelijk	-10.8103
▁extravasatie	-10.8105
▁obliteratie	-10.8105
shaarden	-10.8107
▁hun	-10.8109
▁subtiele	-10.8115
▁20%	-10.8116
▁inbrengen	-10.8119
▁44	-10.8125
▁advies	-10.8126
▁graads	-10.8127
▁ademhaling	-10.8128
1:	-10.8129
▁aangetoonde	-10.8138
▁fragmentjes	-10.8146
mede	-10.8148
▁bevatte	-10.815
▁daarom	-10.8153
▁buitenoppervlak	-10.8156
▁mesencephalon	-10.8156
▁begeleidend	-10.816
▁stenotisch	-10.8162
eproportioneerde	-10.8171
▁voeten	-10.818
▁cytoplasma	-10.8184
ine	-10.8184
▁bloedstolsel	-10.819
▁85-	-10.8193
▁necrotiserend	-10.8194
▁melanoma	-10.8201
▁fibrinopurulent	-10.8202
▁lupus	-10.8204
▁archief	-10.8204
▁ingebracht	-10.8213
▁gist	-10.8223
▁vaatverandering	-10.8226
extirpatie	-10.8231
▁endocard	-10.8239
▁bevestigde	-10.8242
▁langere	-10.8249
▁serrated	-10.8253
gram	-10.8253
▁infrarenaal	-10.8257
▁patchy	-10.8257
▁achterzijde	-10.8264
▁nm	-10.8265
▁hersengewicht	-10.8268
▁uitgebreidheid	-10.8271
▁vlekkige	-10.8276
▁ap	-10.829
▁toxicologisch	-10.8293
▁kern	-10.8295
▁operaties	-10.8298
▁colostoma	-10.8301
▁pupillen	-10.8301
moleculaire	-10.8305
▁sputum	-10.8305
▁aortakleppen	-10.8306
▁zuurstof	-10.8309
600	-10.8317
▁schildklierkwab	-10.8319
▁(2)	-10.8323
▁vergroeiingen	-10.8324
▁linkszijdig	-10.8328
▁2-3	-10.834
▁baten	-10.8352
▁ja	-10.8353
▁albicans	-10.8353
▁dilaterende	-10.8354
▁leverweefsel	-10.8354
▁behorend	-10.8356
▁opbouw	-10.8357
haarden	-10.8362
▁grove	-10.8376
▁gea	-10.8379
▁pleit	-10.838
nier	-10.8386
▁bloeddruk	-10.8387
▁symmetrisch	-10.8395
▁goedaardige	-10.8395
▁gezocht	-10.8402
▁termijn	-10.8402
▁temporalis	-10.8402
▁aanwijsbaar	-10.8402
papillairspieren	-10.8403
▁cystadenoom	-10.8404
▁geinkte	-10.8406
▁duodenums	-10.841
▁braak	-10.8412
▁pd	-10.8414
▁steen	-10.8419
▁arteriolo	-10.8426
1-	-10.8427
▁42	-10.8429
▁gebruikte	-10.8437
▁1.5	-10.8443
▁rectumbiopten	-10.8443
▁lichaamsgewicht	-10.8444
definitieve	-10.845
▁half	-10.8453
▁kortademigheid	-10.8453
▁regelmatig	-10.8453
uur	-10.8457
▁epileptisch	-10.8458
▁nodig	-10.8458
▁darmresectie	-10.8463
▁mri	-10.8463
ml	-10.8469
2).	-10.8482
▁reuscelreactie	-10.8489
3)	-10.8492
▁geraakt	-10.8496
▁1)	-10.85
▁beschadigd	-10.85
▁subcapsulair	-10.8501
sveranderingen	-10.8502
▁lag	-10.8503
▁artherosclerose	-10.8504
▁melena	-10.8504
▁fecale	-10.8504
doorgemaakte	-10.8508
▁endometrioid	-10.8509
▁opgemerkt	-10.8509
▁longmetastasen	-10.851
▁gegaan	-10.8512
test	-10.8512
▁anamnese	-10.8512
▁aanvraag	-10.8513
▁localisaties	-10.8514
▁erbb	-10.8529
▁liggen	-10.8539
recidief	-10.854
▁afsluitingen	-10.8542
▁consolidatie	-10.8543
tot	-10.8543
▁donatie	-10.8546
receptorbepaling	-10.8552
zoals	-10.8554
refractaire	-10.8555
▁uiterlijk	-10.8555
▁onbegrepen	-10.8555
▁presentatie	-10.8555
▁faeces	-10.8557
▁klassieke	-10.8557
▁emphyseem	-10.8558
▁vruchtwater	-10.8558
▁megakaryocyten	-10.8559
▁rectaal	-10.8561
▁puntjes	-10.8561
beginnende	-10.8562
▁mitosen	-10.8563
▁emboli	-10.8564
▁30%	-10.8571
lymfoom	-10.8573
▁activeren	-10.8573
▁extreme	-10.8583
▁(6	-10.8588
▁bijzonder	-10.8588
▁1).	-10.8591
ig	-10.8601
▁mesotheel	-10.8606
▁delier	-10.8607
▁malen	-10.8608
▁varierend	-10.8609
▁cognitieve	-10.8609
cysteuze	-10.861
▁oxygenatie	-10.8612
▁hiv	-10.8613
▁voorafgaande	-10.8619
racheobronchitis	-10.8621
macrovesiculaire	-10.8623
▁32	-10.8623
▁protocol	-10.8629
▁interventie	-10.865
▁poging	-10.8654
▁behoort	-10.8658
▁hematogene	-10.8658
▁tengevolge	-10.8658
▁parakeratose	-10.8658
▁kapseldoorbraak	-10.8658
▁neurofibroom	-10.8659
▁aspergillose	-10.8659
▁peroperatief	-10.866
▁decubitus	-10.866
▁locale	-10.8664
▁debris	-10.8666
▁vasculair	-10.8672
▁natuurlijk	-10.8673
▁*******):	-10.8675
▁120	-10.8681
▁scleroserende	-10.8682
56	-10.8689
25	-10.8692
▁blokjes	-10.8698
▁insult	-10.87
22	-10.87
97	-10.8702
▁histomorfologi	-10.8703
▁tumorhaard	-10.8706
▁myofibrosis	-10.871
▁toegeschreven	-10.871
▁fijn	-10.871
▁levenloos	-10.871
▁verrukeuze	-10.8712
zeer	-10.8721
▁ingevroren	-10.8728
88	-10.8747
▁geisoleerd	-10.8757
▁onze	-10.8759
▁geinfecteerd	-10.8759
▁rijping	-10.8761
▁malformatie	-10.8762
▁globaal	-10.8763
▁dubbelbrekend	-10.8766
▁katheter	-10.8775
▁relatieve	-10.8778
▁localis	-10.8799
▁tpn	-10.8803
▁longhilus	-10.8808
ccr	-10.8812
uiteraard	-10.8815
▁geldt	-10.8815
vangingsfibrose	-10.8819
▁5:	-10.883
▁mij	-10.8832
95	-10.8834
▁onregelmatig	-10.8851
▁operatieve	-10.8858
▁persisterend	-10.8865
hyperpigmentatie	-10.8868
▁geabstineerd	-10.8868
totaal	-10.887
▁lactaat	-10.8872
▁namelijk	-10.8877
fectieparameters	-10.8896
▁gele	-10.8898
▁plasmacel	-10.8908
ose	-10.8908
▁kenmerkend	-10.8911
▁verkleurd	-10.8917
naaldbiopt	-10.8919
▁comateus	-10.8922
▁hepatocyten	-10.8922
▁poliepeus	-10.8923
▁daardoor	-10.8923
microscopie	-10.8932
▁dad	-10.8936
js	-10.8938
▁lambda	-10.8947
seudomembraneuze	-10.8954
▁sepsisbeeld	-10.8962
▁reumato	-10.8965
▁myocardfibrose	-10.897
▁electieve	-10.8975
▁hypoxemie	-10.8975
▁spreken	-10.8975
innemend	-10.8976
ly	-10.8978
bls	-10.8979
▁moeder	-10.898
peri	-10.8982
oezemfibrilleren	-10.8982
▁wandstandige	-10.899
▁breuk	-10.8997
achtige	-10.8998
▁cf	-10.9004
3):	-10.9004
▁endo	-10.9006
nog	-10.9014
coupe	-10.9025
▁verwijderen	-10.9029
▁lichaamsvreemd	-10.9031
▁hypovolemie	-10.9035
▁ostia	-10.9035
▁voorzijde	-10.9035
▁ingezonden	-10.9044
▁nos	-10.9046
▁grawitz	-10.905
▁patienten	-10.9056
▁probleem	-10.9059
▁kwaliteit	-10.9074
▁lamina	-10.9083
▁damage	-10.9083
▁subarachnoidaal	-10.9083
▁viel	-10.9085
▁hoofdpijn	-10.9086
▁sufficient	-10.9091
▁prurigo	-10.9091
▁putamen	-10.9095
▁genetische	-10.9096
snijvlak	-10.9103
▁solair	-10.9103
▁0,2	-10.9104
▁familiaire	-10.9106
▁ventriculaire	-10.9118
▁wanddikte	-10.9124
▁mee	-10.9127
▁ondersteunt	-10.9137
▁cardiomegalie	-10.9137
klinische	-10.9137
▁flegmoneuze	-10.9137
▁ontstaat	-10.9139
▁foramen	-10.914
▁postanoxische	-10.914
▁43	-10.9158
▁ziet	-10.9181
▁parieto	-10.9182
▁bijdrage	-10.9187
▁ophoping	-10.9189
▁gehandhaafd	-10.9194
▁dysplastisch	-10.9195
▁hetzelfde	-10.92
▁betrokkenheid	-10.9202
▁intimafibrose	-10.9212
▁vezels	-10.9213
▁gallige	-10.9213
▁tensie	-10.9214
▁infecties	-10.9221
▁indicatie	-10.9225
▁uip	-10.9225
▁40%	-10.9228
ra	-10.9231
▁sporadische	-10.9233
▁no	-10.924
▁trombosering	-10.9243
▁1,3	-10.9245
▁majus	-10.9247
▁aantonen	-10.9247
▁dragen	-10.9247
ongeveer	-10.9253
▁pan	-10.9256
▁femur	-10.9257
▁cea	-10.9259
▁mammae	-10.9282
▁verbinding	-10.9292
7:	-10.9293
▁bls	-10.9299
▁dergelijk	-10.93
▁oncogene	-10.9302
▁toegezonden	-10.9302
▁mediastinitis	-10.9304
▁cervixbiopten	-10.9307
▁apart	-10.9308
perforatie	-10.9309
^	-10.9309
▁chemo	-10.9314
▁pci	-10.9319
▁tangles	-10.9323
▁test	-10.9327
▁bevonden	-10.9333
67	-10.9335
▁bijgaand	-10.9338
▁infarctjes	-10.9341
▁last	-10.9372
▁fracturen	-10.9374
▁elastose	-10.9378
schimmelkleuring	-10.9379
▁medicamenteus	-10.9388
▁morfine	-10.9393
▁gefragmenteerde	-10.9401
▁mmr	-10.9401
colon	-10.9404
▁(12	-10.941
▁geaspireerd	-10.9413
▁ruggemerg	-10.9413
▁mondbodem	-10.9421
▁hematothorax	-10.9421
▁lca	-10.9425
2:	-10.9426
▁aftakking	-10.943
nieuwe	-10.9435
▁keer	-10.9435
▁omgeven	-10.9441
obstructief	-10.9443
▁obstruerende	-10.9444
▁infarctlitteken	-10.9457
zij	-10.9463
▁maternal	-10.9466
▁sessiel	-10.9468
▁gedetecteerd	-10.947
▁inziens	-10.947
▁haemodynamisch	-10.947
▁pancytopenie	-10.9471
▁wanneer	-10.9471
▁daarop	-10.9471
▁aaa	-10.9472
▁calcificerend	-10.9473
▁influenza	-10.9474
ngs	-10.9476
▁caudale	-10.948
▁(*******):	-10.9483
ernstige	-10.9487
▁populatie	-10.9502
▁hepatische	-10.9515
▁kop	-10.9519
dad	-10.9521
▁kaliber	-10.9522
▁heart	-10.9525
bbl	-10.9525
▁pericentraal	-10.9526
▁lacunaire	-10.9526
▁celmateriaal	-10.9529
%	-10.9529
▁tijdstip	-10.953
▁groeipatroon	-10.9531
▁fibrineus	-10.9536
▁gewijzigd	-10.9541
galblaasresectie	-10.9559
▁91	-10.9559
▁plm	-10.956
▁1,8	-10.9565
excisiepreparaat	-10.9572
▁86-	-10.9572
10:	-10.9573
▁lijn	-10.9573
▁vergroeiing	-10.9579
▁fibrilleren	-10.958
▁gekenmerk	-10.9583
▁orgaansystemen	-10.9583
▁verwijzing	-10.9584
cilinderepitheel	-10.9587
▁paramediaan	-10.9591
▁crp	-10.9591
pr	-10.9596
mx	-10.9597
ol	-10.9605
▁180	-10.9606
99	-10.9614
▁tnm	-10.9616
68	-10.9624
▁ooglid	-10.9636
obductie	-10.9638
▁geoccludeerd	-10.9639
als	-10.9639
▁aangrenzend	-10.964
oedeem	-10.964
▁pyogenicum	-10.964
rb	-10.964
▁aangrenzende	-10.964
▁multiforme	-10.9641
▁tumorgroei	-10.9643
▁spectrum	-10.9643
▁inzendingen	-10.9644
▁lacunair	-10.9645
zijwand	-10.9648
zymhistochemisch	-10.965
▁huidcurettage	-10.9652
sclerosis	-10.9655
▁wur	-10.9661
▁dysfunctie	-10.9663
▁mai	-10.9673
▁mammabiopten	-10.9682
murale	-10.9684
▁histiocytaire	-10.9685
▁erythema	-10.9694
troffen	-10.9696
▁cerebellair	-10.9698
▁tonsillen	-10.9698
▁bovenbeschreven	-10.9698
▁doorgroeiend	-10.9704
5,	-10.9707
epitheliaal	-10.9708
corpusslijmvlies	-10.9708
▁epidermiscyste	-10.9711
▁armen	-10.9733
nr	-10.9733
▁stabiel	-10.9743
▁overhecht	-10.9744
▁voedselresten	-10.9755
▁werkdiagnose	-10.9759
anaal	-10.9764
▁skelet	-10.9769
▁body	-10.9783
▁55-	-10.9795
▁5%	-10.9805
▁collegialiter	-10.9813
▁lynch	-10.9816
▁brief	-10.9819
▁amygdala	-10.9819
▁herkomst	-10.9819
▁(0	-10.9824
emboli	-10.9824
▁prolaps	-10.9837
98	-10.9842
▁dig	-10.9861
▁maagtype	-10.9867
cyste	-10.9871
▁eerst	-10.9873
▁concrementen	-10.9875
▁spieren	-10.9883
▁perforaties	-10.9895
varices	-10.9897
▁56-	-10.99
▁afmetingen	-10.9901
2017	-10.9904
▁vermelde	-10.9908
▁achtergebleven	-10.9931
▁ganglia	-10.9931
▁splenectomie	-10.9931
▁liesbreuk	-10.9931
▁mijn	-10.994
▁binnenzijde	-10.9943
ts	-10.9948
▁electro	-10.9955
▁linkerhartkamer	-10.999
▁conclusiei	-10.999
▁aangeboden	-10.999
▁coeruleus	-10.9991
▁puspockets	-10.9997
▁nierparenchym	-10.9999
▁gedeeltelijk	-10.9999
ur	-11
▁adequaat	-11.0001
▁linkerbovenkwab	-11.0001
tevens	-11.0002
▁ontstekings	-11.0013
schildwachtklier	-11.0019
▁letsels	-11.0032
luchtweginfectie	-11.0036
▁wit	-11.0037
▁carina	-11.0042
24	-11.0044
▁afgesproken	-11.0049
▁seder	-11.005
▁intrapulmonale	-11.0052
▁halverwege	-11.0052
▁trombusvorming	-11.0053
▁herhaling	-11.0053
▁ileocoecaal	-11.0055
▁schouw	-11.0056
▁idh	-11.0058
▁lbk	-11.006
▁inactief	-11.0061
keursdiagnose	-11.0062
▁tumoreuze	-11.0062
der	-11.0062
▁naaldbiopsie	-11.0062
▁intoxicatie	-11.0087
▁0,9	-11.01
▁kopie	-11.01
▁belaste	-11.0101
▁beschikbaar	-11.0109
▁solaris	-11.0109
angiopathie	-11.0111
lg	-11.0113
▁bovenpool	-11.0117
▁haarfollikel	-11.0123
▁agonaal	-11.0124
▁ware	-11.0127
▁zegelringcel	-11.0129
▁hoger	-11.0131
▁preexistent	-11.0139
▁high	-11.0141
oude	-11.015
histologisch	-11.0157
▁dun	-11.0172
▁vertebralis	-11.0174
▁vlokken	-11.0176
▁symptomen	-11.0176
▁dis	-11.0176
▁hypo	-11.0178
ischemie	-11.0178
functieverlies	-11.0179
▁balkenblaas	-11.0181
▁ovale	-11.0185
be	-11.0186
▁talgklier	-11.019
▁tachycardie	-11.0191
▁slokdarmbiopten	-11.0191
▁borderline	-11.0193
lymfklierpunctie	-11.0193
aire	-11.0196
▁opmerkelijk	-11.0198
▁nerv	-11.02
▁3).	-11.0207
▁sequentie	-11.0209
ige	-11.0216
▁92	-11.022
▁punt	-11.0223
▁late	-11.0223
▁subpleurale	-11.023
▁mycose	-11.023
▁botweefsel	-11.0232
ok	-11.0235
▁wigexcisie	-11.0236
▁gebroken	-11.0236
▁ebus	-11.0245
▁complexe	-11.0247
reuscelreactie	-11.0247
pik	-11.0267
▁encefalitis	-11.0272
▁(500	-11.0279
▁fundus	-11.0283
▁stv	-11.0286
▁blaasbiopten	-11.0288
▁faecium	-11.0291
▁levercelnecrose	-11.0291
▁paratracheaal	-11.0295
▁spiervezels	-11.0296
▁plexus	-11.0297
4,	-11.0298
▁sampling	-11.0299
▁verzwaarde	-11.0302
▁bruin	-11.0307
gelegen	-11.0309
respectievelijk	-11.0309
▁gold	-11.031
2):	-11.0313
▁ontwikkelen	-11.0337
▁nabloeding	-11.0345
▁myelum	-11.035
▁lesie	-11.0352
▁versmalling	-11.0352
alveolair	-11.0353
▁herhalen	-11.0353
▁cardiopulmonaal	-11.0353
▁thans	-11.0353
coronary	-11.0354
▁faecaal	-11.0354
▁ligament	-11.0356
▁buikvocht	-11.036
▁adenoid	-11.0365
▁loop	-11.0372
gly	-11.0374
▁traumatische	-11.0382
formulier	-11.0382
▁longfunctie	-11.0386
04-	-11.0388
▁berichten	-11.0389
▁7:	-11.039
▁57-	-11.0397
lijk	-11.041
▁syndrome	-11.0413
▁zuurvaste	-11.0414
▁bijgewoond	-11.0414
▁ontbreekt	-11.0414
▁overgenomen	-11.0415
val	-11.0415
▁mucosale	-11.0421
▁foto	-11.0421
▁sigmoa	-11.0423
▁occluderende	-11.0426
ijzerhoudende	-11.0428
beiderzijds	-11.0434
▁vierde	-11.0437
bespreking	-11.0459
geringe	-11.0462
sn	-11.0463
▁curvatuur	-11.0476
▁chroniciteit	-11.0476
▁benauwd	-11.0477
▁fibrosis	-11.0482
▁temporale	-11.049
coeur	-11.0497
▁fusie	-11.0501
corpus	-11.0507
stuwing	-11.0507
▁mo	-11.0514
aan	-11.0519
▁geanalyseerd	-11.0539
▁papillomateuze	-11.0539
▁dilatatio	-11.0539
▁keratoacanthoom	-11.0539
kd	-11.0542
▁darmziekte	-11.0542
▁snoergroeven	-11.0546
▁fibrosehaarden	-11.0549
▁blaashals	-11.055
flow	-11.056
▁cutane	-11.0572
05,	-11.0575
▁em	-11.0575
▁stomp	-11.0575
▁voorafgaand	-11.059
▁bloedvat	-11.0591
▁percutane	-11.0599
▁anurie	-11.0606
▁opgebouwd	-11.0606
03-	-11.0607
▁1300	-11.0607
ischemische	-11.0608
tie	-11.0608
▁screening	-11.061
▁arterieen	-11.0612
▁aanhoudend	-11.0617
matig	-11.0618
maanden	-11.0624
septische	-11.0632
scellen	-11.0636
▁tamelijk	-11.0665
▁sigmoideum	-11.0665
▁postuur	-11.0667
▁hyaline	-11.0669
▁verweekt	-11.0671
▁gescleroseerd	-11.0671
▁groter	-11.0672
▁corticaal	-11.0673
▁coronarialijden	-11.0675
▁75%	-11.0679
▁belasting	-11.0683
cf	-11.0683
▁obstructieve	-11.0692
▁epi	-11.0695
▁mlh	-11.0701
▁angiogram	-11.0703
▁ingehecht	-11.0705
▁heen	-11.0707
boven	-11.0709
-2-	-11.0714
▁24-	-11.0723
▁orgaangewichten	-11.0729
leeftijdsconform	-11.0729
▁erythrocyten	-11.073
▁abnormale	-11.073
treft	-11.0731
▁interesse	-11.0732
▁penis	-11.0733
▁onderpool	-11.0734
▁onregelmatige	-11.0734
▁geisoleerde	-11.0735
plastiek	-11.0736
▁ingevuld	-11.0737
▁nst	-11.0753
▁vaatwanden	-11.0753
▁2).	-11.0759
▁innemend	-11.0761
wang	-11.0763
▁60%	-11.0767
▁niveaus	-11.0773
▁gescleroseerde	-11.0787
euze	-11.0788
▁capillair	-11.0791
getwijfeld	-11.0793
▁benauwdheid	-11.0794
▁beschrijving	-11.0795
therapie	-11.0796
▁adnexextirpatie	-11.0797
▁wegener	-11.0798
▁chromosoom	-11.0802
▁sereu	-11.0804
▁vrouwelijk	-11.0805
63	-11.081
▁deficientie	-11.0831
▁insufficiente	-11.0843
▁nogmaals	-11.0857
▁endoprothese	-11.0858
▁sequencing	-11.086
▁msh	-11.086
▁bi	-11.0862
▁toxicodermie	-11.0862
▁gebiedjes	-11.0868
kenmerkende	-11.0874
▁cerebro	-11.0882
▁1999	-11.0884
▁zwart	-11.0886
▁bacterie	-11.0886
▁erosies	-11.0888
antibiotische	-11.0889
resectievlakken	-11.0891
it	-11.09
▁circumferente	-11.0901
actieve	-11.0903
zonder	-11.0906
▁optrad	-11.0912
▁uitsluiten	-11.0917
ken	-11.0917
▁lentigineuze	-11.0922
▁necroticans	-11.0922
▁geneticus	-11.0922
▁wekedelen	-11.0924
▁villitis	-11.0925
▁anterolateraal	-11.0926
slijmvliesbiopt	-11.0929
▁preparaten	-11.0935
▁bronchusbiopten	-11.0947
level	-11.0949
lp	-11.0959
▁neo	-11.0964
patroon	-11.0969
oa	-11.097
pd	-11.0973
▁zeven	-11.0976
▁verrichten	-11.098
ap	-11.0984
temporaal	-11.0985
▁abcedering	-11.0988
▁neonaat	-11.0988
▁evaluatie	-11.0988
▁lekker	-11.0988
▁verlaagd	-11.0988
▁bekleed	-11.0988
▁controleren	-11.0988
▁lvad	-11.0989
▁sacculair	-11.0989
▁adenomyosis	-11.099
▁hechting	-11.0991
▁pneumectomie	-11.0992
▁tvu	-11.0994
cp	-11.0996
▁craniale	-11.0999
▁geinduceerd	-11.1001
▁doorbloeding	-11.1002
▁5,5	-11.1003
2016	-11.1003
▁perioden	-11.1004
▁event	-11.1005
▁voorkomende	-11.1005
▁longbloedingen	-11.1012
▁4-	-11.1014
bethesda	-11.1015
▁behandelend	-11.1016
poliep	-11.1022
▁tonsil	-11.1036
litteken	-11.1042
▁microsatelliet	-11.1044
▁graviditeit	-11.1052
▁aanmerking	-11.1053
▁cholesterolose	-11.1054
▁bovenvermeld	-11.1054
▁grondslag	-11.1054
▁holtevorming	-11.1055
▁communicans	-11.1058
▁gestold	-11.1058
okselkliertoilet	-11.1061
▁insulten	-11.1066
bronchusspoeling	-11.1068
▁acinair	-11.1085
▁viii	-11.1088
ksf	-11.1088
therapeutische	-11.1089
mma	-11.1091
▁me	-11.1096
▁overgangscel	-11.1098
▁intravasculaire	-11.11
▁iliacae	-11.1105
▁360	-11.1106
▁huidexcisies	-11.1106
▁roken	-11.111
▁topografie	-11.1113
▁inotropie	-11.1113
generation	-11.1119
▁herkenba	-11.1119
▁fibroblasten	-11.112
▁fragmentatie	-11.112
▁karakter	-11.1122
▁astrocytoom	-11.1124
▁opsnijden	-11.1125
▁overgroei	-11.1126
▁scrotum	-11.1128
▁aansluitend	-11.113
▁gericht	-11.113
▁eiwit	-11.1131
▁bewijzend	-11.1132
08-	-11.1133
▁goedaardig	-11.1134
▁klassiek	-11.1137
▁bijdragend	-11.1138
sbaar	-11.1139
▁gevormd	-11.1139
▁stukjes	-11.114
▁alveolair	-11.1149
▁onsteking	-11.1151
ischaemische	-11.1154
▁handen	-11.1157
▁uitstrijk	-11.116
▁maakte	-11.1161
80	-11.1166
▁porte	-11.1168
▁mn	-11.1171
ck	-11.1175
ldh	-11.1179
▁sp	-11.1183
▁geidentificeerd	-11.1186
▁obese	-11.1186
▁tracheostoma	-11.1186
next	-11.1186
▁myelofibrose	-11.1187
▁gland	-11.1187
▁53-	-11.1189
ingroei	-11.1203
▁hartlijden	-11.1206
▁kortdurend	-11.1217
▁oa	-11.1223
▁dyspnoeisch	-11.1226
loy	-11.1226
▁ho	-11.1228
35	-11.1244
▁streng	-11.125
▁hemopericard	-11.1253
▁geoblitereerd	-11.1253
▁ongecompliceerd	-11.1253
inverted	-11.1254
▁hoofdtakken	-11.1254
▁28-	-11.126
▁hoofdhuid	-11.1262
▁kit	-11.1268
▁arterieel	-11.1268
▁ziek	-11.1271
27	-11.1272
▁arterioscleroti	-11.1273
up	-11.1276
▁markers	-11.128
hartspierweefsel	-11.1285
ag	-11.1286
▁neutrofielen	-11.1287
arterien	-11.1304
kin	-11.1314
geschat	-11.1315
▁nemen	-11.1317
▁gefixeerd	-11.1321
▁faecalis	-11.1321
▁thrombusmassa	-11.1322
▁knapte	-11.1324
-3	-11.1327
▁fascie	-11.1327
▁apocriene	-11.1335
▁veroudering	-11.1339
62	-11.134
▁52-	-11.1342
▁vas	-11.1362
▁plastiek	-11.1364
13:	-11.1368
▁lis	-11.137
▁bevinden	-11.1376
▁1,4	-11.1384
▁peritoneaal	-11.1387
▁myoom	-11.1388
▁optimaal	-11.1389
▁hersensektie	-11.1389
▁mastopathisch	-11.1389
▁an	-11.1396
▁lip	-11.1396
▁gebracht	-11.1399
▁zijsnijranden	-11.1399
▁terecht	-11.1401
▁verdringing	-11.1402
pogingen	-11.1403
▁gecompliceerde	-11.1405
systeem	-11.141
▁linkszijdige	-11.1411
▁capillairen	-11.1412
▁overlegd	-11.1418
▁ileumbiopten	-11.1421
▁bestonden	-11.1424
12:	-11.1425
allergische	-11.1431
neren	-11.1431
▁2,0	-11.1436
eel	-11.1436
▁saturatie	-11.1445
▁hoogste	-11.1446
structuren	-11.1446
▁renale	-11.1447
▁tensiedaling	-11.1447
▁vriescoupes	-11.1448
▁conservatief	-11.1457
▁navel	-11.1458
▁dentatus	-11.1461
▁ontlasting	-11.1461
▁mucineuze	-11.1462
▁meningen	-11.1462
▁preauriculair	-11.1469
▁1,1	-11.147
▁neiging	-11.1472
▁(10	-11.1472
▁papel	-11.1472
middels	-11.1494
paralytische	-11.1495
▁voedsel	-11.1508
pl	-11.1518
1/*******	-11.1519
▁geintubeerd	-11.1526
▁hematurie	-11.1526
▁ercp	-11.1528
▁zekerheidshalve	-11.1537
▁minus	-11.1537
/*******/	-11.1538
▁coccen	-11.1539
▁marges	-11.154
▁mechanisch	-11.1545
rectum	-11.1558
▁0.	-11.156
interstitiele	-11.1561
▁onverwachts	-11.1566
ren	-11.157
▁inspanning	-11.1577
uw	-11.1582
proces	-11.1585
▁marfan	-11.1593
▁aanzien	-11.1593
43	-11.1594
ak	-11.1594
▁12-	-11.1596
▁ondersteund	-11.1596
▁idem	-11.1596
▁dermatose	-11.1596
▁veroorzaken	-11.1597
▁trilineair	-11.1598
▁aortawortel	-11.1598
▁orienterend	-11.1599
▁brede	-11.16
▁adventitia	-11.1602
▁state	-11.1602
sie	-11.1607
▁wijd	-11.1609
▁170	-11.1612
▁tekening	-11.1617
▁blauwe	-11.1624
▁ganglion	-11.1626
md	-11.1628
necrologie	-11.163
92	-11.1643
▁afwezige	-11.1652
▁lagen	-11.1653
ele	-11.1655
sclerotische	-11.1656
▁zwangerschaps	-11.1656
▁embolisatie	-11.166
hangt	-11.1665
▁gelijktijdig	-11.1666
▁chemoradiatie	-11.1666
▁familieleden	-11.1666
▁beenvaten	-11.1666
▁2,2	-11.1667
▁destijds	-11.1668
▁aortabifurcatie	-11.1668
▁verstrekte	-11.1669
▁for	-11.1669
▁myocardschade	-11.167
▁resterend	-11.168
▁tri	-11.168
▁paranasaal	-11.168
stadium	-11.1688
problematiek	-11.1692
onderbeen	-11.1695
07-	-11.1695
▁87-	-11.1698
▁aortaprothese	-11.1699
broncho	-11.1702
advies	-11.1702
datum	-11.1705
▁850	-11.1719
▁negen	-11.1721
▁1100	-11.1723
▁eigen	-11.1736
▁geconcludeerd	-11.1736
▁pigmentosus	-11.1736
▁anderszins	-11.1736
▁hersenparenchym	-11.1737
▁administratie	-11.1737
▁hartspiervezels	-11.1738
▁erysipelas	-11.174
▁1/2	-11.174
neus	-11.1741
▁arthritis	-11.1742
biopsiemateriaal	-11.1743
▁grijze	-11.1746
▁blue	-11.175
ventrikel	-11.175
▁verbeterde	-11.1752
▁03.	-11.1754
▁cervicaal	-11.1755
organ	-11.176
▁vacuolair	-11.1761
out	-11.177
9:	-11.1771
activiteit	-11.1772
jejunostomie	-11.1772
zowel	-11.1774
▁30-	-11.1788
86	-11.1804
▁huidig	-11.1805
▁deferens	-11.1807
▁invullen	-11.1807
▁verslaglegging	-11.1807
▁hartoren	-11.1812
▁niercysten	-11.1813
▁herniatie	-11.1814
▁vroeg	-11.1814
▁functionele	-11.1814
▁gyri	-11.1815
▁ligging	-11.1817
▁1600	-11.1825
▁anastomosen	-11.183
▁iliacale	-11.1831
▁480	-11.1844
enteritis	-11.1845
▁correctie	-11.1849
▁rdp	-11.1859
▁blijven	-11.1863
▁vermoed	-11.1863
▁steun	-11.1865
▁princip	-11.1879
▁moest	-11.1879
▁slikklachten	-11.1881
▁intramuraal	-11.1881
▁assay	-11.1884
▁epicarditis	-11.1885
▁submucosaal	-11.1887
▁1998	-11.1888
▁tauopathie	-11.1888
▁achterhoofd	-11.1889
▁subtype	-11.1891
▁bodies	-11.1893
▁reconstructie	-11.1893
klepprothese	-11.1917
tenminste	-11.1918
waarvoor	-11.1919
▁granuloom	-11.1928
ri	-11.193
▁grade	-11.1936
▁hematopoiese	-11.1951
▁fecaal	-11.1951
▁infectiefocus	-11.1952
▁glioblastoma	-11.1952
▁uitrijpend	-11.1955
▁cornea	-11.1957
▁irreversibele	-11.1959
▁hsv	-11.1963
me	-11.1964
▁sh	-11.1967
▁jongen	-11.1967
▁plusminus	-11.1968
invasief	-11.1983
▁stijging	-11.1984
▁04.	-11.1985
▁contractie	-11.1991
stent	-11.1997
▁verwacht	-11.2
17-	-11.2
▁beeldvormend	-11.2001
mb	-11.2007
▁verlopen	-11.2007
▁stond	-11.2013
▁vessel	-11.2018
▁beademd	-11.2023
▁gestopt	-11.2023
▁mesenchymale	-11.2023
▁neocortex	-11.2023
men	-11.2024
▁jugularis	-11.2025
▁beoordeelbare	-11.2026
iso	-11.203
▁rip	-11.2033
▁gemeten	-11.2036
▁kunstklep	-11.2037
4:	-11.2037
▁occipitale	-11.204
▁nadien	-11.2043
blokje	-11.2051
ventriculaire	-11.2051
▁scan	-11.2066
villeus	-11.2066
ntractietoestand	-11.2075
ir	-11.2079
▁gecompromiteerd	-11.2081
▁death	-11.2097
▁alveolar	-11.2097
▁dichtstbijzijnd	-11.2098
▁groepjes	-11.2101
▁hypertrofi	-11.2106
▁sarcomatoid	-11.2106
▁hartventrikel	-11.2111
▁noduli	-11.2114
▁hemolytisch	-11.2115
▁veld	-11.2116
recente	-11.2118
-*******	-11.213
▁cre	-11.2131
▁enterobacter	-11.2132
operatieve	-11.2135
▁overal	-11.214
ro	-11.2147
▁longinfarct	-11.2149
▁myc	-11.2149
▁cx	-11.2166
▁groen	-11.2166
▁escherichia	-11.217
▁wogen	-11.217
▁drukverhoging	-11.217
▁hersenvaten	-11.217
▁wandlagen	-11.217
▁voorgrond	-11.2175
▁ziekten	-11.2178
▁patch	-11.2179
▁vormt	-11.2181
▁elk	-11.2183
▁inpa	-11.2183
▁sirs	-11.2186
▁hartplak	-11.2197
iteit	-11.2198
11:	-11.2199
▁encephalitis	-11.2202
klasse	-11.2213
ascendens	-11.2213
▁weefselfragment	-11.2222
sen	-11.2222
▁ingestuurd	-11.2223
▁receptoren	-11.2236
▁zat	-11.2241
▁02.	-11.2243
▁trombolyse	-11.2244
▁peg	-11.2244
▁douglasi	-11.2245
▁blauw	-11.2247
▁ingrepen	-11.2247
▁jicht	-11.2249
▁haemangioom	-11.2249
eerde	-11.2251
▁spoeling	-11.2252
▁vaatinvasie	-11.2256
▁von	-11.2257
fractuur	-11.226
▁eindstandig	-11.226
▁ecmo	-11.2263
▁usual	-11.2264
▁huis	-11.2265
▁dura	-11.2269
▁ala	-11.2271
▁axillair	-11.2271
buik	-11.2273
▁1,6	-11.2277
huid	-11.2278
▁01.	-11.2287
▁inter	-11.2302
aorta	-11.2306
▁+3	-11.2314
ehe	-11.2319
▁collageen	-11.2319
▁doorgeschoten	-11.2321
▁resultaten	-11.2323
▁pneumococcen	-11.2323
▁hypertrophi	-11.2323
▁agenesie	-11.2325
▁episoden	-11.2325
stilstand	-11.234
▁verlopende	-11.2344
▁vallen	-11.2346
▁voorgaande	-11.2347
▁inductie	-11.2348
▁grens	-11.2349
▁start	-11.2353
▁afhankelijk	-11.2358
midden	-11.2365
infiltratie	-11.237
▁tr	-11.237
▁darmbiopten	-11.2371
morbide	-11.2385
▁caudatus	-11.2393
▁peribronchiale	-11.2394
non	-11.2394
▁gereviseerd	-11.2395
▁pigmentatie	-11.2396
▁isthmus	-11.2396
▁gastroscopie	-11.2399
▁bewaard	-11.24
▁kaak	-11.2401
▁ontstonden	-11.2403
▁paraffine	-11.241
▁imponerend	-11.2412
zijde	-11.2416
▁slanke	-11.2421
▁koa	-11.2424
▁mammabiopt	-11.2426
▁tweeling	-11.2443
▁mof	-11.2445
▁stabiele	-11.2449
▁ha	-11.2451
▁samenhang	-11.2452
▁verslechterd	-11.2453
▁geclassificeerd	-11.2469
▁hemoptoe	-11.2469
▁leidde	-11.2469
▁osteomyelitis	-11.2469
▁allogene	-11.2469
▁subdurale	-11.2471
et	-11.2471
▁jongetje	-11.2471
▁mandibula	-11.2471
▁serositis	-11.2473
▁losliggend	-11.2477
▁vergelijking	-11.2477
▁aanzienlijk	-11.2478
▁shunt	-11.2479
78	-11.2481
▁54-	-11.2505
laparoscopische	-11.2505
therapeutisch	-11.2508
85	-11.2517
jakob	-11.2517
bepaling	-11.2522
▁ihc	-11.2522
mamma	-11.253
cor	-11.2537
▁06.	-11.2537
text	-11.2542
▁geinterpreteerd	-11.2546
▁immatuur	-11.2546
bvdw	-11.2546
▁urticaria	-11.2546
▁aangewezen	-11.2547
▁maagmucosa	-11.2551
▁bloedingsresten	-11.2554
▁donker	-11.2554
▁miltstuwing	-11.2557
negatieve	-11.2559
▁stenoserend	-11.2566
▁05.	-11.2574
▁dik	-11.2574
nl	-11.2575
▁intrahepatische	-11.2577
carcinomen	-11.2584
erende	-11.2588
▁1/	-11.2588
▁ex	-11.2594
lc	-11.2605
▁bricker	-11.2609
▁zijsnijrand	-11.2612
3).	-11.2615
▁galsteen	-11.2622
▁accreditatie	-11.2622
▁geinfiltreerd	-11.2622
▁hysterectomie	-11.2622
▁uitgesneden	-11.2623
▁intestinaaltype	-11.2624
▁repair	-11.2628
▁celrijkdom	-11.2628
▁fundic	-11.2629
▁stage	-11.2631
▁leeg	-11.2631
▁fibromusculair	-11.2632
▁intermediair	-11.2632
▁gesneden	-11.2634
▁criteria	-11.2637
cardiale	-11.2637
▁rechterschouder	-11.2648
▁infarctje	-11.2649
▁maagbiopt	-11.2663
ventrikelzijwand	-11.2663
▁prostaatbiopt	-11.2665
drs	-11.2665
volgens	-11.2674
▁opening	-11.2676
▁bolle	-11.2678
▁basalioom	-11.27
▁dyspnoisch	-11.27
▁gestoord	-11.27
▁trombopenie	-11.27
▁neoplasma	-11.2701
▁rugpijn	-11.2701
▁1,7	-11.2707
▁hartgewicht	-11.2707
▁rondkernig	-11.2709
▁overeenkomend	-11.2715
▁dreigende	-11.2715
▁ab	-11.2717
▁microorganismen	-11.2718
▁longontsteking	-11.272
▁7,	-11.2721
▁ventrikelseptum	-11.2722
▁restanten	-11.2724
▁q	-11.2725
▁pta	-11.2727
natieve	-11.2732
▁lymfklierbiopt	-11.2742
▁nierarterie	-11.2748
▁cervixpoliep	-11.2752
▁adeno	-11.2761
32	-11.2763
▁ogend	-11.2767
▁le	-11.2771
▁afloop	-11.2771
▁hypothyreoidie	-11.2778
▁vaststellen	-11.2778
▁spierlaag	-11.2778
▁aldus	-11.278
02-	-11.2782
▁hepatorenaal	-11.2784
▁vreemdlichaam	-11.2784
achtig	-11.2787
▁vingers	-11.2788
▁hartafwijking	-11.2789
laterale	-11.2793
lijden	-11.2799
09:	-11.2807
▁anamnestisch	-11.2808
▁kleincellige	-11.2814
ischaemie	-11.2818
▁50-	-11.2826
hoog	-11.2827
▁colonresectie	-11.2828
▁linkerwang	-11.2834
6:	-11.2841
▁verergerd	-11.2842
▁hartziekte	-11.2846
▁convexiteit	-11.2847
▁semi	-11.2851
▁bloedend	-11.2854
▁pubis	-11.2857
▁geluxeerd	-11.2857
▁bronchustakken	-11.2857
▁huidexcochleaat	-11.2857
▁geopend	-11.2859
▁maagulcus	-11.286
▁tunica	-11.286
▁resectierand	-11.286
▁overeenkomstig	-11.286
▁heupoperatie	-11.286
▁fgfr	-11.2861
▁serologisch	-11.2867
▁(>	-11.287
net	-11.2873
▁pneumonia	-11.2878
ia	-11.2882
▁inflammatoir	-11.2882
▁stapeling	-11.2885
▁okseltop	-11.2885
▁1,0	-11.2888
amyloid	-11.291
pleuravocht	-11.2911
▁rechterwang	-11.2915
▁160	-11.2916
▁recentelijk	-11.2916
▁aorto	-11.2921
▁bepalingen	-11.2923
▁accident	-11.2926
hartgewicht	-11.2927
▁geneesmiddel	-11.293
▁geconstateerde	-11.293
▁miljoen	-11.2936
▁kolonies	-11.2936
▁myofibrose	-11.2936
▁doorgebroken	-11.2938
▁aangebracht	-11.2939
ao	-11.2943
lymfklier	-11.2945
▁prikkeling	-11.2946
af	-11.2949
▁angioinvasie	-11.2949
▁functioneel	-11.2952
▁evt	-11.2957
▁maal	-11.2966
▁lichaams	-11.2973
▁frequentie	-11.2979
▁gekleurd	-11.2988
intestinaal	-11.2992
▁abstineren	-11.3
ering	-11.3011
▁teen	-11.3011
bulleuze	-11.3016
▁handelen	-11.3016
▁arcus	-11.3016
▁naevi	-11.3017
▁pityriasis	-11.3017
▁sneeranden	-11.3017
▁longvelden	-11.3017
▁88-	-11.3019
▁uitgezette	-11.3023
▁stuk	-11.3024
rand	-11.3027
▁duodenumbiopt	-11.3029
▁palatum	-11.3029
▁ogen	-11.3029
▁myopathie	-11.3029
▁140	-11.3029
▁570	-11.303
▁significant	-11.3039
61	-11.3043
▁grof	-11.3043
bi	-11.3045
ricuspidalisklep	-11.3053
▁small	-11.3057
06-	-11.3059
▁losse	-11.3062
▁portae	-11.3069
ventrikelwand	-11.3078
breidt	-11.3088
▁lichaampjes	-11.3089
▁zijrand	-11.3092
▁snoergroeve	-11.3093
▁glioblastoom	-11.3097
▁inotropica	-11.3097
▁dwarslaesie	-11.3097
no	-11.3097
▁perirenale	-11.3097
terminale	-11.31
▁extreem	-11.31
▁as	-11.311
▁fossa	-11.311
▁rv	-11.3112
avd	-11.3113
▁lichaamslengte	-11.3116
snijvlakken	-11.3124
infarcten	-11.3128
obstructie	-11.3135
▁conclusief	-11.3136
:^	-11.3136
adjuvante	-11.3141
▁hotspot	-11.3145
▁1/3	-11.3153
abdomen	-11.3155
weken	-11.3158
bovenbeen	-11.3161
il	-11.3169
resten	-11.3174
terventricularis	-11.3178
▁overeenstemming	-11.3178
▁sommige	-11.3178
▁subfrenisch	-11.3178
▁bewerking	-11.3178
▁angiosarcoom	-11.3178
sp	-11.3179
▁plaqueruptuur	-11.318
▁plasmocytose	-11.3182
▁epicardiale	-11.3182
▁fraaie	-11.3183
▁centrolobulair	-11.3185
▁neuronale	-11.3185
▁antistoffen	-11.319
▁verdeling	-11.3191
endometriumbiopt	-11.3191
▁colloid	-11.3195
8:	-11.3199
▁440	-11.3215
▁^	-11.3215
inhoud	-11.322
▁opmerkelijke	-11.3222
pro	-11.3223
▁marsh	-11.3244
ransformatiezone	-11.3257
cy	-11.326
▁qua	-11.326
weefselversterf	-11.326
▁bekledend	-11.326
▁deletie	-11.326
▁infarctgebied	-11.3261
▁obstipatie	-11.3261
iswaar	-11.3262
▁vulvabiopt	-11.3265
▁processen	-11.3266
cll	-11.3267
▁submucosale	-11.3269
ps	-11.3275
▁emv	-11.3277
niveau	-11.3284
▁ophopingen	-11.3285
hondrodermatitis	-11.3295
▁vlekkerige	-11.3295
▁+4	-11.33
▁helicobacters	-11.3312
oide	-11.3313
▁anterieure	-11.3316
enzymkleuring	-11.3322
hersenen	-11.3323
alk	-11.3324
▁240	-11.333
jr	-11.3333
3;	-11.3337
▁inflammatie	-11.3343
▁procent	-11.3343
▁urogenitalis	-11.3343
▁verliep	-11.3343
▁umbilicalis	-11.3343
▁cornu	-11.3343
▁sufheid	-11.3343
▁afdoende	-11.3343
▁heupfractuur	-11.3343
▁prolifererend	-11.3343
▁drietakslijden	-11.3344
▁multiorgaan	-11.3347
▁gespannen	-11.3348
▁gemeld	-11.3348
ut	-11.3348
▁indruk	-11.335
▁colorectaal	-11.3352
▁25-	-11.3357
drietal	-11.336
▁tekst	-11.3378
loge	-11.3378
▁weefsels	-11.3393
▁aandoeningen	-11.34
-1-	-11.3416
afwijking	-11.3419
bronchiectasieen	-11.3422
ards	-11.3422
tje	-11.3423
hv	-11.3425
▁circulus	-11.3426
▁kennelijk	-11.3426
▁hoeveelheden	-11.3426
▁irritatie	-11.3427
▁leiomyosarcoom	-11.3428
▁streptococcen	-11.3428
▁cirrhotisch	-11.3429
▁forensisch	-11.343
▁darminhoud	-11.3432
▁vin	-11.3434
▁excochleaat	-11.3435
▁longbiopt	-11.3436
▁vsd	-11.344
▁mucoid	-11.3442
chronische	-11.3447
▁cutaan	-11.3453
▁allel	-11.3469
tak	-11.3472
tjes	-11.3474
▁gelokaliseerde	-11.3489
▁veno	-11.3492
▁epitheliaal	-11.3494
▁athero	-11.3502
▁(11	-11.3502
1):	-11.3504
▁trofoblast	-11.3506
▁geinformeerd	-11.351
▁zodanig	-11.351
▁blaarvorming	-11.351
▁bicuspide	-11.351
▁botmetastasen	-11.3516
0.	-11.3517
▁wijten	-11.3518
▁verlittekend	-11.3537
▁renaalcel	-11.354
recent	-11.354
▁spoelcellige	-11.3546
braak	-11.3554
em	-11.3556
ex	-11.3557
100	-11.3557
▁varianten	-11.3559
ras	-11.3565
▁hemorragie	-11.3584
oor	-11.3591
▁rheumatoid	-11.3595
▁zeggen	-11.3595
▁syndromale	-11.3595
▁haematomen	-11.3595
▁schedelbasis	-11.3595
▁intracerebraal	-11.3596
16:	-11.3597
▁klepafwijkingen	-11.36
▁buizen	-11.3601
▁verkeerde	-11.3602
▁380	-11.3603
▁partieel	-11.3607
▁1997	-11.3607
▁nsaid	-11.3608
▁6,5	-11.3616
▁korrelig	-11.3621
▁miltinfarct	-11.3624
▁anterieur	-11.3632
▁geinduceerde	-11.3634
▁begrensde	-11.3641
ation	-11.3644
lymforeticulaire	-11.3644
▁470	-11.3653
-6	-11.3655
inclusief	-11.3662
▁dubieu	-11.3666
▁kidney	-11.3672
▁baby	-11.368
▁getromboseerd	-11.368
▁hemochromatose	-11.368
▁warthin	-11.368
▁glomerulaire	-11.368
▁uiterst	-11.3681
▁adenose	-11.3681
▁hrhpv	-11.3682
vii	-11.3682
▁konklusie	-11.3684
shock	-11.3684
▁ascenderende	-11.3685
▁circumferent	-11.3689
cellulaire	-11.369
▁thoraxhelft	-11.369
spatroon	-11.3704
4)	-11.3704
28	-11.3718
ain	-11.3724
▁drains	-11.3728
panel	-11.3735
▁paste	-11.3748
doodsoorzaak	-11.3749
safbreking	-11.3753
▁zelfs	-11.3756
▁levermetastase	-11.3758
▁huidlaesie	-11.3761
▁lipomateu	-11.3762
▁gronden	-11.3763
▁celarme	-11.3764
▁transfusie	-11.3765
▁bereikt	-11.3767
▁geresulteerd	-11.3767
▁nodosum	-11.3767
▁sondevoeding	-11.3767
▁dwarsgestreept	-11.3767
▁microthrombi	-11.3768
▁psa	-11.3769
▁welk	-11.3769
▁tenen	-11.3772
▁enterocolitis	-11.3772
▁colonmucosa	-11.3773
gb	-11.3774
io	-11.3775
▁voorgelegd	-11.3776
▁species	-11.3777
▁port	-11.378
▁achterlip	-11.3782
▁bal	-11.3784
▁geb	-11.3789
▁wonden	-11.379
▁gevoelig	-11.3796
erd	-11.3807
grote	-11.3811
▁structuur	-11.3812
▁voorlip	-11.3812
fibrillaire	-11.3816
preparaten	-11.3829
reconstructie	-11.3836
afstand	-11.3836
▁zwakke	-11.3837
▁prion	-11.3837
93	-11.3839
▁ac	-11.3842
emie	-11.3844
▁denk	-11.3847
microscopische	-11.3852
▁corpora	-11.3853
▁interstitial	-11.3854
▁vindt	-11.3856
▁overplaatsing	-11.3856
▁gecombineerde	-11.3856
▁ondersteunen	-11.3859
▁opties	-11.3859
▁vervangen	-11.3859
▁preterminale	-11.3863
▁symmetrische	-11.3866
▁tumortje	-11.3867
▁renales	-11.3869
12-	-11.3871
rs	-11.3873
perifolliculitis	-11.3878
tr	-11.3887
▁immunologisch	-11.3893
▁intravasculair	-11.3901
▁poly	-11.3902
▁geleidelijk	-11.3906
2018	-11.3916
id	-11.3925
▁410	-11.393
overige	-11.3931
▁plaquebloeding	-11.3933
▁bijdragende	-11.3937
▁stromal	-11.3939
▁y	-11.3939
▁blanke	-11.3941
▁pleurabladen	-11.3942
▁embryonal	-11.3942
problemen	-11.3942
▁myocyten	-11.3944
uitgebreide	-11.3944
▁harthelft	-11.3944
▁volvulus	-11.3945
▁fenomeen	-11.395
▁leukemische	-11.3956
▁jbz	-11.3957
per	-11.3959
▁galgangen	-11.3961
▁abortus	-11.3978
▁linkermamma	-11.3981
▁jonger	-11.3985
fragment	-11.3988
▁adherente	-11.3989
mediadegeneratie	-11.3989
▁occlusies	-11.399
sh	-11.3992
▁mw	-11.3995
▁130	-11.3998
name	-11.4008
▁zwarte	-11.402
alis	-11.4027
▁intraductal	-11.4028
▁vegetatie	-11.4029
▁07.	-11.403
▁mismatch	-11.403
▁klaagde	-11.403
▁vertoont	-11.403
stuitlengte	-11.403
▁solutio	-11.4031
▁dikkedarm	-11.4032
▁viscerale	-11.4035
▁ossale	-11.4041
▁temperatuur	-11.4041
eve	-11.4044
▁radiatie	-11.4049
vormige	-11.4056
▁nachts	-11.4061
tro	-11.4067
▁depressie	-11.4068
oppervlak	-11.4069
mucosa	-11.4069
resistente	-11.4077
▁scopie	-11.4077
tur	-11.4079
▁uitend	-11.4084
▁gang	-11.4089
4):	-11.4094
we	-11.4094
anamnese	-11.4099
11;	-11.41
▁50%.	-11.4108
▁toilet	-11.4119
verscheidene	-11.4119
▁arteriopathie	-11.412
▁cutaneum	-11.412
▁vaatstructuren	-11.412
▁parasieten	-11.412
▁bouw	-11.412
▁drievats	-11.4121
▁altijd	-11.4121
stansbiopsie	-11.4121
▁mengflora	-11.4121
▁leptomeningeale	-11.4123
▁6:	-11.4128
▁verwachten	-11.4132
▁gezamenlijk	-11.4146
dermatitis	-11.4147
▁defecten	-11.4149
▁cells	-11.4151
▁ratio	-11.4152
▁580	-11.4154
verslag	-11.4161
peripancreatisch	-11.4162
ingen	-11.4169
▁weg	-11.4176
tussen	-11.418
▁voorbij	-11.4193
▁cti	-11.4201
proliferatief	-11.4204
ani	-11.4207
▁gegroeid	-11.4209
▁getracht	-11.4209
▁monochoriale	-11.4209
▁mitotisch	-11.4209
▁strengileus	-11.4209
▁onopvallend	-11.4209
▁periportale	-11.4209
▁gevraagd	-11.4212
▁cirrotisch	-11.4213
13-	-11.4214
▁insuline	-11.4214
extrahepatische	-11.4216
▁460	-11.4216
▁omvang	-11.4217
▁autosomaal	-11.4218
▁longarterien	-11.4224
▁breslowdikte	-11.4225
▁pneumonitis	-11.4234
▁190	-11.4236
skh	-11.4237
▁2,3	-11.4247
▁tesamen	-11.4251
_	-11.4253
81	-11.4255
▁bijpassend	-11.4255
▁17-	-11.4267
▁ablatie	-11.4275
hersenmetastasen	-11.4277
onderwand	-11.4277
acuut	-11.4286
▁sta	-11.4291
▁galweg	-11.4295
functie	-11.4297
ms	-11.4298
▁basocellulare	-11.43
▁callosum	-11.43
▁epilepticus	-11.43
▁teratoom	-11.43
▁toezending	-11.43
▁hemiparese	-11.43
▁liposarcoom	-11.43
▁eiwitten	-11.4301
▁hormonale	-11.4302
▁frontoparietaal	-11.4303
▁polypeus	-11.4303
▁tongrand	-11.4305
▁caput	-11.4307
ph	-11.4308
▁bacteriologisch	-11.4308
▁rechterbeen	-11.4311
▁weten	-11.4311
▁linkerbeen	-11.4314
nte	-11.4315
mantelcellymfoom	-11.432
▁25%	-11.4324
▁tumorvrije	-11.4325
▁blastaire	-11.4327
▁steel	-11.4328
▁pomp	-11.4328
bloedingen	-11.4331
▁ki	-11.4333
▁pussig	-11.4334
folliculaire	-11.4336
▁gedissemineerde	-11.4339
▁gepigmenteerd	-11.4346
laesie	-11.4356
▁incisie	-11.4357
0)	-11.4359
▁ra	-11.4361
▁89-	-11.4369
duodenum	-11.4377
pathologische	-11.4384
isatie	-11.4384
▁verpleeghuis	-11.4385
▁berichtgeving	-11.4392
▁inclusiecyste	-11.4393
oid	-11.4393
▁leken	-11.4395
▁hartkamers	-11.4396
▁bijmenging	-11.4399
▁lymfomen	-11.4399
▁ossaal	-11.44
▁verbreding	-11.4402
uurs	-11.4402
▁gvhd	-11.4403
▁bioprothese	-11.441
2021	-11.4412
▁purkinje	-11.4425
▁circumflexa	-11.4426
▁geulcereerd	-11.4433
▁tumormetastase	-11.4435
▁nootmuskaat	-11.4439
lichaamsarterien	-11.4445
▁pseudocyste	-11.4452
▁3-4	-11.446
ewustzijnsdaling	-11.4462
verlies	-11.4462
▁littekengebied	-11.4463
▁centimeter	-11.4472
▁ontslag	-11.4474
▁kant	-11.4476
ac	-11.4481
▁samenhangen	-11.4481
33	-11.4482
▁mitraal	-11.4484
▁studie	-11.4484
▁mastopathie	-11.4484
▁voelde	-11.4484
▁polyposis	-11.4484
▁droog	-11.4484
▁heupkop	-11.4484
▁twaalf	-11.4486
▁funiculitis	-11.4486
▁nicotine	-11.4487
matige	-11.4487
la	-11.4488
▁effecten	-11.449
▁afplatting	-11.4491
▁reageerde	-11.4491
▁hyperkaliemie	-11.4492
0).	-11.4492
15:	-11.4499
dra	-11.4499
▁plekken	-11.4501
▁water	-11.4503
▁mutatieanalyse	-11.4503
▁referentie	-11.4505
▁proliferatief	-11.4511
▁gemacereerd	-11.452
nve	-11.4537
▁47-	-11.4538
▁(0/1).	-11.4539
▁hartmann	-11.456
spoelvocht	-11.4561
codon	-11.4567
kwaliteit	-11.4567
▁aritmie	-11.4572
▁mg	-11.4574
42	-11.4575
▁smalle	-11.4575
▁vinger	-11.4576
▁uitgezet	-11.4576
▁host	-11.4578
▁tubectomie	-11.4578
84	-11.4578
▁hematogeen	-11.4579
▁opgevraagd	-11.458
▁ontregeling	-11.458
▁arachnoidea	-11.4581
20-	-11.4581
▁sclerodermie	-11.4582
▁stevig	-11.4586
sinfiltraten	-11.4586
▁coronairstenose	-11.4588
oesofagusvarices	-11.46
gemedieerde	-11.4601
▁nsclc	-11.4601
ab	-11.4603
▁lichtmicroscopi	-11.4611
anale	-11.4612
▁norm	-11.4617
▁biliaire	-11.4617
intra	-11.463
82	-11.463
▁2.5	-11.4636
rsi	-11.4637
▁corpusbiopten	-11.4651
▁ao	-11.4653
ast	-11.4657
▁(400	-11.4664
11-	-11.4668
risk	-11.4669
▁sle	-11.467
▁aanwijsba	-11.4672
▁dientengevolge	-11.4672
▁haematurie	-11.4672
▁plaatsvinden	-11.4672
kalenderleeftijd	-11.4672
▁lumenvernauwing	-11.4672
hemihepatectomie	-11.4673
▁nauw	-11.4675
▁pneumocystis	-11.4675
del	-11.4675
▁irradicaal	-11.4678
7)	-11.4678
36	-11.4681
▁restlumina	-11.4681
▁extensie	-11.4682
▁geacht	-11.4686
▁gemodificeerde	-11.4692
▁motor	-11.4696
▁biventriculair	-11.4696
▁bcc	-11.4697
▁1250	-11.4701
▁ochtends	-11.4702
▁afd	-11.4705
▁2018	-11.4705
▁relevant	-11.4708
lopend	-11.4712
typeslijmvlies	-11.4714
▁pleksgewij	-11.4718
▁eosinofielen	-11.4722
▁bloedingsrest	-11.4723
▁poliepjes	-11.4727
nucleaire	-11.4731
graft	-11.4743
2015	-11.4755
▁thoraxdrain	-11.4755
▁antracose	-11.4759
▁22-	-11.476
▁myo	-11.4765
▁sonde	-11.4766
▁betekent	-11.4767
▁hemisferen	-11.4767
▁weegt	-11.4767
▁rosacea	-11.4767
▁toegediend	-11.4767
▁vergelijkbaar	-11.4768
▁cardioloog	-11.4768
fe	-11.4768
▁borg	-11.4769
▁annulus	-11.477
▁zit	-11.477
▁acanthose	-11.4771
▁bursa	-11.4771
▁fisteling	-11.4773
▁pitting	-11.4774
▁augmentin	-11.4775
▁fulminant	-11.4777
▁mammapunctie	-11.478
▁vernauwde	-11.4782
oesophagus	-11.4787
▁polymorfe	-11.479
51	-11.4791
▁staart	-11.4792
-20	-11.4794
▁leverfibrose	-11.4804
stage	-11.4804
▁vochtrijk	-11.4806
pitheelcarcinoom	-11.4809
septum	-11.4816
▁overgangse	-11.4816
▁transurethra	-11.4818
▁hem	-11.4819
▁huidafwijkingen	-11.482
▁colonbiopt	-11.4822
circumferentieel	-11.4827
▁okselvet	-11.4833
94	-11.484
89	-11.4841
2014	-11.4851
▁gebruikt	-11.4855
5:	-11.4856
▁extraprostat	-11.4862
▁buikoperatie	-11.4862
▁aangetast	-11.4864
▁massieve	-11.4864
▁frontotemporale	-11.4864
▁restrictie	-11.4864
▁oorzakelijk	-11.4864
▁femurfractuur	-11.4864
▁duodenitis	-11.4864
▁renis	-11.4864
▁cardiologie	-11.4864
os	-11.4866
▁laceratie	-11.4869
che	-11.4871
▁medebeoordeeld	-11.4872
▁ontslagen	-11.4874
▁540	-11.4879
▁centrilobulaire	-11.489
▁(9	-11.4894
▁colonpoliep	-11.4899
▁rechtermamma	-11.4899
localisaties	-11.4903
sm	-11.4908
▁meeste	-11.4925
▁0).	-11.4932
▁cis	-11.4942
▁pancreatico	-11.4944
0,	-11.4951
tvu	-11.4955
▁obturatorius	-11.4958
▁alpha	-11.4961
▁bewerkt	-11.4961
▁bovinum	-11.4961
▁gezorgd	-11.4961
▁hemodialyse	-11.4961
▁orchidectomie	-11.4961
▁plaatsvond	-11.4961
▁vertonen	-11.4961
spondylodiscitis	-11.4961
itiele	-11.4961
▁neuroom	-11.4963
▁280	-11.4968
behandeling	-11.497
▁risk	-11.4971
gene	-11.4974
▁rontgen	-11.4987
▁lymf	-11.4987
▁pea	-11.4987
6):	-11.4988
▁ruiter	-11.4989
▁hotspots	-11.499
2022	-11.4991
▁520	-11.4993
2020	-11.4994
▁reuscel	-11.4996
▁fibrinoide	-11.4996
▁vals	-11.5002
▁ms	-11.5004
▁linkerschouder	-11.5004
▁hormoonreceptor	-11.5005
▁bijbevindingen	-11.5007
uren	-11.5014
▁groeiende	-11.5021
▁vf	-11.5023
▁4)	-11.5033
kweken	-11.5034
▁serie	-11.5037
▁vesicula	-11.5043
vanwege	-11.5053
▁overhechting	-11.5055
▁huidafwijking	-11.5058
▁beinvloed	-11.5058
▁side	-11.5058
▁helicis	-11.5059
▁ledematen	-11.5059
▁ongewoon	-11.5059
▁oplevert	-11.5059
▁microkalk	-11.5059
70	-11.506
▁lichenoa	-11.506
▁cdkn	-11.506
▁cysticus	-11.5062
▁cellulitis	-11.5064
▁niercyste	-11.5065
▁breed	-11.5065
▁opgesneden	-11.5066
▁bloedstuwing	-11.5068
▁verlengde	-11.5068
▁trap	-11.5068
▁endocardiale	-11.5069
▁1-	-11.5071
▁schatting	-11.5072
▁sporen	-11.5076
▁toediening	-11.5078
▁emd	-11.5081
▁septale	-11.5085
▁48-	-11.5093
▁lijnen	-11.5099
stens	-11.5101
▁prominent	-11.5106
▁onverwachte	-11.5112
amnionitis	-11.5125
▁heftige	-11.5126
▁frequent	-11.5127
ns	-11.5129
cre	-11.5134
vaten	-11.5148
▁ingehechte	-11.5149
▁kortademig	-11.5157
▁coprostase	-11.5158
▁haematopoese	-11.5158
▁sjogren	-11.5158
▁maagcardia	-11.5159
rmate	-11.5159
▁initieel	-11.516
▁420	-11.5162
darm	-11.5166
▁aspiraat	-11.5167
▁rechtercoronair	-11.5168
▁loopt	-11.5169
orme	-11.5169
▁0.5	-11.517
▁hartritme	-11.517
▁huidcurettement	-11.5176
▁vertex	-11.5176
.2:	-11.5177
▁schouderbladen	-11.5182
▁gestuurd	-11.5184
▁reductie	-11.5185
vaatproliferatie	-11.5195
05-	-11.5207
04,	-11.521
▁geleverd	-11.521
▁atelectatisch	-11.5218
96	-11.522
▁bovenooglid	-11.5224
tis	-11.5238
83	-11.5238
▁93	-11.5241
▁430	-11.5247
thrombose	-11.5249
▁110	-11.5254
▁ingesteld	-11.5254
▁huntington	-11.5258
▁begonnen	-11.5258
▁vruchtholte	-11.5258
▁arteriolen	-11.5258
4;	-11.5259
▁chronicus	-11.5259
▁weefselverval	-11.5259
jsl	-11.526
▁gedraineerd	-11.526
▁doorgesneden	-11.5261
▁beiden	-11.5261
▁inoperabel	-11.5261
erzorgingsgebied	-11.5265
▁caverneus	-11.5267
▁oren	-11.527
▁ruimer	-11.5274
▁werk	-11.5276
epitheelcellen	-11.5277
▁1995	-11.5278
▁degeneratief	-11.5287
houdende	-11.5292
▁kuur	-11.5295
gebieden	-11.5295
air	-11.5297
▁dubbel	-11.5302
▁genoemd	-11.5305
▁lager	-11.5318
39	-11.5323
▁510	-11.5338
▁smal	-11.5348
▁08.	-11.5353
pleuraholte	-11.5356
im	-11.5357
▁condyloma	-11.5358
▁legionella	-11.5359
▁zichtbare	-11.5359
▁lengtematen	-11.5359
▁zelfde	-11.5359
lima	-11.5362
▁gepland	-11.5365
▁iliacaal	-11.5365
▁atn	-11.5365
▁29-	-11.5365
▁liep	-11.5368
▁uitname	-11.5368
▁serologie	-11.5369
▁cancer	-11.5375
▁verkleefde	-11.5378
▁ongoing	-11.5382
▁celpopulatie	-11.5383
▁episodes	-11.5387
▁pro	-11.5394
▁pat	-11.54
gecompromiteerde	-11.5403
▁95	-11.5407
▁schildwacht	-11.5407
ni	-11.5421
bs	-11.5436
lengte	-11.5437
▁(*******).	-11.5439
erend	-11.5458
▁vertoonde	-11.5458
medicamenteuze	-11.5459
loze	-11.5459
coecum	-11.5459
rijgingstechniek	-11.5461
▁epiglottis	-11.5461
▁hybridisatie	-11.5461
▁lactaatacidose	-11.5461
▁afgegeven	-11.5461
cholesterolaemie	-11.5461
▁prostatica	-11.5461
▁larynxcarcinoom	-11.5464
▁ingedikt	-11.5467
▁vats	-11.5468
▁(300	-11.5468
▁wigvormig	-11.5469
▁histiocytoom	-11.5469
▁elektronen	-11.5469
▁gladde	-11.5469
▁hashimoto	-11.5471
▁verondersteld	-11.5472
▁haargrens	-11.5474
▁snijden	-11.5477
▁fuhrman	-11.5478
▁asd	-11.5478
neoadjuvante	-11.5479
▁longbiopten	-11.5485
▁pancreasweefsel	-11.5486
4-	-11.5487
▁blijvende	-11.5488
▁alsnog	-11.5503
▁uitgaand	-11.5508
antrumslijmvlies	-11.5515
▁23-	-11.5517
▁postero	-11.5519
19-	-11.5531
▁aangelegde	-11.5537
▁stop	-11.5547
▁puspocket	-11.5552
▁puntje	-11.5563
▁discreet	-11.5564
▁verbreed	-11.5564
▁voorhanden	-11.5564
▁vaatstelsel	-11.5564
▁hypercalciemie	-11.5565
▁avitaal	-11.5565
▁angiodysplasie	-11.5565
▁transuretra	-11.5566
▁componenten	-11.5567
▁radiculaire	-11.5567
▁ataxie	-11.5569
▁shift	-11.5569
▁nefro	-11.5569
▁midline	-11.557
celpercentage	-11.5573
celcarcinoom	-11.5583
▁1350	-11.5589
wond	-11.5595
he	-11.5601
▁(20	-11.5603
▁angiografie	-11.5613
44	-11.5619
▁2+	-11.5623
vasculaire	-11.5626
7,	-11.5628
nooit	-11.5629
▁maagcorpustype	-11.5643
hartspiernecrose	-11.5659
▁mi	-11.566
▁verward	-11.5667
▁26-	-11.5668
▁basaalmembraan	-11.5668
▁rekanalisatie	-11.5668
▁kleplijden	-11.5669
▁onderkaak	-11.5669
▁knieprothese	-11.567
▁ventriculi	-11.5671
▁aangeboren	-11.5671
▁purpura	-11.5672
▁separate	-11.5672
mvg	-11.5673
▁longziekte	-11.5673
▁zijsnijvlakken	-11.5675
▁hoofdbronchien	-11.5678
spoliep	-11.569
aneurysma	-11.5691
48	-11.5692
holte	-11.57
▁stuit	-11.5714
▁aanvoelend	-11.5716
▁geplaatste	-11.5721
▁contusie	-11.5726
bloed	-11.5727
tekening	-11.573
eleidingssysteem	-11.5732
▁eus	-11.5742
drie	-11.5753
▁methotrexaat	-11.5758
infarceringen	-11.5764
▁11.	-11.5764
▁even	-11.5772
".	-11.5772
▁krabeffect	-11.5773
▁betrekkelijk	-11.5773
▁lichaamsmaten	-11.5773
▁map	-11.5774
▁eeg	-11.5774
nefrosclerose	-11.5775
jth	-11.5775
▁aansluiting	-11.5776
▁vrijgegeven	-11.5776
▁verhouding	-11.5776
▁voortgeschreden	-11.5777
▁am	-11.5778
synucleine	-11.5779
▁apc	-11.5781
▁darmlijden	-11.5781
focaal	-11.5781
▁fibrosehaardjes	-11.5781
▁longtop	-11.5782
host	-11.5782
▁subacuut	-11.5784
▁opgelopen	-11.5784
▁1996	-11.5785
▁cystectomie	-11.5787
▁epitheelcellen	-11.5788
▁hematologische	-11.5793
54	-11.5796
▁niets	-11.5804
5)	-11.5815
▁by	-11.5825
▁duct	-11.5828
▁recidiverend	-11.5828
▁620	-11.5831
▁aanvoelende	-11.5833
verk	-11.5848
rw	-11.5852
▁restlokalisatie	-11.5858
▁levernaaldbiopt	-11.586
appendixresectie	-11.5861
axonale	-11.5862
▁reiken	-11.5864
▁hoofdbronchi	-11.5869
optimale	-11.5879
▁compartiment	-11.5879
▁herkennen	-11.588
▁stigmata	-11.588
▁nodosa	-11.588
▁langzaam	-11.588
▁schizofrenie	-11.588
▁merendeel	-11.588
▁pancreaticus	-11.588
▁novo	-11.588
▁celgroepen	-11.5881
▁angioom	-11.5881
▁reperfusie	-11.5881
buisprothese	-11.5882
longoedeem	-11.5883
▁darmlis	-11.5883
▁nieman	-11.5884
▁tumordoorgroei	-11.5885
▁duim	-11.5886
▁concentratie	-11.5887
▁±	-11.5887
rca	-11.5887
▁mors	-11.5888
▁krabeffecten	-11.589
▁tumordiameter	-11.5892
▁placentabed	-11.5892
8)	-11.5894
▁micrografi	-11.5894
▁pompfunctie	-11.5896
▁levernecrose	-11.5897
▁second	-11.59
omateuze	-11.5909
avs	-11.591
▁aanvragend	-11.5914
▁uitslagen	-11.5914
▁krappe	-11.5916
▁nierweefsel	-11.5918
▁radiologische	-11.5926
morbu	-11.5926
▁hartafwijkingen	-11.5927
tekens	-11.5929
arg	-11.593
sonde	-11.5933
sa	-11.594
▁onderzoeken	-11.5952
▁multinodulaire	-11.5952
baar	-11.5955
▁530	-11.5958
▁(450	-11.596
71	-11.5962
▁tumornecrose	-11.5967
gerelateerde	-11.5975
klierweefsel	-11.5975
traject	-11.5976
laparotomie	-11.5977
▁abcesholte	-11.5984
]	-11.5987
▁liezen	-11.5987
▁universitair	-11.5987
▁vaatmalformatie	-11.5987
▁thrombopenie	-11.5987
▁error	-11.5987
▁vaatspasmen	-11.5988
▁thoraxfoto	-11.5988
▁hoornmateriaal	-11.5988
arterie	-11.5988
▁ontwikkelt	-11.5989
toe	-11.599
oestrogeen	-11.5991
▁plaquevorming	-11.5991
fish	-11.5992
▁clonale	-11.5993
dien	-11.5994
▁straat	-11.5996
▁cystewand	-11.5996
wille	-11.6
klep	-11.6004
▁hechtingen	-11.6014
▁950	-11.6015
▁(200	-11.6016
deposities	-11.6019
inflammatoire	-11.6021
▁aangeleverde	-11.6021
▁chorio	-11.6025
si	-11.6033
57	-11.6036
▁13-	-11.6038
▁georganiseerd	-11.6038
77	-11.6042
▁point	-11.6049
dh	-11.6051
▁grijs	-11.6053
▁toeval	-11.6059
▁46-	-11.6065
▁pet	-11.6066
klier	-11.6067
eku	-11.6069
behoeftig	-11.6073
▁1800	-11.6074
▁schoon	-11.6077
▁mola	-11.6078
stb	-11.608
▁bied	-11.6082
tenzij	-11.6093
fibrillatie	-11.6095
▁interpreteren	-11.6096
▁verhaal	-11.6096
▁mucocele	-11.6096
▁myelodysplasie	-11.6096
▁onderkwadrant	-11.6099
haard	-11.6099
▁mdo	-11.6099
vocht	-11.6099
transplantaat	-11.61
egfr	-11.6101
▁risicofactoren	-11.6101
▁intramurale	-11.6105
▁adrenaline	-11.6107
.35	-11.6109
▁plus	-11.6111
cerebellaire	-11.6114
andere	-11.6116
microangiopathie	-11.6118
▁capsula	-11.6125
8/	-11.6129
pulmonale	-11.6129
beenmergaspiraat	-11.6133
▁1%	-11.6149
ti	-11.615
pathologisch	-11.6157
achter	-11.6162
▁1+	-11.6166
segment	-11.6167
▁transplantaat	-11.6167
38	-11.6169
▁regeneratie	-11.618
▁(100%)	-11.6184
cl	-11.6185
mv	-11.6203
00-	-11.6204
ampliseq	-11.6206
▁verloren	-11.6206
▁tevoren	-11.6206
▁neurologie	-11.6208
▁geimplanteerd	-11.6209
▁dysmorfieen	-11.621
virus	-11.621
▁pms	-11.621
▁poliepeuze	-11.621
hospital	-11.6212
▁darmmucosa	-11.6213
▁preputium	-11.6213
▁rectumamputatie	-11.6214
▁retroauriculair	-11.6214
▁celverval	-11.6216
▁kaakhoek	-11.6217
▁invloed	-11.6221
▁parese	-11.6222
▁lineaire	-11.6224
▁cervixcarcinoom	-11.6225
septaal	-11.6225
▁meningo	-11.6227
▁bronchiale	-11.6227
ff	-11.624
▁herhaalde	-11.6259
▁gebouwd	-11.6259
▁clonaliteits	-11.6262
▁5-	-11.6263
macroscopisch	-11.6264
▁10-	-11.6267
75	-11.6272
▁behandelen	-11.6277
▁plek	-11.6283
▁stand	-11.6284
▁gevulde	-11.6284
▁waarde	-11.6292
72	-11.6295
▁bv	-11.6295
▁synovium	-11.6313
9)	-11.6314
▁instrumenta	-11.6317
▁follow	-11.6317
▁achterhaald	-11.6317
▁diathese	-11.6317
▁obliterans	-11.6317
▁streptokokken	-11.6317
▁verschijnsel	-11.6317
▁src	-11.6317
▁vaginatop	-11.6317
▁hyperaemie	-11.6317
uterine	-11.6318
▁rectumstomp	-11.6318
▁uitgelokt	-11.6319
▁endometriosis	-11.6319
▁intraductaal	-11.6319
▁hamartoom	-11.6319
▁rubriek	-11.632
▁cloacae	-11.6321
▁gave	-11.6321
▁cytokeratine	-11.6322
▁parkinsonisme	-11.6322
implantatie	-11.6324
▁mycotisch	-11.6329
trombose	-11.6331
▁hevige	-11.6334
▁halve	-11.6336
▁hoorn	-11.6338
tumordiameter	-11.6339
▁ingestelde	-11.6339
▁gastric	-11.6339
▁blaasbiopt	-11.634
ui	-11.6346
▁or	-11.6352
lymfangioinvasie	-11.6358
▁fna	-11.6365
ziekte	-11.6365
bn	-11.6365
/*******	-11.6369
▁polycysteu	-11.6375
borst	-11.6385
.02	-11.639
▁zn	-11.6393
naar	-11.6394
/11	-11.6407
excentrische	-11.6411
cu	-11.6411
▁?	-11.6414
▁490	-11.6416
chien	-11.642
▁gevoed	-11.6426
▁atheromatose	-11.6429
▁delirant	-11.6429
▁distress	-11.6429
▁binnengebracht	-11.6429
▁angiolipoom	-11.6429
locoregionale	-11.6429
▁arterietak	-11.6431
▁pyelitis	-11.6432
▁hematemesis	-11.6432
▁1994	-11.6434
▁gebaseerd	-11.6436
▁(600	-11.6441
▁vera	-11.6445
▁ontwikkelings	-11.6445
▁stasis	-11.6447
kleuringen	-11.6448
▁560	-11.6451
embolisatie	-11.6452
▁parameters	-11.6458
cytologie	-11.646
veelal	-11.6463
17:	-11.6473
▁overgaand	-11.6476
▁adherent	-11.6483
08:	-11.6485
▁tweetaks	-11.6486
▁miss	-11.6491
▁lyse	-11.6492
▁linkeronderbeen	-11.6496
▁zones	-11.6498
▁vaster	-11.6502
infarctlittekens	-11.651
so	-11.6517
▁overgevoelig	-11.6519
▁wilde	-11.6522
pi	-11.6525
▁intrauterien	-11.6527
▁haemorrhagie	-11.6535
37	-11.6538
▁680	-11.654
▁crusta	-11.6542
▁daags	-11.6543
▁hieromheen	-11.6543
▁mesencefalon	-11.6543
▁gebiopteerd	-11.6543
▁nefrolithiasis	-11.6543
▁pericardzakje	-11.6543
▁braaksel	-11.6543
▁270	-11.6543
▁massawerking	-11.6543
▁paratracheale	-11.6543
▁1992	-11.6547
▁herhaaldelijk	-11.6548
▁2/3	-11.655
▁oplopend	-11.6551
87	-11.6552
▁cytonucleair	-11.6553
diffuse	-11.6553
middenkwab	-11.6553
derdegraads	-11.6554
vats	-11.6556
▁vloeistof	-11.6558
defect	-11.6564
▁hpf	-11.6564
haardjes	-11.6566
▁herstelde	-11.6574
satypie	-11.6578
▁kuren	-11.6578
▁opmerking	-11.6579
▁ker	-11.6582
▁3+3	-11.6582
▁2,1	-11.6584
▁irregulaire	-11.6588
▁potje	-11.6594
▁longpathologie	-11.6596
▁hydro	-11.6597
cell	-11.6599
▁begrensd	-11.66
granuloomvorming	-11.6603
▁medullair	-11.6603
▁reagerend	-11.6606
▁45-	-11.6608
▁rechteratrium	-11.6618
rechteronderbeen	-11.6621
ef	-11.6625
mi	-11.6633
▁brengen	-11.6636
▁lung	-11.6645
▁paget	-11.6648
▁pi	-11.6655
▁streptococ	-11.6658
▁luidt	-11.6658
▁zonbeschadigd	-11.6658
▁polyneuropathie	-11.6658
▁ontbinding	-11.6658
▁afgewerkt	-11.6658
▁beenvenen	-11.6659
▁subserosale	-11.666
▁leversteatose	-11.6661
▁endometroid	-11.6662
▁kanaal	-11.6663
▁submandibulair	-11.6666
▁valvula	-11.6666
▁1700	-11.6667
▁zichzelf	-11.6667
▁ajcc	-11.6668
▁aangepast	-11.6668
▁placentarest	-11.6669
benigne	-11.6669
fibroserende	-11.6669
▁gemiddeld	-11.6674
delen	-11.6674
▁capillaire	-11.6675
3000	-11.6679
post	-11.668
▁inclusie	-11.6681
kt	-11.6682
▁left	-11.6686
▁longinfarcten	-11.6688
anatomische	-11.6689
nos	-11.669
2),	-11.6701
verschijnselen	-11.6704
▁excisiebiopsie	-11.6708
7):	-11.6709
opstijgende	-11.6709
▁610	-11.6713
patient	-11.6717
mortale	-11.6722
thromboembolieen	-11.6723
▁hilair	-11.6729
▁gemengd	-11.6732
schouder	-11.6732
▁redelijke	-11.6742
tisch	-11.6743
▁donkere	-11.6745
▁27-	-11.6747
9.	-11.6753
hand	-11.6765
▁herzfehler	-11.6766
▁utero	-11.6766
▁*******;	-11.6769
laag	-11.6773
▁portio	-11.6774
▁echtgenote	-11.6774
▁eetlust	-11.6774
▁haematopoiese	-11.6774
▁insectenbeet	-11.6774
▁makkelijk	-11.6774
▁oedemen	-11.6774
▁roux	-11.6774
jbe	-11.6774
▁geweld	-11.6774
▁respiratorius	-11.6774
▁intake	-11.6775
▁ulcusbodem	-11.6776
▁gliale	-11.6776
▁cocaine	-11.6778
▁tracheitis	-11.6778
erbloedingsshock	-11.6779
empyeem	-11.6781
iliacaal	-11.6786
▁11-	-11.6787
▁loslating	-11.6787
▁nasolabiaal	-11.679
▁hoogst	-11.6791
▁zgn	-11.6792
▁eosinofiel	-11.6793
▁dehiscentie	-11.6793
▁14-	-11.6796
10-	-11.6801
▁medenem	-11.6801
▁positie	-11.6801
▁myxoide	-11.6807
▁onderscheiden	-11.6809
indweefselziekte	-11.6809
▁plaveiselcellig	-11.681
ce	-11.6813
▁renaal	-11.6816
▁shockbeeld	-11.6818
kh	-11.6824
▁5)	-11.6828
ke	-11.6832
▁ileumslijmvlies	-11.6838
immuunhistochem	-11.684
▁320	-11.6841
transversum	-11.6842
aa	-11.685
▁lytisch	-11.6855
lu	-11.6855
lichaampjes	-11.6855
4).	-11.6856
▁gemelli	-11.6861
reanimatiepoging	-11.6862
▁verslagen	-11.6863
ium	-11.6865
letsel	-11.688
volume	-11.6882
▁zag	-11.6885
▁1,9	-11.6885
▁enzym	-11.6886
▁verslechterend	-11.6887
clone	-11.6887
▁consistent	-11.689
▁geobstrueerd	-11.6892
▁gepresenteerd	-11.6892
▁langerhans	-11.6892
▁rhabdomyolyse	-11.6892
▁schwannoom	-11.6892
▁mycosis	-11.6892
▁tegenstelling	-11.6892
▁monoclonale	-11.6892
▁vermis	-11.6892
▁sternumfractuur	-11.6892
gehypertrofieerd	-11.6892
▁perirenaal	-11.6892
▁(90%)	-11.6892
▁euthanasie	-11.6894
▁ontkleurd	-11.6894
▁respiratory	-11.6899
overgang	-11.6899
▁catecholamine	-11.6902
▁vriesmateriaal	-11.6904
▁codon	-11.6906
decompensatio	-11.6906
▁daaropvolgend	-11.6906
▁zijranden	-11.6908
▁1993	-11.6908
▁birads	-11.6909
▁bestraald	-11.6912
▁malt	-11.6913
▁infarctgebieden	-11.6917
▁acantholytische	-11.6921
▁blaastumor	-11.6924
<	-11.6925
▁linkerbovenbeen	-11.6925
▁leuko	-11.693
lb	-11.6931
▁tumorembolieen	-11.6932
appendicitis	-11.6933
▁somatisch	-11.694
▁luchthoudende	-11.694
▁nsip	-11.6941
po	-11.6941
▁belemmering	-11.6942
▁ptag	-11.6944
/10	-11.6946
extra	-11.6951
▁incisiebiopt	-11.6952
sc	-11.6952
▁geconsolideerd	-11.6953
2013	-11.6953
▁obstruerend	-11.6953
▁gedegenereerd	-11.6955
doende	-11.6958
▁voorstel	-11.6961
▁pleurabiopten	-11.697
like	-11.6972
66	-11.6976
neuro	-11.6977
▁blok	-11.6983
▁insula	-11.7008
mediale	-11.7009
▁afgeplat	-11.7011
▁cyanose	-11.7011
▁fungoides	-11.7011
▁gesuggereerd	-11.7011
▁orale	-11.7011
taal	-11.7012
▁leukocytose	-11.7014
▁urotheelcellen	-11.7014
etale	-11.7019
▁luxerend	-11.7019
▁spoelvocht	-11.7025
naad	-11.7026
topografie	-11.7026
lymfocyten	-11.7026
▁presternaal	-11.7027
jaren	-11.7028
▁hartschade	-11.7029
▁evar	-11.7035
▁uterusresectie	-11.7038
▁sepsismilt	-11.7041
▁vermelden	-11.7041
▁(700	-11.7042
mn	-11.7044
▁pdl	-11.7044
▁vaginale	-11.7047
wa	-11.7053
▁lysis	-11.7055
▁histochemisch	-11.7057
▁cag	-11.7065
▁naschrift	-11.7067
▁bekleding	-11.7069
▁afm	-11.7071
▁reusceltumor	-11.7071
▁technisch	-11.7072
pen	-11.7075
▁junction	-11.7078
▁afgedekt	-11.708
ive	-11.7081
▁groeide	-11.7082
▁ruimtes	-11.7088
▁decidua	-11.7089
▁concentrisch	-11.7089
▁220	-11.7091
ser	-11.7099
nm	-11.71
va	-11.7102
▁390	-11.7103
treffen	-11.7105
▁wig	-11.7111
▁fronto	-11.7123
ureter	-11.7124
grade	-11.7124
▁fiets	-11.7125
▁essentie	-11.7126
min	-11.7129
▁verbloed	-11.7131
▁zeldzaam	-11.7131
▁pneumokokken	-11.7131
▁eilandjes	-11.7131
▁galsteenlijden	-11.7131
▁bleven	-11.7132
▁bronchusbiopt	-11.7133
▁geneeskunde	-11.7133
▁fistelvorming	-11.7134
▁tumorpercentage	-11.7136
▁vloeibaar	-11.7136
infrarenale	-11.7138
▁collageneuze	-11.7138
▁paravertebraal	-11.7139
▁arteriitis	-11.7144
macrofagen	-11.7146
bijvoorbeeld	-11.7148
cabg	-11.7148
▁mat	-11.7149
bare	-11.7149
▁demyelinisatie	-11.715
iliacale	-11.715
zover	-11.715
▁omringende	-11.7153
▁adnexa	-11.7154
▁zijresectievlak	-11.7158
▁ph	-11.7158
▁ductcarcinoom	-11.7159
▁340	-11.7159
▁shocklever	-11.7165
▁bovenop	-11.7166
heidsreactie	-11.7167
▁44-	-11.718
▁excisies	-11.7184
▁reageren	-11.7186
top	-11.7188
additionele	-11.7194
▁intracranial	-11.7195
jv	-11.7209
▁shavebiopt	-11.7211
ris	-11.7213
arm	-11.7216
▁("	-11.7216
aj	-11.7222
▁hemi	-11.723
do	-11.7235
glu	-11.7246
▁radio	-11.7252
▁gebiedje	-11.7253
oesofageale	-11.7253
▁bejaarde	-11.7253
▁genherschikking	-11.7253
▁geschikt	-11.7253
▁sinusoiden	-11.7253
▁suggereert	-11.7253
▁myelopoese	-11.7253
▁fataal	-11.7253
▁krijgt	-11.7253
▁stoppen	-11.7254
▁hemibeeld	-11.7254
▁formaline	-11.7254
▁jak	-11.7256
6)	-11.7257
▁bijnieradenoom	-11.7258
placenta	-11.7259
▁complicerende	-11.7261
▁ziekelijk	-11.7263
▁prepylorisch	-11.7263
beide	-11.7264
▁stereotactische	-11.7264
▁(22	-11.7266
▁preterminaal	-11.7266
lymfklieren	-11.7271
intoxicatie	-11.7272
spontaan	-11.7272
21-	-11.7275
41	-11.7276
▁gemaakte	-11.7276
▁voeren	-11.7277
sparameters	-11.7285
▁verschil	-11.7291
▁haemorragische	-11.7291
▁43-	-11.7292
▁drukken	-11.731
18:	-11.7314
▁pten	-11.7315
▁gemengde	-11.7315
▁lopend	-11.7317
microsatellitose	-11.7325
▁370	-11.7326
tt	-11.733
▁tal	-11.7333
▁achterblijvend	-11.7333
▁mammanaaldbiopt	-11.7341
ootmuskaataspect	-11.7341
▁pogingen	-11.7343
▁med	-11.7344
▁verweekte	-11.7366
▁94	-11.7369
▁minuscule	-11.7377
▁panniculitis	-11.7377
▁verstuurd	-11.7377
▁disarray	-11.7377
▁claudicatio	-11.7377
▁onwelwording	-11.7377
▁verbrede	-11.7377
mvdr	-11.7377
▁premature	-11.7378
▁veldjes	-11.7382
▁aspergilloom	-11.7383
▁ix	-11.7384
▁anatomie	-11.7384
▁group	-11.7387
▁splitsing	-11.7387
▁congorood	-11.7387
▁longembolisatie	-11.7388
▁kaakrand	-11.7389
▁2,8	-11.739
▁infarcthaardjes	-11.7391
▁vetembolieen	-11.7391
distaal	-11.7397
▁ontwikkelende	-11.7397
centraal	-11.7398
▁grocott	-11.7399
▁draden	-11.7405
▁inhechting	-11.7415
▁houden	-11.7428
125	-11.7428
▁gevorderd	-11.743
nnb	-11.7438
▁sprietig	-11.7443
▁dubbelzijdig	-11.7444
▁dys	-11.7444
▁koude	-11.7455
▁typeren	-11.7458
▁31-	-11.7463
▁ih	-11.7472
▁coagulatie	-11.7472
▁09.	-11.7474
▁harde	-11.7474
vloedbelemmering	-11.7476
▁pneumonisch	-11.7479
ica	-11.7484
▁granulair	-11.7484
▁verwikkeling	-11.7492
▁elastine	-11.7502
▁diarrhee	-11.7502
▁gebleken	-11.7502
▁gethromboseerd	-11.7502
▁weerhouden	-11.7502
▁cholesterolosis	-11.7502
▁immuunprofiel	-11.7502
▁dieptegroei	-11.7502
▁krijgen	-11.7502
▁molle	-11.7503
asp	-11.7503
▁nabijheid	-11.7506
gezette	-11.7507
▁doorgegeven	-11.7507
▁kolonisatie	-11.7507
plak	-11.7508
▁hypocellulair	-11.7508
▁cvvh	-11.7509
▁tongbasis	-11.7509
situ	-11.751
▁zoon	-11.751
▁overgrijpend	-11.7511
▁keel	-11.7515
▁leverkapsel	-11.7516
▁maagdarmkanaal	-11.7517
▁tumorlengte	-11.7518
▁target	-11.7518
▁trigonum	-11.7518
8).	-11.7518
▁afwachten	-11.7521
▁iatrogeen	-11.7522
beenmerg	-11.7522
schoon	-11.7523
maximaal	-11.7523
mc	-11.7531
beklemde	-11.7532
▁consolidaties	-11.7532
dcis	-11.7532
shaardjes	-11.7544
▁cellulariteit	-11.7552
cerebrovasculair	-11.7555
▁hemorrhagie	-11.7561
▁230	-11.7564
▁groepen	-11.7565
▁uitgevoerde	-11.7569
epithelioom	-11.7573
aangedane	-11.7576
ik	-11.7585
myloiddeposities	-11.7587
▁660	-11.7591
▁stenoses	-11.7595
3-	-11.7601
▁rustig	-11.7605
▁lopen	-11.7606
▁crypt	-11.7612
▁wanden	-11.7614
▁soort	-11.7618
▁major	-11.7621
▁geinjiceerd	-11.7628
▁minuscuul	-11.7628
▁scoliose	-11.7628
▁vimentine	-11.7628
▁right	-11.7628
▁recanalisatie	-11.7628
▁onvolledig	-11.7628
▁circum	-11.763
▁7,5	-11.7631
▁identiek	-11.7632
▁ppi	-11.7632
▁intrekkingen	-11.7634
▁ika	-11.7635
▁werkgroep	-11.7637
▁onderling	-11.7637
▁(+/-	-11.7639
▁eortc	-11.7642
▁nhl	-11.7648
pseudo	-11.765
vriescoupe	-11.7652
basis	-11.7652
eert	-11.7653
▁malformaties	-11.7658
▁bedreigd	-11.7662
▁protocollair	-11.767
▁versie	-11.7671
▁bio	-11.7671
sterke	-11.7684
▁waarden	-11.7687
▁insertie	-11.7687
sstoornis	-11.7691
xcisie	-11.7694
▁640	-11.77
▁bovenstaand	-11.7702
myocard	-11.7704
▁tibia	-11.7707
atrofie	-11.7713
22-	-11.7727
▁1-3	-11.7728
▁gevoel	-11.7729
▁traumatisch	-11.773
▁hartklep	-11.7733
leu	-11.7733
ros	-11.7737
▁superficia	-11.7742
▁ontving	-11.7746
cys	-11.7747
placentaire	-11.7753
▁infiltreert	-11.7756
▁leptomeningen	-11.7756
▁seminales	-11.7756
▁speelt	-11.7756
▁correlaat	-11.7756
▁hartezakje	-11.7756
▁hemofagocytair	-11.7757
▁hypothermie	-11.7757
▁onverdacht	-11.7757
91	-11.7757
▁colloides	-11.7757
▁pneumatosis	-11.7759
▁refractair	-11.7762
▁proteus	-11.7763
▁interstitium	-11.7763
ih	-11.7765
▁regeneratieve	-11.7767
▁membraneuze	-11.7768
▁fenotype	-11.777
variant	-11.7771
▁donor	-11.7773
▁direkte	-11.7777
slecht	-11.7778
virale	-11.7781
casus	-11.7782
bacteriele	-11.7782
▁meso	-11.7786
age	-11.7787
▁exsudaat	-11.779
brengen	-11.7795
▁2):	-11.7799
▁bronchioli	-11.7801
aemie	-11.7802
▁immunofenotype	-11.7804
▁metaplastische	-11.7804
wonden	-11.7809
5).	-11.7825
.05	-11.7827
▁ongebruikelijk	-11.7827
▁ben	-11.783
▁systemisch	-11.7832
pas	-11.7832
▁21-	-11.7833
▁dien	-11.7833
▁va	-11.7835
▁functionerend	-11.7837
▁elastisch	-11.784
gering	-11.7843
▁huidre	-11.7843
▁biopsies	-11.7844
▁veroorzaakte	-11.7847
sgerelateerde	-11.7851
▁reuma	-11.7857
▁ademhalings	-11.7873
▁tube	-11.7878
populatie	-11.7881
▁lavage	-11.7886
▁remissie	-11.7886
▁solitus	-11.7886
▁submandibularis	-11.7886
▁coloscopie	-11.7886
▁bedroeg	-11.7886
▁nvt	-11.7887
▁vaatbed	-11.7887
▁gebloed	-11.7888
▁alopecia	-11.7888
▁omstandigheden	-11.7888
▁*******/*******	-11.7889
anoxische	-11.789
▁vnl	-11.7891
▁sanguinolent	-11.7891
▁infra	-11.7902
ix	-11.7902
▁onstaan	-11.7903
▁dorsum	-11.7904
▁dalende	-11.7906
▁atresie	-11.7906
▁spina	-11.7908
puntvormige	-11.7909
▁hersenmetastase	-11.7912
marsh	-11.7913
diverticulitis	-11.7913
blok	-11.7914
tor	-11.7914
cribriforme	-11.792
▁icu	-11.7929
▁ion	-11.7935
▁nauwe	-11.7935
rende	-11.7936
▁ont	-11.7937
▁waterscheidings	-11.7937
all	-11.7951
▁herhaald	-11.7958
ob	-11.7961
laire	-11.7962
lymfklierexcisie	-11.7962
▁mono	-11.7971
▁index	-11.7972
000	-11.7972
▁pussige	-11.7974
ping	-11.7976
▁luchtweg	-11.7979
ho	-11.7981
▁vu	-11.8003
rie	-11.801
▁(15	-11.8013
▁erytrocyturie	-11.8018
▁gelukt	-11.8018
▁hyperthyreoidie	-11.8018
▁immaturus	-11.8018
▁toegepast	-11.8018
▁mastocytose	-11.8018
▁artery	-11.8018
▁binnenkomst	-11.8018
▁blaasspoeling	-11.8019
▁psoriasiforme	-11.8021
▁cystisch	-11.8024
▁dikwandige	-11.8025
aandoening	-11.8026
▁antero	-11.8027
thoracaal	-11.8029
▁rmk	-11.8029
▁promotor	-11.8031
▁psychiatrische	-11.8034
▁seminoom	-11.8035
plaats	-11.8036
ger	-11.8036
▁canule	-11.8039
doorsnede	-11.8042
sneevlakken	-11.8042
mohs	-11.8046
waarbij	-11.8047
ttf	-11.8048
slag	-11.8049
len	-11.805
64	-11.8051
▁gelijk	-11.8054
▁gastrisch	-11.806
▁band	-11.8066
▁pleiten	-11.8076
▁ingezette	-11.8078
▁villi	-11.8084
▁stroomgebieden	-11.8086
▁intestinalis	-11.8088
renale	-11.8091
king	-11.8093
europathologisch	-11.8108
0(	-11.8108
deficientie	-11.8115
oorgankelijkheid	-11.8132
septumdefect	-11.814
▁anaerobe	-11.8147
▁endotheel	-11.8148
▁vervet	-11.8151
▁suicide	-11.8151
▁special	-11.8151
synucleinopathie	-11.8151
▁compound	-11.8151
▁molluscum	-11.8151
▁onverklaard	-11.8151
▁seminalis	-11.8151
▁treitz	-11.8151
▁verdwenen	-11.8151
▁contagiosum	-11.8151
▁gehoorgang	-11.8151
▁duinen	-11.8151
▁glomerulopathie	-11.8151
▁schaal	-11.8151
bloedingsneiging	-11.8151
▁medebeoordeling	-11.8152
▁dvt	-11.8152
▁pneumoniebeeld	-11.8153
▁familieanamnese	-11.8153
▁pallidum	-11.8153
▁spelen	-11.8154
▁zenuw	-11.8155
▁intrathoracaal	-11.8156
▁bekeken	-11.8156
▁doorheen	-11.8158
groep	-11.8158
▁kweekuitslagen	-11.8159
▁dosis	-11.8159
▁neurogene	-11.816
▁debulking	-11.816
ure	-11.8162
▁hepatogeen	-11.8168
▁rechterlies	-11.8169
functiestoornis	-11.8171
▁drugs	-11.8172
▁gecontraheerde	-11.8174
plaatsing	-11.8175
lichaamsgewicht	-11.8178
flr	-11.8182
plaveiselcel	-11.8184
▁avr	-11.8186
▁bentall	-11.8186
veel	-11.8192
▁md	-11.8194
▁vergroting	-11.8196
▁gefibroseerde	-11.8204
▁ongeval	-11.8217
vooral	-11.822
15-2	-11.8223
▁cam	-11.8224
pericardiale	-11.8228
▁icterisch	-11.8228
▁wv	-11.823
▁aneurysmatisch	-11.8234
▁spoelcellig	-11.8243
▁therapiekeuze	-11.8245
zelfde	-11.8254
▁contrast	-11.8255
▁all	-11.8257
spieren	-11.8258
ihc	-11.8259
▁cystoprostat	-11.8259
▁beademings	-11.8259
▁zitten	-11.8264
▁bestralings	-11.8265
▁hoek	-11.827
▁630	-11.8271
▁collagene	-11.8286
cadherine	-11.8286
▁diuretica	-11.8286
▁gebraakt	-11.8286
▁lymfomenpanel	-11.8287
▁tangentieel	-11.8287
▁plaatepitheel	-11.8287
▁regionaal	-11.8287
▁drievatslijden	-11.8288
▁doorgegroeid	-11.829
▁erosief	-11.8291
essentiele	-11.8292
▁oorspronkelijk	-11.8292
▁aggregaten	-11.8293
▁intramucosaal	-11.8294
stollingsneiging	-11.8294
▁crypten	-11.8297
▁dundarm	-11.8298
/12/	-11.8299
▁voetrug	-11.8299
117	-11.8304
▁gebrek	-11.8306
%).	-11.8306
▁retentie	-11.8308
▁precieze	-11.8309
▁steentjes	-11.8309
▁dienen	-11.8312
pancreatische	-11.8313
catheter	-11.8313
antitrypsine	-11.8317
geheel	-11.8319
ria	-11.8321
▁plooi	-11.8327
kans	-11.833
tic	-11.8335
▁vervolg	-11.8337
▁tumoraal	-11.8338
di	-11.834
▁ano	-11.8341
▁pleuraal	-11.8342
hiel	-11.8343
▁(1,5	-11.8349
▁pati	-11.8355
▁alveolitis	-11.8362
immunohistochem	-11.8362
▁gedissemineerd	-11.8368
▁thoraco	-11.8372
▁continue	-11.8372
▁gemengdcellig	-11.8373
▁adhesie	-11.8376
chemische	-11.8378
▁sn	-11.8383
con	-11.8383
▁secretoir	-11.8383
▁taks	-11.8389
14:	-11.8391
specifiek	-11.8391
9):	-11.8395
▁groene	-11.8408
.24	-11.8411
goed	-11.8413
ton	-11.8419
▁acuminatum	-11.8423
▁epididymis	-11.8423
▁gecomprimeerd	-11.8423
▁genoeg	-11.8423
▁moeizaam	-11.8423
▁soepel	-11.8423
▁verdient	-11.8423
▁ubiquitine	-11.8423
▁toelichting	-11.8423
▁bedekt	-11.8423
▁taai	-11.8423
▁middermaal	-11.8423
▁mesocolon	-11.8424
▁amyloidosis	-11.8424
▁cristabiopsie	-11.8424
▁nierstenen	-11.8425
▁uitgaat	-11.8425
▁intrathoracale	-11.8426
▁myocardvezels	-11.8427
▁excuses	-11.8427
▁ovariectomie	-11.8427
▁onderverdeling	-11.8427
▁arterietakjes	-11.8428
haematogene	-11.8428
▁incompleet	-11.8428
▁agv	-11.8429
▁vervallen	-11.8429
▁schuimig	-11.843
▁geslaagd	-11.843
▁haematothorax	-11.843
▁rechtzijdig	-11.8431
52	-11.8431
▁neuropathie	-11.8431
anteriorresectie	-11.8436
▁1990	-11.8436
▁marker	-11.8437
olaire	-11.8437
59	-11.8437
peritoneaalholte	-11.8441
▁nl	-11.8443
▁thromboembolie	-11.8445
65	-11.8446
/19	-11.8447
fo	-11.845
▁('	-11.845
▁hoogstand	-11.8451
▁con	-11.8452
▁%).	-11.8453
pcr	-11.8457
pancreas	-11.8457
cerebrum	-11.8457
revisiemateriaal	-11.8461
▁bruine	-11.8462
▁cnv	-11.8462
tumoruitbreiding	-11.8466
▁incomplete	-11.8467
tri	-11.8467
▁inleiding	-11.8469
▁darmnecrose	-11.8471
formatie	-11.8475
▁(19	-11.8476
sklachten	-11.8477
▁jong	-11.8494
▁tracheo	-11.8494
meest	-11.8495
%)	-11.8499
▁670	-11.8501
▁einde	-11.8506
epidermale	-11.8506
▁42-	-11.8506
▁keratocyste	-11.8513
▁bijmilt	-11.8516
▁huidfragment	-11.8534
traventriculaire	-11.8542
▁cystic	-11.8554
▁wens	-11.8555
lateraalsclerose	-11.8557
▁vlakke	-11.8559
via	-11.8559
▁erythematosus	-11.8562
▁genereren	-11.8562
▁trimester	-11.8562
▁verknepen	-11.8562
▁neuritische	-11.8562
▁hypovolaemische	-11.8562
▁merkelcel	-11.8562
▁daaromheen	-11.8562
▁capitis	-11.8562
▁darmkanker	-11.8563
▁littekenbreuk	-11.8564
▁90-	-11.8565
▁babygram	-11.8565
▁avitale	-11.8565
▁epiduraal	-11.8566
▁gesampled	-11.8566
▁omphalocele	-11.8566
dieringsvoorstel	-11.8567
hypereosinofilie	-11.8567
▁blow	-11.8567
▁rectus	-11.8567
▁monoklonal	-11.8568
▁fibroma	-11.8571
▁serum	-11.8572
▁flowcytometrie	-11.8573
▁gingiva	-11.8575
▁gastrale	-11.8576
▁vervaardigd	-11.8579
7.	-11.8585
▁naald	-11.8585
▁gedekte	-11.8586
.27	-11.8591
pleura	-11.8592
mg	-11.8594
oesophageale	-11.8596
▁miltkweek	-11.8597
mediaan	-11.8599
aw	-11.8601
▁levercyste	-11.8602
mucosale	-11.8604
▁compacte	-11.8606
dedifferentieerd	-11.8609
55	-11.8618
corticosteroiden	-11.8623
▁intramusculair	-11.8624
ip	-11.8624
vervanging	-11.8629
mediaal	-11.8631
▁residu	-11.8638
wat	-11.8653
ary	-11.8671
▁conjunctiva	-11.8674
vet	-11.8675
▁centro	-11.8676
▁tensies	-11.8679
toename	-11.8683
▁gevormde	-11.8685
2011	-11.8685
bovenarm	-11.8687
▁eenzelfde	-11.8689
aneurysmavorming	-11.8692
ding	-11.87
▁cylindrisch	-11.8703
▁dusdanig	-11.8703
▁triploidie	-11.8703
▁verkrijgen	-11.8703
©	-11.8703
▁hemolyse	-11.8703
▁puntbloedinkjes	-11.8703
▁gebeld	-11.8703
▁afgelopen	-11.8703
▁apical	-11.8703
▁subcorticale	-11.8703
▁zoster	-11.8703
▁thrombolyse	-11.8704
▁suboptimale	-11.8704
▁inguinalis	-11.8707
▁zwakte	-11.8707
▁sulci	-11.8708
▁humerus	-11.871
trauma	-11.8711
▁graden	-11.8712
▁ong	-11.8712
arteria	-11.8713
▁1150	-11.8714
▁voorkomt	-11.8716
▁mammaparenchym	-11.8719
bodem	-11.872
▁zijdelings	-11.8721
▁okselklier	-11.8723
▁ingeblokt	-11.8723
▁adult	-11.8723
▁tricho	-11.8724
▁+5	-11.8724
tamponade	-11.8728
▁igm	-11.8728
retrograde	-11.8731
echter	-11.8735
pulmonaire	-11.8735
▁aberrante	-11.8737
tekenen	-11.8743
low	-11.8744
minimale	-11.8744
▁neusslijmvlies	-11.8753
+5	-11.8757
com	-11.876
lw	-11.8764
▁gedegenereerde	-11.8772
gevorderde	-11.8783
az	-11.8798
gang	-11.88
8,	-11.8806
▁uitgebreidere	-11.8807
+3	-11.8816
▁troponine	-11.8817
▁10%.	-11.8824
▁260	-11.8835
erde	-11.8837
.2.	-11.8838
▁spitz	-11.8839
▁twijfel	-11.8841
hy	-11.8846
▁bloedingsbron	-11.8846
▁cilindrisch	-11.8846
▁etiologisch	-11.8846
▁trabeculair	-11.8846
▁ventilatie	-11.8846
▁erytropoese	-11.8846
▁longvaatbed	-11.8846
▁markerpatroon	-11.8846
▁panischemie	-11.8846
▁lichtstijve	-11.8846
▁suprapubisch	-11.8846
▁heldergeel	-11.8847
▁siderofagen	-11.8848
nasolabiaalplooi	-11.8849
▁detecteert	-11.885
▁verergering	-11.885
▁wrsch	-11.8851
▁echografie	-11.8851
▁mogelijkerwijs	-11.8853
▁spermatozoa	-11.8854
▁histiocyten	-11.8856
▁operatiewond	-11.8857
▁cystenieren	-11.8858
▁commissie	-11.8858
▁verkleurde	-11.8859
▁2,7	-11.886
▁coiling	-11.8861
▁insufficienti	-11.8861
▁aortitis	-11.8864
ll	-11.8865
cardia	-11.8872
▁mdm	-11.8875
▁echt	-11.8876
cardio	-11.8877
abortusmateriaal	-11.888
verstoring	-11.8886
▁onrijpe	-11.8886
rdp	-11.8887
▁types	-11.8889
opening	-11.889
▁anthracose	-11.889
nen	-11.8891
langer	-11.8892
▁chirurg	-11.8894
▁conclusiehuid	-11.8902
ablatie	-11.8912
▁(3)	-11.8916
schade	-11.8921
▁clear	-11.8921
mbr	-11.8923
ki	-11.8927
▁suf	-11.8931
▁gelig	-11.8942
▁ch	-11.8942
rond	-11.8955
periappendicitis	-11.8958
▁vt	-11.8963
▁*******).	-11.897
mh	-11.8972
▁maagantrumtype	-11.8979
▁jl	-11.8987
▁douglas	-11.8988
▁cinguli	-11.8991
▁flora	-11.8991
▁impetiginisatie	-11.8991
▁myocytolyse	-11.8991
▁retardatie	-11.8991
▁veralgemeend	-11.8991
▁verleend	-11.8991
▁show	-11.8991
▁bloedbraken	-11.8992
▁slikstoornissen	-11.8992
▁halscyste	-11.8997
histiocytaire	-11.8997
9/	-11.9
▁proficient	-11.9001
▁myositis	-11.9004
▁1050	-11.9005
1),	-11.9005
darmtractus	-11.9011
▁hieronder	-11.9012
twee	-11.9013
▁nogal	-11.9014
▁breedte	-11.9015
▁frontotemporaal	-11.9016
eripancreatische	-11.9018
gradering	-11.902
lig	-11.9022
darmkanaal	-11.9024
helft	-11.903
16-	-11.9031
▁restmateriaal	-11.9032
▁draad	-11.9032
frontaal	-11.9032
▁bradycard	-11.9032
ouderdom	-11.9033
spier	-11.9034
▁ohca	-11.9038
kleine	-11.9039
▁gehecht	-11.9039
aat	-11.9041
▁locaties	-11.9048
longgewicht	-11.9049
▁afvloed	-11.9054
ment	-11.9056
pigment	-11.906
73	-11.906
▁geconsolideerde	-11.9062
▁bloedingshaard	-11.9063
.07	-11.9069
▁geprikkeld	-11.908
▁irregulair	-11.908
▁(550	-11.9081
▁mild	-11.9085
▁gefibroseerd	-11.9088
▁(0/	-11.9107
kenmerken	-11.9112
ry	-11.9114
fs	-11.9115
▁autoimmuun	-11.9116
endometrium	-11.9116
nodulair	-11.9119
▁suspecte	-11.912
▁ervan	-11.9121
12-14	-11.9123
pathie	-11.9128
klein	-11.9128
logie	-11.9129
-4	-11.9132
6).	-11.9134
▁gedeeltelijke	-11.9135
▁astrocyten	-11.9138
▁circumvallata	-11.9138
▁imponeert	-11.9138
▁oncocytoom	-11.9138
▁paracetamol	-11.9138
▁sacrum	-11.9138
▁waldenstrom	-11.9138
▁gebleven	-11.9138
▁intensieve	-11.9138
▁verstreken	-11.9138
▁polypeuze	-11.9138
▁toepassing	-11.9138
hiellengte	-11.9138
▁bifida	-11.9138
▁tepelvocht	-11.9138
▁ntrk	-11.9139
▁liver	-11.9139
▁heropname	-11.9139
▁subtotaal	-11.914
▁leucocytose	-11.914
▁trombocytopenie	-11.9141
arachnoidale	-11.9142
▁oorlel	-11.9144
▁uitgroei	-11.9146
ala	-11.9146
▁elastosis	-11.9147
▁mycobacterium	-11.9148
eb	-11.9151
fokaal	-11.9152
▁necrosehaarden	-11.9154
▁ductaaltype	-11.9155
▁colli	-11.9158
▁duidelijkheid	-11.9168
▁leverlijden	-11.9173
▁boog	-11.9174
tbo	-11.9175
dna	-11.9178
5-	-11.9179
▁basosquameu	-11.9183
▁rna	-11.9184
▁720	-11.9184
meckels	-11.9187
▁kristallen	-11.919
▁leukocytoclas	-11.9193
▁mesotheliomen	-11.9197
▁nierziekte	-11.9198
architecturele	-11.9199
▁opge	-11.9199
▁artefacten	-11.9204
ion	-11.9204
▁3,0	-11.9212
buikpijnklachten	-11.9214
stand	-11.922
diepte	-11.922
▁dubbele	-11.9224
▁korter	-11.9228
▁bepaalde	-11.9228
▁(30	-11.9229
kleppen	-11.9234
▁kwamen	-11.9239
voorlopige	-11.9241
▁screenen	-11.9242
red	-11.9242
▁ontstekingen	-11.9244
▁intrahepatisch	-11.9246
pakketten	-11.9246
renaal	-11.9249
microsatellieten	-11.925
2003:	-11.9254
eus	-11.9254
▁ingestuurde	-11.9255
90)	-11.9256
15189	-11.9258
▁210	-11.9264
▁zeldzame	-11.9272
▁15-	-11.9287
iatrogene	-11.9287
▁circulatorius	-11.9287
▁mucositis	-11.9287
▁myoclonieen	-11.9287
▁noradrenaline	-11.9287
▁verbakken	-11.9287
▁verwijzen	-11.9287
▁vliezig	-11.9287
▁sectum	-11.9287
▁ectocervicaal	-11.9287
cylinderepitheel	-11.9287
▁maxillaris	-11.9287
▁mentale	-11.9287
▁vacuolisatie	-11.9287
▁wervellichamen	-11.9287
▁reading	-11.9287
▁behandeladvies	-11.9287
▁pompfalen	-11.9287
▁bijkomstig	-11.9287
▁subita	-11.9287
▁afasie	-11.9287
▁onsuccesvol	-11.9287
▁bronchusbrush	-11.9288
▁saturatiedaling	-11.9288
▁genese	-11.9288
▁overgebracht	-11.9288
▁stromaceltumor	-11.9288
▁hippocampi	-11.929
▁overexpressie	-11.929
▁voren	-11.929
▁daaraan	-11.9291
▁ingeklemd	-11.9296
60	-11.9299
▁vorige	-11.93
bronchusspoelsel	-11.9301
▁sch	-11.9301
▁sternotomie	-11.9306
from	-11.9306
▁peptische	-11.931
.23	-11.931
▁diepreikende	-11.9315
▁loh	-11.9317
weg	-11.9322
▁pneumonieen	-11.9329
.28	-11.9331
▁afgeronde	-11.9335
▁macronodulaire	-11.9338
▁gas	-11.9339
▁carcinomen	-11.9341
multipele	-11.9348
▁nen	-11.936
500	-11.936
▁lymfoa	-11.9369
▁glomerulo	-11.9371
69	-11.9371
ustom	-11.9372
lis	-11.9389
ntie	-11.9397
yl	-11.9406
▁hangen	-11.9409
▁9-	-11.9411
▁mv	-11.9415
▁kno	-11.9417
man	-11.942
arts	-11.9423
▁nierbekken	-11.9427
▁casu	-11.9428
58	-11.9432
wervelmetastasen	-11.9437
periventriculair	-11.9438
▁actinomyces	-11.9439
▁astrogliose	-11.9439
▁expliciet	-11.9439
▁geevalueerd	-11.9439
▁graciel	-11.9439
▁hyalinose	-11.9439
▁pdgfra	-11.9439
▁uitzondering	-11.9439
▁uremie	-11.9439
▁breidde	-11.9439
▁hersenvliezen	-11.9439
▁mucostase	-11.9439
▁funiculus	-11.9439
▁clearcell	-11.9439
▁diafragmakoepel	-11.9439
▁epicardiaal	-11.9439
mature	-11.944
▁endoscopisch	-11.9443
cn	-11.9444
tel	-11.9445
▁opgave	-11.9446
▁kaaklijn	-11.9446
▁gangreneuze	-11.9448
▁hersentumor	-11.9448
▁tumorvolume	-11.9448
▁nagel	-11.945
▁linkerbijnier	-11.9451
hechten	-11.9451
▁overvuld	-11.9451
▁flardjes	-11.9456
abces	-11.9457
/5	-11.9457
▁elementen	-11.9458
▁zegelring	-11.946
▁cdx	-11.9467
20-2	-11.9467
▁huidadnextumor	-11.9468
138	-11.9468
▁mammatumor	-11.947
▁starten	-11.9471
▁artefact	-11.9471
▁perimusculair	-11.9472
▁versterkte	-11.9477
wanddikte	-11.9477
%.	-11.9479
▁pal	-11.9483
▁behoefte	-11.9485
▁geruim	-11.9487
encefalitis	-11.9487
metaplasie	-11.9488
▁karakteristiek	-11.9492
ha	-11.9499
▁levercel	-11.9504
▁inkt	-11.9509
▁hartoperatie	-11.9509
▁code	-11.9515
spoliepen	-11.9517
▁pleurae	-11.9523
ret	-11.9534
naast	-11.9541
luchthoudendheid	-11.9543
tra	-11.9544
▁squamo	-11.9545
▁8:	-11.9546
▁sigmoidbiopten	-11.9548
8):	-11.955
mal	-11.9561
▁310	-11.9562
?):	-11.9563
cave	-11.9569
5%	-11.9577
▁elektrolyt	-11.9582
▁lege	-11.9587
▁hersteld	-11.9587
▁aanbevolen	-11.9593
▁biopsy	-11.9593
▁demodex	-11.9593
▁hypocampus	-11.9593
▁hyponatriemie	-11.9593
▁periferie	-11.9593
cobas	-11.9593
▁bewusteloos	-11.9593
▁mestcellen	-11.9593
▁melanocyten	-11.9593
▁meerlagig	-11.9594
tentoriele	-11.9594
▁intramyocardial	-11.9594
="	-11.9596
▁overhechte	-11.9596
▁uncus	-11.9598
▁gedrag	-11.9599
▁micrometastase	-11.9599
▁inguinaal	-11.96
▁nierinfarct	-11.9601
▁maagsonde	-11.9601
▁nierloge	-11.9604
▁2,4	-11.9608
2010	-11.9611
▁virusinfectie	-11.9611
▁gesproken	-11.9612
▁lymfkliertjes	-11.9613
▁leverbiopten	-11.9614
▁oncologie	-11.9614
0:	-11.9616
.25	-11.962
takken	-11.962
ers	-11.9628
▁&	-11.963
▁erop	-11.963
▁4-6	-11.9642
ascites	-11.9644
▁toxiciteit	-11.9645
adhesies	-11.9646
▁productie	-11.9646
resp	-11.9653
▁grenzend	-11.9654
▁reikende	-11.9654
▁belast	-11.9655
▁antrumbiopten	-11.9658
hypertensie	-11.966
▁1991	-11.9668
ila	-11.9676
▁slank	-11.9691
▁+2	-11.9695
▁bulla	-11.9696
bed	-11.9697
▁amyotrofisch	-11.9699
druk	-11.9699
▁pn	-11.9702
▁ein	-11.9706
▁ontdekt	-11.9708
▁bloedrijk	-11.9721
side	-11.9728
▁behoeftig	-11.973
erasmus	-11.9749
▁continuitatem	-11.9749
▁gepositioneerd	-11.9749
▁contracturen	-11.9749
▁infuus	-11.9749
▁ileocoecaalhoek	-11.9749
▁prematuur	-11.9749
▁intracavitair	-11.975
▁outflow	-11.975
▁leed	-11.9751
▁exofytisch	-11.9751
▁hygroma	-11.9753
▁nasofarynx	-11.9753
▁tumornodi	-11.9753
ci	-11.9755
▁satellieten	-11.9756
▁wondbed	-11.9756
▁leverabces	-11.9756
▁grieperig	-11.9756
▁leucocyten	-11.9758
▁temporaalkwab	-11.9759
▁driemaal	-11.9759
▁paratubaire	-11.976
zen	-11.976
▁sleeve	-11.9763
07/	-11.9765
▁gelaagde	-11.9767
▁exploratie	-11.9768
▁depletie	-11.9768
▁gesteelde	-11.9769
▁rapport	-11.9773
▁sudden	-11.9775
▁borstkas	-11.9779
▁etc	-11.978
aard	-11.978
▁haarfollikels	-11.9781
76	-11.9782
▁onderzijde	-11.9785
▁ba	-11.9787
drain	-11.9789
▁herseninfarcten	-11.9791
▁endovasculair	-11.9792
▁micrometastasen	-11.9794
vlak	-11.9796
nek	-11.9796
▁[	-11.9797
maar	-11.9797
▁ring	-11.98
vl	-11.9801
lekkage	-11.9801
▁8,5	-11.981
▁impressie	-11.981
bo	-11.9812
arahippocampalis	-11.9813
linkszijdig	-11.9822
gist	-11.9823
▁verkleuringen	-11.9826
▁ptnm	-11.983
▁cachectisch	-11.9834
rechterbovenbeen	-11.9837
▁aanhechting	-11.9841
▁wegen	-11.9843
uc	-11.9844
punt	-11.9845
▁fibrinoid	-11.985
▁waarom	-11.9854
▁cytoplasmatisch	-11.9855
2004:	-11.9859
▁dichte	-11.9862
▁meconium	-11.9863
▁oppervlakte	-11.9868
tricuspidaalklep	-11.9873
▁mitose	-11.9882
▁cilindercel	-11.9883
▁cauterisatie	-11.9901
▁stafylococc	-11.9907
▁echtgenoot	-11.9907
▁gekeken	-11.9907
▁groeivertraging	-11.9907
▁leidt	-11.9907
▁normosome	-11.9907
▁inzender	-11.9908
▁marginaal	-11.9908
▁uitermate	-11.9908
▁bacteriaemie	-11.9908
▁humerusfractuur	-11.9908
▁perisplenitis	-11.9908
▁bovenbenen	-11.9908
▁psoasloge	-11.9908
▁raad	-11.9908
▁spoedig	-11.991
▁mycobacterien	-11.9911
▁plantaardig	-11.9913
▁craniotomie	-11.9913
uitbreiding	-11.9914
▁cake	-11.9915
▁12-24	-11.9917
▁stadia	-11.9923
wustzijnsverlies	-11.9925
kapsel	-11.9927
▁96	-11.9928
nde	-11.9928
▁hieromtrent	-11.9928
▁ileo	-11.993
▁anca	-11.9933
terventriculaire	-11.9934
▁like	-11.9938
▁tumoringroei	-11.9939
▁2500	-11.994
▁ffpe	-11.9942
▁pericolische	-11.9945
iaal	-11.9946
▁haemolytische	-11.9947
voorkeur	-11.995
zak	-11.9952
▁beentumoren	-11.9968
▁gere	-11.9969
▁avonds	-11.9969
sterk	-11.9969
▁3+3=6	-11.997
tki	-11.9971
▁geprikkelde	-11.9971
▁solitair	-11.9976
ot	-11.9977
▁uurs	-11.9982
vaf	-11.9983
lijke	-11.9984
ther	-11.9989
▁95%	-11.9993
primaire	-12.0001
▁segmenten	-12.0001
karakteristieken	-12.0001
oorzaak	-12.0001
rood	-12.0004
elijk	-12.0009
▁gereseceerd	-12.001
▁scleroserend	-12.0012
▁oesophagusbiopt	-12.0017
opathie	-12.0019
▁sca	-12.002
-19	-12.0023
▁overmatig	-12.0029
10-20	-12.0034
opname	-12.0036
▁urineweg	-12.0036
groeiachterstand	-12.0039
▁leversegment	-12.0043
kant	-12.0045
bil	-12.005
▁ijzerdepositie	-12.0057
▁590	-12.0058
uitstrijk	-12.0059
▁uitputting	-12.0065
laaggradig	-12.0068
▁misselijk	-12.0068
▁bloedbijmenging	-12.0069
▁gezegd	-12.0069
▁lingula	-12.0069
▁siliconen	-12.0069
▁opinion	-12.0069
▁plasmocytoom	-12.0069
▁chemokuur	-12.0069
vettige	-12.0069
▁bronchoscopie	-12.0069
▁excochleatie	-12.0069
dying	-12.007
▁vervette	-12.007
▁intakt	-12.0071
▁vermoeidheid	-12.0072
▁bauhini	-12.0072
▁longembolen	-12.0072
▁onrustig	-12.0072
▁eten	-12.0074
▁dof	-12.0074
▁chondrosarcoom	-12.0075
▁grawitztumor	-12.0075
▁inzending	-12.0075
▁opgevuld	-12.0076
▁cns	-12.0077
▁xii	-12.0077
grootcellig	-12.0078
iti	-12.0078
▁rea	-12.0079
▁naruke	-12.008
▁ductectasieen	-12.0081
▁langerbestaande	-12.0081
▁partijen	-12.0082
▁ectopisch	-12.0082
▁ectocervix	-12.0083
▁5%.	-12.0084
▁latere	-12.0086
▁stops	-12.0088
▁omstrengeling	-12.009
▁3+3=6.	-12.009
▁verwezen	-12.0097
▁overliggend	-12.0099
▁miltextirpatie	-12.0101
▁ana	-12.0114
▁3.5	-12.0116
osis	-12.012
▁duran	-12.0121
parietaal	-12.0123
▁lesies	-12.0123
index	-12.0127
arteriele	-12.0138
vo	-12.0143
vaat	-12.016
▁prof	-12.0166
▁neutrofiel	-12.0174
tumortype	-12.0176
▁40-	-12.0187
▁bijgevoegd	-12.0191
▁3+	-12.0194
cz	-12.0199
▁ante	-12.0203
▁darmtype	-12.0208
/06	-12.0209
▁aangevuld	-12.021
▁leukocyten	-12.0212
pulmonaal	-12.0213
▁plasma	-12.0217
▁spiegel	-12.0219
-67	-12.0222
▁1450	-12.0224
▁microvesiculair	-12.0228
▁ingrijpen	-12.0229
angioinvasie	-12.0232
▁kaposi	-12.0233
▁peesschede	-12.0233
▁insturen	-12.0233
accredit	-12.0233
▁gallekkage	-12.0233
▁akute	-12.0233
▁bichoriale	-12.0233
▁grijswit	-12.0234
▁trombusmassa	-12.0234
▁horizontale	-12.0235
▁lichenoides	-12.0236
▁spoortje	-12.0237
▁metabool	-12.0237
▁roodheid	-12.0237
▁real	-12.0238
▁lacunes	-12.0238
▁motorische	-12.0238
onderarm	-12.024
▁systematisch	-12.0241
▁leuco	-12.0242
▁voetzool	-12.0242
▁wandruptuur	-12.0244
▁bloedig	-12.0247
eld	-12.025
maken	-12.0252
▁poli	-12.0253
▁ve	-12.0254
▁clinico	-12.0257
▁recenter	-12.0262
▁aanliggend	-12.0267
▁stadiering	-12.0272
sing	-12.0272
▁strengen	-12.0276
ulcus	-12.0277
failure	-12.0278
▁linkeronderarm	-12.028
▁rb	-12.0284
▁mag	-12.0286
fragmentjes	-12.0294
neusrug	-12.0296
▁opgeleverd	-12.0297
▁perifolliculair	-12.0306
ert	-12.0308
posterolaterale	-12.0313
dis	-12.0317
sv	-12.0325
viii	-12.0327
▁bii	-12.0327
119.	-12.0329
22:	-12.0329
▁follikel	-12.033
▁hobbelig	-12.034
aha	-12.0341
▁amorf	-12.0343
▁760	-12.0344
▁verlittekende	-12.0347
19:	-12.0349
▁maagcorpusbiopt	-12.0353
▁poliepexcisie	-12.0356
▁91-	-12.0361
▁immuuncytochemi	-12.0362
kwab	-12.0368
▁tps	-12.0371
▁genezen	-12.0383
▁stevige	-12.0385
-8	-12.0385
▁ontbrak	-12.0389
▁trichilemm	-12.0399
columnair	-12.0399
▁adenomyose	-12.0399
▁ehbo	-12.0399
▁flexus	-12.0399
▁gekozen	-12.0399
▁gevalideerd	-12.0399
▁pijnstilling	-12.0399
▁praktisch	-12.0399
▁besluit	-12.0399
▁dermatoloog	-12.0399
bacteriekolonies	-12.0399
▁hoefijzernier	-12.0399
▁glioom	-12.0399
▁agens	-12.0399
▁heparine	-12.0399
▁pulmonum	-12.04
▁peribronchiaal	-12.04
▁ziektebeloop	-12.04
swl	-12.04
▁mediaanlijn	-12.0401
▁rethoracotomie	-12.0401
▁bloedvaatjes	-12.0401
▁individuel	-12.0402
▁trabekelblaas	-12.0402
▁chronica	-12.0403
▁vastzittend	-12.0405
▁genitalis	-12.0406
▁tonsillectomie	-12.0406
▁bvo	-12.0407
▁tubahoeken	-12.0408
▁congenitaal	-12.0409
▁spirocheten	-12.0409
▁lenskern	-12.0413
▁hilusgebied	-12.0413
▁vacuum	-12.0416
stapelingsziekte	-12.0418
▁aankleurend	-12.0421
▁receptorstatus	-12.0422
pan	-12.0423
▁bacterieen	-12.0426
▁tdp	-12.0429
▁linkerkamer	-12.0429
▁satellitose	-12.043
▁tert	-12.0432
▁deviatie	-12.0433
▁vlok	-12.0435
▁angioinvasieve	-12.0436
▁reeksen	-12.0437
▁circumscripte	-12.0441
▁tumorrecidief	-12.0442
▁palpabele	-12.0443
▁(100	-12.0448
▁predisponerend	-12.0449
▁730	-12.045
▁rheuma	-12.0459
▁lymfklierpakket	-12.046
▁zijnde	-12.0463
ongeval	-12.0463
radicaal	-12.0464
candida	-12.0464
random	-12.0464
banale	-12.0468
▁70%.	-12.0478
▁2100	-12.0492
▁knoop	-12.0495
▁metend	-12.0501
ire	-12.0501
▁15%	-12.0516
▁afvoer	-12.0519
▁acanthoom	-12.052
hoofd	-12.052
▁mortaal	-12.0526
▁la	-12.0528
ga	-12.0529
▁anusbiopt	-12.0529
▁slechter	-12.0531
74	-12.0543
▁16-	-12.0547
falen	-12.0553
▁groet	-12.0558
▁ondersteunend	-12.0559
▁sperma	-12.0559
scheur	-12.0561
▁neuron	-12.0562
▁minor	-12.0563
▁myeline	-12.0569
tetrazoliumproef	-12.0569
▁gerapporteerd	-12.0569
▁oligohydramnion	-12.0569
▁leukopenie	-12.0569
▁ontslagbrief	-12.0569
▁aterosclerose	-12.0569
▁hemithyreoid	-12.0569
▁fibrinebeslag	-12.0569
▁mondholte	-12.0569
▁ggd	-12.057
▁purkinjecellen	-12.057
▁ribfractuur	-12.057
▁wervelfractuur	-12.057
▁cruris	-12.057
▁beschadigingen	-12.0572
▁mesenchymaal	-12.0573
▁intrapulmonaal	-12.0574
7).	-12.0574
▁klepbladen	-12.0577
▁fibers	-12.0578
▁passage	-12.0579
▁longafwijking	-12.058
▁eccrien	-12.0581
▁lipomatose	-12.0581
▁mondhoek	-12.0585
▁vreemd	-12.0588
▁eczemateu	-12.0589
▁mmol	-12.059
▁hypotensieve	-12.059
vin	-12.0591
▁uitlokkend	-12.0593
▁gemethyleerd	-12.0595
▁atheroomcyste	-12.0603
▁colontype	-12.0606
xi	-12.0607
chirurgie	-12.0609
▁dukes	-12.0619
▁3,2	-12.0619
cervix	-12.0623
kritische	-12.0623
▁di	-12.0627
▁activatie	-12.0629
cytologisch	-12.0633
die	-12.0634
elders	-12.0636
achtergrond	-12.0636
voornamelijk	-12.0637
proximaal	-12.0637
stoma	-12.0643
▁junctione	-12.0644
▁2-4	-12.0647
▁aftakkend	-12.065
▁organismen	-12.0652
pel	-12.0655
▁voeding	-12.0666
sta	-12.0673
▁straal	-12.0679
▁immunologische	-12.0683
▁ouders	-12.0683
geel	-12.0684
▁incontinentie	-12.0684
▁idiopathisch	-12.0694
▁cyto	-12.0694
angiogram	-12.0701
▁cystadeno	-12.071
▁glucose	-12.0716
▁functioneren	-12.0726
13-3	-12.0727
▁winding	-12.0731
▁dubbelloops	-12.0734
lies	-12.0736
▁probe	-12.0736
tvb	-12.0737
ontstekingshaard	-12.074
▁mening	-12.0741
opheffen	-12.0741
▁gedocumenteerd	-12.0741
▁groeiretardatie	-12.0741
▁hyalinisatie	-12.0741
▁lasix	-12.0741
▁mirabilis	-12.0741
▁moeizame	-12.0741
▁piriformis	-12.0741
▁verzonden	-12.0741
▁waarneembaar	-12.0741
▁verzwakt	-12.0741
-10-13/*******/	-12.0741
▁neusbijholte	-12.0741
▁adenomateus	-12.0741
▁schedelgroeve	-12.0741
▁elf	-12.0742
▁hepatoduodenale	-12.0742
▁hypothalamus	-12.0742
▁daalde	-12.0742
▁vasectomie	-12.0742
▁rechterkamer	-12.0743
▁(13	-12.0744
▁betroffen	-12.0745
▁celgroepjes	-12.0745
▁hechtdraad	-12.0746
▁mechanisme	-12.0747
▁metalen	-12.0747
▁hepatisatie	-12.0748
▁hallux	-12.0748
▁clusters	-12.0748
▁anoxie	-12.075
▁kransslagaderen	-12.075
▁ductulair	-12.075
+4	-12.0754
▁dermoidcyste	-12.0755
▁galblaaswand	-12.0756
▁placentadeel	-12.0756
▁cause	-12.0757
▁thromboembolien	-12.0758
▁bronchiaal	-12.076
▁loc	-12.0761
▁uitbreidt	-12.0761
▁perineum	-12.0763
▁buikoperaties	-12.0765
▁sd	-12.0766
▁stille	-12.0766
verder	-12.0773
12-20	-12.0774
7-	-12.0775
▁lithiasis	-12.0778
▁vv	-12.0782
toestand	-12.0784
▁zijden	-12.0787
9).	-12.0789
-02-13/*******/	-12.0791
nd	-12.0794
pijn	-12.08
laesies	-12.0803
▁nierafwijkingen	-12.0805
▁nt	-12.0806
kras	-12.0807
breuk	-12.0807
ant	-12.0809
thoracotomie	-12.081
fusie	-12.081
maligne	-12.081
indicatie	-12.0812
descendens	-12.0812
meerdere	-12.0814
esophagusvarices	-12.0821
ling	-12.0825
schouderblad	-12.083
▁2003.	-12.0832
▁mar	-12.0832
▁cml	-12.0833
▁longgewicht	-12.0859
cal	-12.086
▁toevals	-12.0863
mail	-12.0864
▁330	-12.0865
50)	-12.0869
▁cribriform	-12.0876
caudaal	-12.0877
▁%)	-12.0879
fi	-12.0881
membraneus	-12.0895
▁preventie	-12.0896
2019	-12.0897
hepatische	-12.0899
▁meyenburg	-12.0913
▁suggestie	-12.0917
▁nabestaanden	-12.0917
▁planopilaris	-12.0917
▁ruber	-12.0917
▁verhoorning	-12.0917
▁verkavelend	-12.0917
▁ilium	-12.0917
▁proctitis	-12.0917
▁rekening	-12.0917
▁mortus	-12.0917
▁venosus	-12.0917
▁alcoholmisbruik	-12.0917
▁(2012)	-12.0917
▁(=	-12.0917
▁standsafwijking	-12.0918
▁ganglioncellen	-12.0918
▁longtoppen	-12.0919
▁mesangiale	-12.092
▁wernicke	-12.092
▁representatieve	-12.092
▁gedateerd	-12.0921
▁gynaecomastie	-12.0921
▁hypokaliemie	-12.0921
▁serratia	-12.0922
tpn	-12.0926
▁intradermaal	-12.0927
▁bovenkaak	-12.0928
▁perforerende	-12.0929
▁petechieen	-12.0929
oksel	-12.0937
▁endometrial	-12.0938
▁rad	-12.0943
▁basaloide	-12.0945
teuze	-12.0948
volgende	-12.0957
▁overhechten	-12.0958
▁1550	-12.0959
tijd	-12.0962
▁aortaruptuur	-12.0962
▁insnijden	-12.0963
▁kernhoudend	-12.0981
▁(18	-12.0983
▁(50	-12.0983
▁(2,5	-12.0984
omtrek	-12.0985
sarcoom	-12.0987
▁(25	-12.099
abusus	-12.099
locatie	-12.0991
▁(100%).	-12.0992
▁extend	-12.0993
voorts	-12.0994
▁eenmalig	-12.1
uip	-12.1014
ocytaire	-12.1015
▁grenzen	-12.1025
535	-12.1033
▁organiserend	-12.1038
solide	-12.1046
-03-13/*******/	-12.1049
▁meerder	-12.1052
▁dwars	-12.1053
▁mammabiopsie	-12.1055
▁coecumcarcinoom	-12.1058
▁uitgebreider	-12.106
5),	-12.1072
art	-12.1076
▁pool	-12.1079
pathogene	-12.1082
▁millimeter	-12.1083
▁word	-12.1084
protocol	-12.1089
organisme	-12.1092
▁290	-12.1093
time	-12.1093
send	-12.1095
▁discrepant	-12.1095
▁bespreken	-12.1095
▁choriaalplaat	-12.1095
▁instituut	-12.1095
▁precies	-12.1095
▁senilis	-12.1095
▁theoretisch	-12.1095
▁thymoom	-12.1095
▁enterococcen	-12.1095
▁gespecificeerd	-12.1095
▁afdalend	-12.1095
▁tracheostomie	-12.1095
▁monoclonaal	-12.1095
▁cryptabcessen	-12.1095
▁omkapseld	-12.1095
▁overeenkomt	-12.1095
-06-13/*******/	-12.1095
▁cutis	-12.1095
▁histotype	-12.1096
▁graderen	-12.1096
▁fibrinethrombi	-12.1096
▁trombosebeen	-12.1096
▁hepaticus	-12.1096
▁invaginatie	-12.1097
▁resttoestand	-12.1098
▁geoccludeerde	-12.1098
▁geamplificeerd	-12.1098
▁buisjes	-12.1098
▁koilocytose	-12.1098
▁wondinfectie	-12.1098
09-0	-12.1099
▁vaatprothese	-12.1099
▁myd	-12.11
▁hemithorax	-12.1101
▁doormaakte	-12.1101
▁uitblijven	-12.1102
▁blaasdak	-12.1102
▁cerad	-12.1102
▁preexsistente	-12.1102
▁premortaal	-12.1103
▁cystes	-12.1104
vrij	-12.1105
▁sclerosering	-12.1105
▁indolent	-12.1106
middelste	-12.1108
▁mondslijmvlies	-12.1108
▁ijzerdeposities	-12.1109
▁brain	-12.111
▁anomalie	-12.1112
▁capd	-12.1112
ax	-12.1113
▁secreet	-12.1115
vraag	-12.1117
▁ectocervicale	-12.1117
fu	-12.1118
▁bezoek	-12.1119
▁+++	-12.112
oma	-12.1123
▁geschoten	-12.1129
▁sab	-12.1131
525	-12.1138
craniaal	-12.1142
▁stelsel	-12.1146
▁ventrikelfalen	-12.1155
▁vs	-12.1167
▁redenen	-12.117
ovarieel	-12.1171
foto	-12.1171
correctie	-12.1172
necrotiserende	-12.1172
▁kaar	-12.1174
▁bijwerking	-12.1176
indien	-12.1177
▁limbisch	-12.118
geinduceerde	-12.1181
stations	-12.1184
stomp	-12.1195
geassocieerde	-12.1198
lencarcinoom	-12.12
zijdige	-12.12
rit	-12.1212
▁afgerond	-12.1219
mie	-12.1234
20-3	-12.1236
▁axillaire	-12.1237
▁ka	-12.1241
15-3	-12.1248
▁macrometastase	-12.1255
▁myocardial	-12.1255
▁38-	-12.1255
fase	-12.1256
▁ontlastend	-12.1259
cis	-12.1266
ww	-12.127
5):	-12.1271
▁maagantrumbiopt	-12.1273
790	-12.1274
verval	-12.1277
▁streptokok	-12.1277
▁beladen	-12.1277
▁constrictiva	-12.1277
▁daadwerkelijk	-12.1277
▁funisitis	-12.1277
▁gebeuren	-12.1277
▁gedestrueerd	-12.1277
▁haematemesis	-12.1277
▁haemoptoe	-12.1277
▁intraluminaal	-12.1277
▁neutropenie	-12.1277
▁omslagplooi	-12.1277
▁onmiddellijk	-12.1277
▁orofarynx	-12.1277
▁thermisch	-12.1277
▁uitsnijdatum	-12.1277
▁uremisch	-12.1277
▁adenosquameus	-12.1277
▁bilobectomie	-12.1277
▁beduidend	-12.1277
▁laatstgenoemde	-12.1277
▁malperfusie	-12.1277
▁meneer	-12.1277
▁hematopoetisch	-12.1277
▁concrement	-12.1277
▁skeletdysplasie	-12.1278
▁colorectal	-12.1278
▁reactivatie	-12.1278
▁maagretentie	-12.1279
▁vaginawand	-12.1279
▁sish	-12.1279
▁verkalkende	-12.128
▁dystrofische	-12.128
▁mucopurulent	-12.128
▁infarcthaard	-12.1282
▁hras	-12.1282
▁sintrom	-12.1282
poliepje	-12.1282
▁congestief	-12.1283
intraperitoneaal	-12.1284
▁belemmerd	-12.1284
▁occult	-12.1286
▁platzbauch	-12.1286
▁mgus	-12.1286
ging	-12.1293
▁gehouden	-12.1294
▁overbelasting	-12.1294
▁endocardiaal	-12.1296
2018:	-12.1297
▁linkerhand	-12.13
flank	-12.1302
▁centimeters	-12.1302
atriale	-12.1311
▁verbindingen	-12.1311
▁geheugen	-12.1313
dia	-12.1315
/05	-12.1319
femorale	-12.1325
▁adem	-12.1325
tubaire	-12.1329
▁knieholte	-12.1331
">	-12.1331
▁vergroeide	-12.1332
20,	-12.1344
▁tijdelijke	-12.1346
/4	-12.1349
weke	-12.135
stroomgebied	-12.1352
2009	-12.1353
sll	-12.1355
point	-12.1357
▁block	-12.1357
encefalopathie	-12.1357
sentinel	-12.1357
reeds	-12.136
▁740	-12.136
ieve	-12.136
tegen	-12.1362
▁pulmonar	-12.1365
▁11-12	-12.137
▁tumornegatief	-12.1371
apicaal	-12.1373
atypische	-12.1379
su	-12.1388
spinale	-12.1395
▁halsklier	-12.1397
▁tki	-12.1402
▁tijdelijk	-12.1406
▁125	-12.141
uitstortingen	-12.1415
▁omental	-12.1416
sproduct	-12.143
▁bijzijn	-12.143
band	-12.1433
-09-13/*******/	-12.144
▁slot	-12.1441
▁klierbuis	-12.1445
▁mucine	-12.1446
▁lesion	-12.1449
▁stans	-12.1452
▁blaar	-12.1454
▁conus	-12.146
less	-12.1461
▁fibroxanthoom	-12.1462
▁habitus	-12.1462
▁lijkschouwer	-12.1462
▁locoregionaal	-12.1462
▁vergeleken	-12.1462
▁vloeibare	-12.1462
▁asymmetrie	-12.1462
▁torre	-12.1462
▁thuissituatie	-12.1463
▁spieratrofie	-12.1463
▁pneumocyten	-12.1463
▁bloeddrukdaling	-12.1463
▁herbeoordeeld	-12.1463
▁hepatogene	-12.1463
▁order	-12.1463
cylinders	-12.1464
▁zoek	-12.1467
▁objectiveren	-12.1468
▁urticariele	-12.1471
▁cardioversie	-12.1471
▁2,6	-12.1472
jwo	-12.1472
▁1650	-12.1473
▁vader	-12.1474
lys	-12.1475
▁verruceus	-12.1475
▁fysiologisch	-12.1477
▁segmentkernige	-12.1478
▁anhydramnion	-12.1479
was	-12.148
▁antilichamen	-12.1483
▁uitbreidde	-12.149
:12	-12.1492
▁vergevorderde	-12.1493
bloedtransfusies	-12.15
pje	-12.1503
▁semirecent	-12.1503
▁microglia	-12.1509
▁niertumor	-12.1518
▁linkeroor	-12.1525
omen	-12.1531
▁gewricht	-12.1532
pipelle	-12.1532
▁linkerbovenarm	-12.1534
▁ma	-12.1535
▁atelectatische	-12.1536
respons	-12.1544
knoop	-12.1545
medicamenteus	-12.1546
probleem	-12.1546
hooggradig	-12.1548
potje	-12.1551
▁seborroisch	-12.1553
11-20	-12.1555
▁symptomatisch	-12.1562
defecten	-12.1564
▁gna	-12.1572
▁are	-12.1581
▁gallig	-12.1593
▁afsluitend	-12.1597
▁variaties	-12.1599
▁feite	-12.1603
▁erfelijk	-12.1606
▁bacteria	-12.1613
).^	-12.1613
ba	-12.1615
▁vermeldde	-12.1622
ib	-12.1622
naal	-12.1637
▁weefselstukje	-12.164
09-13	-12.164
cr	-12.1643
▁polyp	-12.1644
▁aquaduct	-12.1646
6.	-12.1647
▁klierweefsel	-12.165
▁distributie	-12.1651
duodenectomie	-12.1651
endarteriectomie	-12.1651
▁doorwoekerd	-12.1651
▁dysplasia	-12.1651
▁gestorven	-12.1651
▁gladwandig	-12.1651
▁hoofdzakelijk	-12.1651
▁kernbasofilie	-12.1651
▁nevus	-12.1651
▁onscherp	-12.1651
▁overleefd	-12.1651
▁parotidectomie	-12.1651
▁staphylococcen	-12.1651
▁suggereren	-12.1651
▁tandenrij	-12.1651
▁̄rriteerde	-12.1651
▁buurt	-12.1651
▁polikliniek	-12.1651
▁internist	-12.1651
▁hersendood	-12.1651
▁donkerrood	-12.1651
▁subclaviculair	-12.1651
▁slijmvliezen	-12.1651
▁evenwicht	-12.1651
▁cryptitis	-12.1651
▁opleveren	-12.1652
▁moeheid	-12.1652
▁pocket	-12.1652
dg	-12.1652
▁sectio	-12.1652
▁passagere	-12.1654
▁electronen	-12.1654
▁(520	-12.1655
▁infiltraatjes	-12.1656
▁hemangiomen	-12.1656
▁kinderen	-12.1657
proeflaparotomie	-12.1657
▁competent	-12.1658
▁hematoomvorming	-12.1661
▁bolvormig	-12.1661
▁pcp	-12.1661
durende	-12.1661
▁flink	-12.1661
▁dunwandige	-12.1662
loos	-12.1663
▁verblijf	-12.1664
▁droge	-12.1664
▁zijkant	-12.1666
-7	-12.1666
▁mitochondrial	-12.1668
▁hartactie	-12.1668
▁cystevorming	-12.167
▁buis	-12.167
▁mixed	-12.167
▁vasculitisbeeld	-12.1673
▁genitaal	-12.1674
waarde	-12.1676
▁tumorhaardjes	-12.1678
▁ijzerkleuring	-12.1679
17-10	-12.168
station	-12.1681
▁stenting	-12.1685
▁adenoma	-12.1691
▁eber	-12.1692
▁tricuspidaal	-12.1692
▁lymfoompanel	-12.1692
▁case	-12.17
▁details	-12.1703
gekomen	-12.1704
▁stembanden	-12.1705
▁dlbcl	-12.1713
▁verwekkers	-12.1725
ub	-12.1726
cli	-12.1728
▁mortem	-12.1731
voorstel	-12.1732
▁hiel	-12.1734
samenstelling	-12.1735
thrombi	-12.1735
lumen	-12.1737
merg	-12.1737
partiele	-12.1738
distale	-12.1739
weinig	-12.1739
grootste	-12.174
▁huidshavebiopt	-12.1741
+1	-12.1743
")	-12.1744
▁metastases	-12.1745
langs	-12.1746
ted	-12.1749
▁daaren	-12.1753
degeneratie	-12.1754
bot	-12.1755
cus	-12.1757
▁vesiculae	-12.1764
▁immunokleuring	-12.1768
▁celtype	-12.1777
▁spierwand	-12.1777
▁ob	-12.178
▁spierbiopt	-12.1788
peritonitis	-12.1788
▁reticuline	-12.1791
klepplastiek	-12.1801
▁hetero	-12.1801
been	-12.1819
2006:	-12.1819
▁embryonaal	-12.1822
schildklier	-12.1825
▁porto	-12.1828
1/2	-12.1828
▁fem	-12.183
▁790	-12.1835
pta	-12.1836
bacter	-12.1837
posterieure	-12.1839
▁onrust	-12.184
lyse	-12.1842
▁amnion	-12.1842
▁coagulase	-12.1843
▁leptomeninx	-12.1843
▁meldde	-12.1843
▁neusbrug	-12.1843
▁pilonidalis	-12.1843
▁uitnemen	-12.1843
▁alienum	-12.1843
▁(3+3)	-12.1843
▁versneld	-12.1843
▁three	-12.1843
▁oproep	-12.1843
▁differentieren	-12.1844
▁galstase	-12.1844
▁afstrijkbaar	-12.1844
▁buikomvang	-12.1844
▁subserosaal	-12.1844
▁brunners	-12.1845
▁lymfkliertje	-12.1845
▁unci	-12.1845
▁peracuut	-12.1845
▁willen	-12.1845
▁perianaal	-12.1847
▁foetalis	-12.1847
▁halsvaten	-12.1848
▁neutropene	-12.1848
ker	-12.1849
▁dyspnoeklachten	-12.185
▁ar	-12.185
▁feitelijk	-12.185
▁wegrakingen	-12.185
iale	-12.1852
kamer	-12.1852
▁transsudaat	-12.1854
▁spoor	-12.1855
▁rugklachten	-12.1856
▁mitraliskleppen	-12.1858
▁amiodarone	-12.186
▁littekenreactie	-12.1862
prerenale	-12.1864
vertakkende	-12.1865
da	-12.1865
▁(100%),	-12.1869
▁bacterieel	-12.187
▁kweekuitslag	-12.1871
▁3-6	-12.1872
embolisch	-12.1873
▁*******-*******	-12.1879
his	-12.188
▁schrompeling	-12.188
▁skin	-12.1881
lijkbaar	-12.1884
iseerd	-12.1886
▁ema	-12.1887
▁data	-12.1888
▁presenteer	-12.1889
ka	-12.1889
lang	-12.1891
▁emc	-12.1893
ft	-12.1895
▁therapeutisch	-12.1901
▁eenderde	-12.1902
-07-13/*******/	-12.1903
-5	-12.1907
▁avl	-12.1908
▁turp	-12.1909
▁gereseceerde	-12.1913
▁inzicht	-12.1914
▁continu	-12.1915
▁archer	-12.1917
01/	-12.1918
▁cataract	-12.192
scopie	-12.1933
stase	-12.1934
papilloom	-12.1935
alzheimer	-12.1935
atherosclerose	-12.1935
waaronder	-12.1935
totale	-12.1936
16/	-12.1936
▁regel	-12.194
▁circumferentie	-12.1941
▁leverbiopsie	-12.1942
dagen	-12.1943
▁vaatstuwing	-12.1948
sel	-12.195
rode	-12.1952
▁knieen	-12.1954
14-2	-12.1955
▁omtrek	-12.1959
▁zon	-12.196
line	-12.1964
adeno	-12.1969
myocarditis	-12.1971
rads	-12.1981
▁manifestatie	-12.1988
nbt	-12.1992
▁blind	-12.1996
excisiebiopt	-12.2003
mid	-12.2003
▁compensatoir	-12.2008
▁osteo	-12.2014
▁verlopend	-12.2017
▁steriel	-12.202
▁liggend	-12.2029
▁dosering	-12.2029
▁overnam	-12.2036
onderkwab	-12.2036
▁plasmaceldyscra	-12.2039
▁epigastrio	-12.2039
▁expectatief	-12.2039
▁gedaald	-12.2039
▁gedenudeerd	-12.2039
▁hemosiderose	-12.2039
▁hypercapnie	-12.2039
▁omschreven	-12.2039
▁schedeldak	-12.2039
▁vergroenend	-12.2039
▁tracheotomie	-12.2039
▁kwast	-12.2039
▁enteropathie	-12.2039
▁thyroiditis	-12.2039
▁frontalis	-12.2039
▁miniem	-12.204
.1799	-12.204
▁passieve	-12.204
▁notch	-12.204
▁klepslippen	-12.204
▁afspraak	-12.204
▁(470	-12.204
▁stilstaand	-12.204
▁longemphyseem	-12.2041
▁verwijs	-12.2041
▁neemt	-12.2042
cryptogene	-12.2044
▁uitzaaiingen	-12.2044
▁extrinsiek	-12.2045
▁pemphigoid	-12.2045
▁175	-12.2045
▁blaasmucosa	-12.2046
cysten	-12.2046
str	-12.2046
▁ventriculitis	-12.2047
▁ondervulling	-12.2048
▁passageklachten	-12.2049
▁subcarinaal	-12.2053
sproblemen	-12.2054
▁semen	-12.2056
▁tip	-12.2061
▁acanthotisch	-12.2066
23-	-12.2068
rose	-12.2072
▁cholestatische	-12.2073
groei	-12.2074
▁membraan	-12.2077
▁aaaa	-12.2083
focus	-12.2088
glandulaire	-12.2094
▁90%.	-12.2099
25-	-12.2108
▁oogt	-12.2108
▁monotypisch	-12.2118
afdeling	-12.2124
▁secretoire	-12.2124
derde	-12.2124
▁tavi	-12.2127
▁atm	-12.213
structuur	-12.2134
extern	-12.2135
rectumslijmvlies	-12.2135
sinds	-12.2135
high	-12.2135
710	-12.2135
▁myodegenerati	-12.2135
intestinalis	-12.2135
▁enorm	-12.2136
ablatio	-12.2137
ductale	-12.2139
braf	-12.214
0):	-12.214
levergewicht	-12.2141
inklemmingsbeeld	-12.2145
▁(420	-12.2147
forse	-12.215
hb	-12.2151
▁synovia	-12.2162
tachycardie	-12.2174
ero	-12.2175
▁aanvragen	-12.2176
▁80%.	-12.2179
▁gb	-12.2186
▁6)	-12.2186
basale	-12.219
off	-12.2197
zegelringceltype	-12.2197
▁parvo	-12.2201
trombusmateriaal	-12.2203
dig	-12.2203
▁optie	-12.2208
▁medio	-12.2213
basaal	-12.2213
▁echte	-12.2216
▁kransslagader	-12.2217
▁risicofactor	-12.223
res	-12.2233
▁plaat	-12.2237
▁afweer	-12.2239
▁ewing	-12.2239
▁gezakt	-12.2239
▁paroxysma	-12.2239
▁pseudomelanosis	-12.2239
▁pyela	-12.2239
▁strikt	-12.2239
▁carcinosarcoom	-12.2239
▁fibromatose	-12.2239
▁geloosd	-12.2239
▁chorionitis	-12.2239
▁gemeentelijk	-12.224
▁mengbeeld	-12.224
▁ejectiefractie	-12.224
▁puntbloedingen	-12.224
▁gezicht	-12.224
▁weerstand	-12.224
flowcytometrisch	-12.224
▁overgegaan	-12.2241
▁(80%)	-12.2241
▁biamniotische	-12.2241
▁galblaasbed	-12.2242
enterostomie	-12.2243
▁hypoglycaemie	-12.2243
▁spiercellen	-12.2243
14-3	-12.2243
▁dichtbij	-12.2247
▁longcirculatie	-12.2248
soorzaak	-12.225
▁ketens	-12.225
▁7)	-12.2251
frequentie	-12.2254
ciduale	-12.2256
▁ondervelden	-12.2257
effecten	-12.2258
▁vermindering	-12.2262
▁pral	-12.2262
▁mgmt	-12.2264
▁grillige	-12.2264
▁littekentjes	-12.2264
▁heer	-12.2268
▁foveolaire	-12.2271
▁spanningspneumo	-12.2273
▁eindigend	-12.2273
▁terme	-12.2275
▁globu	-12.2277
▁rechtsfalen	-12.228
▁overgangstype	-12.2282
hoofdstamstenose	-12.2283
▁(150	-12.2284
bifemorale	-12.2285
▁brickers	-12.2289
▁820	-12.229
fibro	-12.229
▁(16	-12.2291
2005:	-12.23
chi	-12.2302
kl	-12.2308
▁ges	-12.2308
▁gelige	-12.2317
nodale	-12.2321
▁delay	-12.2322
▁motiliteit	-12.2322
hyper	-12.2327
▁165	-12.2328
▁granulaire	-12.2334
21-0	-12.2334
exacte	-12.2338
minimaal	-12.2339
atelectase	-12.2339
ruiterembolus	-12.2339
handrug	-12.2341
ostinflammatoire	-12.2342
osa	-12.2348
let	-12.235
licht	-12.2366
▁afge	-12.2368
stabiel	-12.2369
prostatisch	-12.2374
▁turt	-12.238
▁plaatste	-12.2383
▁steatotisch	-12.2385
▁haemorragisch	-12.2385
▁(350	-12.2387
▁gat	-12.2389
▁aange	-12.2397
▁bo	-12.2397
▁area	-12.2397
nten	-12.2398
ij	-12.2402
▁myxoid	-12.2404
komen	-12.2414
las	-12.2414
lms	-12.2415
/6	-12.2424
▁aortakunstklep	-12.2432
▁uitsluit	-12.2432
▁oom	-12.244
effort	-12.2443
▁aanbeveling	-12.2443
▁acantholyse	-12.2443
▁detubatie	-12.2443
▁oropharynx	-12.2443
▁stemplooi	-12.2443
▁verwondingen	-12.2443
▁woning	-12.2443
▁grofdruppelig	-12.2444
▁opheldering	-12.2444
occlusive	-12.2444
▁radix	-12.2444
▁immunoloog	-12.2444
▁schedelomtrek	-12.2444
▁cerebelli	-12.2444
▁pneumonectomie	-12.2444
▁(480	-12.2445
▁(3-6	-12.2445
▁abnormaal	-12.2446
▁subtypering	-12.2446
▁zonodig	-12.2449
▁leukostase	-12.2449
▁(2002)	-12.2449
▁consequenties	-12.2451
▁multicentrisch	-12.2451
reperfusieschade	-12.2456
fc	-12.2456
▁sclerae	-12.2461
▁vezel	-12.2462
▁opkomende	-12.2464
▁30%.	-12.2464
▁gecalcificeerde	-12.2467
▁neoplastische	-12.2473
▁there	-12.2475
▁toxicologische	-12.2477
▁rectumbiopt	-12.2478
echo	-12.2481
▁bank	-12.2483
perinatale	-12.2484
16)	-12.2486
▁(460	-12.2488
▁hypertrophie	-12.2493
▁seborrhoisch	-12.2493
▁apneu	-12.2497
▁allergisch	-12.2497
▁markering	-12.2499
▁un	-12.2499
▁ht	-12.25
▁1):	-12.25
▁vg	-12.2501
ash	-12.2501
-11-13/*******/	-12.2503
3/	-12.2506
▁immuung	-12.2514
wi	-12.2518
▁verstoord	-12.252
▁bas	-12.2521
▁tumorresten	-12.2522
.30	-12.2531
▁bronchuss	-12.2539
▁hard	-12.2541
kanaal	-12.2543
.34	-12.2546
tezamen	-12.2547
radiotherapie	-12.2547
epicrise	-12.2547
restlumen	-12.2547
ctische	-12.2548
encephalopathie	-12.255
bv	-12.2556
auto	-12.2566
slechts	-12.2567
zone	-12.2572
ruim	-12.2575
eh	-12.2579
▁meckel	-12.2583
alle	-12.2592
▁asymmetrisch	-12.2594
poliepen	-12.2597
mat	-12.2601
▁sneden	-12.2603
aspect	-12.2604
▁familiair	-12.2604
▁centrilobulair	-12.2613
22-4	-12.2617
▁recht	-12.2619
▁anaal	-12.2624
▁fistelgang	-12.2629
▁770	-12.2631
▁eerstegraads	-12.2635
▁nodule	-12.2639
sectie	-12.2639
erig	-12.2642
▁groepje	-12.2642
890	-12.2643
1,5	-12.2644
eur	-12.2645
▁thoracolumba	-12.2651
▁atroof	-12.2652
▁autopsie	-12.2652
▁autopsy	-12.2652
▁chorionvlokken	-12.2652
▁coccoide	-12.2652
▁cyanotisch	-12.2652
▁glanzend	-12.2652
▁oxytoca	-12.2652
▁ulceroflegmoneu	-12.2652
▁wakker	-12.2652
▁pallidus	-12.2652
▁parametria	-12.2652
▁verenigbaar	-12.2652
▁ileopsoas	-12.2652
▁staafvormige	-12.2652
▁afsplitsing	-12.2652
▁standaard	-12.2652
▁chemie	-12.2652
▁selectieve	-12.2652
▁somscore	-12.2652
▁breukzak	-12.2652
▁extranodaal	-12.2652
▁romphuidtype	-12.2652
▁turner	-12.2652
▁mononier	-12.2652
▁omentalis	-12.2652
▁markeronderzoek	-12.2653
▁slotte	-12.2653
▁dystrofie	-12.2653
▁bijzonderheid	-12.2655
▁naevocellulares	-12.2655
▁getuige	-12.2657
▁contusio	-12.2657
▁embolectomie	-12.2657
▁sterfte	-12.2657
▁verstikking	-12.2657
▁vitamine	-12.2657
▁meningeale	-12.266
▁radiologie	-12.266
03-0	-12.266
▁hypofarynx	-12.2662
infiltraat	-12.2662
ning	-12.2665
▁postmortem	-12.2665
lauw	-12.2666
▁longarts	-12.2666
▁dystrof	-12.2666
▁zenuwen	-12.2668
▁hysteroscopisch	-12.2668
▁tumorkenmerken	-12.267
▁stoel	-12.2671
▁large	-12.2673
▁binnenste	-12.2678
▁comedo	-12.2679
▁vaginaal	-12.2681
▁wandverdikking	-12.2681
23-1	-12.2683
▁linkerlies	-12.2687
lymfklierweefsel	-12.2689
▁bypassoperatie	-12.2692
lv	-12.2693
▁mlpa	-12.2698
▁3/4	-12.27
▁berustte	-12.2701
secundair	-12.2701
▁ingesneden	-12.2703
▁linkerflank	-12.2706
▁steatotische	-12.2712
beoordeling	-12.2715
arteriosclerosis	-12.2719
rat	-12.272
myc	-12.272
▁frequente	-12.273
kken	-12.2732
17-3	-12.2735
▁stilstand	-12.2737
▁ypt	-12.2738
08-20	-12.2739
▁tag	-12.274
▁(14	-12.2744
▁volgend	-12.2745
▁reikte	-12.2748
parenchymateus	-12.2758
/20	-12.2758
-3.	-12.2759
ondanks	-12.2759
positiviteit	-12.276
bovenlip	-12.276
overwegend	-12.276
neuspunt	-12.276
ko	-12.276
progesteron	-12.276
postmortale	-12.276
onvoldoende	-12.276
vrijwel	-12.2761
▁nierschors	-12.2766
tubulaire	-12.2768
tieve	-12.2779
▁vd	-12.278
▁thal	-12.2781
263	-12.2783
▁geulcereerde	-12.2785
jli	-12.2788
▁peritoneumbiopt	-12.2789
▁conclusiebiopt	-12.2789
▁overgangs	-12.2807
pericard	-12.2814
▁eindstandige	-12.2818
▁micr	-12.2825
ster	-12.2826
▁niersteen	-12.2829
▁0.3	-12.2832
ontregelde	-12.2832
15-4	-12.284
13-4	-12.2841
-04-13/*******/	-12.2848
▁ovariumcyste	-12.2848
dus	-12.2848
▁4,2	-12.2848
teerd	-12.2855
▁cauda	-12.2859
thal	-12.286
▁lithium	-12.2864
▁basillaris	-12.2865
▁geobserveerd	-12.2865
▁rillingen	-12.2865
▁schrijven	-12.2865
▁vakantie	-12.2865
▁verslijmend	-12.2865
▁verstandelijk	-12.2865
▁coronarius	-12.2865
▁partner	-12.2865
▁autonom	-12.2865
▁uitgerijpt	-12.2865
▁homogen	-12.2865
▁scannen	-12.2865
▁nucleoli	-12.2865
▁myomen	-12.2865
▁comorbiditeit	-12.2865
▁pacemakerdraad	-12.2865
▁blastentoename	-12.2865
▁tubulusatrofie	-12.2865
▁lvaw	-12.2865
▁gnaq	-12.2865
want	-12.2866
▁pyogenes	-12.2866
▁digniteit	-12.2866
▁sturen	-12.2867
▁aetiologie	-12.2867
5.2	-12.2868
▁huiddefect	-12.2869
▁vaatpathologie	-12.2869
▁aangemerkt	-12.287
▁addison	-12.287
▁chromogranine	-12.287
▁spierzwakte	-12.287
98-	-12.2871
▁recto	-12.2871
rineweginfecties	-12.2872
▁quadriceps	-12.2873
▁klepvegetaties	-12.2873
▁borstwand	-12.2875
▁contra	-12.2876
▁mallory	-12.2877
▁onmogelijk	-12.2878
▁mbv	-12.2878
▁handpalm	-12.2879
dometriumpipelle	-12.288
▁paralyse	-12.2881
▁reversibele	-12.2881
▁dijbeen	-12.2882
▁cardiologisch	-12.2882
▁specimen	-12.2884
▁vaatziekten	-12.2884
volumepercentage	-12.2886
▁oncocytaire	-12.2888
cardiaresectie	-12.289
▁overall	-12.289
▁leverschade	-12.2892
▁bol	-12.2895
▁signaal	-12.2896
▁lissen	-12.2897
▁haemo	-12.2899
▁ro	-12.2903
hippocampale	-12.2907
werking	-12.2908
plasmacellulaire	-12.2908
▁(23	-12.2912
▁follikels	-12.2914
▁(800	-12.2914
kk	-12.2915
▁4).	-12.2917
▁gelijkende	-12.2919
voet	-12.2922
▁gecollabeerde	-12.2926
herzfehlercellen	-12.2927
-01-13/*******/	-12.2927
▁smo	-12.2929
19-1	-12.2942
blasten	-12.2951
3);	-12.2951
▁heden	-12.2952
massa	-12.2955
▁remmers	-12.2956
nis	-12.2959
▁ingevangen	-12.2961
emfyseem	-12.2962
▁extracapillair	-12.2964
bekleding	-12.2968
▁helderen	-12.2973
▁achterliggend	-12.2974
▁digiti	-12.2976
body	-12.2976
laboratorium	-12.2977
ileum	-12.2978
rol	-12.2982
-2).	-12.2982
vormende	-12.2989
▁nash	-12.2989
▁obstructies	-12.2992
ulceratie	-12.2993
receptoren	-12.2999
-15	-12.3001
oronairangiogram	-12.3004
▁1900	-12.3007
▁uitge	-12.3014
▁not	-12.3017
265	-12.302
▁diameters	-12.302
▁onrijp	-12.3021
▁nam	-12.3021
▁macronodulair	-12.3024
▁pl	-12.3028
▁hormoon	-12.3031
poliepectomie	-12.3033
▁aangeleverd	-12.3038
▁grauw	-12.304
858	-12.3044
▁fo	-12.3058
kan	-12.306
▁wal	-12.3065
▁wangslijmvlies	-12.3067
▁vochtcollectie	-12.307
▁hersenbasis	-12.307
▁element	-12.3072
▁def	-12.3073
▁spoelcel	-12.3078
▁overlap	-12.3081
▁anafyla	-12.3082
stermijn	-12.3082
▁activity	-12.3082
▁electric	-12.3082
▁fenotypisch	-12.3082
▁hartmassage	-12.3082
▁intermittens	-12.3082
▁longhili	-12.3082
▁pemfigoid	-12.3082
▁palga	-12.3082
▁schimmelsporen	-12.3082
▁keloid	-12.3082
▁falx	-12.3082
▁afvallen	-12.3082
▁bloedingsplaats	-12.3082
▁jongeman	-12.3082
▁kilo	-12.3082
▁interval	-12.3082
▁superinfectie	-12.3083
▁ascal	-12.3083
▁(2008)	-12.3083
▁vaatsysteem	-12.3083
▁vetlaag	-12.3084
▁frontaalkwab	-12.3084
▁reepjes	-12.3085
▁unit	-12.3085
▁xi	-12.3085
▁hage	-12.3085
▁petechiale	-12.3086
▁geleide	-12.3086
▁botvorming	-12.3087
▁hemosiderine	-12.3087
▁cordarone	-12.3088
▁pleurazwoerd	-12.3088
▁duodenummucosa	-12.3089
▁ko	-12.3089
▁lob	-12.3092
▁mib	-12.3094
▁ontbraken	-12.3095
▁biometrie	-12.3099
▁paraaortaal	-12.31
▁clips	-12.3103
▁cystevocht	-12.3106
▁glazig	-12.3115
▁ccu	-12.3115
uze	-12.3119
▁entree	-12.312
oc	-12.3121
▁assistent	-12.3124
13-10	-12.3124
▁rechterhand	-12.3125
▁rectale	-12.3126
▁car	-12.3129
▁inname	-12.313
▁ber	-12.3131
▁(380	-12.3132
▁miltinfarcten	-12.3135
▁laatst	-12.3138
▁ven	-12.3139
▁lukte	-12.314
▁loge	-12.314
15-	-12.3145
▁navelbreuk	-12.3146
▁stembandpoliep	-12.3147
og	-12.3148
200	-12.315
▁fundustype	-12.3153
11)	-12.3153
▁schil	-12.3155
320	-12.3157
inushistiocytose	-12.3168
▁leverhaarden	-12.3169
conclusieconsult	-12.3174
▁klepprothese	-12.3175
▁satelliet	-12.3182
takslijden	-12.3182
mis	-12.3189
▁690	-12.319
12-1	-12.3192
▁necrologie	-12.3194
shave	-12.3195
▁chop	-12.3197
centrum	-12.3197
oorspronkelijk	-12.3199
angiografie	-12.3199
lambda	-12.3199
my	-12.3202
sporadische	-12.3204
hartfalen	-12.3204
0%	-12.3206
terminaal	-12.321
alleen	-12.3212
▁6-	-12.3215
▁geduide	-12.3215
reactieve	-12.3219
hoe	-12.323
11-13	-12.3231
nu	-12.3232
545	-12.3234
▁10-11	-12.3236
lum	-12.3238
▁geindureerd	-12.3245
▁fragiel	-12.3246
▁borstholte	-12.3246
▁sup	-12.3247
rmatopathologie	-12.3249
▁39-	-12.3251
▁3,8	-12.3253
▁muco	-12.3256
▁inwerking	-12.3258
▁bloedtransfusie	-12.326
rr	-12.3263
▁3+4=7	-12.3266
▁immuunsuppressi	-12.3266
▁verwekingshaard	-12.327
▁(?)	-12.3283
21-1	-12.3284
▁(17	-12.329
▁+3)	-12.3291
hilus	-12.3293
▁atheroom	-12.3299
liter	-12.33
morbiditeit	-12.3304
▁amenorrhoe	-12.3304
▁miniscu	-12.3304
▁apoptose	-12.3304
▁erythematodes	-12.3304
▁geretourneerd	-12.3304
▁geschrompeld	-12.3304
▁krachtsverlies	-12.3304
▁volumineus	-12.3304
▁voortschrijdend	-12.3304
▁crisis	-12.3304
▁erythropoiese	-12.3304
▁cerebrospinalis	-12.3304
▁hemofagocytose	-12.3304
▁justitie	-12.3304
▁ontstolling	-12.3304
▁floride	-12.3304
▁waarschij	-12.3304
▁laryngectomie	-12.3304
▁arteritis	-12.3304
▁pectoralis	-12.3304
▁kapseldoorgroei	-12.3305
▁peritonei	-12.3305
▁sputumkweek	-12.3305
▁cusp	-12.3305
▁verplaatsing	-12.3306
▁doodsoorzaken	-12.3306
▁achteraf	-12.3307
▁linkerhemisfeer	-12.3307
▁abruptio	-12.3308
▁(2009)	-12.3308
▁duizeligheid	-12.3308
▁oesofagusbiopt	-12.3308
▁contusiehaarden	-12.3308
▁(2011)	-12.3308
▁hla	-12.3309
rechterhemisfeer	-12.331
▁(2015)	-12.331
▁smad	-12.3312
▁verklaarbaar	-12.3313
▁nierkapsel	-12.3313
▁atrio	-12.3313
▁biochemisch	-12.3314
▁hersenhemisfeer	-12.3315
▁prostaticus	-12.3316
od	-12.3318
▁pouch	-12.332
▁gestegen	-12.332
12-3	-12.3321
▁nierlijden	-12.3322
lytische	-12.3324
▁homogeen	-12.3325
▁chordae	-12.3327
tweelingplacenta	-12.3327
eale	-12.3328
est	-12.3329
▁aplastische	-12.3329
▁lokatie	-12.333
vers	-12.3331
▁levercysten	-12.3332
▁portaal	-12.3332
▁tonsillair	-12.3332
dm	-12.3335
▁nierinfarcten	-12.3337
▁foeto	-12.3337
hvd	-12.3338
▁perihilaire	-12.3339
▁rectumresectie	-12.3346
ile	-12.3349
▁pakket	-12.335
▁rechteronderarm	-12.3351
▁0,	-12.3354
▁ams	-12.3354
▁880	-12.3358
16-8	-12.3361
ventrale	-12.3364
zo	-12.3364
▁extracapsulair	-12.3364
▁verhoging	-12.3365
▁rechteroor	-12.3365
stijging	-12.3367
form	-12.3367
▁middelen	-12.3375
▁870	-12.3382
ord	-12.3395
................	-12.3395
▁ne	-12.3397
▁wijze	-12.3398
03-17	-12.3406
ish	-12.3407
▁04-	-12.3412
20-01	-12.3419
fistel	-12.3423
ileus	-12.3425
tumorgrootte	-12.3425
profiel	-12.3425
insertie	-12.3426
pomp	-12.3426
kappa	-12.3427
organiserende	-12.3427
infectieuze	-12.3427
geleide	-12.3428
db	-12.3432
▁verklaringen	-12.3451
nodulaire	-12.3453
▁moe	-12.3454
cid	-12.3456
07-20	-12.3463
dunne	-12.348
▁hepatico	-12.3482
sdiagnose	-12.3484
▁begeleid	-12.3491
mss	-12.3494
afw	-12.3496
▁pijnlijke	-12.3499
loop	-12.3506
▁microsc	-12.3513
▁pigmenthoudend	-12.3519
satelliethaarden	-12.3527
▁tumorcel	-12.3529
▁doorsnijding	-12.3531
dissecteerde	-12.3531
â	-12.3531
▁dermatomycose	-12.3531
▁disseminatie	-12.3531
▁exostose	-12.3531
▁fumigatus	-12.3531
▁gespaard	-12.3531
▁hallucinaties	-12.3531
▁imbibitie	-12.3531
▁mastoid	-12.3531
▁verbleking	-12.3531
▁verbonden	-12.3531
▁dyskeratose	-12.3531
▁evalueren	-12.3531
sanders	-12.3531
▁anteroseptale	-12.3531
▁junctie	-12.3531
▁leucaemie	-12.3531
▁platform	-12.3531
▁secretiefase	-12.3531
▁gescand	-12.3531
▁haemophil	-12.3531
▁gliosis	-12.3532
▁rontgenfoto	-12.3532
▁afgebroken	-12.3532
▁keratinocyten	-12.3532
▁endstage	-12.3532
▁vulnerabel	-12.3532
▁anisocorie	-12.3532
▁nood	-12.3532
▁megakaryopoese	-12.3533
▁sinussen	-12.3533
lok	-12.3533
scenderende	-12.3534
▁infectiebron	-12.3534
▁diagnosis	-12.3534
▁uitdrukbaar	-12.3535
▁lymfangiectasie	-12.3535
▁3,3	-12.3535
▁configuratie	-12.3535
▁polycythaemi	-12.3535
▁nefrotisch	-12.3536
▁ecchymosen	-12.3538
▁fimbriae	-12.3541
▁aantallen	-12.3541
▁dermatomyositis	-12.3542
▁aansnijding	-12.3544
▁intrekking	-12.3545
ln	-12.3545
▁hersenhelft	-12.3546
nf	-12.3546
▁prionziekte	-12.3547
▁immunocytochemi	-12.3547
▁ke	-12.3548
▁zoom	-12.3558
-08-13/*******/	-12.3559
opportunistische	-12.3562
▁maagklachten	-12.3562
▁paracolisch	-12.3563
▁diepste	-12.3567
▁achtige	-12.357
▁(570	-12.357
▁punten	-12.3571
stk	-12.3572
▁subepiderma	-12.3573
fr	-12.3574
▁rechtsonder	-12.3574
endo	-12.3581
▁810	-12.3587
▁bloedige	-12.3587
pn	-12.3589
▁avs	-12.3591
onbehandelbare	-12.3595
46	-12.3595
▁gevoeld	-12.3597
▁bap	-12.3597
sstoornissen	-12.3598
▁histo	-12.3599
▁kamers	-12.3604
▁<1	-12.3607
pneumoniehaarden	-12.3613
▁840	-12.3613
▁drug	-12.3617
uro	-12.3628
-11-14/	-12.3632
575	-12.3632
-02-14/*******/	-12.3634
rine	-12.3634
▁maagoperatie	-12.3636
▁elastische	-12.3636
▁intraepidermal	-12.3639
bio	-12.3641
▁780	-12.3643
invasiediepte	-12.3643
coronair	-12.3645
ru	-12.3645
▁stel	-12.3647
iliaca	-12.3655
gal	-12.3658
sonderzoek	-12.3658
witte	-12.3659
papmilt	-12.3659
myocardinfarct	-12.366
gleasonscore	-12.3662
▁41-	-12.3662
▁80%)	-12.3663
acht	-12.3663
massale	-12.3664
copd	-12.3669
thr	-12.3674
tumorinfiltratie	-12.3674
hoeft	-12.3677
▁grover	-12.368
-06-15/	-12.3683
ou	-12.3684
bronchus	-12.3687
▁hemo	-12.3689
▁gezond	-12.3694
conclusierevisie	-12.3697
titis	-12.3697
anti	-12.3704
sgroep	-12.3705
▁versmald	-12.3705
▁renal	-12.3705
▁versterkt	-12.3706
▁wandstandig	-12.3706
▁circumscript	-12.3707
10-12	-12.3708
▁desmoplastisch	-12.3717
rijk	-12.3723
▁melan	-12.3729
▁restlaesie	-12.3731
dorsaal	-12.3737
▁vooraf	-12.3737
▁glia	-12.3737
▁orbita	-12.3739
▁plekje	-12.3752
kleuringspatroon	-12.3754
▁klepblad	-12.3754
▁ontlast	-12.376
03-14	-12.3761
▁systeemziekte	-12.3761
heidshalve	-12.3763
▁bedlegerig	-12.3763
▁afstrijkba	-12.3764
elaatsdysmorfien	-12.3764
rachiocephalicus	-12.3764
▁behandelopties	-12.3764
▁cirrhosis	-12.3764
▁decursus	-12.3764
▁exclusionem	-12.3764
▁spliet	-12.3764
▁strangulatie	-12.3764
▁trabeculatie	-12.3764
▁tuberculosis	-12.3764
▁vascularisatie	-12.3764
▁verdrinking	-12.3764
▁voelen	-12.3764
▁array	-12.3764
▁granulopoiese	-12.3764
▁cervicitis	-12.3764
▁somber	-12.3764
▁losgelaten	-12.3764
▁microcytaire	-12.3764
▁angiomyolipoom	-12.3764
▁perirectale	-12.3764
-11-2018	-12.3765
▁zegelringcellen	-12.3765
▁adenosis	-12.3765
▁overgangsgebied	-12.3766
▁coecumbodem	-12.3766
▁hyperemie	-12.3766
▁apnoe	-12.3766
▁mammasparend	-12.3766
▁uitgegaan	-12.3767
▁lateralis	-12.3768
▁sporten	-12.377
▁115	-12.377
▁concha	-12.377
▁thromboembolus	-12.3771
▁buikspoelvocht	-12.3771
▁bekkenwand	-12.3772
▁aangesneden	-12.3772
▁gangreen	-12.3773
▁bridging	-12.3773
▁sinusoidale	-12.3773
▁femorales	-12.3774
▁lymfvaten	-12.3774
▁alcian	-12.3775
gv	-12.3775
▁parasternaal	-12.3779
▁serosaal	-12.378
▁oligo	-12.3782
▁koepel	-12.3785
▁steunt	-12.3786
ingsstoornissen	-12.3787
▁(1500	-12.3787
▁uitzichtlo	-12.3787
▁papilloma	-12.3788
▁beperking	-12.379
▁spoelsel	-12.3791
▁roze	-12.3791
▁necrosehaardjes	-12.3792
▁ldt	-12.3795
260	-12.3798
▁substantie	-12.3798
venen	-12.3799
▁980	-12.3803
▁teveel	-12.3804
littekens	-12.3804
▁pockets	-12.3806
▁hypereosinofiel	-12.3807
▁pica	-12.381
▁bind	-12.3811
▁myocardruptuur	-12.3811
▁mycobacterie	-12.3811
▁(560	-12.3813
▁vaatlaesie	-12.382
ler	-12.382
tumoren	-12.3821
premortale	-12.3827
leg	-12.383
▁rechterbovenarm	-12.3834
papillair	-12.3835
thoracale	-12.3837
enkel	-12.385
oli	-12.3853
▁boezem	-12.3856
▁(750	-12.3857
2007:	-12.3858
▁vochtig	-12.3858
vervullingsbeeld	-12.3876
hier	-12.388
▁reinfarcering	-12.3881
-03-15:	-12.3881
ard	-12.3881
spiegels	-12.3889
zins	-12.389
epidermaal	-12.3891
personeel	-12.3896
encephalitis	-12.3897
grawitz	-12.3897
fatty	-12.3897
son	-12.3897
chemotherapie	-12.3897
granulomateuze	-12.3898
galblaas	-12.3898
▁lms	-12.3899
alcoholische	-12.3899
▁behandel	-12.3902
forme	-12.3905
monotypische	-12.3907
lobulaire	-12.3908
ins	-12.3916
resectieranden	-12.3918
proliferatiefase	-12.3925
▁routine	-12.3944
hetgeen	-12.3947
▁aberrant	-12.3948
10-3	-12.3949
▁red	-12.3951
▁ami	-12.3951
cardiaal	-12.3953
naevoide	-12.3954
-08-15/	-12.3955
▁hematopericard	-12.3955
▁hemato	-12.3955
▁proliferaties	-12.3957
▁uitbreiden	-12.3957
07:	-12.396
septumruptuur	-12.3964
▁vaatafsluiting	-12.3966
990	-12.3966
▁substantiel	-12.3975
gangsepitheelcel	-12.3976
▁mislukte	-12.3978
▁griep	-12.398
03-2	-12.3981
▁support	-12.3983
▁2020	-12.3985
angiomateuze	-12.3986
nh	-12.3989
▁lymfvat	-12.3991
▁uteriene	-12.3992
respiratoir	-12.3995
▁correct	-12.3998
▁(21	-12.3998
uitgebluste	-12.4
▁lymfoma	-12.4
screen	-12.4001
▁objectiveerba	-12.4002
parathyreoidie	-12.4002
▁condyloom	-12.4002
▁doorgebeld	-12.4002
▁effusie	-12.4002
▁gesitueerd	-12.4002
▁hyperthermie	-12.4002
▁marcescens	-12.4002
▁niessen	-12.4002
▁perfringens	-12.4002
▁uitwijzen	-12.4002
▁volumineuze	-12.4002
-05-13/*******/	-12.4002
▁ballonpomp	-12.4002
▁detecteerbaar	-12.4002
▁stafylokokken	-12.4002
▁epidurale	-12.4002
▁mooi	-12.4002
▁periportaal	-12.4002
▁staafjes	-12.4002
▁voorstelbaar	-12.4002
▁generaliseerde	-12.4002
▁stijgende	-12.4003
▁slijmstase	-12.4003
▁(650	-12.4003
▁neuroloog	-12.4003
▁omheen	-12.4004
▁leveren	-12.4005
▁gynaecologische	-12.4006
▁adnexectomie	-12.4006
sgewijze	-12.4007
▁botten	-12.4008
▁fraxiparine	-12.4009
▁slijmvorming	-12.4009
▁1850	-12.4009
▁amfetamine	-12.4009
▁aanvoerend	-12.401
▁placentavolume	-12.401
▁keten	-12.401
▁bioklep	-12.401
▁reele	-12.401
▁loopstoornissen	-12.401
kwabsbronchus	-12.4011
▁polydactylie	-12.4011
sgebied	-12.4012
▁uitlopers	-12.4012
▁vermoede	-12.4014
▁remmer	-12.4014
▁miliaire	-12.4016
▁centroblastair	-12.4017
ral	-12.4017
▁rechterovarium	-12.4017
▁polymorf	-12.4019
▁(2-4	-12.4023
▁klatskin	-12.4027
▁additione	-12.4031
▁dak	-12.4035
▁cast	-12.4035
▁costa	-12.4037
▁3-5	-12.4039
15-1	-12.4041
▁im	-12.4041
▁old	-12.4042
bra	-12.4045
▁aanvallen	-12.4048
-09-14:	-12.4049
-3).	-12.4053
ijk	-12.4056
▁wavy	-12.4058
mel	-12.4059
▁1320	-12.4061
amyloiddepositie	-12.4062
▁bronchiaalboom	-12.4063
bloeduitstorting	-12.4064
▁longkweek	-12.4065
▁catheterisatie	-12.4065
▁blaasresectie	-12.4074
-1).	-12.4076
▁msr	-12.4077
▁verloopt	-12.4078
▁imponeerde	-12.4081
▁embolietjes	-12.409
08-2	-12.4098
04-20	-12.4099
▁koud	-12.4109
670	-12.4109
▁1380	-12.4111
▁11)	-12.4114
▁reserve	-12.4119
▁msa	-12.4129
br	-12.413
▁contralatera	-12.4135
anastomose	-12.4135
cerebrale	-12.4136
dag	-12.4137
perfusie	-12.4138
double	-12.4139
resultaat	-12.414
naschrift	-12.4141
richardson	-12.4141
gaarne	-12.4141
destructie	-12.4142
rectosigmoid	-12.4142
▁ovarieel	-12.4143
▁verschuiving	-12.4157
maagbiopten	-12.4157
fen	-12.416
▁(26	-12.4162
kel	-12.4162
naevus	-12.4164
rd	-12.4172
immuunziekte	-12.4173
klieren	-12.4182
lus	-12.4182
▁liggende	-12.4183
belemmering	-12.4185
▁9,	-12.4186
timahyperplasie	-12.4187
waar	-12.4191
congofiele	-12.4192
▁lekkend	-12.4197
rsc	-12.42
▁bewijzen	-12.4201
▁macr	-12.4203
▁maagfundus	-12.4204
▁femoro	-12.4209
-06-14/*******/	-12.4223
limbische	-12.4227
▁longmetastase	-12.4237
the	-12.424
22-01	-12.4241
▁afhankelijke	-12.4242
▁desalniettemin	-12.4246
▁diurese	-12.4246
▁epidermidis	-12.4246
▁glabrata	-12.4246
▁intervillositis	-12.4246
▁malleolus	-12.4246
▁melding	-12.4246
▁obturatoria	-12.4246
▁planocellulair	-12.4246
▁stridor	-12.4246
▁veertien	-12.4246
neelsen	-12.4246
▁beneden	-12.4246
▁polycythemi	-12.4246
▁endometritis	-12.4246
▁cystoscopie	-12.4246
▁aktieve	-12.4246
▁wenselijk	-12.4246
▁lues	-12.4246
▁lichaamshelft	-12.4246
▁cvp	-12.4246
▁hechtmateriaal	-12.4246
▁intracranieel	-12.4246
▁vitium	-12.4247
▁hersenschade	-12.4247
▁(580	-12.4247
▁teleangiectasie	-12.4247
▁neusgang	-12.4248
▁hoofdstammen	-12.4248
clonaal	-12.4248
mpo	-12.4248
▁(530	-12.4249
▁prerenaal	-12.4249
gegevens	-12.4249
▁4,0	-12.4251
▁hy	-12.4251
hoek	-12.4251
▁mbt	-12.4251
▁gemicro	-12.4252
▁parametrium	-12.4253
▁kapje	-12.4253
▁duiding	-12.4254
▁aangeven	-12.4255
▁homozygot	-12.4255
▁pelvien	-12.4255
▁weigerde	-12.4255
▁resulteerde	-12.4256
▁ziehl	-12.4256
▁abceshaarden	-12.4256
▁slokdarmbiopt	-12.4257
▁sessiele	-12.4258
▁glans	-12.426
morfologisch	-12.4262
▁1750	-12.4262
▁tkis	-12.4263
▁akt	-12.4263
▁ovariae	-12.4263
▁zinvol	-12.4264
▁375	-12.4264
▁lethale	-12.4266
▁psoasbloeding	-12.4266
▁rima	-12.4269
▁inmonding	-12.427
▁cdk	-12.4271
▁erytroid	-12.4274
▁samenhangt	-12.4274
▁darmdeel	-12.4277
segmentexcisie	-12.4277
go	-12.428
▁gebruikelijk	-12.428
arc	-12.4282
▁voorvoet	-12.4286
car	-12.4287
▁ulceratief	-12.4293
macrotest	-12.4295
reerde	-12.4296
sneevlak	-12.4297
actie	-12.4299
▁rechterflank	-12.43
▁granulatie	-12.4301
750	-12.4302
▁36-	-12.4303
▁940	-12.4305
▁linkerarm	-12.4305
▁mediagebied	-12.4309
▁1220	-12.4312
▁afstands	-12.4312
▁sick	-12.4319
▁rectums	-12.4319
▁neurogeen	-12.4324
▁iel	-12.4331
hypertrofisch	-12.4332
ureterectomie	-12.434
▁ovariumtumor	-12.4344
20-1	-12.4346
▁hodgkinlymfoom	-12.4348
▁duodenale	-12.4349
thrombus	-12.4351
▁linkercoronair	-12.4354
▁placentagewicht	-12.4356
15-8	-12.436
▁verrichting	-12.436
▁antistollings	-12.436
▁wk	-12.4362
▁afgedekte	-12.4366
gt	-12.437
▁linkerzijwand	-12.4372
▁holten	-12.4375
circulatie	-12.4377
▁nav	-12.4378
spiegel	-12.4383
mortem	-12.4385
ductaal	-12.4387
▁asbest	-12.4387
▁fibroblast	-12.439
reanimatie	-12.439
agonale	-12.4391
scalp	-12.4391
neusvleugel	-12.4391
apex	-12.4392
kruin	-12.4392
hooguit	-12.4393
sinus	-12.4393
▁(510	-12.4397
nsip	-12.4399
▁(27	-12.4401
ptnm	-12.4406
behouden	-12.4408
▁20-12-	-12.4409
plm	-12.4411
▁vesiculair	-12.4414
▁ia	-12.4423
21:	-12.4428
19-3	-12.4429
-11-14:	-12.4432
▁palpabel	-12.4438
▁pericolisch	-12.4438
welke	-12.444
▁tussenliggend	-12.4441
▁920	-12.4443
▁temporo	-12.4446
msa	-12.4453
▁longinfarcering	-12.4453
▁0.4	-12.4458
▁naam	-12.4459
lie	-12.4465
vene	-12.4466
▁stug	-12.4469
▁ventriculair	-12.4471
18-10	-12.4472
tatie	-12.4476
▁np	-12.4477
▁ecto	-12.4478
▁glycogeen	-12.4483
▁ontkalking	-12.4483
▁fb	-12.4486
▁60%.	-12.4487
ang	-12.4488
▁intraperitoneal	-12.4488
terale	-12.4489
▁gewrichts	-12.4494
▁jump	-12.4495
▁tentamen	-12.4496
▁down	-12.4496
▁getypeerd	-12.4496
▁review	-12.4496
▁schatten	-12.4496
▁subthalamicus	-12.4496
▁verwaarlozing	-12.4496
▁bloedingsfoci	-12.4496
▁brochopneumonie	-12.4496
▁giemsa	-12.4496
▁iugr	-12.4496
▁rabdomyolyse	-12.4496
▁varicella	-12.4496
▁plexogen	-12.4496
▁polyclonale	-12.4496
▁venostatische	-12.4496
▁enzymproef	-12.4496
▁kratervormige	-12.4496
▁gazen	-12.4496
▁vasopressie	-12.4496
▁verdrongen	-12.4496
▁meegenomen	-12.4496
▁papillomatose	-12.4496
▁subcorticaal	-12.4496
▁gasvorming	-12.4497
▁supraglottisch	-12.4497
▁zenuwweefsel	-12.4497
▁(540	-12.4498
▁motiel	-12.4498
▁premaligne	-12.4499
▁1989	-12.4499
▁myocardinfact	-12.4499
▁groeven	-12.4499
▁slokdarmvarices	-12.4499
▁(2010)	-12.4499
▁pericardiaal	-12.4499
▁klompvoeten	-12.45
▁hypoglycemie	-12.45
▁significantie	-12.4501
▁stichting	-12.4503
vatslijden	-12.4503
▁perivesica	-12.4504
▁zijtakken	-12.4504
▁bovenzijde	-12.4505
▁ventrikeldrain	-12.4506
▁uterina	-12.4507
▁urinekweek	-12.4508
▁bronchiolo	-12.4508
▁kapjes	-12.4509
▁nates	-12.4509
▁matrix	-12.4511
▁parasitaire	-12.4511
▁vervolgen	-12.4511
▁rechterbijnier	-12.4512
▁corresponderend	-12.4516
12)	-12.4518
▁ducten	-12.4521
▁morfea	-12.4522
▁lp	-12.4523
for	-12.4523
▁tromboembolieen	-12.4523
▁abortusrest	-12.4523
duodenale	-12.4523
▁littekenachtige	-12.4524
▁endoresectie	-12.4524
▁predictie	-12.4527
▁acta	-12.4529
▁mucosaal	-12.453
▁techniek	-12.453
▁vc	-12.453
▁chemisch	-12.4533
▁retroplacentair	-12.4535
/03/201	-12.4536
▁92-	-12.4539
tica	-12.4541
-01-14/*******/	-12.4543
ty	-12.4544
▁fietsen	-12.4545
-07-14/*******/	-12.4546
▁ttp	-12.4549
▁skintag	-12.4552
▁rt	-12.4558
▁su	-12.4569
▁tumortype	-12.4574
▁dwarse	-12.4579
▁revalidatie	-12.4583
primair	-12.4589
▁oro	-12.4592
ud	-12.4598
immuno	-12.4599
pot	-12.4601
▁uitte	-12.4606
▁gaand	-12.4608
▁325	-12.4612
-12-16/	-12.4614
hepatitis	-12.4617
660	-12.4619
ertijd	-12.463
opmerking	-12.4636
▁oesophaguss	-12.4638
lam	-12.464
▁vergelijkba	-12.4641
▁whi	-12.4645
cutane	-12.4645
motiliteit	-12.4647
somatisch	-12.4647
prolaps	-12.4647
posterior	-12.4647
onderlip	-12.4648
▁vcm	-12.4652
91-	-12.4653
▁135	-12.4653
16-10	-12.4655
helder	-12.4657
ite	-12.4659
▁microvasculair	-12.4666
+)	-12.4667
complex	-12.4679
latie	-12.4685
▁%.	-12.4685
▁pneumo	-12.4685
expressie	-12.4693
veld	-12.4697
doorgroei	-12.4697
▁system	-12.4704
centrale	-12.4706
/09	-12.4715
▁venae	-12.4715
secundaire	-12.4719
▁naadlekkages	-12.4727
▁lo	-12.4727
ens	-12.473
vormig	-12.4732
sbeeld	-12.4733
▁ni	-12.4733
▁weker	-12.4735
▁gezet	-12.4737
▁ductectasie	-12.4738
noo	-12.4739
▁ureters	-12.474
▁bloedinkje	-12.474
▁middag	-12.474
▁0.6	-12.4744
-2.	-12.4745
450	-12.4745
▁gemist	-12.4748
▁bundel	-12.4751
▁begon	-12.4752
▁botalli	-12.4752
▁carinii	-12.4752
▁dwangstand	-12.4752
▁insectensteek	-12.4752
▁lijkstijfheid	-12.4752
▁obducent	-12.4752
▁oligurie	-12.4752
▁schock	-12.4752
▁tachypneu	-12.4752
epitheliomateuze	-12.4752
▁diffuze	-12.4752
▁genummerd	-12.4752
▁granulomateus	-12.4752
▁rupturering	-12.4752
▁ileitis	-12.4752
▁nefrostomie	-12.4752
▁alcoholabuses	-12.4753
▁antilichaam	-12.4753
▁129	-12.4753
▁stoten	-12.4753
▁medium	-12.4753
▁steenlijden	-12.4753
▁pinpointlumen	-12.4753
▁vaattekening	-12.4754
▁olijfkernen	-12.4754
▁thrombosebeen	-12.4754
▁+6	-12.4754
▁intraveneus	-12.4754
▁buitenaf	-12.4754
▁fax	-12.4754
▁herbeoordeling	-12.4754
-09-15/	-12.4755
▁haematogeen	-12.4755
▁microcirculatie	-12.4755
▁lymfomato	-12.4755
megakaryocytaire	-12.4755
ultrastructureel	-12.4755
▁bijdragen	-12.4757
▁blaasbodem	-12.4758
▁(2014)	-12.4759
▁defibrillatie	-12.4759
▁elektrisch	-12.4759
▁morfometrisch	-12.4759
▁bronchieen	-12.476
entry	-12.4761
0),	-12.4761
▁chromosomen	-12.4761
▁discordant	-12.4763
▁epitheloid	-12.4764
zuurstofbehoefte	-12.4766
▁gruis	-12.4768
▁kransslagaders	-12.4768
▁elektrolyten	-12.477
▁calcinosis	-12.477
▁spoelvormige	-12.477
▁klepring	-12.4771
▁vlakbij	-12.4773
20-6	-12.4773
23-00	-12.4773
▁++	-12.4778
▁schorsatrofie	-12.478
operatielitteken	-12.478
lon	-12.4784
▁vage	-12.4784
rok	-12.4785
▁gewrichten	-12.4788
▁nierdysplasie	-12.479
▁1410	-12.4792
▁haemato	-12.4792
▁triple	-12.4793
-03-10/*******/	-12.4797
▁claviculair	-12.4799
▁ingang	-12.48
vaatverbindingen	-12.482
-02-16:	-12.4825
ans	-12.4826
snede	-12.4827
▁complexen	-12.4827
▁organoid	-12.4831
▁adipeus	-12.4832
▁miltkapsel	-12.4832
▁pulmonalisklep	-12.484
mithyroidectomie	-12.4847
02-14	-12.4847
-05-15/	-12.4847
chronisch	-12.4853
uitgebreid	-12.4853
▁0.7	-12.4854
▁35-	-12.4856
-07-16:	-12.4859
immunoblastair	-12.486
7/	-12.4864
▁mpo	-12.487
▁sprietige	-12.4874
▁functionerende	-12.4875
lik	-12.4883
enemen	-12.4883
llen	-12.4889
▁laparoscopisch	-12.4891
lr	-12.4894
infect	-12.4897
spraak	-12.4899
▁miltweefsel	-12.49
assistent	-12.4902
▁aanhangend	-12.4908
cellulariteit	-12.491
zwelling	-12.491
dysfunctie	-12.4911
schildklierkwab	-12.4911
nefropathie	-12.4911
barrett	-12.4911
diffuus	-12.4911
perineurale	-12.4911
▁lh	-12.4912
slo	-12.4915
▁neven	-12.4918
if	-12.4921
▁50%).	-12.4924
ziekten	-12.4927
▁puncties	-12.4935
▁abc	-12.4942
▁97	-12.4943
loog	-12.4944
▁auramine	-12.4948
▁aortale	-12.4951
+,	-12.4954
▁afgekapseld	-12.4957
▁dip	-12.4959
basaalcel	-12.4965
▁femurkop	-12.4968
ruimte	-12.4971
sduur	-12.4974
bloedvoorziening	-12.4977
lip	-12.4977
▁hoofdwond	-12.4984
▁mu	-12.4994
▁verklarend	-12.4994
pulmonalistakken	-12.4999
▁overgrijpen	-12.5001
▁broer	-12.5004
-08-16/	-12.5005
▁total	-12.5005
▁behoren	-12.5006
▁subserosa	-12.501
▁verzep	-12.5011
é	-12.5016
▁farynx	-12.5016
gehandeld	-12.5016
▁beademen	-12.5016
▁haemochromatose	-12.5016
▁immobilisatie	-12.5016
▁klepvitia	-12.5016
▁omentectomie	-12.5016
▁skipping	-12.5016
▁smarc	-12.5016
▁synaptofysine	-12.5016
▁torsie	-12.5016
▁vitaliteit	-12.5016
▁voelt	-12.5016
▁website	-12.5016
▁kauk	-12.5016
▁knik	-12.5016
▁lymfadenitis	-12.5016
▁dermatologie	-12.5016
▁grijsroze	-12.5016
▁adenomyomateuze	-12.5016
▁reads	-12.5016
▁trombectomie	-12.5016
▁schedelomvang	-12.5016
▁detectie	-12.5016
▁onveranderd	-12.5016
▁wervellichaam	-12.5016
▁agressief	-12.5016
▁bronchopneumie	-12.5016
▁objectiveerbaar	-12.5016
▁afgevallen	-12.5016
▁poststenotisch	-12.5016
▁uitmonding	-12.5017
▁abscederend	-12.5017
▁microtrombi	-12.5017
▁dodelijk	-12.5018
▁(440	-12.5018
▁testes	-12.5018
▁strooihaarden	-12.5019
▁changes	-12.502
▁spermatogenese	-12.502
▁anthracotisch	-12.502
▁wondgebied	-12.5021
▁celproliferatie	-12.5021
▁mgl	-12.5022
18-0	-12.5022
▁glabella	-12.5023
▁iliopsoas	-12.5023
▁stroge	-12.5023
myelomonocytaire	-12.5024
▁kalium	-12.5026
▁2040	-12.5026
▁milthilus	-12.5027
▁hereditaire	-12.5027
▁puscollecties	-12.5028
▁transpositie	-12.5029
houdend	-12.5029
▁11:	-12.503
▁paraaortale	-12.5031
▁manipulatie	-12.5031
▁immunologie	-12.5032
▁pleurapunctie	-12.5032
arotisbifurcatie	-12.5033
▁faillure	-12.5034
▁1240	-12.5038
▁resorberende	-12.5038
▁huiddefecten	-12.5039
▁qt	-12.504
▁sessie	-12.5041
ontstekingsfocus	-12.5041
02-11	-12.5041
▁dochter	-12.5042
ologisch	-12.5042
----------------	-12.5046
immuunhistochemi	-12.5046
▁cathetereffect	-12.5047
▁angulus	-12.5048
-02-15:	-12.5049
▁dia	-12.505
galwegobstructie	-12.505
▁tumordeposities	-12.5051
▁macula	-12.5052
▁geprepareerd	-12.5052
▁zaten	-12.5053
▁bieden	-12.5053
ild	-12.5063
tumorale	-12.5065
▁events	-12.5067
▁load	-12.5068
-05-16/	-12.507
▁(60	-12.5072
▁afgekapselde	-12.5074
▁verrichtte	-12.5075
▁carcino	-12.508
14-4	-12.508
▁(250	-12.5081
▁uigebreide	-12.5082
▁tov	-12.5083
plaquebloedingen	-12.5083
▁slijmig	-12.5085
fna	-12.5087
9,	-12.5087
▁up	-12.5088
▁latero	-12.5092
▁(40	-12.5093
▁clip	-12.5094
▁leucocytoclas	-12.5094
▁opgezet	-12.5094
rijke	-12.5097
port	-12.5098
▁kleuren	-12.5101
▁boop	-12.5101
-02-13:	-12.5106
00-1	-12.5111
thrombo	-12.5112
15):	-12.5116
heden	-12.5121
radiologisch	-12.5122
mof	-12.5126
slaap	-12.5127
!)	-12.5128
liggende	-12.5134
▁bloedbeeld	-12.5135
vulling	-12.5138
1170	-12.5139
2005	-12.5143
ulcera	-12.5152
krap	-12.5152
cellulair	-12.5153
occlusie	-12.5155
anamnestisch	-12.5156
▁18-	-12.5157
paria	-12.5162
+6	-12.5162
plooi	-12.5163
plaque	-12.5164
peritoneale	-12.5166
06-20	-12.5168
verkalking	-12.517
-04-14:	-12.5171
10):	-12.5172
cti	-12.5174
media	-12.5174
lumbaal	-12.5176
tweede	-12.5179
18-01	-12.5179
polypectomie	-12.5179
block	-12.518
▁rec	-12.5181
borderline	-12.5181
rp	-12.5181
carcinoid	-12.5181
depressie	-12.5181
oesofagus	-12.5182
fluxoesofagitis	-12.5184
nodus	-12.5184
▁entorhina	-12.5185
stuit	-12.5186
ortaklepprothese	-12.5188
eerste	-12.5192
vast	-12.5195
▁periodes	-12.5195
▁thromboemboli	-12.5197
01-20	-12.52
gaande	-12.5203
▁retina	-12.5208
640	-12.5209
-01-14:	-12.5213
chop	-12.5222
▁imponerende	-12.5225
beperkte	-12.5229
▁40%.	-12.5235
tia	-12.5239
▁overeenkomen	-12.524
▁placentair	-12.5242
▁tetra	-12.5243
bus	-12.5249
au	-12.5249
▁93-	-12.5251
ventraal	-12.5252
0,5	-12.5253
immunohistochemi	-12.5254
stig	-12.5256
-10-13:	-12.5261
▁zijner	-12.5264
▁puscollectie	-12.5274
▁corona	-12.5274
schildkliernodus	-12.5275
▁2300	-12.5276
pap	-12.5281
homonas	-12.5285
▁fi	-12.5285
▁cross	-12.5286
▁vrucht	-12.5286
bewaking	-12.5286
eclampsie	-12.5286
presentativiteit	-12.5286
▁afgewacht	-12.5286
▁evidence	-12.5286
▁feochromocytoom	-12.5286
▁geriatrie	-12.5286
▁geserreerd	-12.5286
▁graves	-12.5286
▁hyperventilatie	-12.5286
▁idiopatische	-12.5286
▁interface	-12.5286
▁ongeschikt	-12.5286
▁pericardeffusie	-12.5286
▁tongbeet	-12.5286
▁trigger	-12.5286
▁vertrouwend	-12.5286
▁(95%)	-12.5286
▁laminectomie	-12.5286
▁mucus	-12.5286
▁abstinatie	-12.5286
▁bijtfibroom	-12.5286
▁collateraal	-12.5286
▁concrete	-12.5286
▁kiemceltumor	-12.5286
▁vaatsteel	-12.5286
▁bekkenorganen	-12.5286
▁donornier	-12.5286
▁onderhuids	-12.5286
▁rosea	-12.5286
▁hoofdcarina	-12.5286
▁multifactorieel	-12.5286
▁microbioloog	-12.5286
▁pigmentosa	-12.5287
▁vaststelling	-12.5287
▁brickerblaas	-12.5287
▁rechtervoet	-12.5287
▁nstemi	-12.5287
▁losgelegen	-12.5287
▁spits	-12.5287
▁laagstand	-12.5287
▁epitheelatypie	-12.5288
▁jth	-12.5288
▁osas	-12.5288
▁arterialisatie	-12.5288
zelb	-12.5289
nx	-12.5289
▁deciduaal	-12.5289
▁(2007)	-12.529
▁hypoventilatie	-12.529
▁uitdroging	-12.529
ogene	-12.5291
gln	-12.5292
▁zwaarder	-12.5292
afs	-12.5294
▁entero	-12.5294
plasmocellulaire	-12.5295
▁ventricular	-12.5295
▁veneus	-12.5296
nxmx	-12.5296
▁verbening	-12.5296
▁insteekopening	-12.5296
▁hepatisch	-12.5297
celrijk	-12.5298
▁ulcerende	-12.5298
pal	-12.5298
▁plaveiselcellen	-12.5298
▁hiertussen	-12.5299
▁270-360	-12.5302
▁krabben	-12.5302
[...]
