<unk>	0
<s>	0
</s>	0
[PAD]	0
[UNK]	0
[CLS]	0
[MASK]	0
[C-SEP]	0
e	-2.1283
.	-2.82313
▁	-3.15336
▁de	-3.68333
▁van	-3.82936
▁een	-3.92059
,	-3.94233
-	-4.19352
▁met	-4.21934
▁en	-4.22739
▁in	-4.32504
:	-4.39003
▁het	-4.41315
'	-4.64532
▁geen	-4.6976
▁'	-4.71353
▁bij	-4.78451
▁is	-5.19894
▁voor	-5.21721
▁obductie	-5.27973
▁er	-5.38454
▁rechts	-5.40643
c	-5.43248
▁links	-5.44087
▁op	-5.44665
cr	-5.46603
lf	-5.47749
cisie	-5.51252
▁werd	-5.51829
▁huid	-5.5347
sep	-5.58855
▁biopt	-5.68754
carcinoom	-5.74293
▁niet	-5.8103
▁was	-5.82036
▁beeld	-5.86246
▁ontsteking	-5.87434
▁hart	-5.88022
▁maligniteit	-5.92526
▁oud	-6.02864
▁na	-6.07512
▁long	-6.08043
▁linker	-6.11256
▁patient	-6.12046
▁zijn	-6.14081
▁afwijkingen	-6.1665
▁lever	-6.2096
geen	-6.21708
▁aan	-6.23991
▁onderzoek	-6.24802
▁overlijden	-6.25933
▁ook	-6.26055
▁gezien	-6.26779
▁adenocarcinoom	-6.27104
▁of	-6.27438
▁uitgebreide	-6.28623
▁rechter	-6.33996
▁-	-6.34586
▁passend	-6.35069
▁worden	-6.36412
▁als	-6.36454
▁tot	-6.37128
▁basaalcel	-6.37662
▁deze	-6.37941
▁zonder	-6.39606
▁overleden	-6.40277
▁aanwijzingen	-6.40798
▁jaar	-6.42297
▁longen	-6.44793
▁man	-6.45486
▁aangetroffen	-6.45668
▁te	-6.45846
▁door	-6.46616
▁geworden	-6.50009
▁kan	-6.55001
▁dit	-6.58722
▁tekenen	-6.60877
▁wordt	-6.64116
▁betreft	-6.64288
▁cm	-6.65663
▁gevonden	-6.66802
▁infarct	-6.67344
▁i	-6.70037
▁mogelijk	-6.71325
▁microscopisch	-6.71479
▁t	-6.73481
▁vrij	-6.75247
▁*******	-6.7681
d	-6.77219
▁pneumonie	-6.78109
▁atherosclerose	-6.78656
▁tumor	-6.79199
▁vrouw	-6.79548
▁geringe	-6.79729
▁die	-6.8034
▁carcinoom	-6.80364
▁resectie	-6.80591
▁aorta	-6.82954
▁ventrikel	-6.83908
▁gram	-6.8479
▁dysplasie	-6.84898
▁tevens	-6.86556
▁hersenen	-6.8727
▁waarschijnlijk	-6.8741
▁veranderingen	-6.87532
v	-6.88457
▁colon	-6.91157
▁d	-6.91306
▁basis	-6.91934
▁waren	-6.92773
▁status	-6.92848
▁doodsoorzaak	-6.93262
▁sepsis	-6.93458
▁bloeding	-6.94103
▁zeer	-6.96152
▁werden	-6.97335
▁milt	-6.97623
▁onder	-6.98055
▁sprake	-6.99157
▁bekend	-6.99715
▁acute	-7.00861
s	-7.02303
▁stuwing	-7.02506
▁goed	-7.03029
▁ernstige	-7.04207
▁zie	-7.04243
▁maag	-7.04482
▁chronische	-7.05113
▁beiderzijds	-7.06101
▁toonde	-7.06143
▁lymfklier	-7.06702
▁mamma	-7.07177
▁waarbij	-7.07339
▁dat	-7.07832
▁nier	-7.07834
▁huidbiopt	-7.08931
▁bronchopneumoni	-7.09108
▁myocardinfarct	-7.10791
▁ter	-7.11802
▁epicrise	-7.11945
▁ten	-7.12718
jarige	-7.13159
▁afwijking	-7.13251
▁prostaat	-7.15019
▁verder	-7.1518
▁opgenomen	-7.15708
en	-7.16074
▁bevindingen	-7.16214
▁toont	-7.1854
▁myocard	-7.19913
▁huide	-7.21195
▁naar	-7.22586
▁klinisch	-7.24021
▁enkele	-7.24167
▁naevus	-7.24906
▁*	-7.25702
▁diagnose	-7.26332
▁biopten	-7.26575
▁plaveiselcel	-7.26601
▁recente	-7.27192
▁beide	-7.28231
▁lichaam	-7.283
a	-7.2838
▁fibrose	-7.28549
t	-7.28685
gedifferentieerd	-7.29274
▁materiaal	-7.29292
▁hypertrofie	-7.29764
▁kunnen	-7.30286
▁passen	-7.30974
▁ischemie	-7.31976
metastase	-7.32558
▁nieren	-7.33238
▁uit	-7.34244
▁aanwezig	-7.35613
▁dagen	-7.36061
▁volgt	-7.37464
▁conclusie	-7.38004
▁gevolg	-7.38611
▁darm	-7.39412
▁echter	-7.40305
▁type	-7.40424
▁verricht	-7.41046
▁nog	-7.41472
▁waarin	-7.41485
▁name	-7.41579
isch	-7.41585
voorgeschiedenis	-7.41928
▁biopsie	-7.42276
▁cordis	-7.43508
▁deels	-7.4402
▁actieve	-7.44123
▁wel	-7.44182
▁a	-7.44361
▁heeft	-7.44974
▁oedeem	-7.45764
b	-7.46911
▁weken	-7.46943
▁patiente	-7.46988
▁kleine	-7.47524
ii	-7.49268
▁insufficientie	-7.49701
▁g	-7.51164
▁infarcering	-7.51517
▁waarvoor	-7.54878
▁ii	-7.55872
▁focaal	-7.55967
▁endometrium	-7.56322
▁matig	-7.56586
▁maar	-7.57346
*******	-7.57711
▁ischaemie	-7.5838
▁duidelijke	-7.60121
▁aanvullend	-7.6035
▁mm	-7.60542
▁cervi	-7.60786
▁uitgebreid	-7.61059
▁verwijderd	-7.61655
▁wat	-7.61941
▁sterk	-7.62469
▁oorzaak	-7.62786
▁pancreas	-7.62864
▁dan	-7.634
▁verband	-7.64151
▁beenmerg	-7.64929
m	-7.65223
▁negatief	-7.65398
▁grote	-7.65423
▁definitieve	-7.66411
p	-7.66786
▁pleuravocht	-7.66895
▁seborrhoica	-7.66985
▁bloed	-7.67785
▁rug	-7.68034
▁aneurysma	-7.68244
▁reactieve	-7.68611
▁recent	-7.68878
▁past	-7.69728
▁hypertensie	-7.70893
▁b	-7.71
▁shock	-7.71784
▁meer	-7.71955
▁verklaren	-7.7232
▁cardiale	-7.73196
▁lymfklieren	-7.73253
▁groeiend	-7.73368
▁metastase	-7.73485
▁macroscopisch	-7.73729
▁voorts	-7.73808
▁tonen	-7.73987
▁forse	-7.73992
▁enige	-7.74301
▁lokalisatie	-7.74694
▁klinische	-7.74727
▁normaal	-7.74934
▁plaatse	-7.75208
▁gevolge	-7.75413
▁necrose	-7.7582
▁groei	-7.7622
▁zou	-7.76498
▁matige	-7.77453
▁organen	-7.77994
▁metastasen	-7.78597
▁naevocellularis	-7.79025
▁adenoom	-7.79151
▁hebben	-7.79523
▁dood	-7.79905
▁foetus	-7.79922
▁lymfoom	-7.80528
▁hyperplasie	-7.80974
▁daarnaast	-7.81553
▁nodulair	-7.81977
▁coronairscleros	-7.82264
▁gr	-7.82609
▁diameter	-7.82611
▁maligne	-7.83237
▁punctie	-7.83351
▁decompensatio	-7.83447
▁histologisch	-7.83681
▁uur	-7.84289
▁bleek	-7.84575
▁overleed	-7.84907
▁reanimatie	-7.84924
n	-7.85132
▁reactief	-7.85251
▁positief	-7.86172
▁laesie	-7.8637
▁acuut	-7.86596
▁zij	-7.86664
▁arteria	-7.88271
▁duodenum	-7.89194
▁hij	-7.89277
▁atypie	-7.89537
▁aanvulling	-7.90394
▁microscopie	-7.91388
g	-7.92026
▁aspiratie	-7.93777
▁andere	-7.93888
▁conform	-7.94017
▁poliep	-7.94172
o	-7.94389
▁achterwand	-7.94621
▁metaplasie	-7.94671
▁overige	-7.9478
▁respiratoire	-7.94788
▁blaas	-7.95254
consult	-7.95493
▁stenose	-7.96433
▁intra	-7.96754
▁bericht	-7.97153
▁aangetoond	-7.97646
▁uterus	-7.97816
▁litteken	-7.99324
▁situ	-8.0001
▁dunne	-8.00111
▁hals	-8.00603
▁coronair	-8.00763
▁slijmvlies	-8.00886
▁groot	-8.01182
▁gewicht	-8.01302
▁ontstaan	-8.01589
▁meerdere	-8.0168
aanvulling	-8.01721
▁aanwezigheid	-8.01846
▁cyste	-8.02658
▁over	-8.02917
▁zich	-8.03097
▁kader	-8.03265
▁multipele	-8.03462
▁hier	-8.03739
▁graad	-8.03751
▁klein	-8.03902
▁alle	-8.04081
▁placenta	-8.04183
▁galblaas	-8.04413
▁oesophagus	-8.04847
▁dag	-8.04848
▁vermoedelijk	-8.05622
▁welke	-8.06159
▁schildklier	-8.06687
▁opname	-8.0685
▁verruca	-8.07691
▁infectie	-8.07738
gewicht	-8.09296
▁sectie	-8.09663
▁dilatatie	-8.09802
▁toonden	-8.09882
revisie	-8.09958
▁zowel	-8.10137
▁peritonitis	-8.10308
▁buik	-8.10435
▁verdenking	-8.1147
▁lad	-8.13539
▁wegens	-8.13589
▁diffuse	-8.13802
▁keratose	-8.14066
▁hoofd	-8.14764
▁zien	-8.15264
i	-8.15398
▁onderkwab	-8.1596
le	-8.16033
▁ca	-8.16116
▁meest	-8.16197
▁geheel	-8.16573
▁combinatie	-8.17284
▁perforatie	-8.17304
▁jarige	-8.18145
▁twee	-8.18672
▁concordant	-8.19535
▁veel	-8.19983
▁hierbij	-8.20339
▁gegeneraliseerd	-8.20571
▁longoedeem	-8.20575
▁had	-8.20605
▁kenmerken	-8.211
▁rectum	-8.2173
hypertrofie	-8.22158
▁sterke	-8.22609
▁bevestigd	-8.22742
▁vaten	-8.23057
zie	-8.23497
▁slecht	-8.235
biopten	-8.23698
ie	-8.23706
▁cellen	-8.24292
▁al	-8.24309
▁linkerventrikel	-8.24555
▁thora	-8.24685
▁ascites	-8.2501
▁ernstig	-8.25237
▁atrofie	-8.25656
▁v	-8.25821
▁uiteindelijk	-8.25967
▁eerder	-8.26021
▁delen	-8.26212
▁onbekend	-8.26254
▁verklaard	-8.26501
h	-8.27037
▁geweest	-8.27313
tern	-8.27534
▁s	-8.27563
▁ruptuur	-8.27719
ische	-8.27914
verruca	-8.28009
▁steatose	-8.28261
▁solide	-8.28337
▁pro	-8.286
▁chronisch	-8.28684
▁beginnende	-8.2896
▁operatie	-8.29107
▁pathologie	-8.29272
▁duidelijk	-8.29686
▁weinig	-8.29727
▁geleid	-8.29925
▁onvoldoende	-8.29943
▁reeds	-8.30095
▁schade	-8.3015
▁hetgeen	-8.30199
▁been	-8.30548
▁vastgesteld	-8.30682
▁sigmoid	-8.31179
▁gemetastaseerd	-8.31474
▁lijkt	-8.31622
▁hoog	-8.31958
▁emfyseem	-8.32085
▁wang	-8.32232
▁hypo	-8.32429
▁gering	-8.3285
imale	-8.32882
▁urine	-8.33175
▁doorgemaakte	-8.33752
▁daarbij	-8.34236
▁uitslag	-8.34637
▁tijdens	-8.34747
▁gevolgen	-8.35026
▁uitgesloten	-8.35172
▁waarna	-8.35492
▁pla	-8.35523
▁benigne	-8.35642
▁kon	-8.35977
▁ischemische	-8.36233
▁pulmonale	-8.36501
▁om	-8.36704
in	-8.36881
▁uitbreiding	-8.3716
▁helicobacter	-8.37289
▁weefsel	-8.37805
▁iii	-8.38237
▁ma	-8.38448
▁morbus	-8.38589
▁derden	-8.39068
▁melanoom	-8.39372
▁primaire	-8.3974
▁specifieke	-8.40608
▁superficieel	-8.408
▁derhalve	-8.40986
▁postmortaal	-8.41323
▁pleura	-8.4139
▁behandeling	-8.41398
▁betrof	-8.42239
▁circa	-8.42743
▁we	-8.42853
▁intestinale	-8.42872
chronische	-8.43181
▁pa	-8.43229
▁gebied	-8.44168
▁dermale	-8.44675
▁ulcus	-8.44866
▁congenitale	-8.44917
▁gedilateerd	-8.44929
▁boven	-8.45378
▁aspect	-8.45606
▁neus	-8.45847
▁wand	-8.46035
▁m	-8.46762
insufficientie	-8.4714
▁zoals	-8.47352
▁hoogte	-8.47609
▁plaatselijk	-8.47857
▁cardiomyopathie	-8.47971
▁verslag	-8.4803
▁syndroom	-8.48787
▁neuropatholog	-8.48997
▁zekere	-8.49045
▁arterie	-8.49092
▁p	-8.49236
▁massale	-8.49502
▁septum	-8.49515
▁n	-8.49522
▁u	-8.49821
▁bijnier	-8.49883
▁sclerose	-8.4995
▁bovenkwab	-8.50187
▁fors	-8.50309
▁ongeveer	-8.50388
▁mediastinum	-8.50509
▁evidente	-8.50586
▁bestaande	-8.50961
▁waarvan	-8.51
▁ovarium	-8.51005
▁urotheelcel	-8.51561
▁thrombus	-8.51935
▁verklaring	-8.52545
▁consult	-8.52748
▁coronairarterie	-8.52894
▁deel	-8.53653
▁gelegen	-8.5411
us	-8.54482
▁c	-8.54546
▁onderbeen	-8.54744
▁re	-8.55348
▁radicaal	-8.55393
▁pylori	-8.55594
▁o	-8.55606
▁minder	-8.55743
▁cc	-8.55834
▁oesofagus	-8.56018
▁copd	-8.56197
▁naast	-8.56867
▁hartfalen	-8.56902
▁revisie	-8.57069
▁carcinomatosa	-8.57139
▁aortaklep	-8.57363
▁diffuus	-8.57704
▁tussen	-8.57941
▁focus	-8.58012
▁rond	-8.58394
▁langer	-8.58615
▁atherosclerot	-8.58631
▁vocht	-8.59867
▁longembolieen	-8.6003
▁primair	-8.60056
▁overwogen	-8.60276
▁oksel	-8.60341
▁hypertrofisch	-8.60356
▁grootcellig	-8.60507
▁licht	-8.60607
▁rest	-8.60711
▁bijzonderheden	-8.60851
▁doorgankelijk	-8.61278
▁gedacht	-8.61283
▁proces	-8.6179
▁bloedingen	-8.61978
▁schouder	-8.62687
▁atypische	-8.62725
▁sinds	-8.62766
▁reikend	-8.62787
▁z	-8.6328
▁*******,	-8.63738
▁zal	-8.64022
▁pancreatitis	-8.64045
tirpatie	-8.64096
▁wij	-8.64213
▁veroorzaakt	-8.64506
▁kleincellig	-8.64768
▁bowen	-8.65204
▁diagnostiek	-8.65741
▁hiervan	-8.6583
▁diabetes	-8.66159
iii	-8.66249
▁ontwikkelde	-8.66501
▁verspreid	-8.66832
▁behoeve	-8.66873
▁ileum	-8.67056
links	-8.67274
▁verdacht	-8.67413
▁micro	-8.67487
r	-8.67578
▁multi	-8.67774
▁septische	-8.67837
▁ascendens	-8.68271
▁normale	-8.68573
▁falen	-8.68637
▁abdominale	-8.69063
l	-8.69135
▁gelaat	-8.69424
▁cabg	-8.70265
▁epitheel	-8.70634
▁dissectie	-8.7078
▁elders	-8.71044
▁abdominalis	-8.71564
▁tractus	-8.71757
▁vetweefsel	-8.71824
▁coupes	-8.71997
▁ischaemische	-8.72747
▁voorwand	-8.72856
▁ductaal	-8.73246
▁inwendig	-8.73265
▁beleid	-8.73453
▁alsmede	-8.73456
stoornissen	-8.73524
▁gecompliceerd	-8.73641
▁intern	-8.7367
▁opgetreden	-8.73689
▁definitief	-8.73772
▁drie	-8.73902
▁longembolie	-8.74024
▁samenvattend	-8.74333
▁colitis	-8.74354
▁slechts	-8.74549
▁voorhoofd	-8.74698
cel	-8.75061
▁arm	-8.75359
▁ml	-8.75444
acute	-8.75675
▁eerste	-8.75914
▁recidief	-8.75928
▁gegevens	-8.76084
▁week	-8.76122
▁differentiaal	-8.7634
▁actinica	-8.76539
▁bronchus	-8.76876
imaal	-8.77126
▁abdomen	-8.77494
▁moet	-8.77934
▁mutatie	-8.78004
▁to	-8.7809
▁aantoonbaar	-8.78129
▁kleuring	-8.78204
▁maanden	-8.78302
▁borst	-8.78759
▁eveneens	-8.79074
▁component	-8.7913
▁gehele	-8.79192
▁cardiaal	-8.79358
▁hpv	-8.79376
▁papillair	-8.79446
▁vruchtdood	-8.80447
▁vanwege	-8.8047
▁diagnostisch	-8.81035
snijvlak	-8.81075
▁bovenbeen	-8.81121
▁invasieve	-8.81143
▁temporaal	-8.81596
▁hersenobductie	-8.81665
▁interstitiele	-8.81814
▁l	-8.82058
▁nader	-8.822
▁zijde	-8.82212
naevus	-8.82305
▁laaggradige	-8.82644
▁mellitus	-8.82777
▁alveolaire	-8.83094
▁granulocyten	-8.83118
▁distale	-8.83134
▁haarden	-8.83245
▁argumenten	-8.83319
▁vergroot	-8.83333
▁secundair	-8.83437
▁infiltrerend	-8.83443
▁snijvlakken	-8.8346
▁volledig	-8.83626
▁actinisch	-8.83695
▁descendens	-8.83808
uteriene	-8.83911
▁infarcten	-8.84091
▁concluderend	-8.84257
status	-8.85136
▁ramus	-8.8516
▁sprieterig	-8.85248
coronairarterien	-8.85657
▁myocarditis	-8.85992
▁analyse	-8.8618
▁bevinding	-8.86363
▁appendi	-8.86862
▁metastasering	-8.86968
▁voorkeur	-8.87162
▁ondanks	-8.8717
▁afwijkend	-8.8797
▁behouden	-8.88046
▁pericard	-8.88316
▁toestemming	-8.88575
▁morfologisch	-8.88682
on	-8.88996
▁bekende	-8.89079
wangerschapsduur	-8.89128
▁causa	-8.89419
▁digestivus	-8.89458
▁afkomstig	-8.89633
▁liter	-8.89678
▁corpus	-8.89812
▁uitgesproken	-8.89853
▁lichte	-8.89882
▁toename	-8.90045
▁terminale	-8.90139
▁stent	-8.90139
▁basale	-8.90841
▁lumen	-8.90852
▁afsluiting	-8.90868
▁beoordelen	-8.9093
▁pre	-8.91055
▁endocarditis	-8.91092
▁marge	-8.91144
▁toch	-8.91148
▁dd	-8.912
▁behandeld	-8.91804
▁bijnieren	-8.91838
▁dermatitis	-8.9208
▁vrijwel	-8.92155
▁pulmonalis	-8.92159
▁bilaterale	-8.92391
▁localisatie	-8.92506
▁cytologie	-8.92656
diameter	-8.92665
▁voorlopige	-8.92687
▁hoeveelheid	-8.92877
▁nummer	-8.92883
▁inklemming	-8.9335
▁mortis	-8.93555
▁uitwendig	-8.93581
▁weke	-8.93643
▁opvallend	-8.93681
▁immuunhistochem	-8.93732
arterioloscleros	-8.93769
▁gestuwd	-8.93834
maligne	-8.9384
▁tubulair	-8.93843
▁buikholte	-8.93979
▁pericarditis	-8.942
▁coronairen	-8.94305
▁vorm	-8.94309
▁embolie	-8.94312
▁doch	-8.94987
▁non	-8.95329
▁iv	-8.95486
▁dyspnoe	-8.95809
▁ulceratie	-8.9585
▁ct	-8.96138
▁oor	-8.96212
▁trachea	-8.96381
▁curettage	-8.96562
▁eerdere	-8.96939
▁trombus	-8.97009
▁romp	-8.97136
▁ldh	-8.97217
de	-8.97316
▁perineurale	-8.97373
▁leeftijd	-8.97806
▁snijvlak	-8.98137
▁zekerheid	-8.98218
▁peritoneum	-8.98532
▁kort	-8.98654
▁ziekte	-8.98768
▁rca	-8.98868
▁cerebrum	-8.99024
▁aanvullende	-8.99439
▁arterien	-8.9949
▁cerebellum	-8.99508
▁later	-8.99653
▁samen	-8.99726
▁mammacarcinoom	-8.99872
▁autolyse	-9.00343
slijmvlies	-9.0039
▁best	-9.00448
▁centraal	-9.00496
▁oppervlakkig	-9.00576
▁zeker	-9.00702
tra	-9.00811
▁her	-9.01295
▁harttamponade	-9.01301
▁blijkt	-9.01329
▁positieve	-9.01491
▁minimale	-9.01492
▁arteriosclerose	-9.01548
▁volgens	-9.01925
▁necrotiserende	-9.02091
▁lateraal	-9.02216
▁snede	-9.02266
▁helder	-9.02456
▁schouwing	-9.02596
▁verhoogd	-9.02635
▁abces	-9.0271
▁distaal	-9.02754
▁enig	-9.02785
▁vena	-9.03404
▁bovenstaande	-9.03519
▁pijn	-9.03531
▁bespreking	-9.03638
▁gebieden	-9.03681
▁nieuwe	-9.03926
▁therapie	-9.04271
wel	-9.04426
▁waardoor	-9.0449
pneumonie	-9.04923
▁doorgroei	-9.05471
ues	-9.05605
▁plotseling	-9.0586
morbus	-9.05929
thora	-9.05982
▁carcinoma	-9.06398
▁zijwand	-9.06539
▁lies	-9.06586
▁samengestelde	-9.06633
▁reikt	-9.06718
rechts	-9.0704
▁mannelijke	-9.07043
▁darmen	-9.07104
▁daar	-9.07114
▁resectievlak	-9.07398
▁dermatofibroom	-9.07813
▁onderarm	-9.07935
biopt	-9.08028
decompensatio	-9.08161
▁bestond	-9.08427
▁ileus	-9.0855
immuunhistochemi	-9.08701
▁koorts	-9.08753
▁adne	-9.08842
▁iliaca	-9.09072
ritmestoornissen	-9.0915
dunne	-9.09269
pre	-9.09291
▁opvallende	-9.09367
▁hematoom	-9.0966
▁anatomische	-9.09779
▁aanwijzing	-9.10012
al	-9.10085
▁lichaamsobducti	-9.10545
▁beschreven	-9.10792
▁slechte	-9.10828
resectievlak	-9.10846
cholecystectomie	-9.10928
▁eventuele	-9.11007
▁hierin	-9.11216
▁hiervoor	-9.11301
▁coecum	-9.11552
diagnose	-9.1184
▁circumfl	-9.12058
▁rondom	-9.12156
▁specifiek	-9.12442
▁oudere	-9.12642
met	-9.12664
neu	-9.12667
▁schedelobductie	-9.13042
▁significante	-9.13226
▁lipoom	-9.13333
▁frontaal	-9.13519
▁klachten	-9.13529
▁cerebrale	-9.13564
moleculaire	-9.13945
▁purulente	-9.13963
▁maagslijmvlies	-9.14022
▁post	-9.14204
▁kweken	-9.14414
▁progressieve	-9.14527
▁bovenarm	-9.14592
er	-9.15275
▁totale	-9.15333
▁laterale	-9.1537
▁slokdarm	-9.15559
actinisch	-9.15935
▁gemacereerde	-9.16062
▁decompensatie	-9.16147
▁ruim	-9.16271
▁pathologisch	-9.16277
▁veneuze	-9.16604
▁vermeld	-9.16673
▁para	-9.16852
▁obstructie	-9.17087
▁plaats	-9.17342
▁invasief	-9.17727
▁doorgemaakt	-9.17817
▁eczeem	-9.17829
▁cytologisch	-9.17949
▁laatste	-9.18291
▁beloop	-9.18429
▁dikke	-9.1855
▁cd	-9.18618
▁abstinerend	-9.18651
ste	-9.18991
▁antrum	-9.19013
▁ards	-9.19175
▁mate	-9.19305
▁vaatlijden	-9.19375
▁bodem	-9.19888
▁kweek	-9.19933
▁iets	-9.19966
▁vooral	-9.20093
▁neuro	-9.20101
▁verse	-9.20548
atie	-9.20644
weke	-9.20736
▁vergrote	-9.21017
▁coronairlijden	-9.21035
bij	-9.21107
▁li	-9.21189
▁reactie	-9.21381
▁tenminste	-9.21536
▁leiomyoom	-9.21691
▁diverticulitis	-9.21814
cm	-9.21932
▁jaren	-9.22035
▁leukemie	-9.2221
▁coeur	-9.22455
▁proliferatie	-9.22507
▁vasculitis	-9.2265
▁toto	-9.22711
▁resectievlakken	-9.22748
▁hoe	-9.22801
▁overigens	-9.22864
▁zwaar	-9.23032
▁vrouwelijke	-9.23536
▁totaal	-9.23553
▁cva	-9.23574
▁chemotherapie	-9.23699
▁longcarcinoom	-9.23792
▁oppervlakkige	-9.24045
▁dubieus	-9.24374
▁wervelkolom	-9.24496
▁mede	-9.24665
▁organiserende	-9.24691
invasieve	-9.2485
▁pt	-9.25064
▁colonslijmvlies	-9.25304
▁occlusie	-9.25581
▁overtuigende	-9.25662
▁bekken	-9.258
▁keratosis	-9.25985
▁risico	-9.26154
▁prothese	-9.2622
▁bijgedragen	-9.2628
glomeruloscleros	-9.26297
▁ritmestoornis	-9.26589
▁geven	-9.26667
▁circulatie	-9.26811
hyperplasie	-9.27038
▁toestand	-9.27132
▁infarceringen	-9.27161
resectie	-9.27198
▁uitwendige	-9.27279
▁thrombose	-9.27466
▁amyloid	-9.27554
▁infiltratie	-9.27622
▁tumorcellen	-9.2772
▁ontvangt	-9.27812
f	-9.27952
▁inderdaad	-9.29135
▁omentum	-9.29296
▁littekenweefsel	-9.29485
▁perifeer	-9.29599
▁h	-9.29703
▁cirrhose	-9.2975
▁gastritis	-9.29803
▁degeneratie	-9.29951
▁beoordeling	-9.30022
▁algehele	-9.30477
▁diagnosen	-9.30477
▁waar	-9.30573
▁hodgkin	-9.30626
▁naaldbiopt	-9.3073
▁overwegend	-9.30853
▁bijkomende	-9.30878
▁subcutis	-9.30949
▁geduid	-9.31043
▁ik	-9.31079
▁superior	-9.31207
▁hand	-9.31376
▁voornamelijk	-9.31465
▁score	-9.31659
▁verklaart	-9.31666
▁transversum	-9.31716
dermale	-9.31723
▁gleason	-9.31781
▁failure	-9.31805
▁pleuritis	-9.31824
▁nodulaire	-9.31863
▁eventueel	-9.31879
▁trombose	-9.31881
▁immunohistochem	-9.31904
▁postoperatief	-9.31992
▁diverse	-9.32157
▁intact	-9.32227
▁hoge	-9.32245
▁mitralisklep	-9.32479
▁respiratoir	-9.32618
▁schedelsectie	-9.32643
▁ingroei	-9.32858
▁overleg	-9.32909
▁anterior	-9.32919
▁abcederende	-9.33036
▁infiltraat	-9.33053
▁kreeg	-9.33135
▁vast	-9.33159
preparaat	-9.3323
▁maagbiopten	-9.33478
▁nevenbevinding	-9.3367
▁hypertroof	-9.33953
▁bloedverlies	-9.34017
▁danwel	-9.34256
ue	-9.34258
▁thoracale	-9.3427
▁gecontraheerd	-9.34364
▁cholelithiasis	-9.34498
▁gegeven	-9.34622
▁toenemend	-9.34663
▁tur	-9.34735
▁vooralsnog	-9.34825
▁levercirrose	-9.35083
▁trivasculaire	-9.35204
▁hepatitis	-9.35221
▁diepe	-9.3526
▁vanuit	-9.35352
▁aanknopingspunt	-9.35403
▁separaat	-9.35454
arteria	-9.35611
metastasen	-9.35781
▁lengte	-9.35869
▁hartinfarct	-9.36183
▁onderging	-9.36391
▁substraat	-9.36568
▁moleculaire	-9.36643
▁haar	-9.36728
▁plaatsen	-9.36766
▁haardvormige	-9.36871
▁antibiotica	-9.36944
▁ontstond	-9.36946
▁diafragma	-9.36967
▁fi	-9.3715
▁dieper	-9.37152
▁overgang	-9.37186
▁hemangioom	-9.37287
▁groeiwijze	-9.37456
▁directe	-9.37699
naaldbiopten	-9.37728
lokalisatie	-9.3774
cisiepreparaat	-9.37784
▁medisch	-9.37825
orgaanfalen	-9.37892
materiaal	-9.37913
▁beoordeelbaar	-9.38063
▁hersenstam	-9.38302
▁afdeling	-9.38311
▁haard	-9.38408
zijdigheid	-9.38597
▁media	-9.38645
▁zichtbaar	-9.38872
▁mesenterium	-9.38917
▁longstuwing	-9.38985
▁barrett	-9.38992
▁trombo	-9.39002
▁shave	-9.39134
▁flank	-9.39248
▁snijranden	-9.3941
▁on	-9.39697
▁diverticulose	-9.39755
▁stolsels	-9.39773
▁ontbreken	-9.39833
▁ontvangen	-9.399
▁waarop	-9.40325
▁pyelonefritis	-9.40397
▁bypass	-9.40454
of	-9.40571
▁achteruitgang	-9.41159
▁enkel	-9.41274
▁parenchym	-9.414
▁beperkte	-9.41402
▁focale	-9.41483
▁septisch	-9.41535
▁gedilateerde	-9.41545
▁mesenterica	-9.416
organismen	-9.41897
▁macroscopie	-9.42127
▁appendectomie	-9.42254
▁verleden	-9.42324
k	-9.42466
▁hemorragische	-9.42477
basaalcel	-9.42617
▁maturatie	-9.42822
▁perifere	-9.4286
▁ons	-9.42892
▁verandering	-9.42962
▁longemfyseem	-9.42998
▁laat	-9.43027
het	-9.43178
iv	-9.43258
kleincellig	-9.43401
▁oppervlak	-9.43518
▁kleuringen	-9.43663
▁asystolie	-9.4387
▁origine	-9.43964
embolieen	-9.44135
mw	-9.44207
▁tijd	-9.44222
▁zware	-9.44307
▁nu	-9.44419
▁thuis	-9.44444
▁uitstrijk	-9.4456
bevindingen	-9.44565
infarcering	-9.44586
▁subendocardiale	-9.4467
▁prostaatbiopten	-9.44684
wand	-9.44831
voor	-9.45097
▁bot	-9.4529
▁*******.	-9.45487
▁atrium	-9.45625
▁eosinofilie	-9.45678
▁open	-9.45751
▁aantal	-9.46046
▁granulomen	-9.46081
▁zagen	-9.46084
▁vonden	-9.46219
▁uren	-9.4622
▁besloten	-9.46463
▁ductus	-9.46546
▁dient	-9.4663
▁thrombi	-9.46645
▁gestuwde	-9.46708
▁neutrofiele	-9.46843
deze	-9.47001
▁pipelle	-9.47051
▁thrombo	-9.47133
▁verminderde	-9.47209
▁vers	-9.47307
▁afstand	-9.47357
op	-9.47507
▁zwelling	-9.47554
▁procedure	-9.4757
invasie	-9.4775
ma	-9.47931
▁sluiten	-9.48031
▁stadium	-9.48358
▁carotis	-9.48392
▁lichenoide	-9.48466
▁leverstuwing	-9.48472
▁geruptureerd	-9.486
▁dus	-9.48648
▁achter	-9.48736
▁zover	-9.48846
aanvullend	-9.48895
▁cin	-9.4904
▁datum	-9.4913
▁midden	-9.49134
▁bronchitis	-9.49263
▁gaarne	-9.49559
▁ivm	-9.49559
▁foci	-9.49703
▁alzheimer	-9.4981
▁gekweekt	-9.4983
keratosis	-9.50021
▁eosinofiele	-9.50049
▁corte	-9.50087
▁familie	-9.50087
▁via	-9.50143
▁blanco	-9.50403
▁melanocytaire	-9.50503
is	-9.50611
▁onderkwabben	-9.50648
▁slap	-9.5067
uor	-9.50761
▁mediastinale	-9.50893
▁ureter	-9.50917
▁urineblaas	-9.50997
▁cirrose	-9.51204
▁hooggradig	-9.51402
▁rol	-9.51409
▁cerebri	-9.51492
▁witte	-9.51674
▁tuba	-9.51731
▁candida	-9.5201
ook	-9.52161
epitheliale	-9.5224
intestinale	-9.52264
cellymfoom	-9.5232
sinfiltraat	-9.52514
▁hersensectie	-9.52722
jaar	-9.52757
▁hyperplastische	-9.52837
▁diep	-9.53067
▁amyloidose	-9.53125
▁ad	-9.53408
▁middels	-9.53425
▁liet	-9.53904
▁necrotisch	-9.54023
▁ontkleuring	-9.54057
▁coronaria	-9.54187
▁ziekenhuis	-9.54334
▁mucosa	-9.54411
▁grond	-9.54566
▁tweede	-9.54674
▁coupe	-9.54694
▁beschadiging	-9.54784
▁naaldbiopten	-9.54827
▁kliniek	-9.54946
intra	-9.54991
▁macrofagen	-9.55003
▁darmischemie	-9.55053
▁lijden	-9.55661
▁voet	-9.55688
▁poliepectomie	-9.55727
▁daarna	-9.5642
fibrilleren	-9.56461
▁zouden	-9.56587
▁levercirrhose	-9.56619
▁opgegeven	-9.56797
▁relatief	-9.56801
▁toegenomen	-9.56856
▁moleculair	-9.56947
▁aanleiding	-9.57239
actieve	-9.57271
linker	-9.57639
▁meningitis	-9.57696
▁gevuld	-9.57705
▁oedemateus	-9.57714
re	-9.57776
sche	-9.57879
▁geschat	-9.57948
▁peri	-9.58115
▁per	-9.58149
rechterventrikel	-9.58152
▁invasie	-9.58266
▁waargenomen	-9.58347
▁tubulusnecrose	-9.58592
▁abdominaal	-9.58701
▁macroscopische	-9.58705
▁rechterlong	-9.58873
▁atelectase	-9.58892
▁celbeeld	-9.58924
tubulair	-9.59089
ca	-9.59222
▁mesothelioom	-9.59269
▁bevestigt	-9.59464
immunohistochemi	-9.59478
▁suggestief	-9.59818
▁postmortale	-9.5982
▁laryn	-9.59855
▁splenomegalie	-9.59861
onderzoek	-9.59958
▁emfysemateuze	-9.60035
▁gastro	-9.60038
▁beperkt	-9.60087
▁graft	-9.60094
▁ulcererende	-9.60148
▁ingreep	-9.60176
▁fase	-9.60189
▁hemicolectomie	-9.60265
▁gestart	-9.60272
▁ic	-9.60423
▁fragmenten	-9.60437
▁nierfunctie	-9.60558
▁vet	-9.60624
▁hersenonderzoek	-9.60678
▁iuvd	-9.60766
▁st	-9.60874
▁vpb	-9.60934
▁hartspier	-9.60977
▁anus	-9.61002
▁granulomateuze	-9.61311
▁indien	-9.61322
▁laag	-9.61346
▁huidbiopsie	-9.6137
▁vanaf	-9.61401
ing	-9.61496
▁snel	-9.619
▁celrijk	-9.6209
▁knie	-9.62114
▁zodat	-9.62217
ontstekingsbeeld	-9.6247
▁uitgevoerd	-9.62477
transplantatie	-9.62484
▁aspergillus	-9.62633
▁hartkamer	-9.62852
▁berusten	-9.63047
▁vriescoupe	-9.63052
▁kernen	-9.63132
▁cholecystitis	-9.63177
▁bestaan	-9.63311
▁partiele	-9.63332
▁noch	-9.63407
▁lymfeklier	-9.6351
▁cor	-9.63518
▁instantie	-9.63728
▁systeem	-9.63871
▁alleen	-9.63929
rechter	-9.64054
▁papilloom	-9.64173
retroperitoneaal	-9.64311
▁lymfocytaire	-9.64318
▁lichen	-9.64459
▁dementie	-9.64463
▁degeneratieve	-9.64526
▁afwezig	-9.6462
▁maceratie	-9.64814
reactieve	-9.64822
▁bindweefsel	-9.65072
▁retour	-9.65262
▁direct	-9.65333
▁volgen	-9.6538
▁oedemateuze	-9.654
toevalsbevinding	-9.65401
▁colonbiopten	-9.65419
▁onderzocht	-9.65429
ze	-9.65495
▁onduidelijk	-9.65667
▁bepaling	-9.65685
▁egfr	-9.65789
kleuring	-9.65911
▁galwegen	-9.65926
▁vier	-9.65975
▁traject	-9.65984
▁bed	-9.6605
klinisch	-9.66125
▁conditie	-9.6626
▁kahler	-9.66707
▁hypertrofische	-9.66727
▁doorsnede	-9.66844
▁respectievelijk	-9.66885
▁richting	-9.67009
▁folliculair	-9.67058
▁arterio	-9.67061
▁buikwand	-9.6718
tal	-9.67298
▁vulva	-9.67444
normaal	-9.67572
▁splenitis	-9.67597
▁littekens	-9.6764
▁mitralis	-9.67747
▁embolieen	-9.67865
▁maand	-9.67992
▁nek	-9.68138
▁dubbelzijdige	-9.68211
▁lymfocyten	-9.6826
▁resten	-9.68541
▁blijft	-9.68573
▁do	-9.68579
▁multifocaal	-9.68782
▁radiotherapie	-9.68934
▁geconstateerd	-9.69176
▁epidermale	-9.6919
▁folliculitis	-9.69398
▁slaap	-9.6941
▁coloncarcinoom	-9.69477
tumor	-9.69484
▁naadlekkage	-9.69494
▁subendocardiaal	-9.69503
▁klep	-9.69506
▁ouderdom	-9.6954
▁verkregen	-9.69542
▁fistel	-9.69615
▁bron	-9.69662
▁coronairvaten	-9.69665
▁nodus	-9.69721
▁veranderd	-9.69734
nummer	-9.69902
▁hierover	-9.69946
▁tumorweefsel	-9.69991
▁betreffende	-9.69993
▁opnieuw	-9.70091
▁pancreaskop	-9.70113
nevenbevindingen	-9.70172
▁pleuraholte	-9.70221
laveiselepitheel	-9.70325
▁haardjes	-9.70351
▁virale	-9.70354
▁geboren	-9.70461
▁embolus	-9.70561
▁navelstreng	-9.70598
gecompromitteerd	-9.70677
▁huisarts	-9.7106
▁braken	-9.71232
niercelcarcinoom	-9.71664
▁choledochus	-9.71747
▁haemorrhagische	-9.71934
na	-9.71958
▁gedaan	-9.72089
triumfibrilleren	-9.72248
▁superficiele	-9.72334
▁lymfangitis	-9.72391
▁hippocampus	-9.72614
▁contact	-9.72637
▁aureus	-9.72659
▁defect	-9.72713
uterien	-9.72733
▁ventrikels	-9.72751
▁pathologische	-9.72851
▁struma	-9.72985
▁bloederig	-9.73191
▁anastomose	-9.73322
lymfklier	-9.73401
▁communis	-9.73481
▁vernauwing	-9.73516
y	-9.73591
▁vulgaris	-9.7361
▁doorbraak	-9.73699
▁dysplastische	-9.73864
▁plots	-9.73923
▁net	-9.73957
▁verslechtering	-9.74033
▁talrijke	-9.74038
veranderingen	-9.74112
▁val	-9.74206
cin	-9.74333
▁ontstekingsrest	-9.74398
▁vlokatrofie	-9.74437
▁rand	-9.74448
▁verschillende	-9.74477
▁bacteriele	-9.74495
▁*******:	-9.74522
▁onwel	-9.74542
▁buikpijn	-9.74646
▁voornaam	-9.74737
▁gespeeld	-9.74787
sneevlak	-9.74868
▁ze	-9.74919
▁betekenis	-9.74951
▁coli	-9.74957
▁pr	-9.74965
▁tamponade	-9.75189
▁afgenomen	-9.75335
▁systemische	-9.75472
▁uitgaande	-9.75585
▁trauma	-9.75695
▁bifurcatie	-9.75765
niet	-9.75844
▁gebruik	-9.75858
▁kras	-9.76105
▁panel	-9.76138
▁ander	-9.76182
uameuze	-9.76377
istente	-9.7642
beeld	-9.76423
▁heup	-9.76457
▁maagantrum	-9.76606
▁duiden	-9.76665
infarct	-9.7674
▁linkerlong	-9.76769
▁stroma	-9.77091
▁dorsaal	-9.77174
▁aortaklepstenos	-9.77191
▁duodenumbiopten	-9.7757
gediagnosticeerd	-9.77858
▁mediale	-9.7801
▁ingezet	-9.78121
▁oog	-9.782
carcinoma	-9.78212
sch	-9.78474
▁icterus	-9.78545
▁bestaand	-9.78812
▁drietaks	-9.78829
▁interna	-9.79044
▁cysten	-9.79128
▁secundaire	-9.79135
bijkomende	-9.79253
▁trombi	-9.79392
mm	-9.79408
▁disease	-9.79428
▁auto	-9.79527
▁regio	-9.79611
▁vervolgens	-9.79642
▁verbloeding	-9.79658
▁hyper	-9.79768
▁truncus	-9.79978
▁portale	-9.80118
▁beschouwd	-9.80359
▁bloedvaten	-9.80578
▁pacemaker	-9.80951
▁schimmels	-9.81061
▁fractuur	-9.81074
▁achtergrond	-9.81289
▁onderwand	-9.81521
▁tegen	-9.81562
▁arrest	-9.81754
▁onderliggende	-9.81944
▁moment	-9.8202
▁samengevat	-9.82039
▁lymfocytose	-9.82114
▁geval	-9.82153
▁recidiverende	-9.82272
▁infiltratiev	-9.82363
▁voorlopig	-9.82403
▁lobulair	-9.82408
▁terminaal	-9.82428
▁organisatie	-9.82533
▁zelf	-9.8254
▁nr	-9.82679
▁pons	-9.82742
▁haemorrhagisch	-9.82774
▁binnen	-9.8278
▁mediaal	-9.82855
▁gestaakt	-9.82872
▁geplaatst	-9.82911
▁dermis	-9.82932
▁subtotale	-9.83072
tumorlokalisatie	-9.83089
▁fibroadenoom	-9.83197
▁gereanimeerd	-9.83291
▁ontstoken	-9.83339
▁myeloide	-9.83373
▁anemie	-9.83435
▁classificeren	-9.83524
▁lumpectomie	-9.83772
▁mogelijkheid	-9.83821
conclusie	-9.83921
▁lokaal	-9.8409
▁sarcoidose	-9.84106
▁vaso	-9.84256
▁the	-9.84269
▁invasiediepte	-9.84345
▁uw	-9.84374
▁stof	-9.84398
diagnosen	-9.84454
cisiebiopt	-9.84596
▁retroperitoneum	-9.8463
▁occipitaal	-9.84663
▁tumoren	-9.84742
▁leverfalen	-9.84941
▁thoracaal	-9.85216
▁hypotensie	-9.85372
▁ulcera	-9.85413
▁infectieuze	-9.85614
▁gewichten	-9.85638
pa	-9.85698
▁malaise	-9.85754
▁alcohol	-9.85822
▁verlies	-9.85937
istent	-9.85941
▁slijm	-9.85981
▁lage	-9.86138
▁gehad	-9.86196
▁hierna	-9.86253
▁effect	-9.86329
▁vele	-9.86367
▁low	-9.86484
▁casus	-9.86599
▁cholestase	-9.86817
▁wervel	-9.87112
▁ruiterembolus	-9.87257
▁waaronder	-9.87275
▁cava	-9.87299
▁haematoom	-9.87648
▁ibd	-9.87764
▁ischemisch	-9.87785
▁krap	-9.87802
▁angio	-9.87851
aorta	-9.87884
▁amenorroeduur	-9.87961
▁massaal	-9.87962
▁volledige	-9.88132
▁adipeuze	-9.88151
▁wisselende	-9.88355
▁ging	-9.88396
▁braf	-9.8848
▁uitspraak	-9.88623
▁spierweefsel	-9.88671
▁kwam	-9.88788
▁classificatie	-9.88908
▁laaggradig	-9.88954
▁sub	-9.89081
▁kleppen	-9.89106
▁dna	-9.89194
▁stolling	-9.89236
▁ventrikelwand	-9.8929
type	-9.89343
▁parietaal	-9.89379
▁af	-9.8945
graad	-9.89617
▁representatief	-9.89706
▁evident	-9.89853
▁appendicitis	-9.89955
w	-9.90029
▁cardiac	-9.90232
▁posterior	-9.90342
▁wijzen	-9.90453
▁huidstukje	-9.90477
▁voldoende	-9.90602
▁fibrineuze	-9.90655
▁vetnecrose	-9.90663
▁tgv	-9.90677
▁gerelateerd	-9.90832
▁centrale	-9.9089
▁concentrische	-9.90904
▁blijken	-9.90955
▁onderbuik	-9.90989
▁vasculaire	-9.90998
▁bleken	-9.91063
▁problematiek	-9.91111
achterwand	-9.91321
▁mohs	-9.91376
▁uteri	-9.91406
▁aspecifieke	-9.91462
▁basaal	-9.91586
necrose	-9.91642
▁vragen	-9.91672
▁transmurale	-9.917
parenchymateuze	-9.91807
▁oestrogeen	-9.91883
aortaal	-9.91997
congenitale	-9.92126
▁parotis	-9.9228
▁stansbiopt	-9.92364
▁vliezen	-9.92544
▁rectosigmoid	-9.92569
▁gepaard	-9.92741
▁hulp	-9.92743
▁spier	-9.93064
▁zo	-9.93106
▁komen	-9.93111
▁pas	-9.93194
▁crohn	-9.9347
▁grotendeels	-9.93664
▁classificerend	-9.93837
▁perivasculaire	-9.93921
▁calcificaties	-9.9396
▁level	-9.93984
illa	-9.94066
▁resectieranden	-9.94171
▁langdurige	-9.94193
▁pericardvocht	-9.94219
▁intreden	-9.94491
▁origo	-9.9468
▁vitaal	-9.94795
▁complicaties	-9.94804
▁plasmacellen	-9.94871
▁adipositas	-9.94914
▁fibro	-9.94997
z	-9.95032
▁bil	-9.95375
▁ape	-9.95393
▁middenkwab	-9.9559
▁biologie	-9.95617
▁presenteerde	-9.9562
▁vlak	-9.95636
▁teken	-9.95722
▁preparaat	-9.95752
▁cardiogene	-9.95907
▁circulair	-9.95922
▁hemisfeer	-9.95975
▁aangezien	-9.96083
▁vorming	-9.96102
▁echo	-9.9612
▁hypovolemische	-9.96142
▁bloedingsfocus	-9.96143
▁differentiatie	-9.96222
▁levermetastasen	-9.96316
▁lip	-9.96353
mogelijk	-9.96401
▁aangegeven	-9.96482
longen	-9.96647
▁transmuraal	-9.96677
▁mutaties	-9.9675
▁bacterien	-9.96753
▁relatie	-9.9676
▁evenmin	-9.96782
▁amputatie	-9.9685
▁node	-9.96912
gediagnostiseerd	-9.9692
▁necrotische	-9.96938
▁infiltraten	-9.96958
oom	-9.96978
afwijkingen	-9.97001
orgaan	-9.97015
▁gesteld	-9.97158
ductaal	-9.97166
verdacht	-9.97231
▁etiologie	-9.97407
▁aankleuring	-9.97442
hart	-9.97509
▁gevolgd	-9.97816
▁cystitis	-9.97925
hpv	-9.97956
▁daarin	-9.98133
▁sereus	-9.98372
▁verkalkingen	-9.98559
▁kleinere	-9.98665
effect	-9.98694
▁bovenbuik	-9.98768
holte	-9.98824
▁uitgesteld	-9.9891
localisatie	-9.98954
pressie	-9.99006
▁bleke	-9.991
▁cerebellaire	-9.99119
▁sneevlak	-9.99145
▁geopereerd	-9.99263
▁foetale	-9.99476
▁subarachnoidale	-9.99644
dat	-9.99661
▁progressief	-9.9974
huid	-9.99763
an	-9.99873
▁laesies	-10.0001
▁inferior	-10.0002
▁geassocieerd	-10.0018
▁vagina	-10.002
▁neurologische	-10.0024
receptorbepaling	-10.0035
▁hooguit	-10.0041
▁duodeni	-10.0044
▁urosepsis	-10.0046
▁komt	-10.0052
▁stenoserende	-10.0057
▁retroperitoneal	-10.0077
▁moeilijk	-10.0085
▁ontwikkeld	-10.0092
▁verklevingen	-10.01
lever	-10.0104
▁besproken	-10.0108
eerd	-10.0113
ter	-10.0123
▁mond	-10.0129
▁immuun	-10.0131
▁bestaat	-10.0146
▁langs	-10.0148
▁pulmonaal	-10.0164
▁verlittekening	-10.0165
▁oorzaken	-10.0166
▁benen	-10.017
▁endocervicale	-10.0174
▁pigment	-10.0186
▁maten	-10.0187
colon	-10.0189
▁gezichtspunten	-10.0197
pcl	-10.0198
risico	-10.0201
▁ostium	-10.0202
▁maaginhoud	-10.0204
meer	-10.0205
▁uitbreidend	-10.0215
▁hierdoor	-10.0216
▁hydronefrose	-10.0221
▁schimmel	-10.023
▁sarcoom	-10.0242
▁microbiologisch	-10.0245
▁curettement	-10.0259
heid	-10.0261
▁cmv	-10.0262
▁verkalking	-10.0266
▁vraagstelling	-10.0276
▁genen	-10.0283
papillair	-10.0284
▁lis	-10.029
▁gaat	-10.0293
▁fibroserende	-10.03
▁overlijdt	-10.0301
weefsel	-10.031
▁varices	-10.0316
▁aangelegd	-10.0319
▁tumorproces	-10.0321
▁aanvankelijk	-10.0338
microscopisch	-10.0343
▁onzeker	-10.0344
▁evenals	-10.0344
▁grootste	-10.0366
▁bovendien	-10.0371
▁metastatisch	-10.0381
▁cardiovasculair	-10.0389
▁stolsel	-10.039
▁longweefsel	-10.0392
▁ovaria	-10.0415
▁ruggenmerg	-10.0424
▁basocellulair	-10.0431
▁cysteuze	-10.0435
▁spoeling	-10.0451
vriescoupe	-10.0457
▁ok	-10.0459
▁muscularis	-10.046
▁hepato	-10.0474
▁aanduiding	-10.05
▁lymfadenopathie	-10.05
▁lekkage	-10.0504
tweetal	-10.0518
▁care	-10.0519
▁fibrine	-10.0525
▁coronaire	-10.0536
▁algemene	-10.0537
ranulatieweefsel	-10.0537
uameus	-10.0548
▁aldaar	-10.057
▁hydro	-10.0573
▁omdat	-10.0574
▁lokalisaties	-10.0578
▁negatieve	-10.059
▁adenocarcinoma	-10.0593
her	-10.0595
▁takken	-10.0596
▁zwangerschap	-10.0599
▁laparotomie	-10.0602
▁beoordeeld	-10.0604
▁dcis	-10.0607
▁medicatie	-10.0612
▁epitheliale	-10.0616
reactie	-10.0618
supraclaviculair	-10.062
▁nefrectomie	-10.0627
▁hyperkeratose	-10.0638
▁testis	-10.0642
▁uitgenomen	-10.0656
▁bijna	-10.0675
▁opnemen	-10.0676
▁plaveiselcellig	-10.0678
▁buiten	-10.0683
▁anteroseptaal	-10.0703
▁ribfracturen	-10.0703
▁vi	-10.0703
▁bijvoorbeeld	-10.0704
▁punctaat	-10.0704
rest	-10.0706
▁lymfeklieren	-10.0732
▁obv	-10.0732
▁rc	-10.075
▁alcoholabusus	-10.0751
▁druk	-10.0758
▁regressie	-10.0762
laaggradige	-10.0776
▁collaps	-10.0782
▁propria	-10.0788
▁pus	-10.0808
▁seh	-10.081
▁afgesloten	-10.082
▁aannemelijk	-10.0823
▁virus	-10.0843
▁bevond	-10.0848
▁et	-10.086
▁naad	-10.0864
▁longparenchym	-10.0867
▁ontwikkeling	-10.0867
hyperkeratotisch	-10.0875
▁prognose	-10.0888
▁ulcerosa	-10.0893
u	-10.0902
▁lentigo	-10.0946
▁juist	-10.095
▁speekselklier	-10.0955
▁gen	-10.0974
▁beenmergbiopt	-10.0978
▁divertikel	-10.0979
▁tong	-10.0979
chronisch	-10.0991
▁nabij	-10.1004
▁vinden	-10.1006
▁glomeruli	-10.1012
▁gelokaliseerd	-10.1014
▁hemorragisch	-10.1017
▁grotere	-10.1018
▁arteriele	-10.1022
▁gaan	-10.1027
▁stenosering	-10.1041
▁periode	-10.1047
▁ventraal	-10.1058
infiltrerend	-10.1068
▁cache	-10.1076
▁output	-10.111
▁pyelum	-10.1111
▁r	-10.1113
samengestelde	-10.1127
▁onderlip	-10.1134
▁plaatsing	-10.1137
▁pinpoint	-10.1142
▁neusrug	-10.1171
▁teruggevonden	-10.1176
▁jejunum	-10.1177
▁bedraagt	-10.1188
▁bevindt	-10.1194
▁bilateraal	-10.12
▁niveau	-10.1224
▁ruimte	-10.1226
▁kunt	-10.1232
▁verslechterde	-10.1234
▁circulatoire	-10.1243
▁nefrosclerose	-10.1245
▁hypoplasie	-10.1251
▁planus	-10.1251
▁hierop	-10.1257
ernstige	-10.1258
▁pcr	-10.1261
mohs	-10.1266
punctie	-10.1275
▁beademing	-10.1287
▁epidermis	-10.1292
dometriumpoliep	-10.1306
epitheel	-10.131
▁stress	-10.1315
▁zone	-10.1319
▁onderliggend	-10.1355
▁aard	-10.137
▁trad	-10.1393
uit	-10.1431
▁nauwelijks	-10.1449
▁hooggradige	-10.1454
▁dunnedarm	-10.1477
▁stoma	-10.1482
▁ongewijzigd	-10.1486
▁diarree	-10.149
▁actief	-10.1492
▁longembolien	-10.1497
▁fibrosering	-10.1506
▁inhoud	-10.1514
▁bdz	-10.1514
oud	-10.1515
▁informatie	-10.1515
▁chirurgisch	-10.1518
▁adhesies	-10.1519
▁intensive	-10.1532
decompensatie	-10.1535
▁zullen	-10.1543
aspiratie	-10.1565
▁verwerkt	-10.1573
▁geboorte	-10.1587
▁trivasculair	-10.1588
▁centrum	-10.1607
▁omgevend	-10.161
▁afsluitende	-10.1612
to	-10.1633
▁leverde	-10.1638
▁brush	-10.1647
respiratoire	-10.1658
geringe	-10.1663
▁hernia	-10.1671
▁nefropathie	-10.1681
▁troebel	-10.1683
▁metabole	-10.1684
▁wisselend	-10.1688
▁laten	-10.169
▁hepatomegalie	-10.1694
sverschijnselen	-10.17
▁randen	-10.1708
▁minimaal	-10.1708
▁renalis	-10.1712
▁fibreuze	-10.1728
▁melaena	-10.173
▁compleet	-10.1743
▁thoracalis	-10.1746
▁coronairsysteem	-10.1751
▁stroomgebied	-10.1762
▁hb	-10.1772
▁beginnend	-10.1772
▁beslag	-10.1774
▁kapsel	-10.1782
▁insufficient	-10.1787
hyperplastische	-10.1791
nt	-10.1797
▁profiel	-10.1799
▁longbeeld	-10.1803
▁onverwacht	-10.1806
▁immatuur	-10.1809
endocriene	-10.1812
▁wenkbrauw	-10.1813
▁nigra	-10.1815
▁corticale	-10.182
auriculair	-10.1821
▁parkinson	-10.1834
terna	-10.1851
▁aandoening	-10.1853
▁structuren	-10.187
▁bloedstolsels	-10.1872
▁stenosen	-10.188
maligniteit	-10.1881
▁atypisch	-10.1883
▁kuit	-10.1883
▁micronodulaire	-10.1884
▁staat	-10.1886
j	-10.1891
▁steatosis	-10.1892
hodgkin	-10.193
▁nierfalen	-10.1932
resectievlakken	-10.1935
▁simple	-10.1968
▁hoofdstam	-10.1976
▁kin	-10.1977
▁rib	-10.1991
▁uitsluitend	-10.1997
▁massa	-10.2003
▁staphylococcus	-10.2003
▁nb	-10.2007
▁verzoek	-10.201
lijmvliesbiopten	-10.2028
▁sinus	-10.203
▁fibroom	-10.2037
▁geeft	-10.2037
▁darmslijmvlies	-10.205
▁bulleus	-10.2055
▁persisterende	-10.2059
stoornis	-10.2059
▁gedurende	-10.206
▁vijf	-10.2067
chorioamnionitis	-10.2071
▁consistentie	-10.2071
▁ambulance	-10.2072
onvoldoende	-10.2081
▁longfibrose	-10.2088
▁anaplastisch	-10.2091
▁and	-10.2091
▁optreden	-10.2092
▁stemband	-10.2093
▁enigszins	-10.2095
▁acuta	-10.2112
immuun	-10.2112
▁fish	-10.2115
▁milde	-10.2137
urineweginfectie	-10.2142
▁patholoog	-10.2153
▁mucineus	-10.2154
▁tezamen	-10.2156
▁instabiele	-10.2159
▁myometrium	-10.2164
lichen	-10.2169
▁secretariaat	-10.2175
▁pathogene	-10.2177
▁hepatocellulair	-10.2184
huidbiopt	-10.221
epidermale	-10.2215
▁huidstansbiopt	-10.2237
▁leek	-10.2238
gen	-10.2256
▁cardio	-10.2267
▁lymfoide	-10.2273
▁verkleuring	-10.2277
ardiorespiratoir	-10.2281
▁openen	-10.2283
▁dominant	-10.2286
▁soms	-10.2289
▁longafwijkingen	-10.229
▁daarvan	-10.2303
▁maligna	-10.2305
▁scapula	-10.2308
rug	-10.2311
▁kerato	-10.2315
▁tubulovilleus	-10.2317
▁achteruit	-10.232
stwaarschijnlijk	-10.2321
▁palliatief	-10.2324
▁schedel	-10.233
▁ischaemisch	-10.2333
▁mitraalklep	-10.2334
▁diepte	-10.2347
▁stellen	-10.2361
▁fibreus	-10.2363
acanthoom	-10.2366
▁erosieve	-10.2371
▁volgende	-10.2385
▁infectieus	-10.239
▁situatie	-10.2391
▁afwezigheid	-10.2393
▁lymfatische	-10.2394
▁tepel	-10.2398
▁deposities	-10.2408
▁radicaliteit	-10.2425
▁sigmoidresectie	-10.2425
▁grafts	-10.2439
▁lumina	-10.2446
▁volgde	-10.2448
▁nadere	-10.2451
▁minuten	-10.2452
▁waaraan	-10.2452
setting	-10.248
▁verloop	-10.2484
▁maken	-10.2488
▁out	-10.249
ad	-10.2502
▁patroon	-10.2511
▁spreidend	-10.2517
hmh	-10.2517
splenomegalie	-10.2527
▁hierboven	-10.2533
▁intravasa	-10.2538
▁hersen	-10.2539
▁functie	-10.2546
▁gliose	-10.2552
▁gemaakt	-10.2552
▁lokale	-10.2553
▁pols	-10.2554
▁neusvleugel	-10.2555
▁kruin	-10.2575
▁sclerosus	-10.2586
sreactie	-10.2586
▁sternum	-10.259
▁cachectische	-10.2594
long	-10.2597
▁compressie	-10.2613
tische	-10.2625
▁activiteit	-10.2627
▁dikte	-10.2641
▁aanleggen	-10.2649
▁weer	-10.2656
▁multipel	-10.266
▁serosa	-10.2662
▁bijbehorend	-10.2671
▁fibrotische	-10.2686
▁dank	-10.2687
▁omgeving	-10.2697
▁coeliakie	-10.2697
▁immuno	-10.2708
▁neuropathologie	-10.2716
▁gesuperponeerd	-10.2748
▁hiermee	-10.2753
▁multiple	-10.2757
ritmestoornis	-10.276
▁aftakkingen	-10.2774
▁variant	-10.2784
▁chirurgie	-10.279
▁kenmerkend	-10.2818
▁heldercellig	-10.2826
▁wond	-10.2828
▁telefonisch	-10.2831
▁aantoonbare	-10.2831
▁opruimreactie	-10.2833
negatief	-10.2838
▁calcificatie	-10.2839
▁handrug	-10.2845
▁intracerebrale	-10.2864
den	-10.2866
▁macro	-10.2885
▁drain	-10.2886
▁bleef	-10.2896
▁lewy	-10.2906
▁epilepsie	-10.2927
▁blokje	-10.2938
▁atrofisch	-10.2939
▁spongiotische	-10.294
gesteronreceptor	-10.2948
aortale	-10.2949
scan	-10.2957
▁diverticulosis	-10.2962
▁gecollabeerd	-10.2966
▁gevallen	-10.2991
pathologie	-10.2994
▁lastig	-10.2997
antrum	-10.3
▁duidend	-10.3009
▁coeliacus	-10.3031
▁comple	-10.3043
▁darmlissen	-10.3054
matige	-10.3071
▁atherosclerosis	-10.3072
▁bovenlip	-10.3078
gie	-10.3082
gr	-10.3083
▁hele	-10.3084
▁hiernaast	-10.3085
▁neuropatholoog	-10.3093
jw	-10.3095
▁herkenbaar	-10.31
▁uiting	-10.3101
topografie	-10.3111
pt	-10.3131
▁musculus	-10.3145
▁luchtwegen	-10.3147
▁giardia	-10.3148
▁lijken	-10.3154
▁leven	-10.3155
▁epicard	-10.3156
▁lymfangio	-10.3172
▁hieraan	-10.3173
▁afwijkende	-10.3174
flu	-10.3176
▁medulla	-10.3182
▁maagcorpus	-10.3194
▁neuronen	-10.3199
▁complicatie	-10.3216
▁huidshave	-10.3216
▁cerebraal	-10.3234
▁aanvrager	-10.3239
▁grensvlak	-10.324
▁rode	-10.324
▁subcutaan	-10.3244
▁papillairspier	-10.3252
▁feit	-10.3262
yelodysplastisch	-10.3267
▁carcinoid	-10.3269
▁staken	-10.3286
▁verkleefd	-10.3304
▁alk	-10.3309
▁ver	-10.3313
cochleaat	-10.3333
▁succesvol	-10.3336
▁vitale	-10.3336
▁ooghoek	-10.3337
operatie	-10.3339
▁hartstilstand	-10.3342
▁zes	-10.3344
li	-10.335
▁kaak	-10.3354
score	-10.3355
▁holte	-10.336
▁fle	-10.3362
▁inclusief	-10.3362
▁ree	-10.338
▁pseudomonas	-10.3404
▁astma	-10.3431
▁scheur	-10.3443
▁graag	-10.3444
▁nefritis	-10.3447
▁klasse	-10.3452
dissectie	-10.3452
▁vernauwd	-10.3454
▁morfologische	-10.3455
klepvervanging	-10.3459
coronair	-10.3463
▁compact	-10.3468
▁bevat	-10.3474
▁verbetering	-10.3476
▁respons	-10.348
▁hilus	-10.3484
▁aortadissectie	-10.3486
▁mesenteriale	-10.3507
▁ectomie	-10.3508
▁operatiegebied	-10.3511
▁noemenswaardig	-10.3524
positieve	-10.3531
▁craniaal	-10.3542
▁ascitesvocht	-10.3556
▁leverhilus	-10.3574
▁wellicht	-10.3578
▁dr	-10.3581
▁huidstans	-10.3594
mutatie	-10.3597
▁transplantatie	-10.36
▁flow	-10.3604
▁alhier	-10.3604
▁tumorvrij	-10.3606
▁plaveisel	-10.3634
▁genomen	-10.3636
▁papmilt	-10.3642
diffuse	-10.3657
onzeker	-10.3657
▁ecg	-10.3658
▁beeldvorming	-10.3664
▁genetisch	-10.367
▁bijbevinding	-10.3674
▁maart	-10.368
▁leverparenchym	-10.3681
▁morfologie	-10.3682
▁typisch	-10.3685
▁verhoornend	-10.3699
▁januari	-10.3704
▁structurele	-10.372
▁aanleg	-10.3724
▁gedecompenseerd	-10.3725
▁geleden	-10.3725
▁neoplasie	-10.3734
ergens	-10.3746
▁k	-10.3764
▁hospital	-10.3767
▁toegestaan	-10.3767
▁naden	-10.3771
▁beste	-10.3771
▁interstitieel	-10.3782
▁receptor	-10.3786
▁tel	-10.3789
▁brein	-10.3792
skenmerken	-10.3794
▁correlatie	-10.38
▁dehydratie	-10.3802
gebied	-10.3804
▁geruptureerde	-10.3806
▁stenen	-10.3811
▁arteriolosclero	-10.3817
▁hersenoedeem	-10.382
▁snelle	-10.382
▁ade	-10.3836
▁purulent	-10.3837
▁onderzochte	-10.3839
▁aml	-10.3855
▁poliepen	-10.3857
▁lang	-10.386
ura	-10.3861
▁celarm	-10.3874
▁verwijd	-10.3877
▁ulcererend	-10.3878
▁leverfunctie	-10.3886
primaire	-10.3892
▁buikklachten	-10.3892
▁fraai	-10.3895
▁gekend	-10.3897
▁langdurig	-10.3913
▁bronchi	-10.3915
▁basalioom	-10.3919
▁restlumen	-10.3919
▁geel	-10.393
▁schors	-10.3932
▁reden	-10.3935
▁aankomst	-10.3943
▁dermaal	-10.3947
▁ablatio	-10.3959
▁longemboli	-10.396
cellen	-10.3966
▁bestraling	-10.3969
▁intradermale	-10.3972
embolie	-10.3978
▁psoriasis	-10.3981
▁geslacht	-10.3984
grootcellig	-10.3995
▁myeloom	-10.4017
▁ondergaan	-10.4017
▁gecombineerd	-10.4027
▁co	-10.4039
▁thalamus	-10.4043
▁belangrijke	-10.4058
▁neurologisch	-10.4059
▁morfometrie	-10.4068
▁steatohepatitis	-10.4073
▁kg	-10.4077
pap	-10.4078
schimmelinfectie	-10.4083
waarschijnlijk	-10.4103
▁fragment	-10.411
▁bevatten	-10.4119
▁vertakkingen	-10.4119
▁klier	-10.4123
▁kond	-10.4126
voorwand	-10.413
coronairlijden	-10.4141
▁dissociatie	-10.4144
▁inspectie	-10.4144
▁my	-10.4148
▁hemodynamische	-10.4149
▁ooglid	-10.4151
van	-10.4152
▁ouder	-10.4181
▁overwegingen	-10.4182
▁vond	-10.4191
▁antibiotisch	-10.4207
▁pneumothor	-10.4213
▁overgeplaatst	-10.4247
▁thymus	-10.4251
▁angiopathie	-10.4252
▁globale	-10.4255
acerbatie	-10.4269
▁cholangio	-10.4287
▁tau	-10.4304
▁intracraniel	-10.4307
endocrien	-10.4307
▁mid	-10.4311
▁aa	-10.4311
maal	-10.4313
▁bijschildklier	-10.4315
▁sprieterige	-10.4323
▁j	-10.4325
tranodale	-10.4326
▁orgaan	-10.434
▁inflammatoire	-10.4341
▁architectuur	-10.4344
lab	-10.4345
▁geirriteerde	-10.4354
▁creutzfeldt	-10.4354
▁problemen	-10.436
▁basilaris	-10.4369
granulomateuze	-10.437
▁dissecans	-10.4378
maag	-10.4386
▁enterococcus	-10.4388
sis	-10.439
▁plaatsgevonden	-10.4404
▁oorschelp	-10.4409
▁literatuur	-10.441
coli	-10.4417
infectie	-10.4419
ten	-10.4424
▁laboratorium	-10.4435
proliferatie	-10.4448
cbd	-10.4457
▁ingenomen	-10.4462
▁doorsnijdingen	-10.4463
▁helft	-10.4467
▁sinistra	-10.4483
▁steen	-10.4485
▁granuloma	-10.4496
▁nodularis	-10.4511
▁cll	-10.4519
▁overvulling	-10.4536
▁herstel	-10.4537
prothese	-10.4537
▁beelden	-10.4538
▁heb	-10.454
▁diabetische	-10.4545
▁overeen	-10.4547
▁resultaat	-10.4547
▁lumbaal	-10.4552
▁segment	-10.4557
▁dicht	-10.4564
▁hartfunctie	-10.4577
▁antistolling	-10.4612
▁spoedeisende	-10.4616
▁instabiel	-10.4626
▁darmwand	-10.4633
▁hemodynamisch	-10.4638
invasief	-10.4642
▁pericardholte	-10.4645
▁hoofdbronchus	-10.4647
▁oesophagitis	-10.4653
ktegeschiedenis	-10.4653
▁letsel	-10.4653
▁urotheel	-10.4659
▁klieren	-10.4663
▁adenomateuze	-10.4669
▁opgestuurd	-10.4673
lentigo	-10.4675
▁porta	-10.4679
▁erosie	-10.4681
▁caudaal	-10.4684
▁cholangitis	-10.475
▁verzocht	-10.4751
▁cel	-10.4764
pulmonale	-10.4775
▁destructie	-10.4786
▁bevestiging	-10.4786
non	-10.4791
▁rood	-10.4806
amputatie	-10.4806
specifieke	-10.482
▁vegetaties	-10.482
bloeding	-10.4821
▁urethra	-10.4822
ehalve	-10.4844
▁mammaweefsel	-10.4846
▁cardiomyocyten	-10.4861
interstitiele	-10.4861
▁wijst	-10.4862
▁oesofagitis	-10.4866
▁geperforeerd	-10.4867
▁men	-10.4869
▁ribben	-10.4872
▁suspect	-10.4873
▁w	-10.4884
▁myocardischemie	-10.4891
uentie	-10.4907
▁station	-10.4907
▁achterhalen	-10.4916
voedingstoestand	-10.4916
um	-10.4923
▁valt	-10.493
▁huidbiopten	-10.4939
▁lab	-10.4951
▁petechien	-10.4957
▁anatomisch	-10.4958
sub	-10.496
onwaarschijnlijk	-10.4968
▁staan	-10.4981
▁naaldbiopsie	-10.4991
▁shocknieren	-10.4994
▁oblongata	-10.4999
▁longkwabben	-10.5
▁circulaire	-10.5006
multiorgaanfalen	-10.5011
▁diam	-10.5029
corpus	-10.5041
▁subduraal	-10.5045
▁postoperatieve	-10.5046
ng	-10.505
receptor	-10.5053
▁hepatis	-10.5054
onder	-10.5057
▁dorsale	-10.506
embolus	-10.5064
▁lobectomie	-10.5065
▁hypofyse	-10.5066
▁congestie	-10.5073
▁resttumor	-10.5081
▁aanspreekbaar	-10.5082
▁lienalis	-10.5086
▁bloedinkjes	-10.5088
▁cristabiopt	-10.5094
▁vaat	-10.5104
uate	-10.5112
pero	-10.5117
▁samenhangend	-10.5121
▁uiteinden	-10.5132
▁amplificatie	-10.5133
▁echografie	-10.5136
behaarde	-10.5143
▁ernst	-10.5143
▁kind	-10.5148
▁terug	-10.5169
▁denken	-10.5171
▁hydrocephalus	-10.5175
▁slijmvormend	-10.5183
▁subcutane	-10.5204
snijvlakken	-10.5207
▁zogenaamd	-10.5225
▁vater	-10.5226
▁wijzend	-10.5227
▁anti	-10.5233
coupes	-10.5234
▁correleren	-10.5234
▁palliatie	-10.5255
▁lucht	-10.5255
▁rechtszijdig	-10.5268
▁lange	-10.5278
▁evenwel	-10.5282
shave	-10.529
▁galstenen	-10.5294
▁verkalkte	-10.5294
▁cell	-10.53
▁infiltratief	-10.5301
▁clavicula	-10.5302
▁neurofibroom	-10.5305
▁complete	-10.531
▁haardje	-10.5315
▁hepatica	-10.5316
▁ttf	-10.5323
▁ngs	-10.5328
▁discrete	-10.5347
▁neuroendocrien	-10.5352
▁april	-10.5367
▁f	-10.5368
▁zondermeer	-10.5368
▁levercelverval	-10.5369
veneuze	-10.5376
▁arts	-10.5377
▁gefragmenteerd	-10.538
▁nagenoeg	-10.5381
▁histologie	-10.5391
▁verminderd	-10.5396
▁empyeem	-10.54
▁bepaald	-10.5406
▁th	-10.5422
st	-10.5427
▁obesitas	-10.5429
▁verval	-10.5431
▁cysteus	-10.5434
sclerose	-10.545
▁onderooglid	-10.545
lad	-10.5452
▁ligt	-10.5456
▁mei	-10.546
▁cystadenoom	-10.5463
▁grootte	-10.5465
▁ingesloten	-10.5466
▁betreffen	-10.5472
▁geneesmiddelen	-10.548
▁organ	-10.5486
▁chole	-10.5489
▁tumorrest	-10.5491
▁papil	-10.5512
▁betrekking	-10.5514
▁rejectie	-10.5519
▁abusus	-10.5523
▁cavum	-10.5525
▁posteroseptaal	-10.5539
▁afmeting	-10.5543
dysplasie	-10.5545
▁tpv	-10.5546
lomerulonefritis	-10.5547
▁path	-10.5548
uitslag	-10.555
▁uiteinde	-10.5562
▁voorkomen	-10.5565
▁sentinel	-10.5587
▁instabiliteit	-10.559
spontaan	-10.559
▁partus	-10.559
helicobacter	-10.5591
▁belangrijk	-10.5604
▁achterste	-10.5617
▁vervetting	-10.5618
▁forward	-10.5619
ectomie	-10.5623
▁willis	-10.5624
▁ureteren	-10.5626
▁dezelfde	-10.563
▁hemorrhagische	-10.5633
▁acidose	-10.5653
▁redelijk	-10.5659
▁levert	-10.5688
▁epidermiscyste	-10.5691
▁vaak	-10.5692
▁parietalis	-10.5694
▁femoralis	-10.5712
▁elleboog	-10.5712
abdominale	-10.5717
ductaalcarcinoom	-10.572
▁substantia	-10.5733
▁nee	-10.5737
▁immature	-10.575
verantwoordelijk	-10.5752
▁maagresectie	-10.5772
▁crista	-10.5773
▁maakt	-10.5777
▁influ	-10.578
▁beschouwen	-10.5783
▁termijn	-10.5784
▁meningeoom	-10.5794
taks	-10.5812
▁thv	-10.5814
▁darmischaemie	-10.5815
▁korte	-10.5819
▁kwabben	-10.5835
▁infaust	-10.5844
▁endometriose	-10.5858
▁derde	-10.586
▁februari	-10.586
▁huidresectie	-10.5865
▁bovengenoemde	-10.5872
▁annulare	-10.588
▁papillomatosus	-10.5881
▁pleuraholten	-10.5883
▁psoas	-10.5887
▁penis	-10.5895
▁gedeelte	-10.5906
▁rectumcarcinoom	-10.5912
▁posterolateraal	-10.5918
helaas	-10.5934
▁berust	-10.5935
▁tuberculose	-10.5943
sepsis	-10.5946
▁hartventrikel	-10.5954
cystolithiasis	-10.5955
▁tonsil	-10.5965
▁der	-10.5966
poliep	-10.597
▁endocervicaal	-10.5974
▁voorwandinfarct	-10.5985
positief	-10.599
anat	-10.5993
▁syndrome	-10.5993
▁pyogenicum	-10.5996
▁multinodulair	-10.6004
▁agonale	-10.6019
▁bevestigen	-10.6027
benigne	-10.6033
▁eindstadium	-10.6049
▁hematopoese	-10.6057
▁sneevlakken	-10.606
▁geobjectiveerd	-10.6061
▁hersenbloeding	-10.6063
bethesda	-10.6065
▁wie	-10.6069
▁infect	-10.607
▁membranen	-10.6071
▁hyperplastisch	-10.6086
hypertensieve	-10.6089
▁gleasonscore	-10.6092
adenocarcinoom	-10.6094
▁stam	-10.6097
▁vaatjes	-10.6098
filtratiediepte	-10.611
▁tubulus	-10.6115
▁fatty	-10.6116
▁abcessen	-10.612
▁pleurale	-10.6123
▁aortaboog	-10.6135
▁verdikte	-10.6146
huide	-10.6149
▁mammareductie	-10.6151
ontsteking	-10.6158
▁progressie	-10.6159
▁variatie	-10.6159
vi	-10.616
▁ruimten	-10.6164
▁subclavia	-10.6178
▁frontale	-10.6181
▁blasten	-10.621
▁middel	-10.6214
▁doorsneden	-10.6214
▁rechternier	-10.6225
▁angina	-10.6228
ide	-10.6237
▁vaatwand	-10.6244
▁merg	-10.6247
▁lv	-10.6247
▁streaks	-10.6249
▁ontstane	-10.6261
▁hersenarterien	-10.6277
▁tumorload	-10.6277
▁resterende	-10.6282
▁pretibiaal	-10.6283
▁stuwingsbeeld	-10.6286
▁encefalopathie	-10.6291
▁factor	-10.6303
aneurysma	-10.6306
▁min	-10.6309
▁galgang	-10.6311
▁geperforeerde	-10.6318
▁lobaire	-10.6321
▁maagperforatie	-10.6325
▁tak	-10.6327
basocellulair	-10.6328
circa	-10.6328
▁verwekker	-10.6338
▁atrofische	-10.6344
▁hadden	-10.6345
▁locatie	-10.6349
fragmenten	-10.6352
prostaat	-10.6358
icatie	-10.6362
▁hr	-10.6369
▁with	-10.6381
▁plak	-10.6381
▁vasculopathie	-10.6387
reactief	-10.6398
▁subacute	-10.64
deels	-10.6403
▁uitval	-10.6405
*	-10.6409
▁bewustzijn	-10.6409
▁backward	-10.6413
▁consultatie	-10.6414
dit	-10.6417
▁mesenteriaal	-10.6429
rt	-10.643
▁darmperforatie	-10.6441
▁volume	-10.6442
▁encephalopathie	-10.6451
▁harthypertrofie	-10.6462
emie	-10.6465
el	-10.6469
▁alcoholische	-10.6471
▁dysmorfe	-10.648
omtrent	-10.6499
▁posterieur	-10.6499
▁gerelateerde	-10.65
▁distress	-10.6501
eeds	-10.6505
biopsie	-10.652
▁papperig	-10.6524
▁verwijding	-10.653
▁relevante	-10.6531
▁aantasting	-10.6536
▁mediaan	-10.6537
▁lima	-10.6543
▁longlijden	-10.6543
▁groep	-10.6544
▁december	-10.655
broekprothese	-10.6554
▁cholesterol	-10.6554
▁zin	-10.6557
▁breslow	-10.6557
hodgkinlymfoom	-10.6559
▁onderscheid	-10.6561
▁behulp	-10.6566
▁scheenbeen	-10.6569
▁conte	-10.6574
▁atria	-10.6577
▁dialyse	-10.6585
▁hydrops	-10.6589
▁juni	-10.6592
▁faecale	-10.6598
▁editie	-10.6599
▁positiviteit	-10.6601
▁verwijde	-10.6623
▁belang	-10.6632
▁onderrug	-10.6632
▁detrusor	-10.6632
▁gelocaliseerd	-10.6637
▁interpretatie	-10.6638
erwijl	-10.6641
▁voorste	-10.6644
▁simpele	-10.665
▁reductie	-10.666
▁patia	-10.6682
▁mediastinaal	-10.6687
▁pap	-10.6691
tnm	-10.6702
▁anaemie	-10.6703
▁typering	-10.6703
nb	-10.6722
intern	-10.673
rechteronderkwab	-10.6732
paraneoplastisch	-10.6732
▁verdikt	-10.6741
▁gaande	-10.6749
myocard	-10.6751
▁setting	-10.6753
▁peritoneale	-10.6754
▁verweking	-10.676
▁hartdood	-10.6765
enkele	-10.678
▁whipple	-10.6786
curettage	-10.6797
▁tenslotte	-10.6797
▁divertikels	-10.6799
▁collega	-10.6803
▁cardia	-10.681
▁november	-10.6811
▁fasciitis	-10.6814
▁keratine	-10.6815
stv	-10.6815
coronairarterie	-10.6819
myocardischaemie	-10.6836
▁waarme	-10.684
differentiatie	-10.684
▁vene	-10.6841
▁seniele	-10.6842
▁oktober	-10.6848
▁vraag	-10.685
▁endocervi	-10.6851
▁restant	-10.6858
▁perivasculair	-10.6858
▁lymfo	-10.6858
degeneratieve	-10.6862
▁verschijnselen	-10.6863
▁cho	-10.6863
▁erfelijke	-10.6871
▁zijdigheid	-10.6885
cs	-10.6888
▁magere	-10.6891
▁vermoeden	-10.6903
▁afgezien	-10.6904
▁prominente	-10.6907
▁translocatie	-10.6918
klierdissectie	-10.6935
▁abortus	-10.6943
▁pneumoniae	-10.6944
minder	-10.6946
▁jonge	-10.6946
analyse	-10.6946
▁augustus	-10.6949
▁erytrocyten	-10.6951
▁ebv	-10.6955
ar	-10.6988
▁multifocale	-10.7002
▁amenorrhoeduur	-10.7003
▁misselijkheid	-10.7005
▁asfy	-10.7006
▁endo	-10.7008
▁opzichte	-10.7017
▁trisomie	-10.702
alveolaire	-10.7022
▁lymfogene	-10.7034
▁interne	-10.7051
dikke	-10.7052
▁top	-10.7054
syndroom	-10.7055
at	-10.7057
▁juli	-10.7058
▁kleur	-10.7068
▁lichaamssectie	-10.7068
▁grensvlaknaevus	-10.707
▁drainage	-10.7086
▁vlekkig	-10.7087
▁doen	-10.709
▁bloedkweek	-10.7091
▁corpustype	-10.7092
▁ck	-10.7099
cisies	-10.7101
▁ieder	-10.7103
▁alho	-10.7105
▁schouderblad	-10.7112
▁alfa	-10.7112
▁tumorhaarden	-10.7115
granuloma	-10.7124
betrouwbare	-10.7137
▁georganiseerde	-10.7151
▁mechanische	-10.7157
▁mastopathie	-10.7171
tramedullair	-10.7174
▁neuspunt	-10.7174
dd	-10.7177
▁ptca	-10.7191
▁stents	-10.7192
abdominaal	-10.7193
placenta	-10.7194
▁pectoris	-10.7204
▁intima	-10.7204
▁retro	-10.721
oesofagusbiopten	-10.7219
▁stoornissen	-10.7219
▁leverbiopt	-10.7222
oestrogeen	-10.7238
▁bradycardie	-10.7239
▁oorsprong	-10.7241
▁herkend	-10.7241
▁jakob	-10.7261
▁resp	-10.7263
▁pin	-10.7263
▁micronodulair	-10.7265
▁botbiopt	-10.7272
verruceuze	-10.7276
▁myomatosus	-10.728
▁wig	-10.7301
▁gisten	-10.7304
▁ijzerstapeling	-10.7311
sactiviteit	-10.7318
procedure	-10.7323
vorming	-10.7332
▁klebsiella	-10.7343
▁aortawand	-10.735
▁geadviseerd	-10.7352
▁prostaatweefsel	-10.7362
▁heli	-10.7366
▁beta	-10.7382
tumorlocalisatie	-10.7383
▁aortastenose	-10.7391
▁hematomen	-10.7392
voorlopig	-10.7398
▁rechterzijde	-10.7407
▁glandulaire	-10.7408
▁overtuigend	-10.741
▁fre	-10.7413
▁verkleving	-10.7425
hals	-10.7428
▁depositie	-10.7433
▁gastropathie	-10.746
▁elkaar	-10.7471
▁los	-10.7477
▁controle	-10.7482
▁gaaf	-10.7488
▁wervels	-10.7492
▁venen	-10.7494
▁bloederige	-10.7497
▁maagcarcinoom	-10.7498
▁tumorpositief	-10.7502
▁ros	-10.7502
▁lymfocytair	-10.7503
beensamputatie	-10.751
▁toen	-10.7518
▁vlekkerig	-10.7521
▁pulpa	-10.7524
▁hartkleppen	-10.7537
▁granulerende	-10.7551
verschuiving	-10.7563
▁dame	-10.7566
▁vergroeid	-10.7566
ale	-10.7568
▁histopatholog	-10.7573
▁transformatie	-10.7582
▁ritme	-10.7594
▁mc	-10.7596
incontinentie	-10.7604
▁myocardiale	-10.7614
cysteuze	-10.7614
▁windingen	-10.7615
▁pijnklachten	-10.7617
▁geinfecteerde	-10.762
▁groeirestrictie	-10.7633
▁granulocytair	-10.7637
▁random	-10.7655
acte	-10.7658
▁gebarsten	-10.7664
▁enzymkleuring	-10.7673
partiele	-10.768
▁lymfoid	-10.768
operatief	-10.7689
▁afname	-10.7689
jarig	-10.7691
▁who	-10.7698
▁overweging	-10.7702
▁ulceraties	-10.7704
▁visceralis	-10.771
▁transplantaat	-10.772
▁tia	-10.7724
dikte	-10.773
▁histomorfologi	-10.773
▁perfusie	-10.7733
▁lc	-10.7737
▁bovenste	-10.7739
▁tubuli	-10.7742
▁solaris	-10.7745
▁temporalis	-10.7745
▁granuloom	-10.7761
▁luchthoudend	-10.7762
▁lieten	-10.7771
▁submucosa	-10.7775
lecystolithiasis	-10.778
cideerd	-10.778
▁doet	-10.7781
fluorescentie	-10.7786
▁algemeen	-10.7788
▁uitrijping	-10.7798
▁bovenkwabben	-10.7816
▁av	-10.7816
▁stollings	-10.7817
▁betrouwbaar	-10.7821
▁ondersteuning	-10.7833
▁talgklier	-10.7847
▁longvaten	-10.7858
▁blaasslijmvlies	-10.7859
▁streptococcus	-10.7872
▁elastose	-10.7874
▁intubatie	-10.7875
▁vreemdlichaams	-10.7881
▁alles	-10.7884
▁tp	-10.7884
▁factoren	-10.7888
aritmogene	-10.7891
diagnostisch	-10.7896
▁spoed	-10.79
▁supra	-10.7901
▁tumoreus	-10.7903
▁progesteron	-10.7904
▁leidend	-10.7909
versus	-10.7911
▁cervicale	-10.7922
▁chromosomale	-10.7923
▁woog	-10.7927
▁linkernier	-10.7931
schildwachtklier	-10.7939
gleason	-10.795
▁nacht	-10.7952
▁allen	-10.7955
▁eigenlijk	-10.7967
▁maagbloeding	-10.7968
▁leiomyomen	-10.7969
gelet	-10.7995
▁marginal	-10.8008
▁darmpakket	-10.8008
▁femur	-10.8009
▁cirkel	-10.801
▁schrompelnier	-10.8011
▁metaplastisch	-10.8014
▁hypertrofe	-10.802
▁minste	-10.8021
uitsluitend	-10.8029
▁vulling	-10.804
▁nierarterien	-10.8045
ventrikelsysteem	-10.8049
▁solitaire	-10.8058
▁serrated	-10.8061
blaas	-10.8067
rh	-10.8075
▁aangevraagd	-10.8078
▁pancreasstaart	-10.8079
▁linkerzijde	-10.808
▁stentplaatsing	-10.8084
▁begin	-10.8085
▁osteoporose	-10.8086
▁compatibel	-10.8094
vermoedelijk	-10.8108
hyperpigmentatie	-10.8116
▁uitsluiting	-10.8116
▁thromboembolie	-10.8119
▁cardiopulmonale	-10.8121
▁thyreoiditis	-10.8122
▁wekedelen	-10.8122
▁reuscellen	-10.8123
▁artritis	-10.8125
▁gevoerd	-10.8127
▁stoornis	-10.813
▁nucle	-10.8144
definitief	-10.8148
▁multiforme	-10.8154
▁emphyseem	-10.8158
▁aangenomen	-10.816
▁bovenkwadrant	-10.8167
aal	-10.8172
▁bloedvat	-10.8184
▁autolytisch	-10.8193
▁flr	-10.821
iteit	-10.822
▁labium	-10.8224
▁bowenoide	-10.823
▁dergelijke	-10.8232
▁eenduidig	-10.8235
▁endoresectie	-10.8247
▁idiopathische	-10.8271
rechterbovenkwab	-10.8273
▁intacte	-10.8274
▁herseninfarct	-10.8274
▁staven	-10.8276
▁sclerotisch	-10.8289
▁regionale	-10.8291
▁kleiner	-10.8293
▁implantatie	-10.8305
▁iga	-10.8305
▁herpes	-10.8307
▁glad	-10.8312
▁slijmvliesbiopt	-10.8314
▁biologisch	-10.8328
mortaal	-10.8329
▁zwangerschaps	-10.8338
▁doorlopend	-10.8354
ml	-10.8359
▁colectomie	-10.8362
▁dm	-10.8367
▁fatale	-10.8369
▁velden	-10.8377
passend	-10.8385
▁emfysemateus	-10.8386
▁renum	-10.8386
▁ochtend	-10.8401
▁longbloeding	-10.8411
▁stamcel	-10.8415
▁bemoeilijkt	-10.8425
▁deferens	-10.8425
▁gezwollen	-10.843
adne	-10.8432
▁matuur	-10.8435
▁digitus	-10.8439
▁hypoperfusie	-10.8441
▁bacteriemie	-10.8442
▁gewenst	-10.8445
▁overwegen	-10.8454
▁succes	-10.8455
▁verwijdering	-10.8457
▁bcl	-10.8467
▁aneurysmatische	-10.8471
▁mannelijk	-10.8475
cc	-10.8479
▁tweemaal	-10.848
▁hilaire	-10.8489
▁meerkernige	-10.849
▁mondbodem	-10.8491
▁veranderde	-10.8494
▁tumormassa	-10.8506
▁spontaan	-10.8522
moleculair	-10.8527
marge	-10.8533
▁vol	-10.8535
ocaal	-10.8537
▁prednison	-10.8544
▁ruggemerg	-10.8544
▁hypercellulair	-10.8544
▁spongiose	-10.8547
▁gevraagd	-10.855
▁circulatoir	-10.8556
▁buismaag	-10.8566
tremiteiten	-10.8584
▁broncho	-10.8594
▁stukje	-10.8594
tubulovilleus	-10.8597
▁blaaswand	-10.8607
▁klierbuizen	-10.8608
▁atheromateuze	-10.8608
▁vii	-10.8612
▁bulbus	-10.8614
▁richardson	-10.8622
▁sluit	-10.8623
icologisch	-10.8624
totaal	-10.8639
▁bloom	-10.8642
▁sporadisch	-10.8649
▁pree	-10.8658
icodermie	-10.8664
▁clark	-10.8664
▁fibrotisch	-10.8671
▁pseudo	-10.8673
onderwandinfarct	-10.8675
reuscelreactie	-10.868
curettement	-10.8682
▁lok	-10.8694
▁ip	-10.8695
▁pylorus	-10.8696
▁gal	-10.8702
▁mocht	-10.8704
▁graviditeit	-10.8709
door	-10.8713
▁genoemde	-10.872
▁nras	-10.8722
micro	-10.8723
▁bronchien	-10.8724
▁ulceratieve	-10.8724
▁september	-10.8729
▁echogeleid	-10.8729
▁lichtmicroscop	-10.8737
▁icterische	-10.8742
gebruik	-10.8751
sentinel	-10.8754
▁vinger	-10.8758
▁ple	-10.8761
cholesterolemie	-10.8762
▁igg	-10.8769
▁nieuw	-10.8771
nieren	-10.8775
dr	-10.8779
▁hemato	-10.8794
▁keratoacanthoom	-10.8794
▁beter	-10.8801
kweek	-10.8801
▁refractair	-10.8809
parenchym	-10.8813
▁kamer	-10.8814
▁groeit	-10.8818
▁tbc	-10.882
▁ruime	-10.8826
▁geindiceerd	-10.8826
▁hypotensief	-10.8829
▁heel	-10.8844
▁locus	-10.8851
▁into	-10.8853
▁orgaanfalen	-10.8865
▁gewichtsverlies	-10.8867
therapie	-10.8867
▁aangedaan	-10.8872
circumferentiele	-10.8881
▁hp	-10.8883
▁cave	-10.8884
▁overgangscel	-10.8893
▁cholesterolose	-10.8909
▁serum	-10.8919
▁collabeerde	-10.8926
stenose	-10.8942
▁resulterend	-10.8953
▁pleiomorf	-10.8953
▁sputum	-10.8958
▁alveoli	-10.896
milt	-10.8965
▁bijkomend	-10.8966
▁situs	-10.8974
▁gemarkeerde	-10.8988
▁hoeverre	-10.8991
▁damage	-10.8991
▁ductale	-10.901
▁thrombotische	-10.9015
▁art	-10.902
▁gepigmenteerde	-10.9021
▁arterietakken	-10.9026
mamma	-10.9032
▁scherp	-10.9033
▁aspergillose	-10.9036
▁poliepje	-10.904
▁ganglion	-10.9041
▁wederom	-10.9043
septische	-10.905
▁pericentrale	-10.9051
▁obductieverslag	-10.9054
▁verkalkt	-10.906
▁mogelijkheden	-10.906
conform	-10.9062
mechanische	-10.9067
aantal	-10.9068
▁diafragmatica	-10.9075
▁thrombusvorming	-10.9077
alwaar	-10.9082
▁bronchiolitis	-10.9082
▁tekst	-10.9085
▁test	-10.9085
▁radicale	-10.9085
▁clostridium	-10.9094
proliferatieve	-10.9098
classificatie	-10.9099
ventrikel	-10.9099
ductus	-10.9111
diffuus	-10.9111
▁behaard	-10.9112
▁samenvatting	-10.9117
▁mycose	-10.9117
ischemische	-10.9119
▁littekenvorming	-10.9121
▁prostatitis	-10.9122
▁onderbenen	-10.9122
▁hemorrhagisch	-10.9127
▁fulminante	-10.9127
▁brca	-10.914
embolien	-10.9161
▁inclusies	-10.917
▁bovenrug	-10.9171
▁spoelvocht	-10.9182
▁vervanging	-10.919
▁grawitz	-10.9196
sigmoid	-10.9198
▁ventrale	-10.92
▁overeenstemming	-10.9201
▁recentere	-10.9207
▁kwab	-10.921
▁radiologisch	-10.9212
▁tien	-10.9214
▁bijnierschors	-10.9218
papillairspieren	-10.9219
▁longtumor	-10.9228
▁respiratory	-10.9235
▁stase	-10.9236
▁vermeldt	-10.9241
▁autolytische	-10.9244
urotheelcel	-10.925
▁striatum	-10.9254
▁overig	-10.9257
▁aspecifiek	-10.9261
▁bypasses	-10.9261
▁relaparotomie	-10.9281
geproportioneerd	-10.9287
▁majus	-10.9287
▁hersenweefsel	-10.9287
organiserende	-10.9289
▁urinewegen	-10.9289
▁msi	-10.9291
▁buikaorta	-10.9295
diam	-10.9296
over	-10.9301
lymfoom	-10.9307
hr	-10.931
▁reanimeren	-10.9314
oude	-10.9314
▁malformatie	-10.9315
▁adenomen	-10.9318
▁duur	-10.9321
minstens	-10.9333
▁nasi	-10.9335
▁maagwand	-10.9335
▁vaatafwijkingen	-10.9338
▁verdikking	-10.9338
▁pars	-10.9356
gezien	-10.9357
regio	-10.9358
▁plotse	-10.936
travasatie	-10.9363
▁kappa	-10.937
▁onderste	-10.9373
ventrikelfunctie	-10.9378
who	-10.9378
▁vroeger	-10.9379
istomorfologisch	-10.9385
▁leiden	-10.9386
▁toe	-10.9387
ischaemische	-10.9393
▁preauriculair	-10.9394
▁verzwaard	-10.9405
▁longembolus	-10.9408
▁rok	-10.9411
▁vroege	-10.9412
▁kraakbeen	-10.9414
▁betrokken	-10.9416
▁aritmie	-10.9416
▁doorsnijden	-10.9417
▁thrombosering	-10.9417
▁gekregen	-10.9419
▁leverkwab	-10.942
▁inzichten	-10.9421
▁melanoma	-10.9426
▁buitenzijde	-10.9427
▁icd	-10.9451
▁specificiteit	-10.9466
lichenoide	-10.9469
▁gekomen	-10.9469
▁subpleuraal	-10.947
▁inzage	-10.947
component	-10.9472
▁scalp	-10.9493
▁ziektebeeld	-10.9499
▁necrotiserend	-10.95
cardiale	-10.9503
▁hiv	-10.9509
dilatatie	-10.9536
▁zijsnijvlak	-10.9536
▁intestinaal	-10.954
▁breuk	-10.9545
▁galsteen	-10.9547
sgraad	-10.9554
▁vat	-10.956
▁haemangioom	-10.9562
▁os	-10.9563
angio	-10.9563
▁contractieband	-10.9564
trahepatische	-10.9569
▁krapst	-10.958
punctaat	-10.9597
▁adenoid	-10.9612
▁infarctlitteken	-10.9619
▁bethesda	-10.9625
▁lumbale	-10.9631
▁verwikkelingen	-10.9638
▁adenomyosis	-10.9642
▁pneumosepsis	-10.9644
▁enteritis	-10.9645
▁segmental	-10.9646
onderkwab	-10.965
▁vormen	-10.9656
▁voetlengte	-10.9664
▁astrocytoom	-10.9673
omateuze	-10.968
▁noodzakelijk	-10.968
▁adhaesies	-10.9683
▁serosale	-10.9686
aortaklepprothes	-10.9686
▁beschadigd	-10.9697
innemend	-10.9698
▁elektro	-10.9702
▁lymfogeen	-10.9706
einde	-10.971
▁beschadigde	-10.971
seudomembraneuze	-10.9715
▁erg	-10.9717
▁episode	-10.9719
▁bacterie	-10.9723
▁omliggend	-10.9725
▁hartzakje	-10.9725
▁abcesvorming	-10.9726
erbb	-10.973
▁hartoor	-10.9732
▁spontane	-10.9741
▁bloedkweken	-10.9747
metastasering	-10.9749
▁symmetrisch	-10.9751
▁subcapsulair	-10.9761
occipitaal	-10.9768
▁linkszijdig	-10.9772
▁normocellulair	-10.9772
▁raakte	-10.978
ct	-10.981
▁oorspronkelijke	-10.9811
▁enerzijds	-10.9815
▁eind	-10.9815
▁collumfractuur	-10.9819
▁schimmeldraden	-10.9821
▁paar	-10.9825
▁influenza	-10.9835
▁embolien	-10.9858
▁hyaliene	-10.9858
▁aeruginosa	-10.9859
▁ileusbeeld	-10.9873
beschadiging	-10.9873
scomponent	-10.9885
▁microbiologie	-10.9885
▁daling	-10.9887
▁prostatectomie	-10.9889
▁zenuwstelsel	-10.9905
▁daarmee	-10.9905
▁geraakt	-10.9908
▁mastectomie	-10.9912
▁hypoplastisch	-10.992
▁gee	-10.9928
▁endocard	-10.9933
▁blaascarcinoom	-10.9936
▁septaal	-10.9949
▁mevrouw	-10.9951
▁bewijs	-10.9951
▁reeks	-10.9955
▁geinfarceerd	-10.996
▁decubitus	-10.9962
lymf	-10.9976
ring	-10.9977
▁associatie	-10.9979
calcificaties	-10.9987
▁compensatoire	-10.999
▁lamelleren	-10.9997
▁proliferatieve	-10.9997
▁ijzerpigment	-11.0002
▁ret	-11.0004
▁pulmonales	-11.0004
▁lag	-11.0004
end	-11.0008
▁parakeratose	-11.0015
▁linkeronderkwab	-11.0019
▁emboli	-11.003
▁vasculair	-11.0031
congestieve	-11.004
para	-11.0049
▁nierbiopt	-11.0061
alveolair	-11.0066
▁sessiel	-11.0075
▁slappe	-11.0075
▁anders	-11.0089
onderverdelingen	-11.0094
▁patent	-11.0098
▁ijzer	-11.0103
▁gesloten	-11.011
▁varierend	-11.0122
gram	-11.0126
▁geinfecteerd	-11.0132
▁avond	-11.0134
sproces	-11.0134
▁lamblia	-11.0135
▁dankzegging	-11.0136
▁celrijke	-11.0137
▁verspreiding	-11.0142
▁suboptimaal	-11.0143
▁hoesten	-11.0144
▁desondanks	-11.0145
deel	-11.0146
▁gyrus	-11.0147
▁tricuspidalis	-11.0151
am	-11.0154
▁persisterend	-11.0162
▁schildklierkwab	-11.0164
▁asymmetrische	-11.0173
voorhoofd	-11.0177
▁darmziekte	-11.0185
▁albicans	-11.0189
▁hieruit	-11.019
▁middelgro	-11.0191
▁snijrand	-11.0192
▁obliteratie	-11.0192
▁dad	-11.0193
lateraal	-11.0194
▁apicaal	-11.0215
▁trombotische	-11.0216
▁gestenoseerd	-11.0229
huma	-11.0229
▁meisje	-11.0232
▁bb	-11.0233
▁eci	-11.0233
lo	-11.0238
▁dysfunctie	-11.0246
▁contaminatie	-11.0249
▁geisoleerd	-11.0266
▁gradering	-11.0268
acuut	-11.0274
▁operatief	-11.0276
▁vaker	-11.0276
dia	-11.0283
▁verkleurd	-11.0283
▁faeces	-11.0283
▁parietale	-11.0284
▁asthma	-11.0285
▁gaf	-11.0296
▁thoracotomie	-11.0301
▁vernauwingen	-11.0306
▁diagnoses	-11.0315
▁sedatie	-11.0324
pro	-11.0329
▁coma	-11.0335
▁hydropische	-11.0338
▁echografisch	-11.0342
▁prolaps	-11.035
▁onregelmatig	-11.0354
▁schrompelnieren	-11.0356
▁dyspneu	-11.0371
▁anderzijds	-11.0371
▁duidt	-11.0372
▁melena	-11.0379
▁lytische	-11.038
▁ademhaling	-11.0395
▁buikvocht	-11.0396
▁mediane	-11.0396
▁artherosclerose	-11.0419
▁buikorganen	-11.0419
▁alcoholgebruik	-11.042
ingeblokt	-11.0421
definitieve	-11.0425
▁tumormetastasen	-11.0434
tot	-11.0435
emboli	-11.0437
▁kans	-11.0442
▁antrumtype	-11.0451
▁bepalen	-11.0453
▁nodi	-11.0461
▁inbrengen	-11.0466
▁mogen	-11.0468
hondrodermatitis	-11.0473
beenmerg	-11.0479
▁infarcthaarden	-11.0481
nier	-11.0496
▁glandula	-11.0497
matig	-11.0499
samen	-11.0513
▁buisprothese	-11.0517
▁longhilus	-11.0517
▁carotiden	-11.0523
▁getroffen	-11.0523
▁dysplastisch	-11.0524
▁genetica	-11.0524
zeer	-11.053
▁mesencephalon	-11.0534
▁scrotum	-11.054
▁wil	-11.0541
daling	-11.0543
▁vaatverandering	-11.0545
ygenatie	-11.0548
▁zwak	-11.055
▁prurigo	-11.0553
▁bloedstolsel	-11.0555
▁zorg	-11.0559
▁plekke	-11.056
▁confluerende	-11.0561
▁mds	-11.0562
▁bewezen	-11.0564
▁heupprothese	-11.0572
▁vruchtwater	-11.0576
▁aneurysmata	-11.0585
ruptuur	-11.0591
▁nbt	-11.0593
bovenkwab	-11.0593
▁rbk	-11.0607
recidief	-11.0615
▁longhypoplasie	-11.0615
▁body	-11.0616
ic	-11.0618
▁daarvoor	-11.0619
racheobronchitis	-11.062
▁medicamenteuze	-11.0625
▁ileostoma	-11.0629
▁foto	-11.0635
anvraagformulier	-11.0636
corpusslijmvlies	-11.064
▁graads	-11.065
▁verstoorde	-11.0653
▁macrovesiculair	-11.0655
▁genitalia	-11.0662
▁verwardheid	-11.0662
microscopie	-11.0665
▁lichamelijk	-11.0665
▁broekprothese	-11.0667
▁myocardfibrose	-11.067
progesteron	-11.0673
zoals	-11.0678
ende	-11.0688
▁localisaties	-11.0698
▁skelet	-11.0704
▁bevatte	-11.0709
▁dergelijk	-11.071
▁fragmentje	-11.071
▁begeleidend	-11.0711
▁daarom	-11.0712
▁kalk	-11.0721
peripancreatisch	-11.0722
▁buitenoppervlak	-11.0726
▁viraal	-11.0727
▁zegelringcel	-11.073
entree	-11.073
▁lupus	-11.0745
▁stenotisch	-11.0745
multipele	-11.0746
▁voeten	-11.0749
▁fibrinopurulent	-11.0761
lokalisaties	-11.0767
▁ingebracht	-11.077
▁archief	-11.0773
▁gebouwde	-11.0774
▁myofibrosis	-11.0782
▁belangrijks	-11.0782
▁tubulo	-11.0786
ngs	-11.0801
▁intimafibrose	-11.0801
▁verstoring	-11.0807
▁cytoplasma	-11.0808
▁colostoma	-11.081
▁fragmentjes	-11.0812
▁aortakleppen	-11.0814
mede	-11.0815
doorgemaakte	-11.0822
▁ap	-11.0823
▁uitgebreidheid	-11.0824
▁hun	-11.0836
▁infrarenaal	-11.0836
▁catheter	-11.0837
▁hersengewicht	-11.0854
ovariumcarcinoom	-11.0856
▁pupillen	-11.086
▁achterzijde	-11.0863
▁cardiomegalie	-11.0866
▁leiomyosarcoom	-11.0868
▁at	-11.0873
▁behorend	-11.0874
tevens	-11.0883
▁patchy	-11.0886
▁subtiele	-11.0889
▁glioblastoom	-11.0891
▁reuscelreactie	-11.0891
cf	-11.0899
▁acht	-11.0901
▁operaties	-11.0909
▁baten	-11.0911
▁stans	-11.0915
▁percentage	-11.0918
nieuwe	-11.0927
▁vergroeiingen	-11.0927
▁opbouw	-11.0936
beginnende	-11.0938
▁ja	-11.094
▁dilaterende	-11.0942
▁pleit	-11.0944
▁gezocht	-11.0961
▁aanwijsbaar	-11.0961
▁sigmoideum	-11.0962
▁bullae	-11.0962
▁encefalitis	-11.0963
▁hematurie	-11.0964
▁grove	-11.0965
as	-11.097
▁septa	-11.0972
▁aangrenzend	-11.0989
▁gist	-11.099
▁cerebellair	-11.099
colitis	-11.0991
bls	-11.0992
▁geoccludeerd	-11.0997
kleine	-11.0999
▁gland	-11.1003
▁placentaire	-11.1004
treme	-11.1012
▁regelmatig	-11.1012
inverted	-11.1012
▁kortademigheid	-11.1013
▁leverweefsel	-11.1014
▁nodig	-11.1016
▁mediastinitis	-11.102
▁epileptisch	-11.102
▁geinkte	-11.1027
▁gegaan	-11.1033
▁urticaria	-11.1034
▁half	-11.1038
▁darmresectie	-11.104
▁rectumbiopten	-11.1041
lobulair	-11.105
▁reticulair	-11.1061
▁fecale	-11.1063
therosclerotisch	-11.1076
dysplastische	-11.1077
▁opgemerkt	-11.1077
histologisch	-11.1083
▁jw	-11.1091
os	-11.1096
▁afsluitingen	-11.1096
▁overhecht	-11.1098
▁liggen	-11.1101
▁consolidatie	-11.1109
▁aanvraag	-11.111
▁onbegrepen	-11.1114
▁uiterlijk	-11.1114
▁synovium	-11.1116
▁gestelde	-11.112
▁kapseldoorbraak	-11.1125
▁bloeddruk	-11.1125
▁rectaal	-11.1128
▁lichaamsgewicht	-11.1131
▁operatieve	-11.1131
▁puntjes	-11.1131
▁activeren	-11.1132
▁endometrioid	-11.1139
nog	-11.1143
▁longmetastasen	-11.1145
▁donatie	-11.1153
▁mri	-11.1155
th	-11.116
▁subarachnoidaal	-11.1166
▁presentatie	-11.1166
▁malen	-11.1167
▁cognitieve	-11.1174
▁delier	-11.1175
aanvullende	-11.119
▁megakaryocyten	-11.1193
fibrose	-11.1203
epitheliaal	-11.1205
▁duodenums	-11.1213
▁hematogene	-11.1218
▁tengevolge	-11.1218
▁opgebouwd	-11.1219
▁celmateriaal	-11.1219
▁obstructieve	-11.1219
▁alveolar	-11.1223
▁peroperatief	-11.1224
▁mesotheel	-11.1225
▁interventie	-11.1228
▁discordant	-11.1229
▁wegener	-11.1233
▁fibrosis	-11.1234
▁eerst	-11.1242
spoliep	-11.1242
▁lobulaire	-11.1243
▁papilloma	-11.1244
▁bijzonder	-11.1245
▁scleroserende	-11.1246
▁debris	-11.1248
anaal	-11.1249
▁stabiel	-11.125
▁mitosen	-11.1252
crista	-11.1259
▁insult	-11.1265
▁anamnese	-11.1266
▁tumorhaard	-11.1266
▁behoort	-11.127
▁toegeschreven	-11.127
▁levenloos	-11.127
▁fijn	-11.127
obstructief	-11.127
▁meningen	-11.1272
angiopathie	-11.1272
galblaasresectie	-11.1274
▁onze	-11.1274
▁ingevroren	-11.128
▁natuurlijk	-11.1281
▁verrukeuze	-11.1287
▁papperige	-11.13
▁kern	-11.1307
▁localis	-11.1319
▁neonaat	-11.1322
recente	-11.1323
▁locale	-11.1327
▁pigmentosus	-11.1328
▁foramen	-11.1337
helft	-11.1339
▁poging	-11.1341
▁blokjes	-11.1343
oedeem	-11.1347
▁advies	-11.1355
▁relatieve	-11.1365
▁trans	-11.1366
coupe	-11.1368
uiteraard	-11.1375
▁globaal	-11.1375
▁geldt	-11.1375
▁anderhal	-11.1379
rvangingsfibrose	-11.1379
▁geneesmiddel	-11.1401
recent	-11.1415
▁patienten	-11.142
▁putamen	-11.1423
superficieel	-11.1425
oezemfibrilleren	-11.1426
▁geabstineerd	-11.1427
▁teratoom	-11.1427
▁carina	-11.1428
▁ablatie	-11.1431
nodulaire	-11.1431
haarden	-11.1433
▁gedeeltelijk	-11.1434
▁braak	-11.1436
▁lactaat	-11.1445
▁dubbelbrekend	-11.1448
ly	-11.1453
fectieparameters	-11.1459
▁tpn	-11.1459
▁aanhoudend	-11.1461
▁pneumonia	-11.1462
mucineus	-11.1462
▁myelum	-11.148
▁comateus	-11.1481
ongeveer	-11.1481
▁hepatocyten	-11.1481
▁daardoor	-11.1482
▁poliepeus	-11.1486
▁vergroeiing	-11.149
naaldbiopt	-11.1493
test	-11.1507
▁sepsisbeeld	-11.1519
uur	-11.1527
lijn	-11.153
▁electieve	-11.1534
bbl	-11.1534
uaat	-11.1535
▁lambda	-11.1536
▁spreken	-11.154
js	-11.154
▁lichaamsvreemd	-11.1542
▁nst	-11.1542
transurethra	-11.1543
▁sclerotische	-11.1543
▁neuroom	-11.1543
▁opmerkelijk	-11.1552
▁reumato	-11.1552
schimmelkleuring	-11.1552
▁moeder	-11.1556
ewel	-11.156
▁uip	-11.1561
▁nerv	-11.1566
villeus	-11.1567
▁lacunair	-11.1568
zymhistochemisch	-11.1578
▁zuurstof	-11.1585
verandering	-11.1586
▁verwijderen	-11.1594
▁ingezonden	-11.1604
▁namelijk	-11.1608
▁voorzijde	-11.161
▁hypovolemie	-11.1613
▁ostia	-11.1613
▁marker	-11.1619
pr	-11.1622
▁solair	-11.1628
▁hemorragie	-11.1635
▁pd	-11.1635
▁lamina	-11.1642
▁pancytopenie	-11.1652
▁sufficient	-11.1655
▁wijde	-11.1668
▁palatum	-11.1669
▁lithiasis	-11.1671
▁protocol	-11.1672
zonder	-11.1678
▁nos	-11.1689
▁ano	-11.1694
▁ondersteunt	-11.1696
▁gebruikte	-11.1697
▁gea	-11.1702
▁ontstaat	-11.1702
▁gecompromiteerd	-11.1708
▁bruin	-11.1739
▁ziet	-11.1744
▁hetzelfde	-11.1746
oide	-11.1747
▁infecties	-11.1747
▁bijdrage	-11.1751
▁necroticans	-11.1751
▁kaliber	-11.1751
doorgroei	-11.1756
▁gehandhaafd	-11.176
▁ophoping	-11.1768
luchtweginfectie	-11.1783
▁plotselinge	-11.1787
▁no	-11.179
▁flegmoneuze	-11.1791
▁rijping	-11.1803
▁aantonen	-11.1807
▁wanddikte	-11.1807
▁bijgaand	-11.1809
als	-11.1814
▁vezels	-11.1815
▁gewijzigd	-11.1816
amyloid	-11.1819
sereus	-11.182
▁trombosering	-11.182
▁troebele	-11.1822
endometrium	-11.1823
▁mandibula	-11.1833
vena	-11.1834
▁dragen	-11.1834
▁cea	-11.1834
▁hoger	-11.1838
▁parieto	-11.1844
▁wandstandige	-11.1856
dad	-11.1857
▁basocellulare	-11.1861
▁ganglia	-11.1861
▁toegezonden	-11.1861
▁helicis	-11.1861
▁oncogene	-11.1862
▁dermatose	-11.1865
▁inactief	-11.1866
▁indicatie	-11.1883
▁subcapsulaire	-11.1892
▁pci	-11.19
▁betrokkenheid	-11.1908
▁fracturen	-11.1908
▁verbinding	-11.1919
▁tangles	-11.1947
▁voorafgaand	-11.195
▁borderline	-11.1951
▁last	-11.1959
▁infarctjes	-11.196
▁kwaliteit	-11.1966
▁katheter	-11.197
▁geaspireerd	-11.1973
▁goedaardige	-11.1977
▁pericentraal	-11.1984
shaarden	-11.1986
sinus	-11.1993
▁ziek	-11.1996
drs	-11.2
▁calcificerend	-11.2001
▁lca	-11.2015
▁groter	-11.2017
rb	-11.2017
▁ingehecht	-11.2019
▁verweekt	-11.2025
▁haemodynamisch	-11.2029
▁daarop	-11.2035
▁wanneer	-11.2035
▁aftakking	-11.2037
▁gescleroseerd	-11.204
▁heart	-11.2043
▁paratracheaal	-11.2045
▁medicamenteus	-11.2046
▁aaa	-11.205
lymfangitis	-11.2054
▁mij	-11.2056
▁fibrilleren	-11.2059
▁ventriculaire	-11.2059
cor	-11.206
▁familiaire	-11.2064
▁liesbreuk	-11.2085
▁inziens	-11.2085
▁angiosarcoom	-11.2085
▁vertebralis	-11.2097
▁teen	-11.2105
▁maternal	-11.2105
▁fibrineus	-11.2108
▁caudale	-11.2108
▁probleem	-11.212
▁populatie	-11.2128
▁acinair	-11.2129
▁gekenmerk	-11.2142
▁orgaansystemen	-11.2142
▁levercelnecrose	-11.2142
▁haarfollikel	-11.2143
cilinderepitheel	-11.2143
▁groeipatroon	-11.2146
ol	-11.2151
▁vrouwelijk	-11.2155
▁hoofdpijn	-11.2163
▁agenesie	-11.2164
sveranderingen	-11.2165
respectievelijk	-11.2173
▁keer	-11.2174
▁paramediaan	-11.2174
▁gallige	-11.2177
▁lesie	-11.218
▁ovale	-11.2182
▁vreemdlichaam	-11.2189
folliculair	-11.219
terminale	-11.2192
▁plm	-11.2195
▁tonsillen	-11.2199
▁inzendingen	-11.2202
▁tumorgroei	-11.2204
▁crp	-11.2208
▁geassocieerde	-11.2215
▁apart	-11.2216
▁bevonden	-11.2225
hepatocellulair	-11.2232
▁capillair	-11.2232
▁erythema	-11.2255
▁haematurie	-11.2257
▁doorgroeiend	-11.226
bespreking	-11.2261
lg	-11.2262
▁bovenbeschreven	-11.2263
▁morfine	-11.2263
▁huidcurettage	-11.2267
▁spectrum	-11.2268
▁gele	-11.2271
▁verwijzing	-11.2271
▁tijdstip	-11.2273
▁voorafgaande	-11.228
▁wur	-11.2286
▁zwart	-11.2297
▁tensie	-11.2301
▁conve	-11.2301
▁deficientie	-11.2311
▁klassieke	-11.2313
▁curvatuur	-11.2314
▁angioom	-11.2318
bronchusspoeling	-11.232
▁voedselresten	-11.2321
ia	-11.2323
▁werkdiagnose	-11.2329
▁hepatische	-11.2331
adult	-11.235
nr	-11.2352
▁omgeven	-11.2354
▁armen	-11.2355
▁geinduceerd	-11.2369
▁hemopericard	-11.2373
▁collegialiter	-11.2373
▁myelo	-11.2379
embolische	-11.238
ch	-11.2392
▁brief	-11.2395
▁amygdala	-11.2395
▁herkomst	-11.2395
▁mammabiopten	-11.243
▁splenectomie	-11.2431
ydasereactie	-11.2431
lymfklierpunctie	-11.2437
▁concrementen	-11.2444
▁lynch	-11.2445
▁minus	-11.2451
drain	-11.2452
▁bls	-11.2457
▁blaashals	-11.2459
▁perforaties	-11.2462
▁bijdragend	-11.2484
▁mijn	-11.2492
plaveiselcel	-11.2494
▁achtergebleven	-11.2497
▁nm	-11.2505
▁klassiek	-11.2512
▁gevormd	-11.2517
mo	-11.252
▁mai	-11.2521
▁mmr	-11.2537
beiderzijds	-11.2538
▁spieren	-11.2538
▁binnenzijde	-11.2539
▁paranasaal	-11.2541
▁afmetingen	-11.2547
▁linkerhartkamer	-11.2549
▁aangeboden	-11.2549
keursdiagnose	-11.2551
▁coeruleus	-11.2553
▁puspockets	-11.2554
▁ileocoecaal	-11.2561
▁nierparenchym	-11.2561
▁allergisch	-11.2567
▁goedaardig	-11.2575
▁viel	-11.2578
europathologisch	-11.2583
▁navel	-11.2593
stuwing	-11.2593
zij	-11.2594
▁encephalitis	-11.2595
▁balkenblaas	-11.2596
pleiomorf	-11.2598
▁loop	-11.2603
▁afgesproken	-11.2609
▁myelofibrose	-11.2609
▁seder	-11.2609
▁trombusvorming	-11.2611
▁letsels	-11.2615
▁tumoreuze	-11.2617
perforatie	-11.2618
▁wit	-11.2619
▁halverwege	-11.2621
▁intrapulmonale	-11.2622
▁schouw	-11.2625
▁obstruerende	-11.2641
▁lbk	-11.2653
▁vlekkige	-11.2658
kd	-11.266
▁dig	-11.2661
▁linkerbovenkwab	-11.2661
▁beschikbaar	-11.267
▁histiocytaire	-11.2672
▁laparoscopisch	-11.2681
functieverlies	-11.2682
▁lijn	-11.2686
oa	-11.2692
▁gedetecteerd	-11.2694
▁histiocytoom	-11.2697
▁bovenpool	-11.2699
gastrointestinal	-11.2708
uterine	-11.2718
adenoom	-11.272
▁adenose	-11.2721
cytologie	-11.2722
coeur	-11.2725
▁botweefsel	-11.2731
▁agonaal	-11.2731
▁dun	-11.2735
▁maagtype	-11.2745
achtige	-11.2746
▁vlokken	-11.2746
ur	-11.2755
▁symptomen	-11.2757
▁fascie	-11.2764
▁slokdarmbiopten	-11.277
▁myopathie	-11.2771
▁maal	-11.2771
appendicitis	-11.2771
▁epi	-11.2776
klasse	-11.2788
▁klinicus	-11.2789
▁onderwijs	-11.279
▁kopie	-11.2796
▁plasmocytose	-11.2801
▁high	-11.2802
▁subpleurale	-11.2809
necrotiserende	-11.281
▁gebroken	-11.2815
pik	-11.2817
▁achterhoofd	-11.2824
slijmvliesbiopt	-11.2838
▁faecium	-11.285
cochleatie	-11.285
▁cutaneum	-11.2851
maanden	-11.2852
▁ebus	-11.2852
▁faecaal	-11.2857
▁spiervezels	-11.2865
▁preputium	-11.2874
▁gefi	-11.2874
▁therapeutisch	-11.2878
▁sigmoa	-11.2888
ingroei	-11.2889
▁ontwikkelen	-11.2899
▁nabloeding	-11.2905
▁late	-11.2906
▁angiolipoom	-11.2912
▁cardiopulmonaal	-11.2912
▁ligament	-11.2912
▁thans	-11.2912
coronary	-11.2913
sereuz	-11.2915
▁ware	-11.2916
▁versmalling	-11.2916
▁vin	-11.2925
▁blaasbiopten	-11.2929
▁gold	-11.2929
▁mechanisch	-11.293
▁alveolair	-11.2937
▁marfan	-11.294
formulier	-11.2945
▁sampling	-11.2949
boven	-11.296
illair	-11.2961
▁mi	-11.2968
▁longfunctie	-11.2973
▁bijgewoond	-11.2973
▁ontbreekt	-11.2973
▁herhalen	-11.2974
▁overgenomen	-11.2974
▁osteomyelitis	-11.2978
chromosomale	-11.298
ts	-11.2985
pitheelcarcinoom	-11.2995
celcarcinoom	-11.3
wang	-11.3003
▁berichten	-11.3017
▁rosacea	-11.3035
▁benauwd	-11.3039
▁zuurvaste	-11.3042
▁liposarcoom	-11.3042
▁herhaling	-11.3044
▁wijd	-11.3044
ok	-11.3048
▁temporale	-11.3053
▁postan	-11.3055
▁resterend	-11.3059
ul	-11.3074
▁dilatatio	-11.3077
▁peritoneaal	-11.3087
▁vierde	-11.3087
scellen	-11.3088
▁myoom	-11.3098
▁chronicus	-11.3098
▁punt	-11.3102
▁fibrosehaarden	-11.3108
level	-11.3111
▁fundus	-11.3114
▁communicans	-11.3116
▁papillomateuze	-11.3116
▁snoergroeven	-11.3116
▁anurie	-11.3117
▁cornea	-11.3122
▁stromal	-11.3124
▁mucosale	-11.3125
▁pan	-11.3129
laterale	-11.313
it	-11.3136
▁arteriolo	-11.3137
obductie	-11.3139
▁douglasi	-11.3162
▁dura	-11.317
▁occluderende	-11.3171
rectum	-11.3175
patroon	-11.3176
▁spoelsel	-11.3191
▁screening	-11.3196
aat	-11.3213
▁fusie	-11.3215
▁arterieen	-11.3215
▁tachycardie	-11.3223
▁baby	-11.3224
▁tamelijk	-11.3224
▁erythrocyten	-11.3225
▁postuur	-11.3225
uencing	-11.3227
▁percutane	-11.324
▁pneumectomie	-11.324
▁huidig	-11.3248
▁arthritis	-11.3248
sclerotische	-11.3254
▁coronarialijden	-11.3256
▁corticaal	-11.3259
▁abnormale	-11.3263
troffen	-11.327
▁belasting	-11.3274
▁vermoed	-11.3276
▁mucocele	-11.3288
▁orgaangewichten	-11.3288
leeftijdsconform	-11.3288
▁abcedering	-11.3292
▁tracheostoma	-11.3292
▁ingevuld	-11.3295
▁papel	-11.3296
treft	-11.3296
eren	-11.3297
▁interesse	-11.3301
▁endoprothese	-11.3301
▁onderpool	-11.3304
▁kop	-11.3308
glandula	-11.3309
▁epicarditis	-11.331
▁arterioscleroti	-11.3312
▁vaatwanden	-11.3317
▁niveaus	-11.3319
▁belaste	-11.3321
▁eiwit	-11.3322
▁kunstklep	-11.3333
▁angiogram	-11.3336
▁benauwdheid	-11.3353
▁bi	-11.3353
getwijfeld	-11.3354
▁lacunaire	-11.3364
▁erysipelas	-11.3365
▁neo	-11.3375
advies	-11.3376
foto	-11.3376
je	-11.3377
▁chromosoom	-11.3391
alk	-11.3398
ldh	-11.3404
▁chemo	-11.3405
▁bloedingsrest	-11.3411
▁nogmaals	-11.3416
▁holtevorming	-11.3417
▁hyaline	-11.3425
▁cutane	-11.3433
tekens	-11.3435
▁heen	-11.3442
jakob	-11.3444
▁gebiedjes	-11.3452
▁hypertrofi	-11.3459
▁optrad	-11.3474
▁erosies	-11.348
▁pubis	-11.3481
▁acuminatum	-11.3481
▁myofibrose	-11.3481
▁stomp	-11.3487
▁uitsluiten	-11.3489
▁anterolateraal	-11.3498
▁host	-11.3508
geschat	-11.3508
▁verrichten	-11.3514
▁arterieel	-11.352
▁bronchusbiopten	-11.3521
▁stv	-11.3527
plastiek	-11.3529
▁lekker	-11.3547
▁bekleed	-11.3547
▁geneticus	-11.3547
▁controleren	-11.3547
▁thrombusmassa	-11.3547
▁evaluatie	-11.3549
▁vroeg	-11.355
▁verlaagd	-11.3551
▁overgangse	-11.3553
▁geanalyseerd	-11.3557
▁lentigineuze	-11.3557
▁villitis	-11.3559
▁lvad	-11.3561
▁perioden	-11.3561
▁behandelend	-11.3561
▁craniale	-11.3566
▁sacculair	-11.3569
graft	-11.357
▁msh	-11.3575
▁longbloedingen	-11.3576
▁aangrenzende	-11.3577
hartspierweefsel	-11.3578
▁ingestuurd	-11.3578
midden	-11.3581
peritonitis	-11.3584
▁dominante	-11.3611
▁eindstandig	-11.3611
▁aanmerking	-11.3613
▁bovenvermeld	-11.3613
▁fragmentatie	-11.3615
okselkliertoilet	-11.3615
▁grondslag	-11.3617
▁doorbloeding	-11.3619
▁topografie	-11.3621
▁hamartoom	-11.3623
▁insulten	-11.3623
ksf	-11.3625
▁volvulus	-11.3626
▁schwannoom	-11.3629
▁grof	-11.3631
▁gestold	-11.3632
▁warthin	-11.3632
mma	-11.3637
▁traumatische	-11.3643
therapeutisch	-11.3648
▁verergerd	-11.367
▁roken	-11.3672
▁voorkomende	-11.3673
▁idh	-11.3674
▁verloren	-11.3679
▁subita	-11.3679
▁uitrijpend	-11.3679
▁interstitial	-11.3679
▁bewijzend	-11.3682
▁dyspnoeisch	-11.3684
▁aansluitend	-11.3685
▁karakter	-11.3689
▁stukjes	-11.3694
gelegen	-11.3697
temporaal	-11.3698
▁tubae	-11.37
▁overgroei	-11.37
sbaar	-11.3708
▁mlh	-11.3708
oid	-11.3709
hooggradig	-11.371
▁gericht	-11.3722
cd	-11.3722
▁sporadische	-11.3725
▁ontstekings	-11.3734
▁bodies	-11.3736
▁zeven	-11.3737
▁handen	-11.3744
▁geidentificeerd	-11.3745
▁nodosum	-11.3745
▁obese	-11.3745
▁faecalis	-11.3745
▁mucineuze	-11.3747
▁kortdurend	-11.375
▁herkenba	-11.375
▁hypertrophi	-11.3759
▁epitheliaal	-11.3762
▁hartlijden	-11.3768
▁imponerend	-11.3769
▁inotropie	-11.3772
nodulair	-11.378
blokje	-11.378
pd	-11.378
▁stage	-11.3781
▁plastiek	-11.3782
klachten	-11.3783
▁tvu	-11.3783
▁innemend	-11.3785
ua	-11.3786
broncho	-11.3786
flow	-11.3788
▁chroniciteit	-11.3788
zowel	-11.3789
▁rv	-11.3793
▁verslechterd	-11.3806
ischemie	-11.3806
▁gezicht	-11.3812
generation	-11.3812
▁geoblitereerd	-11.3813
▁ongecompliceerd	-11.3813
▁gevorderd	-11.3813
▁hoofdtakken	-11.3814
▁beschrijving	-11.3814
▁afhankelijk	-11.3815
ig	-11.3822
▁opsnijden	-11.3827
▁fibroblasten	-11.3828
▁inclusiecyste	-11.3828
▁preparaten	-11.3831
▁vessel	-11.3832
▁jicht	-11.3835
▁neutrofielen	-11.3843
necrologie	-11.3852
▁hoofdhuid	-11.3856
purulente	-11.3865
zijwand	-11.387
▁accident	-11.3876
▁ho	-11.3879
▁hematopoiese	-11.388
▁placentarest	-11.3884
▁event	-11.389
egfr	-11.3895
▁markers	-11.3908
▁stenoserend	-11.3916
structuren	-11.3921
datum	-11.3933
activiteit	-11.3934
▁bevinden	-11.3936
grote	-11.3937
loy	-11.3938
▁knapte	-11.394
▁hersensektie	-11.3948
▁optimaal	-11.3949
▁mastopathisch	-11.395
▁dentatus	-11.3962
▁ontlasting	-11.3962
▁bestonden	-11.3963
▁aortabifurcatie	-11.3964
▁blauw	-11.3966
▁retroauriculair	-11.3969
▁overlegd	-11.397
▁sh	-11.3975
▁sclerodermie	-11.3979
▁gebracht	-11.3989
▁ileumbiopten	-11.399
aan	-11.3998
▁vriescoupes	-11.4002
▁verdringing	-11.4002
tenminste	-11.4002
▁saturatie	-11.4003
▁tensiedaling	-11.4008
jejunostomie	-11.401
▁hechting	-11.4015
neren	-11.4015
ak	-11.4016
▁conservatief	-11.4018
▁sperma	-11.4019
peri	-11.4023
▁enorm	-11.4027
▁mn	-11.4037
▁neiging	-11.4044
▁for	-11.4044
▁capillairen	-11.4058
jes	-11.4058
litteken	-11.4062
▁nemen	-11.4062
▁bloedend	-11.4062
▁glioblastoma	-11.4071
enteritis	-11.4073
cervi	-11.4074
sn	-11.4075
▁viii	-11.4079
▁contagiosum	-11.4086
▁geintubeerd	-11.4086
▁heupkop	-11.4086
▁ondersteund	-11.409
▁ercp	-11.4092
▁voedsel	-11.4096
ntractietoestand	-11.4098
▁onverwachts	-11.4116
▁galweg	-11.4119
▁coccen	-11.4124
▁subtype	-11.4129
co	-11.413
▁mee	-11.4137
▁irritatie	-11.4138
lectromechanisch	-11.4143
waarvoor	-11.4146
▁trilineair	-11.4155
▁orienterend	-11.4155
▁idem	-11.4156
▁aortawortel	-11.4156
▁aanzien	-11.4158
▁cerebro	-11.4162
▁jugularis	-11.4163
biopsiemateriaal	-11.4173
▁adventitia	-11.4176
▁zijsnijranden	-11.4177
▁zekerheidshalve	-11.4201
▁oa	-11.4204
pogingen	-11.4205
▁dis	-11.421
▁hartklep	-11.4213
ascendens	-11.422
▁lagen	-11.4221
hangt	-11.4224
▁hemochromatose	-11.4225
▁gelijktijdig	-11.4225
▁chemoradiatie	-11.4225
▁familieleden	-11.4225
▁beenvaten	-11.4226
▁myocardschade	-11.4228
▁pigmentatie	-11.423
▁kidney	-11.423
▁rondkernig	-11.4232
▁destijds	-11.4233
▁inflammatoir	-11.4244
▁streng	-11.4252
▁aortaprothese	-11.4254
▁terecht	-11.4266
▁hemi	-11.4271
▁contusie	-11.4281
endometriumbiopt	-11.4284
▁veroorzaken	-11.4284
or	-11.4292
▁antracose	-11.4294
▁huntington	-11.4295
▁geconcludeerd	-11.4295
▁anderszins	-11.4296
▁hersenparenchym	-11.4296
▁verstrekte	-11.4297
▁hartspiervezels	-11.4297
mantelcellymfoom	-11.4298
▁state	-11.4299
▁lavage	-11.43
perifolliculitis	-11.43
▁eigen	-11.4301
▁ata	-11.4301
▁administratie	-11.4304
▁marges	-11.4307
ventrikelzijwand	-11.4308
▁ijzerhoudend	-11.431
cisiebiopsie	-11.4317
▁transfusie	-11.4326
▁brede	-11.4329
itis	-11.433
▁tweeling	-11.4332
▁grijze	-11.4334
▁correctie	-11.4342
▁inspanning	-11.4344
ag	-11.4348
fibro	-11.4349
achtig	-11.435
▁tekening	-11.4351
▁kit	-11.4355
kin	-11.4361
▁invullen	-11.4366
▁gyri	-11.4366
*******,	-11.4369
▁verslaglegging	-11.4371
▁tnm	-11.4371
▁niercysten	-11.4372
gly	-11.4376
▁beeldvormend	-11.4376
▁onderkaak	-11.4386
▁anastomosen	-11.4387
▁hartoren	-11.4389
▁herniatie	-11.4394
▁donker	-11.4396
▁functionele	-11.4399
▁apocriene	-11.4401
neus	-11.4404
▁ligging	-11.4409
▁groen	-11.4415
▁onsteking	-11.4421
postinflammatoir	-11.4425
▁blijven	-11.4425
stadium	-11.4429
▁steun	-11.4432
antrumslijmvlies	-11.4436
▁princip	-11.4438
▁slikklachten	-11.4438
rijgingstechniek	-11.4438
▁drukverhoging	-11.4438
▁moest	-11.4438
▁mondholte	-11.444
diabetes	-11.4442
▁gefragmenteerde	-11.4442
kras	-11.4444
ta	-11.4446
▁intramuraal	-11.4449
▁tauopathie	-11.4478
operatieve	-11.4484
natieve	-11.4484
▁verlopen	-11.4497
▁lu	-11.4502
▁infectiefocus	-11.4511
▁circumferente	-11.4517
▁nodosa	-11.4518
▁uteriene	-11.4521
▁sarcomatoid	-11.4523
▁small	-11.4523
▁jongen	-11.4524
▁hartafwijking	-11.4527
▁pneumococcen	-11.4528
▁embolisatie	-11.4528
varices	-11.453
nucleaire	-11.4534
md	-11.454
coronairsclerose	-11.4541
▁inpa	-11.4544
▁renale	-11.4556
▁vacuolair	-11.4557
▁significant	-11.4563
▁verwacht	-11.4566
▁mesenchymale	-11.4566
▁genetische	-11.4572
▁stond	-11.4574
▁cervicaal	-11.4577
▁gestopt	-11.4582
▁beademd	-11.4582
▁occipitale	-11.4585
▁plusminus	-11.4586
▁rdp	-11.4587
▁neocort	-11.4588
intestinaal	-11.4592
▁iliacale	-11.4592
▁nadien	-11.4597
volgens	-11.4598
▁mural	-11.4615
▁submucosaal	-11.4615
▁verzwaarde	-11.4619
▁bursa	-11.462
▁hemolytisch	-11.4622
▁hsv	-11.4637
▁stijging	-11.4638
▁blue	-11.4652
vocht	-11.4652
▁death	-11.4656
▁krabeffect	-11.4658
▁dichtstbijzijnd	-11.4663
▁hysterectomie	-11.4667
cyste	-11.4674
▁circumferent	-11.468
abcederende	-11.4685
▁intravasculaire	-11.4685
▁grade	-11.4686
▁enterobacter	-11.4687
▁overal	-11.4688
▁microsatelliet	-11.4688
verk	-11.4692
klinische	-11.4696
▁gekleurd	-11.4701
▁negen	-11.4701
▁cf	-11.4707
▁noduli	-11.471
▁irreversibele	-11.4712
▁porte	-11.4712
▁cystoscopie	-11.4729
▁trombopenie	-11.4729
▁dwarslaesie	-11.4729
▁hersenvaten	-11.4729
▁umbilicalis	-11.4729
▁wandlagen	-11.4729
▁onregelmatige	-11.4732
▁voorgrond	-11.4732
▁wogen	-11.4737
▁elk	-11.4739
▁vormt	-11.4741
▁beoordeelbare	-11.475
▁assay	-11.4753
▁escherichia	-11.4753
oma	-11.4754
▁groepjes	-11.4757
▁rip	-11.4766
lp	-11.4784
stilstand	-11.479
▁gemeten	-11.4793
erende	-11.4794
▁sirs	-11.4797
▁haemorrhagie	-11.4797
out	-11.4799
▁hartplak	-11.4805
▁caudatus	-11.4808
▁vaatinvasie	-11.4809
organ	-11.481
▁cdk	-11.4811
▁bulla	-11.4813
▁ingrepen	-11.4813
▁ziekten	-11.4814
▁miltstuwing	-11.4814
▁trombolyse	-11.4815
▁von	-11.4816
hersenen	-11.4825
▁veld	-11.4826
hooggradige	-11.4833
▁longinfarct	-11.4833
▁dia	-11.4856
▁he	-11.4863
drietal	-11.4877
▁korrelig	-11.4877
▁urogenitalis	-11.4878
▁sp	-11.4878
▁vochtrijk	-11.4879
▁ecmo	-11.4885
▁bovenooglid	-11.4886
▁verlittekend	-11.4886
▁verbeterde	-11.4889
▁doorgeschoten	-11.4891
▁episoden	-11.4893
ao	-11.4894
▁resultaten	-11.4896
▁reconstructie	-11.4898
pleuravocht	-11.4901
barrett	-11.4902
val	-11.4909
▁seminoom	-11.4933
▁plasmacel	-11.4943
▁ventrikelseptum	-11.4945
▁ontstonden	-11.4946
tractus	-11.495
lateraalsclerose	-11.495
▁vallen	-11.4951
▁gereviseerd	-11.4961
▁darmbiopten	-11.4962
inflammatoire	-11.4963
▁peribronchiale	-11.4965
▁duim	-11.4965
dermatitis	-11.4968
▁gescleroseerde	-11.4969
▁gastroscopie	-11.4975
▁isthmus	-11.4978
▁receptoren	-11.4978
▁aorto	-11.4981
▁intermediair	-11.4991
▁geisoleerde	-11.4994
▁okseltop	-11.4996
▁patch	-11.4997
▁morbid	-11.4999
▁scan	-11.5003
iso	-11.5007
▁usual	-11.5009
▁stapeling	-11.501
▁samenhang	-11.5013
▁gelu	-11.5024
▁geclassificeerd	-11.5028
▁hemoptoe	-11.5028
▁leidde	-11.5028
▁strengileus	-11.5028
▁allogene	-11.5028
▁aanzienlijk	-11.5029
uw	-11.5029
▁jongetje	-11.503
▁losliggend	-11.503
ver	-11.5031
▁ogend	-11.5045
▁microangiopathi	-11.5052
tensie	-11.5054
laaggradig	-11.5065
▁tijde	-11.5069
▁mammabiopt	-11.5072
▁scopie	-11.5078
▁semi	-11.5078
▁pseudocyste	-11.5079
▁prikkeling	-11.5084
▁angioinvasie	-11.5091
▁mof	-11.5095
▁anterieur	-11.5095
▁doorsnijding	-11.5097
▁voorgaande	-11.5099
bulleuze	-11.5105
▁geinterpreteerd	-11.5105
▁hypothyreoidie	-11.5105
▁epiglottis	-11.5105
bvdw	-11.5105
proces	-11.5106
▁welk	-11.5106
▁subdurale	-11.5111
▁collageen	-11.5113
▁peg	-11.5114
▁bloedingsresten	-11.5114
▁weefselfragment	-11.5116
▁veroudering	-11.5117
▁tibia	-11.512
▁serositis	-11.5124
▁dik	-11.5127
▁cribriform	-11.513
▁inductie	-11.5145
▁haemato	-11.5146
hartgewicht	-11.5152
▁maagmucosa	-11.5155
▁zijsnijrand	-11.5174
▁huis	-11.5178
▁fecaal	-11.5181
▁geinfiltreerd	-11.5182
▁accreditatie	-11.5182
▁uitgesneden	-11.5182
▁leeg	-11.5183
▁hybridisatie	-11.5184
▁gevoelig	-11.5191
bronchopneumonie	-11.5196
▁bricker	-11.5198
▁zenuw	-11.5201
▁neoplasma	-11.5201
▁celrijkdom	-11.5204
▁ala	-11.5206
▁gesneden	-11.5229
pla	-11.5229
▁criteria	-11.5229
▁conjunctiva	-11.523
herapiekeuzetest	-11.5244
▁fibromusculair	-11.5253
onale	-11.5254
▁infarctje	-11.5256
afwijking	-11.5258
▁dyspnoisch	-11.5259
▁peesschede	-11.5259
▁aangewezen	-11.5261
▁prostaatbiopt	-11.5264
▁overeenkomend	-11.5268
arterie	-11.527
▁gestoord	-11.5271
▁microorganismen	-11.5273
▁repair	-11.5275
▁bewaard	-11.5279
neuro	-11.5282
▁vingers	-11.5284
mb	-11.529
▁port	-11.5291
▁restanten	-11.5294
abdomen	-11.5301
▁bestralings	-11.5303
▁koa	-11.5314
▁rechterschouder	-11.5324
▁longontsteking	-11.5328
▁afloop	-11.533
veelal	-11.5335
treem	-11.5337
▁vaststellen	-11.5337
▁spierlaag	-11.5338
▁intestinaaltype	-11.5338
▁aldus	-11.5338
▁aangebracht	-11.5339
▁maagulcus	-11.5342
▁maagbiopt	-11.5352
ip	-11.5355
▁intravasculair	-11.536
▁enterocolitis	-11.536
▁intrauterien	-11.5366
rectumslijmvlies	-11.5375
▁grens	-11.5376
▁ihc	-11.5378
▁paraffine	-11.538
▁vergelijking	-11.5385
▁opening	-11.5387
▁start	-11.5394
fractuur	-11.5394
om	-11.5398
▁verlopende	-11.5405
▁zat	-11.5412
▁hepatorenaal	-11.5413
▁dreigende	-11.5413
adjuvante	-11.5415
▁schedelbasis	-11.5416
▁bronchustakken	-11.5417
▁verouderings	-11.542
▁heupoperatie	-11.5421
▁geopend	-11.5425
▁recentelijk	-11.5426
▁overeenkomstig	-11.5428
ra	-11.5429
▁mo	-11.5432
▁colonresectie	-11.5433
▁tunica	-11.5435
lijk	-11.5445
▁immunologisch	-11.5449
▁linkerwang	-11.5452
infarcten	-11.5453
buik	-11.5454
▁paralytisch	-11.5454
▁nierarterie	-11.5455
▁serologisch	-11.5457
▁resectierand	-11.5459
euze	-11.5464
subarachnoidale	-11.5466
▁anamnestisch	-11.5466
vii	-11.5475
▁fundic	-11.5486
▁bepalingen	-11.5494
▁bewerking	-11.5496
▁doorgebroken	-11.5497
▁miljoen	-11.5497
onderbeen	-11.55
▁kolonies	-11.5508
▁longziekte	-11.5511
▁hartziekte	-11.5516
septum	-11.5516
cll	-11.5532
▁blauwe	-11.5548
enzymkleuring	-11.5549
▁functioneel	-11.5555
negatieve	-11.5556
gegeneraliseerde	-11.5558
▁abstineren	-11.5564
▁rechterwang	-11.5565
▁obstipatie	-11.5575
▁handelen	-11.5575
▁stromaceltumor	-11.5576
▁rugpijn	-11.5577
ueruptuur	-11.5577
ricuspidalisklep	-11.5577
▁longvelden	-11.5578
▁uitgezette	-11.558
▁sneeranden	-11.5581
▁evt	-11.5582
▁naevi	-11.5582
mediadegeneratie	-11.5583
▁contractie	-11.5586
▁pneumonitis	-11.5587
▁merkelcel	-11.5595
▁arcus	-11.5599
▁ab	-11.5603
▁stuk	-11.5606
obstructie	-11.5616
▁lichaampjes	-11.562
▁slanke	-11.5624
▁bolle	-11.5629
▁hashimoto	-11.5631
▁colloid	-11.5633
▁pityriasis	-11.5638
▁lymfklierbiopt	-11.5641
breidt	-11.5654
▁snoergroeve	-11.5654
▁immaturus	-11.5656
▁inotropica	-11.5656
avd	-11.5658
ards	-11.5661
▁perirenale	-11.5666
▁adhesie	-11.5673
weken	-11.5673
stansbiopsie	-11.5675
▁pussig	-11.5679
▁submandibulair	-11.568
resten	-11.5684
ano	-11.5685
▁duodenumbiopt	-11.5693
ischaemie	-11.5707
▁gepigmenteerd	-11.5728
▁zijrand	-11.5733
terventricularis	-11.5737
▁acanthose	-11.5737
▁sommige	-11.5737
▁lichaamslengte	-11.5738
▁tbv	-11.5745
bepaling	-11.5747
▁epicardiale	-11.5754
▁neuronale	-11.5754
laesie	-11.5769
▁shunt	-11.5769
▁subfrenisch	-11.5772
meckels	-11.578
▁solutio	-11.5783
▁antistoffen	-11.5787
▁centrolobulair	-11.579
▁verdeling	-11.5791
▁helicobacters	-11.5793
patient	-11.5796
▁geulcereerd	-11.5797
▁hartgewicht	-11.5797
▁fossa	-11.5797
ransformatiezone	-11.5799
▁conclusief	-11.5799
weefselversterf	-11.582
iswaar	-11.5821
▁bekledend	-11.5821
jsl	-11.5822
▁submucosale	-11.5826
lijden	-11.5844
uitgebreide	-11.5845
hv	-11.5849
jr	-11.585
▁hoogste	-11.5854
▁ophopingen	-11.5866
▁pta	-11.5868
▁gemacereerd	-11.5871
braak	-11.5871
▁emv	-11.5871
▁indruk	-11.5874
▁vulvabiopt	-11.5875
oesophagus	-11.5877
▁ogen	-11.5887
▁linkszijdige	-11.5889
bronchiectasieen	-11.5889
fibroserende	-11.589
inclusief	-11.589
doodsoorzaak	-11.589
▁myc	-11.5896
iciteit	-11.5898
▁procent	-11.5902
▁sufheid	-11.5902
▁afdoende	-11.5902
▁heupfractuur	-11.5903
andere	-11.5906
im	-11.5914
▁gespannen	-11.5915
▁drietakslijden	-11.5916
▁nagel	-11.5916
▁processen	-11.592
▁darminhoud	-11.592
▁streptococcen	-11.5922
hoog	-11.5927
▁purpura	-11.593
▁tr	-11.5934
nve	-11.5938
▁colorectaal	-11.5941
▁stevig	-11.5947
▁deletie	-11.5951
uent	-11.5953
eloproliferatief	-11.5955
▁weefsels	-11.5959
shock	-11.5961
ro	-11.5962
▁multiorgaan	-11.5963
up	-11.597
duodenum	-11.5975
niveau	-11.5981
▁hoeveelheden	-11.5985
▁glomerulopathie	-11.5985
▁tepelvocht	-11.5986
▁vera	-11.5986
erd	-11.599
▁kennelijk	-11.5991
▁colonmucosa	-11.5994
▁arachnoidea	-11.5995
▁cirrhotisch	-11.5998
▁forensisch	-11.6002
▁inflammatie	-11.6002
▁aandoeningen	-11.6004
▁circulus	-11.6006
fragment	-11.6008
▁vas	-11.6012
▁cornu	-11.6015
▁marsh	-11.6017
▁vsd	-11.6024
▁mucoid	-11.6025
▁miltinfarct	-11.6028
▁shavebiopt	-11.6037
overige	-11.6038
sterke	-11.6051
▁relevant	-11.6056
▁prolifererend	-11.6058
virale	-11.6064
nl	-11.6066
▁geinformeerd	-11.6069
▁sjogren	-11.6069
▁zodanig	-11.6069
▁polyposis	-11.6069
▁blaarvorming	-11.6069
▁bicuspide	-11.6073
▁wijten	-11.6077
▁botmetastasen	-11.6077
▁intracerebraal	-11.6078
▁intrahepatische	-11.6083
▁reuscel	-11.6088
▁gemeld	-11.609
▁infarctgebied	-11.6101
pitheeldysplasie	-11.6103
▁renaalcel	-11.6104
▁ruiterembolie	-11.6109
▁em	-11.6111
erend	-11.6122
▁iatrogeen	-11.6128
gb	-11.6131
illaris	-11.6132
▁fulminant	-11.6133
net	-11.6146
middenkwab	-11.6153
▁zeggen	-11.6154
▁syndromale	-11.6154
▁molle	-11.6154
▁hyperaemie	-11.6155
▁nauw	-11.6157
ras	-11.6158
▁klepafwijkingen	-11.6158
▁haematomen	-11.616
▁vaginatop	-11.6164
▁cutaan	-11.6174
▁ha	-11.6188
▁hoogst	-11.6193
▁cellulair	-11.6198
▁gebruikt	-11.6198
strogeenreceptor	-11.6204
▁losse	-11.6208
▁nsaid	-11.6209
▁rheumatoid	-11.6209
▁veno	-11.6213
multipel	-11.6214
▁verkeerde	-11.6215
▁biliaire	-11.6218
▁structuur	-11.6227
▁fgf	-11.6228
tussen	-11.6228
traprostatisch	-11.624
▁hrhpv	-11.6241
musculus	-11.6242
uterus	-11.6242
▁getromboseerd	-11.6249
▁uiterst	-11.6249
cp	-11.625
rand	-11.6255
glandulaire	-11.6262
▁erfelijk	-11.6265
hersenmetastasen	-11.6291
▁zelfs	-11.6294
▁gemelli	-11.6296
▁gronden	-11.6306
▁ascenderende	-11.6309
▁water	-11.6318
▁bovinum	-11.6326
▁fungoides	-11.6326
▁geresulteerd	-11.6326
▁verscheiden	-11.6326
▁bereikt	-11.6326
sudaat	-11.6326
anamnese	-11.6331
▁voorgelegd	-11.6331
kwaliteit	-11.6332
▁sondevoeding	-11.6335
▁maagcardia	-11.6338
▁tenen	-11.6339
▁dwarsgestreept	-11.6339
▁microthrombi	-11.634
▁trofoblast	-11.634
▁aspergilloom	-11.6343
▁konklusie	-11.6343
▁psa	-11.6354
▁allel	-11.6358
▁huidlaesie	-11.6358
▁kaakhoek	-11.6367
▁species	-11.637
ain	-11.6374
▁intraductal	-11.6375
▁cis	-11.6379
▁dubieu	-11.638
bronchoalveolair	-11.6385
▁achterlip	-11.639
ose	-11.6391
▁dikkedarm	-11.6393
▁drains	-11.6397
▁verliep	-11.6404
▁bal	-11.6412
▁insectenbeet	-11.6413
▁arteriopathie	-11.6413
▁geleidelijk	-11.6414
▁overplaatsing	-11.6415
▁vindt	-11.6415
▁opties	-11.642
ani	-11.6421
afstand	-11.6422
▁corpora	-11.6423
multiple	-11.6423
▁renales	-11.6424
▁gang	-11.6426
▁zwakke	-11.6429
▁tongrand	-11.6431
▁voorlip	-11.6434
▁buizen	-11.6438
▁preterminale	-11.6448
▁hotspot	-11.645
▁jonger	-11.6466
▁gewricht	-11.6478
▁pneumocystis	-11.6482
▁tumortje	-11.65
▁callosum	-11.65
▁pleurabladen	-11.6501
▁myocyten	-11.6502
▁longbiopt	-11.6507
▁occlusies	-11.651
▁mesocolon	-11.6511
lc	-11.6514
onderwand	-11.6515
▁cellulitis	-11.6522
▁galgangen	-11.6523
▁fenomeen	-11.6524
cerebellaire	-11.653
▁blanke	-11.6535
▁harthelft	-11.6539
mediale	-11.6539
ria	-11.6549
▁wonden	-11.6555
▁ingesteld	-11.656
▁atelectatisch	-11.6561
vas	-11.6563
▁prominent	-11.6565
▁alopecia	-11.6566
▁jbz	-11.6566
▁partieel	-11.657
▁linkermamma	-11.6577
▁embryonal	-11.6589
▁cholesterolosis	-11.6589
▁vertoont	-11.6589
lymfocytaire	-11.6592
cerebrovasculair	-11.6593
▁voorbij	-11.6597
▁klaagde	-11.6602
ziekte	-11.6603
▁maakte	-11.6605
▁uitend	-11.6609
▁temperatuur	-11.6616
▁vegetatie	-11.662
▁laceratie	-11.6621
▁obturatorius	-11.6621
▁leverfibrose	-11.6623
typeslijmvlies	-11.6624
verschijnselen	-11.6635
▁nachts	-11.6638
amnionitis	-11.665
▁prion	-11.665
▁ossale	-11.6651
fibrillaire	-11.6661
▁epilepticus	-11.6678
▁vaatstructuren	-11.6679
▁prostatica	-11.6679
▁drievats	-11.6679
▁toilet	-11.6684
▁coprostase	-11.6684
▁mismatch	-11.6684
▁denk	-11.6686
▁mengflora	-11.6688
▁verwachten	-11.6688
▁monochoriale	-11.6692
tur	-11.6693
▁leptomeningeale	-11.6696
▁genoemd	-11.67
▁viscerale	-11.6701
▁ac	-11.6703
arterien	-11.6713
naar	-11.6741
▁glomerulaire	-11.675
▁vervangen	-11.6754
▁gegroeid	-11.6768
▁submandibularis	-11.6768
▁adenomyose	-11.6768
▁onopvallend	-11.6768
▁periportale	-11.6769
▁altijd	-11.677
▁mitotisch	-11.6774
skh	-11.6775
bacteriele	-11.6782
▁bijpassend	-11.6782
▁parasieten	-11.6783
▁vesicula	-11.6785
reconstructie	-11.6786
▁cirrotisch	-11.6787
▁longarterien	-11.6792
▁gezamenlijk	-11.6793
▁caput	-11.6803
▁autosomaal	-11.6807
▁ratio	-11.6813
bovenbeen	-11.6814
▁defecten	-11.6817
▁omvang	-11.6819
▁tesamen	-11.6819
▁cells	-11.6819
▁stabiele	-11.682
▁geb	-11.6824
▁breslowdikte	-11.6832
▁leukemische	-11.6835
▁ondersteunen	-11.6839
▁cti	-11.6842
uebloeding	-11.6854
▁uitgaand	-11.6858
▁toezending	-11.6859
▁hemiparese	-11.6859
▁lumenvernauwing	-11.6859
▁zit	-11.6863
▁linkerbeen	-11.6868
▁frontoparietaal	-11.687
▁polypeus	-11.6874
codon	-11.6887
macroscopisch	-11.6889
▁humerus	-11.689
nefrosclerose	-11.689
▁bacteriologisch	-11.6894
▁funiculitis	-11.6894
ehe	-11.6902
▁sonde	-11.692
▁hartkamers	-11.6929
zijde	-11.6939
stuitlengte	-11.6942
▁verpleeghuis	-11.695
uurs	-11.695
▁haematopoese	-11.6951
▁berichtgeving	-11.6951
▁leken	-11.6954
▁rechterbeen	-11.6954
▁streptococ	-11.6957
▁getracht	-11.6957
▁legionella	-11.6957
▁spoelcellige	-11.696
lichaamsarterien	-11.6961
▁portio	-11.6969
ap	-11.6972
▁steel	-11.6972
eleidingssysteem	-11.6979
▁nevus	-11.6982
▁verbreding	-11.6982
▁purkinje	-11.6985
▁ossaal	-11.6986
oesofagusvarices	-11.6991
▁opstijgend	-11.6993
intradermale	-11.6994
▁hormonale	-11.6994
▁gvhd	-11.6996
▁as	-11.7008
▁bioprothese	-11.7026
▁sle	-11.7028
atypische	-11.7031
▁centimeter	-11.7035
▁ontslag	-11.7035
▁samenhangen	-11.7042
▁basalioma	-11.7043
▁mortuus	-11.7043
▁voelde	-11.7043
▁droog	-11.7044
▁duodenitis	-11.7044
▁reageerde	-11.7048
▁twaalf	-11.705
▁plekken	-11.7051
tjes	-11.7053
▁nicotine	-11.7054
▁myelodysplasie	-11.7054
▁bijmenging	-11.7058
▁aanvoelend	-11.7061
▁afplatting	-11.7071
rechteronderbeen	-11.7072
▁lymfomen	-11.7079
septumdefect	-11.7081
transuretra	-11.7082
▁hyperkaliemie	-11.7082
▁insuline	-11.7086
vormige	-11.7102
▁nootmuskaat	-11.7104
mi	-11.7107
▁mutatieanalyse	-11.711
▁mondslijmvlies	-11.7134
▁uitgezet	-11.7136
▁opgevraagd	-11.7138
sinfiltraten	-11.714
▁kant	-11.7141
▁tubectomie	-11.7143
stent	-11.7145
▁niets	-11.7146
ewustzijnsdaling	-11.7147
▁ontregeling	-11.7148
carcinomen	-11.7149
safbreking	-11.7151
▁rontgen	-11.7151
▁pyelitis	-11.7152
inhoud	-11.7155
▁niercyste	-11.7157
▁endometriosis	-11.7157
focaal	-11.7159
nm	-11.7161
▁eiwitten	-11.7166
spoelvocht	-11.7174
▁referentie	-11.7175
▁blastaire	-11.7175
▁gingiva	-11.7175
sm	-11.7176
▁hartmann	-11.7181
id	-11.7181
tvu	-11.7182
▁hematogeen	-11.7183
▁recidiverend	-11.7195
▁anterieure	-11.7198
▁effecten	-11.7212
oppervlak	-11.7212
infarctlittekens	-11.7217
▁begrensde	-11.722
▁proliferatief	-11.7228
▁mola	-11.723
▁crusta	-11.7231
▁aanwijsba	-11.7231
▁dientengevolge	-11.7231
▁plaatsvinden	-11.7231
kalenderleeftijd	-11.7231
hemihepatectomie	-11.7232
▁biventriculair	-11.7232
▁nsclc	-11.7232
hotr	-11.7233
▁weten	-11.7239
▁poly	-11.724
▁iliacaal	-11.7248
▁irradicaal	-11.7255
▁restlumina	-11.7268
▁vals	-11.7269
▁ochtends	-11.7276
▁perineum	-11.728
weinig	-11.7281
vanwege	-11.7281
pathologisch	-11.7282
▁pleksgewij	-11.7286
▁geacht	-11.7289
▁mg	-11.7292
▁an	-11.7294
my	-11.7294
▁dubbel	-11.7295
▁radiatie	-11.7298
▁corpusbiopten	-11.7303
epitheelcellen	-11.7305
▁bijbevindingen	-11.7325
▁obliterans	-11.7327
▁oncocytoom	-11.7327
▁nefrolithiasis	-11.7327
▁secretiefase	-11.7327
▁toegediend	-11.7327
▁cardioloog	-11.7327
▁hemisferen	-11.7327
▁erythematosus	-11.7327
▁weegt	-11.7327
▁faryn	-11.7327
▁borg	-11.7328
▁fisteling	-11.7332
circumferentieel	-11.7332
▁neusbijholte	-11.7333
▁poliepjes	-11.7339
▁annulus	-11.7342
▁bcc	-11.735
▁varianten	-11.735
▁vu	-11.7351
▁pitting	-11.7354
epithelioom	-11.7355
▁augmentin	-11.7359
▁miss	-11.736
▁ruimer	-11.736
▁athero	-11.7361
infiltratie	-11.7362
▁cystisch	-11.7367
▁overgevoelig	-11.7367
▁studie	-11.7371
▁eosinofielen	-11.7371
slecht	-11.7372
coecum	-11.7381
foetus	-11.7381
der	-11.7381
onen	-11.7403
aire	-11.741
▁bouw	-11.7415
▁schildwacht	-11.7416
▁norm	-11.7418
ydase	-11.7422
▁betekent	-11.7423
▁oorzakelijk	-11.7423
▁restrictie	-11.7423
▁bifida	-11.7423
▁femurfractuur	-11.7423
▁renis	-11.7423
▁cardiologie	-11.7424
▁colloides	-11.7424
▁cysticus	-11.7424
▁buikoperatie	-11.7426
▁georganiseerd	-11.7427
▁aangetast	-11.7428
▁massieve	-11.7429
▁ontslagen	-11.7431
▁vergelijkbaar	-11.7434
stage	-11.7435
▁mitraal	-11.7438
onbekende	-11.7442
▁beklemd	-11.745
▁lager	-11.7454
▁colonbiopt	-11.7461
achterstand	-11.7463
▁mammapunctie	-11.7466
ck	-11.7471
▁tri	-11.748
melanoma	-11.7481
▁frontotemporale	-11.7481
bloedingen	-11.7484
host	-11.7485
tumordiameter	-11.7491
▁gemodificeerde	-11.7491
▁rechtermamma	-11.7492
▁motor	-11.7494
pleuraholte	-11.7497
▁paget	-11.7497
rsi	-11.75
ms	-11.7501
aemie	-11.7508
▁lichaams	-11.7513
itiele	-11.7515
▁verte	-11.7516
▁bewerkt	-11.752
▁hemodialyse	-11.752
▁vertonen	-11.752
spondylodiscitis	-11.752
▁gezorgd	-11.752
▁plaatsvond	-11.752
bi	-11.753
▁orchidectomie	-11.7531
▁demyelinisatie	-11.7532
▁alpha	-11.7544
▁medebeoordeeld	-11.7557
▁lichtmicroscopi	-11.7559
keer	-11.7567
▁huidafwijkingen	-11.7567
vaatproliferatie	-11.7569
problematiek	-11.7582
virus	-11.7587
▁lymf	-11.7592
▁weg	-11.7597
▁adherente	-11.7604
▁gebouwd	-11.7608
▁ledematen	-11.7618
▁ongewoon	-11.7618
▁oplevert	-11.7618
hartspiernecrose	-11.7618
▁lichenoa	-11.7619
▁opgesneden	-11.7624
▁bloedstuwing	-11.7625
▁linkerschouder	-11.7629
panel	-11.7631
▁overhechting	-11.7631
▁pat	-11.7634
loge	-11.7636
centrische	-11.7643
mucosa	-11.7657
▁huidafwijking	-11.7659
▁endocardiale	-11.766
▁schatting	-11.7673
verslag	-11.7675
▁vf	-11.7679
▁hormoonreceptor	-11.7683
verlies	-11.7684
▁opmerkelijke	-11.7684
▁sporen	-11.7694
▁toediening	-11.7696
▁emd	-11.7704
ogene	-11.7705
sh	-11.771
risk	-11.7714
▁kortademig	-11.7716
▁plasmocytoom	-11.7717
▁research	-11.7717
▁okselvet	-11.7718
▁cristabiopsie	-11.7718
segment	-11.7724
▁initieel	-11.7728
▁loopt	-11.7728
▁breed	-11.7732
ps	-11.7735
▁angiodysplasie	-11.7735
▁schouderbladen	-11.7741
▁elektronen	-11.7751
medicamenteuze	-11.7755
▁verlengde	-11.7757
▁rechtercoronair	-11.7758
▁geleverd	-11.776
▁afd	-11.7765
▁septale	-11.7771
▁stuit	-11.7783
▁tumornecrose	-11.7789
▁hotspots	-11.7792
▁gedissemineerde	-11.78
tenzij	-11.78
▁levermetastase	-11.7808
behandeling	-11.7811
▁huidcurettement	-11.7815
▁begonnen	-11.7817
▁schizofrenie	-11.7817
▁rekanalisatie	-11.7817
▁vruchtholte	-11.7817
▁arteriolen	-11.7817
▁doorgesneden	-11.7819
▁gehoorgang	-11.7819
▁pomp	-11.7822
▁paro	-11.7822
▁adherent	-11.7827
▁gedraineerd	-11.7828
▁microkalk	-11.7828
▁regeneratie	-11.7829
▁adeno	-11.783
▁beiden	-11.783
▁inoperabel	-11.7833
▁weefselverval	-11.7838
▁toeval	-11.7842
haardjes	-11.7846
▁risk	-11.7848
▁polymorfe	-11.7848
erzorgingsgebied	-11.7854
▁aspiraat	-11.786
▁hartritme	-11.7861
rca	-11.7862
▁tumormetastase	-11.7865
▁dele	-11.7866
tuba	-11.7871
stens	-11.7871
▁oren	-11.7875
▁condyloma	-11.7881
▁inter	-11.7884
▁meningo	-11.7885
darm	-11.7889
▁insufficiente	-11.7896
uitstrijk	-11.7898
dcis	-11.7903
▁smal	-11.7914
▁hemorrhagie	-11.7916
ken	-11.7916
▁haematopoiese	-11.7918
▁zichtbare	-11.7918
▁lengtematen	-11.7918
no	-11.7923
▁episodes	-11.7938
▁gestuurd	-11.7938
▁gepland	-11.7942
▁chondrosarcoom	-11.7943
▁uitname	-11.7944
▁pancreasweefsel	-11.7946
▁begrensd	-11.7946
lengte	-11.7952
infarceringen	-11.7958
▁serologie	-11.7961
▁liep	-11.7961
▁pea	-11.797
▁caverneus	-11.7971
tis	-11.7972
▁kuur	-11.7973
▁ms	-11.7974
▁presternaal	-11.7975
▁atn	-11.7986
overgang	-11.799
struma	-11.7997
jth	-11.7998
▁onderzoeken	-11.7999
lima	-11.8006
neuroendocrien	-11.8006
▁ongoing	-11.8016
▁mastocytose	-11.802
▁pilonidalis	-11.802
▁lactaatacidose	-11.802
▁ingedikt	-11.802
▁afgegeven	-11.802
▁wigvormig	-11.8021
▁neoadjuvant	-11.8021
▁degeneratief	-11.8022
heidsreactie	-11.8027
▁gladde	-11.8028
▁celpopulatie	-11.8028
▁verondersteld	-11.803
▁ruiter	-11.8036
▁asd	-11.8036
localisaties	-11.8045
▁alsnog	-11.8054
▁dermoidcyste	-11.8054
▁depressie	-11.8055
▁eosinofiel	-11.8064
▁vertoonde	-11.8065
▁centrilobulaire	-11.8065
cholesterolaemie	-11.8066
▁haargrens	-11.8073
▁chorio	-11.8074
fi	-11.8076
▁componenten	-11.8086
▁heftige	-11.8091
▁fuhrman	-11.8091
▁decidua	-11.8092
▁lijnen	-11.8103
empyeem	-11.8105
thromboembolieen	-11.8105
▁keratocyste	-11.8107
fish	-11.8111
longoedeem	-11.8111
▁puspocket	-11.8114
▁angiografie	-11.8122
▁atheromatose	-11.8123
▁discreet	-11.8123
▁verbreed	-11.8123
▁voorhanden	-11.8123
▁avitaal	-11.8124
lymfklieren	-11.8127
▁gemengd	-11.8128
▁sacrum	-11.813
avs	-11.8134
▁ilium	-11.8135
nooit	-11.8137
▁puntje	-11.8137
buisprothese	-11.8138
synucleine	-11.8138
▁vaatstelsel	-11.8139
▁shift	-11.8144
▁hypercalciemie	-11.8147
▁midline	-11.8149
▁paraaortaal	-11.8151
▁gna	-11.816
▁zelfde	-11.8165
▁subacuut	-11.8168
▁hilair	-11.8169
▁snijden	-11.8186
▁maagcorpustype	-11.8207
lopend	-11.8208
mn	-11.8211
▁lytisch	-11.8212
sneevlakken	-11.8214
▁geinduceerde	-11.8214
▁beinvloed	-11.8217
blue	-11.8218
aanwijzingen	-11.822
▁lysis	-11.8225
▁verward	-11.8227
klierweefsel	-11.8227
anthoom	-11.8227
▁vpab	-11.8227
▁basaalmembraan	-11.8227
▁pancreaticus	-11.8227
▁ventriculi	-11.8227
▁kleplijden	-11.8228
lymfangioinvasie	-11.8229
▁knieprothese	-11.823
▁rhabdomyolyse	-11.823
mvg	-11.8231
▁hoofdbronchien	-11.8235
proliferatiefase	-11.8241
▁separate	-11.8244
▁tracheitis	-11.8244
ros	-11.8254
▁longtop	-11.8259
verschijnsel	-11.827
▁transurethra	-11.8287
rw	-11.829
▁transuretra	-11.8291
bn	-11.8293
▁geconsolideerd	-11.8296
▁obstruerend	-11.8301
▁gedegenereerd	-11.8303
hypo	-11.8309
▁side	-11.8316
▁ki	-11.8316
▁lymforeticulair	-11.8319
into	-11.8323
▁neusslijmvlies	-11.8327
ple	-11.8331
transplantaat	-11.8332
▁betrekkelijk	-11.8332
▁polyneuropathie	-11.8332
▁lichaamsmaten	-11.8332
▁aansluiting	-11.8334
uevorming	-11.8335
▁vrijgegeven	-11.8336
loze	-11.8336
▁radiculaire	-11.8338
▁opgelopen	-11.8339
▁trap	-11.8339
▁fibrosehaardjes	-11.8341
▁dubbelzijdig	-11.8344
▁ongebruikelijk	-11.8344
▁zijsnijvlakken	-11.8347
▁voortgeschreden	-11.8349
▁gave	-11.8356
fibrillatie	-11.837
tie	-11.8374
▁by	-11.8374
periventriculair	-11.8375
▁fibrinoide	-11.8383
▁cystectomie	-11.8386
▁bijdragende	-11.8389
▁donor	-11.8391
▁bronchiale	-11.8395
▁pompfunctie	-11.8398
▁junction	-11.841
ir	-11.841
▁traumatisch	-11.8416
▁hartafwijkingen	-11.842
▁lyse	-11.842
▁restlokalisatie	-11.842
▁werk	-11.8426
▁reiken	-11.8427
rs	-11.8428
▁leuko	-11.8429
▁hoofdbronchi	-11.843
▁vats	-11.843
ont	-11.8431
▁tricho	-11.8434
comple	-11.8435
iliacaal	-11.8437
▁afgedekt	-11.8437
▁suicide	-11.8439
▁stigmata	-11.8439
▁herkennen	-11.8439
▁langzaam	-11.8439
▁respiratorius	-11.8439
▁merendeel	-11.844
hospital	-11.844
▁celgroepen	-11.844
▁novo	-11.844
heldercellig	-11.844
▁hem	-11.844
▁darmlis	-11.8443
pericarditis	-11.8445
▁aanvragend	-11.8445
▁thrombopenie	-11.8446
▁darmlijden	-11.8447
celpercentage	-11.8449
▁nasofaryn	-11.8451
▁uitslagen	-11.8456
▁krappe	-11.8466
▁levernecrose	-11.8469
▁reperfusie	-11.847
▁rapport	-11.847
▁krabeffecten	-11.8473
▁medullair	-11.8473
▁serie	-11.8478
▁placentabed	-11.8482
thrombose	-11.8483
▁pulmonair	-11.8485
ren	-11.8488
▁verhouding	-11.849
▁intestinalis	-11.849
septaal	-11.849
▁nierweefsel	-11.849
▁blijvende	-11.8497
ri	-11.8511
hepatitis	-11.8515
▁concentrisch	-11.8537
reanimatiepoging	-11.8537
functie	-11.8546
▁liezen	-11.8546
▁vaatspasmen	-11.8547
▁hoornmateriaal	-11.8547
▁limbisch	-11.8549
▁error	-11.8552
▁epididymis	-11.8554
▁ontwikkelt	-11.8554
mors	-11.8554
▁ao	-11.8556
uren	-11.8559
▁parkinsonisme	-11.8568
wille	-11.8569
▁coronairstenose	-11.8569
cardia	-11.8574
▁straat	-11.8582
▁cystewand	-11.8583
▁aangeboren	-11.8585
▁ontwikkelings	-11.8585
vers	-11.8585
▁tumordoorgroei	-11.8586
▁hechtingen	-11.8591
▁levernaaldbiopt	-11.8595
▁staart	-11.8597
stb	-11.8599
falen	-11.8601
eku	-11.8608
pleura	-11.8614
▁zwarte	-11.8614
▁grijs	-11.8622
gerelateerde	-11.8634
centraal	-11.8641
▁eeg	-11.8641
▁diathese	-11.8655
▁mesencefalon	-11.8655
▁panniculitis	-11.8655
▁verhaal	-11.8655
▁risicofactoren	-11.866
▁halscyste	-11.866
▁universitair	-11.8662
▁optimal	-11.8663
beenmergaspiraat	-11.8667
▁onderkwadrant	-11.8667
▁gynaecomastie	-11.8667
▁glioom	-11.8672
▁hematologische	-11.8678
▁pancreatico	-11.868
▁intramurale	-11.8681
gering	-11.8685
esophagusvarices	-11.8685
▁mdo	-11.8686
▁clonale	-11.8687
▁longbiopten	-11.8688
▁adrenaline	-11.8691
▁chemisch	-11.8696
iale	-11.8701
▁plus	-11.8703
placentaire	-11.8704
▁atresie	-11.8711
▁parese	-11.872
post	-11.8723
▁dehiscentie	-11.8731
▁micrografi	-11.8734
ns	-11.874
dien	-11.8746
▁vasectomie	-11.8765
▁invloed	-11.8766
▁rectumstomp	-11.8766
▁interpreteren	-11.8768
▁dysmorfieen	-11.8768
▁poliepeuze	-11.877
▁darmmucosa	-11.8772
gradering	-11.8772
▁rectumamputatie	-11.8776
▁geimplanteerd	-11.8777
▁tevoren	-11.8777
▁neurologie	-11.8778
▁ra	-11.8779
beide	-11.878
echografie	-11.8781
pleuritis	-11.8781
▁clonaliteits	-11.8782
▁sprietig	-11.8783
bs	-11.8785
▁granulair	-11.8785
▁bied	-11.8788
▁pms	-11.8791
▁paravertebraal	-11.8792
▁shocklever	-11.8794
▁celverval	-11.8795
cisiemateriaal	-11.8797
▁ductcarcinoom	-11.8797
▁intraductaal	-11.8798
▁gelijk	-11.881
dra	-11.8811
▁kleinst	-11.8815
essentiele	-11.8817
abortusmateriaal	-11.883
▁duct	-11.8835
hand	-11.885
systeem	-11.8852
▁behandelen	-11.8868
vasculaire	-11.8869
▁cystadeno	-11.887
▁even	-11.8872
▁instrumenta	-11.8876
▁achterhaald	-11.8876
▁follow	-11.8876
▁amyloidosis	-11.8876
▁mors	-11.8877
▁chronica	-11.8878
▁uitgelokt	-11.8884
▁streptokokken	-11.8884
▁vlekkerige	-11.8887
goed	-11.8888
▁rubriek	-11.8889
behoeftig	-11.8889
▁postero	-11.8891
▁cocaine	-11.8893
▁vaster	-11.8896
labium	-11.8897
diverticulitis	-11.8897
radicaal	-11.8897
▁cytokeratine	-11.8899
▁littekengebied	-11.8901
tje	-11.8902
▁plek	-11.8907
▁waarde	-11.891
intrauterien	-11.8911
▁stop	-11.8911
▁rou	-11.8913
stase	-11.8924
taal	-11.8925
▁blaasbiopt	-11.8926
▁schoon	-11.8934
▁symmetrische	-11.8938
▁epitheelcellen	-11.8939
▁vloeistof	-11.894
▁nsip	-11.8943
ige	-11.8956
▁stand	-11.8965
▁second	-11.8969
▁rustig	-11.897
schouder	-11.8972
▁apc	-11.8979
▁mycotisch	-11.8984
▁gevoed	-11.8986
▁delirant	-11.8988
▁binnengebracht	-11.8988
▁arterietak	-11.899
▁overgaand	-11.899
▁cloacae	-11.8991
atrofie	-11.8995
▁kanaal	-11.8995
▁hematemesis	-11.9001
▁beenvenen	-11.9003
minimale	-11.9003
vergangsepitheel	-11.9003
kh	-11.9004
papil	-11.9009
▁perirenaal	-11.9012
prurigo	-11.9014
▁gebaseerd	-11.9016
overgangscel	-11.9017
drie	-11.9018
periappendicitis	-11.9019
subacute	-11.9021
per	-11.9025
▁anthracose	-11.9026
▁oplopend	-11.9038
▁zones	-11.9041
▁sta	-11.9042
▁capsula	-11.9042
gebieden	-11.9046
mv	-11.9054
ni	-11.9064
▁bovenstaand	-11.9064
▁lineaire	-11.9064
▁ileumslijmvlies	-11.9065
▁fna	-11.9068
▁smalle	-11.9071
name	-11.908
pathologische	-11.9089
implantatie	-11.9096
traject	-11.9098
▁hieromheen	-11.9102
▁waldenstrom	-11.9102
▁daags	-11.9102
▁verschijnsel	-11.9102
▁braaksel	-11.9102
▁pericardzakje	-11.9102
▁massawerking	-11.9102
▁herhaaldelijk	-11.9102
▁nieman	-11.9102
▁cytonucleair	-11.9102
▁virusinfectie	-11.9103
▁linkeronderbeen	-11.9104
derdegraads	-11.9104
▁src	-11.9104
arteriosclerosis	-11.9105
arm	-11.9105
▁tweetaks	-11.9109
▁parameters	-11.911
▁reagerend	-11.9114
▁scoliose	-11.9115
▁baso	-11.9115
▁paratracheale	-11.9115
granuloomvorming	-11.9117
▁tongbasis	-11.9131
ondermeer	-11.9132
zover	-11.9135
▁flowcytometrie	-11.9141
vats	-11.9141
▁arteriitis	-11.9142
▁stasis	-11.9146
deposities	-11.9148
satypie	-11.9149
del	-11.9156
▁inclusie	-11.9167
▁functionerend	-11.9172
▁scleroserend	-11.9177
▁pati	-11.9179
▁hpf	-11.9179
▁systemisch	-11.9182
▁rechteratrium	-11.9189
▁halve	-11.9203
achter	-11.9209
▁kransslagader	-11.9213
▁elastisch	-11.9217
▁meconium	-11.9217
▁erythematodes	-11.9217
▁zonbeschadigd	-11.9217
▁ontbinding	-11.9217
▁afgewerkt	-11.9217
▁senilis	-11.9217
nasolabiaalplooi	-11.9217
▁longpathologie	-11.9218
▁prematuur	-11.9218
▁leversteatose	-11.922
kleuringen	-11.9224
▁myelopoese	-11.9225
rond	-11.9227
▁gebiopteerd	-11.923
▁kuren	-11.9234
▁aangeleverde	-11.9237
▁zn	-11.9242
nte	-11.9244
▁centroblastair	-11.9246
▁endometroid	-11.9246
▁or	-11.9249
▁zichzelf	-11.9251
naad	-11.9253
lupus	-11.9253
iliacale	-11.9255
jaren	-11.9255
vacuolair	-11.9257
▁locoregional	-11.926
▁aangepast	-11.9261
▁ajcc	-11.9261
▁monotypisch	-11.9261
▁point	-11.9262
▁longinfarcten	-11.9263
sp	-11.9271
▁gemiddeld	-11.9287
▁mat	-11.9295
▁pet	-11.932
jbe	-11.9322
▁hevige	-11.9332
▁echtgenote	-11.9333
▁eetlust	-11.9333
▁luidt	-11.9333
▁makkelijk	-11.9333
▁oedemen	-11.9333
mplise	-11.9333
▁geweld	-11.9333
▁subserosale	-11.9335
▁left	-11.9335
aneurysmavorming	-11.9336
erbloedingsshock	-11.9337
▁fibroma	-11.9337
▁verslechterend	-11.9338
lymfocyten	-11.934
haard	-11.9344
▁leukocytose	-11.9346
▁utero	-11.9347
▁vermis	-11.9352
▁herzfehler	-11.9354
indweefselziekte	-11.936
▁intake	-11.9364
▁potje	-11.9365
transversum	-11.9365
basale	-11.937
af	-11.9372
▁shockbeeld	-11.9372
macrofagen	-11.9376
bijvoorbeeld	-11.9376
cabg	-11.9376
casus	-11.9377
anatomische	-11.9377
▁gastric	-11.9392
▁loslating	-11.9393
▁compartiment	-11.94
▁zgn	-11.941
▁valvula	-11.941
tekening	-11.9419
condyloma	-11.9423
▁nasolabiaal	-11.9425
▁atheroomcyste	-11.9431
▁herhaald	-11.9438
nos	-11.9443
inde	-11.9445
▁zag	-11.9446
▁condyloom	-11.9451
▁geobstrueerd	-11.9451
▁gepresenteerd	-11.9451
gehypertrofieerd	-11.9451
▁tegenstelling	-11.9451
▁daaropvolgend	-11.9451
▁sternumfractuur	-11.9451
▁parahippocampal	-11.9452
▁abcesholte	-11.9452
▁fistelvorming	-11.9453
clone	-11.9454
▁consistent	-11.9456
kweken	-11.9456
▁gliale	-11.9457
borst	-11.9459
▁euthanasie	-11.9459
▁ontkleurd	-11.9459
▁brengen	-11.9462
▁orofaryn	-11.9464
embolisatie	-11.9465
▁eilandjes	-11.947
▁tumorembolieen	-11.9473
▁infarctgebieden	-11.9476
▁verslagen	-11.9479
▁ubi	-11.9483
▁cyanose	-11.9483
▁regeneratieve	-11.9487
▁voetrug	-11.9489
vrij	-11.949
▁technisch	-11.9496
▁catecholamine	-11.9496
▁hoorn	-11.9496
▁bestraald	-11.9496
voornaam	-11.95
distaal	-11.95
▁positie	-11.951
▁spoelcellig	-11.9517
▁mycosis	-11.9521
▁birads	-11.9523
ntie	-11.9528
▁cag	-11.953
trombose	-11.9536
▁blok	-11.9546
▁naschrift	-11.9551
▁linkerbovenbeen	-11.9556
wond	-11.9559
ventrikelwand	-11.9569
▁alienum	-11.957
▁gesuggereerd	-11.957
▁ontdekt	-11.957
▁ziekelijk	-11.957
▁malt	-11.9571
▁pleurabiopten	-11.9572
▁afgeplat	-11.9573
▁urotheelcellen	-11.9573
ast	-11.9574
klep	-11.9575
▁vermelden	-11.9575
▁intracranial	-11.9575
▁icterisch	-11.9577
fre	-11.9579
▁blaastumor	-11.958
▁formaline	-11.9582
▁zijranden	-11.9583
▁pneumokokken	-11.9583
▁hartschade	-11.9587
▁gemengdcellig	-11.9591
▁groeide	-11.9596
▁sepsismilt	-11.9598
like	-11.9601
▁proef	-11.9603
▁wilde	-11.9606
partus	-11.961
▁aneurysmatisch	-11.9611
chien	-11.9612
▁uterusresectie	-11.9621
▁ruimtes	-11.9626
▁vriesmateriaal	-11.9627
man	-11.9627
dh	-11.9638
▁orale	-11.9641
mbr	-11.9647
spatroon	-11.9648
vervanging	-11.9664
▁afm	-11.9664
▁vaginale	-11.9665
atypisch	-11.9668
treffen	-11.967
arg	-11.9675
▁monoclonale	-11.9675
heli	-11.9677
▁eus	-11.9677
▁evar	-11.9677
▁bekleding	-11.9684
▁belemmering	-11.9685
▁verbloed	-11.969
▁huidre	-11.969
▁hobbelig	-11.969
▁carcinosarcoom	-11.969
▁hersenvliezen	-11.969
▁galsteenlijden	-11.9691
▁koilocytose	-11.9691
▁bleven	-11.9691
infrarenale	-11.9691
▁ulcusbodem	-11.9692
▁actinomyces	-11.9699
▁geneeskunde	-11.9699
▁meyenburg	-11.9704
revisiemateriaal	-11.9706
▁lung	-11.9706
▁uterine	-11.9707
▁fiets	-11.9708
▁vloeibaar	-11.9709
▁oorlel	-11.971
▁bronchusbiopt	-11.971
pseudo	-11.971
defect	-11.9712
▁zoon	-11.9713
oorgankelijkheid	-11.9716
▁bovenop	-11.9717
▁bovenkaak	-11.9721
▁all	-11.9721
mortale	-11.9723
▁bv	-11.9723
▁gedissemineerd	-11.9725
kenmerken	-11.9734
lichaampjes	-11.9741
schoon	-11.975
candida	-11.9751
waarbij	-11.9752
▁retentie	-11.9756
▁histochemisch	-11.9757
mode	-11.976
▁secretoir	-11.977
bronchus	-11.9778
▁somatisch	-11.9779
klier	-11.9779
sparameters	-11.9783
▁acantholytische	-11.9785
▁aanvoelende	-11.9798
▁lichenoides	-11.9799
▁reageren	-11.98
▁major	-11.9806
sonde	-11.9808
▁gebiedje	-11.9809
▁sinusoiden	-11.9812
▁suggereert	-11.9812
oesofageale	-11.9812
▁fataal	-11.9812
▁krijgt	-11.9813
▁stoppen	-11.9813
▁hemibeeld	-11.9813
▁portae	-11.9815
▁achterblijvend	-11.9816
▁bijnieradenoom	-11.9817
dedifferentieerd	-11.982
▁leverkapsel	-11.982
▁bejaarde	-11.9821
▁nefro	-11.9824
▁oorspronkelijk	-11.9825
▁geschikt	-11.9839
▁voetzool	-11.9843
▁jong	-11.9844
uenties	-11.9852
▁microsatellitos	-11.9857
▁zijresectievlak	-11.9858
▁prepylorisch	-11.9859
▁collageneuze	-11.9863
▁preterminaal	-11.9866
variant	-11.9871
grade	-11.9874
echter	-11.9876
ootmuskaataspect	-11.9878
▁alveolitis	-11.988
flr	-11.988
▁ptag	-11.9893
tr	-11.9908
▁med	-11.9912
inmiddels	-11.9917
▁opmerking	-11.9921
▁bijmilt	-11.9929
▁synovia	-11.9931
▁inhechting	-11.9934
air	-11.9934
▁complicerende	-11.9935
▁diarrhee	-11.9936
▁disarray	-11.9936
▁minuscule	-11.9936
▁onwelwording	-11.9936
▁planopilaris	-11.9936
▁premature	-11.9936
▁verstuurd	-11.9936
▁remissie	-11.9936
▁claudicatio	-11.9936
mvdr	-11.9936
▁hartezakje	-11.9936
▁ongeval	-11.9944
▁elastine	-11.995
▁omphalocele	-11.995
▁verbrede	-11.995
▁onderscheiden	-11.995
▁vetembolieen	-11.9952
▁infarcthaardjes	-11.9954
▁veldjes	-11.9954
▁ingehechte	-11.9958
▁longembolisatie	-11.996
▁pneumonisch	-11.9965
aangedane	-11.9966
▁anatomie	-11.9967
all	-11.9974
▁splitsing	-11.9976
▁tumordiameter	-11.9982
pl	-11.9985
▁herhaalde	-11.9986
▁kaakrand	-11.9989
▁ong	-11.999
focale	-11.9997
▁essentie	-12.0001
shaardjes	-12.0004
ureter	-12.0005
keratose	-12.0009
elders	-12.0009
ttf	-12.001
pancreas	-12.001
geheel	-12.001
eerste	-12.0021
▁codon	-12.0021
▁grocott	-12.0028
▁draden	-12.0035
▁reusceltumor	-12.0037
sv	-12.0038
▁houden	-12.0045
▁superficia	-12.005
▁intrahepatisch	-12.005
▁verwikkeling	-12.0053
▁typeren	-12.0055
▁concentratie	-12.0057
▁cerebrospinalis	-12.0061
▁gebleken	-12.0061
▁gethromboseerd	-12.0061
▁seminalis	-12.0061
▁weerhouden	-12.0061
▁triploidie	-12.0061
▁hypothermie	-12.0061
▁zoster	-12.0061
▁krijgen	-12.0061
▁dieptegroei	-12.0061
pathogene	-12.0061
▁genherschikking	-12.0061
▁hypocellulair	-12.0063
histiocytaire	-12.0064
▁nabijheid	-12.0064
▁stenoses	-12.0065
▁overgrijpend	-12.0066
problemen	-12.0069
tranodaal	-12.0071
▁vergroting	-12.0073
▁insula	-12.0074
bare	-12.0075
multi	-12.0079
gezette	-12.008
▁stereotactische	-12.0081
▁consolidaties	-12.0083
▁afwachten	-12.0084
▁kolonisatie	-12.0086
▁lopend	-12.0088
▁la	-12.0089
▁cvvh	-12.0092
il	-12.0095
▁recanalisatie	-12.0096
▁wanden	-12.0101
▁kristallen	-12.0101
jv	-12.0106
▁maagdarmkanaal	-12.0111
folliculaire	-12.0113
▁vaatmalformatie	-12.0113
laparotomie	-12.0114
functiestoornis	-12.0118
▁mw	-12.0121
▁herstelde	-12.0122
rechterbovenbeen	-12.013
aj	-12.0137
▁circum	-12.0137
marsh	-12.0139
cavum	-12.0141
basis	-12.0141
▁drukken	-12.0148
▁dermat	-12.0148
▁pneumatosis	-12.0149
anteriorresectie	-12.016
▁langerhans	-12.0161
vloedbelemmering	-12.0161
▁groepen	-12.0163
▁soort	-12.0179
▁geinjiceerd	-12.0187
▁groeivertraging	-12.0187
▁minuscuul	-12.0187
▁vimentine	-12.0187
▁right	-12.0187
▁bedreigd	-12.0189
▁puntvormig	-12.0189
▁hemolyse	-12.0189
metaplasie	-12.019
▁doorgegeven	-12.0193
▁onderling	-12.0195
▁zeldzaam	-12.0196
▁colli	-12.02
▁medenem	-12.0201
▁plaatepitheel	-12.0205
▁bloedrijk	-12.0207
▁ppi	-12.0209
▁malformaties	-12.0214
▁neuropathie	-12.0214
▁intrekkingen	-12.0217
▁polycysteu	-12.0217
▁ika	-12.0218
▁membraan	-12.0218
▁transsudaat	-12.0219
▁werkgroep	-12.0225
▁irregulaire	-12.0234
▁myositis	-12.0236
mal	-12.0237
▁bio	-12.024
▁eortc	-12.0248
microsatellieten	-12.0249
ih	-12.0252
▁gemengde	-12.026
▁nhl	-12.0266
antitrypsine	-12.027
thoracaal	-12.0271
aangeboren	-12.0272
tumoruitbreiding	-12.0273
digitus	-12.0274
invasiediepte	-12.0275
braf	-12.0276
▁ontwikkelende	-12.0277
▁echt	-12.029
▁ontving	-12.0307
▁map	-12.0309
▁insertie	-12.0309
ob	-12.0312
▁infiltreert	-12.0316
▁seminales	-12.0316
▁correlaat	-12.0316
▁hemofagocytair	-12.0316
▁leptomeningen	-12.0316
▁concrement	-12.0316
tro	-12.0319
▁versie	-12.0321
▁onverdacht	-12.0323
▁fronto	-12.0324
▁waarden	-12.0325
▁gevoel	-12.033
▁pilomatri	-12.033
▁immuunprofiel	-12.033
▁speelt	-12.0331
▁gelig	-12.0334
▁rectus	-12.0336
▁identiek	-12.0336
▁interstitium	-12.0342
▁proteus	-12.0342
▁fraaie	-12.0346
▁omringende	-12.0352
▁cancer	-12.0363
bloed	-12.0365
▁renaal	-12.0369
▁coiling	-12.037
▁lopen	-12.0374
▁ingestelde	-12.0381
situ	-12.0391
▁congenitaal	-12.0394
▁pogingen	-12.0396
lobaire	-12.0399
▁bronchioli	-12.0402
lichaamsgewicht	-12.0405
bulleus	-12.0409
▁cellulariteit	-12.041
verder	-12.041
auto	-12.0412
▁protocollair	-12.0424
▁irregulair	-12.0424
brengen	-12.0426
▁insufficienti	-12.0428
sproduct	-12.0429
twee	-12.0431
specifiek	-12.0433
tekenen	-12.0436
myloiddeposities	-12.044
▁circulatorius	-12.0445
▁coloscopie	-12.0445
▁hyperthyreoidie	-12.0445
▁solitus	-12.0445
▁gebloed	-12.0446
▁bedroeg	-12.0447
▁amorf	-12.0447
uitine	-12.0447
▁nvt	-12.0447
vooral	-12.0448
preparaten	-12.0449
ff	-12.045
▁onstaan	-12.0454
nnb	-12.0454
▁omstandigheden	-12.0454
▁ih	-12.0454
▁gefibroseerd	-12.0455
▁icu	-12.0456
▁geprikkeld	-12.0459
▁fibromatose	-12.046
▁ileocoecaalhoek	-12.046
▁sanguinolent	-12.0466
▁vaatbed	-12.0466
▁additionel	-12.0469
wonden	-12.0472
meest	-12.0488
▁vnl	-12.0489
tt	-12.0492
▁mild	-12.0498
volume	-12.0502
bovenarm	-12.0503
ph	-12.0513
ihc	-12.0513
▁pten	-12.0517
▁dorsum	-12.0519
▁nierziekte	-12.0524
▁voorstel	-12.0529
▁inleiding	-12.0539
▁antero	-12.054
▁waterscheidings	-12.0542
matuur	-12.0545
▁luchtweg	-12.0567
pas	-12.0571
▁polyp	-12.0573
▁trial	-12.0576
ploratie	-12.0577
▁hemosiderose	-12.0577
▁piriformis	-12.0577
▁toegepast	-12.0577
▁leucaemie	-12.0577
▁binnenkomst	-12.0577
▁artery	-12.0577
cuses	-12.0578
▁blaasspoeling	-12.0578
▁membraneuze	-12.0583
▁psoriasiforme	-12.0584
dna	-12.0589
▁fo	-12.059
▁inguinalis	-12.0592
▁ingezette	-12.0593
tricuspidaalklep	-12.0593
▁meso	-12.0601
cl	-12.0601
naast	-12.061
▁immunofenotype	-12.0612
▁paralyse	-12.0616
▁coagulatie	-12.0622
▁pleiten	-12.0623
anale	-12.0632
▁stroomgebieden	-12.0632
sta	-12.0632
▁promotor	-12.0634
▁band	-12.0648
zelfde	-12.0648
▁fenotype	-12.0651
▁semen	-12.0651
▁trigonum	-12.0657
▁haemorragische	-12.066
gastro	-12.066
▁ar	-12.0668
eosinofiele	-12.0672
▁ontregeld	-12.0674
▁canule	-12.0685
cerebrum	-12.0685
perineurale	-12.0686
indien	-12.0688
▁koude	-12.069
▁plooi	-12.0703
▁anaerobe	-12.0706
▁acanthoom	-12.0707
synucleinopathie	-12.071
▁erytrocyturie	-12.071
▁hoefijzernier	-12.071
▁treitz	-12.071
▁verdwenen	-12.071
▁onverklaard	-12.071
▁gelukt	-12.071
▁familieanamnese	-12.0712
▁spelen	-12.0712
▁tube	-12.0713
cys	-12.0714
▁intrathoracaal	-12.0714
▁dvt	-12.0715
▁doorheen	-12.0716
▁kweekuitslagen	-12.0716
▁pneumoniebeeld	-12.0719
▁pallidum	-12.072
▁duinen	-12.072
▁dosis	-12.072
bloedingsneiging	-12.0721
ventriculaire	-12.0722
sklachten	-12.0724
▁rechterlies	-12.0724
▁pemphigoid	-12.0726
▁bekeken	-12.0731
peritoneaalholte	-12.0734
▁therapiekeuze	-12.0736
▁colonpoliep	-12.0738
▁pdl	-12.0738
▁schaal	-12.0738
min	-12.0741
▁debulking	-12.075
▁y	-12.075
▁dikwandige	-12.0753
▁metend	-12.0754
▁rmk	-12.0762
isatie	-12.0763
▁gastrisch	-12.0771
sgerelateerde	-12.0785
▁villi	-12.0785
▁group	-12.0793
▁vervet	-12.0797
▁voeren	-12.0798
▁intraepithelial	-12.0799
▁cystoprostat	-12.0808
▁direkte	-12.081
▁compound	-12.081
oesophageale	-12.0818
pulmonaal	-12.0822
doorsnede	-12.0823
mucosale	-12.0829
frontaal	-12.083
▁avr	-12.0831
arterio	-12.0837
▁cam	-12.0837
via	-12.0841
▁gebraakt	-12.0845
cadherine	-12.0846
▁tangentieel	-12.0846
▁lymfomenpanel	-12.0846
▁drievatslijden	-12.0846
stollingsneiging	-12.0847
groei	-12.0849
▁crypten	-12.0853
▁intramucosaal	-12.0853
▁hersenmetastase	-12.0858
▁doorgegroeid	-12.0861
▁dienen	-12.0863
▁hepatogeen	-12.0864
men	-12.0871
▁erosief	-12.0872
▁aggregaten	-12.0873
▁dundarm	-12.0874
▁onvolledig	-12.088
▁regionaal	-12.0885
▁operatiewond	-12.0885
doende	-12.0889
▁steentjes	-12.0894
▁cystic	-12.0898
▁gebrek	-12.0899
▁hoek	-12.0899
corticosteroiden	-12.0906
▁adenos	-12.0907
▁dalende	-12.0909
▁neurogene	-12.0917
▁hersteld	-12.0921
la	-12.0921
▁radio	-12.0931
▁mammanaaldbiopt	-12.0939
▁enzym	-12.0939
▁precieze	-12.0941
▁pleuraal	-12.0948
▁elastosis	-12.0959
tamponade	-12.096
▁belast	-12.0966
molluscum	-12.0966
▁zitten	-12.0967
veel	-12.0968
creutzfeldt	-12.0969
▁psychiatrische	-12.0972
▁vervolg	-12.0981
▁artefact	-12.0982
▁fallopii	-12.0982
▁genoeg	-12.0982
▁moeizaam	-12.0982
▁soepel	-12.0982
▁gecomprimeerd	-12.0983
▁pulmonum	-12.0983
▁taai	-12.0983
imab	-12.0983
▁bedekt	-12.0983
▁verdient	-12.0983
▁uitgaat	-12.0984
▁nierstenen	-12.0985
▁intrathoracale	-12.0986
▁vervallen	-12.0986
▁myocardvezels	-12.0986
▁agv	-12.0986
middels	-12.0986
▁diuretica	-12.0987
trichilemma	-12.0988
plaats	-12.099
arteriele	-12.099
▁collagene	-12.099
▁thymoom	-12.0992
▁special	-12.0997
▁ovariectomie	-12.0998
▁lipomatose	-12.0998
▁verschil	-12.1004
▁oropharyn	-12.1004
▁rechtzijdig	-12.1004
▁incompleet	-12.1004
▁schuimig	-12.1004
▁arterietakjes	-12.1005
▁contrast	-12.1006
▁hallu	-12.1006
▁geslaagd	-12.101
▁tumorlengte	-12.1016
▁medebeoordeling	-12.1017
▁darmnecrose	-12.1037
▁slank	-12.1038
ering	-12.1042
▁clear	-12.1049
klein	-12.1076
▁spitz	-12.1078
▁hoogstand	-12.1093
if	-12.1098
▁incomplete	-12.1104
laag	-12.1104
mediaan	-12.1112
resistente	-12.1113
encefalitis	-12.1115
rdp	-12.1116
▁vlakke	-12.1118
ablatie	-12.112
▁circumvallata	-12.1121
▁kritisch	-12.1121
▁retardatie	-12.1121
▁trimester	-12.1121
▁verknepen	-12.1121
▁capitis	-12.1121
▁daaromheen	-12.1121
▁neuritische	-12.1122
▁vervaardigd	-12.1122
▁darmkanker	-12.1122
deficientie	-12.1123
▁avitale	-12.1124
▁epiduraal	-12.1124
▁ductectasie	-12.1125
kans	-12.1126
dieringsvoorstel	-12.1126
▁blow	-12.1126
groeiachterstand	-12.1126
▁babygram	-12.1131
▁endotheel	-12.1134
▁gesampled	-12.1137
▁molluscum	-12.1138
▁abortusrest	-12.1142
▁levercyste	-12.1156
▁invaginatie	-12.1158
aw	-12.1161
▁biopsies	-12.1164
▁pal	-12.1164
▁wens	-12.1168
▁intramusculair	-12.1169
renale	-12.117
traventriculaire	-12.1171
▁huidfragment	-12.1175
▁anomalie	-12.1176
▁clearcell	-12.118
▁miltkweek	-12.1188
▁eenzelfde	-12.1191
pipelle	-12.1192
▁aortitis	-12.1193
▁gastrale	-12.1194
lw	-12.1197
angioinvasie	-12.1198
▁wv	-12.1206
act	-12.1206
▁cachectisch	-12.1208
▁zegelring	-12.121
▁fibrinoid	-12.123
aa	-12.1232
darmkanaal	-12.124
▁tensies	-12.1246
▁skintag	-12.1251
bodem	-12.126
ouderdom	-12.1261
▁cylindrisch	-12.1262
▁dusdanig	-12.1262
▁ruber	-12.1262
▁suboptimale	-12.1262
▁verkrijgen	-12.1262
▁puntbloedinkjes	-12.1262
▁gebeld	-12.1262
▁afgelopen	-12.1262
▁thrombolyse	-12.1263
▁subcorticale	-12.1264
stapelingsziekte	-12.1264
▁zwakte	-12.1265
retrograde	-12.1268
▁types	-12.1269
▁graden	-12.127
▁bentall	-12.127
▁conus	-12.1271
▁voorkomt	-12.1272
▁leiomyoma	-12.1274
longgewicht	-12.1277
plak	-12.1282
▁sulci	-12.1285
▁hypofaryn	-12.1292
▁mammaparenchym	-12.1292
▁apical	-12.1293
fle	-12.1297
▁spermatozoa	-12.1298
▁celarme	-12.13
▁tumoraal	-12.1304
diepte	-12.1308
▁keel	-12.1313
▁harde	-12.1314
▁temporaalkwab	-12.1321
▁mondhoek	-12.1322
▁target	-12.1332
▁igm	-12.1334
tollingsstoornis	-12.1341
adenomateuze	-12.1343
▁donkere	-12.1349
▁gedekte	-12.135
▁spina	-12.1361
▁vetembolie	-12.1362
▁gecombineerde	-12.1366
▁hypovolaemische	-12.137
▁solitair	-12.1374
▁tumorpercentage	-12.1374
cell	-12.1379
len	-12.1382
radiculaire	-12.1385
▁biopsy	-12.1405
▁erytropoese	-12.1405
▁etiologisch	-12.1405
▁myocytolyse	-12.1405
▁uremie	-12.1405
▁ventilatie	-12.1405
arachnoidale	-12.1405
▁panischemie	-12.1405
▁lichtstijve	-12.1405
▁markerpatroon	-12.1405
▁longvaatbed	-12.1406
▁suprapubisch	-12.1409
erythema	-12.1409
▁bloedingsbron	-12.141
▁mogelijkerwijs	-12.141
langer	-12.1412
low	-12.1415
▁siderofagen	-12.1415
▁aanliggend	-12.1417
▁cystenieren	-12.142
▁verergering	-12.1421
▁keloid	-12.1422
▁centro	-12.1426
lise	-12.1427
▁wrsch	-12.1428
▁mesenchymaal	-12.1428
▁heldergeel	-12.1429
▁thoraco	-12.1431
▁trabeculair	-12.1434
▁inguinaal	-12.1434
▁acantholyse	-12.1435
ens	-12.1441
▁histiocyten	-12.1442
▁reuma	-12.1443
wanddikte	-12.1452
leu	-12.1458
▁micrometastase	-12.1462
cave	-12.1482
wervelmetastasen	-12.1482
glu	-12.1484
▁omstrengeling	-12.1486
▁zijdelings	-12.1486
▁depletie	-12.1487
▁ht	-12.1488
tak	-12.1489
▁fal	-12.151
verstoring	-12.1517
tbo	-12.1521
▁ion	-12.1523
▁afvloed	-12.1525
▁capillaire	-12.1526
▁haematogen	-12.1529
▁gereseceerd	-12.153
▁recenter	-12.1531
▁nogal	-12.1535
▁bijgevoegd	-12.1536
▁jl	-12.1538
▁incisiebiopt	-12.154
ulcus	-12.1542
▁nierbekken	-12.1542
uamo	-12.1548
▁astrocyten	-12.155
▁cinguli	-12.155
▁gehecht	-12.155
▁immaturitas	-12.155
▁veralgemeend	-12.155
▁verleend	-12.155
▁flora	-12.155
▁mucostase	-12.155
▁galstase	-12.155
▁hepatoduodenale	-12.155
▁cutis	-12.155
▁slikstoornissen	-12.1551
▁bloedbraken	-12.1551
trauma	-12.1551
cylinderepitheel	-12.1553
▁cilindrisch	-12.1554
maar	-12.156
▁leucocytose	-12.156
grawitz	-12.156
plaatsing	-12.1561
cytologisch	-12.1561
geruptureerd	-12.1565
▁va	-12.1565
▁hieronder	-12.1567
toename	-12.157
middelste	-12.1571
▁neutrofiel	-12.1576
▁genereren	-12.1579
resp	-12.158
▁grawitztumor	-12.1586
▁toelichting	-12.1586
lymfklierweefsel	-12.159
▁locaties	-12.1591
▁proficient	-12.1593
buikpijnklachten	-12.1598
▁ante	-12.1599
▁bloedig	-12.16
darmtractus	-12.1606
asp	-12.1606
▁sn	-12.1607
sterk	-12.1615
▁frontotemporaal	-12.1616
▁monoklonal	-12.1619
solide	-12.1623
ling	-12.1629
▁jak	-12.1629
▁karakteristiek	-12.1637
▁nl	-12.1639
▁tracheo	-12.1644
▁di	-12.1649
aandoening	-12.1655
▁ervan	-12.1668
eld	-12.167
▁screenen	-12.1684
▁maagantrumtype	-12.1685
▁blaar	-12.169
pharyn	-12.1694
▁paracetamol	-12.1697
▁afasie	-12.1697
▁mucokele	-12.1697
▁verstreken	-12.1697
▁show	-12.1697
▁toepassing	-12.1697
hiellengte	-12.1697
▁bichoriale	-12.1698
▁trombocytopenie	-12.1698
▁heropname	-12.1698
▁liver	-12.1699
▁subtotaal	-12.1699
fokaal	-12.17
▁niersteen	-12.17
▁constrictiva	-12.1701
▁imponeert	-12.1701
▁peritonei	-12.1703
bronchusspoelsel	-12.1703
▁douglas	-12.1704
▁uitgroei	-12.1705
▁impetiginisatie	-12.1707
▁gebleven	-12.1707
▁polypeuze	-12.1707
architecturele	-12.1708
▁suf	-12.1709
▁necrosehaarden	-12.1712
▁ductaaltype	-12.1713
tweeling	-12.1714
▁hyalinose	-12.1714
fundic	-12.1714
voorkeur	-12.1715
fibreus	-12.1715
achtergrond	-12.1716
papilloom	-12.1716
voorts	-12.1718
▁duidelijkheid	-12.1718
▁vettig	-12.1725
▁epitheelcyste	-12.1729
▁occlusiev	-12.173
▁idiopathisch	-12.1732
▁leverlijden	-12.1733
▁middermaal	-12.1734
▁bauhini	-12.174
▁intensieve	-12.1746
▁mycobacterium	-12.1747
do	-12.175
▁ohca	-12.1752
lichte	-12.1758
▁slechter	-12.1767
uitbreiding	-12.1767
renaal	-12.1771
▁dien	-12.1775
▁lymfoa	-12.1776
kl	-12.1778
▁kwamen	-12.1779
▁breedte	-12.1781
▁un	-12.1786
▁knieholte	-12.179
▁aangevuld	-12.1799
▁code	-12.1804
▁korter	-12.1807
ut	-12.1815
▁littekenbreuk	-12.1821
ostose	-12.1837
iatrogene	-12.1846
uadriceps	-12.1846
▁bijkomstig	-12.1846
▁mucositis	-12.1846
▁oligohydramnion	-12.1846
▁sectum	-12.1846
▁verwijzen	-12.1846
▁hemofagocytose	-12.1846
▁reading	-12.1846
▁wervellichamen	-12.1846
▁vacuolisatie	-12.1846
▁behandeladvies	-12.1846
▁bacteriaemie	-12.1847
▁onsuccesvol	-12.1847
▁mentale	-12.1847
▁overgebracht	-12.1847
from	-12.1848
▁perianaal	-12.1848
▁daaraan	-12.1849
hiel	-12.1849
▁voren	-12.1849
▁myeline	-12.185
▁myoclonieen	-12.185
fragmentjes	-12.185
▁ingeklemd	-12.1853
parietaal	-12.1854
▁saturatiedaling	-12.1856
▁hippocampi	-12.1857
▁verbakken	-12.1857
▁vliezig	-12.1857
▁ectocervicaal	-12.1857
▁genese	-12.1857
▁pompfalen	-12.1863
refle	-12.1864
▁leukocytoclas	-12.1865
▁noradrenaline	-12.1868
▁boog	-12.1869
▁bronchusbrush	-12.1871
mediaal	-12.1872
seniele	-12.1873
ascites	-12.1873
ustom	-12.1878
amyotrofisch	-12.1884
▁okselklier	-12.1885
luchthoudendheid	-12.1889
▁ectocervi	-12.189
▁drugs	-12.1909
▁radi	-12.1916
▁nierinfarct	-12.1917
▁sternotomie	-12.1924
karakteristieken	-12.1926
▁onverwachte	-12.1927
schorsadenoom	-12.1928
▁artefacten	-12.193
▁continue	-12.1933
hypertensie	-12.1938
viii	-12.1938
▁erop	-12.1939
lis	-12.194
tisch	-12.1959
logie	-12.1959
ik	-12.1961
▁oppervlakte	-12.1967
▁autoimmuun	-12.1975
▁kno	-12.1978
ductale	-12.1982
▁hypereosinofili	-12.1989
▁casu	-12.199
▁rna	-12.1993
▁draad	-12.1994
▁bradycard	-12.1994
▁twijfel	-12.1998
ofytisch	-12.1998
hechten	-12.1998
pliciet	-12.1998
▁astrogliose	-12.1998
▁aterosclerose	-12.1998
▁geindureerd	-12.1998
▁graciel	-12.1998
▁perimusculair	-12.1998
▁uitzondering	-12.1998
▁geevalueerd	-12.1998
▁epicardiaal	-12.1998
▁spieratrofie	-12.1999
▁overvuld	-12.1999
▁melanocyten	-12.1999
blok	-12.1999
▁breidde	-12.2001
▁mycobacterien	-12.2001
▁opgave	-12.2003
▁congorood	-12.2005
delen	-12.2006
▁hersentumor	-12.2007
craniaal	-12.2007
catheter	-12.2007
▁nierloge	-12.2011
▁pericardial	-12.2019
▁symptomatisch	-12.2021
▁starten	-12.2023
▁gefibroseerde	-12.2024
▁flardjes	-12.2026
▁tumorvolume	-12.2028
▁pees	-12.2028
▁uterina	-12.2028
▁geruim	-12.2028
reusceltumor	-12.2028
▁funiculus	-12.2029
glioblastoma	-12.2029
▁kaaklijn	-12.203
linkszijdig	-12.203
vaf	-12.203
▁infra	-12.2042
▁hangen	-12.2042
▁detecteert	-12.2043
lb	-12.2054
▁radiologische	-12.2054
▁elementen	-12.2055
tumortype	-12.2056
▁restmateriaal	-12.206
▁gas	-12.206
spoliepen	-12.2061
ser	-12.2068
▁commissie	-12.2078
▁gangreneuze	-12.2084
▁inkt	-12.2089
tumorale	-12.2089
▁immunocytochemi	-12.2092
▁aberrante	-12.2097
bevinding	-12.21
▁mammatumor	-12.2103
▁endoscopisch	-12.2105
▁rea	-12.2111
▁pneumonieen	-12.2115
▁loh	-12.212
▁sigmoidbiopten	-12.2129
▁residu	-12.213
▁naald	-12.2131
▁nen	-12.2139
▁elektrolyt	-12.2143
▁vorige	-12.2148
▁pn	-12.2149
▁linkerbijnier	-12.2149
▁immuuncytochemi	-12.2151
▁aanbevolen	-12.2152
▁periferie	-12.2152
▁verhoorning	-12.2152
▁hypocampus	-12.2152
▁papillomavirus	-12.2152
cobas	-12.2152
▁matur	-12.2152
▁meerlagig	-12.2153
▁intramyocardial	-12.2153
▁myo	-12.2155
▁hyponatriemie	-12.2156
io	-12.2158
letsel	-12.2162
▁grenzend	-12.2163
spier	-12.2163
▁maagsonde	-12.2163
▁behoefte	-12.2166
thoracale	-12.2167
gist	-12.2169
▁steriel	-12.2169
▁verstikking	-12.2169
▁lymfkliertjes	-12.2173
alcohol	-12.2189
usual	-12.219
portale	-12.2191
tki	-12.2191
vet	-12.2193
▁am	-12.2196
▁cytoplasmatisch	-12.2196
mh	-12.2197
▁bronchiaal	-12.22
▁orbita	-12.2203
▁gesproken	-12.2204
▁hartoperatie	-12.221
▁antrumbiopten	-12.221
▁adult	-12.2211
▁haemolytische	-12.2219
▁contusio	-12.2232
▁hiel	-12.2233
ui	-12.2236
tende	-12.2238
▁recht	-12.2255
laire	-12.2266
lencarcinoom	-12.2268
▁crypt	-12.2273
nek	-12.2275
▁uitgebreider	-12.2281
eert	-12.2287
▁pseudomelanosis	-12.2295
▁uitgebreidere	-12.2298
▁asphy	-12.2308
▁continuitatem	-12.2308
▁contracturen	-12.2308
▁mestcellen	-12.2308
▁gepositioneerd	-12.2308
▁foetalis	-12.2308
▁ribfractuur	-12.2309
▁tumornodi	-12.2312
▁hidrocystoom	-12.2312
▁leed	-12.2317
cardio	-12.2318
▁wernicke	-12.2319
▁leverabces	-12.232
tracapillair	-12.2323
▁outflow	-12.2327
▁haarfollikels	-12.2333
▁endovasculair	-12.2335
▁overliggend	-12.2336
▁wondbed	-12.2339
erasmus	-12.234
▁troponine	-12.2341
▁herseninfarcten	-12.2342
▁driemaal	-12.2343
▁ondersteunend	-12.2343
▁micrometastasen	-12.2343
▁mdm	-12.2345
▁productie	-12.2348
wat	-12.2349
▁satellieten	-12.2353
spitz	-12.2353
neusrug	-12.2357
eel	-12.2357
apicaal	-12.2364
▁onderzijde	-12.237
▁nauwe	-12.2382
▁impressie	-12.2382
▁hygroma	-12.2383
▁organiserend	-12.2388
▁meerder	-12.2393
▁carcinomen	-12.2395
▁anca	-12.2405
▁lingula	-12.2411
▁waarom	-12.2414
▁leverbiopten	-12.2416
▁sudden	-12.2418
▁tubair	-12.2426
▁vt	-12.2426
▁hemo	-12.2434
takken	-12.2435
keren	-12.2438
▁kaposi	-12.244
sarcoom	-12.244
▁mv	-12.2445
▁lege	-12.2451
▁verkleuringen	-12.2454
▁amyotrofisch	-12.2455
▁dys	-12.2456
▁ademhalings	-12.2459
▁echtgenoot	-12.2467
▁inzender	-12.2467
▁leidt	-12.2467
▁marginaal	-12.2467
▁hyalinisatie	-12.2467
▁humerusfractuur	-12.2467
▁bovenbenen	-12.2467
▁uitermate	-12.2467
▁psoasloge	-12.2467
▁spoedig	-12.2467
▁normosome	-12.2471
▁intrapulmonaal	-12.2471
▁peptische	-12.2472
corte	-12.2473
▁cake	-12.2474
▁ba	-12.2474
▁gekeken	-12.2478
onderarm	-12.2479
maken	-12.2481
▁perisplenitis	-12.2485
▁intracavitair	-12.2485
▁stafylococc	-12.249
zen	-12.249
▁craniotomie	-12.2492
▁onrijpe	-12.2493
▁overmatig	-12.2496
▁tumoringroei	-12.2496
▁plantaardig	-12.2499
▁zeldzame	-12.25
▁raad	-12.25
ium	-12.2501
primair	-12.2506
▁aplasie	-12.2508
▁diepreikende	-12.2513
opening	-12.2514
trombusmateriaal	-12.2515
adhesies	-12.2517
conisatie	-12.2519
ovarieel	-12.2519
sessiel	-12.2519
▁neusholte	-12.2521
pakketten	-12.2522
subduraal	-12.2522
oksel	-12.2522
failure	-12.2524
meerdere	-12.2525
alcoholische	-12.2525
radiologisch	-12.2527
▁gedrag	-12.2529
▁stadia	-12.2529
▁comedo	-12.2534
▁taks	-12.2539
▁tumorvrije	-12.254
▁aanhechting	-12.2545
geschiedenis	-12.2549
basaal	-12.2549
▁tijdelijk	-12.256
lu	-12.256
▁wegen	-12.2565
▁afgerond	-12.2572
▁avonds	-12.2573
▁pussige	-12.2583
▁oncologie	-12.2595
ti	-12.2598
▁paratubaire	-12.2598
▁real	-12.2608
▁segmenten	-12.2612
▁ingeblokt	-12.2621
mg	-12.2623
▁misselijk	-12.2628
▁uitputting	-12.2628
▁gezegd	-12.2628
▁pemfigoid	-12.2628
▁uremisch	-12.2628
▁vertakkend	-12.2628
▁opinion	-12.2628
▁chemokuur	-12.2628
▁lasi	-12.2628
dying	-12.2628
▁onrustig	-12.2628
▁siliconen	-12.2629
▁conse	-12.2629
▁microvesiculair	-12.2631
▁bvo	-12.2633
▁opgevuld	-12.2634
▁cns	-12.2634
▁leukocyten	-12.2634
▁longembolen	-12.2635
▁vermoeidheid	-12.2639
▁vervette	-12.264
▁stops	-12.2641
▁hieromtrent	-12.2644
▁intakt	-12.2645
▁bronchoscopie	-12.2646
▁uncus	-12.2653
▁gemedieerd	-12.2659
terventriculaire	-12.2661
▁hepaticus	-12.2661
▁ductectasieen	-12.2663
▁multicentrisch	-12.2666
▁ffpe	-12.2669
▁cilindercel	-12.267
▁naruke	-12.2676
▁partijen	-12.2683
▁ectopisch	-12.2684
lang	-12.2688
borderline	-12.2691
trisomie	-12.2692
random	-12.2692
voornamelijk	-12.2692
oorzaak	-12.2695
▁myocardial	-12.2703
ingen	-12.2705
wustzijnsverlies	-12.2707
▁con	-12.271
fibrineuze	-12.2718
▁etc	-12.2727
hypovolemische	-12.2727
oronairangiogram	-12.2732
▁gelaagde	-12.2735
tentoriele	-12.2735
etale	-12.2736
▁lesies	-12.2744
▁pi	-12.2747
ala	-12.2748
▁verwezen	-12.2749
ls	-12.2753
▁prof	-12.2769
▁behoeftig	-12.2771
▁motorische	-12.2777
▁omental	-12.2778
▁zijnde	-12.278
ll	-12.2781
fa	-12.2783
▁def	-12.2786
morfologisch	-12.2788
▁ingrijpen	-12.2789
pigment	-12.2789
vaten	-12.2791
▁streptokok	-12.2792
▁correspondentie	-12.2792
accredit	-12.2792
▁proctitis	-12.2792
▁schedelgroeve	-12.2792
▁angiomyolipoom	-12.2792
▁subclaviculair	-12.2792
▁gallekkage	-12.2792
▁trombusmassa	-12.2793
▁ijzerdepositie	-12.2794
▁lacunes	-12.2795
▁spoortje	-12.2796
▁opgeleverd	-12.2799
▁wandruptuur	-12.2799
▁insturen	-12.28
▁perifolliculair	-12.28
▁gesteelde	-12.2802
▁horizontale	-12.2803
▁trabekelblaas	-12.2803
▁bloedbijmenging	-12.2803
▁metabool	-12.2811
▁aankleurend	-12.2812
▁cauterisatie	-12.2819
vraag	-12.2819
▁verweekte	-12.2821
trinsiek	-12.2822
▁macronodulaire	-12.2825
▁systematisch	-12.2825
▁roodheid	-12.2828
▁cnv	-12.2829
intrahepatische	-12.2829
▁neuron	-12.2831
▁fa	-12.2834
▁akute	-12.2837
▁knoop	-12.284
groep	-12.2843
▁uitgeblust	-12.2846
protocol	-12.2849
reikend	-12.2854
▁inzending	-12.2861
▁ntrk	-12.2863
serrated	-12.2864
perifeer	-12.2864
descendens	-12.2865
locatie	-12.2868
▁darmtype	-12.2868
▁grijswit	-12.2868
▁follikel	-12.287
ila	-12.2875
▁strengen	-12.2888
▁linkeronderarm	-12.2893
▁abnormaal	-12.2894
▁bii	-12.2896
▁langerbestaande	-12.2909
▁sd	-12.2916
▁versterkte	-12.2922
▁leversegment	-12.2924
▁gelokaliseerde	-12.2927
blauwe	-12.293
voorstel	-12.2939
▁gallig	-12.2941
▁genezen	-12.2945
▁afsluitend	-12.2947
▁ontbrak	-12.295
▁linkerkamer	-12.2955
▁bewusteloos	-12.2958
▁gekozen	-12.2959
▁pijnstilling	-12.2959
▁praktisch	-12.2959
columnair	-12.2959
▁tracheostomie	-12.2959
▁ehbo	-12.2959
▁agens	-12.2959
▁gevalideerd	-12.2959
▁ziektebeloop	-12.2959
▁individuel	-12.2959
bacteriekolonies	-12.2959
▁hypothalamus	-12.2959
swl	-12.2959
▁cruris	-12.2959
▁bloedvaatjes	-12.296
▁predisponerend	-12.2961
▁rethoracotomie	-12.2961
▁adenoma	-12.2961
▁dermatoloog	-12.2963
▁vastzittend	-12.2963
▁dystrofie	-12.2963
▁urineweg	-12.2964
▁leukostase	-12.2978
lies	-12.2984
▁pdgfra	-12.2985
▁genitalis	-12.2985
▁tonsillectomie	-12.2985
▁peribronchiaal	-12.2985
▁reeksen	-12.2989
▁sleeve	-12.2992
▁besluit	-12.2992
▁grieperig	-12.2992
▁tumorrecidief	-12.2998
▁handpalm	-12.3008
▁vacuum	-12.3008
▁hilusgebied	-12.3011
▁lenskern	-12.3016
▁bacterieen	-12.3017
▁gedegenereerde	-12.3017
▁tdp	-12.3024
opname	-12.3025
▁chirurg	-12.3027
▁afgeronde	-12.3028
▁thrombocytopeni	-12.3031
▁like	-12.3032
thoracotomie	-12.3037
granulerende	-12.3039
lewy	-12.304
▁receptorstatus	-12.304
▁voeding	-12.304
ted	-12.3041
vin	-12.3044
schouderblad	-12.3047
cardiac	-12.3048
▁onderverdeling	-12.3059
oor	-12.3067
▁tps	-12.3076
▁diafragmakoepel	-12.3085
cz	-12.3086
▁bacterieel	-12.3086
weg	-12.3087
sistente	-12.3089
kk	-12.3099
▁deviatie	-12.3099
▁satellitose	-12.3099
▁beentumoren	-12.3106
positie	-12.3109
dg	-12.311
▁anusbiopt	-12.3115
▁groet	-12.312
caudaal	-12.3122
nd	-12.3125
tetrazoliumproef	-12.3128
▁verdrinking	-12.3128
▁ontslagbrief	-12.3128
▁alcoholmisbruik	-12.3128
▁fibrinebeslag	-12.3128
▁leukopenie	-12.3128
▁purkinjecellen	-12.3129
▁uitlokkend	-12.3129
▁posterolateral	-12.313
▁ggd	-12.313
▁aftakkend	-12.3131
▁tubulairadenoom	-12.3132
▁durend	-12.3133
▁klepbladen	-12.3134
▁vaginawand	-12.3136
sstoornis	-12.3138
▁mmol	-12.3144
▁fibers	-12.3147
▁chorionitis	-12.3147
▁minor	-12.3149
▁levercel	-12.3149
▁grover	-12.3152
▁uurs	-12.3154
▁hechtdraad	-12.3155
▁stadiering	-12.3155
▁wervelfractuur	-12.3156
▁tubahoeken	-12.3165
aha	-12.3166
▁overnam	-12.3168
▁longafwijking	-12.317
▁hypotensieve	-12.317
adenocarcinoma	-12.3171
kleppen	-12.3171
▁familiair	-12.3173
▁spirocheten	-12.3178
▁ouders	-12.3193
▁eten	-12.3199
▁continu	-12.3201
lys	-12.3201
▁dubbele	-12.3203
top	-12.3204
omtrek	-12.3209
ongeval	-12.3215
sie	-12.3215
ontstekingshaard	-12.3215
endometrioid	-12.3218
alzheimer	-12.3218
truncus	-12.3219
▁lymfklierpakket	-12.3231
▁angioinvasieve	-12.3232
uip	-12.3234
iforme	-12.3242
smacelpopulatie	-12.325
▁rechterkamer	-12.3253
tvb	-12.3254
▁bloedingshaard	-12.3257
tel	-12.3261
ry	-12.3267
intestinalis	-12.3269
bloedtransfusies	-12.3271
▁vernauwde	-12.3281
▁glucose	-12.3284
▁eczemateu	-12.3284
▁straal	-12.3284
▁cml	-12.3287
haemorrhagisch	-12.3288
▁winding	-12.3292
▁dubbelloops	-12.3299
opheffen	-12.33
▁mirabilis	-12.33
▁moeizame	-12.33
▁neutropenie	-12.33
▁verzonden	-12.33
▁verzwakt	-12.33
▁waarneembaar	-12.33
▁adenomateus	-12.33
▁beschadigingen	-12.3302
▁betroffen	-12.3303
▁metalen	-12.3304
▁gedocumenteerd	-12.3305
▁groeiretardatie	-12.3305
kwabsbronchus	-12.331
▁placentadeel	-12.3313
▁borstkas	-12.3313
▁kransslagaderen	-12.3313
▁functioneren	-12.3315
▁uitbreidt	-12.3317
▁buikoperaties	-12.3318
▁pericolische	-12.3319
mail	-12.332
▁hepatisatie	-12.3326
▁thromboembolien	-12.3327
▁mediaanlijn	-12.3329
▁activatie	-12.3329
▁mechanisme	-12.3338
encefalopathie	-12.334
▁dukes	-12.3342
▁ductulair	-12.3344
▁beademings	-12.3349
▁liggend	-12.3354
▁verlopend	-12.3356
▁galblaaswand	-12.3358
▁cause	-12.3359
▁geconsolideerde	-12.3361
▁cyto	-12.3363
▁blind	-12.3365
va	-12.3365
▁vreemd	-12.339
▁nierafwijkingen	-12.3391
embolisch	-12.3391
▁dof	-12.3397
tpn	-12.3398
resultaat	-12.3399
hernia	-12.3399
encephalopathie	-12.34
gaarne	-12.34
▁zijden	-12.3402
▁sca	-12.3405
fs	-12.342
▁compensatoir	-12.342
▁gemethyleerd	-12.3422
▁resistent	-12.3428
▁spiegel	-12.3429
▁ph	-12.3434
hoofd	-12.3457
▁mitose	-12.346
▁colontype	-12.3466
▁femurkop	-12.3468
▁aangezicht	-12.347
membraneus	-12.3472
▁rekening	-12.3476
▁mortus	-12.3476
▁pallidus	-12.3476
▁staphylococcen	-12.3476
▁verkavelend	-12.3476
▁venosus	-12.3476
▁frontalis	-12.3476
▁nabestaanden	-12.3476
▁standsafwijking	-12.3477
▁kernhoudend	-12.3477
▁longtoppen	-12.3478
▁celgroepjes	-12.3478
▁clusters	-12.348
▁heparine	-12.3485
▁overgangs	-12.3487
▁mesangiale	-12.3488
uaduct	-12.3488
ulcererende	-12.3489
tweelingplacenta	-12.3489
▁stille	-12.3492
▁endometrial	-12.3496
▁gedateerd	-12.3496
▁hypokaliemie	-12.3496
▁serratia	-12.3496
▁borstwand	-12.3504
▁ben	-12.3504
▁gangreen	-12.3504
▁electronen	-12.3504
▁insnijden	-12.351
▁overhechten	-12.3511
▁centrocytair	-12.3512
▁occult	-12.3512
▁ring	-12.3513
▁intradermaal	-12.3514
▁myodegenerati	-12.3515
▁aortaruptuur	-12.3515
▁eenmalig	-12.3517
▁voorhuid	-12.3518
▁eccrien	-12.3518
rriteerde	-12.3519
▁petechieen	-12.3521
▁multinodulaire	-12.3526
flank	-12.354
▁suggestie	-12.3561
▁preventie	-12.3572
sproblemen	-12.3575
▁ileo	-12.3575
tumorinfiltratie	-12.3579
anastomose	-12.3579
point	-12.3583
▁rheuma	-12.3584
arts	-12.3584
indicatie	-12.3584
diabetische	-12.3585
distale	-12.3586
massale	-12.3588
langs	-12.3592
reeds	-12.3594
ww	-12.36
geinduceerde	-12.3614
▁nam	-12.3621
stroomgebied	-12.3636
derde	-12.3636
▁grenzen	-12.3642
chirurgie	-12.3643
spieren	-12.3647
▁millimeter	-12.365
▁tromboembolie	-12.3652
ymfoplasmacytair	-12.3654
▁afdalend	-12.3654
▁choriaalplaat	-12.3654
▁gespecificeerd	-12.3654
▁instituut	-12.3654
▁precies	-12.3654
▁schedeldak	-12.3654
▁enterococcen	-12.3654
▁gliosis	-12.3655
▁dyskeratose	-12.3655
▁pigmentosa	-12.3655
▁fibrinethrombi	-12.3655
▁overeenkomt	-12.3655
▁trombosebeen	-12.3655
▁vaatprothese	-12.3656
nen	-12.3657
▁buisjes	-12.3657
▁optredend	-12.3658
▁theoretisch	-12.3659
▁discrepant	-12.3659
▁dysplasia	-12.3659
▁wondinfectie	-12.366
▁premortaal	-12.3661
▁sclerosering	-12.3663
▁ontlastend	-12.3663
pcr	-12.3665
▁mastoid	-12.3666
▁mucopurulent	-12.3667
bed	-12.3668
▁capd	-12.3669
▁word	-12.3672
▁sebaceus	-12.3675
▁monoclonaal	-12.3675
▁mammabiopsie	-12.3675
▁ptnm	-12.3676
▁resttoestand	-12.3676
▁infuus	-12.3682
▁blaasdak	-12.3683
▁osteochondroom	-12.3683
▁histotype	-12.3683
▁cerad	-12.3683
▁graderen	-12.3683
▁naevoid	-12.3684
schildklier	-12.3685
intraperitoneaal	-12.3689
▁tert	-12.3692
▁hormoon	-12.3695
▁clinico	-12.3698
▁pharyn	-12.3698
▁indolent	-12.3699
teuze	-12.3702
secundair	-12.3705
▁bijwerking	-12.371
▁redenen	-12.3714
▁brain	-12.3716
time	-12.3716
▁steatotisch	-12.3723
▁morfea	-12.3732
▁vlok	-12.3739
▁hemithyreoid	-12.374
▁ana	-12.374
▁ectocervicale	-12.3748
▁md	-12.375
▁secreet	-12.3756
▁bezoek	-12.3756
elijk	-12.3764
▁geschoten	-12.3765
iaal	-12.3766
▁pulmonar	-12.3768
sa	-12.377
sinushistiocytos	-12.3771
cornu	-12.3773
potje	-12.3775
▁poli	-12.3778
lig	-12.3783
▁doormaakte	-12.3791
fase	-12.3792
hoe	-12.3796
▁cystes	-12.3797
▁haemorragisch	-12.3806
mc	-12.381
▁lesion	-12.3827
▁leverbiopsie	-12.3828
▁leptomenin	-12.3835
▁gedestrueerd	-12.3836
▁haematemesis	-12.3836
▁haemoptoe	-12.3836
▁insectensteek	-12.3836
▁intraluminaal	-12.3836
▁laatstgenoemde	-12.3836
▁onmiddellijk	-12.3836
▁uitsnijdatum	-12.3836
▁bilobectomie	-12.3836
▁bespreken	-12.3836
▁beduidend	-12.3836
▁hematopoetisch	-12.3836
▁cito	-12.3836
▁beladen	-12.3836
▁skeletdysplasie	-12.3837
▁meneer	-12.3837
▁ganglioncellen	-12.3838
▁maagretentie	-12.3838
hemorragische	-12.3839
▁lymfangiectasie	-12.3839
▁omslagplooi	-12.3841
▁ch	-12.3842
▁congestief	-12.3842
▁ijzerdeposities	-12.3846
cylinders	-12.3848
▁infarcthaard	-12.3848
▁funisitis	-12.3849
▁cryptabcessen	-12.3849
anknopingspunten	-12.385
▁centimeters	-12.3854
▁regel	-12.3854
▁stelsel	-12.3855
▁ventrikelfalen	-12.3856
▁omkapseld	-12.3857
▁cirrhosis	-12.3857
▁verbindingen	-12.3864
hepatische	-12.3864
▁belemmerd	-12.3865
▁pseudolymfoom	-12.3866
▁macrometastase	-12.3867
▁linkerhand	-12.3867
▁verstoord	-12.3871
▁platzbauch	-12.3874
▁reactivatie	-12.3875
▁adenosis	-12.3875
sing	-12.3875
▁dystrofische	-12.3876
▁mgus	-12.3894
▁urticariele	-12.3898
▁verkalkende	-12.3899
▁overbelasting	-12.39
poliepje	-12.3903
abces	-12.3904
▁gehouden	-12.3906
▁metastases	-12.3907
kan	-12.3909
▁endocardiaal	-12.3915
▁myd	-12.392
▁antilichamen	-12.3923
▁palpabele	-12.3927
celrijk	-12.3927
▁vs	-12.393
▁sab	-12.3934
▁oesophagusbiopt	-12.3935
baar	-12.3937
▁perforerende	-12.3941
▁asymmetrisch	-12.3943
medullair	-12.3949
abusus	-12.3949
samenstelling	-12.3951
▁coecumcarcinoom	-12.3951
▁circumscripte	-12.3958
medicamenteus	-12.3963
warthin	-12.3965
atherosclerose	-12.3967
grootste	-12.3967
totale	-12.3968
gemedieerde	-12.3986
sen	-12.3994
▁groene	-12.3995
geassocieerde	-12.4
vcm	-12.401
▁centrilobulair	-12.401
▁fra	-12.4018
▁vergeleken	-12.4021
▁vloeibare	-12.4021
▁malperfusie	-12.4021
▁gebeuren	-12.4021
▁habitus	-12.4022
▁lijkschouwer	-12.4022
▁thuissituatie	-12.4022
▁pneumocyten	-12.4022
▁hepatogene	-12.4022
▁herbeoordeeld	-12.4022
less	-12.4023
▁asymmetrie	-12.4023
▁semirecent	-12.4024
▁objectiveren	-12.4025
▁bloeddrukdaling	-12.403
▁adem	-12.403
▁daadwerkelijk	-12.4034
▁dupuytren	-12.4034
▁hypoglycaemie	-12.4034
▁locoregionaal	-12.4034
▁bijzijn	-12.4036
▁necrosis	-12.4043
▁linkeroor	-12.4045
▁rad	-12.4047
▁knobbel	-12.4049
jwo	-12.4051
▁nasopharyn	-12.4051
▁volgend	-12.4052
▁luchthoudende	-12.4053
▁geprikkelde	-12.4056
dis	-12.4058
▁cardioversie	-12.4059
respiratoir	-12.4059
myocarditis	-12.4064
▁kaar	-12.4065
▁order	-12.4066
▁gerapporteerd	-12.4068
▁vader	-12.4068
▁parasternaal	-12.4068
▁zoek	-12.407
▁thermisch	-12.4076
▁sish	-12.4078
▁fysiologisch	-12.4085
stig	-12.409
centrum	-12.4091
▁anhydramnion	-12.4093
forse	-12.4105
pathie	-12.4115
▁tumornegatief	-12.4116
▁cataract	-12.4129
station	-12.413
afdeling	-12.4138
▁embryonaal	-12.4138
▁slot	-12.4141
▁conisatie	-12.4148
kwab	-12.4154
▁veneus	-12.4157
knoop	-12.4159
ulceratie	-12.4159
▁halsklier	-12.4161
▁basaloide	-12.4162
intravasa	-12.4163
waaronder	-12.4163
minimaal	-12.4164
▁vermeldde	-12.4168
nbt	-12.4176
▁incontinentie	-12.4187
▁uitblijven	-12.4187
stations	-12.419
▁linkerbovenarm	-12.4193
▁dwars	-12.42
▁block	-12.4205
▁apoptose	-12.421
▁tandenrij	-12.421
▁doorwoekerd	-12.421
▁feochromocytoom	-12.421
▁gestorven	-12.421
▁gladwandig	-12.421
▁hoofdzakelijk	-12.421
▁kernbasofilie	-12.421
▁onscherp	-12.421
▁overleefd	-12.421
▁suggereren	-12.421
▁buurt	-12.421
▁hartactie	-12.421
▁polikliniek	-12.421
▁parotidectomie	-12.421
▁donkerrood	-12.421
▁hersendood	-12.421
duodenectomie	-12.421
▁cryptitis	-12.421
endarteriectomie	-12.421
▁flink	-12.421
▁bolvormig	-12.421
▁slijmerig	-12.4211
▁moeheid	-12.4211
▁opleveren	-12.4211
immunoblastair	-12.4211
▁frontaalkwab	-12.4211
irritatiefibroom	-12.4212
▁passagere	-12.4212
proeflaparotomie	-12.4212
▁evenwicht	-12.4213
▁hras	-12.4213
▁kinderen	-12.4214
▁distributie	-12.4215
▁hematoomvorming	-12.4216
▁pcp	-12.4216
punt	-12.4217
vlak	-12.4219
▁gecorrigeerd	-12.4223
▁niertumor	-12.4224
▁paars	-12.4228
▁verruceus	-12.423
▁klierbuis	-12.423
▁vasculitisbeeld	-12.423
▁weefselstukje	-12.4232
▁addison	-12.4232
▁competent	-12.4232
▁hemangiomen	-12.4232
▁sterfte	-12.4232
▁colorectal	-12.4232
▁slijmvliezen	-12.4232
▁internist	-12.4233
▁stenting	-12.4233
▁tumorhaardjes	-12.4235
▁infiltraatjes	-12.4235
▁wangslijmvlies	-12.4236
vl	-12.424
▁prostaticus	-12.4249
▁zijkant	-12.425
prerenale	-12.4254
▁daaren	-12.4259
▁verwekkers	-12.4264
▁ijzerkleuring	-12.4272
▁cystevorming	-12.4273
▁schrompeling	-12.4273
▁dijbeen	-12.4275
cis	-12.4279
recidiverende	-12.4285
▁stembanden	-12.4286
▁ven	-12.4302
▁onrijp	-12.4303
▁huidshavebiopt	-12.4306
▁amnion	-12.4313
▁leucocyten	-12.4322
ductaalcarcinoma	-12.4326
▁maagantrumbiopt	-12.4336
prostatisch	-12.4346
ton	-12.4346
was	-12.435
occlusive	-12.4352
▁tki	-12.4355
traumatisch	-12.436
endometriosis	-12.4361
abortus	-12.4362
high	-12.4362
oesofagitis	-12.4362
laboratorium	-12.4362
verhoornend	-12.4362
ablatio	-12.4362
postmortale	-12.4363
▁seborroisch	-12.4363
▁droge	-12.4364
▁spierwand	-12.4365
▁macronodulair	-12.4366
sinds	-12.4367
tegen	-12.4368
▁aangeleverd	-12.4372
trioventriculair	-12.4374
▁lymfoompanel	-12.4375
effecten	-12.4376
slechts	-12.4381
▁spanningspneumo	-12.4382
▁ont	-12.4386
▁eber	-12.4387
▁vesiculair	-12.4388
▁hematopericard	-12.4394
lms	-12.4397
▁daalde	-12.4398
▁embryo	-12.4402
▁onrust	-12.4402
pectatief	-12.4402
▁meldde	-12.4402
▁strangulatie	-12.4402
▁versneld	-12.4402
▁coagulase	-12.4402
▁tracheotomie	-12.4402
▁oproep	-12.4403
▁differentieren	-12.4403
▁afstrijkbaar	-12.4403
epicrise	-12.4403
▁buikomvang	-12.4403
▁subserosaal	-12.4403
▁mitraliskleppen	-12.4404
▁willen	-12.4404
▁uitnemen	-12.4405
▁peracuut	-12.4405
▁dyspnoeklachten	-12.4406
ous	-12.4406
▁hypercapnie	-12.4407
▁wegrakingen	-12.4408
▁lymfkliertje	-12.4408
▁three	-12.4409
▁skin	-12.4413
▁leuco	-12.4415
▁rugklachten	-12.4416
druk	-12.4417
tijd	-12.4418
stabiel	-12.4423
▁eenderde	-12.4424
▁neutropene	-12.4424
▁neusbrug	-12.4424
▁inzicht	-12.443
▁presenteer	-12.443
▁*******-*******	-12.4434
▁stromatumor	-12.4435
rads	-12.4436
▁littekenreactie	-12.4439
▁tricuspidaal	-12.4442
▁spoor	-12.4445
▁gevormde	-12.4449
▁biamniotische	-12.4456
uitstortingen	-12.4458
▁variaties	-12.4459
▁ventriculitis	-12.446
▁dunwandige	-12.446
▁halsvaten	-12.4462
▁amiodarone	-12.4464
▁celtype	-12.4472
▁dlbcl	-12.4475
tachycardie	-12.4479
▁verkleefde	-12.4481
▁glazig	-12.4481
witte	-12.4483
▁asbest	-12.4492
▁laatst	-12.4492
▁geheugen	-12.4498
bifemorale	-12.4498
▁segmentkernige	-12.4501
aortaklep	-12.4502
▁reticuline	-12.4515
▁wer	-12.4519
▁kweekuitslag	-12.4526
▁vaatstuwing	-12.4541
▁knieen	-12.4543
pta	-12.4552
▁mortem	-12.4555
breuk	-12.4561
overwegend	-12.4567
ruiterembolus	-12.4567
ileum	-12.4567
radiotherapie	-12.4567
atelectase	-12.4568
nten	-12.4569
pdl	-12.4569
aard	-12.457
▁fragiel	-12.4577
schade	-12.4577
▁immunokleuring	-12.4578
▁nodule	-12.4589
▁bruine	-12.459
▁dosering	-12.4591
levergewicht	-12.4592
▁mitochondrial	-12.4593
▁mucine	-12.4595
▁gedaald	-12.4599
▁gedenudeerd	-12.4599
▁hyperkeratotica	-12.4599
▁omschreven	-12.4599
▁uitvoerig	-12.4599
▁epigastrio	-12.4599
▁stilstaand	-12.4599
▁bijtfibroom	-12.4599
▁thyroiditis	-12.4599
▁kwast	-12.4599
▁passieve	-12.4599
▁breukzak	-12.4599
▁klepslippen	-12.4599
▁turner	-12.4599
▁afspraak	-12.4599
▁cerebelli	-12.4599
▁verwijs	-12.46
▁segmentectomie	-12.4601
▁neemt	-12.4601
▁uitzaaiingen	-12.4602
▁ondervulling	-12.4605
▁blaasmucosa	-12.4606
▁mortaal	-12.4607
inklemmingsbeeld	-12.461
▁endometritis	-12.4612
▁vergroenend	-12.4612
rrent	-12.4612
▁feitelijk	-12.4613
▁turp	-12.4618
▁avl	-12.4621
▁sintrom	-12.4621
▁papillomatose	-12.4621
▁longemphyseem	-12.4622
gecompromiteerde	-12.4624
zegelringceltype	-12.4636
▁passageklachten	-12.4639
hoofdstamstenose	-12.464
▁tip	-12.4643
ment	-12.4645
▁geamplificeerd	-12.4648
▁verblijf	-12.4648
▁genitaal	-12.4649
▁maagfundus	-12.4649
die	-12.465
▁brickers	-12.4652
▁enteropathie	-12.4657
▁subcarinaal	-12.4657
▁representatieve	-12.4666
rg	-12.4674
▁aaaa	-12.4683
hb	-12.4697
▁oogt	-12.47
▁acanthotisch	-12.47
▁parvo	-12.4702
▁maagcorpusbiopt	-12.4704
rd	-12.4709
respons	-12.471
laesies	-12.473
▁tal	-12.4732
▁vergevorderde	-12.4748
▁banal	-12.4751
side	-12.4757
boog	-12.4759
▁microglia	-12.4761
▁tavi	-12.4762
▁immuunsuppressi	-12.4763
mid	-12.4763
▁spierbiopt	-12.4767
▁dens	-12.4769
colloid	-12.4772
lumen	-12.4772
hyaliene	-12.4774
tezamen	-12.4775
restlumen	-12.4775
differentiaal	-12.4775
progressieve	-12.4775
dagen	-12.4781
▁aanvragen	-12.4787
ans	-12.4789
▁risicofactor	-12.4791
organisme	-12.4793
poliepectomie	-12.4798
▁sectio	-12.4798
smaceldyscrasie	-12.4799
▁geloosd	-12.4799
▁gezakt	-12.4799
▁gemeentelijk	-12.4799
▁femoris	-12.4799
▁pyela	-12.4799
▁miniem	-12.4799
flowcytometrisch	-12.4799
▁puntbloedingen	-12.4799
▁weerstand	-12.4799
▁overgegaan	-12.4799
▁omentalis	-12.4799
▁eindigend	-12.4801
▁galblaasbed	-12.4802
▁spiercellen	-12.4803
▁dichtbij	-12.4806
▁ketens	-12.4806
▁ejectiefractie	-12.4806
▁enucleatie	-12.4806
lijkbaar	-12.4808
▁carinii	-12.4812
▁longcirculatie	-12.4816
▁pral	-12.4817
uebloedingen	-12.4819
▁mengbeeld	-12.4822
▁klierweefsel	-12.4825
▁details	-12.4831
hypertrofisch	-12.4839
▁ingestuurde	-12.4845
▁plasma	-12.4846
▁pocket	-12.4849
▁lues	-12.485
▁ondervelden	-12.4854
dus	-12.4856
ligodendroglioom	-12.4859
cisiepreparaten	-12.4862
▁tag	-12.4863
▁pool	-12.4866
▁delay	-12.4866
▁heer	-12.4869
fibroma	-12.4869
▁decidual	-12.4869
▁indirect	-12.487
aspect	-12.4872
▁littekentjes	-12.4872
▁optie	-12.4881
stomp	-12.4882
▁rechtsfalen	-12.4883
▁mag	-12.4886
▁overgangstype	-12.4892
▁vermindering	-12.4895
▁junctione	-12.4896
▁gere	-12.4897
▁omtrek	-12.4898
▁porto	-12.4902
▁calcinosis	-12.4904
▁atm	-12.4904
▁plaatste	-12.491
▁buis	-12.4913
▁superficial	-12.4915
atrium	-12.4933
ruim	-12.4933
▁passage	-12.4937
▁ewing	-12.4941
▁nierschors	-12.4948
▁spinal	-12.4957
scheur	-12.4963
▁terme	-12.4973
ysma	-12.4974
tumorgrootte	-12.4979
parenchymateus	-12.4979
▁borstholte	-12.498
▁granulatie	-12.4983
▁emc	-12.4985
merg	-12.4986
body	-12.4986
worden	-12.4987
positiviteit	-12.4987
termijn	-12.4987
neuspunt	-12.4987
bovenlip	-12.4988
lekkage	-12.4988
gleasonscore	-12.4989
▁pectoralis	-12.4989
vrijwel	-12.499
afhankelijk	-12.499
▁uitsluit	-12.4994
alleen	-12.4996
▁uitbreidde	-12.5
▁aortakunstklep	-12.5
▁vv	-12.5
▁lithium	-12.5002
effort	-12.5003
▁aanbeveling	-12.5003
▁candidiasis	-12.5003
▁chorionvlokken	-12.5003
▁stemplooi	-12.5003
▁strikt	-12.5003
▁woning	-12.5003
▁osteosarcoom	-12.5003
▁grofdruppelig	-12.5003
▁verwondingen	-12.5003
▁immunoloog	-12.5003
▁rontgenfoto	-12.5003
▁schedelomtrek	-12.5003
▁pneumonectomie	-12.5004
cystadenofibroom	-12.5004
reperfusieschade	-12.5004
▁subtypering	-12.5004
▁pyelonephritis	-12.5017
▁cervicitis	-12.5017
ret	-12.5025
▁zonodig	-12.5026
▁versmald	-12.5028
▁hard	-12.5033
regressie	-12.5036
proliferatief	-12.5038
▁detubatie	-12.5043
▁afweer	-12.5044
▁ein	-12.5047
▁versterkt	-12.5048
▁redelijke	-12.5049
▁wandstandig	-12.5054
▁gezond	-12.5067
▁bacteria	-12.5068
▁rectumbiopt	-12.5078
alis	-12.5083
▁tumorresten	-12.509
▁atrial	-12.5091
rode	-12.5093
illaire	-12.5099
uitgebreid	-12.5099
▁bank	-12.5107
▁turt	-12.5122
lr	-12.5123
emfyseem	-12.5124
pot	-12.513
zijn	-12.514
▁archer	-12.5146
▁mono	-12.5149
sporadische	-12.5151
▁vg	-12.5154
▁berustte	-12.5161
▁circumferentie	-12.5172
send	-12.518
femorale	-12.5185
▁eerstegraads	-12.5193
▁opkomende	-12.5193
▁fistelgang	-12.5193
▁sneden	-12.5201
coriatie	-12.5202
bv	-12.5202
▁paraffinecoupe	-12.5202
oorspronkelijk	-12.5202
concentratie	-12.5203
motiliteit	-12.5203
▁anal	-12.5204
pneumoniehaarden	-12.5204
tweede	-12.5204
lambda	-12.5204
ondanks	-12.5205
helder	-12.5205
infectieuze	-12.5205
galblaas	-12.5205
enterostomie	-12.5211
ytoca	-12.5211
▁autopsie	-12.5211
▁autopsy	-12.5211
▁cyanotisch	-12.5211
▁glanzend	-12.5211
▁plasmacytoom	-12.5211
▁selectieve	-12.5211
▁wakker	-12.5211
▁down	-12.5211
▁verenigbaar	-12.5211
▁coccoide	-12.5211
▁ileopsoas	-12.5211
▁standaard	-12.5211
▁afsplitsing	-12.5211
▁notch	-12.5211
▁mononier	-12.5211
▁acetabulum	-12.5212
▁atroof	-12.5212
▁slotte	-12.5212
▁pyogenes	-12.5212
▁bijzonderheid	-12.5213
▁markeronderzoek	-12.5214
▁naevocellulares	-12.5214
si	-12.5217
▁mycobacterie	-12.522
soorzaak	-12.5221
▁granulo	-12.5224
▁somscore	-12.5226
▁binnenste	-12.5226
▁hysteroscopisch	-12.5226
▁spoelcel	-12.5227
▁tumorkenmerken	-12.5231
ptnm	-12.5232
▁navelbreuk	-12.5233
▁zenuwen	-12.5234
▁embolectomie	-12.5235
▁epidermoidcyste	-12.5235
▁vitamine	-12.5235
▁groepje	-12.5236
▁longarts	-12.5238
▁linkerlies	-12.5239
rood	-12.5242
▁radiologie	-12.5244
▁romphuidtype	-12.5245
▁meningeale	-12.5245
▁getuige	-12.5249
dig	-12.5249
▁ingesneden	-12.5251
▁hernieuwd	-12.5254
tumoren	-12.5257
▁bypassoperatie	-12.5258
degeneratie	-12.5259
▁ulceroflegmoneu	-12.5259
▁postmortem	-12.5264
uente	-12.5268
▁stoel	-12.5272
▁pouch	-12.5273
▁vaginaal	-12.5278
▁circumscript	-12.5281
▁mlpa	-12.5296
▁aberrant	-12.5301
▁chemie	-12.5303
▁digiti	-12.5305
▁diameters	-12.5307
ln	-12.5307
stk	-12.5312
▁renal	-12.5316
▁seborrhoisch	-12.5321
cardiaresectie	-12.5322
▁cholestatische	-12.5327
▁mesotheliomen	-12.5328
▁linkerflank	-12.5328
▁thoracolumba	-12.5329
▁ber	-12.5331
▁probe	-12.5334
▁mgmt	-12.534
antho	-12.5341
▁data	-12.5344
▁metaplastische	-12.535
▁tijdelijke	-12.5355
▁planocellulair	-12.5359
idiopathische	-12.5371
▁large	-12.5371
sus	-12.5379
ker	-12.538
geel	-12.5389
▁grillige	-12.5396
pen	-12.54
wa	-12.5412
receptoren	-12.5415
double	-12.5416
sel	-12.5418
▁opge	-12.5419
cerebrale	-12.5423
▁coronarius	-12.5424
▁fumigatus	-12.5424
▁geobserveerd	-12.5424
▁hartmassage	-12.5424
▁schrijven	-12.5424
▁uitgerijpt	-12.5424
▁verstandelijk	-12.5424
▁basillaris	-12.5424
▁cardiologisch	-12.5424
▁scannen	-12.5424
▁autonom	-12.5424
▁myomen	-12.5424
▁comorbiditeit	-12.5424
▁blastentoename	-12.5424
▁lvaw	-12.5424
▁achterliggend	-12.5425
▁digniteit	-12.5425
angiografie	-12.5425
▁aangemerkt	-12.5426
▁vaatpathologie	-12.5426
herpes	-12.5426
▁immuunhistologi	-12.5427
▁aetiologie	-12.5427
anaplastisch	-12.5427
▁lymfocyt	-12.5427
jli	-12.5428
oesofagus	-12.5428
lymfoide	-12.5428
▁botvorming	-12.5428
▁ni	-12.5429
▁rosea	-12.5429
▁brunners	-12.5429
▁electric	-12.543
................	-12.543
kwantitatie	-12.5434
herzfehlercellen	-12.5435
naal	-12.5435
▁onmogelijk	-12.5436
volumepercentage	-12.5436
▁mbv	-12.5437
▁rillingen	-12.5439
▁leverschade	-12.5446
▁catheterisatie	-12.5446
▁chromogranine	-12.5448
▁iliopsoas	-12.5448
▁vakantie	-12.5448
▁spierzwakte	-12.5448
▁pacemakerdraad	-12.5448
pi	-12.5449
rijk	-12.5457
▁desmoplastisch	-12.5458
▁ema	-12.5461
▁klepvegetaties	-12.5466
▁dermatomyositis	-12.5467
▁hersenhemisfeer	-12.5468
▁obstructies	-12.547
▁huiddefect	-12.5485
▁verslijmend	-12.5487
ab	-12.5489
▁helderen	-12.5489
▁oligo	-12.5493
▁staafvormige	-12.5498
▁mallory	-12.5506
▁vaatziekten	-12.5507
▁sclerae	-12.5508
▁grauw	-12.5511
▁lissen	-12.5512
▁drug	-12.5514
vervullingsbeeld	-12.5519
▁stevige	-12.5522
▁gedeeltelijke	-12.5529
ventrale	-12.5531
▁globu	-12.5532
▁koud	-12.5537
▁tumorcel	-12.555
▁loc	-12.5556
▁foveolaire	-12.5557
▁gecalcificeerde	-12.5567
voet	-12.557
▁follikels	-12.5574
infiltraat	-12.5576
▁stembandpoliep	-12.559
licht	-12.5592
▁bronchuss	-12.5594
▁ypt	-12.5596
▁not	-12.5596
terminaal	-12.5601
▁intraepidermal	-12.5611
anafylacti	-12.5613
off	-12.5614
dorsaal	-12.5616
▁glycogeen	-12.5617
▁sluitend	-12.5619
belemmering	-12.5619
uitval	-12.562
ion	-12.5621
▁vochtcollectie	-12.5632
cisiebiopten	-12.5633
▁element	-12.5633
hippocampale	-12.5639
▁activity	-12.5641
▁hyperthermie	-12.5641
▁intermittens	-12.5641
▁partner	-12.5641
▁silicose	-12.5641
▁syringoom	-12.5641
▁palga	-12.5641
▁laryngectomie	-12.5641
▁kilo	-12.5641
▁nucleoli	-12.5641
▁afvallen	-12.5641
▁jongeman	-12.5642
▁vaatsysteem	-12.5642
▁superinfectie	-12.5642
▁bloedingsplaats	-12.5642
▁vetlaag	-12.5642
▁lymfoma	-12.5642
▁hage	-12.5643
▁unci	-12.5643
opmerking	-12.5643
▁reepjes	-12.5644
▁longhili	-12.5644
angiomateuze	-12.5647
▁manus	-12.5648
▁duodenummucosa	-12.5649
▁ontbraken	-12.5652
want	-12.5653
richardson	-12.5654
aanwezigheid	-12.5655
kappa	-12.5655
dm	-12.5655
nefropathie	-12.5655
▁zon	-12.5656
pericard	-12.5656
ramus	-12.5659
▁bekkenwand	-12.5663
▁cordarone	-12.5666
▁pleurazwoerd	-12.5666
▁pipellebiopt	-12.5666
▁reeel	-12.5667
▁interval	-12.5667
▁ccu	-12.5667
▁fenotypisch	-12.5669
▁verkleurde	-12.567
stoma	-12.567
▁bronchiectasie	-12.5672
▁dystrof	-12.5675
maagbiopten	-12.5677
mss	-12.5678
▁sturen	-12.5678
▁manifestatie	-12.5678
houdende	-12.5681
▁specimen	-12.5684
▁artrose	-12.5684
▁heden	-12.5686
▁petechiale	-12.5686
rechterhemisfeer	-12.5687
▁miltinfarcten	-12.5689
▁nash	-12.5689
▁clips	-12.5693
ingsstoornissen	-12.5694
▁ingevangen	-12.5696
insertie	-12.5697
▁reversibele	-12.5702
halve	-12.5704
lv	-12.5705
▁arteritis	-12.5706
peritonitisbeeld	-12.5709
▁mt	-12.5711
oli	-12.5712
▁hemosiderine	-12.5712
▁there	-12.5713
▁overall	-12.5717
▁gb	-12.5721
▁rechterhand	-12.5723
▁melanosis	-12.5724
tracapsulair	-12.5727
▁kl	-12.5729
▁leverhaarden	-12.573
▁cystevocht	-12.5731
▁recto	-12.5742
dometriumpipelle	-12.5744
▁meckel	-12.5746
derhalve	-12.5747
mmuundeficientie	-12.5748
tractie	-12.5761
▁remmers	-12.5762
▁inwerking	-12.5765
▁vd	-12.5765
▁wandverdikking	-12.5766
▁inname	-12.5777
▁palpabel	-12.5778
leukemie	-12.578
bus	-12.5781
▁haemochromatose	-12.5783
satelliethaarden	-12.5789
▁micropapillair	-12.5791
haemorrhagische	-12.5797
▁satelliet	-12.5801
massa	-12.5802
kamer	-12.581
klepplastiek	-12.5812
▁vezel	-12.5814
▁lipoma	-12.5817
ocytaire	-12.5823
▁falend	-12.5829
defecten	-12.5829
bil	-12.5848
▁hersenbasis	-12.5849
immuunziekte	-12.585
▁verlittekende	-12.5852
genetisch	-12.5861
▁ams	-12.5862
iparine	-12.5863
▁chalazion	-12.5863
▁geretourneerd	-12.5863
▁geschrompeld	-12.5863
▁krachtsverlies	-12.5863
▁miniscu	-12.5863
▁perfringens	-12.5863
▁prematurus	-12.5863
▁volumineus	-12.5863
▁justitie	-12.5863
▁ontstolling	-12.5863
▁voortschrijdend	-12.5863
parathyreoidie	-12.5863
▁losmazig	-12.5863
▁dubreuilh	-12.5863
----------------	-12.5864
▁schimmelsporen	-12.5864
▁crisis	-12.5864
▁biochemisch	-12.5864
▁lymfangioom	-12.5864
▁neusgang	-12.5865
▁doodsoorzaken	-12.5865
rachiocephalicus	-12.5865
▁achteraf	-12.5865
▁lukte	-12.5865
▁tonsillair	-12.5865
▁linkerhemisfeer	-12.5866
morbiditeit	-12.5866
▁foeto	-12.5867
▁contusiehaarden	-12.5867
▁hyperemie	-12.5867
timahyperplasie	-12.5869
▁erythropoiese	-12.5869
folliculitis	-12.587
▁prionziekte	-12.5875
▁duizeligheid	-12.5879
▁vochtig	-12.5882
iliaca	-12.5884
small	-12.5885
▁substantiel	-12.5886
▁nierlijden	-12.5886
▁rechteroor	-12.5887
fatty	-12.5887
spina	-12.5887
▁levercysten	-12.5887
papmilt	-12.5888
▁verhoging	-12.5889
▁sputumkweek	-12.589
▁pneumo	-12.5891
myocardinfarct	-12.5891
trans	-12.5894
copd	-12.5894
hi	-12.5894
hvd	-12.5896
▁verklaringen	-12.5896
▁verplaatsing	-12.5898
▁aids	-12.5899
▁verklaarbaar	-12.5899
▁nierinfarcten	-12.59
▁longgewicht	-12.5903
▁bronchiolo	-12.5907
anti	-12.5909
resectieranden	-12.5909
ieve	-12.5909
ica	-12.5911
▁mening	-12.5912
▁hla	-12.5914
▁ventriculair	-12.5919
▁middelen	-12.5922
kleuringspatroon	-12.5925
▁gaand	-12.5927
▁gestegen	-12.5929
▁verwekingshaard	-12.5929
titis	-12.5934
▁rectumresectie	-12.5936
nodale	-12.5937
▁verklarend	-12.5938
zone	-12.5939
▁abruptio	-12.594
▁neoplastische	-12.5941
▁mib	-12.5942
▁polymorf	-12.5946
▁case	-12.5946
▁fundustype	-12.5949
▁homogeen	-12.595
▁micr	-12.5954
▁rechteronderarm	-12.5955
▁wijze	-12.5962
eerder	-12.5967
▁pakket	-12.5971
bacter	-12.5973
gegevens	-12.5981
▁retina	-12.5982
erde	-12.5987
▁chop	-12.5989
spiegels	-12.5989
▁teleangiectasie	-12.5995
▁peritoneumbiopt	-12.6001
▁rechtsonder	-12.6002
angiogram	-12.6005
bloeduitstorting	-12.6027
▁rectale	-12.6034
plotselinge	-12.6046
ire	-12.6049
▁total	-12.6052
▁biometrie	-12.6055
▁vari	-12.6057
▁are	-12.6073
▁area	-12.6075
▁glia	-12.6079
▁beland	-12.6079
▁volwassen	-12.6082
▁atheroom	-12.6083
▁chemotherapeuti	-12.6085
▁evalueren	-12.6091
▁hallucinaties	-12.6091
▁imbibitie	-12.6091
▁vascularisatie	-12.6091
▁verbonden	-12.6091
▁vulnerabel	-12.6091
▁dermatomycose	-12.6091
▁gescand	-12.6091
▁anteroseptale	-12.6091
▁fallot	-12.6091
▁disseminatie	-12.6091
▁junctie	-12.6091
▁afgebroken	-12.6091
▁lateralis	-12.6091
▁kiemceltumor	-12.6091
▁cholestasis	-12.6091
idasereactie	-12.6091
▁keratinocyten	-12.6091
▁sinussen	-12.6091
▁ecchymosen	-12.6091
▁nood	-12.6092
iga	-12.6092
▁anisocorie	-12.6092
▁zenuwweefsel	-12.6092
▁infectiebron	-12.6092
▁uitdrukbaar	-12.6093
▁diagnosis	-12.6093
sanders	-12.6093
▁pigmenthoudend	-12.6095
▁floride	-12.6096
▁aantallen	-12.6096
▁stafylokokken	-12.6096
▁megakaryopoese	-12.6096
beoordeling	-12.6102
onbehandelbare	-12.6103
amyloiddepositie	-12.6106
▁gespaard	-12.6106
ash	-12.6107
▁sup	-12.6108
hoeft	-12.6113
▁apnoe	-12.6116
▁tuberculosis	-12.6117
sll	-12.6117
▁haemophil	-12.6117
▁zoom	-12.6118
▁lymfvat	-12.612
▁maagklachten	-12.612
micronodulaire	-12.6122
structuur	-12.6123
▁immunologische	-12.6124
▁rb	-12.6125
▁begeleid	-12.6125
chemotherapie	-12.6125
medicatie	-12.6126
systemische	-12.6126
groeiwijze	-12.6126
rectosigmoid	-12.6126
▁polydactylie	-12.6127
▁nefrotisch	-12.6127
lauw	-12.6128
ventraal	-12.6128
▁paracolisch	-12.6128
hetgeen	-12.613
▁gevoeld	-12.6132
az	-12.6132
astrocytoom	-12.6132
▁plana	-12.6134
▁bap	-12.6135
rc	-12.6137
▁endstage	-12.6138
▁tubulusatrofie	-12.6138
▁fibroblast	-12.6138
▁intrekking	-12.614
▁kamers	-12.614
premortale	-12.6149
▁apneu	-12.6151
heids	-12.6157
▁sleutelbeen	-12.6158
▁melan	-12.6178
been	-12.6185
▁assistent	-12.6185
▁punten	-12.6186
▁contra	-12.6188
▁antitrypsine	-12.6191
db	-12.621
▁weker	-12.6213
sgroep	-12.6216
▁ovariumcyste	-12.6227
▁perinatal	-12.6235
sonderzoek	-12.6235
▁polycythaemi	-12.6253
▁lokatie	-12.6259
▁maagoperatie	-12.6261
▁aansnijding	-12.6264
▁hepatico	-12.6264
epidermaal	-12.6269
▁echte	-12.6273
septumruptuur	-12.6273
▁stilstand	-12.6274
▁markering	-12.6277
▁restlaesie	-12.6277
▁afgekapseld	-12.6291
▁dic	-12.6294
stand	-12.6303
▁diastolisch	-12.631
▁plekje	-12.6314
▁klepblad	-12.6315
▁parametria	-12.6316
▁systeemziekte	-12.6321
▁bedlegerig	-12.6323
heidshalve	-12.6323
profiel	-12.6323
clusionem	-12.6323
elaatsdysmorfien	-12.6323
▁decursus	-12.6323
▁graves	-12.6323
▁spliet	-12.6323
▁trabeculatie	-12.6323
▁varicella	-12.6323
▁voelen	-12.6323
▁centrifugum	-12.6323
▁granulopoiese	-12.6323
▁immaturiteit	-12.6323
▁platform	-12.6323
▁losgelaten	-12.6323
▁siderose	-12.6323
▁microcytaire	-12.6323
▁periportaal	-12.6323
▁poroom	-12.6323
▁perirectale	-12.6323
▁intracranieel	-12.6323
▁ascal	-12.6324
infraclaviculair	-12.6324
▁array	-12.6324
▁zegelringcellen	-12.6324
▁uitgegaan	-12.6325
▁kapseldoorgroei	-12.6325
▁coecumbodem	-12.6325
uze	-12.6325
▁pericolisch	-12.6325
▁chiari	-12.6327
▁sporten	-12.6328
▁afstrijkba	-12.6329
▁thromboembolus	-12.633
▁aangesneden	-12.633
▁femorales	-12.633
apocriene	-12.633
▁mammasparend	-12.6331
▁lymfvaten	-12.6332
ga	-12.6333
▁wal	-12.6334
gerelateerd	-12.6336
▁loge	-12.6338
▁zuurstofbehoeft	-12.634
▁effusie	-12.634
▁bol	-12.6344
▁cast	-12.6344
besproken	-12.6344
▁steunt	-12.6346
▁thal	-12.6346
thrombi	-12.6349
▁concha	-12.635
▁afstoting	-12.635
▁torsie	-12.635
▁overgangsgebied	-12.6351
▁overhechte	-12.6351
che	-12.6351
▁teveel	-12.6353
hy	-12.6354
▁microvasculair	-12.6354
peritoneum	-12.6359
▁intraperitoneal	-12.6359
▁myocardruptuur	-12.6359
ileus	-12.6362
urine	-12.6364
▁vaatlaesie	-12.6365
naschrift	-12.6367
▁chordae	-12.6368
▁buikspoelvocht	-12.6368
▁ontlast	-12.6368
onderlip	-12.6369
osis	-12.637
▁bridging	-12.6371
▁alcian	-12.6371
zwelling	-12.6372
▁serosaal	-12.6372
▁keten	-12.6373
▁overlap	-12.6373
zins	-12.6374
werking	-12.6378
▁adenovirus	-12.6382
▁gereseceerde	-12.6383
com	-12.6383
personeel	-12.6388
ft	-12.6389
▁beperking	-12.6391
▁diepste	-12.6395
▁necrosehaardjes	-12.6405
▁hypereosinofiel	-12.6408
▁verbleking	-12.6418
poliepen	-12.6419
▁uitzichtlo	-12.6421
ptr	-12.6421
liter	-12.6433
▁pica	-12.6437
▁fimbriae	-12.6442
▁beenmergembolie	-12.6443
▁pockets	-12.6445
tri	-12.6451
operatielitteken	-12.6452
endo	-12.6454
omentum	-12.6455
▁ldt	-12.6457
▁support	-12.6459
▁reinfarcering	-12.6459
▁microsc	-12.6459
gal	-12.6461
ypt	-12.6467
rijpingsstoornis	-12.6482
▁rechterbovenarm	-12.6489
di	-12.649
voorlopige	-12.649
uire	-12.6508
▁oncocytaire	-12.6514
▁schil	-12.6523
▁sinusoidale	-12.6535
▁secretoire	-12.6537
▁opheldering	-12.6552
▁correct	-12.6555
formatie	-12.6557
▁additione	-12.6557
volgende	-12.6559
▁griep	-12.6561
▁objectiveerba	-12.6561
entorhinal	-12.6561
rhabdomyosarcoom	-12.6561
▁arterosclerose	-12.6561
▁gesitueerd	-12.6561
▁malleolus	-12.6561
▁marcescens	-12.6561
▁spreading	-12.6561
▁uitwijzen	-12.6561
▁volumineuze	-12.6561
▁ballonpomp	-12.6561
▁aanvoerend	-12.6561
▁detecteerbaar	-12.6561
▁staafjes	-12.6561
▁generaliseerde	-12.6562
eleangiectaticum	-12.6562
▁slijmstase	-12.6562
▁omheen	-12.6563
og	-12.6564
▁anore	-12.6564
▁slijmvorming	-12.6565
▁voorstelbaar	-12.6565
▁placentavolume	-12.6567
▁behandelopties	-12.6567
icrocalcificatie	-12.6568
▁loopstoornissen	-12.6568
▁botten	-12.6569
focus	-12.657
▁uitbreiden	-12.657
▁lekkend	-12.6571
▁rechterovarium	-12.6575
▁stijgende	-12.6576
adeno	-12.6577
▁niessen	-12.6578
▁mooi	-12.6578
▁proliferaties	-12.6578
▁cauda	-12.6584
ding	-12.6585
stijging	-12.6588
▁parametrium	-12.6589
▁neuroloog	-12.6589
▁nierkapsel	-12.6589
stapeling	-12.659
klierprocedure	-12.659
▁aanhangend	-12.659
▁melkgang	-12.659
von	-12.6593
▁dak	-12.6595
▁plaat	-12.6595
▁aplastische	-12.6597
thrombus	-12.6599
▁oncologisch	-12.6599
▁ulceratief	-12.66
wi	-12.66
congofiele	-12.6601
▁remmer	-12.6601
▁epidurale	-12.661
encephalitis	-12.6611
▁smo	-12.6611
mortem	-12.6613
seborroisch	-12.6615
betreffende	-12.6617
melanoom	-12.6617
reanimatie	-12.6618
pityriasis	-12.6618
acinair	-12.6618
▁opticus	-12.6618
bulbus	-12.6618
scalp	-12.6618
▁reele	-12.6619
neusvleugel	-12.6619
staphylococcus	-12.6619
kruin	-12.6619
bevestigd	-12.6619
daarnaast	-12.6619
hooguit	-12.662
agonale	-12.662
lytische	-12.6622
allergische	-12.6623
plm	-12.663
bruin	-12.6638
▁placentair	-12.6639
▁verloopt	-12.6639
▁histiocytose	-12.665
behouden	-12.6653
▁jukbeen	-12.6654
sgewijze	-12.6657
duodenale	-12.666
▁bioklep	-12.6663
▁gewrichten	-12.6666
▁blaasresectie	-12.6666
▁gelijkende	-12.6669
▁vooraf	-12.6671
▁matri	-12.6672
▁mislukt	-12.6673
▁gat	-12.6676
▁rabdomyolyse	-12.6677
ymfoplasmocytair	-12.6682
littekens	-12.6683
▁oesofagusbiopt	-12.669
vasculair	-12.6691
▁klepprothese	-12.6694
pijn	-12.6694
▁aanvallen	-12.6697
▁hidradenitis	-12.6698
▁longkweek	-12.6699
rsc	-12.67
▁perihilaire	-12.6712
▁steatotische	-12.6713
nh	-12.6713
▁hepatisch	-12.6715
▁signaal	-12.672
toestand	-12.6722
▁reserve	-12.6727
▁techniek	-12.673
▁pijnlijke	-12.6732
atypie	-12.6733
▁groenig	-12.6742
ape	-12.6746
▁ta	-12.6755
cht	-12.6761
galgangcarcinoom	-12.6762
▁contralatera	-12.6768
po	-12.6771
▁aktieve	-12.6774
▁routine	-12.6778
handrug	-12.6778
pn	-12.6778
▁afstands	-12.6781
ary	-12.6783
▁mar	-12.6789
▁intermitterend	-12.679
▁bewijzen	-12.6793
▁unit	-12.6796
▁ossificatie	-12.6796
▁wavy	-12.6798
▁femoro	-12.6805
neelsen	-12.6805
▁dermalis	-12.6805
▁desalniettemin	-12.6805
▁diurese	-12.6805
▁epidermidis	-12.6805
▁glabrata	-12.6805
▁intervillositis	-12.6805
▁melding	-12.6805
▁stricturerend	-12.6805
▁stridor	-12.6805
epitheliomateuze	-12.6805
▁obturatoria	-12.6805
▁veertien	-12.6805
▁resulteerde	-12.6805
▁beneden	-12.6805
▁wenselijk	-12.6805
▁angioleiomyoom	-12.6805
▁hechtmateriaal	-12.6805
▁lichaamshelft	-12.6806
megakaryocytaire	-12.6806
▁hersenschade	-12.6806
▁cvp	-12.6806
▁gebruikelijk	-12.6806
▁hoofdstammen	-12.6806
▁prerenaal	-12.6808
▁gemicro	-12.6809
▁aangeven	-12.681
▁mbt	-12.6811
▁msr	-12.6811
▁weigerde	-12.6812
macrotest	-12.6814
flegmoneuze	-12.6816
▁abceshaarden	-12.6816
▁inmonding	-12.6817
▁tkis	-12.6817
pansie	-12.6819
▁discordantie	-12.682
▁bronchiaalboom	-12.682
kt	-12.682
▁verrichting	-12.6821
▁lethale	-12.6822
opathie	-12.6823
▁pelvien	-12.6823
▁zinvol	-12.6824
▁psoasbloeding	-12.6825
▁gerangschikt	-12.6826
▁samenhangt	-12.6832
▁doorgebeld	-12.6833
▁duiding	-12.6834
▁erytroid	-12.6834
slaap	-12.6835
▁opportunistisch	-12.6835
ureterectomie	-12.6835
▁slokdarmbiopt	-12.6836
▁darmdeel	-12.6838
▁behandel	-12.6842
welke	-12.6842
▁pityrosporum	-12.6844
▁homozygot	-12.6846
▁bloedtransfusie	-12.6849
wig	-12.6855
▁old	-12.6858
▁neurofibromatos	-12.686
gelijk	-12.6861
▁voorvoet	-12.6863
▁muco	-12.6865
myc	-12.6866
▁vitium	-12.6867
▁lms	-12.687
autoimmuun	-12.6872
zak	-12.6873
▁ziehl	-12.6873
cellulariteit	-12.6873
somatisch	-12.6873
breslow	-12.6875
dementie	-12.6876
▁spermatogenese	-12.6877
▁placentagewicht	-12.688
▁atelectatische	-12.6882
▁ontkalking	-12.6883
▁linkerzijwand	-12.6887
▁avs	-12.6888
▁gelige	-12.6889
fu	-12.6889
▁linkercoronair	-12.6898
▁linkerarm	-12.6904
hyper	-12.6905
▁mediagebied	-12.6909
▁rima	-12.6911
▁gynaecologische	-12.6919
▁portaal	-12.6922
▁rechterflank	-12.6925
isup	-12.6926
carcinoid	-12.6926
▁necrologie	-12.6927
▁embolietjes	-12.6932
▁ttp	-12.6935
los	-12.6936
▁costa	-12.6947
▁parvovirus	-12.6964
▁red	-12.6966
▁msa	-12.6969
▁waterhouse	-12.6979
▁afvoer	-12.698
▁naam	-12.6995
▁iel	-12.7006
thr	-12.7008
▁miliaire	-12.701
ping	-12.7011
▁wk	-12.7011
▁glans	-12.7012
▁polycythemi	-12.7013
▁ecto	-12.7014
▁sick	-12.7016
▁einde	-12.7023
hypovolaemische	-12.7033
▁stug	-12.705
▁haemopericard	-12.7054
▁jump	-12.7054
▁tentamen	-12.7055
▁getypeerd	-12.7055
▁lusoria	-12.7055
▁schatten	-12.7055
▁verwaarlozing	-12.7055
▁bloedingsfoci	-12.7055
▁polyclonale	-12.7055
▁nefrostomie	-12.7055
▁venostatische	-12.7055
▁subthalamicus	-12.7055
▁enzymproef	-12.7055
▁brochopneumonie	-12.7055
▁gazen	-12.7055
▁meegenomen	-12.7055
▁motiel	-12.7055
▁supraglottisch	-12.7055
▁review	-12.7055
▁subcorticaal	-12.7055
▁nocardia	-12.7056
▁myocardinfact	-12.7057
▁groeven	-12.7058
▁slokdarmvarices	-12.7058
▁klompvoeten	-12.7059
▁zijtakken	-12.7061
▁descenderend	-12.7062
▁vasopressie	-12.7063
▁tussenliggend	-12.7063
▁kapjes	-12.7064
▁significantie	-12.7066
▁vervolgen	-12.7068
▁rechterbijnier	-12.7069
▁substantie	-12.7069
cellig	-12.7071
▁wild	-12.7072
▁uitdroging	-12.7073
▁iugr	-12.7073
▁borrelia	-12.7073
▁gasvorming	-12.7073
▁ducten	-12.7074
▁corresponderend	-12.7074
ning	-12.7084
▁stichting	-12.7084
▁leucostase	-12.7084
▁pericardiaal	-12.7087
▁tromboembolieen	-12.7089
▁uitge	-12.7093
▁giemsa	-12.7095
▁urinekweek	-12.7099
▁stel	-12.71
▁nates	-12.7107
▁bovenzijde	-12.7113
▁uitlopers	-12.7114
▁ileitis	-12.7118
▁ovariumtumor	-12.7119
▁premaligne	-12.7119
▁ongemarkeerd	-12.7121
▁mucosaal	-12.7122
▁vesiculae	-12.7124
assistent	-12.7128
circulatoire	-12.7132
fistel	-12.7133
kanaal	-12.7133
▁gewrichts	-12.7134
archer	-12.7135
destructie	-12.7138
schildklierkwab	-12.7138
granuloom	-12.7138
verdenking	-12.7139
▁boop	-12.714
pomp	-12.7141
▁kapje	-12.7142
▁kratervormige	-12.7143
▁retroplacentair	-12.7143
koa	-12.7144
▁ga	-12.7145
ys	-12.7146
▁acta	-12.7146
dieper	-12.7149
▁defibrillatie	-12.7151
▁fietsen	-12.7155
fna	-12.7155
▁epitheloid	-12.7157
▁cryptogen	-12.717
▁thrombotisch	-12.7175
band	-12.718
▁holten	-12.7182
vene	-12.7183
▁vergelijkba	-12.7184
▁roze	-12.7191
scopie	-12.7195
pan	-12.7195
this	-12.72
▁ingang	-12.7201
scopisch	-12.7205
▁uitte	-12.7206
sstoornissen	-12.7207
▁ker	-12.7213
▁incident	-12.7213
▁mu	-12.7215
▁ami	-12.7217
▁hartdilatatie	-12.722
baso	-12.7221
▁pulmonalisklep	-12.7226
▁ovarieel	-12.7227
▁bind	-12.7227
▁ventrikeldrain	-12.7229
▁verrichtte	-12.723
▁claviculair	-12.7236
▁naadlekkages	-12.7239
▁revalidatie	-12.7244
▁miltkapsel	-12.7248
let	-12.7249
▁entree	-12.7257
▁perivesica	-12.7259
▁duodenale	-12.7264
▁klatskin	-12.7268
▁ureters	-12.7277
rmatopathologie	-12.7282
▁granulaire	-12.729
▁system	-12.7291
▁middag	-12.7303
▁gezet	-12.7303
dissecteerde	-12.7307
▁vaatrijk	-12.731
▁somber	-12.7311
▁botalli	-12.7312
▁dwangstand	-12.7312
▁lijkstijfheid	-12.7312
▁rupturering	-12.7312
▁vitiligo	-12.7312
▁genummerd	-12.7312
▁leptomeningitis	-12.7312
▁lymfadenitis	-12.7312
▁obducent	-12.7312
▁verdrongen	-12.7312
▁alcoholabuses	-12.7312
▁oligurie	-12.7312
▁pinpointlumen	-12.7312
ultrastructureel	-12.7312
▁vaattekening	-12.7312
▁brickerblaas	-12.7312
▁buitenaf	-12.7312
▁steenlijden	-12.7312
▁olijfkernen	-12.7313
▁stoten	-12.7313
▁thrombosebeen	-12.7313
▁intraveneus	-12.7313
▁whi	-12.7313
▁microcirculatie	-12.7313
bot	-12.7313
onbekend	-12.7314
▁medicamenten	-12.7315
▁radius	-12.7315
▁apocrien	-12.7317
▁bijdragen	-12.7317
▁organoid	-12.7318
▁milthilus	-12.732
▁bloedinkje	-12.7321
cysten	-12.7321
▁bronchieen	-12.7322
vaatverbindingen	-12.7324
▁klepring	-12.7325
▁elektrolyten	-12.7326
▁vlakbij	-12.7328
▁diffuze	-12.7329
▁granulomateus	-12.7329
▁kransslagaders	-12.7332
geleide	-12.7332
▁thromboemboli	-12.7336
▁parasitaire	-12.7337
▁adhaesie	-12.7338
▁elektrisch	-12.7341
▁morfometrisch	-12.7341
▁perivenulair	-12.7341
▁tachypneu	-12.7341
▁antilichaam	-12.7341
▁chromosomen	-12.7343
▁blaasbodem	-12.7349
▁verbening	-12.7353
▁medium	-12.7353
bloedvoorziening	-12.7354
pulmonalistakken	-12.7362
▁pl	-12.7363
bio	-12.7364
▁potter	-12.7367
▁fem	-12.737
▁vaatafsluiting	-12.7376
▁haematogeen	-12.738
▁medio	-12.7386
▁nierdysplasie	-12.7387
anamnestisch	-12.7392
ulcera	-12.7394
trombotische	-12.7399
▁antistollings	-12.7399
polypectomie	-12.7402
krap	-12.7403
block	-12.7405
cutane	-12.7407
gemetastaseerd	-12.7409
lumbaal	-12.7409
postmortaal	-12.741
stuit	-12.741
intraductaal	-12.7418
▁transpositie	-12.7424
▁sterker	-12.7439
▁littekenachtige	-12.7441
▁schorsatrofie	-12.7442
fibroepitheliale	-12.7443
▁miltweefsel	-12.7452
▁gruis	-12.7454
circulatie	-12.7455
beperkte	-12.7457
▁poplitea	-12.7459
▁zijner	-12.7468
terale	-12.7482
ba	-12.7485
▁sclerosis	-12.7492
correctie	-12.7494
alle	-12.75
probleem	-12.7506
▁raakt	-12.7511
cardiaal	-12.752
centrale	-12.7529
▁longinfarcering	-12.754
mof	-12.7545
▁du	-12.7551
▁nav	-12.7559
▁neurogeen	-12.7563
teerd	-12.7565
▁amenorrhoe	-12.7566
▁overgrijpen	-12.7567
▁wilson	-12.7567
▁subserosa	-12.7571
▁entero	-12.7572
▁verzep	-12.7574
amethason	-12.7575
ploreerd	-12.7575
▁beademen	-12.7575
▁immobilisatie	-12.7575
▁klepvitia	-12.7575
▁paraganglioom	-12.7575
▁skipping	-12.7575
▁voelt	-12.7575
▁website	-12.7575
▁kauk	-12.7575
▁grijsroze	-12.7575
▁intradermalis	-12.7575
▁knik	-12.7575
▁trombectomie	-12.7575
▁afgevallen	-12.7575
▁dysmatuur	-12.7575
▁schedelomvang	-12.7575
▁onveranderd	-12.7575
clonaal	-12.7575
▁dodelijk	-12.7575
▁distensie	-12.7575
▁poststenotisch	-12.7575
▁stroge	-12.7575
▁bronchopneumie	-12.7576
myelomonocytaire	-12.7576
▁microtrombi	-12.7576
▁strooihaarden	-12.7577
▁slijmig	-12.7578
ontstekingsfocus	-12.7578
▁wondgebied	-12.7578
▁changes	-12.7579
arotisbifurcatie	-12.7581
▁synaptofysine	-12.7581
▁anthracotisch	-12.7582
▁testes	-12.7582
galwegobstructie	-12.7583
homonas	-12.7583
▁puscollecties	-12.7584
▁cystennieren	-12.7584
▁paraaortale	-12.7587
▁omentectomie	-12.7593
▁detectie	-12.7593
▁agressief	-12.7593
▁configuratie	-12.7595
cmv	-12.76
capillair	-12.7601
▁zaten	-12.7603
▁tumordeposities	-12.7604
▁bieden	-12.7604
▁glabella	-12.7605
▁calcium	-12.7605
▁wervellichaam	-12.7605
▁pleurapunctie	-12.7606
▁geprepareerd	-12.7606
waarde	-12.7606
gehandeld	-12.7609
br	-12.7609
▁events	-12.761
macro	-12.7613
▁kalium	-12.7617
▁abscederend	-12.7617
nsip	-12.7624
immuno	-12.7624
snede	-12.7625
▁cyst	-12.7625
▁dochter	-12.7626
zeker	-12.7631
▁huiddefecten	-12.7632
▁vage	-12.7633
▁hersenhelft	-12.7634
duur	-12.7634
▁auramine	-12.7637
▁mpo	-12.7638
▁kleuren	-12.764
▁oesophaguss	-12.7641
▁manipulatie	-12.7641
▁pyoderma	-12.7641
▁mgl	-12.7642
▁immunologie	-12.7642
▁herbeoordeling	-12.7643
schildkliernodus	-12.7644
▁clip	-12.7645
amyotrof	-12.7652
▁faillure	-12.7653
▁afzetting	-12.7656
▁adipeus	-12.7657
▁cathetereffect	-12.7657
yl	-12.7667
▁bloedbeeld	-12.7668
▁celproliferatie	-12.7669
spraak	-12.7671
▁anaal	-12.7671
voorbehandeling	-12.7673
▁cristabeenmerg	-12.7678
▁adenomyomateuze	-12.7678
sparend	-12.7683
cli	-12.7685
mycosis	-12.7685
verwijderd	-12.7685
elastose	-12.7686
subcutis	-12.7687
▁opgezet	-12.7688
rechterwang	-12.7688
mel	-12.7688
complicaties	-12.7689
▁vrucht	-12.7689
onderrug	-12.769
prolaps	-12.7691
ptag	-12.7693
pars	-12.7693
▁periodes	-12.7703
▁angulus	-12.7712
▁mislukte	-12.772
▁gelijkend	-12.7724
▁anthracosilicos	-12.7726
▁spoelvormige	-12.7729
afs	-12.773
line	-12.7736
bijv	-12.7746
▁eenzijdig	-12.7747
▁sarcoma	-12.7748
fc	-12.7752
lok	-12.7753
mat	-12.7765
▁bauhin	-12.7766
▁blijvend	-12.7777
▁intercostaal	-12.7778
ting	-12.778
▁load	-12.778
lumbale	-12.7787
secundaire	-12.7791
▁osteo	-12.7792
▁resorberende	-12.7808
igg	-12.7812
▁haemo	-12.7814
msa	-12.7818
loos	-12.7823
open	-12.7826
▁behoren	-12.7828
▁overeenkomen	-12.7834
▁wenst	-12.7834
▁puscollectie	-12.7836
hilus	-12.7838
▁rechtervoet	-12.784
takslijden	-12.7841
▁begon	-12.7845
oplasmose	-12.7845
presentativiteit	-12.7845
▁afgewacht	-12.7845
▁evidence	-12.7845
▁gangrenosum	-12.7845
▁geriatrie	-12.7845
▁geserreerd	-12.7845
▁hyperventilatie	-12.7845
▁interface	-12.7845
▁laminectomie	-12.7845
▁sialoadenitis	-12.7845
▁tongbeet	-12.7845
▁vertrouwend	-12.7845
hyperchromatisch	-12.7845
▁tentorium	-12.7845
▁abstinatie	-12.7845
▁pericardeffusie	-12.7845
▁concrete	-12.7845
▁urogenitaal	-12.7845
▁vaatsteel	-12.7845
▁anencephalie	-12.7845
▁objectiveerbaar	-12.7845
▁leucopenie	-12.7845
▁donornier	-12.7845
▁hyperemisch	-12.7845
▁multifactorieel	-12.7845
▁vaststelling	-12.7845
▁cross	-12.7846
▁bekkenorganen	-12.7846
▁onderhuids	-12.7846
▁losgelegen	-12.7846
▁arterialisatie	-12.7846
▁osas	-12.7846
zelb	-12.7846
▁epitheelatypie	-12.7847
▁ventricular	-12.7848
▁zwaarder	-12.7848
▁spits	-12.7849
paralytische	-12.7849
gln	-12.785
light	-12.7851
▁hirschsprung	-12.7852
▁idiopatische	-12.7853
▁hereditaire	-12.7853
▁hiertussen	-12.7855
▁pink	-12.7856
falan	-12.7856
▁sessie	-12.7857
▁macrometastasen	-12.7862
▁trigger	-12.7864
▁hypoventilatie	-12.7864
▁mammaria	-12.7872
▁uitmonding	-12.7877
▁weefselreactie	-12.7881
mai	-12.7883
▁hoofdwond	-12.7884
▁beenmergbiopsie	-12.7886
▁alv	-12.7886
▁deciduaal	-12.7886
▁polymyositis	-12.7889
▁optreedt	-12.7889
▁microbioloog	-12.7889
▁insteekopening	-12.7889
▁nstemi	-12.7889
▁laagstand	-12.7889
▁plaveiselcellen	-12.7891
bekend	-12.7894
▁ongeschikt	-12.7901
▁enzymhistochemi	-12.7902
▁bilirubine	-12.7902
intramyocardiaal	-12.7904
▁infarkt	-12.7907
▁amfetamine	-12.7908
▁transit	-12.7911
▁krabben	-12.7913
▁tientallen	-12.7913
▁ventriculo	-12.7916
abl	-12.7917
▁translocaties	-12.7918
▁bont	-12.7921
beperkt	-12.7922
diep	-12.7924
geassocieerd	-12.7925
peritoneale	-12.7927
▁heftig	-12.7931
▁hetero	-12.7935
vulling	-12.7938
▁patientje	-12.7941
▁amo	-12.7944
▁uigebreide	-12.7948
▁chromofo	-12.7951
drainage	-12.7951
lijke	-12.7952
lyse	-12.7955
uro	-12.7957
▁anusslijmvlies	-12.7958
tracheale	-12.7961
streng	-12.7964
▁tumortype	-12.7966
diagnostiek	-12.7966
hsil	-12.7967
tangles	-12.797
groot	-12.797
hemolytisch	-12.7971
iuvd	-12.7972
morfologie	-12.7973
▁imponeerde	-12.7974
binnen	-12.7975
▁mobiel	-12.7976
toont	-12.7978
▁bk	-12.7982
abdominalis	-12.7983
uid	-12.7983
▁waviness	-12.7988
▁hypertensief	-12.7997
▁kaderen	-12.8001
vaat	-12.801
▁motiliteit	-12.8013
▁puncties	-12.8014
▁predictie	-12.8027
sgebied	-12.8032
kuur	-12.8033
▁subtiel	-12.8034
▁anastomoses	-12.8037
▁diepreikend	-12.8044
▁omringend	-12.8044
▁hd	-12.8052
histochemisch	-12.8061
longproblematiek	-12.8079
▁neuropil	-12.8083
ziekten	-12.8091
▁oro	-12.8092
▁lek	-12.8093
▁epithelioid	-12.8095
cerebri	-12.8096
▁cusp	-12.8099
▁gemarkeerd	-12.8101
▁trichilemm	-12.8112
▁temporo	-12.8113
▁orgaandonatie	-12.8114
▁continuiteit	-12.8119
ndiceerd	-12.812
noo	-12.812
retroperitoneale	-12.8121
▁schock	-12.8123
▁pupil	-12.8123
icilline	-12.8123
conservatieve	-12.8123
ienfd	-12.8123
▁disruptie	-12.8123
▁gedetubeerd	-12.8123
▁gelamelleerd	-12.8123
▁gepoogd	-12.8123
▁herpetiformis	-12.8123
▁invalshoek	-12.8123
▁maltophilia	-12.8123
▁opgesomd	-12.8123
▁parakeratotisch	-12.8123
▁pijpbeenderen	-12.8123
▁splijting	-12.8123
associated	-12.8123
▁atroficus	-12.8123
▁glomustumor	-12.8123
▁moeite	-12.8123
▁mucus	-12.8123
▁feces	-12.8123
▁reads	-12.8123
▁uitsluitsel	-12.8123
▁livores	-12.8123
▁schouwarts	-12.8123
▁ependymoom	-12.8123
▁roodbruin	-12.8124
▁arteriosus	-12.8124
▁galstuwing	-12.8124
▁kransarterien	-12.8124
▁kerngebieden	-12.8126
▁giardiasis	-12.8127
▁hydrocele	-12.8127
▁ophoesten	-12.8127
▁harttamponnade	-12.8127
▁vaatgerelateerd	-12.8129
▁lymphklieren	-12.8129
▁woekeringen	-12.813
▁difficile	-12.813
▁buikwond	-12.813
▁tengere	-12.813
▁verbrokkeld	-12.8132
tp	-12.8132
treedt	-12.8132
▁wegraking	-12.8134
▁itp	-12.8138
▁bloedige	-12.8138
▁avsd	-12.8139
▁cardiogenetisch	-12.8142
▁stenotrop	-12.8142
▁enzymatisch	-12.8142
▁vriendelijk	-12.8142
▁strictuur	-12.8142
eclampsie	-12.8143
▁restmaligniteit	-12.8149
so	-12.815
▁acth	-12.8152
▁tepelhof	-12.8155
▁pathology	-12.8157
▁balk	-12.8158
▁oorrand	-12.8159
▁longziekten	-12.816
▁linkeroksel	-12.8162
tum	-12.8162
posterior	-12.8163
▁verontreiniging	-12.8168
▁bleomycine	-12.8168
▁naevo	-12.8168
halsprothese	-12.8168
▁aantreffen	-12.8169
▁hoofdcarina	-12.8169
cvu	-12.8173
flo	-12.8176
▁macula	-12.8177
▁mammapunctaat	-12.8178
▁absces	-12.8179
▁odontogene	-12.818
▁gehalte	-12.818
▁gelaten	-12.8181
▁buikbeeld	-12.8187
nodus	-12.8191
▁braakstadium	-12.8192
cyt	-12.8207
beleid	-12.8209
▁embolisch	-12.8222
▁resistentie	-12.8225
▁afwacht	-12.8229
▁koepel	-12.8234
▁laceraties	-12.8234
ons	-12.8235
remmers	-12.8236
infect	-12.8244
artefacten	-12.8245
hier	-12.8249
▁only	-12.8249
sectie	-12.8251
verkalking	-12.8257
▁longbovenkwab	-12.8258
▁bundel	-12.8258
referentie	-12.826
▁gew	-12.826
rende	-12.8261
mithyroidectomie	-12.8262
seborrhoisch	-12.8262
anatomisch	-12.8264
caverneus	-12.8265
palatum	-12.8265
sprieterig	-12.8266
fasciitis	-12.8266
adenoid	-12.8266
disease	-12.8266
eventueel	-12.8267
doorbraak	-12.8267
wur	-12.8268
beginnend	-12.8269
duodenumbiopten	-12.8276
▁bloedophoping	-12.8279
dose	-12.828
sb	-12.8281
▁prepareren	-12.8283
media	-12.8284
▁pieken	-12.8288
tieve	-12.8303
for	-12.8305
embolietjes	-12.8316
▁vn	-12.8319
staart	-12.8326
▁mononucleair	-12.8329
infarctjes	-12.8331
mf	-12.8343
oplasma	-12.8351
ler	-12.8357
slo	-12.8365
lling	-12.8368
▁abstinentie	-12.8371
ther	-12.8377
▁lichenoid	-12.8377
▁tov	-12.8382
verval	-12.8383
▁dermatologie	-12.8384
▁neven	-12.8388
▁ia	-12.8391
▁partu	-12.8395
▁abcederend	-12.8397
▁vertakking	-12.8398
ratio	-12.84
▁bipo	-12.84
▁oesofaguss	-12.8405
nerv	-12.8405
schimmen	-12.8408
▁oogbol	-12.8408
matofibrosarcoma	-12.8408
▁abortion	-12.8408
▁acardiacus	-12.8408
▁bezocht	-12.8408
▁circulerend	-12.8408
▁elastica	-12.8408
▁gebeurd	-12.8408
▁gemakkelijk	-12.8408
▁genaamd	-12.8408
▁gevlekt	-12.8408
▁glomerulus	-12.8408
▁hypoglykemie	-12.8408
▁knappen	-12.8408
▁negativiteit	-12.8408
▁opknapte	-12.8408
▁papulose	-12.8408
▁synoviosarcoom	-12.8408
▁normospermie	-12.8409
▁ojb	-12.8409
ponto	-12.8409
▁fusiform	-12.8409
▁venster	-12.8409
▁toegevoegd	-12.8409
▁mesothelial	-12.8409
▁smarc	-12.8409
▁durum	-12.8409
wetenschappelijk	-12.8409
▁politie	-12.8409
▁uraemie	-12.8409
▁heropgenomen	-12.8409
▁scabies	-12.8409
▁naaddehiscentie	-12.8409
▁erythemateuze	-12.8409
▁megacolon	-12.8409
▁sprieten	-12.8409
▁neuroblastoom	-12.8409
▁immunoprofiel	-12.8409
▁temporaalpool	-12.8409
▁orgaanschade	-12.8409
▁kindje	-12.841
vasculitis	-12.841
herhalingsrisico	-12.841
plasmocellulaire	-12.8411
▁zaken	-12.8412
▁hyperacuut	-12.8412
▁retrograad	-12.8413
▁daarboven	-12.8414
▁steroiden	-12.8415
▁salmonella	-12.8416
▁verworven	-12.8416
▁gynaecoloog	-12.8416
▁vetcellen	-12.8416
komst	-12.8417
▁fibrosehaard	-12.8417
▁darmlumen	-12.8417
cisiemarge	-12.8417
▁darmstelsel	-12.8418
▁cps	-12.8422
▁klierstation	-12.8423
▁benige	-12.8424
▁psychose	-12.8425
cisieranden	-12.8426
▁littekenfibrose	-12.8428
▁diapedese	-12.8428
▁erytheem	-12.8428
▁massief	-12.8428
▁linkeratrium	-12.8429
▁huidpons	-12.8432
▁lymfomato	-12.8433
▁gnas	-12.8434
▁restafwijkingen	-12.8443
▁ref	-12.8447
voedselaspiratie	-12.8447
crypthyperplasie	-12.845
alveolaircel	-12.8453
▁involutieve	-12.8453
▁ducti	-12.8456
▁ammoniak	-12.8462
▁mk	-12.8464
▁longkweken	-12.8465
▁prae	-12.8466
mber	-12.8469
bloedingshaarden	-12.8479
▁ingroeiend	-12.848
▁tamponnade	-12.8481
▁thyreoidectomie	-12.8483
▁lcis	-12.8489
▁tetra	-12.849
ss	-12.8492
wal	-12.8492
▁liggende	-12.8497
parietotemporaal	-12.8499
▁ontbrekend	-12.85
▁levend	-12.8507
oagulatienecrose	-12.8507
▁circumcisie	-12.8507
▁rechtsdominant	-12.8507
▁buikhuid	-12.8508
▁abcesjes	-12.8511
▁posterosepta	-12.8518
▁smad	-12.852
▁duodenumwand	-12.8521
olithiasis	-12.8528
▁voorgesteld	-12.8528
▁bloedonderzoek	-12.8529
jn	-12.8533
gew	-12.8534
▁thp	-12.8537
longonderkwabben	-12.8541
▁longhaarden	-12.8541
▁histo	-12.8541
▁multiresistent	-12.8543
thrombo	-12.855
beta	-12.8562
gastrisch	-12.8567
heart	-12.8568
fibroom	-12.8569
reumato	-12.8569
bloom	-12.8569
autolyse	-12.857
tubulo	-12.8571
cardiomyopathie	-12.8571
gevolg	-12.8572
verminderd	-12.8574
▁gedrags	-12.858
kop	-12.8585
kleur	-12.8585
▁burkitt	-12.8587
▁his	-12.859
ral	-12.8595
▁up	-12.8597
▁diabet	-12.8606
▁ponsbloeding	-12.8608
kken	-12.8609
▁uniloculaire	-12.861
rok	-12.861
haardje	-12.8615
▁complement	-12.8616
fibrinedepositie	-12.8617
amo	-12.8619
▁jugulair	-12.8622
ation	-12.8623
▁opruiming	-12.8624
mmr	-12.8626
zet	-12.8636
fr	-12.8644
▁achtige	-12.8648
form	-12.8654
▁boezem	-12.866
pin	-12.8661
▁arvc	-12.8668
▁akt	-12.867
oesophageaal	-12.8676
▁lymphoma	-12.8677
▁lp	-12.8679
▁aanlegstoornis	-12.868
slag	-12.8686
▁overlijd	-12.8688
▁dysmorfie	-12.8691
▁mr	-12.8692
▁cassette	-12.8693
▁insnoering	-12.8694
▁vaatanomalie	-12.8694
▁neusgat	-12.8695
▁geregistreerd	-12.8703
▁intraluminal	-12.8703
▁merkwaardig	-12.8703
▁polymyalgia	-12.8703
▁sagittalis	-12.8703
▁sinister	-12.8703
▁spierdystrofie	-12.8703
▁tyrosine	-12.8703
▁verdwijnen	-12.8703
▁verschrompeld	-12.8703
▁fijnblazig	-12.8703
▁postmenopauza	-12.8703
▁spoelcellipoom	-12.8703
▁zuurstofgebrek	-12.8703
▁spermaticus	-12.8703
▁hartklepdonatie	-12.8703
▁sondeerbaar	-12.8703
▁atriumflutter	-12.8703
▁opvalt	-12.8703
▁adenocarcinomen	-12.8703
▁drukconus	-12.8703
▁pacemakerdraden	-12.8703
▁drugsgebruik	-12.8703
▁postpylorisch	-12.8703
▁tempi	-12.8703
▁tracheacanule	-12.8703
▁verdachts	-12.8704
▁paravalvulair	-12.8704
▁hersenarterieen	-12.8704
▁buikwanddefect	-12.8704
▁pigmentlaesie	-12.8704
▁other	-12.8705
▁plastica	-12.8705
▁supracoronair	-12.8705
▁snurkend	-12.8706
▁medicijnen	-12.8706
veld	-12.8708
▁maagulcera	-12.8708
orens	-12.8709
▁gecorreleerd	-12.871
▁protuberans	-12.871
▁nabothi	-12.8711
ant	-12.8711
klieren	-12.8712
▁tangentiel	-12.8714
▁opliep	-12.8716
▁cystica	-12.8718
▁linkeroog	-12.8719
▁waa	-12.8722
▁orientatie	-12.8723
▁intensiteit	-12.8723
▁myelolipoom	-12.8723
ebv	-12.8728
▁curatie	-12.8729
da	-12.8733
▁vind	-12.8734
▁verdunning	-12.8736
neuropathologica	-12.8736
reactiviteit	-12.8736
▁enterococ	-12.8737
cu	-12.8737
▁beschikking	-12.8737
▁lijkvlekken	-12.8737
lik	-12.8737
▁tuber	-12.8738
cysteus	-12.8738
▁longabces	-12.8738
▁sinusitis	-12.8738
▁transfusies	-12.8741
▁syndromen	-12.8741
▁saturaties	-12.8742
▁umbilical	-12.8745
ster	-12.8745
▁zijventrikel	-12.8746
urant	-12.8747
▁partia	-12.8749
▁profylactisch	-12.875
▁progredient	-12.875
▁miltruptuur	-12.876
▁suppuratie	-12.8764
▁dorsolateraal	-12.8764
▁hyfen	-12.8764
▁hypoglycemie	-12.8765
▁ileumresectie	-12.8766
aangaande	-12.8771
▁jth	-12.8773
▁interstitia	-12.8774
▁hevig	-12.8775
▁huidweefsel	-12.8775
▁ethmoid	-12.8775
▁ant	-12.8776
▁gescheurd	-12.8777
gv	-12.8777
▁infestatie	-12.8777
▁henoch	-12.8777
▁hematologie	-12.8778
drains	-12.878
▁achtig	-12.8781
▁constrictieve	-12.8791
▁geoccludeerde	-12.8792
▁matje	-12.8797
his	-12.8809
ascreen	-12.8809
▁neerslagen	-12.8812
▁dwarse	-12.8818
▁nierbiopsie	-12.8822
doch	-12.8825
▁behandelingen	-12.8826
dag	-12.8831
▁skeletspier	-12.8838
dominant	-12.8838
urotheel	-12.884
sotheliomenpanel	-12.8857
▁leverbeeld	-12.8857
▁mesenterii	-12.886
pel	-12.886
▁nf	-12.886
▁elastische	-12.8862
▁myelitis	-12.8867
otitis	-12.8869
ib	-12.887
▁hsil	-12.8872
spino	-12.8875
▁voorheen	-12.8875
clearcell	-12.8879
collageneuze	-12.888
ruiter	-12.888
bowen	-12.8882
representatief	-12.8882
appendi	-12.8882
vooralsnog	-12.8882
circumfl	-12.8882
aangetoond	-12.8882
stasis	-12.8882
overgevoeligheid	-12.8883
▁hartweefsel	-12.8883
traventriculair	-12.8884
leg	-12.8886
▁geulcereerde	-12.8886
nras	-12.8896
chemisch	-12.8914
▁urineretentie	-12.892
▁tubulusepitheel	-12.8925
diepe	-12.8925
▁doorsnedes	-12.8927
▁lob	-12.8927
chop	-12.8928
▁zacht	-12.8928
ha	-12.8932
▁hypertrophie	-12.8944
rotisch	-12.8952
ors	-12.897
▁pseudodecidual	-12.8983
sclerotisch	-12.8994
▁veldje	-12.8997
▁topklier	-12.8998
▁entiteit	-12.8998
▁electrolyt	-12.8999
▁laser	-12.9004
▁subchoria	-12.9004
pected	-12.9006
▁afzonderlijk	-12.9006
▁benigna	-12.9006
▁bifurcatio	-12.9006
▁calretinine	-12.9006
▁clitoris	-12.9006
▁fasciotomie	-12.9006
▁gedialyseerd	-12.9006
▁genecrotiseerd	-12.9006
▁huisartsenpost	-12.9006
▁irresectabel	-12.9006
▁kwabjesbouw	-12.9006
▁monoclonaliteit	-12.9006
▁percentiel	-12.9006
▁hiatus	-12.9006
▁pendulum	-12.9006
▁vruchteloos	-12.9006
▁breedspectrum	-12.9006
▁dysmaturiteit	-12.9006
▁antracosilicose	-12.9006
▁spermatozoon	-12.9006
▁verregaand	-12.9006
gewisseld	-12.9006
▁myelomonocyten	-12.9006
▁ontaarding	-12.9006
▁gastroschisis	-12.9006
▁verscheuring	-12.9006
▁frontobasaal	-12.9006
▁klierbuisjes	-12.9006
▁sonderen	-12.9006
▁uicc	-12.9006
▁anterolaterale	-12.9006
▁communes	-12.9006
▁pedis	-12.9006
▁staaf	-12.9006
▁adnectomie	-12.9006
▁blaasretentie	-12.9007
▁vaatingroei	-12.9007
▁cheilognat	-12.9007
▁macrofoto	-12.9007
cytomorfologisch	-12.9008
▁holtevormend	-12.9008
▁weefselschade	-12.9009
▁pseudotumor	-12.901
▁life	-12.9011
▁gaspend	-12.9011
obturatoriusloge	-12.9012
reticulaire	-12.9012
▁lichaamsectie	-12.9013
▁formulation	-12.9013
▁anaeroben	-12.9015
▁ulcerende	-12.9015
▁nfi	-12.9015
▁leverabcessen	-12.9021
▁brokkelig	-12.9021
▁bijderzijds	-12.9021
panelbeoordeling	-12.9021
▁millimeters	-12.9021
rie	-12.9025
▁etmoid	-12.9027
▁differentiee	-12.903
▁lym	-12.9033
▁linkerslaap	-12.9034
▁introitus	-12.9041
▁cipro	-12.9041
▁ademstilstand	-12.9041
▁amylo	-12.9045
▁hyalien	-12.905
mk	-12.9052
▁bovengenoemd	-12.9052
vormende	-12.9053
bronchusepitheel	-12.9054
▁infact	-12.9054
▁emfysema	-12.9055
▁guillain	-12.9055
▁afgekapselde	-12.9056
▁bevattende	-12.9057
▁breuken	-12.9065
▁longkwab	-12.9067
▁seminoma	-12.9069
▁kleurt	-12.9069
▁cycline	-12.9069
▁pankeratine	-12.9069
▁afbraak	-12.907
▁pseudomy	-12.9073
▁staminfarct	-12.9076
▁miltparenchym	-12.9077
▁iiia	-12.9081
▁ovariele	-12.9081
▁schaamstreek	-12.9083
▁hodgkinlymfoom	-12.9083
arteriitis	-12.9085
actief	-12.9094
aml	-12.9095
▁tumorembolien	-12.91
linkerventrikel	-12.91
▁gamma	-12.9101
▁abc	-12.9101
hypertrofische	-12.9107
▁resorptie	-12.9109
▁bloc	-12.9111
fil	-12.9112
▁dichtheid	-12.9117
▁plat	-12.9124
▁holtes	-12.9131
▁linksfalen	-12.9131
▁car	-12.9131
erig	-12.9133
▁zetten	-12.9135
▁potters	-12.915
▁gemist	-12.9159
▁tracti	-12.916
zo	-12.916
▁uitloper	-12.9166
pulmonalis	-12.9167
▁dehydrogenase	-12.9167
▁vullen	-12.9169
▁betreffend	-12.9175
cirrhose	-12.9183
spiegel	-12.919
▁liters	-12.9192
▁staande	-12.9192
dysfunctie	-12.9197
dlbcl	-12.9201
cancer	-12.9202
ohca	-12.9202
technisch	-12.9202
▁heterotopie	-12.9203
▁bis	-12.9204
splenitis	-12.9204
anterior	-12.9204
oesophagitis	-12.9204
cardiatype	-12.9205
dubieus	-12.9205
slokdarm	-12.9206
▁datering	-12.9208
hoge	-12.9208
▁arthrose	-12.921
intravasculair	-12.921
▁formaties	-12.9214
▁pontien	-12.9216
tic	-12.9219
malt	-12.922
▁sero	-12.9221
▁emphysemateu	-12.9235
romp	-12.9238
dometriosecyste	-12.9239
▁formatie	-12.9241
intracraniele	-12.9247
▁geprononceerde	-12.925
retro	-12.9262
compressie	-12.9267
vorm	-12.927
▁sa	-12.9274
▁collectie	-12.9274
▁leucocytoclas	-12.9278
▁plaveiselepithe	-12.9285
oksellymfklieren	-12.9287
▁verschuiving	-12.929
▁broer	-12.9293
▁katheterisatie	-12.9295
fibrileren	-12.93
▁linkerknie	-12.9301
handelingen	-12.9302
nde	-12.9305
cellulair	-12.9311
▁strak	-12.9311
▁ombouw	-12.9316
▁potentie	-12.9318
althans	-12.9318
[...]
