<unk>	0
<s>	0
</s>	0
[PAD]	0
[UNK]	0
[CLS]	0
[MASK]	0
[C-SEP]	0
e	-2.16136
▁	-2.97089
.	-3.04123
▁van	-3.69328
▁de	-3.71769
▁een	-3.81519
▁met	-4.0855
▁en	-4.08701
,	-4.09602
▁in	-4.34921
▁het	-4.50424
▁bij	-4.9868
▁is	-5.06201
▁geen	-5.07074
▁voor	-5.11305
C	-5.17813
-	-5.22006
RL	-5.32152
▁De	-5.34381
▁werd	-5.37554
▁op	-5.41861
▁Geen	-5.4453
)	-5.54345
▁was	-5.68162
▁niet	-5.73059
▁beeld	-5.75886
▁rechts	-5.80163
▁Het	-5.8435
▁links	-5.85233
0	-5.85246
▁Bij	-5.86625
▁er	-5.88326
▁oud	-5.90214
▁obductie	-5.90328
▁1	-5.95572
▁linker	-5.97337
▁zijn	-6.00676
▁Er	-6.01115
▁-	-6.04329
▁In	-6.05447
▁na	-6.06429
▁afwijkingen	-6.07946
▁overlijden	-6.12134
1	-6.13368
▁onderzoek	-6.13955
carcinoom	-6.13961
▁of	-6.14463
▁aan	-6.14972
▁maligniteit	-6.15524
).	-6.17775
▁rechter	-6.19662
▁uitgebreide	-6.2017
▁worden	-6.22033
▁gezien	-6.22492
▁passend	-6.23355
▁ontsteking	-6.23373
▁tot	-6.23494
▁zonder	-6.25382
▁te	-6.25655
▁aanwijzingen	-6.28109
▁overleden	-6.28114
▁jaar	-6.28217
▁hart	-6.29885
▁2	-6.31094
▁aangetroffen	-6.32047
I	-6.33326
▁man	-6.34217
▁ook	-6.35135
▁geworden	-6.35695
▁door	-6.35725
▁patient	-6.35836
▁longen	-6.40761
▁kan	-6.42079
▁als	-6.44517
A	-6.49859
▁wordt	-6.49913
▁I	-6.50343
▁betreft	-6.50725
▁tekenen	-6.51134
▁cm	-6.51843
▁lever	-6.51937
▁gevonden	-6.52501
2	-6.53298
▁die	-6.66227
▁vrouw	-6.68183
▁deze	-6.69676
▁ventrikel	-6.70482
▁gram	-6.71874
▁mogelijk	-6.73961
▁veranderingen	-6.75114
▁Huidexcisie	-6.75394
▁geringe	-6.76512
▁basis	-6.77649
▁waren	-6.79129
s	-6.79613
▁adenocarcinoom	-6.79799
▁waarschijnlijk	-6.8004
E	-6.80651
en	-6.81781
▁tumor	-6.82089
▁werden	-6.83168
▁basaalcel	-6.83818
▁sprake	-6.84853
▁bekend	-6.86565
▁atherosclerose	-6.86792
▁onder	-6.87144
▁dysplasie	-6.87265
▁microscopisch	-6.88551
▁zeer	-6.88692
▁dit	-6.89195
▁vrij	-6.91791
▁toonde	-6.9183
▁acute	-6.92237
▁waarbij	-6.93136
▁aorta	-6.93535
▁chronische	-6.93713
▁dat	-6.94338
▁pneumonie	-6.95093
▁goed	-6.95217
ie	-6.96957
jarige	-6.98495
▁ernstige	-7.01408
p	-7.02876
▁opgenomen	-7.02995
v	-7.02997
▁C	-7.03542
▁sepsis	-7.036
▁toont	-7.04354
▁long	-7.04573
▁Een	-7.06705
D	-7.08131
d	-7.09036
▁ter	-7.0959
evens	-7.09615
▁Huidbiopt	-7.09919
▁beiderzijds	-7.11132
▁*	-7.11742
▁infarct	-7.12954
atient	-7.12964
▁bloeding	-7.13224
▁naar	-7.14003
▁milt	-7.14663
▁recente	-7.1481
▁myocardinfarct	-7.15456
▁status	-7.15572
▁kunnen	-7.15995
▁*******	-7.16615
▁passen	-7.16784
gedifferentieerd	-7.18124
▁bronchopneumoni	-7.18404
▁enkele	-7.19623
▁dagen	-7.21936
▁bevindingen	-7.22367
▁ten	-7.22482
▁beide	-7.23404
▁Deze	-7.2346
▁aanwezig	-7.23987
▁volgt	-7.24026
▁klinisch	-7.24275
▁uit	-7.245
▁gevolg	-7.24758
R	-7.25398
▁carcinoom	-7.26253
▁verricht	-7.26592
▁myocard	-7.26843
a	-7.26969
▁waarin	-7.27158
▁stuwing	-7.27301
▁name	-7.27305
▁nog	-7.2878
voorgeschiedenis	-7.29821
▁heeft	-7.31212
▁deels	-7.31652
▁weken	-7.32928
▁nieren	-7.33735
II	-7.34419
▁materiaal	-7.37057
▁kleine	-7.3752
▁actieve	-7.37727
00	-7.38228
▁echter	-7.38627
▁II	-7.38749
▁waarvoor	-7.4061
▁infarcering	-7.42353
▁maar	-7.43178
IE	-7.43873
▁epicrise	-7.44042
-0	-7.44366
▁type	-7.44593
▁H	-7.45764
▁insufficientie	-7.46096
▁Dit	-7.46261
▁ischemie	-7.46503
▁fibrose	-7.47092
▁verwijderd	-7.47472
▁mm	-7.48119
▁dan	-7.491
▁duidelijke	-7.49356
▁cordis	-7.49501
▁verband	-7.49871
▁hersenen	-7.5035
▁wat	-7.51668
H	-7.52063
▁oorzaak	-7.52114
▁colon	-7.52189
▁matig	-7.52497
▁uitgebreid	-7.53043
▁focaal	-7.53517
▁nier	-7.54344
▁A	-7.54802
▁grote	-7.55271
▁reactieve	-7.55746
▁sterk	-7.55943
▁verder	-7.56166
▁g	-7.56317
▁meer	-7.57399
▁past	-7.57418
▁verklaren	-7.58018
▁wel	-7.58451
▁naevus	-7.58525
▁bloed	-7.58621
▁metastase	-7.5913
▁groeiend	-7.59635
▁tonen	-7.60315
▁gevolge	-7.6052
▁lokalisatie	-7.60728
▁plaatse	-7.60827
▁cardiale	-7.62072
▁recent	-7.62079
▁maag	-7.62281
▁zou	-7.62839
ok	-7.63174
▁prostaat	-7.63212
▁biopten	-7.63451
),	-7.63843
▁organen	-7.63953
▁darm	-7.64262
▁lymfklieren	-7.64533
▁biopt	-7.64794
▁groei	-7.64874
▁hebben	-7.65225
▁hypertensie	-7.66352
▁enige	-7.66565
▁diagnose	-7.66667
▁patiente	-7.68147
▁plaveiselcel	-7.68432
▁gr	-7.68493
▁klinische	-7.68686
▁d	-7.6922
▁dood	-7.69333
▁forse	-7.69494
▁negatief	-7.69611
▁diameter	-7.69905
▁uur	-7.70018
▁metastasen	-7.70624
▁overleed	-7.70711
▁bleek	-7.70864
▁decompensatio	-7.71276
▁lymfklier	-7.71761
▁shock	-7.7232
▁nodulair	-7.72669
▁normaal	-7.73427
▁laesie	-7.73508
oorts	-7.73682
▁dd	-7.73999
▁0	-7.74864
▁a	-7.75143
▁acuut	-7.75266
▁hypertrofie	-7.75532
▁arteria	-7.76867
▁oedeem	-7.77452
le	-7.77918
▁reanimatie	-7.79427
t	-7.79437
▁achterwand	-7.8067
▁conclusie	-7.81138
m	-7.81227
▁matige	-7.81314
▁huid	-7.8185
▁ischaemie	-7.82306
erder	-7.8234
▁aneurysma	-7.8234
▁B	-7.8293
▁respiratoire	-7.83132
▁macroscopisch	-7.83139
▁aangetoond	-7.83249
▁tevens	-7.84246
▁coronairscleros	-7.84515
▁t	-7.85153
▁E	-7.86116
▁andere	-7.86484
▁Als	-7.86905
▁ontstaan	-7.87325
icroscopisch	-7.8831
tatus	-7.88364
▁zich	-7.88749
▁kader	-7.88874
▁coronair	-7.88957
▁doodsoorzaak	-7.89522
▁aanwezigheid	-7.90526
▁Daarnaast	-7.90676
▁pleuravocht	-7.91146
▁dag	-7.91256
▁mamma	-7.91373
▁dunne	-7.91513
▁positief	-7.91559
Aanvulling	-7.91674
▁conform	-7.91736
▁meerdere	-7.91955
▁welke	-7.92073
▁necrose	-7.9254
▁groot	-7.92653
L	-7.93195
▁Aanvulling	-7.93427
▁maligne	-7.93968
▁toonden	-7.95542
▁klein	-7.96124
▁overige	-7.96744
▁gewicht	-7.96912
▁opname	-7.97066
gewicht	-7.97497
B	-7.98544
▁Excisie	-7.98883
▁multipele	-7.99
▁bericht	-7.99042
▁hier	-7.99335
▁LAD	-7.99473
▁atypie	-7.99885
▁verdenking	-7.99919
▁stenose	-8.00169
▁metaplasie	-8.00201
▁alle	-8.00715
▁beenmerg	-8.00868
▁zien	-8.00957
▁graad	-8.01024
▁afwijking	-8.01189
g	-8.01243
▁excisie	-8.01466
▁intra	-8.01604
▁pancreas	-8.01644
▁over	-8.02233
▁Biopten	-8.02361
▁aspiratie	-8.02413
▁verruca	-8.02456
▁combinatie	-8.03761
▁infectie	-8.03919
▁diffuse	-8.04287
▁vermoedelijk	-8.04563
el	-8.0516
▁hyperplasie	-8.05358
▁histologisch	-8.05595
▁wegens	-8.06029
▁onderkwab	-8.06536
▁lymfoom	-8.06546
▁jarige	-8.06572
▁zij	-8.06851
▁had	-8.06935
▁hetgeen	-8.07333
▁kenmerken	-8.07489
▁naevocellularis	-8.07614
▁aanvullend	-8.08066
▁geheel	-8.08195
▁bevestigd	-8.08605
▁veel	-8.08958
bductie	-8.09833
▁ca	-8.10024
oor	-8.10024
hypertrofie	-8.10349
▁zowel	-8.10504
▁vaten	-8.10637
▁meest	-8.10845
▁rug	-8.10898
▁foetus	-8.11094
ij	-8.1155
▁verklaard	-8.12184
n	-8.12282
▁geweest	-8.13
▁DE	-8.13084
▁10	-8.13128
▁slecht	-8.1361
▁Huid	-8.13719
▁eerder	-8.14091
▁Definitieve	-8.14103
▁linkerventrikel	-8.14445
▁peritonitis	-8.14548
▁hij	-8.15093
▁situ	-8.15664
▁geleid	-8.1573
▁gegeneraliseerd	-8.15885
▁placenta	-8.15992
▁vastgesteld	-8.16371
▁om	-8.16461
▁seborrhoica	-8.1652
▁microscopie	-8.16556
▁duidelijk	-8.16925
▁beginnende	-8.17116
▁reeds	-8.17414
▁chronisch	-8.17734
▁slijmvlies	-8.17801
▁lijkt	-8.17882
▁III	-8.18299
er	-8.18349
G	-8.18693
▁schade	-8.18849
▁doorgemaakte	-8.19183
▁cellen	-8.19511
▁gemetastaseerd	-8.19541
▁ernstig	-8.19841
▁weinig	-8.20551
▁gevolgen	-8.20907
▁endometrium	-8.21019
▁uitgesloten	-8.21024
▁waarna	-8.21277
▁adenoom	-8.21921
▁kon	-8.22091
▁pla	-8.22736
▁sterke	-8.23227
▁ischemische	-8.23606
▁pulmonale	-8.24212
▁longoedeem	-8.24426
▁uitbreiding	-8.24545
▁D	-8.25058
▁12	-8.25386
▁p	-8.255
▁al	-8.26166
▁dilatatie	-8.26983
▁twee	-8.2699
▁specifieke	-8.27355
▁solide	-8.27926
▁buik	-8.28044
▁betrof	-8.28065
▁intestinale	-8.28193
▁pathologie	-8.28788
▁gering	-8.28985
▁zie	-8.29187
▁gebied	-8.29928
▁congenitale	-8.30516
▁uiteindelijk	-8.30979
▁behandeling	-8.31228
▁boven	-8.31247
▁wand	-8.31404
▁resectie	-8.31625
▁aspect	-8.31786
▁weefsel	-8.3253
▁dermale	-8.32613
▁morbus	-8.32719
▁hoogte	-8.32721
europathologisch	-8.33747
▁perforatie	-8.342
-1	-8.34253
▁benigne	-8.34686
▁circa	-8.34893
▁superficieel	-8.35404
▁gedilateerd	-8.35893
▁septum	-8.36011
▁zoals	-8.36329
▁bestaande	-8.36538
▁waarvan	-8.36614
insufficientie	-8.36845
▁Epicrise	-8.37916
sche	-8.37926
▁evidente	-8.37984
▁Helicobacter	-8.38267
▁poliep	-8.38537
▁verklaring	-8.38556
▁hals	-8.38663
b	-8.38823
ogelijk	-8.38864
▁atrofie	-8.39433
▁ascites	-8.39507
▁n	-8.39613
▁minder	-8.40117
▁gelegen	-8.40203
▁duodenum	-8.4045
histochemisch	-8.40651
▁deel	-8.41752
▁blaas	-8.41859
▁L	-8.42244
▁cc	-8.42286
*******	-8.42432
▁Aanvullend	-8.42819
▁200	-8.42907
▁ongeveer	-8.43046
▁bovenkwab	-8.43418
▁fors	-8.43571
▁massale	-8.43598
▁focus	-8.4397
▁hartfalen	-8.43975
▁oesophagus	-8.44217
▁2.	-8.44434
▁we	-8.44569
al	-8.44677
▁langer	-8.44757
▁Biopt	-8.45226
▁rest	-8.45284
▁tussen	-8.45684
▁uitslag	-8.45788
▁Gezien	-8.45965
▁vocht	-8.46666
▁doorgankelijk	-8.46735
biopten	-8.46739
▁bijzonderheden	-8.46748
III	-8.47336
▁litteken	-8.47938
▁cyste	-8.48227
▁longembolieen	-8.483
▁plaatselijk	-8.48497
▁verslag	-8.48585
▁overwogen	-8.48595
▁atypische	-8.48829
atiente	-8.49162
▁c	-8.49472
▁bloedingen	-8.49678
▁primair	-8.497
▁reikend	-8.49714
▁zal	-8.4976
▁syndroom	-8.49761
▁veroorzaakt	-8.49846
▁primaire	-8.49936
▁diffuus	-8.50377
▁steatose	-8.50683
▁gedacht	-8.50719
▁rond	-8.50763
▁z	-8.5091
▁cardiomyopathie	-8.51293
▁sigmoid	-8.51711
▁schildklier	-8.52084
▁ontwikkelde	-8.52322
▁o	-8.52416
▁keratose	-8.5337
▁Conclusie	-8.53701
▁verdacht	-8.53739
▁derhalve	-8.54145
zie	-8.54706
▁pylori	-8.55381
▁proces	-8.55431
▁pre	-8.55491
▁1.	-8.55602
▁CABG	-8.55987
▁radicaal	-8.56265
▁wij	-8.56617
▁abdominale	-8.56817
▁falen	-8.57015
▁operatie	-8.57285
▁septische	-8.57419
▁licht	-8.57502
▁ascendens	-8.57561
▁sclerose	-8.57903
▁hypertrofisch	-8.57913
stoornissen	-8.57945
▁epitheel	-8.58012
preparaat	-8.58042
▁hiervan	-8.58046
▁diabetes	-8.58114
▁carcinomatosa	-8.58416
▁i	-8.58522
▁delen	-8.58752
▁voorwand	-8.58844
CL	-8.59078
▁alsmede	-8.59369
▁opgetreden	-8.59379
▁beleid	-8.5958
▁BE	-8.5972
▁sectie	-8.60081
▁gecompliceerd	-8.6048
20	-8.60602
▁onvoldoende	-8.6075
▁pleura	-8.60815
c	-8.61111
amenvattend	-8.61317
▁ruptuur	-8.61555
▁vetweefsel	-8.61603
▁ischaemische	-8.6181
▁thrombus	-8.61824
GE	-8.62351
▁week	-8.63134
▁eerste	-8.6336
▁aortaklep	-8.63417
▁gegevens	-8.63529
▁moet	-8.63566
▁aantoonbaar	-8.63817
▁naast	-8.63936
▁multi	-8.63953
▁maanden	-8.64119
▁ml	-8.64211
▁grootcellig	-8.64293
▁longembolie	-8.64877
10	-8.6493
▁pancreatitis	-8.65039
▁coronairarterie	-8.65049
▁gehele	-8.65063
ostmortaal	-8.6571
▁onderbeen	-8.66068
▁kleuring	-8.66124
▁dissectie	-8.66601
▁ziekte	-8.66812
▁rectum	-8.66837
▁laaggradige	-8.66923
▁component	-8.67152
▁verspreid	-8.67435
▁normale	-8.67544
▁arterie	-8.67702
▁zijde	-8.67897
▁diagnostisch	-8.68336
DI	-8.68409
▁invasieve	-8.68467
▁actinisch	-8.68656
▁micro	-8.68888
▁slechts	-8.68987
▁daarbij	-8.68993
▁granulocyten	-8.69284
▁argumenten	-8.69431
▁abdominalis	-8.69454
in	-8.69469
▁haarden	-8.69541
▁colitis	-8.69736
▁kleincellig	-8.70162
▁Hart	-8.70257
▁sinds	-8.7028
▁Concluderend	-8.70379
▁interstitiele	-8.70479
▁tractus	-8.70641
▁Longen	-8.70691
▁infarcten	-8.70781
▁Lever	-8.70875
▁eveneens	-8.70893
▁huidexcisie	-8.71004
▁melanoom	-8.71333
▁vergroot	-8.71462
▁ramus	-8.71493
▁papillair	-8.71759
▁descendens	-8.72472
▁immuun	-8.72976
▁bekende	-8.73079
▁emfyseem	-8.73308
▁wang	-8.73355
▁distale	-8.73503
▁coupes	-8.73519
▁hierbij	-8.74379
▁metastasering	-8.74517
▁galblaas	-8.74586
wangerschapsduur	-8.74701
▁recidief	-8.75144
AA	-8.7517
▁afkomstig	-8.75263
▁cardiaal	-8.75451
▁20	-8.75453
▁mutatie	-8.75526
▁liter	-8.757
▁ulcus	-8.7606
▁afwijkend	-8.76123
▁toename	-8.76178
▁volledig	-8.76184
▁Hierbij	-8.76219
coronairarterien	-8.76283
▁nummer	-8.76288
▁toestemming	-8.76401
▁mellitus	-8.76478
x	-8.76576
▁sprieterig	-8.76707
▁lumen	-8.77088
▁infiltrerend	-8.77256
▁u	-8.77398
▁huidbiopt	-8.77716
▁beoordelen	-8.77937
▁voorkeur	-8.7805
▁uitgesproken	-8.78108
▁urotheelcel	-8.78124
▁terminale	-8.78439
▁behandeld	-8.78589
▁hoeveelheid	-8.78741
▁digestivus	-8.7875
wel	-8.78904
▁drie	-8.79043
h	-8.79438
▁analyse	-8.79471
▁secundair	-8.79767
▁corpus	-8.79944
▁vorm	-8.80143
i	-8.80147
o	-8.80265
▁R	-8.80379
▁afsluiting	-8.80386
▁stent	-8.80719
▁elders	-8.8083
▁atheroscleroti	-8.81041
▁tubulair	-8.81068
▁gestuwd	-8.81623
▁doch	-8.81625
▁11	-8.81746
▁Hersenen	-8.81804
▁dyspnoe	-8.81913
▁vrijwel	-8.82427
▁toch	-8.82452
▁LDH	-8.82926
▁leeftijd	-8.83113
▁alveolaire	-8.83304
▁localisatie	-8.83613
▁marge	-8.83747
▁ductaal	-8.84029
▁zekerheid	-8.84093
▁tijdens	-8.84247
▁RCA	-8.84469
▁eerdere	-8.84673
▁mammacarcinoom	-8.8472
▁bilaterale	-8.84735
▁inwendig	-8.84965
▁perineurale	-8.85366
an	-8.85827
f	-8.85977
▁m	-8.86038
links	-8.86459
▁arterien	-8.86605
▁best	-8.86609
▁vanwege	-8.86992
▁temporaal	-8.87062
▁blijkt	-8.87069
ARD	-8.87094
▁lateraal	-8.87231
▁samen	-8.87405
Geen	-8.87616
▁lichte	-8.87685
▁Geringe	-8.87773
▁coronairen	-8.8857
▁verhoogd	-8.89091
▁voorhoofd	-8.89171
▁positieve	-8.8938
RA	-8.89394
▁snede	-8.8949
▁gebieden	-8.89583
▁pijn	-8.89595
▁Aan	-8.89964
▁uterus	-8.90202
▁schouwing	-8.90247
▁waardoor	-8.90313
▁bovenbeen	-8.90379
▁centraal	-8.90526
▁necrotiserende	-8.90541
▁morfologisch	-8.90672
▁zeker	-8.9093
▁helder	-8.91012
▁myocarditis	-8.91311
ues	-8.91417
linisch	-8.91661
▁zijwand	-8.91884
▁nader	-8.9198
▁vena	-8.91985
▁basale	-8.91998
▁CD	-8.92244
▁distaal	-8.92365
▁pulmonalis	-8.92375
▁oppervlakkig	-8.92473
▁mediastinum	-8.9252
et	-8.92605
▁201	-8.9279
▁behouden	-8.93205
▁reikt	-8.93334
diameter	-8.93934
▁koorts	-8.94209
▁antrum	-8.94209
▁samengestelde	-8.94236
▁bestond	-8.94422
▁doorgroei	-8.94536
ijdens	-8.95137
▁buikholte	-8.9529
▁bijnieren	-8.95329
itgebreide	-8.95394
▁pericard	-8.95522
▁later	-8.96001
▁aanwijzing	-8.96077
▁slechte	-8.96242
▁opvallende	-8.96352
▁endocarditis	-8.96395
ritmestoornissen	-8.96432
▁beschreven	-8.9676
▁plotseling	-8.96783
▁inklemming	-8.97063
pneumonie	-8.97393
▁borst	-8.97574
▁minimale	-8.97723
▁enig	-8.97841
▁resectievlak	-8.98056
▁bijnier	-8.98101
▁pericarditis	-8.98256
▁G	-8.98636
▁hoog	-8.98643
▁darmen	-8.98666
2-	-8.98946
▁specifiek	-8.99061
▁trombus	-8.99168
▁cervix	-8.99387
▁proximale	-8.99496
▁klachten	-8.99641
▁ileum	-9.00124
▁significante	-9.00305
▁trachea	-9.00305
▁oudere	-9.00356
▁ulceratie	-9.00606
us	-9.00995
▁autolyse	-9.01252
▁mannelijke	-9.01573
▁progressieve	-9.0162
▁non	-9.02323
▁Revisie	-9.0249
▁bovenstaande	-9.02509
sch	-9.02531
▁decompensatie	-9.02646
▁s	-9.02991
▁laterale	-9.03068
▁cerebrale	-9.03254
ICRI	-9.03277
▁cerebellum	-9.03277
▁gemacereerde	-9.03336
0-	-9.03377
▁plaats	-9.03441
arterioloscleros	-9.03642
▁volgens	-9.03832
▁eventuele	-9.04176
▁oesofagus	-9.04222
▁nieuwe	-9.04331
▁vermeld	-9.04615
▁therapie	-9.0475
▁beloop	-9.04796
▁daar	-9.0491
▁weke	-9.04928
12	-9.04991
▁purulente	-9.05276
▁vaatlijden	-9.05302
▁hypoxie	-9.05401
▁mate	-9.05538
▁iliaca	-9.05586
▁longcarcinoom	-9.0569
▁doorgemaakt	-9.05802
▁laatste	-9.06232
cm	-9.06428
▁tenminste	-9.06632
▁abdomen	-9.0672
▁Beeld	-9.07047
cel	-9.0709
▁invasief	-9.07244
▁abstinerend	-9.07455
▁coronairlijden	-9.07456
▁veneuze	-9.07768
▁afwezig	-9.07841
▁jaren	-9.0786
▁lichaamsobducti	-9.07981
▁toto	-9.08106
▁differentiaal	-9.08304
▁schouder	-9.08458
201	-9.08624
▁reactief	-9.08786
▁Ernstige	-9.08846
▁snijvlak	-9.09087
▁rondom	-9.09221
▁ileus	-9.0931
acroscopisch	-9.09328
▁totale	-9.09455
▁bodem	-9.0979
▁1,	-9.10152
▁frontaal	-9.10435
▁para	-9.10469
icroscopie	-9.10526
▁ruim	-9.10552
▁hematoom	-9.10575
▁proliferatie	-9.10668
▁consult	-9.10738
▁vooral	-9.10836
▁obstructie	-9.11292
▁organiserende	-9.11327
nvoldoende	-9.11347
slijmvlies	-9.11647
▁kort	-9.11802
▁thorax	-9.11813
te	-9.11882
▁zwaar	-9.12191
ieren	-9.12253
▁score	-9.12261
▁opvallend	-9.12371
▁iets	-9.1248
▁geven	-9.12551
▁dermatitis	-9.12606
▁verse	-9.12609
▁bijgedragen	-9.12864
▁chemotherapie	-9.13189
fibrilleren	-9.13233
▁ritmestoornis	-9.13257
▁ontvangt	-9.13497
heid	-9.13724
▁*******,	-9.13725
▁infarceringen	-9.13796
ze	-9.14449
▁toestand	-9.14516
▁Daarbij	-9.14657
▁overtuigende	-9.14735
▁maximale	-9.14784
▁punctie	-9.14879
▁Hier	-9.14883
1-	-9.14988
▁vergrote	-9.15195
uteriene	-9.15434
▁infiltratie	-9.1593
▁Bowen	-9.15968
▁0,	-9.1604
▁AA	-9.16041
materiaal	-9.1652
▁keratosis	-9.16624
▁coecum	-9.16688
▁Resectie	-9.16728
▁totaal	-9.16854
LLE	-9.16904
▁geduid	-9.17343
▁occlusie	-9.1735
▁verklaart	-9.17437
▁dikke	-9.1753
▁onderarm	-9.17762
▁aanknopingspunt	-9.1795
▁algehele	-9.18211
▁inderdaad	-9.18433
▁ovarium	-9.18531
▁waar	-9.18569
▁overwegend	-9.1863
▁Gleason	-9.18828
▁hersenobductie	-9.18864
▁hoge	-9.19215
▁hierin	-9.19248
▁vrouwelijke	-9.19279
▁kreeg	-9.19511
▁re	-9.19578
▁intact	-9.19873
▁neus	-9.20062
▁anterior	-9.20132
▁voornamelijk	-9.20284
▁danwel	-9.20317
▁bloedverlies	-9.20481
▁overleg	-9.20545
▁transversum	-9.20743
ilt	-9.2075
▁infiltraat	-9.20888
▁gegeven	-9.21054
▁vast	-9.21077
▁gecontraheerd	-9.212
▁reactie	-9.21346
▁toenemend	-9.2145
▁abcederende	-9.21495
l	-9.21499
▁proximaal	-9.21524
▁actinica	-9.21734
▁diverse	-9.21791
re	-9.21799
▁oppervlakkige	-9.2198
▁thoracale	-9.22097
is	-9.22143
▁exon	-9.22197
▁l	-9.22222
▁onderging	-9.22347
▁diagnostiek	-9.22354
of	-9.22367
▁bevinding	-9.22417
▁substraat	-9.22434
▁ingroei	-9.22494
▁ontstond	-9.22603
▁overgang	-9.22628
▁CI	-9.22676
▁vruchtdood	-9.22975
leuravocht	-9.23131
GI	-9.23297
▁perifeer	-9.23349
▁oksel	-9.23568
hyperplasie	-9.23635
▁diepe	-9.23662
▁vasculitis	-9.23742
▁beoordeelbaar	-9.23747
▁atrium	-9.23881
▁daarnaast	-9.23885
▁lengte	-9.2406
▁plaatsen	-9.24101
▁antibiotica	-9.24172
▁kweken	-9.24318
▁groeiwijze	-9.24358
▁x	-9.24431
metastasen	-9.24473
met	-9.24476
ing	-9.24503
▁haard	-9.2456
▁zichtbaar	-9.24749
EG	-9.24791
▁ivm	-9.24794
▁arteriosclerose	-9.24847
ue	-9.24859
▁vanuit	-9.24885
▁CA	-9.24938
▁hiervoor	-9.24944
▁haardvormige	-9.25402
▁superior	-9.2542
▁lichaam	-9.25492
▁nevenbevinding	-9.25761
▁beoordeling	-9.25887
▁circulatie	-9.25925
▁ontbreken	-9.26032
▁waarop	-9.26101
▁bovenarm	-9.26168
▁stolsels	-9.26214
▁trivasculaire	-9.26261
▁afdeling	-9.26345
▁separaat	-9.26377
de	-9.26924
▁achteruitgang	-9.27127
▁ontvangen	-9.27129
▁cerebrum	-9.27167
▁uitwendige	-9.27217
▁parenchym	-9.27397
▁100	-9.27427
▁littekenweefsel	-9.27431
▁failure	-9.276
▁amyloid	-9.2771
▁media	-9.27726
DE	-9.27763
ocaal	-9.27804
11	-9.27813
▁respiratoir	-9.2785
CH	-9.28007
▁zekere	-9.28129
▁haar	-9.28204
▁septisch	-9.28506
▁tumorcellen	-9.28548
▁eventueel	-9.28561
▁HER	-9.28855
▁laat	-9.28869
▁kweek	-9.28918
ER	-9.28928
▁immuno	-9.2893
embolieen	-9.29028
unctie	-9.29276
▁maturatie	-9.29286
▁bespreking	-9.29332
▁snijvlakken	-9.29337
▁harttamponade	-9.29572
▁pleuritis	-9.29582
▁levercirrose	-9.29627
infarcering	-9.29697
▁ons	-9.2984
▁origine	-9.29933
orgaanfalen	-9.29941
▁schedelobductie	-9.3
▁asystolie	-9.30254
▁verleden	-9.30431
▁tijd	-9.3047
▁oppervlak	-9.30642
▁achter	-9.30727
▁hypertroof	-9.30888
▁hoofd	-9.3097
ve	-9.31009
▁mitralisklep	-9.31049
▁prothese	-9.31319
▁Consult	-9.31433
▁wervelkolom	-9.31463
▁zagen	-9.31764
geen	-9.3178
▁midden	-9.3189
▁uren	-9.32012
▁vonden	-9.32016
▁Histologisch	-9.32401
▁dient	-9.32499
▁gastritis	-9.32587
▁neutrofiele	-9.32618
▁hersenstam	-9.32875
▁hemorragische	-9.32925
rine	-9.33134
atige	-9.33149
▁diagnosen	-9.33168
▁diafragma	-9.33251
▁nodulaire	-9.33265
▁granulomen	-9.33277
CHE	-9.33291
▁diverticulitis	-9.33353
▁thuis	-9.336
▁focale	-9.33621
▁verminderde	-9.33673
▁carcinoma	-9.33745
▁on	-9.33805
▁subendocardiale	-9.34134
▁sluiten	-9.34184
▁via	-9.34233
it	-9.34564
naaldbiopten	-9.3459
▁thrombi	-9.34722
▁eosinofiele	-9.34977
▁neuro	-9.34978
▁gedilateerde	-9.35029
▁mede	-9.35093
▁trombo	-9.35096
▁dus	-9.35102
ndanks	-9.35115
▁perifere	-9.35118
▁melanocytair	-9.35139
oorlopige	-9.35612
▁ductus	-9.35937
▁gekweekt	-9.36039
▁dieper	-9.36119
▁datum	-9.36122
▁vers	-9.36219
r	-9.36413
▁foci	-9.36449
▁onderkwabben	-9.36547
▁besloten	-9.36606
▁kleuringen	-9.36633
▁open	-9.36721
▁cortex	-9.36795
▁beperkte	-9.36849
▁bekken	-9.36855
▁mesenterica	-9.369
▁zover	-9.36974
▁2,	-9.3698
▁rol	-9.37019
-201	-9.37046
tal	-9.37081
af	-9.37231
▁stadium	-9.37254
▁hooggradig	-9.37258
▁Endometrium	-9.37352
Deze	-9.37444
▁familie	-9.37516
▁hartinfarct	-9.37628
jaar	-9.37654
▁trombose	-9.37831
nijvlakken	-9.37899
▁witte	-9.37987
▁Echter	-9.38015
▁fixatie	-9.38176
▁blanco	-9.38488
▁directe	-9.38588
▁postmortaal	-9.38672
▁been	-9.38772
▁lies	-9.38774
▁enkel	-9.38837
sinfiltraat	-9.38849
▁thrombo	-9.38863
w	-9.38915
aarschijnlijk	-9.38999
▁bypass	-9.3907
▁liet	-9.39567
glomeruloscleros	-9.39606
CR	-9.39708
▁diep	-9.40254
▁ontkleuring	-9.40266
▁coeur	-9.40266
▁hepatitis	-9.40289
▁IC	-9.40405
▁geruptureerd	-9.40518
▁uitwendig	-9.406
cholecystectomie	-9.40632
▁21	-9.40641
▁grond	-9.40679
bevindingen	-9.40822
▁post	-9.40873
▁hyperplastische	-9.40932
▁macrofagen	-9.40983
▁darmischemie	-9.41387
▁longemfyseem	-9.41512
▁lijden	-9.41573
u	-9.41648
rostaat	-9.41677
▁necrotisch	-9.41798
▁respectievelijk	-9.42115
▁mortis	-9.42142
▁longstuwing	-9.42214
resectie	-9.42603
▁zouden	-9.42605
▁mucosa	-9.42618
▁resectievlakken	-9.42695
▁22	-9.42947
▁middels	-9.43014
▁carotis	-9.43111
▁kliniek	-9.43314
▁ik	-9.43346
▁onbekend	-9.43371
▁mediastinale	-9.43371
▁afstand	-9.43477
▁aanleiding	-9.43578
▁extern	-9.43718
▁abces	-9.4379
▁waargenomen	-9.44133
▁opgegeven	-9.44261
▁zwelling	-9.44333
▁bindweefsel	-9.44554
▁toegenomen	-9.44757
▁Definitief	-9.44841
▁gevuld	-9.44988
▁nierfunctie	-9.45062
rechts	-9.45138
▁bevestigt	-9.45264
▁maagslijmvlies	-9.45345
▁Enkele	-9.45611
▁suggestief	-9.45709
▁oedemateus	-9.46336
▁relatief	-9.46539
▁fase	-9.46686
▁rechterlong	-9.46739
▁thrombose	-9.46819
therosclerotisch	-9.46824
▁celbeeld	-9.47082
▁slap	-9.47249
▁cerebri	-9.47288
▁gestart	-9.47354
▁Causa	-9.47424
aagbiopten	-9.47457
▁Doodsoorzaak	-9.4754
▁uitgevoerd	-9.47915
▁ondanks	-9.4799
rechterventrikel	-9.48078
▁zodat	-9.48122
▁ziekenhuis	-9.48182
▁kernen	-9.48215
transplantatie	-9.48224
▁granulomateuze	-9.48232
on	-9.48445
▁lichen	-9.48745
▁aantal	-9.48754
▁snijranden	-9.48868
▁berusten	-9.48872
▁urine	-9.49047
▁Beide	-9.49057
▁snel	-9.49084
▁bestaan	-9.49174
▁emfysemateuze	-9.49193
▁instantie	-9.49288
ver	-9.49565
▁hartkamer	-9.49916
▁tweede	-9.50044
▁vet	-9.50091
▁geschat	-9.50159
▁Hodgkin	-9.5017
neu	-9.50183
kleuring	-9.50363
▁eczeem	-9.50612
▁ulcererende	-9.50796
▁laag	-9.51048
▁pyelonefritis	-9.51061
▁gestuwde	-9.51147
▁volgen	-9.51193
▁systeem	-9.51247
▁bed	-9.51258
▁levercirrhose	-9.51335
▁hypertrofische	-9.5136
▁invasie	-9.51428
▁lymfocytaire	-9.51686
ook	-9.51688
▁beperkt	-9.51704
▁zware	-9.51724
▁traject	-9.51725
▁onderzocht	-9.5175
▁fragmenten	-9.51755
▁retour	-9.51788
oleculaire	-9.51988
▁coloncarcinoom	-9.52293
▁conditie	-9.52334
▁voorts	-9.52413
▁richting	-9.5255
▁graft	-9.52607
▁anatomische	-9.52946
▁per	-9.52999
▁colonslijmvlies	-9.52999
▁eosinofilie	-9.53129
ekenen	-9.53206
iet	-9.5321
▁macroscopische	-9.53236
normaal	-9.53397
▁lichenoide	-9.53529
▁omentum	-9.53561
▁maand	-9.53651
▁biopsie	-9.53653
▁degeneratieve	-9.53772
▁noch	-9.53814
▁medisch	-9.53867
▁vooralsnog	-9.53885
amma	-9.5417
▁epidermale	-9.54188
▁procedure	-9.54359
▁hartspier	-9.54385
▁doorsnede	-9.54664
▁klep	-9.54745
lijmvliesbiopten	-9.54788
Het	-9.54827
mw	-9.54848
▁blijft	-9.54885
▁circumflexus	-9.5492
▁ouderdom	-9.54928
▁geconstateerd	-9.54989
▁b	-9.5526
▁lymfocyten	-9.55629
▁bepaling	-9.55847
▁mesenterium	-9.56073
▁veranderd	-9.56077
▁embolieen	-9.56077
▁leverstuwing	-9.56105
▁mitralis	-9.56331
▁bronchitis	-9.56338
gecompromitteerd	-9.56485
▁bron	-9.56682
▁celrijk	-9.56901
toevalsbevinding	-9.56903
▁haardjes	-9.56933
▁geboren	-9.57056
▁onduidelijk	-9.5715
onderzoek	-9.57184
▁degeneratie	-9.57198
itslag	-9.57226
▁virale	-9.57286
▁braken	-9.57311
▁opnieuw	-9.57421
▁contact	-9.57516
▁AD	-9.57549
verige	-9.57693
▁gedaan	-9.57945
▁folliculair	-9.57952
-10	-9.58009
▁Hoe	-9.58129
▁mediale	-9.58131
In	-9.58234
▁superficiele	-9.58649
▁gastro	-9.58654
▁slokdarm	-9.58668
▁aanvullende	-9.58737
▁cytologisch	-9.58865
▁Huidbiopsie	-9.58971
▁tumorweefsel	-9.58991
▁huisarts	-9.5931
▁ventrikels	-9.59348
▁radiotherapie	-9.59381
▁multifocaal	-9.59467
▁galwegen	-9.59616
22	-9.5981
▁Her	-9.60004
▁subendocardiaal	-9.60044
▁verslechtering	-9.60118
▁alleen	-9.6032
itwendig	-9.60357
▁regio	-9.60385
▁betreffende	-9.60425
invasieve	-9.60429
▁gespeeld	-9.60473
▁onwel	-9.60487
▁lymfangitis	-9.60494
▁abdominaal	-9.60547
▁val	-9.6057
▁vernauwing	-9.60637
▁revisie	-9.60658
▁extra	-9.60687
▁Differentiaal	-9.6075
▁rand	-9.60902
▁schedelsectie	-9.6101
retroperitoneaal	-9.61133
▁dubbelzijdige	-9.61173
▁buikpijn	-9.61239
▁doorbraak	-9.61255
wee	-9.61266
▁splenitis	-9.6128
▁resten	-9.61403
▁dermatofibroom	-9.61415
uterien	-9.61506
veranderingen	-9.61736
▁pancreaskop	-9.61822
▁dysplastische	-9.61876
beeld	-9.61939
▁betekenis	-9.61962
21	-9.62008
▁moleculair	-9.62047
▁afgenomen	-9.62064
▁gebruik	-9.6221
▁overigens	-9.62359
als	-9.62515
▁duiden	-9.62517
▁bloederig	-9.62639
▁defect	-9.62709
▁bifurcatie	-9.62713
▁uitgaande	-9.62721
▁dorsaal	-9.63209
▁verschillende	-9.63346
gediagnosticeerd	-9.63544
▁peritoneum	-9.63581
▁ingreep	-9.63587
▁direct	-9.63719
aar	-9.63739
▁nu	-9.63767
▁ingezet	-9.63799
▁net	-9.64071
▁vlokatrofie	-9.64088
▁definitieve	-9.64163
▁bronchus	-9.64165
▁flank	-9.64182
dat	-9.64362
▁systemische	-9.64561
▁dementie	-9.64609
▁ander	-9.64804
▁partiele	-9.65011
aag	-9.65018
▁communis	-9.65047
▁meningitis	-9.65099
▁secundaire	-9.65182
▁oedemateuze	-9.65187
▁bacteriele	-9.65232
▁anastomose	-9.65332
▁Acute	-9.65367
▁mediaal	-9.65727
▁linkerlong	-9.65788
▁tamponade	-9.65837
▁tubulusnecrose	-9.65919
▁li	-9.65963
▁beschouwd	-9.66043
▁cysten	-9.66187
▁naadlekkage	-9.66215
▁littekens	-9.66341
▁trombi	-9.66369
▁hemicolectomie	-9.66659
▁portale	-9.66727
▁talrijke	-9.66749
CA	-9.66791
ontstekingsbeeld	-9.66964
▁truncus	-9.67111
▁Barrett	-9.67174
▁lipoom	-9.67294
at	-9.67365
▁AL	-9.67373
▁onderwand	-9.67457
▁achtergrond	-9.67616
▁geval	-9.67838
▁haemorrhagische	-9.6794
▁uw	-9.6799
dien	-9.68043
▁Derhalve	-9.68052
▁plots	-9.68178
▁beschadiging	-9.68189
▁bestaand	-9.68202
▁leukemie	-9.68316
▁Alzheimer	-9.68342
tumorlokalisatie	-9.6835
▁schimmels	-9.68554
▁stroma	-9.68558
▁gestaakt	-9.6856
▁zelf	-9.68566
▁daarna	-9.6858
▁cholecystitis	-9.68583
▁geplaatst	-9.68622
▁nodus	-9.68777
▁*******.	-9.6889
k	-9.68989
▁ureter	-9.68995
▁cor	-9.69046
▁navelstreng	-9.69245
▁hyper	-9.69439
▁Door	-9.69626
▁onderliggende	-9.6965
▁peri	-9.69674
▁classificeren	-9.69709
mm	-9.6991
▁hippocampus	-9.69915
▁drietaks	-9.69937
▁gereanimeerd	-9.69984
▁arrest	-9.70039
▁ontstoken	-9.70274
▁mogelijkheid	-9.70337
▁tegen	-9.70394
▁buikwand	-9.70459
▁maximaal	-9.70505
▁recidiverende	-9.70718
▁stof	-9.70741
▁moment	-9.70903
▁dermis	-9.71046
▁cirrhose	-9.71073
tuwing	-9.71267
▁Gaarne	-9.71353
ste	-9.7138
▁malaise	-9.71439
▁amenorroeduur	-9.71477
uameuze	-9.71587
▁interna	-9.7169
▁risico	-9.71795
-200	-9.71832
▁verlies	-9.71862
▁gehad	-9.71882
▁leverfalen	-9.72087
▁waaronder	-9.72405
infarct	-9.72455
▁infiltratiev	-9.72477
▁hypotensie	-9.72561
▁BRA	-9.72652
▁maceratie	-9.7267
▁slijm	-9.72738
voor	-9.72836
▁infectieuze	-9.72995
bij	-9.7302
▁bloedvaten	-9.73168
ohs	-9.73172
▁lage	-9.73191
▁laaggradig	-9.734
▁ging	-9.73485
▁pleuraholte	-9.73539
▁postmortal	-9.73561
organismen	-9.73708
uor	-9.73732
▁binnen	-9.73779
▁tgv	-9.73786
▁organisatie	-9.73942
▁ulcera	-9.74062
microscopisch	-9.74067
necrose	-9.74107
▁subtotale	-9.74347
▁anemie	-9.74419
▁wisselende	-9.7447
AL	-9.74667
Aanvullend	-9.74759
▁coupe	-9.7477
▁kwam	-9.74839
triumfibrilleren	-9.74912
▁Lymfklier	-9.75186
▁reexcisie	-9.75353
▁gewichten	-9.75426
▁ventrikelwand	-9.75429
▁nr	-9.755
▁aspecifieke	-9.75582
▁ischemisch	-9.75652
▁diverticulose	-9.75723
▁wijzen	-9.76169
▁krap	-9.76504
▁bleken	-9.76736
▁problematiek	-9.76762
DER	-9.76769
▁evident	-9.76831
▁gerelateerd	-9.76957
▁thoracaal	-9.77071
ar	-9.77173
▁even	-9.77212
▁volledige	-9.77267
▁pons	-9.77425
▁haemorrhagisch	-9.77508
▁vasculaire	-9.77694
▁uitspraak	-9.77697
▁max	-9.77729
▁vele	-9.77812
▁cardiac	-9.77817
▁onderbuik	-9.77954
▁apex	-9.78034
▁posterior	-9.78109
▁concordant	-9.78153
▁ver	-9.78157
▁Linker	-9.78159
▁aortaklepstenos	-9.78169
▁amyloidose	-9.78317
ca	-9.78524
▁occipitaal	-9.7861
▁komen	-9.78834
parenchymateuze	-9.78916
▁gepaard	-9.79058
▁classificatie	-9.79061
aaldbiopten	-9.79062
▁aureus	-9.79099
▁coronairvaten	-9.79227
▁ruiterembolus	-9.79442
▁perivasculaire	-9.79443
nder	-9.79535
▁auto	-9.79569
▁coli	-9.79671
▁massaal	-9.79688
achterwand	-9.79728
▁tm	-9.79837
▁transmurale	-9.79913
eer	-9.79991
▁Aanvullende	-9.80185
▁intreden	-9.80188
▁centrale	-9.80227
▁pacemaker	-9.8026
▁pathologisch	-9.80471
▁arterio	-9.80539
▁plasmacellen	-9.80553
▁atelectase	-9.80576
▁choledochus	-9.80754
▁DD	-9.80762
▁grotendeels	-9.80801
▁verkregen	-9.80844
▁basaal	-9.80863
▁casus	-9.80866
▁spierweefsel	-9.80876
Conclusie	-9.81023
▁pathologische	-9.81066
▁cava	-9.81289
▁hersensectie	-9.81333
-2	-9.81709
▁vier	-9.81826
▁level	-9.8191
▁teken	-9.82073
▁bijkomende	-9.82084
▁presenteerde	-9.82121
▁fistel	-9.8213
ostoperatief	-9.82163
▁parietaal	-9.82214
▁adipeuze	-9.82465
▁stolling	-9.82577
gediagnostiseerd	-9.82606
▁mutaties	-9.82738
▁bloedingsfocus	-9.8282
▁calcificaties	-9.82908
200	-9.83239
▁vitaal	-9.83265
▁aankleuring	-9.83289
▁coronaria	-9.8332
atig	-9.83449
▁hypovolemische	-9.83498
▁vorming	-9.83525
▁origo	-9.83597
▁arm	-9.8361
▁gesteld	-9.83636
▁gevolgd	-9.83741
▁cardiogene	-9.83745
y	-9.83775
▁aangegeven	-9.83794
▁langdurige	-9.83824
▁infiltraten	-9.84161
▁oor	-9.84225
▁alcohol	-9.84401
▁differentiatie	-9.84409
▁relatie	-9.84435
▁bacterien	-9.84448
▁icterus	-9.84577
▁Huidstukje	-9.84595
status	-9.84727
▁necrotische	-9.84748
▁laesies	-9.84763
rostaatbiopten	-9.84824
iteindelijk	-9.84918
▁hemisfeer	-9.853
▁mesothelioom	-9.85313
CI	-9.85374
▁low	-9.85429
▁daarin	-9.85473
Er	-9.85507
▁epitheliale	-9.85537
euze	-9.8573
▁voldoende	-9.85774
▁kleinere	-9.85779
▁tumoren	-9.85828
▁transmuraal	-9.85852
▁middenkwab	-9.86008
▁levermetastasen	-9.86222
▁hemangioom	-9.86275
▁circulair	-9.86333
▁Colonbiopten	-9.8644
▁ER	-9.86448
▁geopereerd	-9.86453
▁progressief	-9.86462
▁genen	-9.86519
ra	-9.86524
weefsel	-9.86655
▁concentrische	-9.86662
▁ontwikkeld	-9.86674
▁hulp	-9.86818
op	-9.86855
▁komt	-9.86903
▁bovenbuik	-9.86905
▁Longoedeem	-9.86976
▁cerebellaire	-9.86986
▁neurologische	-9.87115
▁Diagnostiek	-9.87137
▁foetale	-9.87309
▁bestaat	-9.87311
▁disease	-9.8743
▁the	-9.87453
▁verkalkingen	-9.87467
▁moeilijk	-9.87558
▁lokaal	-9.8757
▁gezichtspunten	-9.87654
▁benen	-9.87745
niercelcarcinoom	-9.87753
▁geassocieerd	-9.8777
▁retroperitoneal	-9.87787
▁inferior	-9.8779
▁fibrineuze	-9.87808
-12	-9.87834
▁lobulair	-9.8793
▁uitbreidend	-9.88006
▁terminaal	-9.88051
▁subarachnoidale	-9.88052
▁ostium	-9.88229
ahler	-9.88347
▁hooguit	-9.88424
EH	-9.8854
▁oorzaken	-9.88696
▁leiomyoom	-9.88722
▁verlittekening	-9.88751
▁gaat	-9.88815
klinisch	-9.88826
IGE	-9.88937
▁obv	-9.88946
▁overlijdt	-9.89046
▁aangelegd	-9.8905
▁bijvoorbeeld	-9.89063
metastase	-9.89122
▁blijken	-9.89193
▁cholelithiasis	-9.89271
▁duodeni	-9.89394
isch	-9.89574
▁appendectomie	-9.89632
▁Conform	-9.89737
▁struma	-9.89913
▁lymfeklier	-9.89916
▁basocellulair	-9.89923
▁besproken	-9.9022
orse	-9.90242
▁etiologie	-9.90257
▁Hersenobductie	-9.9031
▁kleppen	-9.90364
▁splenomegalie	-9.90538
▁tumorproces	-9.9057
▁macroscopie	-9.90585
▁langs	-9.90664
▁Hoog	-9.90687
▁maaginhoud	-9.90707
▁trauma	-9.90854
▁hand	-9.90894
gen	-9.90938
▁vragen	-9.91024
afwijkingen	-9.91047
02	-9.91106
owel	-9.91165
ancreas	-9.91402
▁verklevingen	-9.91427
▁hypoxische	-9.91505
RICH	-9.9154
▁Alle	-9.91635
▁sereus	-9.91636
▁appendicitis	-9.91675
▁beoordeeld	-9.91675
▁cysteuze	-9.91704
▁zijdigheid	-9.91927
▁Galblaas	-9.92002
▁af	-9.92035
excisie	-9.92101
▁takken	-9.92175
▁postoperatief	-9.92228
cellymfoom	-9.9227
▁slaap	-9.92274
▁pigment	-9.92373
▁knie	-9.92386
orgaan	-9.92481
▁opnemen	-9.92487
longen	-9.92822
▁hoe	-9.92894
▁grootste	-9.92955
▁muscularis	-9.92968
▁plaveiselcellig	-9.92974
▁pericardvocht	-9.92974
▁metastatisch	-9.93045
▁laparotomie	-9.931
▁preparaat	-9.93222
ermoedelijk	-9.93246
▁fibroserende	-9.93248
oliepectomie	-9.93257
ier	-9.93328
▁hersenonderzoek	-9.93338
uit	-9.93459
▁voet	-9.93588
terke	-9.93614
▁gelaat	-9.93639
as	-9.93643
▁propria	-9.93764
tumor	-9.93824
▁vetnecrose	-9.94004
▁sneevlak	-9.94055
RI	-9.94061
▁bevond	-9.94138
▁haematoom	-9.94282
▁ventraal	-9.94291
ost	-9.94369
▁fibrine	-9.94399
verigens	-9.94403
▁afgesloten	-9.94436
linische	-9.94475
▁druk	-9.94586
biopt	-9.94596
▁prognose	-9.94621
▁longweefsel	-9.94647
▁Biopsie	-9.94857
01	-9.94877
▁thoraxwand	-9.95
▁negatieve	-9.9516
▁complicaties	-9.95229
ipelle	-9.95243
▁aanduiding	-9.95244
▁coronaire	-9.95264
Bij	-9.95287
▁verbloeding	-9.95428
▁st	-9.95447
▁hoogrisico	-9.9555
▁aannemelijk	-9.95551
aortaal	-9.95635
▁anteroseptaal	-9.95678
▁bijna	-9.95696
▁vinden	-9.95744
▁nek	-9.95901
▁lymfeklieren	-9.95902
▁longparenchym	-9.95967
▁urosepsis	-9.9597
▁gaan	-9.96028
▁echo	-9.96072
▁Aorta	-9.96114
▁periode	-9.96257
▁gelokaliseerd	-9.96326
uterusextirpatie	-9.96353
▁stolsel	-9.96353
▁lekkage	-9.96489
▁sub	-9.96615
▁sarcoidose	-9.96677
▁output	-9.96805
▁hierover	-9.96885
▁naad	-9.96902
▁grotere	-9.97216
▁lymfadenopathie	-9.97281
▁cystitis	-9.97387
▁plaatsing	-9.974
▁collaps	-9.97404
▁teruggevonden	-9.97451
▁pus	-9.97515
▁heup	-9.97547
▁bedraagt	-9.97595
▁bevindt	-9.97627
▁endocervicale	-9.9767
▁zwangerschap	-9.97678
▁stenoserende	-9.97938
▁kunt	-9.98008
▁arteriele	-9.98015
▁regressie	-9.98066
▁ontwikkeling	-9.98146
▁stenosering	-9.98167
▁circulatoire	-9.98231
type	-9.98335
▁verslechterde	-9.98422
▁hooggradige	-9.98463
▁glomeruli	-9.98483
DIAG	-9.98613
▁alcoholabusus	-9.98641
ateriaal	-9.98767
▁IBD	-9.99087
▁pinpoint	-9.99247
▁cholestase	-9.99357
um	-9.99527
▁niveau	-9.99707
▁trad	-9.99715
▁ruimte	-9.99722
▁cardiovasculair	-9.99749
▁lentigo	-9.99783
▁appendix	-9.99821
terus	-9.99912
▁juist	-9.99972
▁effect	-10.0001
lacenta	-10.0032
▁hemorragisch	-10.0043
▁intraepithelial	-10.006
▁candida	-10.0077
▁ovaria	-10.0082
▁ribfracturen	-10.0085
▁folliculitis	-10.0086
▁zullen	-10.0092
▁nabij	-10.01
▁leverde	-10.0108
▁panel	-10.0109
▁fibrosering	-10.011
aast	-10.0114
pvallend	-10.0116
▁actief	-10.0119
▁bleke	-10.0139
▁diarree	-10.0139
▁epidermis	-10.0166
▁vriescoupe	-10.0182
▁informatie	-10.0184
▁pulmonaal	-10.0185
▁BI	-10.0188
▁Duodenumbiopten	-10.0195
tweetal	-10.0196
▁gen	-10.0208
▁ade	-10.0215
nijvlak	-10.0216
▁medicatie	-10.0222
biopsie	-10.0232
▁bdz	-10.0243
▁maten	-10.0252
▁Enig	-10.0253
▁circumflex	-10.0254
▁DC	-10.0254
▁laten	-10.0261
▁uteri	-10.0277
meer	-10.0278
verleden	-10.028
▁cirrose	-10.0289
▁Gewicht	-10.0299
Cholecystectomie	-10.0311
▁stroomgebied	-10.0317
-11	-10.0326
▁insufficient	-10.0355
▁longembolien	-10.0356
▁resectieranden	-10.0356
▁troebel	-10.0359
▁beslag	-10.0366
▁vliezen	-10.0366
sverschijnselen	-10.0378
▁neusrug	-10.0389
▁beginnend	-10.0395
▁oog	-10.0399
▁beademing	-10.0415
▁maagantrum	-10.0419
▁profiel	-10.0425
▁stress	-10.0426
▁pathogene	-10.0441
▁bot	-10.0444
▁afsluitende	-10.047
▁metabole	-10.0481
▁staat	-10.0484
▁adhesies	-10.0485
▁inhoud	-10.0495
▁histologische	-10.051
mogelijk	-10.0515
▁stenosen	-10.0517
▁omgevend	-10.052
▁vlak	-10.052
terk	-10.0521
▁bloedstolsels	-10.0524
▁coronairsysteem	-10.0525
▁longbeeld	-10.053
▁papilloom	-10.0568
▁massa	-10.0576
uameus	-10.0577
▁neuroendocrien	-10.058
▁onderliggend	-10.0584
assend	-10.0586
lokalisatie	-10.0593
▁rectosigmoid	-10.0594
▁hoofdstam	-10.0602
nummer	-10.0609
▁nierfalen	-10.0625
geschiedenis	-10.0627
▁structuren	-10.063
▁nigra	-10.0631
▁shaveexcisie	-10.064
▁and	-10.0642
▁Hypertrofie	-10.0646
▁aandoening	-10.0648
▁geeft	-10.065
▁toxisch	-10.0651
▁prostaatbiopten	-10.0668
▁optreden	-10.0686
▁classificerend	-10.0692
gebied	-10.0697
▁buiten	-10.0721
▁verzoek	-10.0722
▁Appendectomie	-10.073
▁secretariaat	-10.0743
▁zone	-10.0753
▁pyelum	-10.0754
▁trivasculair	-10.076
▁corticale	-10.076
ardiorespiratoir	-10.0773
▁Crohn	-10.0776
▁sinus	-10.0786
▁atypisch	-10.0787
▁instabiele	-10.0792
decompensatie	-10.0805
▁vervolgens	-10.0808
ort	-10.0809
▁persisterende	-10.082
▁aldaar	-10.0828
cc	-10.0828
▁uitgenomen	-10.0829
urineweginfectie	-10.0836
setting	-10.0846
lever	-10.0849
▁lymfoide	-10.0871
▁achteruit	-10.0881
na	-10.0888
▁ambulance	-10.0892
▁onbekende	-10.0894
▁dominant	-10.0898
▁verkleuring	-10.0903
▁renalis	-10.0903
▁volgende	-10.0906
amengevat	-10.0911
▁leek	-10.0913
▁longafwijkingen	-10.0925
▁openen	-10.0926
▁stellen	-10.0935
▁Beiderzijds	-10.0937
▁mucineus	-10.0939
▁tubulovilleus	-10.0941
inds	-10.0943
yocard	-10.0948
▁verkleefd	-10.0956
▁invasiediepte	-10.0969
▁nauwelijks	-10.0978
▁situatie	-10.098
▁Huidstans	-10.0986
▁anus	-10.0999
▁nefrectomie	-10.0999
▁pro	-10.1001
▁minimaal	-10.1008
▁volgde	-10.1018
▁kapsel	-10.1019
▁waaraan	-10.1021
▁daarvan	-10.1021
▁deposities	-10.1025
▁microorganismen	-10.1028
▁uitsluitend	-10.1036
▁inclusief	-10.1036
▁chirurgisch	-10.104
▁minuten	-10.1042
▁intravasa	-10.1056
▁EB	-10.1061
ader	-10.1067
▁plaveiselepithe	-10.1067
▁maken	-10.1069
▁stoma	-10.1071
▁lumina	-10.1071
▁milde	-10.1081
ro	-10.11
hart	-10.1103
▁thoracalis	-10.1112
▁ontstekingsrest	-10.1112
▁lymfocytose	-10.1117
▁verloop	-10.1126
LLI	-10.1132
cellen	-10.1133
▁diepte	-10.1134
▁care	-10.1134
▁hepatocellulair	-10.1136
▁gemaakt	-10.1136
sreactie	-10.1161
▁verandering	-10.1163
Huidbiopt	-10.1173
▁variant	-10.1174
▁palliatief	-10.1174
▁hierboven	-10.1177
▁Long	-10.1181
thorax	-10.1182
▁patroon	-10.1183
tische	-10.1189
om	-10.1189
▁Rechter	-10.1198
▁functie	-10.1226
ritmestoornis	-10.1243
▁enigszins	-10.1243
▁weer	-10.1247
▁fibreuze	-10.1247
oorlopig	-10.1253
▁Hb	-10.1256
▁algemene	-10.1262
▁bulleus	-10.1264
eke	-10.1264
▁lokalisaties	-10.1267
▁kenmerkend	-10.1269
▁bijbehorend	-10.1283
▁omgeving	-10.1288
▁micronodulaire	-10.1296
▁longfibrose	-10.1299
▁dank	-10.1304
▁vulgaris	-10.1306
▁aanleggen	-10.1307
▁Inwendig	-10.1311
▁zo	-10.1317
▁aanvulling	-10.1327
nderzoek	-10.133
ur	-10.1335
▁grafts	-10.1342
▁et	-10.1343
Revisie	-10.1352
klepvervanging	-10.138
▁aantoonbare	-10.14
▁intern	-10.1404
▁representatief	-10.1407
▁aftakkingen	-10.1414
lecystolithiasis	-10.1414
waarschijnlijk	-10.1417
z	-10.1421
gesteronreceptor	-10.1423
▁melaena	-10.1428
▁varices	-10.1433
▁consistentie	-10.1442
▁aanvankelijk	-10.1443
weken	-10.1446
▁bilateraal	-10.1448
▁serosa	-10.1462
ICR	-10.1463
▁chirurgie	-10.1465
▁holte	-10.1467
▁geboorte	-10.1488
▁soms	-10.1496
▁tuba	-10.1505
▁ischaemisch	-10.1507
▁fibrotische	-10.151
▁thoraxholte	-10.1513
▁bleef	-10.1531
▁Beenmerg	-10.1536
▁morfologische	-10.1536
▁out	-10.1539
▁hernia	-10.1542
▁fractuur	-10.1543
▁gesuperponeerd	-10.1544
den	-10.1551
▁multipel	-10.1557
▁compleet	-10.1558
aortale	-10.1561
▁tezamen	-10.1566
splenomegalie	-10.157
▁duidend	-10.1572
▁gevallen	-10.1573
▁onverwacht	-10.1579
▁lokale	-10.1587
▁wisselend	-10.161
▁craniaal	-10.1613
▁expressie	-10.1631
DL	-10.1634
dometriumpoliep	-10.164
▁hr	-10.1649
▁lastig	-10.1652
▁infectieus	-10.1664
▁spongiotische	-10.1668
▁herkenbaar	-10.1668
▁nefropathie	-10.1671
▁darmlissen	-10.1691
▁activiteit	-10.1709
▁erosieve	-10.1718
▁neuronen	-10.1723
▁myeloide	-10.1724
▁lijken	-10.1727
▁afwijkende	-10.1728
anwege	-10.1729
▁Al	-10.1739
▁hydronefrose	-10.1741
▁01	-10.1766
laveiselepitheel	-10.1769
proliferatieve	-10.1785
▁leven	-10.1785
▁grensvlak	-10.1789
▁histomorfologi	-10.1789
umor	-10.1806
▁aspergillus	-10.1814
▁hele	-10.1825
▁uiting	-10.1827
existente	-10.183
ultipele	-10.1835
▁papillairspier	-10.1837
▁feit	-10.1854
▁aanvrager	-10.1854
▁gecollabeerd	-10.1858
▁darmslijmvlies	-10.1861
▁hepato	-10.1873
▁verwerkt	-10.1878
▁fibreus	-10.1887
▁compressie	-10.189
▁staken	-10.1902
▁luchtwegen	-10.1904
▁adnex	-10.1906
▁adnexen	-10.1913
▁heldercellig	-10.1916
graad	-10.1927
▁poliepectomie	-10.1931
▁wond	-10.1953
▁verkalking	-10.1962
▁intracerebrale	-10.1965
▁drain	-10.1974
▁dikte	-10.1977
▁2000	-10.198
▁kond	-10.1991
▁succesvol	-10.2005
▁derden	-10.2008
▁toe	-10.201
▁blokje	-10.202
▁externa	-10.203
▁Drie	-10.2037
▁vernauwd	-10.204
▁complicatie	-10.2044
▁Is	-10.2054
evenbevindingen	-10.2072
▁atrofisch	-10.2074
▁rode	-10.2079
▁compact	-10.2084
epitheel	-10.2089
▁verbetering	-10.2092
▁dextra	-10.2093
scan	-10.2103
▁bevat	-10.2114
▁noemenswaardig	-10.2116
▁vitale	-10.212
▁mid	-10.2134
positieve	-10.2136
▁RC	-10.2137
▁subcutis	-10.2141
▁geruptureerde	-10.2143
▁Lewy	-10.2154
▁cachectische	-10.2165
▁jejunum	-10.2174
▁tumorvrij	-10.219
▁maart	-10.2204
chedelsectie	-10.2211
▁genomen	-10.2279
▁neuropatholoog	-10.2283
▁coeliacus	-10.2287
▁astma	-10.2287
▁cardio	-10.2289
▁Licht	-10.2293
▁hilus	-10.2297
▁interne	-10.2298
▁multiple	-10.2299
negatief	-10.2307
▁randen	-10.2312
▁operatiegebied	-10.2319
▁geleden	-10.232
▁flow	-10.2327
▁ECG	-10.2327
ud	-10.2332
▁toegestaan	-10.2336
▁respons	-10.2336
ergens	-10.234
immuunhistochemi	-10.234
▁beste	-10.2342
▁intensive	-10.2349
▁gefragmenteerd	-10.2361
▁structurele	-10.2361
ath	-10.2362
▁Huidstansbiopt	-10.2378
▁verhoornend	-10.2378
▁gedecompenseerd	-10.2394
st	-10.2401
▁gliose	-10.2419
▁leverparenchym	-10.242
▁Hierna	-10.2427
▁segment	-10.2431
▁Giardia	-10.2435
pathologie	-10.244
skenmerken	-10.2443
▁opruimreactie	-10.2444
▁schors	-10.2445
AD	-10.2451
▁aanleg	-10.2454
▁Bevindingen	-10.2455
chorioamnionitis	-10.246
▁musculus	-10.247
▁moleculaire	-10.2474
▁bronchi	-10.2483
▁intradermale	-10.2492
▁mesenteriale	-10.2493
▁interstitieel	-10.2498
▁lang	-10.2498
▁neuropathologie	-10.2512
▁aankomst	-10.2512
nt	-10.2516
▁gekend	-10.2517
▁januari	-10.2523
▁leverhilus	-10.2534
▁geirriteerde	-10.2536
▁buikklachten	-10.2536
▁bijbevinding	-10.2553
▁hospital	-10.2553
childklier	-10.2568
▁correlatie	-10.2569
▁Cervixbiopt	-10.257
gr	-10.2571
▁handrug	-10.2572
▁typisch	-10.2578
▁hyperkeratose	-10.2586
▁node	-10.2586
▁stenen	-10.2594
▁sprieterige	-10.2594
▁cho	-10.2597
▁ondergaan	-10.2597
▁Li	-10.2597
▁geel	-10.2617
▁brein	-10.2619
▁leverfunctie	-10.2622
coronairlijden	-10.2624
▁behaard	-10.263
▁ruggenmerg	-10.2634
supraclaviculair	-10.2637
▁onderzochte	-10.2649
oleculair	-10.2652
▁onderlip	-10.2652
▁snelle	-10.2669
▁geslacht	-10.2669
▁macro	-10.2669
▁Cytologisch	-10.2675
▁purulent	-10.2675
▁verwijd	-10.2678
▁bevatten	-10.2698
▁restlumen	-10.2702
▁mitraalklep	-10.2706
▁dissociatie	-10.2713
▁dermaal	-10.2714
▁morfologie	-10.2714
▁vertakkingen	-10.2717
▁dehydratie	-10.2726
▁embolus	-10.2732
▁hemodynamische	-10.2746
▁adipositas	-10.2749
▁vond	-10.2755
▁caudaal	-10.2758
▁poliepen	-10.2762
▁2-	-10.2765
ranulatieweefsel	-10.2774
▁kruin	-10.2775
▁tpv	-10.2783
▁ulcererend	-10.2784
▁medulla	-10.2802
laatselijk	-10.2804
▁urineblaas	-10.2806
▁langdurig	-10.2812
▁longemboli	-10.2812
▁nefrosclerose	-10.2814
▁helft	-10.2819
▁tel	-10.282
▁Ascites	-10.2822
▁vasoinvasie	-10.2823
▁epicard	-10.2828
prothese	-10.2828
▁telefonisch	-10.2832
operatie	-10.2838
chedelobductie	-10.284
▁gecombineerd	-10.2842
strogeenreceptor	-10.2845
▁Bcel	-10.2848
▁granuloma	-10.2849
▁overgeplaatst	-10.2868
aagslijmvlies	-10.2872
voorwand	-10.2875
▁patholoog	-10.2879
Huidexcisie	-10.288
▁antibiotisch	-10.2887
▁Coupes	-10.2894
▁architectuur	-10.2894
▁ongewijzigd	-10.2894
▁microbiologisch	-10.2912
▁acuta	-10.292
▁fraai	-10.2922
▁scheur	-10.2924
▁overwegingen	-10.2927
▁inspectie	-10.2946
▁belangrijke	-10.2948
IA	-10.2949
reactie	-10.2952
intestinale	-10.2958
vorming	-10.2958
▁vraagstelling	-10.2961
hyperkeratotisch	-10.2972
▁globale	-10.2979
▁epilepsie	-10.298
▁CLL	-10.2987
▁Colonslijmvlies	-10.2989
infectie	-10.299
▁neoplasie	-10.2991
▁problemen	-10.2995
bloeding	-10.2996
▁plaatsgevonden	-10.2999
▁ouder	-10.3002
stwaarschijnlijk	-10.3003
▁intracraniel	-10.3006
▁neusvleugel	-10.3008
itgebreid	-10.303
▁overeen	-10.3038
▁herstel	-10.3051
▁Gleasonscore	-10.3052
▁aanspreekbaar	-10.3056
▁Recent	-10.3071
ormaal	-10.3073
▁ingenomen	-10.3076
▁spier	-10.3095
▁heb	-10.3105
▁steatohepatitis	-10.3111
nevenbevindingen	-10.3121
▁Resectievlakken	-10.3125
▁hartfunctie	-10.3127
▁ulcerosa	-10.3131
existent	-10.3149
▁sinistra	-10.3158
▁fragment	-10.316
▁beeldvorming	-10.3163
▁dunnedarm	-10.3176
▁cerebraal	-10.3182
▁schimmel	-10.3183
▁spreidend	-10.3185
▁hieraan	-10.3187
▁retroperitoneum	-10.3193
▁dicht	-10.3193
▁inflammatoire	-10.3206
▁vaat	-10.3209
▁kg	-10.3216
▁Reanimatie	-10.323
proliferatie	-10.3242
▁coeliakie	-10.3248
▁hierdoor	-10.3267
▁klier	-10.3284
acroscopie	-10.3287
▁instabiel	-10.3294
▁Colon	-10.3301
▁evenmin	-10.3305
▁verzocht	-10.332
▁diam	-10.3328
▁subcutaan	-10.3331
▁dorsale	-10.3333
▁romp	-10.3336
▁antistolling	-10.3342
▁hemodynamisch	-10.3343
▁Creutzfeldt	-10.3354
▁fibroadenoom	-10.3357
niet	-10.3373
▁naaldbiopten	-10.3373
▁Centrum	-10.3374
▁station	-10.3376
▁darmwand	-10.3378
▁ze	-10.3384
▁opgestuurd	-10.3405
▁letsel	-10.3415
▁naden	-10.342
▁diabetische	-10.3423
▁planus	-10.3429
amputatie	-10.343
▁cardiomyocyten	-10.343
▁wijst	-10.3431
▁valt	-10.3435
▁thalamus	-10.3436
▁hypoxisch	-10.344
▁neurologisch	-10.345
li	-10.3482
▁achterhalen	-10.3484
▁nefritis	-10.3485
▁myocardischemie	-10.3487
▁exacerbatie	-10.3488
▁nadere	-10.3489
▁hartstilstand	-10.3492
akob	-10.3512
▁hersenoedeem	-10.3512
▁angio	-10.3519
▁maagbiopten	-10.3521
linker	-10.3534
onwaarschijnlijk	-10.3536
▁wenkbrauw	-10.3541
▁extirpatie	-10.3546
ische	-10.3552
eu	-10.356
▁klieren	-10.3568
▁staan	-10.3573
▁immunohistochem	-10.3574
ehalve	-10.358
▁ribben	-10.3581
▁sigmoidresectie	-10.3585
▁longkwabben	-10.3596
▁Links	-10.3602
▁hoofdbronchus	-10.3606
▁adenomateuze	-10.362
▁literatuur	-10.3624
voedingstoestand	-10.3624
▁Blaas	-10.3626
rest	-10.3638
▁der	-10.3648
▁myometrium	-10.3671
uate	-10.3681
▁suspect	-10.3691
▁vegetaties	-10.3702
▁orgaan	-10.3704
▁oblongata	-10.3708
▁rood	-10.3712
▁kuit	-10.3714
▁Elders	-10.3715
▁embolie	-10.373
arkinson	-10.3733
▁denken	-10.3742
▁ernst	-10.3765
▁lab	-10.3776
▁pneumothorax	-10.3777
▁thv	-10.3779
van	-10.3783
▁circulaire	-10.3788
▁tb	-10.3793
▁lange	-10.3802
uentie	-10.3808
▁Gegeneraliseerd	-10.381
▁reden	-10.3811
▁beelden	-10.382
▁Rond	-10.3823
▁doorsnijdingen	-10.3823
▁plaveisel	-10.3828
▁correleren	-10.3832
▁tepel	-10.3833
▁bil	-10.3844
▁amplificatie	-10.3846
▁hiermee	-10.3847
▁wijzend	-10.385
▁hepatis	-10.385
▁Cervix	-10.3866
▁Bronchopneumoni	-10.3868
▁Rechts	-10.387
▁hersen	-10.3872
▁zogenaamd	-10.3881
▁bepaald	-10.3888
▁bloedinkjes	-10.3892
▁sarcoom	-10.3911
▁lucht	-10.3922
▁levert	-10.3925
▁klasse	-10.3933
▁zondermeer	-10.3936
▁spoedeisende	-10.3937
▁celarm	-10.3939
rechter	-10.3948
▁overvulling	-10.3949
▁haardje	-10.3953
▁parotis	-10.3954
▁geperforeerd	-10.3954
▁postoperatieve	-10.3967
▁levercelverval	-10.3967
▁samenhangend	-10.3969
▁slijmvormend	-10.3975
▁rib	-10.3979
▁helicobacter	-10.3984
ijn	-10.3984
▁bevestiging	-10.4002
▁uiteinden	-10.4011
▁substanti	-10.4017
▁oorschelp	-10.4018
▁verminderd	-10.4024
▁steatosis	-10.4025
week	-10.4027
▁aortadissectie	-10.4033
▁betreffen	-10.4044
▁arts	-10.4054
▁resultaat	-10.4054
▁ligt	-10.4054
▁aangezien	-10.4063
▁cholangitis	-10.4073
▁vijf	-10.408
▁schedel	-10.4083
▁betrekking	-10.4083
▁palliatie	-10.4086
▁divertikel	-10.4092
▁korte	-10.4099
ten	-10.4103
▁subduraal	-10.4112
▁extranodale	-10.4114
▁complete	-10.4119
▁radicaliteit	-10.4119
▁papil	-10.4123
▁Intra	-10.4141
▁ascitesvocht	-10.4142
▁Aanwijzing	-10.4147
▁keratoacanthoom	-10.4147
Diagnosen	-10.4152
▁voorkomen	-10.417
▁verval	-10.4175
illis	-10.4179
▁aard	-10.4183
▁genetisch	-10.4186
▁uiteinde	-10.4195
▁grootte	-10.4212
invasie	-10.4218
▁mei	-10.4219
▁anatomisch	-10.4227
▁cavum	-10.4231
▁discrete	-10.4231
maal	-10.4232
stoornis	-10.4256
verantwoordelijk	-10.4261
▁anti	-10.4262
▁april	-10.4262
▁Dunne	-10.427
▁onderrug	-10.4276
▁bovenlip	-10.4279
▁forward	-10.4281
▁basilaris	-10.4284
▁achterst	-10.4304
▁rechtszijdig	-10.4306
ooralsnog	-10.4312
▁belangrijks	-10.4318
taks	-10.4323
▁lumbaal	-10.4325
▁influx	-10.4331
▁kin	-10.4333
▁oesofagitis	-10.4341
▁acidose	-10.4348
▁Bovendien	-10.4351
▁alhier	-10.4351
▁beschouwen	-10.4351
▁rectumcarcinoom	-10.4357
erspreid	-10.436
▁maakt	-10.4363
▁februari	-10.4366
▁amputatie	-10.437
▁wervel	-10.4373
▁posteroseptaal	-10.4377
▁terug	-10.4383
▁lymfangio	-10.4392
actieve	-10.4396
▁lienalis	-10.4411
▁kwabben	-10.4412
▁larynx	-10.4434
▁infaust	-10.4443
▁evenwel	-10.4445
▁nagenoeg	-10.4451
▁hemorrhagische	-10.4458
etastasen	-10.4468
▁urotheel	-10.4471
▁berust	-10.4479
LAD	-10.4484
aal	-10.4488
▁flexu	-10.4495
ovariumcarcinoom	-10.4512
▁nee	-10.4529
▁Diameter	-10.4542
sub	-10.4544
▁gedeelte	-10.4545
▁instabiliteit	-10.4554
▁locatie	-10.4565
▁verkalkte	-10.458
orbus	-10.459
▁maagcorpus	-10.4591
▁1000	-10.4613
▁sternum	-10.4618
abdominale	-10.4624
▁geobjectiveerd	-10.4626
filtratiediepte	-10.4635
▁Beenmergbiopt	-10.4637
positief	-10.4641
sepsis	-10.4646
tv	-10.4647
▁voorwandinfarct	-10.4648
sclerose	-10.465
▁Behouden	-10.466
▁myocardial	-10.4667
coli	-10.4672
▁cysteus	-10.4672
▁cachexie	-10.4694
▁pleuraholten	-10.4695
▁wie	-10.4697
▁vaatjes	-10.47
▁darmischaemie	-10.4721
▁hepatica	-10.4724
▁mammaweefsel	-10.4726
▁ruimten	-10.4732
ieuwe	-10.4745
▁dysmorf	-10.4745
▁bevestigen	-10.4751
▁pericardholte	-10.4752
▁progressie	-10.4755
▁merg	-10.4763
▁axilla	-10.4765
dissectie	-10.477
▁posterolateraal	-10.4771
▁infect	-10.4771
fragmenten	-10.478
▁vaak	-10.4782
▁tak	-10.4785
▁pols	-10.4788
Anat	-10.4789
alveolaire	-10.4792
▁destructie	-10.48
wand	-10.4801
▁infiltratief	-10.4811
▁ontstane	-10.4814
rwijl	-10.4816
▁streaks	-10.4818
▁hierop	-10.482
▁scapula	-10.4824
ontsteking	-10.4829
ast	-10.4836
▁abcessen	-10.4836
▁porta	-10.484
▁voorste	-10.484
▁hersenarterien	-10.4846
▁eindstadium	-10.485
leine	-10.4853
multiorgaanfalen	-10.4865
▁angiopathie	-10.4872
▁resp	-10.4875
▁simplex	-10.4876
▁gele	-10.4877
▁agonale	-10.4878
▁blasten	-10.4879
▁maagresectie	-10.488
▁Radicaal	-10.4888
▁plak	-10.4889
▁anaplastisch	-10.4892
▁angina	-10.4893
▁geperforeerde	-10.4903
▁partus	-10.4911
▁hadden	-10.4914
▁metaplastisch	-10.4919
procedure	-10.4927
ad	-10.4929
▁receptor	-10.493
▁bewustzijn	-10.4953
▁backward	-10.4961
▁oesophagitis	-10.4966
▁verwekker	-10.497
▁ooghoek	-10.4975
▁verdikte	-10.4976
▁aa	-10.4994
curettage	-10.4999
▁min	-10.4999
▁with	-10.5006
▁uitval	-10.5008
ors	-10.5009
lijn	-10.5025
ide	-10.5027
ater	-10.5028
score	-10.5035
▁kind	-10.5036
▁belang	-10.5037
broekprothese	-10.5041
eeds	-10.5043
▁psoriasis	-10.5049
▁rechternier	-10.5049
▁juni	-10.506
▁context	-10.507
▁tumorload	-10.5071
▁parietalis	-10.5072
▁zes	-10.5073
▁derde	-10.5081
hypertensieve	-10.5087
▁vaatwand	-10.5095
▁ureteren	-10.5096
▁resterende	-10.5099
embolus	-10.5102
▁subcutane	-10.5102
▁galstenen	-10.511
▁zin	-10.5116
▁aortaboog	-10.5117
▁mediaan	-10.5121
▁afmeting	-10.5129
▁posterieur	-10.5133
▁abusus	-10.5133
▁behulp	-10.5135
Alab	-10.5138
▁longlijden	-10.5139
▁hersenbloeding	-10.5139
▁petechien	-10.5151
▁men	-10.5155
▁thymus	-10.516
▁hematopoese	-10.5168
▁co	-10.517
▁hydrocephalus	-10.5174
▁gerelateerde	-10.5175
▁laboratorium	-10.5176
eest	-10.5188
▁pretibiaal	-10.52
▁darmperforatie	-10.5204
▁Bijkomende	-10.5208
edisch	-10.5209
▁positiviteit	-10.5215
▁aantasting	-10.5218
▁bestraling	-10.5228
enslotte	-10.5233
▁alcoholische	-10.5241
▁middel	-10.525
▁groep	-10.5251
rechteronderkwab	-10.5257
▁consultatie	-10.5267
▁wellicht	-10.5275
▁pleurale	-10.5278
▁gaarn	-10.5279
▁erfelijke	-10.528
AR	-10.5288
▁lobaire	-10.529
Biopten	-10.5291
coronairarterie	-10.5292
▁subclavia	-10.5299
▁editie	-10.5299
▁gelocaliseerd	-10.5302
▁fatty	-10.5304
▁onderscheid	-10.5311
▁papperig	-10.5316
sis	-10.5317
LI	-10.532
▁verwijding	-10.5322
▁factor	-10.5323
▁HI	-10.533
▁maligna	-10.5333
▁obesitas	-10.5333
▁atria	-10.5333
▁hartdood	-10.5333
▁premaligniteit	-10.5334
▁relevante	-10.5337
▁lobectomie	-10.5341
▁gaande	-10.5342
▁bovengenoemde	-10.5352
diagnose	-10.5357
▁december	-10.5358
▁voorlopig	-10.5358
▁ingesloten	-10.5373
▁waarme	-10.5395
▁hierna	-10.5406
je	-10.5414
aaldbiopt	-10.5416
▁vasculopathie	-10.5418
▁maagcarcinoom	-10.5431
▁myeloom	-10.5433
▁preauriculair	-10.5434
▁vaso	-10.5435
iernaast	-10.5439
▁collega	-10.5439
▁stuwingsbeeld	-10.5444
▁verschijnselen	-10.5458
onder	-10.5463
▁arteriolosclero	-10.5471
▁setting	-10.5472
Anummer	-10.5491
▁verwijde	-10.5495
▁verdikt	-10.5498
hipple	-10.5499
▁november	-10.5518
▁dialyse	-10.5519
▁subacute	-10.5519
▁femoralis	-10.5529
eerd	-10.5532
▁hepatomegalie	-10.5546
▁neuspunt	-10.5546
▁augustus	-10.5548
▁Chronische	-10.5556
▁mediastinaal	-10.5559
▁preexistente	-10.5562
end	-10.5568
▁dubieus	-10.5572
▁sclerosus	-10.5579
▁maagperforatie	-10.5583
▁opzichte	-10.5586
erslag	-10.5589
▁vervetting	-10.5589
▁histologie	-10.5591
▁los	-10.5592
▁amenorrhoeduur	-10.5607
▁misselijkheid	-10.5609
▁Bethesda	-10.5616
▁indien	-10.5626
▁faecale	-10.5635
▁doen	-10.5637
▁membranen	-10.564
▁frontale	-10.5642
▁rechterzijde	-10.5649
▁fre	-10.5653
▁juli	-10.5654
▁oktober	-10.5658
▁Hersenonderzoek	-10.5664
resectievlak	-10.5668
▁ieder	-10.5671
▁stam	-10.5689
▁perivasculair	-10.5692
▁mesenteriaal	-10.5696
▁micronodulair	-10.5702
Hodgkinlymfoom	-10.5705
▁peritoneale	-10.5707
lein	-10.5724
▁Candida	-10.5728
▁testis	-10.5736
▁detrusor	-10.5739
▁endocervicaal	-10.5741
▁dezelfde	-10.5745
enkele	-10.5748
▁papmilt	-10.575
ic	-10.5753
celcarcinoom	-10.5761
▁cardia	-10.5768
embolie	-10.577
▁LI	-10.5772
paraneoplastisch	-10.5777
▁jonge	-10.5778
▁vermoeden	-10.5782
▁cel	-10.5786
▁cholangio	-10.5797
tumorlocalisatie	-10.5802
▁pectoris	-10.5807
▁herkend	-10.581
betrouwbare	-10.581
▁pneumoniae	-10.5825
▁encefalopathie	-10.5826
▁transplantatie	-10.5827
▁seniele	-10.5831
▁papillomatosus	-10.5845
▁hypoplasie	-10.5849
▁random	-10.5854
circa	-10.586
▁hyperplastisch	-10.5867
▁bradycardie	-10.5871
myocardischaemie	-10.5871
▁oorsprong	-10.588
▁restant	-10.588
▁redelijk	-10.5882
▁Hersensectie	-10.5883
2)	-10.5883
▁virus	-10.5887
abdominaal	-10.5892
▁typering	-10.5894
▁goedaardig	-10.5894
▁tumorhaarden	-10.5895
▁intima	-10.5898
curettement	-10.5899
▁volume	-10.5906
▁staphylococcus	-10.5906
sactiviteit	-10.5909
ractus	-10.5911
▁immature	-10.5915
▁drainage	-10.5922
adenocarcinoom	-10.5923
▁vlekkig	-10.5926
▁Andere	-10.5936
100	-10.5948
▁Huidresectie	-10.5958
▁corpustype	-10.5967
max	-10.5986
▁mechanische	-10.5992
▁RE	-10.5999
▁linkerzijde	-10.6002
▁prominente	-10.6019
1)	-10.6035
▁elkaar	-10.6044
▁simpel	-10.6057
▁2012	-10.6061
▁divertikels	-10.6063
▁Bijnieren	-10.6069
▁cell	-10.6075
▁gisten	-10.6076
schimmelinfectie	-10.6084
beensamputatie	-10.6088
▁georganiseerde	-10.609
▁trisomie	-10.6108
▁urethra	-10.6112
▁variatie	-10.6123
▁curettage	-10.6125
▁overtuigend	-10.613
▁betrouwbaar	-10.6135
▁preexistent	-10.6142
over	-10.6149
rt	-10.6157
operatief	-10.6164
▁digitus	-10.6166
ter	-10.6167
▁hematomen	-10.6176
Consult	-10.6181
ormale	-10.6189
▁Huidshave	-10.6196
▁anaemie	-10.6201
▁depositie	-10.6204
▁doorsneden	-10.6206
▁granulerende	-10.6209
▁gastropathie	-10.621
▁kleur	-10.6211
▁ritme	-10.6213
▁chromosomale	-10.6214
▁verweking	-10.6214
▁bovenste	-10.6217
ende	-10.6224
▁translocatie	-10.6224
▁venen	-10.6233
▁Litteken	-10.6236
▁spontaan	-10.6238
▁pijnklachten	-10.6238
▁tumorpositief	-10.625
▁dame	-10.6252
▁perfusie	-10.6253
▁2011	-10.6258
jarig	-10.6259
▁verruc	-10.6267
▁stents	-10.627
GEE	-10.6271
▁groeirestrictie	-10.6274
▁lymfogene	-10.6274
ectomie	-10.6278
▁aortawand	-10.6285
RE	-10.6291
▁Aangezien	-10.6292
▁windingen	-10.6293
*******)	-10.6294
▁bloedkweek	-10.6301
▁carcinoid	-10.6301
▁afname	-10.6304
▁stollings	-10.6306
rh	-10.6327
▁submucosa	-10.6341
▁2001	-10.6345
▁luchthoudend	-10.6346
▁doet	-10.6347
▁granulocytair	-10.6347
▁ulceraties	-10.6349
▁top	-10.635
▁lieten	-10.635
▁vergroeid	-10.6354
▁Daar	-10.6367
ALE	-10.637
▁vlekkerig	-10.6377
▁behoeve	-10.6384
▁fibro	-10.6384
▁pulpa	-10.6384
▁multifocale	-10.6386
athologie	-10.6389
▁wervels	-10.6391
▁Hypertrofisch	-10.6407
▁encephalopathie	-10.6411
▁scalp	-10.6422
▁rejectie	-10.6428
syndroom	-10.644
▁bloederige	-10.645
▁tau	-10.6454
▁tubuli	-10.6459
▁tubulus	-10.647
▁leidend	-10.6477
▁ondersteuning	-10.648
▁Groot	-10.6482
▁psoas	-10.6484
immuun	-10.6486
▁leiomyomen	-10.6496
▁woog	-10.6496
▁bovenkwabben	-10.6496
▁multinodulair	-10.6497
▁lumpectomie	-10.6497
▁glandulaire	-10.6498
▁factoren	-10.6505
▁stoornissen	-10.6513
▁geneesmiddelen	-10.6514
▁transformatie	-10.6525
▁nietkleincellig	-10.6531
incontinentie	-10.6541
▁sentinel	-10.6551
▁atrofische	-10.6572
▁longvaten	-10.6573
▁geinfecteerde	-10.6578
▁minste	-10.658
uitsluitend	-10.6586
diagnostisch	-10.6587
▁intubatie	-10.6597
▁uitrijping	-10.6607
▁aangevraagd	-10.6609
▁geadviseerd	-10.6609
▁compatibel	-10.6609
▁allen	-10.6615
▁therapeutisch	-10.6619
▁graag	-10.6624
▁RB	-10.6624
maximale	-10.6628
▁nacht	-10.6637
▁Gering	-10.6645
▁hypertrofe	-10.6649
▁lymfoid	-10.6655
Hodgkin	-10.6665
▁naaldbiopt	-10.6666
▁02	-10.667
▁vulling	-10.6673
endocriene	-10.668
parenchym	-10.6681
▁fasciitis	-10.6685
▁gevoerd	-10.6685
▁stentplaatsing	-10.6692
▁hydrothorax	-10.6696
▁bovenkwadrant	-10.6698
▁uitsluiting	-10.6723
▁darmpakket	-10.6723
am	-10.6727
▁tumoreus	-10.6729
LD	-10.6738
rechterbovenkwab	-10.6738
verschuiving	-10.6739
ventrikelsysteem	-10.6747
orfologisch	-10.6747
LE	-10.6757
▁cardiopulmonale	-10.6761
▁kleiner	-10.6762
▁vulva	-10.6768
▁hypofyse	-10.6774
▁Clark	-10.6777
▁speekselklier	-10.6783
EI	-10.6792
seudomonas	-10.6797
▁spoed	-10.6797
▁hoogst	-10.6799
lebsiella	-10.6799
▁linkernier	-10.6801
▁resttumor	-10.6802
▁organ	-10.6808
mdat	-10.6812
▁reuscellen	-10.6814
stenose	-10.6821
▁atherosclerosis	-10.6826
▁afgezien	-10.6839
ta	-10.6839
▁nierarterien	-10.6843
▁staven	-10.6845
▁lymfocytair	-10.6858
▁stemband	-10.686
▁duodenumbiopten	-10.6861
mortaal	-10.6867
▁dissecans	-10.6877
▁eigenlijk	-10.6879
▁visceralis	-10.6882
▁algemeen	-10.6884
LA	-10.69
▁erosie	-10.6901
▁bijnierschors	-10.6907
▁overweging	-10.6908
▁histopathologi	-10.6923
▁doorlopend	-10.6923
▁cervicale	-10.6954
egens	-10.6954
▁renum	-10.6955
▁Basal	-10.6957
▁velden	-10.6963
▁stamcel	-10.6964
▁prostaatweefsel	-10.6966
▁gebarsten	-10.697
▁biologisch	-10.6975
▁sclerotisch	-10.6983
▁2010	-10.6998
jw	-10.7008
▁definitief	-10.7012
lomerulonefritis	-10.7013
▁empyeem	-10.7014
▁gewenst	-10.7018
▁veranderde	-10.702
els	-10.7023
▁autolytisch	-10.703
▁bemoeilijkt	-10.7033
▁eenduidig	-10.7033
▁gaaf	-10.7033
ervolgens	-10.7034
▁nucle	-10.7036
▁shave	-10.7036
▁vraag	-10.7047
▁meerkernige	-10.7048
▁to	-10.7049
▁ochtend	-10.7051
▁hypoperfusie	-10.7052
▁fatale	-10.706
▁overwegen	-10.7065
▁succes	-10.7065
▁pancreasstaart	-10.7073
effect	-10.7074
▁hydrops	-10.7083
▁scheenbeen	-10.7092
▁sluit	-10.7099
▁pars	-10.7105
000	-10.7105
▁herseninfarct	-10.711
▁longbloeding	-10.7114
▁colonbiopten	-10.7126
yelodysplastisch	-10.7126
▁lymfo	-10.7126
▁colectomie	-10.7131
▁angioinvasie	-10.7139
▁emfysemateus	-10.7152
▁enzymkleuring	-10.7157
▁verkleving	-10.716
▁bovenrug	-10.7181
aspiratie	-10.7182
▁onderooglid	-10.7182
▁tumormassa	-10.7194
▁hartkleppen	-10.7197
▁Aspergillus	-10.7213
▁erytrocyten	-10.7217
▁klierbuizen	-10.7222
▁schouderblad	-10.7231
▁atheromateuze	-10.7233
▁reflux	-10.7234
endocrien	-10.7235
odulair	-10.7245
riescoupe	-10.7252
▁maagbloeding	-10.7269
onderwandinfarct	-10.7269
esophagusbiopten	-10.7269
▁gedurende	-10.7283
▁BRCA	-10.7286
diagnosen	-10.7291
▁buismaag	-10.7296
or	-10.7299
long	-10.7309
oornaam	-10.7313
▁Re	-10.7316
kweek	-10.7316
cholesterolemie	-10.7317
▁begin	-10.7321
▁pseudo	-10.7326
▁implantatie	-10.7335
▁magere	-10.7336
venmin	-10.7347
▁controle	-10.7353
▁extremiteiten	-10.7355
▁glad	-10.7355
terusextirpatie	-10.7364
▁Dilatatie	-10.7368
▁tweemaal	-10.7379
▁geindiceerd	-10.7395
▁hilaire	-10.7396
▁hypotensief	-10.7399
▁beter	-10.7399
▁refractair	-10.7406
▁harthypertrofie	-10.7407
▁aneurysmatische	-10.7416
▁september	-10.7416
▁Grote	-10.7418
▁onderste	-10.7426
▁aangedaan	-10.7437
ot	-10.7439
▁samengevat	-10.7439
ig	-10.7444
▁IgG	-10.7449
einde	-10.7449
▁bulbus	-10.7455
▁Invasiediepte	-10.746
▁pas	-10.7468
▁kamer	-10.7473
▁fibrotisch	-10.7474
▁gewichtsverlies	-10.7477
▁groeit	-10.7485
▁myomatosus	-10.7487
▁aortastenose	-10.7487
gaand	-10.749
▁mannelijk	-10.749
nijranden	-10.7504
▁collabeerde	-10.7518
▁resulterend	-10.7519
itis	-10.7527
▁toen	-10.7527
▁art	-10.7534
▁bacteriemie	-10.754
▁congestie	-10.7545
▁vagina	-10.7557
▁paramediaan	-10.756
▁ventrale	-10.7564
▁alveoli	-10.7565
▁vene	-10.7566
▁gepigmenteerde	-10.7571
lymfangioinvasie	-10.758
▁genoemde	-10.7591
▁hoeverre	-10.7601
AI	-10.7605
▁vol	-10.7616
▁cirkel	-10.7616
▁exacte	-10.762
epsis	-10.7628
atie	-10.7642
▁Richardson	-10.7642
▁myelo	-10.7648
omtrent	-10.7653
▁tong	-10.7659
▁Bloom	-10.7662
▁voorlopige	-10.7679
▁geexcideerd	-10.7685
▁interpretatie	-10.7685
▁arterietakken	-10.7686
▁supra	-10.7692
▁bovendien	-10.7693
embolien	-10.77
alwaar	-10.7707
▁bronchien	-10.7715
▁hypercellulair	-10.7728
▁stansbiopt	-10.773
mechanische	-10.7732
▁ruime	-10.774
▁labium	-10.7749
▁inclusies	-10.7757
▁mogelijkheden	-10.7761
▁middelgro	-10.7769
▁wederom	-10.777
▁artritis	-10.777
▁scherp	-10.777
▁onderbenen	-10.777
▁Appendix	-10.7774
▁adenomen	-10.7781
▁idiopathische	-10.7782
▁Reexcisie	-10.7784
▁cholesterol	-10.7785
▁beta	-10.7786
▁helix	-10.7787
▁vermeldt	-10.7793
▁pleiomorf	-10.7796
▁lymfatische	-10.7797
▁pericentrale	-10.7813
▁stoornis	-10.7814
▁Gedurend	-10.7816
▁diverticulosis	-10.7818
▁circulatoir	-10.782
▁boezem	-10.7823
▁Goed	-10.783
▁thrombotische	-10.783
▁intacte	-10.783
▁IgA	-10.7834
geproportioneerd	-10.7855
▁lichaamssectie	-10.7855
aritmogene	-10.7858
▁vervanging	-10.7859
arge	-10.7864
analyse	-10.7871
▁intestinaal	-10.7884
▁toxische	-10.7884
olgens	-10.7889
▁vroege	-10.7891
deels	-10.7913
▁bypasses	-10.7916
carcinoma	-10.7917
▁recentere	-10.7923
▁complex	-10.7931
▁punctaat	-10.7932
▁ijzerstapeling	-10.7941
▁nodularis	-10.7941
▁duur	-10.7947
▁solitaire	-10.795
▁broncho	-10.7954
▁icterische	-10.7955
▁pylorus	-10.7962
papillairspieren	-10.7967
▁gedeeltelijk	-10.7968
▁reanimeren	-10.7975
▁tuberculose	-10.7985
▁doorsnijden	-10.7986
▁inzichten	-10.7987
▁gekregen	-10.7988
▁ulceratieve	-10.7997
▁verdikking	-10.7997
ventrikelfunctie	-10.7999
▁erg	-10.8001
▁verkalkt	-10.8005
▁oestrogeen	-10.8011
▁ICD	-10.8015
▁fulminante	-10.8025
▁orgaanfalen	-10.8027
▁inzage	-10.8028
▁buitenzijde	-10.8028
▁leverkwab	-10.8031
▁specificiteit	-10.8036
▁asfyxie	-10.8039
▁hemorrhagisch	-10.8039
▁obductieverslag	-10.804
▁striatum	-10.8044
▁mond	-10.8049
punctaat	-10.8053
▁gekomen	-10.8057
▁ziektebeeld	-10.8066
▁gal	-10.8069
▁littekenvorming	-10.8075
▁aangenomen	-10.8078
ap	-10.8079
▁adenocarcinoma	-10.8085
▁maagwand	-10.8089
▁leiden	-10.8095
▁heel	-10.8096
vermoedelijk	-10.8106
og	-10.8111
helaas	-10.8117
▁Ernstig	-10.8118
▁vaatafwijkingen	-10.8118
ware	-10.8118
minstens	-10.8119
ng	-10.812
esofagusbiopten	-10.8121
▁longtumor	-10.8124
▁vroeger	-10.8124
▁os	-10.8127
▁locus	-10.8138
passend	-10.8141
ct	-10.8144
ierover	-10.8145
▁poliepje	-10.8154
▁thrombusvorming	-10.8163
▁11-0	-10.8163
▁bijschildklier	-10.8167
▁longembolus	-10.8171
innemend	-10.8176
▁marginal	-10.8179
▁fibroom	-10.8191
▁matuur	-10.8204
▁pneumosepsis	-10.8215
▁nieuw	-10.8221
minder	-10.8226
▁kwab	-10.8234
gebruik	-10.8243
▁Benigne	-10.8248
▁mocht	-10.8249
▁hersenweefsel	-10.8249
▁thrombosering	-10.8249
▁verwikkelingen	-10.8252
▁beschadigde	-10.8259
▁blaaswand	-10.826
▁autolytische	-10.8261
dilatatie	-10.8263
▁vat	-10.8274
▁relaparotomie	-10.8279
▁clavicula	-10.8281
▁stase	-10.8292
▁noodzakelijk	-10.8293
▁extramedullair	-10.8296
▁contractieband	-10.8296
▁episode	-10.8297
▁vormen	-10.8297
▁kraakbeen	-10.8298
circumferentiele	-10.831
▁blaascarcinoom	-10.8311
▁2002	-10.8316
▁calcificatie	-10.8316
▁*******)	-10.8334
metastasering	-10.8339
acute	-10.834
▁lumbale	-10.8349
▁sporadisch	-10.8353
ol	-10.8356
▁raakte	-10.8362
BE	-10.8362
respiratoire	-10.8371
emboli	-10.8375
ens	-10.8379
▁zijsnijvlak	-10.8384
▁beenmergbiopt	-10.8394
▁gemarkeerde	-10.84
▁regionale	-10.8403
▁elektro	-10.8413
▁shocknieren	-10.8417
▁omliggend	-10.8429
▁alles	-10.843
esophagus	-10.8431
▁schimmeldraden	-10.8437
▁elleboog	-10.8437
▁Breslow	-10.8448
diam	-10.8462
scomponent	-10.8471
▁hyaliene	-10.848
▁geraakt	-10.848
▁thyreoiditis	-10.8482
▁Lumpectomie	-10.8492
Huidexcisiebiopt	-10.8493
▁BCL	-10.8495
klierdissectie	-10.8497
▁embolien	-10.8498
▁plotse	-10.8502
ch	-10.8505
▁necrotiserend	-10.8511
▁betrokken	-10.8518
▁lymfogeen	-10.852
▁associatie	-10.852
▁beschadigd	-10.8522
▁collumfractuur	-10.8525
▁nasi	-10.8527
▁LC	-10.8532
BC	-10.8535
samen	-10.854
▁arterioscleroti	-10.8545
▁ductale	-10.8546
to	-10.8548
▁lag	-10.8552
raagstelling	-10.8553
assale	-10.8559
▁1200	-10.8561
▁situs	-10.8565
▁bewijs	-10.8565
▁ijzerpigment	-10.8565
▁enterococcus	-10.8566
▁buikaorta	-10.8566
kleincellig	-10.8572
▁mn	-10.8573
▁serosale	-10.8574
▁annulare	-10.8574
▁reeks	-10.858
occipitaal	-10.858
▁achterzijde	-10.8582
▁daling	-10.8599
▁21-0	-10.8605
▁pulmonales	-10.8606
▁geisoleerd	-10.8609
▁lamelleren	-10.8611
▁gezwollen	-10.8612
▁paar	-10.8621
▁geinfarceerd	-10.8622
▁ileusbeeld	-10.8627
▁10-0	-10.8628
Ik	-10.8645
▁varierend	-10.8646
daling	-10.8652
ACR	-10.8654
▁subpleuraal	-10.8658
▁abcesvorming	-10.8659
▁linkeronderkwab	-10.8663
0)	-10.8668
onderverdelingen	-10.8671
▁topografie	-10.8675
▁ijzer	-10.868
aortaklepprothes	-10.8691
▁hartzakje	-10.8705
▁sessiel	-10.8705
▁keratine	-10.8706
milt	-10.8711
▁Cristabiopt	-10.8719
ul	-10.8735
▁120	-10.8746
▁tricuspidalis	-10.875
▁dankzegging	-10.8751
▁hoesten	-10.8752
▁oorspronkelijke	-10.8756
▁verspreiding	-10.8759
▁meningeoom	-10.8765
▁verzwaard	-10.8768
▁anders	-10.877
▁aspecifiek	-10.8773
▁Cholelithiasis	-10.8775
erd	-10.8778
lo	-10.8791
▁septaal	-10.8792
▁bronchiolitis	-10.8793
▁avond	-10.8796
▁gestenoseerd	-10.8798
▁spongiose	-10.8798
▁Daarna	-10.8798
differentiatie	-10.8803
▁radiologisch	-10.8803
adenoom	-10.8808
oud	-10.8809
▁1-2	-10.8834
▁vreemdlichaams	-10.8834
het	-10.8851
sproces	-10.8853
-11-0	-10.8856
▁emboli	-10.886
▁Geheel	-10.8864
aan	-10.8869
fluorescentie	-10.8872
orzaak	-10.8883
▁tumorrest	-10.8885
▁vaker	-10.8892
▁coma	-10.8897
Coupes	-10.8903
▁Cerebrum	-10.8911
▁contaminatie	-10.8914
▁diafragmatica	-10.8914
CBD	-10.8916
▁sneevlakken	-10.8917
▁gaf	-10.8917
▁verkleurd	-10.8921
▁patiAnt	-10.8925
▁onregelmatig	-10.8926
▁lamblia	-10.8939
▁sedatie	-10.894
▁zenuwstelsel	-10.894
▁dyspneu	-10.894
▁gyrus	-10.894
▁duidt	-10.894
il	-10.8948
▁geinfecteerd	-10.8966
▁apicaal	-10.8971
▁bepalen	-10.8978
▁zwak	-10.8979
▁gesloten	-10.898
▁vernauwingen	-10.8981
▁Hierdoor	-10.8989
sgraad	-10.8995
▁patent	-10.8999
▁asymmetrische	-10.9004
▁be	-10.9008
▁02-0	-10.9009
▁linkszijdig	-10.9017
▁kalk	-10.9019
▁parietale	-10.9036
▁alcoholgebruik	-10.9036
▁nodi	-10.9037
▁01-0	-10.905
▁adhaesies	-10.905
▁dergelijke	-10.9054
▁vaatverandering	-10.906
▁trombotische	-10.9065
▁Immuun	-10.9066
ecundair	-10.9072
rouw	-10.9079
irca	-10.9081
▁grensvlaknaevus	-10.9084
▁meisje	-10.9084
▁prostatitis	-10.9084
▁normocellulair	-10.9084
▁mediane	-10.9086
calcificaties	-10.9086
ammabiopt	-10.9092
specifieke	-10.9102
▁getroffen	-10.9103
▁Lisexcisie	-10.9104
▁Echogeleid	-10.9109
▁zorg	-10.9114
nieren	-10.9114
ma	-10.9129
▁bewezen	-10.9133
▁suboptimaal	-10.9133
▁mogen	-10.9133
▁hydropische	-10.9134
rij	-10.9135
▁thoracotomie	-10.9138
ruptuur	-10.9138
▁heupprothese	-10.9142
▁22-0	-10.9146
▁Recente	-10.9151
▁plekke	-10.9157
test	-10.918
▁LB	-10.9181
▁Direct	-10.9181
▁Hierop	-10.9184
▁glandula	-10.9189
▁Bcellymfoom	-10.9193
totaal	-10.9193
entree	-10.9198
▁operatief	-10.9205
▁eci	-10.9212
▁ademhaling	-10.9217
taphylococcus	-10.9218
▁herpes	-10.923
▁Basaal	-10.923
▁Curettage	-10.923
▁Immuno	-10.9231
anvraagformulier	-10.9237
▁infarcthaarden	-10.9243
▁lobulaire	-10.9245
▁spontane	-10.9245
▁kans	-10.9246
regio	-10.9249
▁antrumtype	-10.9251
▁vasculair	-10.9254
0-0	-10.9255
▁lytische	-10.926
▁persisterend	-10.9262
degeneratieve	-10.9263
▁verstoorde	-10.9267
▁snijrand	-10.9268
door	-10.9269
uur	-10.927
▁bevatte	-10.928
▁verwardheid	-10.928
▁stenotisch	-10.9284
▁hartoor	-10.9285
▁asthma	-10.9286
▁Bronchus	-10.9305
▁Duodenum	-10.9318
▁gebouwde	-10.9323
▁aeruginosa	-10.9329
▁retroauriculair	-10.9329
oa	-10.9336
▁erythema	-10.9336
▁ERBB	-10.9337
▁ingebracht	-10.9338
▁graads	-10.9339
▁archief	-10.9344
▁viraal	-10.9353
▁aneurysmata	-10.9357
▁buisprothese	-10.9357
▁angioinvasieve	-10.9359
beschadiging	-10.9367
▁Dikke	-10.9367
▁cytoplasma	-10.9376
▁extravasatie	-10.9378
▁ablatio	-10.9378
▁inbrengen	-10.9385
oom	-10.9385
▁carotiden	-10.9386
▁ileostoma	-10.9386
▁medicamenteuze	-10.9387
veneuze	-10.9393
▁compensatoire	-10.9395
▁voeten	-10.941
▁verstoring	-10.9416
gram	-10.9417
▁subcapsulair	-10.9427
▁septa	-10.9428
▁hypoplastisch	-10.9429
▁buikorganen	-10.9429
▁daarmee	-10.943
▁oa	-10.943
haarden	-10.9436
▁serrated	-10.9438
▁bullae	-10.9443
▁voorzijde	-10.9444
▁stukje	-10.9446
extirpatie	-10.9451
ly	-10.9464
▁kappa	-10.9468
▁confluerende	-10.9469
Gleason	-10.947
icrobiologisch	-10.9473
▁Lichte	-10.9474
▁operaties	-10.9477
▁baten	-10.948
▁longhypoplasie	-10.948
▁geinkte	-10.9485
▁Celrijk	-10.949
▁segmental	-10.9499
▁pleit	-10.9499
▁enteritis	-10.95
fibrose	-10.9509
▁opbouw	-10.9511
haveexcisie	-10.9511
deel	-10.952
etastase	-10.952
HER	-10.9525
▁gezocht	-10.953
▁termijn	-10.953
▁aanwijsbaar	-10.953
▁endometriose	-10.9539
estrogeen	-10.9544
▁patchy	-10.9551
ccr	-10.9554
▁macrovesiculair	-10.9575
▁melanoma	-10.9575
ngeveer	-10.9577
▁lichamelijk	-10.958
-01	-10.9583
▁jw	-10.9583
peripancreatisch	-10.9583
▁nodig	-10.9584
▁geoccludeerd	-10.9588
▁epileptisch	-10.959
▁fragmentjes	-10.9606
▁gestelde	-10.9616
▁bloedstolsel	-10.9621
component	-10.9622
alveolair	-10.9623
▁broekprothese	-10.9626
▁dysplastisch	-10.9629
▁colostoma	-10.9631
▁half	-10.9631
▁aortakleppen	-10.9637
cysteuze	-10.9637
▁Cardiaal	-10.9639
▁blokjes	-10.9641
▁Bovenstaand	-10.9643
▁spoelcellig	-10.9644
▁fibroepithelia	-10.9649
▁20-0	-10.9654
▁aanvraag	-10.9658
▁placentaire	-10.9658
▁bloeddruk	-10.9663
▁gegaan	-10.9678
▁onzeker	-10.9682
▁onbegrepen	-10.9683
▁cystadenoom	-10.9683
▁kortademigheid	-10.9683
versus	-10.9692
▁endometrioid	-10.9698
▁activeren	-10.9701
▁Coupe	-10.9704
▁symmetrisch	-10.971
lokalisaties	-10.9712
▁dergelijk	-10.9715
▁steen	-10.9717
▁liggen	-10.9725
ziekte	-10.9727
▁schildklierkwab	-10.9731
▁12-0	-10.9731
▁mesotheel	-10.9734
▁artherosclerose	-10.9734
▁malen	-10.9736
racheobronchitis	-10.9746
▁buitenoppervlak	-10.9747
▁vruchtwater	-10.975
▁dilaterende	-10.9758
jes	-10.9759
▁oxygenatie	-10.9761
▁catheter	-10.9762
▁rectaal	-10.9767
▁percentage	-10.9767
▁uitgebreidheid	-10.9768
IL	-10.9768
▁endocard	-10.9779
▁temporalis	-10.9786
▁presentatie	-10.9786
▁opgebouwd	-10.9787
▁her	-10.979
▁urinewegen	-10.979
LAG	-10.9814
sveranderingen	-10.9825
▁lisexcisie	-10.9825
▁voetlengte	-10.9827
immunohistochemi	-10.9828
▁insult	-10.9831
▁krapst	-10.9832
▁donatie	-10.9834
▁delier	-10.9836
▁longmetastasen	-10.9836
▁behoort	-10.9838
▁fecale	-10.9838
▁toegeschreven	-10.9838
▁obliteratie	-10.9839
▁stabiel	-10.9846
▁faeces	-10.9848
▁interventie	-10.9851
▁eind	-10.9857
LAIR	-10.9863
▁mee	-10.9865
▁debris	-10.9865
adat	-10.9879
ductaalcarcinoom	-10.988
ICA	-10.988
punctie	-10.988
▁consolidatie	-10.9884
▁blaasslijmvlies	-10.9885
▁verwijdering	-10.9886
▁Leverstuwing	-10.9892
▁lamina	-10.9894
-12-0	-10.9896
▁lacunair	-10.9897
▁darmresectie	-10.9898
▁cognitieve	-10.9901
▁tumormetastasen	-10.9903
obstructief	-10.992
inimale	-10.9923
gelegen	-10.9934
▁malformatie	-10.9935
▁afsluitingen	-10.9939
▁grove	-10.9939
▁endocervix	-10.9939
▁geldt	-10.9943
▁behorend	-10.9945
vangingsfibrose	-10.9947
▁subtiele	-10.9948
▁megakaryocyten	-10.9965
▁reuscelreactie	-10.9986
▁prednison	-10.9993
▁localis	-10.9994
hyperpigmentatie	-10.9996
▁fibrinopurulent	-10.9996
▁uiterlijk	-10.9996
▁melena	-10.9996
▁vergroeiingen	-11.0003
▁ingezonden	-11.0004
▁lupus	-11.0006
▁cerebellair	-11.0013
tpn	-11.0014
▁ziet	-11.0016
voorlopig	-11.0017
▁parakeratose	-11.0021
▁infrarenaal	-11.0026
fectieparameters	-11.003
unctaat	-11.0038
▁neurofibroom	-11.004
▁begeleidend	-11.005
▁kern	-11.0052
dysplasie	-11.0058
▁acinair	-11.0064
▁dubbelbrekend	-11.0065
▁emphyseem	-11.0065
▁fragmentje	-11.0067
▁Eventue	-11.0067
▁mesencephalon	-11.0071
cuut	-11.0091
▁regelmatig	-11.0103
▁comateus	-11.0103
▁Respiratoir	-11.0103
▁hepatocyten	-11.0103
uaat	-11.0104
pen	-11.0106
▁longhilus	-11.011
▁mucosale	-11.0114
▁dr	-11.0124
▁spreken	-11.0129
▁intrahepatisch	-11.0133
▁bloedkweken	-11.0136
▁kaak	-11.0148
▁aanhoudend	-11.0151
congestieve	-11.0154
▁Excisiebiopt	-11.0156
2).	-11.0158
▁puntjes	-11.0163
▁overhecht	-11.0168
LH	-11.017
▁lichaamsvreemd	-11.0172
Biopt	-11.0173
▁eerst	-11.0181
▁katheter	-11.019
IG	-11.019
▁verrukeu	-11.0199
▁Rest	-11.02
▁protocol	-11.0201
▁levenloos	-11.0211
arsh	-11.0211
▁verwijderen	-11.0211
▁myocardfibrose	-11.0217
▁indicatie	-11.022
▁hypoxemie	-11.0221
lateraal	-11.0223
▁kapseldoorbraak	-11.0224
▁lactaat	-11.0233
▁namelijk	-11.0235
▁natuurlijk	-11.0237
▁trans	-11.0249
▁anamnese	-11.0249
▁plotselinge	-11.025
▁localisaties	-11.0252
▁reumato	-11.0253
▁electieve	-11.0256
▁slappe	-11.0257
▁tumorhaard	-11.0259
lechts	-11.0262
▁geabstineerd	-11.0265
▁ontstaat	-11.0265
▁ondersteunt	-11.0265
▁tengevolge	-11.0265
▁solair	-11.0269
-01-1	-11.027
▁hoofdpijn	-11.0278
▁binnenzijde	-11.0279
ostmortale	-11.0289
▁ziek	-11.0301
▁sepsisbeeld	-11.0301
▁Diffus	-11.0303
mede	-11.0311
▁bijzonder	-11.0318
▁gehandhaafd	-11.032
▁ingevroren	-11.032
▁radicale	-11.032
ext	-11.032
▁opgemerkt	-11.0322
▁Dr	-11.0323
▁Cardiale	-11.033
▁parieto	-11.033
luchtweginfectie	-11.0347
▁hypovolemie	-11.0351
corpusslijmvlies	-11.0354
▁HR	-11.0354
▁hoger	-11.0357
▁intimafibrose	-11.0358
▁Grawitz	-11.0363
▁rijping	-11.0364
▁breuk	-11.0366
seudomembraneuze	-11.037
▁relatieve	-11.0373
▁majus	-11.0374
▁globaal	-11.0374
pname	-11.0375
▁aantonen	-11.0376
▁postanoxische	-11.0379
▁patienten	-11.0382
▁sufficient	-11.0385
ring	-11.0385
▁zuurstof	-11.0387
▁pipelle	-11.0388
▁sclerotische	-11.0389
▁trombosering	-11.039
▁DAD	-11.0393
tot	-11.0401
GA	-11.0405
▁dragen	-11.0411
▁infecties	-11.0412
1).	-11.0416
▁gecompromiteerd	-11.0417
▁kwaliteit	-11.0417
▁vezels	-11.0423
▁scleroserende	-11.0424
▁betrokkenheid	-11.0425
▁calcificerend	-11.043
▁kaliber	-11.043
▁oncogene	-11.0431
▁bijdrage	-11.0431
▁reticulair	-11.0433
▁galgang	-11.0434
▁Lymfklieren	-11.0455
▁mij	-11.0455
och	-11.0455
▁influenza	-11.0458
▁bevonden	-11.0464
▁Gestuwde	-11.0466
▁verbinding	-11.0474
▁toegezonden	-11.0485
▁subarachnoidaal	-11.0485
▁myofibrosis	-11.0485
▁locale	-11.0487
▁operatieve	-11.0499
▁alfa	-11.0511
▁hun	-11.0512
▁prurigo	-11.0517
dikte	-11.0519
▁aftakking	-11.0521
athologisch	-11.0523
Immuunhistochemi	-11.0526
▁nietspecifiek	-11.0534
localisatie	-11.0535
▁Breslowdikte	-11.0539
▁fijn	-11.0542
▁enerzijds	-11.0542
▁Coronairscleros	-11.0546
DAD	-11.0553
id	-11.0559
▁Aneurysma	-11.0561
▁maternal	-11.0561
▁last	-11.0577
▁Gram	-11.0591
▁tangles	-11.0591
▁infarctjes	-11.0596
▁wijde	-11.0599
▁poliepeus	-11.06
▁keer	-11.0605
▁flr	-11.0605
Arterioloscleros	-11.0608
doorgemaakte	-11.0609
▁bruin	-11.0612
▁poging	-11.0613
▁echografisch	-11.062
▁LCA	-11.0627
▁gescleroseerd	-11.0628
treft	-11.0629
zijde	-11.0632
▁ophoping	-11.0632
▁ingehecht	-11.064
▁vermoed	-11.0642
▁extreme	-11.0653
▁inziens	-11.0654
▁foramen	-11.0654
▁pancytopenie	-11.0654
▁osteoporose	-11.0654
▁albicans	-11.0662
▁Coronair	-11.0664
▁schrompelnier	-11.0667
▁tensie	-11.067
▁damage	-11.0672
pre	-11.0673
▁ja	-11.0678
▁populatie	-11.0683
odulaire	-11.0685
▁ostia	-11.0686
uba	-11.0688
▁prostatectomie	-11.0693
plenomegalie	-11.0698
▁CEA	-11.0705
shaarden	-11.0707
▁tubae	-11.0707
▁gekenmerk	-11.0711
▁orgaansystemen	-11.0711
▁mediastinitis	-11.0711
▁mastectomie	-11.0711
neumonie	-11.0712
▁putamen	-11.0717
▁groter	-11.0725
▁caudale	-11.0729
▁crista	-11.0738
▁toxicologisch	-11.0745
▁elastose	-11.0748
▁anderhal	-11.0754
▁ooglid	-11.0767
▁pyogenicum	-11.0768
▁multiforme	-11.0768
▁wandstandige	-11.0769
▁celmateriaal	-11.077
▁ventriculaire	-11.0783
▁autoimmuun	-11.0783
▁probleem	-11.0797
▁gebruikte	-11.0799
▁femur	-11.0801
▁se	-11.0801
ml	-11.0808
▁Lokalisatie	-11.081
aligne	-11.0819
▁huidbiopten	-11.0821
▁hematogene	-11.0825
▁groeipatroon	-11.083
▁linkerbovenkwab	-11.0831
maligniteit	-11.0844
▁Braak	-11.0844
▁leverweefsel	-11.0864
▁armen	-11.0865
Galblaasresectie	-11.0875
▁drs	-11.0876
LEC	-11.0877
▁AAA	-11.088
▁lichaamsgewicht	-11.0881
▁verweekt	-11.0881
Invasie	-11.0881
▁plm	-11.0883
▁geaspireerd	-11.0883
▁mitosen	-11.0884
▁doorgroeiend	-11.0887
▁daarvoor	-11.0888
▁familiaire	-11.0892
angiopathie	-11.09
▁fibrineus	-11.0901
ia	-11.0913
perforatie	-11.0914
zeer	-11.0915
▁gradering	-11.0923
embolische	-11.0927
▁pupillen	-11.0942
nterococcus	-11.0944
oedeem	-11.0951
reuscelreactie	-11.0953
nier	-11.0954
▁fracturen	-11.0958
▁aangrenzend	-11.0959
-01-0	-11.0963
lg	-11.0966
▁dig	-11.098
▁geinduceerd	-11.0982
▁omgeven	-11.0985
▁histiocytaire	-11.0992
▁borderline	-11.0997
▁Collegialiter	-11.1
▁haemodynamisch	-11.1
▁nerv	-11.1
▁daardoor	-11.1001
▁troebele	-11.1002
▁daarom	-11.1003
▁aspergillose	-11.1005
EA	-11.101
▁lymf	-11.101
achtige	-11.1011
zelfde	-11.1012
▁decubitus	-11.1014
▁spectrum	-11.102
egener	-11.1032
▁hematothorax	-11.104
▁medicamenteus	-11.1043
-02	-11.1057
▁hepatische	-11.1058
▁ganglia	-11.1058
▁bovenbeschreven	-11.1059
▁inzendingen	-11.1063
▁RI	-11.1065
lijmvlies	-11.1065
▁capillair	-11.1071
zoals	-11.1079
▁tijdstip	-11.1079
ongeveer	-11.108
utatie	-11.1099
▁geassocieerde	-11.1103
▁zwart	-11.1105
▁viel	-11.1111
▁linkerhartkamer	-11.1118
▁Diffuus	-11.1118
▁aangeboden	-11.1118
▁dysfunctie	-11.1119
▁imponerend	-11.1119
▁coeruleus	-11.1123
▁gevormd	-11.1129
▁pericentraal	-11.1132
▁sputum	-11.1135
▁klassiek	-11.1137
▁mondbodem	-11.1148
histologisch	-11.116
▁vrouwelijk	-11.1163
neevlakken	-11.1168
▁HE	-11.1168
▁test	-11.1174
▁voedselresten	-11.1177
▁mevrouw	-11.1178
▁perforaties	-11.1178
▁prolaps	-11.1179
plastiek	-11.1188
▁herkomst	-11.1189
kh	-11.1194
zymhistochemisch	-11.1203
▁tien	-11.1209
▁Hemicolectomie	-11.1211
▁Later	-11.1217
maag	-11.1218
▁voorafgaande	-11.1226
rb	-11.1235
▁beschikbaar	-11.1237
▁solaris	-11.1237
▁flegmoneuze	-11.1237
▁tonsillen	-11.1237
cilinderepitheel	-11.124
▁pseudomonas	-11.1242
*	-11.1246
▁epidermiscyste	-11.1253
▁fundus	-11.1261
▁klassieke	-11.1268
▁bovenpool	-11.1271
▁gedetecteerd	-11.1271
▁concrementen	-11.1272
▁intrauterien	-11.1274
▁maagtype	-11.1276
▁mycose	-11.1297
▁afgesproken	-11.1297
Lichaamsobductie	-11.1298
▁vertebralis	-11.1312
functieverlies	-11.1327
patroon	-11.133
pgenomen	-11.133
beginnende	-11.1332
▁niveaus	-11.1332
▁En	-11.1348
▁tumorgroei	-11.1358
▁achtergebleven	-11.1358
▁trombusvorming	-11.1361
▁nierparenchym	-11.1366
▁zegelringcel	-11.1391
▁symptomen	-11.1393
nog	-11.1395
▁haarfollikel	-11.1396
Een	-11.1398
▁diagnoses	-11.1403
ischemische	-11.1405
▁vlokken	-11.1409
▁ovale	-11.1419
uencing	-11.1419
▁1,2	-11.142
▁intrapulmonale	-11.1421
▁subcapsulaire	-11.1421
▁puspockets	-11.1425
▁Desondanks	-11.1431
▁Lynch	-11.1434
▁morfine	-11.1438
▁letsels	-11.1441
receptorbepaling	-11.1443
▁dun	-11.1448
recidief	-11.1448
ir	-11.1451
LIER	-11.1454
▁leverbiopt	-11.1456
maanden	-11.1459
▁tachycardie	-11.146
aten	-11.1468
▁ontwikkelen	-11.1471
formulier	-11.1472
▁rondkernig	-11.1477
▁ontbreekt	-11.148
▁wanneer	-11.148
▁levercelnecrose	-11.148
▁obstruerende	-11.1485
▁spieren	-11.1485
▁intoxicatie	-11.149
ose	-11.1504
▁amygdala	-11.1505
▁vierde	-11.1509
▁longfunctie	-11.1511
ppervlakkige	-11.1515
▁nabloeding	-11.1523
▁late	-11.1536
klachten	-11.1541
▁bijgewoond	-11.1542
▁codon	-11.1542
▁ruggemerg	-11.1542
▁Atherosclerose	-11.1542
▁splenectomie	-11.1542
▁vlekkige	-11.1544
utaties	-11.1548
▁Bowenoid	-11.1548
▁ligament	-11.1557
▁Adenocarcinoom	-11.1558
▁agonaal	-11.1562
▁brief	-11.1567
▁spiervezels	-11.157
excisiepreparaat	-11.1572
EL	-11.1572
▁encefalitis	-11.1573
IR	-11.1574
▁gebroken	-11.1581
▁skelet	-11.1584
zijnde	-11.1586
▁loop	-11.1588
ijf	-11.1589
eerdere	-11.1598
▁curvatuur	-11.1601
zij	-11.1602
▁cardiopulmonaal	-11.1604
▁verwijzing	-11.1605
▁Decompensatio	-11.1607
Excisie	-11.1608
▁benauwd	-11.1608
-02-0	-11.1613
RAD	-11.1624
▁berichten	-11.1624
▁allergisch	-11.1625
▁paratracheaal	-11.1626
▁lambda	-11.1631
▁Beperkt	-11.1633
▁RD	-11.1636
▁r	-11.1636
▁progesteron	-11.1636
▁body	-11.1637
▁lesie	-11.1644
itwendige	-11.1645
▁ingestuurd	-11.1653
-10-0	-11.1662
ude	-11.1663
▁eindstandig	-11.1667
▁plexus	-11.1667
▁versmalling	-11.1667
▁faecaal	-11.1667
▁papillomateuze	-11.1667
▁geanalyseerd	-11.1678
▁subpleurale	-11.1679
▁halverwege	-11.1682
▁liesbreuk	-11.1686
▁ontstekings	-11.1687
scellen	-11.1696
HL	-11.1707
▁tumoreuze	-11.1708
▁temporale	-11.1726
▁myelum	-11.1729
▁streptococcus	-11.1731
arterien	-11.1737
microscopie	-11.1742
▁paranasaal	-11.1745
▁rechterwang	-11.1747
▁Ca	-11.1753
co	-11.1762
▁externe	-11.1764
▁kop	-11.1766
▁bloedvat	-11.1781
▁carina	-11.1783
esophagusvarices	-11.1789
▁sigmoideum	-11.1794
▁lijn	-11.1795
▁darmziekte	-11.1799
▁penis	-11.1806
▁onderpool	-11.1808
▁apart	-11.1808
▁chromosoom	-11.1815
▁anurie	-11.1816
ub	-11.1818
troffen	-11.1823
▁h	-11.1829
▁talgklier	-11.1829
aagantrum	-11.183
▁eiwit	-11.1831
▁coronarialijden	-11.1843
▁vergroeiing	-11.1845
au	-11.1845
▁belasting	-11.1854
▁kopie	-11.1855
▁verergerd	-11.1856
▁postuur	-11.1858
▁daarop	-11.1861
▁Duidelijk	-11.1862
▁ingevuld	-11.1867
resectievlakken	-11.1868
▁interesse	-11.1872
▁inactief	-11.1879
▁huidig	-11.1882
▁mechanisch	-11.1886
slijmvliesbiopt	-11.1895
getwijfeld	-11.1921
▁faecium	-11.1921
▁zuurvaste	-11.1921
GIEGIE	-11.1921
▁hoofdhuid	-11.1921
▁benauwdheid	-11.1922
▁erythrocyten	-11.1923
▁stromal	-11.1926
▁onze	-11.1929
211	-11.193
LDH	-11.1937
▁werkdiagnose	-11.194
▁fibrosis	-11.194
▁snoergroeven	-11.1942
▁retro	-11.1954
eefsel	-11.1955
▁vaatwanden	-11.1959
▁alveolair	-11.1966
▁gallige	-11.1976
▁belaste	-11.1976
liezen	-11.1978
ammareductie	-11.1983
arfan	-11.1985
▁villitis	-11.1985
Bls	-11.1989
▁Huidcurettage	-11.1991
negatieve	-11.1992
▁beschrijving	-11.1994
▁blaashals	-11.1998
▁hyaline	-11.2001
therapie	-11.2011
▁axillair	-11.2011
▁Bloeding	-11.2013
▁heen	-11.2015
▁alho	-11.2016
lecht	-11.2019
▁curettement	-11.2023
▁sampling	-11.2026
▁microbiologie	-11.2026
▁ERC	-11.2027
ischaemische	-11.2034
▁heart	-11.2035
▁optrad	-11.2038
AB	-11.204
▁hetzelfde	-11.2043
▁wijd	-11.2043
▁lacunaire	-11.2044
▁genitalia	-11.205
▁herhaling	-11.205
▁necroticans	-11.205
▁herhalen	-11.205
▁Clostridium	-11.2051
klasse	-11.2061
▁voorafgaand	-11.2064
▁bijdragend	-11.2074
▁gebiedjes	-11.2083
▁Botbiopt	-11.2093
▁aangrenzende	-11.2101
▁percutane	-11.2102
artiele	-11.2104
CLC	-11.211
uitslag	-11.2115
▁bekleed	-11.2115
▁lekker	-11.2115
▁gedegenereerd	-11.2115
▁controleren	-11.2116
▁Aspiratie	-11.2116
▁abcedering	-11.2121
▁fibrosehaarden	-11.2125
▁at	-11.2127
▁perioden	-11.2127
la	-11.213
▁fibroblasten	-11.2134
datum	-11.2135
▁stomp	-11.214
▁event	-11.2141
activiteit	-11.2142
▁infarctlitteken	-11.2146
▁cutane	-11.2147
▁cytologie	-11.2153
▁deficientie	-11.2153
js	-11.2162
▁doorbloeding	-11.2168
▁vroeg	-11.2169
auriculair	-11.2179
rug	-11.218
▁aanmerking	-11.2181
▁geneticus	-11.2181
▁grondslag	-11.2181
▁occluderende	-11.2188
▁sigmoAd	-11.2188
Advies	-11.2195
▁uitsluiten	-11.2197
▁obstructieve	-11.2198
naaldbiopt	-11.2204
▁communicans	-11.2204
▁longbloedingen	-11.2206
ard	-11.2206
EC	-11.2207
▁genetica	-11.2215
▁endo	-11.2217
un	-11.2217
▁abnormale	-11.222
jejunostomie	-11.222
GIE	-11.2224
▁fusie	-11.2228
▁voorkomende	-11.2234
▁cervixbiopt	-11.224
▁chroniciteit	-11.2241
▁verrichten	-11.2242
▁acht	-11.2242
▁syndrome	-11.2244
▁graviditeit	-11.2247
▁verlaagd	-11.2247
▁anderzijds	-11.2247
▁achterhoofd	-11.2248
▁holtevorming	-11.2248
▁grof	-11.2248
▁IDH	-11.2252
sereuz	-11.2253
▁Arteria	-11.2256
▁dyspnoeisch	-11.2257
▁hieruit	-11.226
▁karakter	-11.226
▁insulten	-11.2262
sbaar	-11.2263
▁endoprothese	-11.2264
▁traumatische	-11.2266
▁anterolateraal	-11.2267
▁gestold	-11.2271
oliep	-11.2271
▁craniale	-11.2272
mucosa	-11.2276
neren	-11.2282
Dit	-11.2283
einig	-11.2284
▁handen	-11.229
▁gericht	-11.2293
▁afmetingen	-11.2301
achtig	-11.2302
▁blauw	-11.2308
▁geidentificeerd	-11.2314
▁inotropie	-11.2314
▁fragmentatie	-11.2315
▁arterieen	-11.2316
▁botweefsel	-11.2316
coronary	-11.2318
▁behandelend	-11.2319
▁adenomyosis	-11.232
10)	-11.232
▁herkenba	-11.2323
▁papel	-11.2327
necrologie	-11.2328
▁hartlijden	-11.2331
ischemie	-11.2336
angetroffen	-11.2337
flow	-11.2338
▁adenoid	-11.2339
▁overgroei	-11.2339
ag	-11.2351
0).	-11.2365
▁epi	-11.2366
▁verslechterd	-11.237
▁voedsel	-11.2377
▁bovenvermeld	-11.2381
▁lentigineuze	-11.2381
▁tamelijk	-11.2382
▁opsnijden	-11.2387
epitheliaal	-11.2393
▁dominante	-11.24
structuren	-11.2401
▁linkerwang	-11.2402
j	-11.2403
ry	-11.2404
▁GE	-11.2405
▁neutrofielen	-11.2407
ren	-11.2408
lap	-11.2414
▁hotspot	-11.243
▁pG	-11.2446
▁gefixeerd	-11.2449
▁hoofdtakken	-11.2449
▁bewijzend	-11.2451
▁inpa	-11.2454
▁scrotum	-11.2473
▁innemend	-11.2491
▁hem	-11.2492
▁roken	-11.2493
▁screening	-11.2495
▁papperige	-11.2504
bv	-11.251
oetus	-11.2515
▁optimaal	-11.2517
▁neonaat	-11.2517
▁myelofibrose	-11.2517
yocardinfarct	-11.2522
▁veroudering	-11.2543
broncho	-11.255
▁Diverticulose	-11.2556
▁wanddikte	-11.2556
zonder	-11.2559
▁resterend	-11.2565
▁gebracht	-11.2567
▁corticaal	-11.2574
▁evaluatie	-11.2585
▁overgangscel	-11.2587
▁hechting	-11.2592
▁mucineuze	-11.2598
▁bevinden	-11.2599
-02-1	-11.2603
▁complexe	-11.2604
▁Adipositas	-11.2606
▁inverte	-11.2606
▁astrocytoom	-11.2612
▁fascie	-11.2632
dit	-11.2635
tekens	-11.2635
▁bacterie	-11.2638
▁ware	-11.2643
▁nogmaal	-11.2644
septische	-11.2644
gezien	-11.2647
▁kortdurend	-11.2654
zijwand	-11.2661
out	-11.2661
proces	-11.2663
▁ala	-11.2668
▁ontlasting	-11.2671
ak	-11.2675
▁minus	-11.2678
▁Rectumbiopten	-11.2679
invasief	-11.2684
▁cerebro	-11.2691
▁stenoserend	-11.2694
hartspierweefsel	-11.2695
▁coccen	-11.2701
kd	-11.2703
lectromechanisch	-11.2714
▁rechterschouder	-11.2722
▁capillairen	-11.2722
▁geconsolideerd	-11.2724
▁gevorderd	-11.2724
▁chemoradiatie	-11.2724
eren	-11.2725
▁dentatus	-11.2727
▁aanzien	-11.2728
▁ondersteund	-11.2729
▁dermatose	-11.273
▁genetische	-11.2732
▁arterieel	-11.2738
cs	-11.274
▁adventitia	-11.2749
Her	-11.2756
pogingen	-11.2762
lak	-11.2764
▁apocriene	-11.2768
▁markers	-11.2769
GR	-11.2769
waarvoor	-11.2772
▁saturatie	-11.2777
ventrikelzijwand	-11.2782
▁tensiedaling	-11.2782
RD	-11.2784
▁verdringing	-11.279
tansbiopt	-11.2791
hangt	-11.2793
▁geintubeerd	-11.2794
▁gelijktijdig	-11.2794
▁mastopathisch	-11.2794
▁cardiomegalie	-11.2794
▁faecalis	-11.2794
▁familieleden	-11.2794
▁sporadische	-11.2795
▁aortawortel	-11.2796
▁state	-11.2799
Rprostaat	-11.2799
ua	-11.28
all	-11.2802
ek	-11.2803
▁lagen	-11.2806
th	-11.2814
▁angiogram	-11.2816
▁navel	-11.2829
hocknieren	-11.2829
keursdiagnose	-11.2835
stuwing	-11.2839
▁bestonden	-11.2841
▁streng	-11.2842
▁wit	-11.2844
enteritis	-11.2844
▁nemen	-11.2848
gastrointestinal	-11.2849
▁veroorzaken	-11.2852
pla	-11.2853
▁gland	-11.2853
▁knapte	-11.2853
▁inspanning	-11.2857
▁enorm	-11.2857
▁verstrekte	-11.2863
▁grade	-11.2863
▁conservatief	-11.2864
▁ongecompliceerd	-11.2864
▁sacculair	-11.2864
▁thrombusmassa	-11.2865
▁aortabifurcatie	-11.2866
▁myocardschade	-11.2867
sn	-11.2875
▁Hiervan	-11.2876
▁Hydrothorax	-11.2877
BR	-11.2879
▁toxicodermie	-11.2893
▁tubulo	-11.2902
▁Dieper	-11.2906
▁grijze	-11.2906
▁schrompelnieren	-11.2914
▁terecht	-11.2915
▁Bijkomend	-11.2919
tie	-11.2923
▁Duodenums	-11.2927
▁IHC	-11.293
▁deferens	-11.2935
▁invullen	-11.2935
▁pigmentosus	-11.2935
▁trilineair	-11.2935
▁obese	-11.2935
▁hersenparenchym	-11.2936
▁meningen	-11.2939
▁laparoscopisch	-11.2952
▁Hepatomegalie	-11.2956
▁arthritis	-11.296
▁1100	-11.2962
▁gevoelig	-11.2963
stilstand	-11.2968
▁Representatief	-11.2976
▁plastiek	-11.2977
▁subtype	-11.298
cardiale	-11.2985
▁ligging	-11.2987
▁steun	-11.2991
bespreking	-11.2992
ts	-11.3001
▁princip	-11.3006
▁inflammatoir	-11.3006
▁geoblitereerd	-11.3006
▁moest	-11.3007
▁neiging	-11.3007
▁erosies	-11.3008
▁overal	-11.3012
▁Diverticulosis	-11.3012
veneens	-11.3026
geschat	-11.3029
▁gyri	-11.3032
▁aortaprothese	-11.3033
▁for	-11.3034
▁mandibula	-11.3036
▁contractie	-11.3041
nr	-11.3058
▁onsteking	-11.3063
▁blijven	-11.3069
weede	-11.3073
▁beoordeelbare	-11.3078
▁Longstuwing	-11.3079
▁hartspiervezels	-11.308
▁causa	-11.3089
verig	-11.3091
-00	-11.3101
interstitiele	-11.3102
▁mutatieanalyse	-11.3104
▁sarcomatoid	-11.3119
▁Coronairen	-11.313
Endometriumbiopt	-11.3134
-12-1	-11.3135
▁ijzerhoudend	-11.3139
▁verlopen	-11.3141
zowel	-11.3149
▁hemopericard	-11.3151
▁gestopt	-11.3151
▁neocortex	-11.3151
▁cholesterolose	-11.3151
▁orgaangewichten	-11.3151
▁jugularis	-11.3161
▁zijsnijranden	-11.3162
▁vacuolair	-11.3177
organ	-11.3177
-10-201	-11.3179
▁epicarditis	-11.3181
▁peritoneaal	-11.3183
▁brede	-11.319
▁verwacht	-11.3202
▁paralytisch	-11.3207
ERE	-11.3208
lijk	-11.3212
litteken	-11.3214
▁afhankelijk	-11.3218
▁overlegd	-11.322
igmoid	-11.3221
▁beademd	-11.3224
▁bodies	-11.3224
▁uitrijpend	-11.3224
▁eigen	-11.3229
▁02.	-11.323
▁hematurie	-11.323
▁voorlip	-11.3234
▁Hersengewicht	-11.3236
▁hematopoiese	-11.3238
▁intramuraal	-11.3241
▁ileocoecaal	-11.325
▁stijging	-11.3251
▁hartventrikel	-11.3257
▁moeder	-11.3258
▁embolisatie	-11.3262
▁vormt	-11.3275
▁brush	-11.328
▁gekleurd	-11.3289
tr	-11.3296
▁fundic	-11.3297
▁drukverhoging	-11.3297
▁wogen	-11.3297
▁slikklachten	-11.3297
▁hersenvaten	-11.3297
▁usual	-11.3298
anel	-11.3299
coupe	-11.3301
▁voorgrond	-11.3302
▁infectiefocus	-11.3302
▁donker	-11.3304
▁jongen	-11.3312
▁noduli	-11.3314
▁stukjes	-11.3314
bepaling	-11.3317
▁groen	-11.332
HH	-11.3322
os	-11.3327
schildwachtklier	-11.3334
▁centrum	-11.334
▁anastomosen	-11.3343
▁granuloom	-11.3351
▁stond	-11.336
▁elk	-11.3362
▁iliacale	-11.337
lhoe	-11.337
▁celrijkdom	-11.3371
▁beenvaten	-11.3372
▁idem	-11.3372
▁buikvocht	-11.3373
▁ingrepen	-11.3379
▁botbiopt	-11.3383
▁erysipelas	-11.339
▁small	-11.3397
▁vessel	-11.3398
▁ganglion	-11.3405
aG	-11.3408
▁pneumonia	-11.3413
ventrikelwand	-11.3415
▁irreversibele	-11.3422
▁patch	-11.3424
▁intravasculaire	-11.3425
▁Cave	-11.3434
ut	-11.3434
▁collageen	-11.3446
▁verslaglegging	-11.3446
▁mesenchymal	-11.3446
▁wandlagen	-11.3446
▁tracheostoma	-11.3447
▁pneumectomie	-11.3447
▁intestinaaltype	-11.3447
perifolliculitis	-11.3447
▁overgenomen	-11.3448
▁seder	-11.345
▁episoden	-11.3451
▁encephalitis	-11.3453
conform	-11.3457
▁Afwijking	-11.3458
▁plusminus	-11.3459
▁significant	-11.3465
lijden	-11.3476
▁herniatie	-11.3477
ntstekingsbeeld	-11.3481
▁onverwachts	-11.3483
operatieve	-11.3493
verlijden	-11.35
stv	-11.351
▁bloedend	-11.3512
▁lis	-11.3512
annelijke	-11.3514
▁porte	-11.3519
▁glioblastoma	-11.3522
▁myoom	-11.3522
▁pigmentatie	-11.3523
▁mammareductie	-11.3523
▁doorgeschoten	-11.3524
▁occipitale	-11.353
blaas	-11.353
▁paraffine	-11.3531
▁darmbiopten	-11.3533
▁renale	-11.3535
▁ontstonden	-11.3541
CD	-11.3543
▁LE	-11.3544
▁vallen	-11.3547
▁submucosaal	-11.3548
▁01.	-11.3562
▁blue	-11.3572
▁groepjes	-11.3573
baar	-11.3583
lymfoom	-11.3584
▁marges	-11.3585
▁correctie	-11.359
▁grens	-11.3593
▁fecaal	-11.3596
▁geinterpreteerd	-11.3597
▁hemoptoe	-11.3597
▁anderszins	-11.3597
▁kunstklep	-11.36
biopsiemateriaal	-11.3601
▁leidde	-11.3603
▁Resectierand	-11.3604
▁ogend	-11.3607
▁reconstructie	-11.3611
▁onregelmatige	-11.3614
▁Haemorrhagisch	-11.3616
▁anterieur	-11.3618
hartgewicht	-11.3627
▁vaatinvasie	-11.3634
▁samenhang	-11.3658
10-	-11.3658
tjes	-11.3659
oorkeur	-11.3664
▁tijde	-11.3665
▁osteomyelitis	-11.3673
bvdw	-11.3673
▁allogene	-11.3673
▁caudatus	-11.3673
▁dichtstbij	-11.3674
periappendicitis	-11.3675
▁lip	-11.3677
▁isthmus	-11.3679
▁hartplak	-11.3685
epitheliale	-11.3689
▁Bericht	-11.3692
recent	-11.3695
obductie	-11.3696
▁pneumococcen	-11.3696
amyloid	-11.3697
▁vergelijkba	-11.3701
▁intermediair	-11.3705
erminaal	-11.3719
▁slijmvliesbiopt	-11.3721
obstructie	-11.3722
▁functionele	-11.3723
▁huis	-11.3729
1-0	-11.373
▁gescleroseerde	-11.3735
▁zijsnijrand	-11.3739
▁geulcereerd	-11.374
▁verlittekend	-11.3744
▁Ruim	-11.3747
isatie	-11.3748
▁inductie	-11.3748
▁geclassificeerd	-11.375
▁trombolyse	-11.3751
ngewijzigd	-11.3752
▁zat	-11.3757
▁tweeling	-11.3775
entinel	-11.3776
profiel	-11.3778
coronairsclerose	-11.3779
beiderzijds	-11.378
▁semi	-11.3809
ntractietoestand	-11.381
-01-201	-11.3811
▁verbeterde	-11.382
▁criteria	-11.3823
▁dyspnoisch	-11.3828
▁korrelig	-11.3828
cor	-11.3828
▁aanzienlijk	-11.3828
▁vochtrijk	-11.3829
▁aangewezen	-11.3829
▁overeenkomend	-11.383
▁niercysten	-11.3832
▁alveolar	-11.3833
▁bloedingsresten	-11.3837
▁cervicaal	-11.3837
▁gestoord	-11.3838
▁GR	-11.384
fractuur	-11.384
▁hemolytisch	-11.3841
anaf	-11.3842
▁serositis	-11.3855
▁foto	-11.3859
▁Leverbiopt	-11.3863
▁dik	-11.3869
▁vriescoupes	-11.3872
▁punt	-11.3873
-12-201	-11.3876
210	-11.3883
▁longinfarct	-11.3885
220	-11.3888
ering	-11.3888
rouwelijke	-11.3894
▁dreigende	-11.3898
aximale	-11.39
▁afloop	-11.3902
restanten	-11.3903
▁nierbiopt	-11.3905
▁Aanvankelijk	-11.3906
GREE	-11.3906
▁geinfiltreerd	-11.3906
▁trombopenie	-11.3906
▁neoplasma	-11.3906
▁hartafwijking	-11.3911
▁infarctje	-11.3912
▁gereviseerd	-11.3912
▁BA	-11.3916
▁jicht	-11.3921
▁achterlip	-11.3925
▁haemangioom	-11.3934
ken	-11.3936
▁cornea	-11.3938
▁vingers	-11.3945
infarcten	-11.3954
▁verlopende	-11.3954
▁welk	-11.3962
Huidshaveexcisie	-11.3968
edeem	-11.3975
iddels	-11.3979
▁convexiteit	-11.3979
▁geluxeerd	-11.3985
▁immatuur	-11.3985
▁neo	-11.3985
▁vaststellen	-11.3985
▁bronchustakken	-11.3985
oorstel	-11.3988
lokdarmbiopten	-11.3989
excochleaat	-11.3995
▁intravasculair	-11.3997
uiteraard	-11.4
▁Hepato	-11.4
▁bewaard	-11.4
▁chemo	-11.4002
▁longontsteking	-11.4006
▁port	-11.4008
▁blauwe	-11.402
▁subdurale	-11.4021
anwezigheid	-11.4024
definitief	-11.4027
▁agenesie	-11.403
▁hartziekte	-11.403
▁pan	-11.4035
▁ventrikelseptum	-11.4036
preparaten	-11.4038
▁circumferente	-11.404
▁bepalingen	-11.4057
▁hypothyreoidie	-11.4064
▁miljoen	-11.4064
▁kolonies	-11.4064
▁myofibrose	-11.4064
▁losliggend	-11.4064
▁doorgebroken	-11.4066
▁jongetje	-11.4066
▁aangebracht	-11.4066
▁pubis	-11.4067
▁heupoperatie	-11.4067
▁geopend	-11.4075
▁vreemdlichaam	-11.4082
▁hepatorenaal	-11.4092
▁preparaten	-11.4099
▁Radicaliteit	-11.4109
ac	-11.4111
enzymkleuring	-11.4111
recente	-11.4112
postinflammatoir	-11.4113
dr	-11.4121
DG	-11.4124
▁functioneel	-11.4124
ns	-11.4125
▁resultaten	-11.4127
▁geneesmiddel	-11.4133
▁gemeten	-11.4136
▁prikkeling	-11.4136
▁handelen	-11.4144
▁pityriasi	-11.4144
▁rugpijn	-11.4145
▁leeg	-11.4145
▁longvelden	-11.4145
ueruptuur	-11.4146
▁Cho	-11.4149
02-	-11.4151
▁uitstrijk	-11.4152
▁Gedilateerd	-11.4157
▁nierarterie	-11.4157
▁stage	-11.4169
▁opening	-11.4176
▁destijds	-11.4185
▁Cervixbiopten	-11.4186
ond	-11.419
no	-11.4191
dd	-11.4193
▁antistoffen	-11.4194
CLA	-11.4204
ischaemie	-11.4215
▁abstineren	-11.4216
▁gepigmenteerd	-11.4217
▁tri	-11.4219
eoordeling	-11.4222
▁fibrilleren	-11.4222
▁fibromusculair	-11.4225
▁spierlaag	-11.4225
▁Douglasi	-11.4225
▁naevi	-11.4226
▁voorbij	-11.423
-10-1	-11.423
▁multiorgaan	-11.4231
natieve	-11.4242
▁Bronchusbiopten	-11.4252
▁repair	-11.4253
▁no	-11.4261
pitheeldysplasie	-11.4277
AID	-11.4279
▁hypo	-11.4286
apmilt	-11.4295
▁zijrand	-11.4297
▁overeenstemming	-11.4306
▁perirenale	-11.4306
Bronchusspoeling	-11.4307
oude	-11.431
▁cs	-11.4311
▁miltstuwing	-11.4315
▁arteriolo	-11.4324
▁variaties	-11.4331
terventricularis	-11.4336
▁myopathie	-11.4337
ernstige	-11.4341
hondrodermatitis	-11.4343
resten	-11.4348
stadium	-11.4356
cyste	-11.4358
▁accident	-11.4373
▁deletie	-11.4377
breidt	-11.4381
▁snoergroeve	-11.4385
treptococcus	-11.4386
▁Accreditatie	-11.4388
▁urogenitalis	-11.4388
▁palatum	-11.4388
weefselversterf	-11.4389
▁linkerschouder	-11.4393
iswaar	-11.4394
▁teen	-11.4394
oals	-11.4395
avd	-11.4395
▁tekst	-11.4404
▁mijn	-11.4407
▁neuronale	-11.441
▁arcus	-11.4412
▁Hypertroof	-11.4417
dermatitis	-11.4421
ricuspidalisklep	-11.4427
▁gesneden	-11.4427
▁schouw	-11.443
▁fossa	-11.4435
▁dura	-11.4438
adere	-11.4439
uent	-11.4459
▁tekening	-11.4467
carcinomen	-11.4469
bulleuze	-11.4471
▁procent	-11.4471
▁bekledend	-11.4471
▁dwarslaesie	-11.4471
▁verliep	-11.4471
▁peribronchiale	-11.4471
▁umbilicalis	-11.4471
▁afdoende	-11.4471
▁sufheid	-11.4471
▁bolle	-11.4472
▁maagulcus	-11.4472
▁Arterio	-11.4473
oorgeschiedenis	-11.4474
▁cf	-11.4483
▁infarctgebied	-11.4487
▁beeldvormend	-11.4487
▁lichaamslengte	-11.4489
▁evt	-11.4489
▁cribriform	-11.4491
▁start	-11.4494
▁processen	-11.4505
▁resectierand	-11.4508
▁shunt	-11.451
▁lichaampjes	-11.4514
▁Beginnend	-11.4518
▁EC	-11.4519
▁trofoblast	-11.4527
221	-11.4529
-11-1	-11.4531
▁cellulair	-11.4538
▁hoeveelheden	-11.4554
▁samenvatting	-11.4555
BBL	-11.4556
jr	-11.4558
▁weefsels	-11.4559
▁tunica	-11.4561
▁pussig	-11.4567
ppervlakkig	-11.4571
▁inflammatie	-11.4574
▁gemacereerd	-11.4576
tje	-11.4585
▁aorto	-11.4601
otale	-11.4601
▁aandoeningen	-11.4602
ALI	-11.4612
▁Bricker	-11.4613
ransformatiezone	-11.4619
▁stapeling	-11.4627
▁galsteen	-11.4638
▁geinformeerd	-11.4638
▁inotropica	-11.4638
▁sprietig	-11.4638
▁zodanig	-11.4638
▁obstipatie	-11.4638
▁blaarvorming	-11.4638
▁angiosarcoom	-11.4638
tensive	-11.4639
▁verdeling	-11.4643
▁wijten	-11.4647
▁darminhoud	-11.4656
▁referentie	-11.4661
▁Rectum	-11.4663
▁gastroscopie	-11.4669
▁plasmacel	-11.4693
▁indruk	-11.4696
veelal	-11.47
▁circumferent	-11.4709
verlies	-11.4719
▁leiomyosarcoom	-11.4723
▁zeggen	-11.4723
▁syndromale	-11.4723
▁administratie	-11.4723
▁heupfractuur	-11.4723
▁klepafwijkingen	-11.4727
▁linkermamma	-11.4732
▁centrolobulair	-11.4734
▁Chronisch	-11.4736
▁cirrhotisch	-11.4739
▁epicardiale	-11.4744
▁gespannen	-11.4748
▁gemeld	-11.4748
bronchiectasieen	-11.4754
▁buizen	-11.4757
asus	-11.4763
lr	-11.4763
-11-201	-11.477
▁morbid	-11.477
▁cutaan	-11.4774
chronische	-11.4774
▁glomerulair	-11.4781
▁losse	-11.4789
▁ophopingen	-11.4789
mand	-11.4795
▁hemorragie	-11.4799
▁renaalcel	-11.4799
▁zwakke	-11.4806
▁basalioom	-11.4808
▁vertex	-11.4808
safbreking	-11.4808
▁vergelijking	-11.4808
▁plasmocytose	-11.4808
▁mucoid	-11.4809
▁Escherichia	-11.4809
lymforeticulaire	-11.4809
▁nauw	-11.4812
▁uitgezette	-11.4815
▁drietakslijden	-11.4826
▁mural	-11.4831
▁Bloed	-11.4838
▁tonsil	-11.4839
micro	-11.4849
functie	-11.485
▁Aureus	-11.4852
▁thoraxhelft	-11.4853
Immunohistochemi	-11.486
▁verkeerde	-11.487
shock	-11.4872
▁AI	-11.4873
leura	-11.4873
▁Gele	-11.4876
▁nodosum	-11.4894
▁schedelbasis	-11.4895
▁overeenkomstig	-11.4895
ph	-11.4897
▁peroperatief	-11.4898
▁gronden	-11.49
▁fulminant	-11.4901
▁maagmucosa	-11.4901
▁belangrijk	-11.4901
▁voorgelegd	-11.4902
▁aansluitend	-11.4903
▁submucosale	-11.4905
okselkliertoilet	-11.4908
▁hartoren	-11.4916
▁pin	-11.4918
▁veno	-11.4925
proliferatief	-11.4928
▁110	-11.496
▁ascenderende	-11.496
▁gang	-11.4969
otaal	-11.4976
ulti	-11.4976
erende	-11.4979
▁baby	-11.4981
▁bereikt	-11.4981
▁geresulteerd	-11.4981
▁enterocolitis	-11.4981
▁bewerking	-11.4981
▁circulus	-11.4981
onderwand	-11.4982
▁orienterend	-11.4982
▁vindt	-11.4983
▁urticaria	-11.4984
▁veld	-11.4988
aire	-11.499
hals	-11.4992
▁opties	-11.4992
midden	-11.4994
ers	-11.5012
▁denk	-11.5016
matig	-11.502
▁potje	-11.502
gb	-11.5023
▁preterminale	-11.5023
afwijking	-11.5025
▁transfusie	-11.5034
▁species	-11.5036
▁jonger	-11.5044
drietal	-11.5054
edemateuze	-11.5067
▁harthelft	-11.5067
▁corpora	-11.5069
▁sondevoeding	-11.5069
▁prolifererend	-11.5069
▁dilatatio	-11.5069
▁adnexextirpatie	-11.507
▁stevig	-11.507
▁myocyten	-11.5072
▁high	-11.5074
▁extreem	-11.5076
▁intraductal	-11.5082
▁renales	-11.5083
▁glioblastoom	-11.5096
▁fenomeen	-11.5096
▁occlusies	-11.5096
▁excisiebiopt	-11.5102
loge	-11.5116
▁maakte	-11.5121
▁verzwaarde	-11.5126
▁structuur	-11.5128
▁epitheliaal	-11.5129
▁oorspronkelijk	-11.5134
▁allel	-11.5134
▁tenen	-11.5138
▁zelfs	-11.5139
rachea	-11.5148
septum	-11.5152
uhrman	-11.5157
▁Lokaal	-11.5157
▁dwarsgestreept	-11.5157
▁vertoont	-11.5158
▁subfrenisch	-11.5158
▁pleurabladen	-11.5158
▁cornu	-11.5158
▁genoemd	-11.516
raag	-11.516
▁mbv	-11.516
▁getromboseerd	-11.5165
mediadegeneratie	-11.5167
▁ingesteld	-11.5174
rmale	-11.5178
umoren	-11.5183
▁uitend	-11.5188
acuut	-11.5191
▁afd	-11.5193
12-	-11.5211
prostaat	-11.522
fibrillaire	-11.5226
erk	-11.5227
▁hemochromatose	-11.5247
▁solutio	-11.5247
▁mismatch	-11.5247
▁embryonal	-11.5247
▁colorectaal	-11.5247
▁vaatstructuren	-11.5247
▁cutaneum	-11.5247
▁microthrombi	-11.5248
ellicht	-11.5248
▁blank	-11.5248
eld	-11.5249
▁decidua	-11.5251
▁bicuspide	-11.5252
▁toilet	-11.5253
hersenmetastasen	-11.5253
▁atelectatisch	-11.5259
▁mengflora	-11.5259
tussen	-11.5261
▁verwachten	-11.5261
▁klaagde	-11.5262
▁tr	-11.5264
aren	-11.5268
anamnese	-11.5268
abdomen	-11.5274
▁maal	-11.5276
▁temperatuur	-11.5277
▁Bilaterale	-11.5283
▁drains	-11.5289
▁prion	-11.5293
▁ac	-11.5294
▁ossale	-11.5298
▁depressie	-11.5307
▁zeven	-11.5317
im	-11.532
entraal	-11.5324
▁death	-11.5327
erdenking	-11.5328
▁scan	-11.5328
▁geb	-11.5328
▁Hartmann	-11.5335
▁gegroeid	-11.5337
▁rheumatoid	-11.5337
▁haematomen	-11.5337
▁arteriopathie	-11.5337
▁overplaatsing	-11.5339
▁hiernaast	-11.5341
▁intracerebraal	-11.5345
intestinaal	-11.5345
▁rechterbeen	-11.5346
▁kidney	-11.5348
▁linkerbeen	-11.5348
▁longarterien	-11.535
▁immunologisch	-11.5351
typeslijmvlies	-11.5352
▁leptomeningeale	-11.5359
fibrillatie	-11.5362
▁cells	-11.5366
ien	-11.5375
men	-11.5387
▁stabiele	-11.54
01-	-11.5406
▁ondersteunen	-11.5413
uebloeding	-11.542
amenvatting	-11.5426
▁bovenooglid	-11.5427
▁basocellulare	-11.5428
▁callosum	-11.5428
▁epilepticus	-11.5428
▁toezending	-11.5428
▁Distaal	-11.5428
▁onopvallend	-11.5428
▁streptococcen	-11.5428
▁sommige	-11.5428
▁botmetastasen	-11.5433
▁irritatie	-11.5433
ara	-11.5435
Lymfklierpunctie	-11.5444
uurs	-11.5446
ax	-11.545
▁viscerale	-11.5451
▁inclusiecyste	-11.5452
reconstructie	-11.5453
▁extrahepatisch	-11.5458
igmoidresectie	-11.5462
▁pneumonitis	-11.5463
▁cave	-11.5474
rechteronderbeen	-11.5474
▁autosomaal	-11.5475
11-	-11.5481
▁vervangen	-11.5481
▁uitgaand	-11.5484
nucleaire	-11.5486
systeem	-11.5487
▁kant	-11.5492
ergrote	-11.5492
stuitlengte	-11.5512
▁hemiparese	-11.5519
▁teratoom	-11.5519
▁liposarcoom	-11.552
▁monochoriale	-11.552
▁frontoparietaal	-11.552
▁uiterst	-11.552
▁altijd	-11.5521
▁voornaam	-11.5521
▁leken	-11.5524
ci	-11.5525
infiltratie	-11.5531
ubectomie	-11.5533
▁parasieten	-11.5538
▁rustig	-11.5542
▁insuline	-11.5547
fragment	-11.5552
ti	-11.5557
etreft	-11.5559
▁weefselfragment	-11.556
tenminste	-11.5563
▁lipomateu	-11.5567
▁Bijnier	-11.5568
▁defecten	-11.5575
▁omvang	-11.5588
▁opmerkelijk	-11.5594
▁hoogste	-11.5597
▁gebruikt	-11.5598
erifeer	-11.56
▁centimeter	-11.5601
▁hartkamers	-11.5607
▁adeno	-11.5608
iteit	-11.5612
▁gevraagd	-11.5612
▁tongrand	-11.5613
▁samenhangen	-11.5617
▁plekken	-11.5618
▁reageerde	-11.5619
lichaamsarterien	-11.562
▁varianten	-11.562
▁haargrens	-11.562
▁studie	-11.562
▁nicotine	-11.5625
▁vegetatie	-11.5629
▁volvulus	-11.5635
oppervlak	-11.5635
▁microsatelliet	-11.564
▁121	-11.5641
▁corpusbiopten	-11.5648
▁linkszijdige	-11.565
stent	-11.565
▁stuk	-11.5653
▁aanvoelend	-11.567
▁circumflexa	-11.5673
▁voorgaande	-11.5676
ierbiopt	-11.5681
▁tumortje	-11.5689
▁vals	-11.5695
erruca	-11.5697
▁verpleeghuis	-11.5704
▁droog	-11.5706
▁voelde	-11.5706
▁hematogeen	-11.5706
▁drievats	-11.5707
waliteit	-11.5709
sinfiltraten	-11.571
▁interstitial	-11.5715
▁aritmie	-11.5717
EHE	-11.5718
▁coagulatie	-11.5721
Lever	-11.5722
vormige	-11.5724
▁opmerkelijke	-11.5725
▁cirrotisch	-11.5729
▁blastaire	-11.5729
▁tov	-11.573
laesie	-11.574
traject	-11.5746
▁ossaal	-11.5749
▁hyperkaliemie	-11.5751
▁begrensde	-11.5753
▁eiwitten	-11.5755
▁reuscel	-11.5756
▁weg	-11.5759
▁adenose	-11.576
▁verbreding	-11.5762
▁leukemische	-11.5762
plaveiselcel	-11.5764
▁bowenoid	-11.5785
▁colloid	-11.5787
▁ontslag	-11.5789
▁von	-11.5796
bloedingen	-11.5796
lopend	-11.5798
▁uitgezet	-11.5798
ekerheidshalve	-11.5798
▁aanwijsba	-11.58
▁plaatsvinden	-11.58
▁aberrant	-11.58
▁funiculitis	-11.58
kalenderleeftijd	-11.58
▁forensisch	-11.58
▁polyposis	-11.58
▁Atrofie	-11.5801
▁Abdominaal	-11.5803
mantelcellymfoom	-11.5804
▁bijmenging	-11.5806
▁weten	-11.5807
▁rechtermamma	-11.5808
▁ontregeling	-11.5813
▁arachnoidea	-11.5813
▁radiatie	-11.5815
▁sonde	-11.5815
▁anterieure	-11.5822
▁mitraal	-11.5823
-02-201	-11.5828
▁sclerodermie	-11.5831
ms	-11.584
▁opstijgend	-11.5855
Aanvullende	-11.5856
niveau	-11.586
▁Graa	-11.5871
ulvabiopt	-11.5883
urkinje	-11.5891
▁weegt	-11.5895
▁opgevraagd	-11.5895
▁excentrisch	-11.5895
▁aangetast	-11.5895
▁strengileus	-11.5895
▁perianaal	-11.5895
▁lumenvernauwing	-11.5895
▁verscheiden	-11.5896
▁geleidelijk	-11.5898
▁f	-11.5906
▁annulus	-11.5908
▁Brush	-11.5913
▁galgangen	-11.5915
▁BCC	-11.5915
epitheelcellen	-11.5918
rimaire	-11.5921
varium	-11.5922
▁tumormetastase	-11.5936
even	-11.5937
extraprostatisch	-11.5937
itiele	-11.5942
▁gezamenlijk	-11.5942
▁Larynx	-11.5943
▁ratio	-11.5945
Braak	-11.5959
▁water	-11.5973
▁levermetastase	-11.5981
▁huidlaesie	-11.5984
boven	-11.5986
▁buikoperatie	-11.599
▁betekent	-11.5991
▁cardioloog	-11.5991
▁toegediend	-11.5991
▁mastopathie	-11.5991
▁hemisferen	-11.5991
▁femurfractuur	-11.5991
▁renis	-11.5992
▁duodenitis	-11.5992
IGD	-11.5993
▁fisteling	-11.5997
▁georganiseerd	-11.5998
▁colonmucosa	-11.5999
▁beklemd	-11.5999
▁ogen	-11.6
▁linkeronderbeen	-11.6001
coupes	-11.6001
▁Care	-11.6002
erse	-11.6002
ri	-11.6004
▁wonden	-11.6005
▁zit	-11.601
▁acanthose	-11.6011
marge	-11.6011
▁pseudocyste	-11.6014
▁gemengdcellig	-11.6015
pitheelcarcinoom	-11.6026
▁celrijke	-11.603
stage	-11.6031
▁lager	-11.6033
▁inter	-11.6035
▁lymfomen	-11.6036
▁mg	-11.6036
▁sp	-11.6038
▁effecten	-11.6052
lasse	-11.6052
colon	-11.6052
▁BAL	-11.6054
▁athero	-11.6054
lijmvliesbiopt	-11.6057
▁sporen	-11.6073
▁noo	-11.608
▁bioprothese	-11.6085
▁bovinum	-11.6088
▁gezorgd	-11.6088
▁oorzakelijk	-11.6088
▁radiculair	-11.6088
▁vertonen	-11.6088
▁berichtgeving	-11.6089
▁plaatsvond	-11.6091
▁thans	-11.6092
▁ontslagen	-11.61
gebieden	-11.6102
▁slanke	-11.6106
▁dubieu	-11.6106
-11-200	-11.6109
antrumslijmvlies	-11.6122
▁afplatting	-11.6123
villeus	-11.6124
▁eosinofielen	-11.6128
HCA	-11.6135
▁vinger	-11.614
-01-200	-11.6151
virus	-11.6165
▁bouw	-11.6175
hartspiernecrose	-11.6179
▁beinvloed	-11.6185
jogren	-11.6186
▁bewerkt	-11.6186
▁gepland	-11.6186
▁helicis	-11.6186
spondylodiscitis	-11.6186
▁oplevert	-11.6186
▁hysterectomie	-11.6187
▁Rand	-11.6189
▁neuroom	-11.619
▁opgesneden	-11.619
▁periporta	-11.6198
▁overhechting	-11.6201
▁recentelijk	-11.6202
▁breed	-11.6209
bronchopneumonie	-11.621
icro	-11.6218
haardjes	-11.6218
▁gebouwd	-11.6218
eptische	-11.6219
▁spoeling	-11.6221
ingen	-11.6222
▁poliepjes	-11.6225
vaatproliferatie	-11.6231
▁restlumina	-11.6233
▁scopie	-11.6234
terminale	-11.6235
vocht	-11.6243
▁nachts	-11.6245
▁schatting	-11.6248
▁pancreatico	-11.6249
▁recidiverend	-11.6249
▁nootmuskaat	-11.6255
atrofie	-11.6256
ammanaaldbiopt	-11.6262
behandeling	-11.6262
▁norm	-11.6268
medicamenteuze	-11.6269
olide	-11.6274
eritonitis	-11.6274
infarctlittekens	-11.6275
tis	-11.6275
oesofagusvarices	-11.6282
rogesteron	-11.6283
▁antracose	-11.6284
▁kortademig	-11.6284
▁restrictie	-11.6285
▁hormonale	-11.6285
▁Resectievlak	-11.6286
▁loopt	-11.6292
rw	-11.6294
-20	-11.6305
spoelvocht	-11.6307
▁ab	-11.631
▁schouderbladen	-11.6314
▁cellulitis	-11.6315
circumferentieel	-11.6316
▁Littekens	-11.6316
▁huidafwijkingen	-11.6319
geringe	-11.6323
▁overig	-11.6324
io	-11.6329
▁Afstand	-11.6332
▁geleverd	-11.6333
hr	-11.6336
▁biliaire	-11.6337
▁geacht	-11.6341
▁huidbiopsie	-11.6356
▁hartritme	-11.6372
▁rechtercoronair	-11.6377
Dr	-11.6377
hersenen	-11.6378
▁lijnen	-11.6378
212	-11.638
▁bloedingsrest	-11.6383
▁Curettement	-11.6385
▁Huntington	-11.6385
▁haematopoese	-11.6385
▁rosacea	-11.6385
▁begonnen	-11.6385
▁frontotemporale	-11.6385
▁vruchtholte	-11.6385
▁endocardiale	-11.6386
▁anamnestisch	-11.6386
▁biventriculair	-11.6386
▁doorgesneden	-11.6387
rijgingstechniek	-11.6387
▁chronicus	-11.6387
lijmvliesexcisie	-11.639
▁paraaortaal	-11.6391
▁extensie	-11.6396
▁oren	-11.6397
▁geisoleerde	-11.6398
▁gedraineerd	-11.6399
pleuraholte	-11.64
▁lichenoAd	-11.6401
▁11.	-11.6406
▁weefselverval	-11.6408
len	-11.6411
▁microangiopathi	-11.6412
00-1	-11.6415
▁insufficiente	-11.6418
▁tesamen	-11.6429
pathologisch	-11.6431
▁tauopathie	-11.6434
▁septale	-11.6439
▁Hierme	-11.6442
202	-11.6452
chimmelkleuring	-11.6452
▁linkerbovenbeen	-11.6457
▁thoraxdrain	-11.6467
▁vesicula	-11.6469
▁puntje	-11.6476
▁cellulariteit	-11.6476
risk	-11.6477
leppen	-11.6479
elaas	-11.6483
▁Bls	-11.6486
▁haematurie	-11.6486
▁hemodialyse	-11.6486
▁pitting	-11.6487
▁toediening	-11.6488
ARGE	-11.6492
celpercentage	-11.6493
aorta	-11.6503
Coronairarterien	-11.6504
▁midline	-11.6506
▁incisie	-11.6506
▁partieel	-11.6523
Appendixresectie	-11.6524
klep	-11.653
▁laceratie	-11.6533
pulmonale	-11.6533
▁liep	-11.6535
ive	-11.6536
▁polymorfe	-11.6538
▁gestuurd	-11.6539
oide	-11.6541
igexcisie	-11.6552
▁nav	-11.6554
▁begrensd	-11.6556
▁cervixpoliep	-11.6562
▁kuur	-11.6573
▁side	-11.6577
esofagus	-11.6577
classificatie	-11.6579
ype	-11.6583
▁obturatorius	-11.6587
▁ledematen	-11.6588
▁ongewoon	-11.6589
▁subacuut	-11.6589
▁arteriolen	-11.6589
▁prostatica	-11.6589
▁cysticus	-11.6589
▁proliferatief	-11.6594
▁prominent	-11.6597
▁lichtmicroscopi	-11.6604
▁maagcardia	-11.6604
▁onderkaak	-11.6606
cholesterolaemie	-11.6608
▁pomp	-11.6613
del	-11.6614
waar	-11.6614
▁episodes	-11.6618
▁reductie	-11.6632
▁vertoonde	-11.6633
sigmoid	-11.6637
▁colonresectie	-11.6637
infarceringen	-11.6638
amnionitis	-11.6639
problemen	-11.6644
▁serie	-11.6645
▁ochtends	-11.6648
do	-11.6653
▁junction	-11.666
▁larynxcarcinoom	-11.6662
▁dys	-11.6662
▁condyloma	-11.6675
▁bijkomend	-11.6678
lengte	-11.6678
▁krabeffect	-11.668
▁duim	-11.668
▁smal	-11.6681
▁degeneratief	-11.6682
▁beiden	-11.6683
▁huidafwijking	-11.6685
▁eosinofiel	-11.6686
▁host	-11.6687
▁wekedelen	-11.6689
▁bursa	-11.6692
▁lactaatacidose	-11.6692
▁voorhanden	-11.6692
▁microkalk	-11.6692
hemihepatectomie	-11.6693
▁caverneus	-11.6694
klierweefsel	-11.6696
▁overgangse	-11.67
▁gedissemineerde	-11.6701
▁ongoing	-11.6703
▁inoperabel	-11.6711
▁krabeffecten	-11.6712
▁celpopulatie	-11.6721
verslag	-11.6726
▁verlengde	-11.6729
▁dubbel	-11.6732
▁Hashimoto	-11.6739
▁aspiraat	-11.6746
nefrosclerose	-11.6746
mortale	-11.6755
▁galweg	-11.6755
lc	-11.6764
▁geinduceerde	-11.6766
▁iliacaal	-11.6767
non	-11.6778
groep	-11.6784
▁k	-11.6789
▁adherente	-11.6789
localisaties	-11.6792
eratine	-11.6793
▁verward	-11.6795
▁Atherosclerosis	-11.6796
▁geconcludeerd	-11.6796
▁hybridisatie	-11.6796
▁verbreed	-11.6796
▁rekanalisatie	-11.6796
▁ingedikt	-11.6796
▁Longemfyseem	-11.6796
mvg	-11.6797
cal	-11.6797
▁Bekend	-11.6797
▁Ig	-11.6803
ation	-11.6804
▁snijden	-11.6804
▁epiglottis	-11.6804
▁ventriculi	-11.681
▁longziekte	-11.6811
hal	-11.6816
▁heftige	-11.6818
▁nasolabiaal	-11.6821
▁shift	-11.6821
deposities	-11.6829
holte	-11.6838
▁histiocytoom	-11.6838
panel	-11.685
eleidingssysteem	-11.6853
gezette	-11.6861
haard	-11.6863
▁conclusief	-11.6864
▁restlokalisatie	-11.6866
thrombose	-11.6867
▁ablatie	-11.6874
▁Advies	-11.6879
AG	-11.6883
roximaal	-11.6889
▁stuit	-11.6896
▁adherent	-11.6897
efrectomie	-11.6899
▁zichtbare	-11.6901
▁basaalmembraan	-11.6901
▁afgegeven	-11.6901
▁polypeus	-11.6902
▁getracht	-11.6902
▁kleplijden	-11.6902
▁knieprothese	-11.6903
▁aangeboren	-11.6903
▁aansluiting	-11.6903
uevorming	-11.6905
eneration	-11.6908
▁fibrosehaardjes	-11.6909
loze	-11.6911
▁hoofdbronchien	-11.6912
thromboembolieen	-11.6913
▁opgelopen	-11.6913
▁hilair	-11.6914
fibroserende	-11.6918
▁Cachexie	-11.6922
▁componenten	-11.6922
emie	-11.6924
ewustzijnsdaling	-11.6924
▁ataxie	-11.6927
▁alsnog	-11.6929
▁GI	-11.6939
ventrikel	-11.6943
septaal	-11.6947
uren	-11.6952
▁EEG	-11.6954
▁okseltop	-11.696
▁Extern	-11.6968
▁Bespreking	-11.6979
omateuze	-11.698
▁hoofdbronchi	-11.6995
▁bi	-11.6997
▁reiken	-11.6999
▁pompfunctie	-11.7006
▁herkennen	-11.7007
▁irradicaal	-11.7007
▁hypercalciemie	-11.7007
▁pancreaticus	-11.7007
▁wigvormig	-11.7008
▁novo	-11.7008
▁target	-11.7008
▁presternaal	-11.7008
▁avitaal	-11.7008
▁massieve	-11.7008
▁celgroepen	-11.7009
▁darmlis	-11.701
behoeftig	-11.7013
kweken	-11.7014
▁darmlijden	-11.7014
teuze	-11.7018
uterine	-11.7019
▁Blaasbiopten	-11.7021
graft	-11.7025
▁levernecrose	-11.7027
▁fibrinoide	-11.7027
▁blijvende	-11.7028
▁obstruerend	-11.7032
▁werk	-11.7036
▁miltinfarct	-11.7038
▁leverfibrose	-11.7039
▁Distal	-11.704
▁reperfusie	-11.7045
▁kaakhoek	-11.7045
▁afgedekt	-11.7047
ige	-11.7053
▁Hypertrofi	-11.7055
▁bestralings	-11.7059
darm	-11.7079
▁micrografi	-11.7083
avs	-11.7083
▁tumornecrose	-11.7085
▁gemengd	-11.7095
tisch	-11.7104
▁trap	-11.7113
▁advies	-11.7115
▁limbisch	-11.7115
leeftijdsconform	-11.7115
▁ongebruikelijk	-11.7115
▁vaatstelsel	-11.7115
▁straat	-11.7115
▁merendeel	-11.7116
▁dientengevolge	-11.7116
▁nvt	-11.7116
▁Eerder	-11.7116
▁vrijgegeven	-11.7119
▁error	-11.7119
▁coprostase	-11.7124
▁contusie	-11.7126
naast	-11.713
ong	-11.7132
▁motor	-11.7132
▁hematologische	-11.7141
hospital	-11.7144
▁gemodificeerd	-11.7153
tekening	-11.7161
▁verhouding	-11.7171
▁ex	-11.7174
▁lytisch	-11.7185
defect	-11.7194
▁maagcorpustype	-11.7197
▁lichaams	-11.7201
▁vas	-11.7215
der	-11.7223
▁nodosa	-11.7224
▁rubriek	-11.7224
▁thrombopenie	-11.7224
▁verhaal	-11.7224
▁voortgeschreden	-11.7224
▁stigmata	-11.7224
▁ontwikkelt	-11.7224
▁schizofrenie	-11.7224
DIGHEID	-11.7224
▁purpura	-11.7224
▁onderkwadrant	-11.7225
▁cardiologie	-11.7225
▁placentabed	-11.7226
▁negen	-11.7227
ectie	-11.7227
▁aanvragend	-11.7228
▁pat	-11.7234
▁axonal	-11.7236
▁hartafwijkingen	-11.7243
▁longtop	-11.7244
buisprothese	-11.7248
spatroon	-11.7248
wille	-11.7252
▁pulmonair	-11.7257
Blokje	-11.7259
Definitieve	-11.726
111	-11.726
▁nie	-11.7284
▁hv	-11.729
▁gelijk	-11.729
rand	-11.7294
121	-11.7298
▁centrilobulaire	-11.7314
apillair	-11.7317
reanimatiepoging	-11.7317
▁staart	-11.7318
▁zelfde	-11.7323
▁2,2	-11.7325
▁cristabiopt	-11.7333
▁verloren	-11.7333
▁Aldaar	-11.7334
▁Bleke	-11.7334
▁vaatspasmen	-11.7334
▁hoornmateriaal	-11.7334
▁invloed	-11.7337
▁cervixcarcinoom	-11.7338
itgesneden	-11.7338
▁gladde	-11.7339
gerelateerde	-11.7343
▁bijdragende	-11.7344
membraneuze	-11.7344
▁geimplanteerd	-11.7349
▁submandibulair	-11.7349
verschijnselen	-11.736
▁intraductaal	-11.7361
name	-11.7369
▁gemiddeld	-11.7373
101	-11.7376
ff	-11.738
▁mat	-11.7383
▁krappe	-11.7383
▁Gedilateerde	-11.7385
▁celverval	-11.7392
volgens	-11.7395
laparotomie	-11.7395
▁coronairstenose	-11.7395
*******,	-11.7416
▁radio	-11.7416
▁parese	-11.742
▁Crista	-11.7424
▁Lichtmicroscopi	-11.7429
lymfklier	-11.743
schimmelkleuring	-11.743
▁point	-11.7434
alis	-11.7438
▁behandelen	-11.744
▁Corpus	-11.744
▁achterhaald	-11.7445
▁diathese	-11.7445
▁interpreteren	-11.7445
▁obliterans	-11.7445
▁optimal	-11.7445
▁langzaam	-11.7445
▁thoraxfoto	-11.7445
▁RCx	-11.7452
▁uitgelokt	-11.7454
▁bied	-11.7455
▁plek	-11.7461
▁hamartoom	-11.7466
▁pancreasweefsel	-11.7467
▁verschijnsel	-11.7472
strumenta	-11.7472
▁medebeoordeeld	-11.7479
▁postero	-11.7487
▁Adnex	-11.749
aanwijzingen	-11.7496
▁portae	-11.7513
CLL	-11.7518
▁AC	-11.752
mb	-11.7523
▁Lymfeklier	-11.7524
▁Lymfklierbiopt	-11.7525
▁okselvet	-11.7533
ondermeer	-11.7534
▁puspocket	-11.7546
▁angioom	-11.7548
▁balkenblaas	-11.7551
▁gevoed	-11.7555
lcus	-11.7557
▁delirant	-11.7557
▁kennelijk	-11.7557
▁meningo	-11.7557
▁mitotisch	-11.7557
▁arterietak	-11.7558
▁intramurale	-11.7559
▁dysmorfieen	-11.7561
▁darmmucosa	-11.7565
▁overgaand	-11.7567
granuloomvorming	-11.7567
esultaat	-11.7569
▁hematemesis	-11.7572
implantatie	-11.7578
▁smalle	-11.758
aaldbiopsie	-11.7583
▁monotypisch	-11.7591
▁toeval	-11.7595
▁bacteriologisch	-11.7597
▁Blijk	-11.7604
empyeem	-11.7607
▁epitheelcellen	-11.7609
▁Immuunhistochem	-11.7615
▁duct	-11.7619
RCA	-11.762
▁miss	-11.7624
▁traumatisch	-11.7625
mentum	-11.7625
sclerotische	-11.7635
▁zwarte	-11.7637
▁Localisatie	-11.7644
lichaampjes	-11.7647
spoliep	-11.7649
tak	-11.7652
▁acantholytische	-11.7655
▁littekengebied	-11.7659
ndien	-11.767
▁concentrisch	-11.767
▁braaksel	-11.7671
▁angiolipoom	-11.7671
▁streptokokken	-11.7671
▁pericardzakje	-11.7671
▁massawerking	-11.7671
▁cytonucleair	-11.7671
▁serologisch	-11.7672
▁Linkerventrikel	-11.7672
▁valvula	-11.7674
▁zijsnijvlakken	-11.7674
aget	-11.7677
▁clonale	-11.7677
▁cystewand	-11.7678
▁reagerend	-11.7679
embolisatie	-11.768
have	-11.7681
macroscopisch	-11.7683
▁gebaseerd	-11.7686
peri	-11.769
mi	-11.7691
▁schoon	-11.7701
naad	-11.7706
▁vaster	-11.7712
orale	-11.7717
satypie	-11.772
▁waarde	-11.772
▁plus	-11.7726
▁zwangerschaps	-11.7726
▁oplopend	-11.7727
▁onderzoeken	-11.7727
▁pGly	-11.773
middenkwab	-11.7733
▁zones	-11.7733
jaren	-11.7734
zover	-11.7734
cre	-11.7736
▁mola	-11.7738
▁hechtingen	-11.7742
▁vloeistof	-11.7746
▁rechteratrium	-11.7752
▁0,1	-11.7752
▁hoorn	-11.7754
▁Helicobacters	-11.7773
ragen	-11.7773
▁Hersen	-11.7774
roximale	-11.7774
cp	-11.7775
darmkanaal	-11.7775
rijwel	-11.778
bare	-11.7782
▁regeneratie	-11.7785
cerebellaire	-11.7785
▁Gedacht	-11.7786
▁zonbeschadigd	-11.7786
▁binnengebracht	-11.7786
▁endometriosis	-11.7789
▁steel	-11.779
▁by	-11.7791
mplise	-11.7795
▁compartiment	-11.7795
▁gebiopteerd	-11.7795
▁chorio	-11.781
▁aangeleverde	-11.7811
▁Gefragmenteerd	-11.7814
eri	-11.7815
▁capsula	-11.7819
▁longpathologie	-11.7826
▁lineaire	-11.7827
▁zichzelf	-11.7827
Ad	-11.7831
periventriculair	-11.7831
▁angiografie	-11.7834
▁CAG	-11.7836
▁elastisch	-11.7837
ob	-11.7838
bi	-11.7839
olledig	-11.7842
▁kuren	-11.7848
▁granulair	-11.785
▁lyse	-11.7853
Bethesda	-11.7854
iliacale	-11.7855
CABG	-11.7855
vacuolair	-11.7858
▁halve	-11.787
sonde	-11.7881
ant	-11.7885
▁vera	-11.7885
▁Levernaaldbiopt	-11.7893
neevlak	-11.7895
▁luidt	-11.7902
▁oedemen	-11.7902
▁haematopoiese	-11.7902
▁ontbinding	-11.7902
▁geweld	-11.7902
▁respiratorius	-11.7902
▁mucocele	-11.7902
▁separate	-11.7902
▁paravertebraal	-11.7902
leuringen	-11.7903
nl	-11.7905
▁verslechterend	-11.7905
ling	-11.7906
▁functionerend	-11.7906
▁risicofactoren	-11.7909
▁stasis	-11.7909
Huid	-11.791
▁inclusie	-11.7911
▁zijresectievlak	-11.7912
▁baso	-11.7916
00-	-11.7917
erbloedingsshock	-11.7917
▁dorsum	-11.7924
▁kaakrand	-11.793
mo	-11.7932
ium	-11.7939
▁intake	-11.7942
▁positie	-11.795
010	-11.7955
▁poly	-11.7959
brengen	-11.7963
▁loslating	-11.7967
▁mycotisch	-11.7968
macrofagen	-11.7978
▁onderscheiden	-11.798
decompensatio	-11.798
Hart	-11.7982
▁Low	-11.7983
▁kanaal	-11.7993
treffen	-11.7997
resistente	-11.8009
ris	-11.8009
▁liezen	-11.8014
aneurysmavorming	-11.8017
▁eetlust	-11.8019
▁makkelijk	-11.8019
▁locoregional	-11.8019
▁microsatellitos	-11.8019
▁insectenbeet	-11.802
▁tegenstelling	-11.802
▁atheromatose	-11.802
▁myelodysplasie	-11.802
▁paratracheale	-11.802
▁verondersteld	-11.802
▁parahippocampal	-11.8021
slecht	-11.8021
trombose	-11.8023
▁ontkleurd	-11.8029
▁tumorembolieen	-11.8037
aat	-11.8038
222	-11.8039
▁stand	-11.8046
▁enzym	-11.8047
po	-11.8049
▁Darmen	-11.8049
▁uitname	-11.8056
▁parameters	-11.8059
arterie	-11.8066
uenties	-11.8066
▁bestraald	-11.8068
An	-11.8069
▁catecholamine	-11.8074
▁gave	-11.8075
▁bovenstaand	-11.8078
▁ruiter	-11.8104
▁zgn	-11.8113
▁groeide	-11.8118
▁220	-11.8121
kenmerken	-11.8121
▁band	-11.8122
▁abcesholte	-11.8124
cl	-11.8128
▁zag	-11.8131
hy	-11.8137
▁utero	-11.8137
▁Diabetes	-11.8139
▁betrekkelijk	-11.8139
▁discreet	-11.8139
▁geobstrueerd	-11.8139
▁ontdekt	-11.8139
▁gepresenteerd	-11.8139
▁hersensektie	-11.8139
▁neoadjuvant	-11.8139
▁Alhier	-11.8139
▁daaropvolgend	-11.8139
▁beenvenen	-11.8139
urulente	-11.814
▁crusta	-11.8141
▁urotheelcellen	-11.8142
▁vermelden	-11.8144
▁gliale	-11.8146
like	-11.8149
▁bekleding	-11.8149
problematiek	-11.8152
▁hartschade	-11.8152
▁left	-11.8152
LICA	-11.8154
▁vlekkerige	-11.8161
agina	-11.8166
▁collageneuze	-11.8168
▁gastric	-11.8172
▁LCx	-11.8179
▁Atelectase	-11.8181
▁trigonum	-11.8181
▁brengen	-11.8184
▁cyanose	-11.8185
▁bronchiale	-11.8187
laterale	-11.8202
▁ruimer	-11.8203
▁ruimtes	-11.8208
▁verslagen	-11.8216
schoon	-11.8227
lymfocyten	-11.8229
vats	-11.8232
▁kerato	-11.8234
▁grijs	-11.8238
▁hevige	-11.8242
▁methotrexaat	-11.8248
▁medullair	-11.8255
▁verbloed	-11.8258
▁Borgstb	-11.8259
▁fungoides	-11.8259
▁gesteeld	-11.8259
▁rhabdomyolyse	-11.8259
▁bleven	-11.8259
▁mycosis	-11.8259
▁lengtematen	-11.8259
▁polyneuropathie	-11.8259
▁monoclonale	-11.8259
▁pyelitis	-11.8259
▁luxerend	-11.8259
▁tevoren	-11.826
▁Cytologie	-11.826
▁twaalf	-11.826
▁echtgenote	-11.8261
▁eilandjes	-11.8261
▁intracranial	-11.8261
-02-200	-11.8263
nemen	-11.8263
cerebrovasculair	-11.8265
▁meso	-11.8268
▁Huidreexcisie	-11.8269
▁zeldzaam	-11.8269
aj	-11.8273
▁pneumokokken	-11.8276
▁endometroid	-11.8282
▁infarctgebieden	-11.8286
▁longinfarcten	-11.829
▁Augmentin	-11.8295
av	-11.8305
▁adrenaline	-11.8309
groei	-11.8312
▁aanvoelende	-11.8315
▁herhaald	-11.8319
▁haemorrhagie	-11.8326
▁bijpassend	-11.8328
▁arteriitis	-11.8329
aneurysma	-11.8334
▁belemmering	-11.8334
-2002	-11.8346
▁afm	-11.835
▁bijbevindingen	-11.8358
diffuse	-11.8358
▁pleksgewij	-11.8359
▁cloacae	-11.8363
▁reageren	-11.8372
erzorgingsgebied	-11.8375
aligniteit	-11.8376
▁gebiedje	-11.8379
▁fataal	-11.8381
▁krijgt	-11.8381
▁sinusoiden	-11.8381
▁suggereert	-11.8381
▁leukocytose	-11.8381
▁galsteenlijden	-11.8381
▁hemibeeld	-11.8381
▁sternumfractuur	-11.8381
▁ziekelijk	-11.8382
▁rectumstomp	-11.8382
▁achterblijvend	-11.8383
rechterbovenbeen	-11.8384
▁tumordoorgroei	-11.8385
▁niercyste	-11.8387
umordiameter	-11.839
▁demyelinisatie	-11.8399
▁cocaine	-11.8404
▁Dat	-11.8412
▁porto	-11.8413
evel	-11.8416
▁Diagnose	-11.842
▁uitslagen	-11.8423
grote	-11.8425
tt	-11.8427
di	-11.8429
sparameters	-11.8433
▁eku	-11.8445
sie	-11.8452
ous	-11.8452
▁lysis	-11.8456
▁reusceltumor	-11.8456
sarcoom	-11.8456
▁icterisch	-11.8464
itgenomen	-11.8466
▁aneurysmatisch	-11.8469
ootmuskaataspect	-11.847
ras	-11.8472
▁Haar	-11.8477
and	-11.848
▁naaldbiopsie	-11.8484
placentaire	-11.8485
flr	-11.8489
▁wilde	-11.8501
▁formaline	-11.8503
▁complicerende	-11.8503
oesofageale	-11.8504
▁geschikt	-11.8504
▁gesuggereerd	-11.8504
▁onwelwording	-11.8504
▁disarray	-11.8504
▁myelopoese	-11.8504
▁vloeibaar	-11.8504
▁claudicatio	-11.8504
▁tongbasis	-11.8505
▁herhaaldelijk	-11.8505
▁stoppen	-11.8505
▁distress	-11.8505
▁consistent	-11.8505
▁ulcusbodem	-11.8505
▁placentarest	-11.8506
▁subserosale	-11.8507
plak	-11.8507
vdR	-11.8507
▁euthanasie	-11.8508
▁aldus	-11.8509
▁dehiscentie	-11.8516
▁dubbelzijdig	-11.8517
eroperatief	-11.8517
▁infarcthaardjes	-11.8518
▁fiets	-11.8523
aangedane	-11.8532
▁veldjes	-11.8533
▁precieze	-11.8535
▁pneumonisch	-11.8537
▁polycysteu	-11.8538
▁essentie	-11.8544
postmortale	-11.8547
bs	-11.8548
▁dermat	-11.8559
rivasculaire	-11.8563
ventriculaire	-11.8575
para	-11.8584
ilateraal	-11.8585
▁relevant	-11.8594
snijvlak	-11.8595
so	-11.8598
umortype	-11.8609
▁verwikkeling	-11.8618
▁houden	-11.8618
diverticulitis	-11.8619
▁major	-11.8622
▁blaastumor	-11.8627
bloed	-11.8628
120	-11.8629
▁gebleken	-11.8629
▁krijgen	-11.8629
▁weerhouden	-11.8629
▁panniculitis	-11.8629
▁hobbelig	-11.8629
▁streptococ	-11.863
▁vermis	-11.863
▁molle	-11.863
cell	-11.863
▁prepylorisch	-11.863
odra	-11.8631
▁typeren	-11.8631
▁fistelvorming	-11.8632
gehypertrofieerd	-11.8635
▁nabijheid	-11.8636
▁bloedstuwing	-11.8639
▁leuko	-11.8639
shaardjes	-11.864
▁Rectosigmoid	-11.8647
chemische	-11.8647
▁sepsismilt	-11.8653
▁ductcarcinoom	-11.8654
▁consolidaties	-11.8656
▁stenoses	-11.866
anteriorresectie	-11.8662
▁groepen	-11.8673
▁vaatmalformatie	-11.8674
kleuringen	-11.8675
▁assay	-11.8681
▁splitsing	-11.8681
▁draden	-11.8684
▁ingehechte	-11.8693
▁subepithelia	-11.8696
pathologische	-11.87
erend	-11.8707
▁technisch	-11.8713
laag	-11.8718
110	-11.8719
▁herstelde	-11.872
peritoneale	-11.8727
lots	-11.8733
xcochleaat	-11.8734
infrarenale	-11.8735
aandoening	-11.8736
▁hydro	-11.8736
▁thoraco	-11.8742
-100	-11.8747
▁gedissemineerd	-11.8748
▁clon	-11.8748
▁Coli	-11.8753
▁infra	-11.8754
niversitair	-11.8754
▁diarrhee	-11.8756
▁geinjiceerd	-11.8756
▁psoriasiform	-11.8756
▁verstuurd	-11.8756
▁afgeplat	-11.8756
▁mesencefalon	-11.8756
jwng	-11.8757
▁bedreigd	-11.8757
▁perirenaal	-11.8757
▁voetrug	-11.8757
ammapunctie	-11.8759
▁drukken	-11.876
▁overgrijpend	-11.876
▁leverkapsel	-11.8764
snijvlakken	-11.8764
▁onderling	-11.8767
▁rontgen	-11.877
▁insula	-11.8772
▁Longembolie	-11.8775
val	-11.8776
air	-11.8776
▁wanden	-11.8776
▁irregulaire	-11.878
darmslijmvlies	-11.8781
▁malformaties	-11.8783
▁Laboratorium	-11.8787
▁afwachten	-11.8797
▁serologie	-11.8801
▁omental	-11.8801
septumdefect	-11.8803
jv	-11.8803
▁cin	-11.8808
vloedbelemmering	-11.8809
anale	-11.8811
▁ontwikkelende	-11.8812
vervanging	-11.8818
▁lopend	-11.8819
▁bovenop	-11.884
▁clonaliteits	-11.8842
▁Cor	-11.8845
temporaal	-11.8847
▁tibia	-11.8847
ntsteking	-11.8854
uitstrijk	-11.8867
evenbevinding	-11.8871
ets	-11.8871
▁soort	-11.8873
▁ontving	-11.8873
portale	-11.8877
▁*******).	-11.8877
Ale	-11.8878
▁endotheel	-11.8883
▁gemelli	-11.8884
▁infiltreert	-11.8884
▁seminales	-11.8884
▁correlaat	-11.8884
▁interstitium	-11.8884
▁recanalisatie	-11.8884
▁rectus	-11.8884
▁schaal	-11.8884
▁tracheitis	-11.8885
▁collagene	-11.8885
▁colloides	-11.8886
blok	-11.889
▁circum	-11.8893
▁rechterlies	-11.8894
▁Gemetastaseerd	-11.8895
▁systemisch	-11.8895
▁patiA	-11.8896
BL	-11.8898
▁vetembolieen	-11.8899
▁superficiA	-11.8901
▁zijranden	-11.8903
▁gevoel	-11.8915
▁kolonisatie	-11.8915
▁respiratory	-11.8916
▁hemorrhagie	-11.8922
▁Icterus	-11.8923
▁bronchioli	-11.8923
drie	-11.8927
▁neurologie	-11.8928
2010	-11.8929
▁waarden	-11.8931
▁inhechting	-11.8935
omatische	-11.8947
▁medenem	-11.895
▁initieel	-11.895
oesofagusbiopten	-11.8957
letsel	-11.8966
▁Herzfehler	-11.8972
mtrent	-11.8975
sel	-11.8976
▁lopen	-11.8982
▁iatrogeen	-11.8986
istomorfologisch	-11.8989
host	-11.8994
lateraalsclerose	-11.9
lotseling	-11.9002
▁Bodem	-11.9002
▁Cyste	-11.9007
▁verbred	-11.9012
▁elastine	-11.9014
▁Cerebellum	-11.9014
▁solitus	-11.9014
▁submandibularis	-11.9014
▁leptomeningen	-11.9014
▁bedroeg	-11.9014
▁hartezakje	-11.9014
▁Abdomen	-11.9014
▁hypothermie	-11.9015
▁genherschikking	-11.9015
▁gebloed	-11.9015
uitine	-11.9016
lichaamsgewicht	-11.9021
▁doorgegeven	-11.9022
▁longembolisatie	-11.9024
longoedeem	-11.9026
▁huidexcisies	-11.9026
virale	-11.9027
▁intrekkingen	-11.9029
▁elektronen	-11.9032
▁onstaan	-11.9032
ocale	-11.9032
▁speelt	-11.9033
kans	-11.9034
▁Ablatio	-11.9039
▁vaatbed	-11.9039
▁adnexa	-11.9041
▁keratocyste	-11.9047
sgerelateerde	-11.9049
min	-11.9049
▁angiodysplasie	-11.9051
renale	-11.9054
inmiddels	-11.9055
▁nierweefsel	-11.9055
▁regeneratieve	-11.9056
▁exsudaat	-11.9058
▁shockbeeld	-11.9058
microsatellieten	-11.9061
ab	-11.9064
rale	-11.9073
▁myo	-11.9077
▁gelig	-11.9095
▁Huidexcisies	-11.9096
essentiele	-11.9101
▁overgevoelig	-11.9115
ibrineuze	-11.9116
▁atresie	-11.9124
functiestoornis	-11.9125
ulmonaal	-11.9135
ussen	-11.9144
▁Balkenblaas	-11.9146
▁Hypertrophi	-11.9146
▁coloscopie	-11.9146
▁gelukt	-11.9146
▁hemofagocytair	-11.9146
▁immaturus	-11.9146
▁remissie	-11.9146
▁toegepast	-11.9146
▁hypocellulair	-11.9146
▁pneumatosis	-11.9146
▁identiek	-11.9146
▁intraanaal	-11.9147
▁leversteatose	-11.9148
▁bloedrijk	-11.915
▁fronto	-11.9155
▁di	-11.9158
2000	-11.916
▁tweetaks	-11.916
▁luchtweg	-11.916
▁omringende	-11.9163
▁intramucosaal	-11.9164
sklachten	-11.9172
lymfklierexcisie	-11.9185
▁minuscu	-11.9187
▁ileumbiopten	-11.9187
▁insertie	-11.9194
▁Echo	-11.9205
▁ano	-11.9209
▁alpha	-11.9213
▁promotor	-11.9214
▁tube	-11.9219
▁stroomgebieden	-11.9221
▁wigexcisie	-11.9227
▁pleiten	-11.9227
▁fenotype	-11.9228
anoxische	-11.9241
▁Hotspot	-11.9243
uperficieel	-11.9244
ys	-11.9246
▁herhaalde	-11.926
▁mild	-11.926
dh	-11.9262
transplantaat	-11.9262
▁IH	-11.9268
▁hartgewicht	-11.9272
-2012	-11.9275
reitz	-11.9279
▁conjunctiva	-11.9279
▁foveolair	-11.9279
▁gehoorgang	-11.9279
▁gethromboseerd	-11.9279
▁hyperthyreoidie	-11.9279
▁onverklaard	-11.9279
▁verdwenen	-11.9279
▁mastocytose	-11.9279
bloedingsneiging	-11.9279
▁alopecia	-11.9279
▁binnenkomst	-11.9279
▁schwannoom	-11.9279
▁canule	-11.9281
▁spelen	-11.9282
▁dosis	-11.9283
▁hepatogeen	-11.9284
▁doorheen	-11.9285
eckels	-11.9286
▁risk	-11.929
oesophageale	-11.9294
▁tumorlengte	-11.9294
catheter	-11.93
waarbij	-11.9306
▁details	-11.9306
▁aspergilloom	-11.9312
▁dikwandige	-11.9312
logie	-11.9321
up	-11.9327
ib	-11.9329
▁gist	-11.9335
▁myxoide	-11.9345
ou	-11.9347
elefonisch	-11.9348
▁waterscheidings	-11.935
▁seminoom	-11.9363
segment	-11.9366
dg	-11.9366
▁gefibroseerd	-11.9366
genomen	-11.9367
▁Grocott	-11.9371
▁EI	-11.9383
▁hartklep	-11.9386
▁therapiekeuze	-11.9388
Rblaas	-11.9395
▁voeren	-11.9397
▁pneumoniebeeld	-11.9397
▁Dd	-11.9398
▁echt	-11.94
▁ontregeld	-11.9401
▁insufficienti	-11.9407
▁Ischaemische	-11.9407
arm	-11.941
ehandeling	-11.9411
▁vlakke	-11.9412
▁vervet	-11.9413
▁Roux	-11.9414
▁compound	-11.9414
▁flowcytometrie	-11.9414
▁contagiosum	-11.9414
▁glomerulopathie	-11.9414
▁omstandigheden	-11.9414
▁neurogene	-11.9415
stollingsneiging	-11.9415
▁familieanamnese	-11.9415
▁amorf	-11.9416
▁Extra	-11.9416
▁Aortaklep	-11.942
▁rectumamputatie	-11.9423
▁pneumocystis	-11.9423
▁pallidum	-11.9425
tamponade	-11.9426
▁centro	-11.9431
ted	-11.9432
▁dienen	-11.9432
stand	-11.9432
▁doorgegroeid	-11.9433
▁hersteld	-11.9435
ih	-11.9436
doende	-11.9439
▁bekeken	-11.944
eert	-11.9441
respectievelijk	-11.9447
verstoring	-11.9449
tro	-11.9463
▁1,0	-11.9464
naar	-11.9475
▁geprikkeld	-11.9485
traepidermal	-11.9486
▁synovium	-11.9488
tenzij	-11.9489
▁steentjes	-11.9489
▁contrast	-11.9489
huid	-11.9492
▁intestinalis	-11.9498
▁gastrisch	-11.95
▁ong	-11.9508
wond	-11.951
poliep	-11.9517
▁abortus	-11.9523
vooral	-11.9526
stig	-11.953
▁zitten	-11.9539
▁versie	-11.9544
pmerkelijk	-11.9549
▁acuminatum	-11.9551
▁gebraakt	-11.9551
▁gecomprimeerd	-11.9551
▁genoeg	-11.9551
▁moeizaam	-11.9551
▁verdient	-11.9551
▁right	-11.9551
▁bedekt	-11.9551
▁minuscuul	-11.9551
▁nefrolithiasis	-11.9552
▁uitgaat	-11.9553
▁agv	-11.9555
▁arterietakjes	-11.9555
▁Interne	-11.9556
▁ingestelde	-11.9557
overgang	-11.9558
▁crypten	-11.9561
▁architecture	-11.9563
leurabiopten	-11.9566
achter	-11.9568
▁plaatepitheel	-11.9571
▁villi	-11.9573
▁plooi	-11.9577
opathie	-11.9578
▁schuimig	-11.9578
▁shocklever	-11.958
antitrypsine	-11.9582
huis	-11.9583
▁aggregaten	-11.9585
▁frontotemporaal	-11.9592
▁anatomie	-11.9592
▁darmnecrose	-11.9595
vrij	-11.9598
EDE	-11.9599
▁dalende	-11.9599
▁vnl	-11.96
▁cystisch	-11.9605
▁types	-11.9606
kl	-11.961
▁Receptoren	-11.961
▁donor	-11.9615
▁cystectomie	-11.9616
corticosteroiden	-11.9622
▁alveolitis	-11.963
▁blaasbiopten	-11.963
▁jong	-11.9634
man	-11.9637
▁gebrek	-11.9638
tent	-11.9647
▁extrauterien	-11.9654
spieren	-11.9655
erminale	-11.9656
▁inleiding	-11.9657
▁leta	-11.9658
vasculaire	-11.966
▁hersenbasis	-11.9661
▁Endocervica	-11.9661
▁bulla	-11.9669
▁ongeval	-11.9669
▁Langerhans	-11.9671
heidsreactie	-11.9677
▁belast	-11.9679
ubulair	-11.968
▁retentie	-11.968
pontaan	-11.9688
antal	-11.9689
onklusie	-11.969
dieringsvoorstel	-11.969
▁soepel	-11.969
▁trimester	-11.969
▁neuritische	-11.969
▁erythematosus	-11.969
▁afgewerkt	-11.969
▁capitis	-11.969
▁lavage	-11.969
▁mollusc	-11.969
▁clostridium	-11.969
▁diuretica	-11.969
▁nos	-11.969
▁blow	-11.9691
▁vervallen	-11.9691
▁darmkanker	-11.9691
▁vervaardigd	-11.9691
▁amyloidosis	-11.9691
▁drievatslijden	-11.9691
▁intrathoracale	-11.9692
▁Ileumbiopten	-11.9692
▁intrathoracaal	-11.9693
▁myocardvezels	-11.9693
▁puntvormig	-11.9694
▁hersenmetastase	-11.9694
▁linkeronderarm	-11.9697
rg	-11.9697
▁suboptimale	-11.97
dedifferentieerd	-11.9701
plaatsing	-11.9701
2012	-11.9707
▁Longbiopt	-11.9714
rap	-11.9717
HD	-11.9724
▁neuropathie	-11.9725
ingroei	-11.9727
▁secretoir	-11.9733
▁koude	-11.9739
ouderdom	-11.9739
inclusief	-11.9739
▁huidadnextumor	-11.974
geheel	-11.9741
plaats	-11.9742
▁antero	-11.9743
▁draad	-11.9744
wonden	-11.9748
▁wens	-11.9751
▁beademings	-11.9766
▁renaal	-11.9771
▁hormoonreceptor	-11.9771
karakteristieken	-11.9773
synucleine	-11.9776
-2010	-11.9778
az	-11.9785
takken	-11.9787
ocht	-11.9798
ik	-11.9801
▁irregulair	-11.9804
▁fibrinoid	-11.9805
▁210	-11.9806
▁slank	-11.9806
level	-11.9807
ibrose	-11.9812
reter	-11.982
rineblaas	-11.9828
▁cylindrisch	-11.9831
▁dusdanig	-11.9831
▁seminalis	-11.9831
▁rechtzijdig	-11.9831
▁suicide	-11.9831
▁second	-11.9831
▁oorlel	-11.9831
▁vaginatop	-11.9831
arthin	-11.9832
▁neoplastisch	-11.9832
▁subcorticale	-11.9832
▁tubair	-11.9833
▁zwakte	-11.9836
▁linkerbovenarm	-11.9838
oesophagus	-11.9839
▁metend	-11.984
ustom	-11.984
▁graden	-11.9841
▁voorkomt	-11.9841
▁wv	-11.9845
▁marker	-11.985
▁tensies	-11.985
▁inguinalis	-11.9851
▁gedekte	-11.9852
▁sulci	-11.9858
▁humerus	-11.9859
▁genereren	-11.9865
drain	-11.9871
▁middermaal	-11.9874
receptor	-11.9878
▁werkgroep	-11.9881
▁tumoraal	-11.9882
doorsnede	-11.9886
aagantrumbiopten	-11.9887
varices	-11.9888
laaggradig	-11.9889
maximaal	-11.9889
toe	-11.989
▁gastrale	-11.9894
▁keel	-11.9903
▁pogingen	-11.991
▁colli	-11.9911
▁nadien	-11.9923
-10-200	-11.9925
▁psychiatrische	-11.9929
cytologie	-11.9933
traventriculaire	-11.9934
▁stop	-11.9937
tensieve	-11.9941
▁verschil	-11.9942
childwachtklier	-11.9942
lokdarm	-11.9947
▁incomplet	-11.9963
▁pleuraal	-11.9968
rednison	-11.9971
eparaat	-11.9971
▁anaerobe	-11.9971
iekenhuis	-11.9971
pmerking	-11.9972
ultinodulair	-11.9974
▁Hyperplastisch	-11.9974
▁bejaarde	-11.9974
▁siderofagen	-11.9974
▁verknepen	-11.9974
▁erytropoese	-11.9974
▁triploidie	-11.9974
▁omphalocele	-11.9974
▁spermatozoa	-11.9974
▁ventilatie	-11.9974
▁sanguinolent	-11.9974
▁longvaatbed	-11.9974
▁verkrijgen	-11.9974
nasolabiaalplooi	-11.9975
▁taai	-11.9975
▁hemolyse	-11.9975
▁nierstenen	-11.9976
▁DIRE	-11.9977
▁epiduraal	-11.9978
metaplasie	-11.998
▁ductaaltype	-11.9985
▁huidstansbiopt	-11.9986
▁neutrofiel	-11.9987
▁avital	-11.9987
▁mammaparenchym	-11.9988
▁verergering	-11.9993
▁epitheloid	-11.9997
▁Geschat	-11.9998
▁histiocyten	-12.0001
pa	-12.0005
▁geslaagd	-12.0009
rectumslijmvlies	-12.001
Lymfklierexcisie	-12.0016
▁desmoplastisch	-12.0017
▁leukocytoclas	-12.0017
-12-200	-12.0021
kant	-12.0047
Longen	-12.0048
▁aortitis	-12.0064
▁ademhalings	-12.0069
tenoserende	-12.0069
chrompelnieren	-12.007
pt	-12.0072
10-1	-12.0078
▁dundarm	-12.0081
▁hypertrophi	-12.0084
▁erop	-12.0087
▁gemengde	-12.0092
▁transplantaat	-12.0099
EE	-12.0099
vaten	-12.0107
erineurale	-12.0107
▁bradycard	-12.0109
wanddikte	-12.0113
uamo	-12.0116
isselend	-12.0118
▁ervan	-12.0118
▁proficient	-12.0119
▁Laesie	-12.0119
▁cinguli	-12.0119
▁intramusculair	-12.0119
▁verleend	-12.0119
▁flora	-12.0119
▁retardatie	-12.0119
aruke	-12.0119
darmtractus	-12.0119
▁Reactief	-12.0119
▁gebeld	-12.0119
▁markerpatroon	-12.0119
▁artery	-12.0119
▁thrombolyse	-12.0119
▁slikstoornissen	-12.0119
▁bloedbraken	-12.0119
▁tangentieel	-12.012
▁afvloed	-12.0121
stapelingsziekte	-12.0122
▁halscyste	-12.0123
▁impetiginisatie	-12.0123
▁hypovolaemische	-12.0125
▁scleroserend	-12.0134
▁lung	-12.0135
▁cystic	-12.0136
▁gesampled	-12.0139
▁gereseceerd	-12.0142
tumorale	-12.0146
▁elastosis	-12.0147
▁Enterobacter	-12.0147
buikpijnklachten	-12.0149
▁ont	-12.0154
post	-12.0158
myloiddeposities	-12.0171
kleppen	-12.0172
▁locaties	-12.0172
▁bv	-12.0175
▁drugs	-12.0177
iets	-12.0178
▁kleinst	-12.0178
euro	-12.0186
▁bloedingsbron	-12.0187
▁symmetrische	-12.019
encefalitis	-12.0193
Gezien	-12.0194
adhesies	-12.0196
mutatie	-12.0198
HA	-12.0199
nen	-12.0203
▁ka	-12.021
▁hoek	-12.0213
▁atherosclerot	-12.0214
weg	-12.0215
lymfklierpunctie	-12.0217
▁donkere	-12.022
▁vergroting	-12.0223
cr	-12.0242
si	-12.0244
DD	-12.025
▁excisies	-12.0254
aemie	-12.0257
▁biopsies	-12.0257
▁operatiewond	-12.0259
▁twijfel	-12.0265
▁astrocyten	-12.0266
▁circumvallata	-12.0266
▁myocytolyse	-12.0266
▁sacrum	-12.0266
▁show	-12.0266
▁monoklonal	-12.0266
hiellengte	-12.0266
▁Genetisch	-12.0266
▁kritisch	-12.0266
▁toepassing	-12.0266
▁trabeculair	-12.0266
▁lichtstijve	-12.0266
▁onverdacht	-12.0266
▁hyperaemie	-12.0266
▁heldergeel	-12.0266
▁Actieve	-12.0267
▁cysteinhoud	-12.0267
▁sneeranden	-12.0269
▁ubi	-12.0273
toestand	-12.0275
▁uitgroei	-12.0275
▁enterobacter	-12.0277
lymfklierweefsel	-12.0284
▁gebleven	-12.0286
▁levercyste	-12.0289
▁Bentall	-12.0292
▁leverlijden	-12.0296
▁Ischemisch	-12.0298
▁anthracose	-12.0298
renaal	-12.0298
▁serum	-12.031
▁coiling	-12.0311
▁immunofenotype	-12.0312
ment	-12.0315
▁duidelijkheid	-12.0317
pakketten	-12.032
abces	-12.0326
meest	-12.0333
12-2	-12.0346
▁REC	-12.0346
iliacaal	-12.0348
cerebrum	-12.035
achtergrond	-12.0351
▁Harthypertrofie	-12.0351
hypertensie	-12.0351
*******).	-12.0355
opening	-12.0355
▁0,2	-12.0355
▁capillaire	-12.0355
rijk	-12.0356
longgewicht	-12.0356
exon	-12.0362
ang	-12.0362
age	-12.0369
wervelmetastasen	-12.0373
▁spina	-12.0375
▁karakteristiek	-12.0377
▁kwamen	-12.0377
▁haemorragische	-12.0392
▁Cancer	-12.04
▁AR	-12.0404
▁screenen	-12.0405
yp	-12.0406
icrobiologie	-12.0409
▁blok	-12.0409
▁korter	-12.041
▁ontwikkelings	-12.0411
pitz	-12.0413
teatosis	-12.0414
aldenstrom	-12.0415
▁circulatorius	-12.0415
▁direkt	-12.0415
▁geevalueerd	-12.0415
▁inguinaal	-12.0415
▁sectum	-12.0415
▁verwijzen	-12.0415
▁afasie	-12.0415
▁vacuolisatie	-12.0415
▁wervellichamen	-12.0415
▁wrsch	-12.0415
▁subita	-12.0415
▁verstreken	-12.0415
▁cholesterolosis	-12.0415
▁maxillaris	-12.0415
▁bifida	-12.0415
▁scoliose	-12.0415
▁versmald	-12.0415
▁lichaamsmaten	-12.0415
▁stromaceltumor	-12.0416
▁hieromheen	-12.0416
▁overgebracht	-12.0416
childklierpunct	-12.0416
▁gehecht	-12.0416
samenstelling	-12.0417
ekedelen	-12.0418
▁voren	-12.0418
▁micrometastase	-12.0418
▁myoclonieen	-12.0419
from	-12.042
▁ingeklemd	-12.0422
▁mentale	-12.0422
▁erosief	-12.0424
▁saturatiedaling	-12.0427
▁geneeskunde	-12.0427
▁verbakken	-12.0427
▁genese	-12.0429
▁cachectisch	-12.0434
▁Concentrisch	-12.0436
▁aanliggend	-12.044
▁slechter	-12.0446
▁overexpressie	-12.0447
▁nierziekte	-12.045
additionele	-12.0451
▁solitair	-12.0453
▁adhesie	-12.0462
che	-12.0467
▁regionaal	-12.0469
vet	-12.0473
▁reuma	-12.0473
HB	-12.0486
▁harde	-12.0488
▁trombocytopenie	-12.0491
▁preterminaal	-12.0495
synucleinopathie	-12.0495
pro	-12.0496
acanthoom	-12.0505
index	-12.0513
osis	-12.0519
lw	-12.0522
▁occlusiev	-12.0524
BD	-12.0525
text	-12.0527
▁dis	-12.0528
bifemorale	-12.0528
vlak	-12.0528
▁Bot	-12.0528
▁kristallen	-12.053
▁hemi	-12.0532
hechten	-12.0535
tra	-12.0538
▁concentratie	-12.0539
ary	-12.0542
▁crypt	-12.0546
athogene	-12.0555
reading	-12.0566
▁astrogliose	-12.0566
▁etiologisch	-12.0566
▁expliciet	-12.0566
▁mucositis	-12.0566
▁perimusculair	-12.0566
▁breidde	-12.0566
▁uremie	-12.0566
▁hypocampus	-12.0566
▁uitgeblust	-12.0566
▁imponeert	-12.0567
▁oncocytoom	-12.0567
▁pompfalen	-12.0567
▁panischemie	-12.0567
▁artefacten	-12.0567
▁puntbloedinkjes	-12.0567
▁polypeuze	-12.0567
▁afgelopen	-12.0567
▁toelichting	-12.0567
▁geruim	-12.0567
▁meerlagig	-12.0567
retrograde	-12.0568
▁daaraan	-12.057
▁opgave	-12.0572
▁clear	-12.0572
▁maagdarmkanaal	-12.0574
▁leucocytose	-12.0579
▁mesocolon	-12.0579
angio	-12.0583
▁peptische	-12.0584
tumoruitbreiding	-12.0585
ED	-12.0585
aagbiopt	-12.0594
▁adenos	-12.0595
licht	-12.0596
adien	-12.0596
▁hartoperatie	-12.0603
▁starten	-12.0604
▁gezond	-12.0605
▁borstkas	-12.0607
angiogram	-12.061
▁detecteert	-12.0612
▁myositis	-12.0612
▁pneumonieen	-12.0618
intoxicatie	-12.0619
per	-12.0626
▁adjuvant	-12.0631
▁onderzijde	-12.0632
hiel	-12.0635
▁elementen	-12.0637
▁Delen	-12.0642
pl	-12.0642
▁urticarie	-12.0643
▁vorige	-12.0645
▁symptomatisch	-12.0647
▁virusinfectie	-12.0653
▁inkt	-12.0656
▁Ischaemie	-12.0659
▁index	-12.0659
focaal	-12.0659
▁sternotomie	-12.0663
▁zegelring	-12.0664
▁nogal	-12.0665
vraag	-12.0667
▁hangen	-12.0669
Definitief	-12.067
▁nl	-12.0671
▁gas	-12.0674
tricuspidaalklep	-12.0678
▁residu	-12.068
▁hypereosinofili	-12.0686
uitgebreide	-12.0687
▁littekenbreuk	-12.069
trauma	-12.0701
▁casu	-12.0706
ervel	-12.0707
cz	-12.0708
hans	-12.0708
▁inzending	-12.0709
▁BII	-12.0716
▁radiologische	-12.0719
▁hyponatriemie	-12.072
▁periferie	-12.072
▁uitzondering	-12.072
▁aanbevolen	-12.072
▁behandeladvies	-12.072
▁hersenvliezen	-12.072
▁apical	-12.072
▁heupkop	-12.0721
oldoende	-12.0721
▁onsuccesvol	-12.0721
▁daaromheen	-12.0721
▁overvuld	-12.0721
iatrogene	-12.0721
▁jl	-12.0721
▁zijdelings	-12.0721
spoliepen	-12.0723
▁myeline	-12.0726
▁nonHodgkin	-12.0726
▁ductectasieen	-12.0726
sstoornis	-12.0728
▁Hieruit	-12.0729
▁nierloge	-12.073
▁Douglas	-12.0732
zone	-12.0733
▁hippocampi	-12.0733
basaalcel	-12.0735
▁necrosehaarden	-12.0736
▁fibroma	-12.0744
thoracaal	-12.0753
▁fraaie	-12.0755
▁artefact	-12.076
▁hyalinose	-12.0779
ransuretra	-12.0784
▁atheroomcyste	-12.0784
▁Ao	-12.0786
▁flardjes	-12.0788
▁vriesmateriaal	-12.0793
▁1,1	-12.0794
▁gedrag	-12.0796
▁gesproken	-12.0799
elijk	-12.0801
rimair	-12.0804
bacteriele	-12.0805
luchthoudendheid	-12.0811
▁gefibroseerde	-12.0813
buik	-12.0815
▁grijswit	-12.082
▁behoefte	-12.0823
▁recenter	-12.0835
langer	-12.0838
▁Belangrijks	-12.084
fs	-12.0845
amen	-12.0848
▁duodenums	-12.0851
fragmentjes	-12.0861
▁ante	-12.0865
▁DLBCL	-12.0869
▁idiopathisch	-12.0872
Leeftijdsconform	-12.0877
▁continuitatem	-12.0877
▁graciel	-12.0877
▁impressie	-12.0877
▁mestcellen	-12.0877
▁melanocyten	-12.0877
▁cilindrisch	-12.0877
▁gepositioneerd	-12.0877
▁mucostase	-12.0877
▁premature	-12.0877
▁outflow	-12.0877
▁intramyocardial	-12.0878
▁exofytisch	-12.0878
▁tumornodi	-12.088
▁bijnieradenoom	-12.0881
▁leed	-12.0882
▁satellieten	-12.0884
▁nierbekken	-12.0887
▁bloedig	-12.0887
▁Boven	-12.089
▁etc	-12.0893
▁pericardial	-12.0893
▁lymfkliertjes	-12.0894
▁oncocytair	-12.0898
▁steriel	-12.0898
▁cytokeratine	-12.0898
▁amyotrofisch	-12.09
▁wondbed	-12.0904
▁haarfollikels	-12.0906
falen	-12.0908
▁nefro	-12.0912
▁grieperig	-12.0915
▁gangreneuze	-12.0915
oorzaak	-12.0922
▁herseninfarcten	-12.0922
▁ben	-12.0928
▁bio	-12.0931
spier	-12.0944
mateuze	-12.0951
▁text	-12.0951
mn	-12.0958
▁cytoplasmatisch	-12.0965
▁debulking	-12.097
maken	-12.0973
-21	-12.0975
ubcutis	-12.0983
▁toxiciteit	-12.0987
Angioinvasie	-12.0988
▁longbiopt	-12.0992
art	-12.0993
▁breedte	-12.0994
top	-12.0994
▁organiserend	-12.0999
▁cilindercel	-12.1
oc	-12.1002
iteraard	-12.1005
intra	-12.1008
▁meerder	-12.1012
trombusmateriaal	-12.1017
od	-12.1018
▁continue	-12.102
hand	-12.1022
▁elektrolyt	-12.1024
▁vaginale	-12.1024
ons	-12.1024
mh	-12.1025
olgt	-12.1026
ediastinale	-12.103
verwogen	-12.1032
ip	-12.1034
arteriele	-12.1035
▁linkerbijnier	-12.1035
▁voetzool	-12.1035
▁exploratie	-12.1035
▁leidt	-12.1035
▁hygroma	-12.1035
▁gekeken	-12.1035
welling	-12.1035
▁inzender	-12.1035
▁heropname	-12.1035
▁noradrenaline	-12.1035
▁paracetamol	-12.1035
▁clearcell	-12.1036
▁ovariectomie	-12.1036
▁Raad	-12.1036
arige	-12.1037
▁parkinsonisme	-12.1037
▁cake	-12.104
▁naschrift	-12.1041
▁ontstekingen	-12.1041
▁roodheid	-12.1041
arachnoidale	-12.1042
▁overmatig	-12.1044
▁Goedaardig	-12.1049
ureter	-12.105
rood	-12.1055
lang	-12.1055
rchidectomie	-12.1057
groeiachterstand	-12.1059
▁craniotomie	-12.1066
▁suf	-12.1067
▁gingiva	-12.1074
cardia	-12.1076
pulmonaal	-12.1076
▁wegen	-12.1077
▁12-2	-12.108
▁recht	-12.1082
▁temporaalkwab	-12.1086
▁productie	-12.1098
keren	-12.1105
expressie	-12.1107
▁segmenten	-12.1109
▁cre	-12.1117
▁verkleuringen	-12.1122
toename	-12.1124
2012)	-12.113
tentoriele	-12.1146
▁verklarend	-12.115
cardio	-12.1151
klier	-12.1153
▁group	-12.1154
opname	-12.1156
pleuravocht	-12.116
▁oppervlakte	-12.1164
basis	-12.1169
ongeval	-12.1171
▁pussige	-12.1172
rectum	-12.1173
▁levercel	-12.1174
▁boog	-12.1177
▁thromboembolie	-12.1181
acemaker	-12.1185
2011)	-12.1185
coronair	-12.1186
▁Duodenumbiopt	-12.1187
▁hoogstand	-12.1191
assieve	-12.1191
ompleet	-12.1193
▁uitputting	-12.1197
▁Hippocampus	-12.1197
▁geindureerd	-12.1197
▁groeivertraging	-12.1197
▁lingula	-12.1197
▁plantaardig	-12.1197
▁opinion	-12.1197
▁bacteriaemie	-12.1197
▁vliezig	-12.1197
▁chemokuur	-12.1197
▁marginaal	-12.1197
▁humerusfractuur	-12.1197
cobas	-12.1197
▁siliconen	-12.1197
▁bovenbenen	-12.1197
▁psoasloge	-12.1197
CBDCBD	-12.1197
▁haematogen	-12.1197
▁onvolledig	-12.1197
▁spoedig	-12.1198
▁endovasculair	-12.1198
▁cauterisatie	-12.1198
▁conse	-12.1198
▁protocollair	-12.1199
fokaal	-12.12
▁chronica	-12.12
▁opgevuld	-12.1206
▁rsi	-12.1209
▁vermoeidheid	-12.121
▁Longembolieen	-12.1218
terventriculaire	-12.1225
eyenburg	-12.123
Li	-12.1232
▁like	-12.1233
▁overliggend	-12.1233
arts	-12.1235
▁diepreikende	-12.124
▁Emfyseem	-12.1254
helft	-12.1254
ransurethra	-12.1256
ion	-12.1256
▁or	-12.1259
▁partijen	-12.1264
▁aanhechting	-12.1269
leverafwijkingen	-12.1272
▁bijmilt	-12.1275
12-0	-12.1279
▁gelaagde	-12.1288
ruim	-12.1289
▁lege	-12.1298
echter	-12.131
▁lesies	-12.131
▁neuron	-12.1315
foto	-12.133
tenose	-12.1337
2011	-12.1338
ck	-12.1339
thoracotomie	-12.1341
radiologisch	-12.1342
bijvoorbeeld	-12.1343
▁verwezen	-12.1344
▁pap	-12.1346
▁lichenoides	-12.1347
▁leverabces	-12.1351
▁zeldzame	-12.1353
▁cystoprostat	-12.1355
▁code	-12.1358
▁ingrijpen	-12.1358
amengestelde	-12.1359
accredit	-12.136
▁Assay	-12.136
▁dermatoloog	-12.136
▁gezegd	-12.136
▁hechtdraad	-12.136
▁insturen	-12.136
▁vertakkend	-12.136
▁ilium	-12.136
▁plasmocytoom	-12.136
dying	-12.1361
▁ileocoecaalhoek	-12.1361
▁veralgemeend	-12.1361
▁src	-12.1361
▁gallekkage	-12.1361
▁suprapubisch	-12.1361
▁perifolliculair	-12.1361
▁onrustig	-12.1361
▁Dergelijk	-12.1361
▁uitermate	-12.1361
▁trombusmassa	-12.1361
▁vettig	-12.1361
▁preputium	-12.1362
▁ectocervicaal	-12.1362
▁darmtype	-12.1364
▁microvesiculair	-12.1364
▁lacunes	-12.1365
▁opgeleverd	-12.1367
▁maagsonde	-12.1368
▁as	-12.1368
▁epididymis	-12.1369
▁wandruptuur	-12.1369
▁afgerond	-12.137
IRE	-12.1372
▁stops	-12.1373
▁gelokaliseerde	-12.1378
▁aankleurend	-12.138
zak	-12.1382
▁onderverdeling	-12.1383
▁Ruptuur	-12.1383
▁cystenieren	-12.1383
▁Archer	-12.1389
▁ectocervix	-12.1392
▁mammatumor	-12.1394
▁perineum	-12.1401
bed	-12.1415
▁mondhoek	-12.1419
▁Celarm	-12.1431
▁follikel	-12.1436
sen	-12.144
▁tracheo	-12.1446
▁knieholte	-12.1452
weetal	-12.1459
▁gecombineerde	-12.1461
gemedieerde	-12.1464
laasspoeling	-12.1464
▁vlok	-12.1464
breuk	-12.1466
▁langerbestaande	-12.1467
▁Broncho	-12.1472
oid	-12.1472
▁omstrengeling	-12.1474
▁zenuw	-12.1476
▁w	-12.1477
tri	-12.148
houdende	-12.148
▁meconium	-12.148
schade	-12.1481
▁mL	-12.1481
▁strengen	-12.1491
▁behoeftig	-12.1492
▁motorische	-12.1503
▁maagantrumtype	-12.1506
ati	-12.151
▁ontbrak	-12.1516
generation	-12.1516
▁ijzerdepositie	-12.1516
linkszijdig	-12.1518
driemaal	-12.152
▁eten	-12.1522
chirurgie	-12.1522
lymfklieren	-12.1526
▁misselijk	-12.1526
tu	-12.1526
appa	-12.1527
erratia	-12.1527
▁gerangschikt	-12.1527
▁gevalideerd	-12.1527
▁bloedbijmenging	-12.1527
▁bichoriale	-12.1527
▁contracturen	-12.1527
▁pulmonum	-12.1527
cfng	-12.1527
▁ziektebeloop	-12.1527
▁haematothorax	-12.1527
▁leukocyten	-12.1528
▁posterolateral	-12.1528
▁mediaanlijn	-12.1529
▁bloedvaatjes	-12.1529
cylinders	-12.1529
▁vervette	-12.1529
▁huidstukje	-12.1529
▁afgeronde	-12.1532
cylinderepitheel	-12.1532
urie	-12.1533
▁nauwe	-12.1533
urkinjecellen	-12.1538
▁zoon	-12.154
▁tumoringroei	-12.154
▁thromboembolien	-12.1541
▁mesenchymaal	-12.1541
▁genitalis	-12.155
▁hypertrofi	-12.155
▁ileumslijmvlies	-12.1551
▁gallig	-12.1552
▁longbiopten	-12.1552
▁spoelvocht	-12.1552
▁receptoren	-12.1553
rof	-12.1553
slag	-12.1554
▁carcinomen	-12.156
▁congenitaal	-12.1569
▁incidentie	-12.1569
▁reeksen	-12.1569
ntie	-12.157
omtrek	-12.1575
▁chirurg	-12.158
gering	-12.1586
▁ingezette	-12.1587
▁bacterieen	-12.1588
▁flexus	-12.1589
▁Grawitztumor	-12.1591
▁hilusgebied	-12.1593
▁acanthoom	-12.1595
▁erfelijk	-12.1601
chien	-12.1614
▁taks	-12.1619
▁nam	-12.1622
kamer	-12.1624
tvb	-12.1628
▁membraan	-12.1631
-*******	-12.1633
▁diafragmakoepel	-12.1642
▁Amyloid	-12.1642
▁Infiltratie	-12.1644
▁groene	-12.1651
failure	-12.1652
▁Cre	-12.1665
▁groet	-12.1685
leuritis	-12.1685
112	-12.1692
ov	-12.1693
neeranden	-12.1694
▁paratubaire	-12.1694
▁trichilemm	-12.1696
ernicke	-12.1697
▁Anderzijds	-12.1697
▁pijnstilling	-12.1697
▁ontslagbrief	-12.1697
▁Dissectie	-12.1697
▁metabool	-12.1697
▁gekozen	-12.1697
▁endoscopisch	-12.1697
bacteriekolonies	-12.1697
▁uncus	-12.1697
Doodsoorzaak	-12.1697
▁adenomyose	-12.1697
▁prematuur	-12.1697
▁agens	-12.1697
elders	-12.1697
▁blaasdak	-12.1697
▁leukopenie	-12.1697
▁bovenkaak	-12.1697
duodenum	-12.1697
▁cruris	-12.1698
Beeld	-12.1698
▁rethoracotomie	-12.1698
▁deviatie	-12.1698
▁ectopisch	-12.1698
▁gold	-12.1699
▁Harttamponade	-12.1699
▁depletie	-12.1699
histiocytaire	-12.17
▁mycobacterien	-12.17
▁longembolen	-12.17
▁durend	-12.1701
▁fibers	-12.1702
▁hersentumor	-12.1702
▁longafwijking	-12.1702
▁klepbladen	-12.1705
langs	-12.1705
▁Relatie	-12.1706
▁huidstans	-12.1706
▁liver	-12.1706
pigment	-12.1709
▁urineweg	-12.1713
richoepithelioom	-12.1719
▁mmol	-12.1719
▁hypotensieve	-12.172
▁hallux	-12.172
▁minor	-12.1723
▁intakt	-12.1723
▁miltextirpatie	-12.1724
▁ondersteunend	-12.1725
rond	-12.1737
fre	-12.1737
▁restmateriaal	-12.174
murale	-12.1744
-22	-12.1747
▁huidresectie	-12.1751
▁onrijpe	-12.1756
▁ileo	-12.177
ooral	-12.1775
aden	-12.1776
▁miltkweek	-12.1782
degeneratie	-12.1783
▁Anus	-12.1787
▁dof	-12.1789
smacelpopulatie	-12.1789
▁pericolische	-12.1811
stase	-12.1814
▁Binnen	-12.1827
orre	-12.1835
ontstekingshaard	-12.1836
abusus	-12.1841
klein	-12.1845
bloedtransfusies	-12.1846
▁uitgebreidere	-12.1847
▁glucose	-12.1849
agere	-12.1851
▁winding	-12.1858
▁Dubbelzijdige	-12.1858
▁genezen	-12.186
▁straal	-12.186
▁Colonbiopt	-12.1861
avelstreng	-12.1867
▁Immature	-12.1869
▁eccrien	-12.1869
▁legionella	-12.1869
▁orofarynx	-12.1869
▁piriformis	-12.1869
▁praktisch	-12.1869
▁proctitis	-12.1869
▁uitlokkend	-12.1869
▁waarneembaar	-12.1869
▁verzwakt	-12.1869
columnair	-12.1869
▁aterosclerose	-12.1869
▁schedelgroeve	-12.1869
▁peesschede	-12.1869
▁peribronchiaal	-12.1869
▁mononucleair	-12.1869
▁individuel	-12.187
▁GGD	-12.187
▁satellitose	-12.187
umorgrootte	-12.187
▁Galwegen	-12.187
▁zoster	-12.187
delen	-12.187
▁seborroisch	-12.187
▁intradermaal	-12.1871
▁aftakkend	-12.1871
▁betroffen	-12.1871
mail	-12.1872
▁echtgenoot	-12.1874
▁gedocumenteerd	-12.1874
▁groeiretardatie	-12.1874
▁galblaaswand	-12.1878
▁epicardiaal	-12.1878
Conform	-12.1879
▁Gewijzigd	-12.1884
goed	-12.1884
▁uitbreidt	-12.1886
▁buikoperaties	-12.189
▁stille	-12.1891
▁functioneren	-12.1893
▁activatie	-12.1893
AHA	-12.1897
▁colonpoliep	-12.1898
▁tumorrecidief	-12.19
morbus	-12.1902
▁vernauwde	-12.1903
sv	-12.1906
▁voeding	-12.1907
▁Lymfoom	-12.1911
▁anoxie	-12.1912
embolisch	-12.1914
▁portio	-12.1919
▁groenig	-12.192
▁beschadigingen	-12.1921
▁chondrosarcoom	-12.1921
▁tijdelijk	-12.1932
ind	-12.1942
▁afsluitend	-12.1945
aak	-12.1951
▁liggend	-12.1953
▁zijden	-12.1958
▁verlopend	-12.196
taal	-12.1963
uaduct	-12.1987
▁versterkte	-12.1999
▁gemethyleerd	-12.2017
▁knoop	-12.2018
▁pati	-12.2023
inder	-12.2027
teatose	-12.2032
▁millimeter	-12.2033
erwijdering	-12.2035
erebrale	-12.2037
ther	-12.2037
patient	-12.2037
steoporose	-12.2043
▁bewusteloos	-12.2043
▁opheff	-12.2043
▁rheuma	-12.2044
Differentiatie	-12.2044
▁biopsy	-12.2044
▁planopilaris	-12.2044
▁verzonden	-12.2044
▁hyalinisatie	-12.2044
▁endometrial	-12.2045
▁glioom	-12.2045
▁alcoholmisbruik	-12.2045
▁oligohydramnion	-12.2045
▁venosus	-12.2045
▁hypothalamus	-12.2045
▁bronchoscopie	-12.2045
▁fibrinebeslag	-12.2045
▁vastzittend	-12.2045
▁hepatoduodenale	-12.2045
▁mondholte	-12.2045
▁systematisch	-12.2045
▁graderen	-12.2045
▁standsafwijking	-12.2045
▁longtoppen	-12.2046
Bronchusbrush	-12.2047
▁subtotaal	-12.2047
femorale	-12.2047
▁celgroepjes	-12.2048
▁zijkant	-12.2048
▁bijkomstig	-12.2049
▁Lichaamssectie	-12.205
▁clusters	-12.205
▁kransslagaderen	-12.2054
▁placentadeel	-12.2055
▁mesangia	-12.2057
point	-12.2059
eerde	-12.2059
bus	-12.2062
▁continu	-12.2062
beide	-12.2063
Linker	-12.2064
necrotiserende	-12.2066
▁Radical	-12.2069
▁hypokaliemie	-12.2069
▁gedateerd	-12.2069
▁hepatisatie	-12.207
chi	-12.2071
▁spiegel	-12.2071
ERI	-12.2073
▁linkerhand	-12.2073
▁echografie	-12.2078
▁aortaruptuur	-12.208
▁bloedingshaard	-12.2081
geinduceerde	-12.2084
reactieve	-12.2084
▁dikkedarm	-12.2087
▁gerapporteerd	-12.2088
▁indolent	-12.2088
▁High	-12.2088
bel	-12.2092
▁insnijden	-12.2093
▁ductulair	-12.2098
▁uurs	-12.21
-2-	-12.2102
▁cause	-12.2106
▁eenmalig	-12.2107
▁lenskern	-12.2117
▁rectumbiopten	-12.2122
oorgankelijkheid	-12.2124
▁suggestie	-12.2124
▁secreet	-12.2137
lier	-12.2138
▁reepje	-12.2139
▁2100	-12.2149
lis	-12.215
▁cystes	-12.2155
aput	-12.2158
oeder	-12.2163
▁con	-12.2165
▁Gold	-12.2166
▁blind	-12.2166
▁linkerkamer	-12.2169
▁myxoid	-12.2175
Ernstige	-12.2175
▁optredend	-12.2177
▁ouders	-12.2179
Door	-12.2181
ton	-12.2183
▁Af	-12.2194
olaire	-12.22
▁shavebiopt	-12.2211
truma	-12.2212
▁pool	-12.2216
mg	-12.2219
▁mechanisme	-12.222
▁dubbelloops	-12.2222
▁omslagplooi	-12.2223
▁Lobectomie	-12.2223
▁afdalend	-12.2223
▁choriaalplaat	-12.2223
▁funisitis	-12.2223
▁gespecificeerd	-12.2223
▁mortus	-12.2223
▁ruber	-12.2223
▁senilis	-12.2223
▁verhoorning	-12.2223
▁lymfomenpanel	-12.2223
▁overeenkomt	-12.2223
▁spirocheten	-12.2223
▁nabestaanden	-12.2223
▁sleeve	-12.2223
▁hemithorax	-12.2224
▁verruceus	-12.2224
▁Invasief	-12.2224
▁Genetica	-12.2224
▁vaatprothese	-12.2225
atum	-12.2227
▁kernhoudend	-12.2227
beenmerg	-12.2228
▁sclerosering	-12.2229
▁ontlastend	-12.2229
EB	-12.2231
▁grenzend	-12.2234
alrijke	-12.2234
▁linkerflank	-12.2237
▁Reeds	-12.2238
▁Recidief	-12.2238
▁macrometastase	-12.2243
▁lipomatose	-12.2248
▁naevoid	-12.2249
knoop	-12.225
aanvullend	-12.2253
▁blaar	-12.2255
stroomgebied	-12.2256
centraal	-12.2256
020	-12.2258
▁palpabele	-12.2258
▁histotype	-12.2258
GRADE	-12.2259
▁infuus	-12.226
▁prostaatbiopt	-12.2262
tegen	-12.2265
▁dermoidcyste	-12.2266
▁overhechten	-12.2267
Als	-12.2267
▁hepaticus	-12.2268
▁reactivatie	-12.2268
▁grenzen	-12.2271
▁incompleet	-12.2277
▁petechieen	-12.2278
low	-12.2284
varia	-12.229
▁gemedieerd	-12.2291
▁redenen	-12.2295
ndometriumpoliep	-12.2305
mc	-12.2306
▁cervixbiopten	-12.2308
▁macronodulaire	-12.2308
▁tumorvrije	-12.2321
▁anomalie	-12.2327
side	-12.2336
lencarcinoom	-12.2337
▁leversegment	-12.2341
geassocieerde	-12.2345
pipelle	-12.2348
deficientie	-12.2353
▁doormaakte	-12.2354
▁lithiasis	-12.2355
▁rechterkamer	-12.2357
▁Antrum	-12.2369
▁incident	-12.2375
▁maagcorpusbiopt	-12.2375
act	-12.2376
▁hersengewicht	-12.2379
▁stelsel	-12.2387
cellulair	-12.239
pathie	-12.2397
epelvocht	-12.2401
▁geschoten	-12.2405
▁follow	-12.2405
▁Adipeuze	-12.2405
▁constrictiva	-12.2405
▁gedestrueerd	-12.2405
▁haemoptoe	-12.2405
▁hematopoetisch	-12.2405
▁neutropenie	-12.2405
▁precies	-12.2405
▁beduidend	-12.2405
▁beladen	-12.2405
▁cryptabcessen	-12.2405
▁verkavelend	-12.2405
▁moeizame	-12.2405
▁Cardiovasculair	-12.2405
▁CERAD	-12.2405
▁cutis	-12.2405
▁multinodulaire	-12.2405
▁fibrinethrombi	-12.2405
▁nasofarynx	-12.2405
▁infarcthaard	-12.2407
▁resttoestand	-12.2407
▁wondinfectie	-12.2408
▁daags	-12.2409
▁gecauteriseerd	-12.241
▁tumorvolume	-12.2412
▁premortaal	-12.2414
GG	-12.2418
▁hieromtrent	-12.242
tachycardie	-12.2422
▁centimeters	-12.2427
▁excuses	-12.2427
▁Geruptureerd	-12.243
matige	-12.2432
▁belemmerd	-12.244
▁buisjes	-12.2443
doodsoorzaak	-12.2445
Resectie	-12.2447
▁verstoord	-12.245
▁spinal	-12.245
voornamelijk	-12.2452
-2011	-12.2452
▁bijwerking	-12.2458
▁ring	-12.2459
lumen	-12.2459
▁nierafwijkingen	-12.246
▁ventrikelfalen	-12.2467
▁compensatoir	-12.247
arteria	-12.2471
▁caput	-12.2474
▁overbelasting	-12.2481
cyt	-12.2483
cardiaal	-12.2485
▁okselklier	-12.2487
hi	-12.2487
▁veneus	-12.2488
12-1	-12.249
▁dystrofische	-12.249
▁uremisch	-12.249
▁gehouden	-12.2491
glandulaire	-12.2491
▁vervolg	-12.2498
maar	-12.25
▁coecumcarcinoom	-12.2509
▁cystadeno	-12.2515
▁perforerende	-12.2515
▁bezoek	-12.2531
▁Am	-12.2535
▁zijnde	-12.2536
druk	-12.254
punt	-12.2543
▁Ha	-12.255
▁aangeleverd	-12.2553
▁ad	-12.2557
▁preexsistente	-12.2563
▁he	-12.2564
▁waarom	-12.2564
defecten	-12.2566
vers	-12.2573
ubcutaan	-12.2577
▁volgend	-12.2578
erifere	-12.2578
▁kaar	-12.2578
erforatie	-12.2579
▁epithelioid	-12.2583
less	-12.2583
rostaatbiopt	-12.2584
Geringe	-12.2587
lceratie	-12.2587
▁streptokok	-12.259
▁fibroxanthoom	-12.259
▁haematemesis	-12.259
▁neusbrug	-12.259
▁omkapseld	-12.259
▁vloeibare	-12.259
▁gebeuren	-12.259
▁hoefijzernier	-12.259
▁malperfusie	-12.259
▁tracheostomie	-12.259
▁pneumocyten	-12.259
▁monoclonaal	-12.259
▁bespreken	-12.259
▁herbeoordeeld	-12.259
▁vreemd	-12.259
▁bolvormig	-12.259
▁thuissituatie	-12.259
▁koilocytose	-12.2591
▁Ascitesvocht	-12.2591
▁trombosebeen	-12.2591
▁perisplenitis	-12.2591
▁ganglioncellen	-12.2591
▁asymmetrie	-12.2592
▁matur	-12.2595
▁discrepant	-12.2596
▁rechterbovenarm	-12.2598
▁niets	-12.2598
▁objectiveren	-12.2598
▁bloeddrukdaling	-12.26
▁ijzerdeposities	-12.2603
▁ALL	-12.2603
▁babygram	-12.2606
orm	-12.2614
volume	-12.2615
▁basaloide	-12.2617
intraperitoneaal	-12.262
▁subcarinaal	-12.2626
▁bijzijn	-12.2627
▁wervelfractuur	-12.2627
▁verbindingen	-12.2628
ilson	-12.2629
sta	-12.2629
▁geheugen	-12.2629
▁poli	-12.2632
▁word	-12.2635
hoog	-12.2636
▁cardioversie	-12.2636
ablatie	-12.2636
▁rapport	-12.2637
Lokalisatie	-12.264
011	-12.264
hepatische	-12.2641
ruin	-12.2641
voorhoofd	-12.2642
her	-12.2643
▁uitbreidde	-12.2645
medicamenteus	-12.2646
▁uitge	-12.2648
▁antilichamen	-12.2657
reeds	-12.266
▁zoek	-12.2661
levergewicht	-12.2668
▁Dukes	-12.2674
▁anhydramnion	-12.2677
▁mixed	-12.2677
▁luchthoudende	-12.2678
omen	-12.2679
▁geprikkelde	-12.268
▁embryonaal	-12.2682
grootcellig	-12.2682
acteriele	-12.2692
▁circumscripte	-12.2701
▁Darm	-12.2703
waarde	-12.2709
sus	-12.271
▁gewricht	-12.271
RG	-12.2715
▁lymfklierpakket	-12.2719
scheur	-12.2721
RB	-12.2724
gecompromiteerde	-12.2727
▁tumorpercentage	-12.2738
line	-12.2738
▁vermeldde	-12.2741
▁Lab	-12.2751
neuro	-12.2752
▁macronodulair	-12.2758
inflammatoire	-12.2758
kwab	-12.276
▁uitblijven	-12.2762
nverwacht	-12.2765
▁concrement	-12.2767
▁block	-12.2772
ecrose	-12.2772
teerd	-12.2773
olypectomie	-12.2776
▁Evident	-12.2779
▁buurt	-12.2779
▁doorwoekerd	-12.2779
▁habitus	-12.2779
▁kernbasofilie	-12.2779
▁lijkschouwer	-12.2779
▁overleefd	-12.2779
▁suggereren	-12.2779
▁tandenrij	-12.2779
▁onmiddellijk	-12.2779
fase	-12.2779
▁onscherp	-12.2779
allory	-12.2779
▁endocardiaal	-12.2779
▁cryptitis	-12.2779
▁opleveren	-12.2779
▁spieratrofie	-12.2779
▁special	-12.2779
▁moeheid	-12.278
▁predisponerend	-12.2781
▁skin	-12.2781
▁evenwicht	-12.2783
▁zekerheidshalve	-12.2783
▁kinderen	-12.2783
▁infiltraatjes	-12.2784
▁spoortje	-12.2784
▁distributie	-12.2785
▁eenderde	-12.2786
rapst	-12.2786
kin	-12.2786
▁hematoomvorming	-12.2787
ARC	-12.2787
▁HB	-12.2789
unt	-12.2789
anatomische	-12.2791
▁duodenumbiopt	-12.2791
sparend	-12.2791
gekomen	-12.2793
▁intrapulmonaal	-12.2797
▁vasculitisbeeld	-12.2798
▁hieronder	-12.2798
▁klierbuis	-12.2802
evrouw	-12.2803
▁hemangiomen	-12.2805
▁slijmvliezen	-12.2805
▁aangepast	-12.2815
▁nevus	-12.2815
▁nierinfarct	-12.2818
▁uitgebreider	-12.282
▁geamplificeerd	-12.2826
IHC	-12.2826
▁overnam	-12.2829
sproblemen	-12.2829
parietaal	-12.2831
▁acanthotisch	-12.2833
▁stembanden	-12.2835
▁pocket	-12.2835
▁genitaal	-12.2836
▁Invasieve	-12.2837
▁ao	-12.2839
▁metalen	-12.2839
structuur	-12.2841
atherosclerose	-12.2841
dag	-12.2842
▁antrumbiopten	-12.2844
▁invaginatie	-12.2845
bekend	-12.2847
▁GvHD	-12.2848
▁onverwachte	-12.2851
▁fysiologisch	-12.2857
▁haemolytische	-12.2858
▁droge	-12.2862
▁mening	-12.2863
wustzijnsverlies	-12.287
tijd	-12.2876
▁gere	-12.2879
myocarditis	-12.2883
▁Atrofische	-12.2887
esloten	-12.2889
mie	-12.2898
▁adult	-12.2899
▁data	-12.2917
▁spierwand	-12.2922
wast	-12.2925
tukje	-12.2926
mat	-12.2929
helder	-12.2931
▁2,0	-12.2936
▁wil	-12.2938
▁familiair	-12.2943
▁slot	-12.2954
▁hiel	-12.2959
tereotactische	-12.2967
▁Hartspier	-12.2968
▁daalde	-12.2968
auwelijks	-12.2969
▁Demodex	-12.2971
▁gestorven	-12.2971
▁hoofdzakelijk	-12.2971
▁meldde	-12.2971
▁pilonidalis	-12.2971
latskin	-12.2971
▁alienum	-12.2971
▁dysplasia	-12.2971
▁handpalm	-12.2971
▁vergeleken	-12.2971
▁hartactie	-12.2971
▁subclaviculair	-12.2971
▁flink	-12.2971
▁donkerrood	-12.2971
▁Redelijk	-12.2971
▁mirabilis	-12.2971
▁Coronairvaten	-12.2971
▁galstase	-12.2971
▁paars	-12.2971
▁thymoom	-12.2971
▁hepatogene	-12.2972
▁internist	-12.2972
▁differentieren	-12.2972
duodenectomie	-12.2972
▁intracavitair	-12.2972
▁maagretentie	-12.2973
▁willen	-12.2973
▁passagere	-12.2973
lus	-12.2973
▁foetalis	-12.2974
▁dyspnoeklachten	-12.2976
▁Histologie	-12.2977
▁oproep	-12.2977
▁verweekte	-12.2978
▁leuco	-12.2978
▁wegrakingen	-12.2979
aposi	-12.298
▁rugklachten	-12.2981
wal	-12.2982
kselklier	-12.2983
▁asymmetrisch	-12.2983
Asp	-12.2985
▁cystevorming	-12.2987
▁pemphigoid	-12.2987
▁neusslijmvlies	-12.2997
▁tumorhaardjes	-12.2997
▁neutropene	-12.2998
▁stenting	-12.3003
▁inzicht	-12.3004
▁competent	-12.3008
▁Adnexextirpatie	-12.3009
▁resistent	-12.3009
▁Eerste	-12.301
spoeling	-12.3016
▁glazig	-12.3017
▁thermisch	-12.3019
▁occult	-12.3019
▁mv	-12.3021
prerenale	-12.3022
▁metastases	-12.3024
werking	-12.3025
ping	-12.3026
▁transsudaat	-12.3029
tumorinfiltratie	-12.303
▁verblijf	-12.3031
cysten	-12.3035
can	-12.3039
▁verwekkers	-12.3039
▁halsvaten	-12.3043
lekkage	-12.3045
Alzheimer	-12.3045
▁segmentkernige	-12.3053
europathologie	-12.3055
▁superficial	-12.3058
ding	-12.3069
dus	-12.3071
▁Hemorragische	-12.3081
acro	-12.3083
lig	-12.3088
102	-12.3089
▁knieen	-12.3094
▁gevormde	-12.3097
oevalsbevinding	-12.3101
▁12-1	-12.3103
▁bacterieel	-12.3104
▁Brickers	-12.3104
002	-12.3105
encephalopathie	-12.3111
tic	-12.3113
belemmering	-12.3123
▁wur	-12.3123
▁Incisiebiopt	-12.3123
▁mucine	-12.3125
ericard	-12.3128
uro	-12.313
klepplastiek	-12.3131
▁amnion	-12.3132
▁diameters	-12.3133
naal	-12.3135
loos	-12.3142
oli	-12.3142
▁niertumor	-12.3144
▁troponine	-12.3145
Is	-12.3148
▁mitose	-12.315
intestinalis	-12.3151
ergroot	-12.3153
▁celarme	-12.3153
ubcutane	-12.3154
▁mono	-12.3154
▁chemotherapeuti	-12.3156
▁dosering	-12.3156
egatief	-12.3161
wangerschapsrest	-12.3164
▁naald	-12.3164
▁Endocervix	-12.3166
▁onrust	-12.3167
▁pseudomelanosis	-12.3167
uadriceps	-12.3167
▁Cerebraal	-12.3167
▁Genitali	-12.3167
▁daadwerkelijk	-12.3167
▁gedenudeerd	-12.3167
▁hemosiderose	-12.3167
▁hypercapnie	-12.3167
▁leptomeninx	-12.3167
▁versneld	-12.3167
▁heparine	-12.3167
▁polikliniek	-12.3167
▁Hulp	-12.3167
▁gedaald	-12.3167
▁stilstaand	-12.3167
▁adenomateus	-12.3167
▁tracheotomie	-12.3167
▁frontalis	-12.3167
▁realti	-12.3167
▁gezicht	-12.3167
endarteriectomie	-12.3167
▁desondanks	-12.3167
▁vimentine	-12.3167
▁klepslippen	-12.3167
▁afspraak	-12.3168
inklemmingsbeeld	-12.3168
▁neusbijholte	-12.3168
▁afstrijkbaar	-12.3168
▁verwijs	-12.3168
erologisch	-12.3168
▁order	-12.3168
▁Acht	-12.3169
▁intraluminaal	-12.3169
▁semirecent	-12.3169
terusresectie	-12.3174
▁congestief	-12.3174
▁mogelijkerwijs	-12.3176
▁uitnemen	-12.3178
atieve	-12.3179
▁gynaecomastie	-12.3184
▁linkerlies	-12.3186
▁somatisch	-12.3186
▁mortem	-12.3187
ger	-12.3189
▁steatotisch	-12.3192
▁rechterhand	-12.3193
▁enteropathie	-12.3193
myocard	-12.3197
laveiselcel	-12.3201
▁opge	-12.3201
▁dijbeen	-12.3205
▁skintag	-12.3205
▁ventriculitis	-12.3205
onen	-12.3207
ikte	-12.3207
▁globu	-12.3209
centrum	-12.321
▁wer	-12.3211
▁dubbele	-12.3211
rose	-12.3212
anders	-12.3212
cytochemisch	-12.3214
Arg	-12.3214
▁passageklachten	-12.3216
▁dunwandige	-12.3217
wat	-12.3218
▁tricuspidaal	-12.3222
▁littekenachtig	-12.3222
▁bruine	-12.3223
▁dens	-12.3225
Cys	-12.3226
lu	-12.323
▁pseudodecidual	-12.3231
trioventriculair	-12.3233
uitbreiding	-12.3242
▁nierschors	-12.3242
lyse	-12.3249
merg	-12.3252
restlumen	-12.3253
papilloom	-12.3253
▁AAAA	-12.3264
▁celtype	-12.3266
▁passage	-12.3271
▁tumorcel	-12.3273
neus	-12.3285
▁buis	-12.3286
▁vergevorderde	-12.329
▁centrilobulair	-12.3294
2001	-12.3298
▁onrijp	-12.3298
▁Doorgroei	-12.3302
▁bronchiaal	-12.3307
▁subepiderma	-12.3308
▁lymfklierbiopt	-12.332
▁vesiculair	-12.332
rkelcelcarcinoom	-12.3323
▁nagel	-12.3325
▁Infarct	-12.3328
amyloiddepositie	-12.3334
aspect	-12.3336
peritonitis	-12.3338
▁DA	-12.3339
afw	-12.3342
▁kransslagader	-12.3344
▁risicofactor	-12.3356
▁lymfoompanel	-12.336
itbreiding	-12.3361
ultiple	-12.3361
volgende	-12.3362
nduidelijk	-12.3362
oxicologisch	-12.3363
▁zon	-12.3364
yc	-12.3365
▁vaatstuwing	-12.3365
smaceldyscrasie	-12.3367
▁geloosd	-12.3367
▁omschreven	-12.3367
Groeiwijze	-12.3367
▁thyroiditis	-12.3367
▁hersendood	-12.3367
▁geArriteerd	-12.3367
▁weerstand	-12.3368
▁epigastrio	-12.3368
▁Cristabiopsie	-12.3368
▁mitochondrial	-12.3368
▁overgegaan	-12.3368
▁stadiering	-12.3368
▁neemt	-12.3369
▁peracuut	-12.3369
▁eindigend	-12.3369
BA	-12.3369
▁biamniotisch	-12.337
▁spiercellen	-12.337
proeflaparotomie	-12.3371
▁extrinsiek	-12.3371
▁dichtbij	-12.3372
ragmenten	-12.3373
▁longcirculatie	-12.3373
▁rechteronderarm	-12.3376
▁ondervulling	-12.3376
▁ejectiefractie	-12.3376
▁ketens	-12.3376
▁paraaortale	-12.3377
soorzaak	-12.338
▁premalign	-12.3384
▁Interpretatie	-12.3384
▁ingeblokt	-12.3384
uitstortingen	-12.3394
▁hard	-12.3394
uebloedingen	-12.3395
secundair	-12.3403
▁decidual	-12.3403
▁rechtsfalen	-12.3406
derdegraads	-12.3406
hock	-12.3419
▁herschikking	-12.342
sproduct	-12.3423
▁haemorragisch	-12.3426
cy	-12.3428
▁cataract	-12.3429
-12-12	-12.343
▁are	-12.3446
leg	-12.3446
▁ondervelden	-12.3448
ocytaire	-12.3449
▁stadia	-12.3451
▁oligo	-12.3455
pleura	-12.3456
▁terme	-12.3457
▁transurethra	-12.346
worden	-12.3461
lb	-12.3461
maligne	-12.3464
bodem	-12.3464
probleem	-12.3464
body	-12.3465
Cytologisch	-12.3466
▁bijgevoegd	-12.3466
waaronder	-12.3467
nc	-12.3468
tezamen	-12.3469
dagen	-12.3484
▁vermindering	-12.3484
meerdere	-12.3485
vertuigende	-12.3486
▁dwars	-12.3487
▁ingestuurde	-12.3489
▁gezakt	-12.3494
laesies	-12.3497
con	-12.3498
ctische	-12.3499
▁Hartgewicht	-12.35
send	-12.3503
▁EBER	-12.3504
▁koud	-12.3506
pijn	-12.3526
▁microglia	-12.3527
122	-12.3534
▁presenteer	-12.3535
ouder	-12.3537
▁schildwacht	-12.354
edulla	-12.3544
▁pH	-12.3547
▁uitsluit	-12.3559
lab	-12.3559
▁redelijke	-12.356
eeft	-12.3561
ommissie	-12.3567
eratosis	-12.357
▁afweer	-12.3571
▁lymfkliertje	-12.3571
▁aanbeveling	-12.3571
▁cerebelli	-12.3571
▁immunoloog	-12.3571
▁hypoglycaemie	-12.3571
▁woning	-12.3571
▁pyela	-12.3571
▁miniem	-12.3571
▁romphuidtype	-12.3571
▁mengbeeld	-12.3571
▁sectio	-12.3571
▁gladwandig	-12.3572
▁ged	-12.3572
▁papilloma	-12.3572
▁slijmerig	-12.3572
▁skeletdysplasie	-12.3572
effort	-12.3572
▁vaginawand	-12.3573
uente	-12.3573
reperfusieschade	-12.3573
▁galblaasbed	-12.3573
▁Reden	-12.3575
▁mitraliskleppen	-12.3576
▁uitzaaiingen	-12.3577
▁meneer	-12.3577
scopie	-12.3578
teel	-12.3579
fdeling	-12.358
▁anaal	-12.3584
▁acantholyse	-12.3586
▁Buiten	-12.3587
▁Infarcering	-12.3588
▁locoregionaal	-12.3588
▁Cx	-12.359
deze	-12.359
ll	-12.3596
zegelringceltype	-12.3596
vervullingsbeeld	-12.3596
▁Carcinoma	-12.36
▁leukostase	-12.36
sinushistiocytos	-12.3602
BRA	-12.3604
▁fibromatose	-12.3611
▁oogt	-12.3614
hoofdstamstenose	-12.3615
▁ectocervica	-12.3621
▁versterkt	-12.3624
▁LD	-12.3632
ziekten	-12.3637
▁apneu	-12.3644
▁fragiel	-12.3646
-2001	-12.3651
▁littekentjes	-12.3653
▁delay	-12.3659
▁circumscript	-12.3663
▁tumornegatief	-12.3665
▁yp	-12.3665
▁plasma	-12.3668
blokje	-12.3671
duodenale	-12.3674
2020	-12.3675
encefalopathie	-12.3675
▁overgangs	-12.3678
▁digiti	-12.3678
Afstand	-12.3681
positiviteit	-12.3683
consult	-12.3683
11-1	-12.3689
totale	-12.3695
▁eczemateu	-12.3699
athologische	-12.3703
pneumoniehaarden	-12.3706
rode	-12.3715
▁tip	-12.3726
vi	-12.3727
▁thrombocytopeni	-12.3728
▁j	-12.3728
icronodulaire	-12.3729
bra	-12.373
been	-12.3732
-1-201	-12.3733
▁Alles	-12.3734
▁aortakunstklep	-12.3743
▁opkomende	-12.3749
▁lesion	-12.3759
hrombo	-12.3765
▁2020	-12.3766
▁nodule	-12.3768
▁colontype	-12.3768
▁element	-12.3768
▁polymorf	-12.3769
▁groepje	-12.377
was	-12.3775
▁plaatste	-12.3775
001	-12.3776
▁Cachectisch	-12.378
▁coccoide	-12.378
▁glanzend	-12.378
▁wakker	-12.378
▁oropharynx	-12.378
▁pallidus	-12.378
▁stemplooi	-12.378
▁verenigbaar	-12.378
▁ileopsoas	-12.378
▁vergroenend	-12.378
▁radix	-12.378
▁afsplitsing	-12.378
▁paroxysma	-12.378
occlusive	-12.378
urner	-12.378
▁puntbloedingen	-12.378
▁somscore	-12.378
▁excochleaat	-12.378
▁parasternaal	-12.378
▁buikomvang	-12.378
▁ribfractuur	-12.378
▁aanvragen	-12.3781
▁omentalis	-12.3781
▁slotte	-12.3781
▁subserosaal	-12.3781
enterostomie	-12.3781
▁pral	-12.3782
▁naevocellulares	-12.3783
iehl	-12.3783
▁bijzonderheid	-12.3784
▁vader	-12.3784
01-1	-12.3788
pn	-12.3788
▁binnenste	-12.3789
▁ziekten	-12.379
▁longarts	-12.3791
▁halsklier	-12.3792
▁rechterflank	-12.3793
▁zenuwen	-12.3794
▁gecorrigeerd	-12.3797
lcererende	-12.3798
▁cholestatische	-12.3801
▁ingesneden	-12.3805
▁fotos	-12.3811
▁huidshave	-12.3814
▁osteo	-12.3817
▁bypassoperatie	-12.3818
twee	-12.3818
▁meningeale	-12.3821
▁micropapillair	-12.3822
▁thoracolumba	-12.3834
corpus	-12.3834
voet	-12.3838
▁bank	-12.3845
▁mortaal	-12.3854
RC	-12.3858
rde	-12.3867
▁berustte	-12.3868
nte	-12.3883
veel	-12.389
parenchymateus	-12.3901
▁renal	-12.3901
adjuvant	-12.3902
angiografie	-12.3903
helix	-12.3905
aanvulling	-12.3906
Gaarne	-12.3906
ruiterembolus	-12.3906
revisie	-12.3906
xtraprostatisch	-12.3906
minimaal	-12.3909
esproken	-12.391
ablatio	-12.3911
cardiaresectie	-12.3912
▁lokatie	-12.3913
ica	-12.3914
ratie	-12.3916
ovarieel	-12.3919
▁optie	-12.3919
ft	-12.3925
▁avonds	-12.3929
▁markering	-12.3935
middels	-12.3936
▁laatst	-12.3955
▁sclerae	-12.3973
▁sneden	-12.3977
leuring	-12.398
▁klierweefsel	-12.3982
▁opmerking	-12.3984
▁therapieeffect	-12.3985
kleine	-12.3986
Glu	-12.3987
organisme	-12.3988
ycobacterium	-12.3991
▁probe	-12.3991
▁reticuline	-12.3991
▁Betreffend	-12.3992
▁Geconcludeer	-12.3992
▁cyanotisch	-12.3992
▁geobserveerd	-12.3992
▁schrijven	-12.3992
▁vakantie	-12.3992
▁verstikking	-12.3992
▁bilobectomie	-12.3992
▁chorionvlokken	-12.3992
▁coronarius	-12.3992
▁verstandelijk	-12.3992
▁grofdruppelig	-12.3992
▁verwondingen	-12.3992
▁scannen	-12.3992
▁breukzak	-12.3993
▁carcinosarcoom	-12.3993
▁comorbiditeit	-12.3993
▁Doorgemaakt	-12.3993
ericardvocht	-12.3993
▁blastentoename	-12.3993
▁stafylococc	-12.3993
▁seborrhoisch	-12.3993
▁akute	-12.3993
▁sinusoidal	-12.3993
Bronchusspoelsel	-12.3993
▁Arteriosclerose	-12.3993
▁atroof	-12.3993
▁biometri	-12.3993
▁trabekelblaas	-12.3994
▁abnormaal	-12.3994
oen	-12.3994
▁echogeleid	-12.3995
▁vaatpathologie	-12.3995
▁aangemerkt	-12.3996
▁expectatief	-12.3998
▁kweekuitslagen	-12.3999
▁heer	-12.4001
▁borstwand	-12.4001
▁onmogelijk	-12.4002
stijging	-12.4004
rie	-12.4005
beenmergaspiraat	-12.4007
nome	-12.4007
▁dystrofie	-12.4007
▁littekenreactie	-12.401
▁rillingen	-12.401
▁basillaris	-12.401
▁leverschade	-12.4011
▁spierzwakte	-12.4022
▁colorectal	-12.4022
▁Beentumoren	-12.4023
▁detubatie	-12.4023
sectie	-12.4031
AAL	-12.4031
▁representatie	-12.4038
infiltraat	-12.4042
▁colonbiopt	-12.4045
stomp	-12.4046
DIG	-12.4048
afhankelijk	-12.4058
▁weefselstukje	-12.4061
chemisch	-12.4062
▁staafvormige	-12.4064
▁chorionitis	-12.4069
▁tumorresten	-12.4073
▁spanningspneumo	-12.4075
▁verkleurde	-12.4077
▁vaginaal	-12.4079
ID	-12.4083
2201	-12.4085
▁wig	-12.4086
▁vaatziekten	-12.4093
hv	-12.4094
placenta	-12.4095
▁mag	-12.4095
eiss	-12.4103
apperige	-12.4105
▁lissen	-12.4107
▁overgangstype	-12.4108
primaire	-12.411
▁hepatico	-12.4118
reikend	-12.4124
plasmacellulair	-12.4125
▁sluitend	-12.4125
insertie	-12.413
complex	-12.413
sporadische	-12.4133
infectieuze	-12.4134
▁vd	-12.4147
▁helderen	-12.4152
▁incontinentie	-12.4164
▁Ad	-12.4165
▁linkeroor	-12.4168
focus	-12.4172
stoma	-12.4174
▁follikels	-12.4179
bloeduitstorting	-12.4184
▁polyp	-12.4186
▁atrial	-12.4192
sl	-12.4198
▁AvL	-12.42
▁Bronchusbiopt	-12.4201
▁area	-12.4201
▁Blaasbiopt	-12.4202
ICC	-12.4205
ulva	-12.4207
hippocampale	-12.4208
ubcapsulair	-12.4208
roteus	-12.4208
▁Brunners	-12.4209
▁kilo	-12.421
▁anafyla	-12.421
stermijn	-12.421
▁Anatomisch	-12.421
▁Dilatatio	-12.421
▁gefuseerd	-12.421
▁hartmassage	-12.421
▁intermittens	-12.421
▁verslijmend	-12.421
▁Ewing	-12.421
▁pemfigoid	-12.421
▁gemeentelijk	-12.421
▁Diverse	-12.421
▁horizontale	-12.421
▁unci	-12.421
aterhouse	-12.421
▁ulceroflegmoneu	-12.421
▁uitvoerig	-12.421
▁myomen	-12.421
▁nucleoli	-12.421
▁afvallen	-12.421
▁multicentrisch	-12.421
arthintumor	-12.421
▁vaatsysteem	-12.421
▁sturen	-12.4211
▁bloedingsplaats	-12.4211
▁frontaalkwab	-12.4211
▁longhili	-12.4211
▁schrompeling	-12.4211
▁adenosis	-12.4212
▁subtypering	-12.4212
▁superinfectie	-12.4212
▁botvorming	-12.4213
▁embolectomie	-12.4216
stens	-12.4219
▁Cardio	-12.4219
▁Hage	-12.4221
10).	-12.4222
▁reeel	-12.4224
▁ontbraken	-12.4225
▁hypofarynx	-12.4228
rotisch	-12.4228
▁three	-12.4229
▁manifestatie	-12.4233
Long	-12.4235
▁sterfte	-12.424
▁contusio	-12.4241
rechterhemisfeer	-12.4244
▁linkerarm	-12.4252
▁Alfa	-12.4252
▁angulus	-12.4252
▁slokdarmbiopten	-12.4253
kt	-12.4257
▁duran	-12.4261
king	-12.4263
▁ingevangen	-12.4264
-11-10	-12.427
peritonitisbeeld	-12.4271
▁banal	-12.4272
▁leverhaarden	-12.4282
col	-12.4288
▁paralyse	-12.4289
rans	-12.429
▁reversibele	-12.4291
▁extend	-12.4294
snede	-12.4295
▁Hypertensie	-12.4296
▁obstructies	-12.43
derdaad	-12.4302
▁circumferentie	-12.4309
1-2	-12.431
ning	-12.4316
▁stans	-12.4317
ui	-12.4321
nodale	-12.4322
lag	-12.4342
nd	-12.4344
uid	-12.4348
db	-12.4356
mithyroidectomie	-12.4357
plooi	-12.4363
▁grillige	-12.4366
▁blijk	-12.4367
Hoog	-12.4368
▁falend	-12.4371
▁regel	-12.4374
▁not	-12.4385
▁palpabel	-12.4389
▁Dezelfde	-12.4394
morfologisch	-12.4402
Excisiepreparaat	-12.4405
horax	-12.4405
▁remmers	-12.4406
▁2,1	-12.4407
▁fistelgang	-12.441
ariant	-12.4411
chouw	-12.4414
................	-12.4417
▁eerstegraads	-12.4418
plenitis	-12.4419
▁vezel	-12.4419
eckel	-12.4421
▁tijdelijke	-12.4422
scopisch	-12.4423
auopathie	-12.4424
ocus	-12.4426
otters	-12.4427
onsillectomie	-12.4428
itgesproken	-12.443
▁immunokleuring	-12.4431
ascites	-12.4431
leincellig	-12.4431
▁platform	-12.4432
itsnijdatum	-12.4432
▁activity	-12.4432
▁apoptose	-12.4432
▁crisis	-12.4432
▁erythematodes	-12.4432
▁geretourneerd	-12.4432
▁krachtsverlies	-12.4432
▁volumineus	-12.4432
▁partner	-12.4432
▁losmazig	-12.4432
▁secretiefase	-12.4432
▁cerebrospinalis	-12.4432
▁erythropoiese	-12.4432
▁vitamine	-12.4432
▁ontstolling	-12.4432
▁oxytoca	-12.4432
▁schimmelsporen	-12.4432
▁peritonei	-12.4432
▁tonsillair	-12.4432
▁coagulase	-12.4432
▁jongeman	-12.4432
▁pneumonectomie	-12.4432
▁extranodaal	-12.4433
morbiditeit	-12.4433
▁pouch	-12.4433
▁digniteit	-12.4433
▁pyogenes	-12.4433
Beenmergaspiraat	-12.4434
▁achterliggend	-12.4434
▁linkerhemisfeer	-12.4434
▁electric	-12.4434
▁Beta	-12.4435
spiegels	-12.4436
▁contusiehaarden	-12.4436
▁tubahoeken	-12.4437
Retroperitoneaal	-12.4438
cellig	-12.4438
▁blaasmucosa	-12.4439
hvd	-12.4442
ria	-12.4446
logisch	-12.4447
▁nierlijden	-12.4448
ill	-12.4448
▁abruptio	-12.4451
▁duizeligheid	-12.4451
▁tumorkenmerken	-12.4453
▁vl	-12.4454
zet	-12.4455
▁lukte	-12.446
aags	-12.4462
▁Infiltrerend	-12.4463
▁immuunsuppressi	-12.4464
ick	-12.4467
▁foeto	-12.4468
2200	-12.4473
pliet	-12.4474
peritoneaalholte	-12.4474
▁verklaarbaar	-12.4475
▁pt	-12.4475
▁miltinfarcten	-12.4479
▁klepvegetaties	-12.4481
sinds	-12.4484
▁hernieuwd	-12.4487
▁hersenhemisfeer	-12.4487
▁spoor	-12.4488
▁prostaticus	-12.4488
▁Graft	-12.4488
thrombi	-12.4492
komen	-12.4498
02-1	-12.4498
dia	-12.4503
▁verkalkende	-12.4507
ao	-12.4508
▁hemosiderine	-12.4508
lic	-12.451
▁middelen	-12.451
verval	-12.4516
pace	-12.4516
▁Arteriolosclero	-12.4526
resp	-12.4527
ductie	-12.453
▁homogeen	-12.4537
▁inname	-12.454
want	-12.4543
▁wandverdikking	-12.4548
ldus	-12.4548
onderkwab	-12.4562
▁ventriculair	-12.4563
▁zuurstofbehoeft	-12.4564
▁granulatie	-12.4569
wang	-12.4577
▁inwerking	-12.4583
kanaal	-12.4586
▁gecalcificeerde	-12.4591
emfyseem	-12.4593
respiratoir	-12.4594
personeel	-12.4595
laboratorium	-12.4603
reanimatie	-12.4603
atelectase	-12.4604
chemotherapie	-12.4604
terminaal	-12.4604
toxisch	-12.4607
▁atheroom	-12.4608
hetgeen	-12.4608
pomp	-12.461
DA	-12.4612
bruin	-12.4614
▁kr	-12.4614
schouderblad	-12.4618
papillair	-12.462
thoracale	-12.462
tekenen	-12.4621
ologisch	-12.4626
papmilt	-12.4628
▁enterococcen	-12.4637
liter	-12.464
zijdigheid	-12.4642
tadium	-12.4642
leuraholte	-12.4645
▁beland	-12.4645
▁vochtcollectie	-12.4648
▁wandstandig	-12.4653
itralisklep	-12.4653
edicatie	-12.4654
usculus	-12.4654
ecrotiserende	-12.4654
dissecteerde	-12.4655
▁evalueren	-12.4659
▁hallucinaties	-12.4659
▁imbibitie	-12.4659
▁verbonden	-12.4659
▁voortschrijdend	-12.4659
▁Herpes	-12.4659
▁anteroseptale	-12.4659
▁gescand	-12.4659
▁gliosis	-12.4659
▁rekening	-12.4659
▁uitgerijpt	-12.4659
▁radiologie	-12.4659
▁arteritis	-12.4659
▁nefrotisch	-12.4659
▁mononier	-12.466
▁leucaemie	-12.466
▁keratinocyten	-12.466
CBDEHE	-12.466
▁mucopurulent	-12.466
IEGRAAD	-12.466
▁sinussen	-12.466
▁Addison	-12.466
▁signaal	-12.466
▁coecumbodem	-12.466
▁junctie	-12.466
▁paracolisch	-12.466
▁doodsoorzaken	-12.4661
▁aetiologie	-12.4661
Acta	-12.4661
▁uitdrukbaar	-12.4662
primair	-12.4663
▁niersteen	-12.4663
▁dieptegroei	-12.4663
sdiagnose	-12.4664
▁pigmenthoudend	-12.4665
iessen	-12.4665
EERDE	-12.4666
igmoidbiopten	-12.4666
▁lymfangiectasie	-12.4666
▁megakaryopoese	-12.4666
▁aantallen	-12.4668
▁clips	-12.4668
hoeft	-12.4669
▁Helder	-12.4669
onbehandelbare	-12.467
▁aansnijding	-12.467
ach	-12.4671
▁omtrek	-12.4674
▁grauw	-12.4677
▁verlittekende	-12.4677
▁maagklachten	-12.4678
▁gespaard	-12.4678
▁nood	-12.4685
▁Leverbiopten	-12.4685
specifiek	-12.4686
▁wangslijmvlies	-12.4688
eritoneum	-12.4689
▁nierinfarcten	-12.4689
▁gevoeld	-12.4689
▁fibroadipeu	-12.4691
▁gewijzigd	-12.4692
mamma	-12.4697
▁begeleid	-12.4701
▁nierkapsel	-12.4701
▁dermatomyositis	-12.4716
▁extracapillair	-12.4716
▁tubulusatrofie	-12.4717
▁substantiel	-12.4718
ingsstoornissen	-12.4719
▁kamers	-12.4723
▁Hepatitis	-12.4729
▁morfea	-12.4729
▁stoel	-12.4729
▁hersenhelft	-12.473
massa	-12.4733
premortale	-12.4734
▁pa	-12.4735
▁verhoging	-12.4738
cus	-12.4738
▁weker	-12.4741
▁gestegen	-12.4741
veld	-12.4742
▁recto	-12.4743
cf	-12.4749
▁maagoperatie	-12.4749
▁verplaatsing	-12.4752
2100	-12.4752
kleuringspatroon	-12.4758
gegevens	-12.476
▁intrekking	-12.4764
thrombus	-12.4768
012	-12.4769
multipele	-12.477
▁borstholte	-12.4797
lymf	-12.48
iale	-12.4806
▁wijze	-12.4812
-02-11	-12.4815
▁uitzichtlo	-12.4818
▁satelliet	-12.4819
satelliethaarden	-12.4824
▁Buik	-12.4834
▁1020	-12.4842
ilic	-12.4844
alcoholische	-12.4847
destructie	-12.4848
2010)	-12.485
alleen	-12.4852
▁immunologische	-12.4855
fl	-12.4856
▁pakket	-12.4856
▁stembandpoliep	-12.4867
frontaal	-12.4872
ylori	-12.4876
▁verklaringen	-12.4876
hyper	-12.4876
sgewijze	-12.4877
ventueel	-12.4878
▁gereseceerde	-12.4886
va	-12.4886
assaal	-12.4886
doch	-12.4888
poradisch	-12.4889
▁bedlegerig	-12.4891
elaatsdysmorfien	-12.4892
rachiocephalicus	-12.4892
▁Heupkop	-12.4892
▁brokkelig	-12.4892
▁exclusionem	-12.4892
▁obturatoria	-12.4892
▁somber	-12.4892
▁vascularisatie	-12.4892
▁granulopoiese	-12.4892
▁voelen	-12.4892
▁cervicitis	-12.4892
▁chemie	-12.4892
▁hemofagocytose	-12.4892
▁losgelaten	-12.4892
▁funiculus	-12.4892
▁microcytaire	-12.4892
▁rontgenfoto	-12.4892
▁kapseldoorgroei	-12.4892
▁systeemziekte	-12.4892
▁ecchymosen	-12.4892
▁cardiologisch	-12.4892
▁schedeldak	-12.4892
▁interval	-12.4892
ortons	-12.4892
▁falx	-12.4892
▁parotidectomie	-12.4893
▁unit	-12.4893
▁afvoer	-12.4893
▁zegelringcellen	-12.4893
▁nates	-12.4893
▁gemicro	-12.4893
▁overgangsgebied	-12.4893
kapsel	-12.4894
▁lateralis	-12.4894
▁infectiebron	-12.4894
▁orchidectomie	-12.4895
▁dermatomycose	-12.4895
▁aangesneden	-12.4896
▁strek	-12.4897
▁sporten	-12.4897
▁bekkenwand	-12.4898
▁Hydronefrose	-12.4899
clonaal	-12.49
▁femorales	-12.49
▁pulmona	-12.4902
▁bovenzijde	-12.4902
▁ontlast	-12.4902
▁lymfvaten	-12.4903
▁steunt	-12.4906
▁overlap	-12.4906
▁Enerzijds	-12.4911
▁Ribfracturen	-12.4911
zins	-12.4915
gerelateerd	-12.4916
lin	-12.4916
bronchoalveolair	-12.4917
▁du	-12.4918
raai	-12.4919
▁Ruiterembolus	-12.4924
▁Random	-12.4925
nair	-12.4929
for	-12.4931
▁dyskeratose	-12.4933
red	-12.4933
oog	-12.4936
chronisch	-12.4936
lijke	-12.4937
▁gangreen	-12.4937
witte	-12.4939
situ	-12.4943
▁Gastro	-12.4946
▁diastolisch	-12.4948
CLI	-12.495
▁schil	-12.4951
icrosc	-12.496
▁reinfarcering	-12.4961
▁gb	-12.4962
▁aplastische	-12.4964
▁rectale	-12.4973
▁EE	-12.4975
▁Bi	-12.4975
its	-12.4975
▁Blaasslijmvlies	-12.4979
▁linkerzijwand	-12.498
▁large	-12.4983
ammabiopsie	-12.4985
▁necrosehaardjes	-12.4987
▁motiliteit	-12.4989
▁Dag	-12.4996
Leu	-12.4996
▁Atypisch	-12.5005
stations	-12.5006
▁gat	-12.5011
▁ABC	-12.5012
eker	-12.5013
▁pockets	-12.5029
▁fundustype	-12.503
poelvocht	-12.5043
borst	-12.505
▁Analyse	-12.5054
septumruptuur	-12.5057
▁leucocyten	-12.5067
▁sudden	-12.5068
▁restlaesie	-12.5071
▁beperking	-12.5072
▁ven	-12.5074
▁Blokje	-12.5075
▁ovariumcyste	-12.5076
infect	-12.5078
cho	-12.5078
▁Intern	-12.5084
nefropathie	-12.5097
fatty	-12.5098
benigne	-12.5098
▁chordae	-12.5098
Helicobacter	-12.5098
vasculitis	-12.5098
▁histo	-12.51
▁rechtsonder	-12.5107
myocardinfarct	-12.5113
IB	-12.5113
▁Ingroei	-12.5115
▁BL	-12.5116
gegeneraliseerde	-12.5118
▁opheldering	-12.5118
▁klepblad	-12.5119
▁plekje	-12.5119
terale	-12.512
oornamelijk	-12.5121
hymus	-12.5122
ox	-12.5125
verwegend	-12.5126
▁mislukt	-12.5127
▁huiddefect	-12.5127
wangerschap	-12.5127
▁Hernia	-12.5128
▁doorsnijding	-12.5128
nze	-12.5128
screen	-12.5128
▁objectiveerba	-12.5129
▁afstrijkba	-12.5129
entorhinal	-12.513
▁condyloom	-12.513
cflp	-12.513
parathyreoidie	-12.513
ymfoplasmacytair	-12.513
▁Etiologie	-12.513
▁Extirpatie	-12.513
▁Hysteroscopisch	-12.513
▁gesitueerd	-12.513
▁griep	-12.513
▁uitwijzen	-12.513
▁fumigatus	-12.513
▁detecteerbaar	-12.513
▁miniscu	-12.513
▁staafjes	-12.513
▁afgebroken	-12.513
▁configuratie	-12.513
▁perirectale	-12.513
▁epidurale	-12.513
▁polycythaemi	-12.513
▁disseminatie	-12.513
▁Aangevuld	-12.513
▁slijmstase	-12.5131
▁pL	-12.5131
▁extracapsulair	-12.5131
▁Doorsneden	-12.5131
▁gebruikelijk	-12.5131
▁Hodgkinlymfoom	-12.5131
bio	-12.5132
▁uitgegaan	-12.5133
▁botten	-12.5134
▁placentavolume	-12.5134
kwabsbronchus	-12.5134
▁voorstelbaar	-12.5135
▁discontinu	-12.5135
▁periportaal	-12.5135
▁slijmvorming	-12.5135
▁floride	-12.5136
▁thromboembolus	-12.5136
▁behandelopties	-12.5137
▁lekkend	-12.5137
▁loopstoornissen	-12.5137
▁Ingesloten	-12.5142
vatslijden	-12.5146
cervixslijmvlies	-12.5147
▁blaasbiopt	-12.5148
▁stijgende	-12.5151
▁tromboembolieen	-12.5153
▁teveel	-12.5153
▁fibroblast	-12.5154
▁voorvoet	-12.5156
▁vochtig	-12.5159
rinewegen	-12.516
proliferatiefase	-12.516
sgebied	-12.5166
ammaweefsel	-12.5167
▁gelijkende	-12.5168
▁afgekapseld	-12.517
slechts	-12.5171
▁vaatlaesie	-12.5171
ogen	-12.5174
▁verloopt	-12.5176
▁bridging	-12.5176
▁polydactylie	-12.5176
eneuze	-12.5179
▁lek	-12.5185
▁contralatera	-12.5185
▁getuige	-12.5186
vasculair	-12.5187
hoofd	-12.519
atus	-12.5199
off	-12.5201
tubulaire	-12.5201
▁apnoe	-12.5202
▁navelbreuk	-12.521
▁verbleking	-12.5214
▁secretoire	-12.5221
tubulointerstiti	-12.523
▁junctione	-12.523
itus	-12.5231
clerose	-12.5239
form	-12.524
▁koepel	-12.5244
▁cholecyst	-12.5245
ventrale	-12.5247
▁pijnlijke	-12.5247
inhoud	-12.5248
▁Diepe	-12.5251
▁remmer	-12.5256
▁proliferaties	-12.5258
ulcus	-12.5262
▁punten	-12.5266
021	-12.5283
2),	-12.5291
▁omheen	-12.5292
immuno	-12.5293
▁Bronchuss	-12.5293
▁glia	-12.5294
▁aanvallen	-12.5296
AIR	-12.5297
▁dak	-12.5299
cu	-12.5301
▁pneumo	-12.5302
▁plaat	-12.531
▁assistent	-12.531
vulling	-12.5312
resectieranden	-12.5325
▁orbita	-12.5328
▁AB	-12.533
▁Graad	-12.5333
▁lymfoma	-12.5336
ug	-12.534
▁leveren	-12.5342
encephalitis	-12.5346
mortem	-12.5347
RADICAAL	-12.5347
ileus	-12.5348
▁Abortus	-12.5348
▁mycobacterie	-12.5349
▁cusp	-12.5351
hypertrofisch	-12.5355
organiserende	-12.5355
▁loge	-12.5359
sonderzoek	-12.536
▁acra	-12.5361
rostatectomie	-12.5361
aagcorpusbiopten	-12.5362
▁ges	-12.5362
▁correct	-12.5363
vaat	-12.5364
rasmus	-12.5364
▁exact	-12.5367
timahyperplasie	-12.5367
▁cauda	-12.5367
ezwollen	-12.5368
inimaal	-12.5368
ouble	-12.5369
▁femoro	-12.5371
▁112	-12.5371
introm	-12.5372
▁uitbreiden	-12.5372
sh	-12.5373
tanford	-12.5374
▁Abstinerend	-12.5374
▁Legionella	-12.5374
▁diurese	-12.5374
▁endometritis	-12.5374
▁epidermidis	-12.5374
▁erytrocyturie	-12.5374
▁glabella	-12.5374
▁glabrata	-12.5374
▁hyperthermie	-12.5374
▁intervillositis	-12.5374
▁malleolus	-12.5374
▁neuroloog	-12.5374
▁planocellulair	-12.5374
▁stridor	-12.5374
▁bijtfibroom	-12.5374
▁Cardiomegalie	-12.5374
▁aanvoerend	-12.5374
▁verdrinking	-12.5374
▁cystoscopie	-12.5374
▁inmonding	-12.5374
▁vulnerabel	-12.5374
▁neuropil	-12.5374
▁ballonpomp	-12.5374
▁beneden	-12.5374
▁lichaamshelft	-12.5374
▁wenselijk	-12.5374
▁strangulatie	-12.5374
▁hechtmateriaal	-12.5374
▁hersenschade	-12.5374
▁Levercirrose	-12.5374
▁semen	-12.5375
▁erytroid	-12.5375
▁longemphyseem	-12.5375
los	-12.5375
▁hoofdstammen	-12.5375
▁hyperemie	-12.5375
▁medebeoordeling	-12.5376
▁prerenaal	-12.5377
poliepen	-12.5377
▁afstands	-12.5378
▁medio	-12.5381
macrotest	-12.5382
▁aangeven	-12.5383
eelsen	-12.5383
▁weigerde	-12.5383
▁resulteerde	-12.5384
rsi	-12.5387
ureterectomie	-12.5389
▁zinvol	-12.5389
gangsepitheelcel	-12.539
▁macula	-12.5391
▁samenhangt	-12.5392
▁111	-12.5394
▁lethale	-12.5394
▁Controle	-12.5394
▁doorgebeld	-12.5394
formatie	-12.5395
▁levercysten	-12.5398
▁darmdeel	-12.5398
blasten	-12.54
▁microvasculair	-12.5401
▁old	-12.5405
fc	-12.5406
reventie	-12.5407
▁bloedtransfusie	-12.5408
▁concha	-12.5408
▁duiding	-12.5409
angiomateuze	-12.5409
▁retina	-12.5415
tollingsstoornis	-12.5416
▁wavy	-12.5417
nodaal	-12.542
olithiasis	-12.5423
RDIA	-12.5425
nderliggend	-12.5431
▁intermitterend	-12.5434
▁Galstenen	-12.5435
▁centroblastair	-12.5435
▁keten	-12.5437
▁stilstand	-12.5438
▁dystrof	-12.5442
▁bronchiaalboom	-12.5445
▁vitium	-12.5446
▁catheterisatie	-12.5457
▁pericolisch	-12.5457
▁perihilaire	-12.5464
cerebrale	-12.547
oronairangiogram	-12.5474
▁case	-12.5477
▁linkercoronair	-12.5481
▁apocrien	-12.5486
▁whi	-12.5487
▁mediagebied	-12.5489
GC	-12.549
▁comedo	-12.5501
▁cyto	-12.5506
▁einde	-12.5512
▁Abdominale	-12.5518
▁Congorood	-12.5519
▁1220	-12.5519
gedragen	-12.553
diepte	-12.5533
▁claviculair	-12.5533
halve	-12.5545
gevoegd	-12.5554
poliepje	-12.5571
-01-10	-12.5572
nco	-12.5573
sich	-12.5576
acr	-12.5579
▁avs	-12.558
dominant	-12.5582
welke	-12.5585
▁embolietjes	-12.5586
CAR	-12.5587
hoe	-12.5588
2002)	-12.5589
effecten	-12.5602
assistent	-12.5602
▁pectoralis	-12.5609
verkalking	-12.5611
▁ontkalking	-12.5612
0000	-12.5612
betreffende	-12.5615
prolaps	-12.5617
Daarnaast	-12.5617
agonale	-12.5619
dysfunctie	-12.5619
nde	-12.5624
cadherine	-12.5624
▁Actinisch	-12.5624
▁Chirurgisch	-12.5624
▁brochopneumonie	-12.5624
▁getypeerd	-12.5624
▁oncologisch	-12.5624
▁Laaggradig	-12.5624
▁gazen	-12.5624
▁bloedingsfoci	-12.5624
▁papillomatose	-12.5624
▁subthalamicus	-12.5624
▁enzymproef	-12.5624
▁motiel	-12.5624
▁angiomyolipoom	-12.5624
▁retrospect	-12.5624
▁laryngectomie	-12.5624
▁Bloederig	-12.5624
▁stafylokokken	-12.5624
▁trabeculatie	-12.5624
▁Grootcellig	-12.5624
▁meegenomen	-12.5624
▁descenderend	-12.5624
▁keloid	-12.5624
▁staphylococcen	-12.5624
▁tuberculosis	-12.5624
vormende	-12.5625
▁feitelijk	-12.5625
▁pacemakerdraad	-12.5625
▁holten	-12.5627
▁anisocorie	-12.5628
▁uterina	-12.5629
▁zijtakken	-12.563
▁aangevuld	-12.5631
▁cast	-12.5631
▁drug	-12.5632
▁lymfvat	-12.5633
▁abceshaarden	-12.5634
▁kapjes	-12.5635
▁ha	-12.5637
▁granulaire	-12.5638
▁vervolgen	-12.5639
vrijwel	-12.564
tweelingplacenta	-12.564
▁roze	-12.5641
duur	-12.5642
▁periadnexa	-12.5645
▁hypoglycemie	-12.5645
tel	-12.5645
oma	-12.5646
▁hypereosinofiel	-12.5647
▁ducten	-12.5649
uitval	-12.565
▁reele	-12.5651
▁prionziekte	-12.5654
▁placentagewicht	-12.5655
▁significantie	-12.5657
▁bas	-12.5659
Ala	-12.566
▁myocardruptuur	-12.5661
abortusmateriaal	-12.5662
▁pal	-12.5664
-12-10	-12.5665
▁conus	-12.5672
▁fimbriae	-12.5673
▁homozygot	-12.5674
▁longkweek	-12.5679
zen	-12.5683
overgevoeligheid	-12.5684
vene	-12.5687
anaal	-12.5695
▁010	-12.5699
▁moe	-12.5699
-2000	-12.5701
▁prof	-12.5703
▁indirect	-12.5704
▁ureters	-12.5705
itieel	-12.5706
▁ijzerkleuring	-12.5707
▁polyclonale	-12.5708
▁gynaecologische	-12.5709
fgezien	-12.5714
vanwege	-12.5715
bol	-12.5715
▁kapje	-12.5717
▁perinatal	-12.5717
ALL	-12.572
rmatopathologie	-12.5735
▁neurogeen	-12.5737
longproblematiek	-12.5739
▁perivesica	-12.5741
▁adem	-12.5741
iek	-12.5748
▁fietsen	-12.5754
pecifieke	-12.5756
sstoornissen	-12.5757
▁longinfarcering	-12.5758
ru	-12.5758
▁haemato	-12.5759
▁revalidatie	-12.5764
▁mi	-12.5765
▁bioklep	-12.5768
2022	-12.5779
ymfoplasmocytair	-12.5787
▁Ileum	-12.5793
▁granulo	-12.5795
▁ingang	-12.5818
HI	-12.5821
▁anal	-12.5829
▁reserve	-12.5832
anamnestisch	-12.5833
uire	-12.5834
▁loc	-12.5841
▁leucocytoclas	-12.5844
▁atelectatische	-12.5846
▁parametria	-12.5847
▁stug	-12.5848
hepatitis	-12.5851
sterke	-12.5851
▁Ar	-12.5851
hrombus	-12.5857
hematoom	-12.5864
1000	-12.5866
ubtotale	-12.5867
ubendocardiale	-12.5867
▁gezet	-12.5868
apsel	-12.5871
▁bewijzen	-12.5871
ezamen	-12.5872
▁temporo	-12.5874
▁tumoremboli	-12.5874
impel	-12.5874
ultifocaal	-12.5875
aevus	-12.5875
▁vaatrijk	-12.5877
▁glycogeen	-12.5879
▁jump	-12.5879
otter	-12.588
▁mastoid	-12.588
errichting	-12.588
peekselklier	-12.588
▁tentamen	-12.588
bewaking	-12.588
riderichsen	-12.588
▁autopsie	-12.588
▁carinii	-12.588
▁melding	-12.588
▁tachypneu	-12.588
▁verwaarlozing	-12.588
▁genummerd	-12.588
▁plexogen	-12.588
▁schatten	-12.588
▁Circulair	-12.588
▁vasopressie	-12.588
▁alcoholabuses	-12.588
▁verdrongen	-12.588
▁granulomateus	-12.588
▁polycythemi	-12.588
▁geschrompeld	-12.588
▁oligurie	-12.5881
megakaryocytaire	-12.5881
▁gasvorming	-12.5881
▁pinpointlumen	-12.5881
▁intraveneus	-12.5881
▁biochemisch	-12.5881
▁klebsiella	-12.5881
▁vaattekening	-12.5881
▁aktieve	-12.5881
▁haematogeen	-12.5881
▁schedelomtrek	-12.5881
▁stoten	-12.5881
▁retroplacentair	-12.5881
▁slokdarmvarices	-12.5881
epitheliomateuze	-12.5881
▁autopsy	-12.5881
▁sputumkweek	-12.5882
myelomonocytaire	-12.5882
▁microcirculatie	-12.5882
immunoblastair	-12.5882
▁mgl	-12.5883
▁myocardinfact	-12.5883
▁blaasbodem	-12.5883
▁tussenliggend	-12.5884
ericardholte	-12.5884
▁rechterovarium	-12.5885
▁bijdragen	-12.5885
▁mammasparend	-12.5885
▁ventrikeldrain	-12.5885
koa	-12.5886
Richardson	-12.5886
▁milthilus	-12.5886
Gewicht	-12.5887
schildklierkwab	-12.5887
▁Ischemie	-12.5889
Gleasonscore	-12.5889
-11-12	-12.5889
▁buitenaf	-12.5891
anuit	-12.5891
vaatverbindingen	-12.5894
▁adenoma	-12.5894
▁klepring	-12.5894
▁kransslagaders	-12.5895
plm	-12.5896
▁rechteroor	-12.5896
operatielitteken	-12.5897
uc	-12.5897
▁rabdomyolyse	-12.5899
hier	-12.5901
▁Bijschildklier	-12.5904
▁serosaal	-12.5905
▁rechtervoet	-12.5906
band	-12.5909
grade	-12.5913
▁cardiomyocyt	-12.5913
▁glans	-12.5916
▁vaatafsluiting	-12.5916
lytische	-12.5918
▁aanhangend	-12.5919
▁opportunistisch	-12.592
tetrazoliumproef	-12.5922
bloedvoorziening	-12.5922
-02-10	-12.5924
pulmonalistakken	-12.5928
▁krabben	-12.593
▁Autolyse	-12.593
▁Brain	-12.593
▁ileitis	-12.593
▁ulceratief	-12.5932
osieve	-12.5937
▁uitte	-12.5938
▁calcinosis	-12.5939
ndocervicale	-12.594
DH	-12.5949
ramus	-12.5956
▁hormoon	-12.5957
tieve	-12.5958
▁Levercirrhose	-12.596
▁complexen	-12.5961
LG	-12.5969
ans	-12.597
geleide	-12.5979
arth	-12.5981
ay	-12.5984
▁Lateral	-12.5986
▁antistollings	-12.5988
▁ovarieel	-12.5996
acht	-12.5996
▁hematopericard	-12.5997
onderbeen	-12.5997
▁raakt	-12.6
▁pR	-12.6
▁gewrichten	-12.6002
▁portaal	-12.6007
dig	-12.6008
▁duodenale	-12.6009
▁schorsatrofie	-12.6014
▁vats	-12.6022
epel	-12.6025
▁Drietaks	-12.6025
medullair	-12.6032
▁pulmonalisklep	-12.6034
▁korrel	-12.6035
▁RAD	-12.6037
▁haem	-12.604
▁klepprothese	-12.6042
▁thrombotisch	-12.6047
▁hoofdwond	-12.6054
▁placentair	-12.6058
▁wk	-12.6064
anti	-12.6067
▁CAR	-12.6073
die	-12.6074
▁maagfundus	-12.6088
ILA	-12.609
▁fem	-12.609
▁naadlekkages	-12.6093
nodulair	-12.6096
komst	-12.6097
rdegraads	-12.6097
▁miltkapsel	-12.6099
▁techniek	-12.6101
ha	-12.6102
▁sup	-12.6103
▁Endo	-12.6108
fistel	-12.6109
▁steatotische	-12.6111
▁verk	-12.6117
▁longgewicht	-12.6117
1200	-12.612
lies	-12.6124
▁middag	-12.6132
▁amenorrhoe	-12.6135
oestemming	-12.6135
fr	-12.6135
▁subserosa	-12.6137
sneevlak	-12.6138
▁DR	-12.6139
▁overgrijpen	-12.614
▁Coecum	-12.6141
zijdig	-12.6142
etastasering	-12.6142
▁neurodegenerati	-12.6142
perma	-12.6143
tenotrop	-12.6143
▁Botalli	-12.6143
▁dwangstand	-12.6143
▁interface	-12.6143
▁klepvitia	-12.6143
▁lijkstijfheid	-12.6143
▁necrobios	-12.6143
▁skipping	-12.6143
▁laatstgenoemde	-12.6143
▁reads	-12.6143
▁lymfadenitis	-12.6143
▁volumineuze	-12.6143
▁stroge	-12.6143
▁dodelijk	-12.6143
▁supraglottisch	-12.6143
ukas	-12.6144
econd	-12.6144
▁subcorticaal	-12.6144
▁afgevallen	-12.6144
▁cirrhosis	-12.6144
▁perfringens	-12.6144
homonas	-12.6144
▁parametrium	-12.6144
▁steenlijden	-12.6144
▁zenuwweefsel	-12.6144
▁pleurazwoerd	-12.6144
▁neusgang	-12.6144
▁thrombosebeen	-12.6144
▁microtrombi	-12.6145
▁beademen	-12.6145
▁pericardiaal	-12.6145
entry	-12.6146
▁ongemarkeerd	-12.6146
▁bronchopneumie	-12.6146
spraak	-12.6146
▁groeven	-12.6146
ontstekingsfocus	-12.6147
▁klompvoeten	-12.6148
▁wondgebied	-12.6148
galwegobstructie	-12.6149
▁tag	-12.6149
▁vlakbij	-12.6151
▁Bauhin	-12.6152
▁puscollecties	-12.6154
▁bronchieen	-12.6157
▁abortusrest	-12.6159
▁linkeroksel	-12.616
▁psoasbloeding	-12.6161
block	-12.6161
edebeoordeling	-12.6161
verwijderd	-12.6165
bevestigd	-12.6165
▁spermatogenese	-12.6166
▁verontreiniging	-12.6166
▁Leverbiopsie	-12.6166
▁miliaire	-12.6166
artefacten	-12.6167
stuit	-12.6168
weinig	-12.6169
▁nierdysplasie	-12.617
▁wild	-12.6171
cht	-12.6172
▁RADICAAL	-12.6172
kan	-12.6174
▁tumordeposities	-12.6174
▁elektrisch	-12.618
▁iliopsoas	-12.618
▁perivenulair	-12.618
▁antilichaam	-12.618
▁Alcian	-12.618
▁geprepareerd	-12.6181
▁lues	-12.6186
▁bieden	-12.6189
vorm	-12.619
gv	-12.619
▁events	-12.6192
oorbehandeling	-12.6192
▁jukbeen	-12.6195
gehandeld	-12.6203
maagovergang	-12.6207
▁sleutelbeen	-12.6209
▁elf	-12.6212
▁gemarkeerd	-12.6213
▁uitlopers	-12.6219
▁echte	-12.6223
littekens	-12.6223
▁kleuren	-12.6228
▁sterker	-12.6231
▁schock	-12.6233
ls	-12.6235
▁IEL	-12.6238
▁voorheen	-12.6238
▁faillure	-12.6239
-10-12	-12.6241
kleur	-12.6241
rin	-12.6247
sterk	-12.6253
behouden	-12.6253
-01-11	-12.6257
▁celproliferatie	-12.626
geel	-12.6263
▁Receptorstatus	-12.6269
Coli	-12.6272
▁vesiculae	-12.628
2101	-12.6296
▁ovariumtumor	-12.6297
▁blaasresectie	-12.6299
haardje	-12.6302
orens	-12.6304
▁periodes	-12.6306
thro	-12.6311
▁naam	-12.6313
▁afge	-12.6318
▁entree	-12.6319
▁myodegenerati	-12.6323
-02-12	-12.6324
▁Huidfragment	-12.6331
▁thromboemboli	-12.6335
poeling	-12.6338
▁diepreikend	-12.6342
▁costa	-12.6342
rtien	-12.6344
▁mucosaal	-12.6348
▁lichenoid	-12.6351
solide	-12.6352
▁overhechte	-12.6355
correctie	-12.6355
BI	-12.6356
uw	-12.6357
ebsite	-12.6361
▁exostose	-12.6365
▁bind	-12.6369
▁huidfragment	-12.6384
▁resorberende	-12.6385
Lymfklier	-12.6387
▁gelige	-12.6389
▁zaad	-12.639
erdacht	-12.6394
▁excisiebiopsie	-12.64
▁Ductu	-12.64
erig	-12.6401
▁longmetastase	-12.6401
▁behoren	-12.6402
etechien	-12.6402
ericarditis	-12.6402
▁wenst	-12.6402
▁puscollectie	-12.6402
vo	-12.6403
▁overeenkomen	-12.6406
excisiemateriaal	-12.6407
gang	-12.6408
▁verzep	-12.6409
takslijden	-12.641
tadiering	-12.6412
pseudo	-12.6412
▁vestibul	-12.6413
▁begon	-12.6414
▁insectensteek	-12.6414
ertrouwend	-12.6414
oplasmocellulair	-12.6414
presentativiteit	-12.6414
▁Abcederend	-12.6414
▁Langdurig	-12.6414
▁Lengte	-12.6414
▁afgewacht	-12.6414
▁evidence	-12.6414
▁geserreerd	-12.6414
▁hyperventilatie	-12.6414
▁ombouw	-12.6414
▁voelt	-12.6414
▁diffuze	-12.6414
▁haemochromatose	-12.6414
▁rupturering	-12.6414
hyperchromatisch	-12.6414
▁Bleek	-12.6414
▁nefrostomie	-12.6414
▁fenotypisch	-12.6414
▁uitdroging	-12.6414
▁abscederend	-12.6414
▁onderhuids	-12.6414
▁schedelomvang	-12.6414
▁wervellichaam	-12.6414
▁stricturerend	-12.6414
▁onveranderd	-12.6414
▁Bloedkweken	-12.6414
▁Brickerblaas	-12.6414
▁pigmentosa	-12.6414
▁rosea	-12.6414
▁periorbitaal	-12.6414
▁vaststelling	-12.6414
▁objectiveerbaar	-12.6414
▁standaard	-12.6414
▁Consistentie	-12.6415
▁verwekingshaard	-12.6415
pal	-12.6415
▁olijfkernen	-12.6415
▁oorrand	-12.6415
▁epitheelatypie	-12.6415
▁markeronderzoek	-12.6415
fluxoesofagitis	-12.6416
▁zwaarder	-12.6416
zelb	-12.6417
▁changes	-12.6417
▁proteus	-12.6418
▁buikhuid	-12.6419
▁slijmig	-12.6419
▁cryptogen	-12.642
stapeling	-12.642
lf	-12.6421
▁Actinomyces	-12.6422
▁plaveiselcellen	-12.6423
▁duodenummucosa	-12.6423
hrombose	-12.6424
▁excoriatie	-12.6424
▁dochter	-12.6425
▁bloedinkje	-12.6425
▁bont	-12.6426
titis	-12.6426
▁endstage	-12.6428
▁rechterbijnier	-12.6428
2021	-12.643
volumepercentage	-12.6433
▁diepste	-12.6433
streng	-12.6434
▁hereditaire	-12.6434
▁hypoventilatie	-12.6437
▁sessie	-12.644
▁weefselreactie	-12.644
ECI	-12.6442
gehalte	-12.6444
rende	-12.6444
sotheliomenpanel	-12.6447
tangles	-12.6448
▁uitmonding	-12.6451
doorbraak	-12.6452
▁chromosomen	-12.6453
lappe	-12.6454
▁optreedt	-12.6458
▁opgezet	-12.6461
▁red	-12.6462
▁zaten	-12.6463
▁expansie	-12.6466
▁microbioloog	-12.6466
▁verbening	-12.6466
gew	-12.6471
▁neusgat	-12.6475
▁transit	-12.6476
▁transpositie	-12.6482
▁manipulatie	-12.6497
staart	-12.6497
uitgebreid	-12.6498
elk	-12.6498
▁translocaties	-12.6499
pericard	-12.6504
ventrikelmyocard	-12.651
▁vulvabiopt	-12.6511
▁knik	-12.6512
▁kloon	-12.6512
▁reaktie	-12.6514
kel	-12.6514
▁afzetting	-12.6515
▁asbest	-12.6517
10-2	-12.6519
gressief	-12.6521
▁maagantrumbiopt	-12.6522
let	-12.6526
▁torsie	-12.6527
▁gruis	-12.6532
▁LA	-12.6543
▁101	-12.6545
bovenkwab	-12.6545
andard	-12.6548
bestraling	-12.6552
▁Rectums	-12.6556
nek	-12.6564
pakket	-12.6564
astectomie	-12.6572
▁mobiel	-12.6573
▁spoelcel	-12.6574
loop	-12.6574
if	-12.6579
▁waviness	-12.6588
DR	-12.6588
bot	-12.6595
weet	-12.6598
fibrinedepositie	-12.6599
kuur	-12.6605
ich	-12.6607
▁defibrillatie	-12.6613
ins	-12.6617
▁hypertensief	-12.6624
▁hepatisch	-12.663
▁spoelvormige	-12.6631
▁heftig	-12.6631
studi	-12.6632
cerebri	-12.6635
thrombo	-12.6636
gegeven	-12.6644
▁sick	-12.6647
▁afwacht	-12.6649
▁orgaandonatie	-12.6649
▁tracti	-12.665
sduur	-12.665
kselkliertoilet	-12.6651
ijns	-12.6652
▁parasitaire	-12.6652
vezels	-12.6654
▁omringend	-12.6655
▁routine	-12.6658
▁load	-12.666
iseerd	-12.6665
tica	-12.6665
basaal	-12.6665
ctomie	-12.6671
har	-12.6672
mis	-12.6673
treedt	-12.6673
fibrileren	-12.6673
kop	-12.6679
▁wegraking	-12.668
▁Con	-12.668
embolietjes	-12.6684
esenterium	-12.6686
eurologisch	-12.6686
latzbauch	-12.6688
▁blijvend	-12.669
liniek	-12.6691
▁Graves	-12.6691
▁cholestasis	-12.6691
▁feochromocytoom	-12.6691
▁gedetubeerd	-12.6691
▁immobilisatie	-12.6691
▁invalshoek	-12.6691
▁mortuus	-12.6691
▁ongeschikt	-12.6691
▁parakeratotisch	-12.6691
▁Instituut	-12.6691
▁adipeus	-12.6691
▁collateraal	-12.6691
▁laminectomie	-12.6691
▁ophoesten	-12.6691
▁trigger	-12.6691
▁vaatsteel	-12.6691
▁vriendelijk	-12.6691
▁abstinatie	-12.6691
▁obducent	-12.6691
▁kiemceltumor	-12.6692
▁Bulleu	-12.6692
▁pericardeffusie	-12.6692
▁detectie	-12.6692
infraclaviculair	-12.6692
AALCELCAR	-12.6692
tracheale	-12.6692
▁poststenotisch	-12.6692
▁Rcx	-12.6692
▁cvp	-12.6692
congofiele	-12.6692
▁acetabulum	-12.6692
▁selectieve	-12.6692
▁heterogeen	-12.6692
▁exocrien	-12.6692
▁petechiale	-12.6692
immuunziekte	-12.6693
▁arterialisatie	-12.6693
▁spits	-12.6693
▁diagnosis	-12.6694
▁organoid	-12.6695
▁kerngebieden	-12.6695
▁strooihaarden	-12.6696
▁mislukte	-12.6696
remmers	-12.6697
▁vaatgerelateerd	-12.6699
▁difficile	-12.67
▁anthracotisch	-12.67
▁mondslijmvlies	-12.6701
▁woekeringen	-12.6701
▁vetcellen	-12.6701
▁restmaligniteit	-12.6702
▁Beeldvorming	-12.6704
▁idiopatische	-12.6704
bloedingshaarden	-12.6705
▁elektrolyten	-12.6712
▁intracranieel	-12.6716
▁gel	-12.6721
forme	-12.6725
▁Haemophil	-12.6726
▁Dysplasie	-12.6726
circulatie	-12.6731
acu	-12.6732
▁Ecoli	-12.6732
spiegel	-12.6733
▁proef	-12.6734
RCE	-12.6735
▁basaloid	-12.6737
intramyocardiaal	-12.6739
▁aantreffen	-12.6743
Grawitz	-12.6743
dert	-12.6744
binnen	-12.6745
conclusie	-12.6745
verschil	-12.6745
abdominalis	-12.6745
zwelling	-12.6745
▁buikbeeld	-12.6746
mucosale	-12.6747
complicaties	-12.6748
▁verrichtte	-12.6749
protocol	-12.6751
behandelde	-12.6751
▁insteekopening	-12.6755
▁gelaten	-12.6761
▁hypoxaemie	-12.6761
necrotisch	-12.6769
proximaal	-12.6769
aanwezigheid	-12.6771
verdenking	-12.6773
▁matrix	-12.6775
allergische	-12.6788
olume	-12.6791
▁gelijkend	-12.6794
voer	-12.6794
▁bip	-12.6798
▁bloedbeeld	-12.68
▁resistentie	-12.6807
▁imponeerde	-12.682
nh	-12.683
▁epitheelcyste	-12.6837
olitaire	-12.6838
gelijk	-12.684
dermaal	-12.6843
▁GB	-12.6846
▁bewustzijns	-12.6846
▁behandel	-12.6847
▁Gradering	-12.686
venen	-12.686
hoek	-12.686
▁indefinite	-12.6861
▁transuret	-12.6862
▁parti	-12.6864
grens	-12.6876
▁adenomyomateu	-12.6878
zo	-12.6881
basale	-12.6881
parietotemporaal	-12.6883
wan	-12.6885
galgangcarcinoom	-12.6887
beoordeling	-12.6892
▁bls	-12.6893
▁incisiebiopt	-12.6902
his	-12.6904
▁Lasix	-12.6905
eria	-12.6907
las	-12.6917
posterior	-12.6927
2120	-12.693
▁eenzijdig	-12.693
▁ventriculo	-12.6932
ulmonale	-12.6936
erwijs	-12.6938
receptoren	-12.694
ges	-12.6941
pjes	-12.6943
▁Anti	-12.6944
▁gehalte	-12.6945
▁vind	-12.6948
▁vooraf	-12.6948
▁infact	-12.6949
▁prepareren	-12.6949
ces	-12.695
▁subtiel	-12.695
engere	-12.6957
via	-12.6959
behandeld	-12.696
streek	-12.6961
▁partu	-12.6962
▁vertakking	-12.6963
▁ducti	-12.6965
▁CAD	-12.6966
ammaexcisie	-12.6967
▁Bauhini	-12.6968
pierweefsel	-12.6969
▁pieken	-12.6973
rotocollair	-12.6975
▁ulcerende	-12.6975
ellitus	-12.6975
putum	-12.6976
ibreuze	-12.6976
▁bronchusbiopt	-12.6976
anddikte	-12.6977
conservatieve	-12.6977
entana	-12.6977
▁Aansluitend	-12.6977
▁circulerend	-12.6977
▁decollete	-12.6977
▁gebeurd	-12.6977
▁gemakkelijk	-12.6977
▁genaamd	-12.6977
▁intercostaal	-12.6977
▁ojb	-12.6977
▁opgesomd	-12.6977
▁opknapte	-12.6977
▁pijpbeenderen	-12.6977
▁sprieten	-12.6977
chonlein	-12.6977
wetenschappelijk	-12.6977
▁chromofo	-12.6977
[...]
