<unk>	0
<s>	0
</s>	0
[PAD]	0
[UNK]	0
[CLS]	0
[MASK]	0
[C-SEP]	0
en	-0
er	-1
in	-2
ie	-3
an	-4
▁m	-5
el	-6
is	-7
al	-8
▁v	-9
et	-10
ch	-11
een	-12
on	-13
it	-14
ij	-15
▁b	-16
▁d	-17
la	-18
or	-19
at	-20
**	-21
re	-22
st	-23
▁g	-24
ing	-25
op	-26
▁a	-27
ar	-28
om	-29
CR	-30
id	-31
ig	-32
LF	-33
CRLF	-34
▁p	-35
▁h	-36
▁c	-37
▁met	-38
▁l	-39
▁n	-40
iop	-41
der	-42
ct	-43
▁s	-44
▁t	-45
iopt	-46
▁re	-47
as	-48
ol	-49
end	-50
▁(	-51
aal	-52
▁H	-53
ro	-54
uid	-55
oor	-56
▁G	-57
▁in	-58
▁van	-59
cht	-60
us	-61
▁een	-62
ek	-63
oom	-64
isch	-65
▁on	-66
.[	-67
▁en	-68
▁Geen	-69
um	-70
ic	-71
eel	-72
biopt	-73
ex	-74
sie	-75
▁w	-76
▁k	-77
isie	-78
****	-79
▁Huid	-80
ign	-81
▁z	-82
▁o	-83
▁aan	-84
▁de	-85
ag	-86
ctie	-87
ite	-88
cisie	-89
wij	-90
den	-91
▁voor	-92
ingen	-93
ve	-94
se	-95
cel	-96
arc	-97
align	-98
ent	-99
atie	-100
ev	-101
arcin	-102
iteit	-103
▁ver	-104
▁malign	-105
ink	-106
▁I	-107
arcinoom	-108
▁geen	-109
ul	-110
▁recht	-111
ale	-112
▁link	-113
pla	-114
excisie	-115
og	-116
ische	-117
▁maligniteit	-118
ula	-119
le	-120
yp	-121
ra	-122
carcinoom	-123
aar	-124
▁het	-125
plasie	-126
▁bij	-127
▁ont	-128
▁u	-129
▁rechts	-130
▁links	-131
eeld	-132
ed	-133
▁ontst	-134
):	-135
▁B	-136
eking	-137
▁ontsteking	-138
ur	-139
ir	-140
es	-141
if	-142
em	-143
▁f	-144
▁na	-145
***	-146
*******	-147
un	-148
II	-149
iet	-150
ot	-151
ep	-152
ier	-153
oc	-154
▁is	-155
▁beeld	-156
ys	-157
celcarcinoom	-158
▁E	-159
de	-160
▁[	-161
am	-162
ende	-163
▁dys	-164
ec	-165
os	-166
ron	-167
▁onder	-168
▁D	-169
▁Huidexcisie	-170
ass	-171
▁1	-172
ym	-173
wijz	-174
▁C	-175
onder	-176
ijk	-177
we	-178
▁dysplasie	-179
ru	-180
▁bas	-181
▁af	-182
eri	-183
▁op	-184
ver	-185
▁of	-186
▁pass	-187
-1	-188
il	-189
te	-190
ymf	-191
biopten	-192
ige	-193
▁ch	-194
ctieve	-195
▁M	-196
▁uit	-197
ies	-198
▁la	-199
▁aanwijz	-200
▁zonder	-201
ok	-202
▁T	-203
▁niet	-204
ast	-205
▁P	-206
eer	-207
im	-208
lak	-209
▁biopt	-210
erm	-211
ose	-212
ge	-213
ire	-214
▁basaal	-215
ei	-216
▁naev	-217
▁*******	-218
▁gro	-219
▁aanwijzingen	-220
ran	-221
▁be	-222
vlak	-223
wijk	-224
▁waar	-225
lij	-226
ulair	-227
iep	-228
▁lymf	-229
cell	-230
▁2	-231
▁afwijk	-232
▁Huidbiopt	-233
▁ge	-234
sel	-235
od	-236
lier	-237
ull	-238
vull	-239
▁mat	-240
-0	-241
▁chron	-242
ef	-243
ken	-244
ri	-245
▁sp	-246
lies	-247
▁at	-248
lijm	-249
itis	-250
▁con	-251
ze	-252
aat	-253
lijmv	-254
ering	-255
yt	-256
▁groei	-257
lijmvlies	-258
ide	-259
▁aden	-260
ist	-261
▁pla	-262
of	-263
elijk	-264
▁wor	-265
ste	-266
klier	-267
▁vr	-268
umor	-269
▁huid	-270
▁afwijkingen	-271
olog	-272
ang	-273
ander	-274
▁passend	-275
▁zij	-276
▁di	-277
ant	-278
▁ne	-279
eriaal	-280
▁gering	-281
mer	-282
heel	-283
ke	-284
▁A	-285
▁rea	-286
).	-287
sectie	-288
▁chronische	-289
orm	-290
rof	-291
vas	-292
up	-293
▁derm	-294
▁over	-295
ov	-296
anvull	-297
ine	-298
ho	-299
ter	-300
yper	-301
aag	-302
20	-303
▁vrij	-304
nij	-305
▁S	-306
ap	-307
ens	-308
ris	-309
ub	-310
ib	-311
▁atyp	-312
▁te	-313
rad	-314
▁R	-315
sp	-316
efsel	-317
▁tot	-318
anderingen	-319
▁naevus	-320
cl	-321
agn	-322
▁tumor	-323
epit	-324
zo	-325
erat	-326
▁geringe	-327
▁st	-328
▁Biopt	-329
oven	-330
▁col	-331
ut	-332
▁vol	-333
vasie	-334
▁3	-335
▁kan	-336
ik	-337
ype	-338
▁hyper	-339
act	-340
ma	-341
▁veranderingen	-342
oliep	-343
omet	-344
Aanvull	-345
▁materiaal	-346
and	-347
▁actieve	-348
als	-349
▁cel	-350
▁waarin	-351
:[	-352
alis	-353
eken	-354
oed	-355
▁nod	-356
arm	-357
▁biopten	-358
ometri	-359
▁reactieve	-360
zoek	-361
ica	-362
ocarcinoom	-363
ele	-364
▁rechter	-365
itie	-366
▁zijn	-367
sc	-368
▁end	-369
▁linker	-370
atief	-371
slijmvlies	-372
ulaire	-373
ca	-374
▁De	-375
erd	-376
iff	-377
▁N	-378
▁boven	-379
ico	-380
usie	-381
ad	-382
▁mm	-383
ne	-384
veis	-385
▁V	-386
rug	-387
veisel	-388
▁adenocarcinoom	-389
esie	-390
ometrium	-391
he	-392
ment	-393
orr	-394
▁lymfklier	-395
▁verru	-396
oog	-397
Aanvulling	-398
▁plaveisel	-399
▁onderzoek	-400
ect	-401
▁volg	-402
clusie	-403
ocell	-404
erent	-405
amma	-406
ocyt	-407
▁O	-408
pre	-409
▁ged	-410
▁In	-411
eb	-412
▁aang	-413
uze	-414
imm	-415
ibro	-416
▁passen	-417
▁worden	-418
alisatie	-419
▁L	-420
ularis	-421
oon	-422
lin	-423
ifferent	-424
▁diagn	-425
erv	-426
▁maag	-427
▁meta	-428
▁laesie	-429
▁dit	-430
wez	-431
ip	-432
▁pro	-433
ecif	-434
xcisie	-435
▁kle	-436
▁er	-437
wijder	-438
▁cm	-439
weefsel	-440
▁kerat	-441
▁verruca	-442
nijvlak	-443
▁verwijder	-444
wezig	-445
inale	-446
▁0	-447
▁sch	-448
heid	-449
▁metaplasie	-450
iek	-451
ost	-452
▁colon	-453
ret	-454
▁aanget	-455
epitheel	-456
▁Excisie	-457
▁atypie	-458
yste	-459
omie	-460
grad	-461
ix	-462
gen	-463
▁verwijderd	-464
ath	-465
▁naevocell	-466
been	-467
ak	-468
-20	-469
okalisatie	-470
bre	-471
▁foc	-472
▁Het	-473
▁naevocellularis	-474
▁excisie	-475
sch	-476
▁nodulair	-477
ase	-478
olec	-479
▁seb	-480
icro	-481
ori	-482
ien	-483
▁II	-484
▁Biopten	-485
▁inf	-486
eels	-487
rum	-488
▁groeiend	-489
▁poliep	-490
orrho	-491
test	-492
▁act	-493
▁seborrho	-494
▁carcinoom	-495
och	-496
erf	-497
ou	-498
gatief	-499
▁seborrhoica	-500
do	-501
dt	-502
aire	-503
chter	-504
▁sup	-505
▁we	-506
▁ex	-507
acter	-508
▁type	-509
▁mamma	-510
staat	-511
tra	-512
ogelijk	-513
▁goed	-514
▁invasie	-515
bacter	-516
▁intest	-517
sla	-518
▁Er	-519
elico	-520
elicobacter	-521
del	-522
▁volgt	-523
yl	-524
▁metast	-525
▁wordt	-526
ositie	-527
▁4	-528
oid	-529
vol	-530
▁aanwezig	-531
form	-532
ult	-533
ologisch	-534
▁deels	-535
▁klin	-536
IN	-537
▁endometrium	-538
▁resectie	-539
▁gran	-540
rofie	-541
▁li	-542
erfic	-543
▁specif	-544
rag	-545
▁micro	-546
▁lokalisatie	-547
▁actin	-548
PV	-549
slag	-550
utatie	-551
▁hoog	-552
eratie	-553
▁pr	-554
doende	-555
euze	-556
▁superfic	-557
▁intestinale	-558
unctie	-559
▁negatief	-560
▁door	-561
▁ar	-562
per	-563
▁e	-564
▁du	-565
▁per	-566
▁Helicobacter	-567
▁dermale	-568
orp	-569
ia	-570
▁superficie	-571
iaal	-572
▁focaal	-573
ieke	-574
ific	-575
▁conclusie	-576
▁imm	-577
omp	-578
antrum	-579
len	-580
oden	-581
elan	-582
ervix	-583
▁mogelijk	-584
▁fibro	-585
ragment	-586
▁granul	-587
ong	-588
je	-589
▁metastase	-590
mat	-591
▁tub	-592
voldoende	-593
▁bet	-594
merken	-595
▁hyperplasie	-596
RA	-597
▁laag	-598
iopsie	-599
▁rug	-600
▁maligne	-601
gest	-602
las	-603
aald	-604
gradige	-605
▁melan	-606
ologie	-607
▁past	-608
ieerd	-609
▁beoor	-610
▁ook	-611
▁U	-612
▁dermat	-613
pervlak	-614
gebre	-615
ositief	-616
),	-617
▁co	-618
hist	-619
enign	-620
bij	-621
lok	-622
itt	-623
enigne	-624
▁5	-625
odenum	-626
ochem	-627
erk	-628
zien	-629
III	-630
▁uitgebre	-631
▁gedifferent	-632
▁ken	-633
▁mutatie	-634
ogen	-635
▁reik	-636
eli	-637
▁par	-638
fen	-639
omat	-640
omen	-641
▁pyl	-642
par	-643
▁aanvull	-644
eerd	-645
▁K	-646
-2	-647
▁diep	-648
▁keratose	-649
apil	-650
▁pylori	-651
ER	-652
histochem	-653
uit	-654
orpus	-655
▁min	-656
▁benigne	-657
itteken	-658
acht	-659
▁slijmvlies	-660
▁an	-661
agus	-662
▁gra	-663
▁adenoom	-664
▁kenmerken	-665
▁ac	-666
▁oppervlak	-667
oma	-668
▁diagnose	-669
ofd	-670
unt	-671
▁med	-672
▁mor	-673
ow	-674
▁HPV	-675
▁eer	-676
zij	-677
plast	-678
icaal	-679
▁ev	-680
▁lich	-681
qu	-682
▁teken	-683
scop	-684
ari	-685
▁cyste	-686
cent	-687
aan	-688
uun	-689
▁Re	-690
▁cellen	-691
▁al	-692
oide	-693
evens	-694
uc	-695
▁conform	-696
tr	-697
roffen	-698
▁superficieel	-699
ummer	-700
▁gen	-701
▁gev	-702
erende	-703
).[	-704
▁tekenen	-705
baar	-706
ulc	-707
▁/	-708
ac	-709
▁als	-710
▁dan	-711
io	-712
beeld	-713
eter	-714
sult	-715
▁prostaat	-716
nen	-717
▁sub	-718
▁epitheel	-719
▁lichen	-720
▁Z	-721
ges	-722
▁aangetroffen	-723
▁bek	-724
▁uitgebreide	-725
ab	-726
nijvlakken	-727
16	-728
ectomie	-729
▁positief	-730
IE	-731
0%	-732
De	-733
oll	-734
▁ulc	-735
▁oes	-736
▁oppervlakk	-737
▁enk	-738
epith	-739
bus	-740
▁uitslag	-741
yse	-742
▁litteken	-743
▁ontstekings	-744
ave	-745
▁hist	-746
▁atypische	-747
▁laaggradige	-748
nd	-749
/*******	-750
bla	-751
ameter	-752
▁rad	-753
18	-754
▁neus	-755
▁bes	-756
riet	-757
osis	-758
▁Maag	-759
▁papil	-760
ere	-761
dig	-762
amen	-763
olif	-764
age	-765
▁specifieke	-766
ref	-767
▁W	-768
▁gezien	-769
▁uur	-770
▁comp	-771
eerde	-772
rot	-773
elde	-774
▁actinische	-775
ion	-776
▁spriet	-777
invasie	-778
▁diagnost	-779
19	-780
epid	-781
keur	-782
▁weefsel	-783
▁path	-784
15	-785
stig	-786
dere	-787
▁sol	-788
king	-789
17	-790
▁aangetoon	-791
▁F	-792
▁infil	-793
pp	-794
IS	-795
rans	-796
▁Con	-797
▁hals	-798
▁huidexcisie	-799
alyse	-800
erde	-801
elen	-802
resectie	-803
epiderm	-804
▁rest	-805
▁betref	-806
▁aangetoond	-807
▁matig	-808
have	-809
imale	-810
▁hier	-811
ocytaire	-812
▁ter	-813
ocht	-814
▁6	-815
gestelde	-816
ouder	-817
▁sprieter	-818
22	-819
ctomie	-820
uret	-821
▁dat	-822
▁solide	-823
/*******/	-824
cellen	-825
▁microscop	-826
▁samen	-827
13	-828
ijn	-829
uring	-830
▁mar	-831
osin	-832
▁intra	-833
aaldbiopten	-834
urale	-835
osinof	-836
14	-837
epitheli	-838
ectie	-839
▁to	-840
rine	-841
▁huidbiopt	-842
EN	-843
▁mid	-844
▁aanvullend	-845
iagn	-846
enten	-847
leu	-848
ericht	-849
merg	-850
evisie	-851
ans	-852
lass	-853
▁eosinof	-854
▁enkele	-855
ctief	-856
▁voorkeur	-857
cellig	-858
na	-859
1-1	-860
ind	-861
▁th	-862
lijk	-863
iele	-864
eenmerg	-865
▁zek	-866
▁antrum	-867
▁graad	-868
▁On	-869
▁later	-870
uw	-871
ard	-872
▁samengestelde	-873
lassific	-874
▁my	-875
▁atrofie	-876
▁plaat	-877
▁duid	-878
▁best	-879
▁klein	-880
plastische	-881
unnen	-882
cor	-883
▁morbus	-884
gum	-885
oliferatie	-886
▁immuun	-887
▁kunnen	-888
vocht	-889
▁Voor	-890
endens	-891
▁fragment	-892
▁corpus	-893
▁wang	-894
▁epiderm	-895
▁ka	-896
▁naar	-897
▁afwijking	-898
uur	-899
onden	-900
]2	-901
igm	-902
urett	-903
eld	-904
▁nog	-905
gumenten	-906
▁klinische	-907
jes	-908
▁cervix	-909
Geen	-910
▁chronisch	-911
▁argumenten	-912
ell	-913
osa	-914
elijke	-915
▁7	-916
rand	-917
▁ten	-918
▁delen	-919
▁uitges	-920
▁0,	-921
ineurale	-922
paraat	-923
▁bericht	-924
▁resectievlak	-925
▁infiltr	-926
oph	-927
histochemisch	-928
▁duodenum	-929
olon	-930
▁*******,	-931
yst	-932
entr	-933
▁trans	-934
oleculaire	-935
▁onvoldoende	-936
est	-937
▁pre	-938
▁bl	-939
hoofd	-940
▁beoordel	-941
schijn	-942
00	-943
rijk	-944
▁geheel	-945
link	-946
▁classific	-947
kw	-948
▁Resectie	-949
emp	-950
epitheliale	-951
biopsie	-952
lot	-953
van	-954
▁perineurale	-955
ollic	-956
ame	-957
air	-958
▁ho	-959
▁invasieve	-960
▁deze	-961
▁gl	-962
ologische	-963
ulitis	-964
randen	-965
▁lev	-966
▁toon	-967
▁onderbeen	-968
▁verm	-969
▁End	-970
scendens	-971
▁waarbij	-972
ute	-973
▁enige	-974
▁inter	-975
▁tubulair	-976
▁i	-977
▁hem	-978
▁reikend	-979
23	-980
▁Zie	-981
▁bep	-982
▁dermatitis	-983
co	-984
oel	-985
▁bla	-986
▁ca	-987
schijnlijk	-988
▁el	-989
odem	-990
▁long	-991
▁oor	-992
eren	-993
▁schouder	-994
hal	-995
▁III	-996
loten	-997
▁toont	-998
▁meer	-999
▁Huidst	-1000
▁darm	-1001
▁peri	-1002
▁maar	-1003
▁daar	-1004
▁lymfoom	-1005
risico	-1006
leura	-1007
▁rect	-1008
owen	-1009
▁ing	-1010
2-1	-1011
omateuze	-1012
▁-	-1013
iagnost	-1014
▁verd	-1015
▁zeer	-1016
▁Colon	-1017
]0	-1018
▁lymfklieren	-1019
▁radicaal	-1020
▁nummer	-1021
inig	-1022
materiaal	-1023
10	-1024
itu	-1025
uk	-1026
kle	-1027
empor	-1028
RAS	-1029
gev	-1030
lan	-1031
▁norm	-1032
▁marge	-1033
igmoid	-1034
▁basis	-1035
▁kader	-1036
ocyten	-1037
▁1,	-1038
asis	-1039
aak	-1040
iv	-1041
CL	-1042
omy	-1043
▁overwe	-1044
▁colitis	-1045
AN	-1046
GF	-1047
pl	-1048
type	-1049
▁melanoom	-1050
ente	-1051
▁uitgesloten	-1052
▁pat	-1053
▁situ	-1054
▁vas	-1055
iepte	-1056
▁sprieterig	-1057
entu	-1058
▁bloed	-1059
min	-1060
opath	-1061
▁gast	-1062
▁klinisch	-1063
lair	-1064
igment	-1065
]*******	-1066
▁wel	-1067
▁+	-1068
▁gevonden	-1069
ud	-1070
▁analyse	-1071
▁beh	-1072
▁asp	-1073
▁achter	-1074
▁aanwezigheid	-1075
ax	-1076
21	-1077
wogen	-1078
▁Onvoldoende	-1079
▁werd	-1080
▁bovenbeen	-1081
uik	-1082
▁weinig	-1083
-3	-1084
onent	-1085
ronch	-1086
▁punctie	-1087
▁Endometrium	-1088
▁duct	-1089
▁20	-1090
entraal	-1091
ild	-1092
▁overwogen	-1093
▁beoord	-1094
ofagus	-1095
raag	-1096
pro	-1097
▁fibrose	-1098
gradig	-1099
▁ret	-1100
▁diameter	-1101
eke	-1102
▁immun	-1103
chts	-1104
GFR	-1105
▁om	-1106
ibroom	-1107
▁Bowen	-1108
diepte	-1109
▁Tevens	-1110
leas	-1111
leason	-1112
▁papill	-1113
sen	-1114
▁der	-1115
▁Revisie	-1116
ext	-1117
ophagus	-1118
▁betreft	-1119
mm	-1120
▁zie	-1121
upes	-1122
▁tempor	-1123
rea	-1124
▁proliferatie	-1125
Con	-1126
▁waarschijnlijk	-1127
ifferentiaal	-1128
▁acute	-1129
▁pathologie	-1130
▁cont	-1131
cler	-1132
▁follic	-1133
me	-1134
▁aant	-1135
▁beide	-1136
▁voorhoofd	-1137
▁duidelijke	-1138
res	-1139
rond	-1140
▁urot	-1141
nijranden	-1142
icht	-1143
leum	-1144
▁matige	-1145
▁verdacht	-1146
▁zw	-1147
▁microscopie	-1148
ET	-1149
kwab	-1150
preparaat	-1151
kom	-1152
be	-1153
▁ec	-1154
▁eventu	-1155
richt	-1156
angi	-1157
▁Urine	-1158
▁Punctie	-1159
tie	-1160
ppend	-1161
▁rectum	-1162
▁urotheel	-1163
voor	-1164
▁vet	-1165
rij	-1166
▁reactief	-1167
▁snijvlak	-1168
12	-1169
▁cyt	-1170
reactie	-1171
▁keratosis	-1172
Huid	-1173
▁besch	-1174
▁kleine	-1175
▁gastr	-1176
In	-1177
ept	-1178
▁melanocytaire	-1179
▁pati	-1180
fragment	-1181
▁onderarm	-1182
▁beenmerg	-1183
▁overweg	-1184
▁10	-1185
terus	-1186
ocerv	-1187
uodenum	-1188
initie	-1189
leuravocht	-1190
]-	-1191
-03	-1192
entie	-1193
▁schimm	-1194
ort	-1195
Deze	-1196
wand	-1197
▁pan	-1198
▁echter	-1199
lip	-1200
luit	-1201
▁Aanvull	-1202
▁oppervlakkig	-1203
▁kra	-1204
cid	-1205
▁PA	-1206
▁bodem	-1207
urettage	-1208
▁muc	-1209
▁actinica	-1210
kerat	-1211
▁reikt	-1212
NA	-1213
▁Gleason	-1214
af	-1215
ipel	-1216
oleculair	-1217
rest	-1218
▁wat	-1219
ors	-1220
▁celbeeld	-1221
blaas	-1222
▁Pro	-1223
gro	-1224
▁zou	-1225
▁̄	-1226
one	-1227
▁lip	-1228
▁sec	-1229
eur	-1230
▁(*******	-1231
aden	-1232
otische	-1233
▁temporaal	-1234
unct	-1235
-15	-1236
halve	-1237
▁oppervlakkige	-1238
▁component	-1239
ymfklier	-1240
zeem	-1241
emen	-1242
▁prim	-1243
ronchus	-1244
▁:	-1245
▁8	-1246
-10	-1247
▁specifiek	-1248
snij	-1249
angio	-1250
oet	-1251
centa	-1252
ildklier	-1253
▁bekende	-1254
IT	-1255
tu	-1256
▁vlok	-1257
▁bovenarm	-1258
▁squ	-1259
wijze	-1260
gang	-1261
▁zeker	-1262
)[	-1263
▁snijvlakken	-1264
▁j	-1265
anth	-1266
▁reg	-1267
eg	-1268
▁beoordelen	-1269
erap	-1270
▁eczeem	-1271
▁histologisch	-1272
▁stat	-1273
▁diagnostiek	-1274
IV	-1275
▁ileum	-1276
pres	-1277
▁Beeld	-1278
▁sle	-1279
▁Duodenum	-1280
-13	-1281
ont	-1282
▁12	-1283
over	-1284
▁Cervix	-1285
▁beoordeel	-1286
rom	-1287
▁Een	-1288
BD	-1289
ola	-1290
▁minimale	-1291
▁lichenoide	-1292
inf	-1293
ern	-1294
▁gr	-1295
-14	-1296
ief	-1297
orst	-1298
ipelle	-1299
poliep	-1300
iculair	-1301
upe	-1302
▁midden	-1303
ust	-1304
▁r	-1305
osus	-1306
▁ab	-1307
komstig	-1308
▁kleuring	-1309
▁eerder	-1310
▁her	-1311
ificatie	-1312
▁lateraal	-1313
unten	-1314
▁schimmel	-1315
▁waarvan	-1316
▁9	-1317
Voor	-1318
▁Maagbiopten	-1319
aarne	-1320
UL	-1321
ob	-1322
icale	-1323
cut	-1324
▁groeiwijze	-1325
-06	-1326
ium	-1327
ogene	-1328
);	-1329
AL	-1330
derm	-1331
geen	-1332
vers	-1333
erend	-1334
kn	-1335
▁EGFR	-1336
aliteit	-1337
ofibroom	-1338
▁mult	-1339
▁ascendens	-1340
▁afkomstig	-1341
-04	-1342
iale	-1343
erkt	-1344
▁aanwijzing	-1345
▁nec	-1346
atrofie	-1347
▁ad	-1348
-07	-1349
▁Prostaat	-1350
agen	-1351
ilie	-1352
▁shave	-1353
spunten	-1354
invasieve	-1355
elling	-1356
▁resp	-1357
▁exon	-1358
ond	-1359
▁epidermale	-1360
ede	-1361
cyt	-1362
ders	-1363
▁Snijvlakken	-1364
nex	-1365
-16	-1366
ces	-1367
▁hyperkerat	-1368
imaal	-1369
▁colonslijmvlies	-1370
culaire	-1371
oh	-1372
▁vermeld	-1373
ds	-1374
-09	-1375
▁name	-1376
RAF	-1377
boven	-1378
oA	-1379
ansbiopt	-1380
org	-1381
▁toto	-1382
▁fragmenten	-1383
▁2,	-1384
):[	-1385
▁Moleculaire	-1386
▁hyperplastische	-1387
orrel	-1388
oe	-1389
▁beoordeelbaar	-1390
▁ander	-1391
▁am	-1392
ocytose	-1393
▁ulceratie	-1394
rose	-1395
ename	-1396
ledig	-1397
▁eosinofiele	-1398
ecifieke	-1399
cellige	-1400
▁append	-1401
▁invasief	-1402
▁granulomen	-1403
US	-1404
▁oesofagus	-1405
alblaas	-1406
▁dermatofibroom	-1407
HPV	-1408
▁KRAS	-1409
orf	-1410
▁endocerv	-1411
▁vul	-1412
▁vlokatrofie	-1413
art	-1414
▁;	-1415
cre	-1416
ider	-1417
▁hoofd	-1418
gem	-1419
aande	-1420
cyste	-1421
-08	-1422
▁TU	-1423
-05	-1424
-4	-1425
are	-1426
▁coeur	-1427
▁zijde	-1428
▁biopsie	-1429
ruim	-1430
iameter	-1431
▁consult	-1432
ocaal	-1433
▁vari	-1434
▁ulcer	-1435
all	-1436
igo	-1437
▁ok	-1438
▁groot	-1439
▁snijranden	-1440
muc	-1441
▁bev	-1442
anden	-1443
▁littekenweefsel	-1444
▁aantoon	-1445
tern	-1446
▁alle	-1447
▁Poliep	-1448
yn	-1449
▁CD	-1450
emb	-1451
versum	-1452
▁bekend	-1453
Het	-1454
▁eventuele	-1455
CA	-1456
du	-1457
core	-1458
zijds	-1459
▁lever	-1460
▁differentiaal	-1461
eptor	-1462
initieve	-1463
AAN	-1464
wel	-1465
▁dist	-1466
uwe	-1467
▁maagslijmvlies	-1468
cord	-1469
▁ern	-1470
iviteit	-1471
▁dors	-1472
▁eryt	-1473
ulatie	-1474
rechter	-1475
iesco	-1476
bek	-1477
▁correl	-1478
opathie	-1479
▁infectie	-1480
-5	-1481
▁Op	-1482
▁opn	-1483
▁score	-1484
▁mes	-1485
▁minder	-1486
▁Lymfklier	-1487
und	-1488
▁pT	-1489
▁twe	-1490
▁BRAF	-1491
▁Mamma	-1492
▁oksel	-1493
▁neu	-1494
arret	-1495
hyper	-1496
▁klier	-1497
▁contact	-1498
▁verricht	-1499
▁(2	-1500
ohs	-1501
linker	-1502
cordant	-1503
▁diagnostisch	-1504
▁superficiele	-1505
ith	-1506
unne	-1507
OR	-1508
▁borst	-1509
▁eosinofilie	-1510
eus	-1511
▁oog	-1512
zijde	-1513
▁sigmoid	-1514
▁(1	-1515
▁overige	-1516
▁sc	-1517
sect	-1518
vorm	-1519
▁oesophagus	-1520
▁immuno	-1521
▁afwezig	-1522
stige	-1523
▁thor	-1524
▁secret	-1525
selijk	-1526
lank	-1527
oping	-1528
icitis	-1529
▁Ch	-1530
▁fib	-1531
▁licht	-1532
arrett	-1533
▁normaal	-1534
iderzijds	-1535
](	-1536
nummer	-1537
iagnostiek	-1538
▁Pleuravocht	-1539
GS	-1540
Zie	-1541
▁grens	-1542
▁toename	-1543
▁ductaal	-1544
▁loc	-1545
▁15	-1546
iding	-1547
▁gem	-1548
▁evid	-1549
▁blaas	-1550
men	-1551
▁nodulaire	-1552
ts	-1553
eth	-1554
▁ov	-1555
▁centraal	-1556
-17	-1557
▁chol	-1558
▁sterk	-1559
unctaat	-1560
▁elders	-1561
▁cr	-1562
▁bepal	-1563
▁die	-1564
knoping	-1565
▁Oes	-1566
▁geb	-1567
rechts	-1568
vang	-1569
▁pol	-1570
▁rand	-1571
minste	-1572
▁eerdere	-1573
darm	-1574
eiomy	-1575
▁weke	-1576
angioom	-1577
▁spong	-1578
denking	-1579
kleuring	-1580
mw	-1581
▁hel	-1582
eklier	-1583
▁infiltratie	-1584
ukje	-1585
elegen	-1586
ceptor	-1587
▁aanknoping	-1588
Conclusie	-1589
links	-1590
patie	-1591
preking	-1592
▁grensvlak	-1593
▁lipoom	-1594
▁lab	-1595
irpatie	-1596
lokdarm	-1597
▁spongi	-1598
▁vetweefsel	-1599
▁beiderzijds	-1600
lam	-1601
▁ser	-1602
aaldbiopt	-1603
aten	-1604
▁subcut	-1605
neu	-1606
organ	-1607
corpus	-1608
▁celrijk	-1609
▁pigment	-1610
▁Consult	-1611
▁perivas	-1612
▁Aanvullend	-1613
▁verdenking	-1614
▁gedacht	-1615
tuig	-1616
▁Barrett	-1617
da	-1618
▁hand	-1619
▁leiomy	-1620
▁risico	-1621
▁*******/	-1622
▁Diagnostiek	-1623
▁(0	-1624
▁diepe	-1625
ardia	-1626
▁buik	-1627
▁morf	-1628
ectiev	-1629
▁haar	-1630
▁zekere	-1631
▁*******.[	-1632
▁concordant	-1633
met	-1634
rus	-1635
▁IV	-1636
▁overtuig	-1637
1,	-1638
ich	-1639
▁onbek	-1640
digheid	-1641
ectievelijk	-1642
oorn	-1643
▁overwegend	-1644
PA	-1645
entatief	-1646
▁transversum	-1647
▁verk	-1648
▁ontvang	-1649
▁aantoonbaar	-1650
ene	-1651
naast	-1652
plastisch	-1653
ISH	-1654
irr	-1655
stat	-1656
naaldbiopten	-1657
usc	-1658
Aanvullend	-1659
▁resectievlakken	-1660
teri	-1661
▁Mohs	-1662
▁opnemen	-1663
53	-1664
▁genen	-1665
▁1.	-1666
▁ernstige	-1667
hyperplasie	-1668
ieuwe	-1669
▁dd	-1670
▁patient	-1671
▁lijk	-1672
▁scler	-1673
▁volledig	-1674
▁for	-1675
▁volgens	-1676
▁;[	-1677
▁lent	-1678
▁or	-1679
▁dysplastische	-1680
▁maagantrum	-1681
emat	-1682
ocellulair	-1683
▁tenminste	-1684
▁moleculair	-1685
VUL	-1686
erapie	-1687
▁Ver	-1688
▁gel	-1689
traat	-1690
lu	-1691
▁me	-1692
roma	-1693
▁hooggradig	-1694
tumor	-1695
▁plas	-1696
VULL	-1697
▁verw	-1698
▁dermis	-1699
ymfoom	-1700
ront	-1701
▁epidermis	-1702
▁ER	-1703
lammat	-1704
▁Colonbiopten	-1705
▁laterale	-1706
ench	-1707
▁kunt	-1708
organis	-1709
▁Conclusie	-1710
malign	-1711
leg	-1712
ductie	-1713
▁plaatse	-1714
▁mutaties	-1715
OS	-1716
kin	-1717
arium	-1718
▁Huidbiopsie	-1719
▁ger	-1720
▁gelegen	-1721
iasis	-1722
▁coupes	-1723
▁cytologisch	-1724
▁overtuigende	-1725
▁cholec	-1726
▁evidente	-1727
CIN	-1728
▁Ge	-1729
ystectomie	-1730
▁inz	-1731
fende	-1732
▁squam	-1733
lammato	-1734
▁kleincellig	-1735
gin	-1736
▁Pipelle	-1737
▁he	-1738
bare	-1739
ten	-1740
igine	-1741
visie	-1742
▁gastritis	-1743
▁hooggradige	-1744
▁plaatselijk	-1745
nog	-1746
fect	-1747
▁status	-1748
iescoupe	-1749
11	-1750
▁dient	-1751
adenoom	-1752
▁overgang	-1753
zie	-1754
▁derhalve	-1755
▁zwelling	-1756
histochemie	-1757
▁(3	-1758
enchym	-1759
aur	-1760
eling	-1761
▁nier	-1762
▁TUR	-1763
shave	-1764
▁lymfeklier	-1765
▁flank	-1766
AS	-1767
▁zekerheid	-1768
▁HER	-1769
▁ges	-1770
▁bespreking	-1771
hor	-1772
igg	-1773
▁forse	-1774
▁eerste	-1775
▁tumorcellen	-1776
NM	-1777
-02-1	-1778
▁schildklier	-1779
gel	-1780
▁andere	-1781
eft	-1782
room	-1783
▁Dit	-1784
▁Poliepectomie	-1785
ussen	-1786
▁uitbre	-1787
▁placenta	-1788
ren	-1789
▁diff	-1790
▁myel	-1791
ore	-1792
ecum	-1793
rouw	-1794
lasse	-1795
▁Gaarne	-1796
ocri	-1797
ON	-1798
▁uterus	-1799
ez	-1800
▁tel	-1801
auriculair	-1802
proken	-1803
uringen	-1804
▁doorsnij	-1805
/0	-1806
ppende	-1807
▁vragen	-1808
▁11	-1809
▁krap	-1810
▁tuba	-1811
▁Duodenumbiopten	-1812
iaan	-1813
▁gland	-1814
▁IBD	-1815
ariaat	-1816
▁folliculitis	-1817
▁secretariaat	-1818
uren	-1819
▁behand	-1820
geb	-1821
▁Bronchus	-1822
uis	-1823
alsnog	-1824
▁adnex	-1825
▁lijkt	-1826
▁Def	-1827
▁tra	-1828
▁Cholec	-1829
▁cholecyst	-1830
ressie	-1831
▁mediaal	-1832
analyse	-1833
ithiasis	-1834
-6	-1835
ouw	-1836
▁Huidstukje	-1837
Biopt	-1838
AANVULL	-1839
2-20	-1840
▁extra	-1841
ginn	-1842
▁14	-1843
▁ap	-1844
▁vaat	-1845
▁aspecifieke	-1846
▁granulomateuze	-1847
vestig	-1848
▁primaire	-1849
lav	-1850
curettage	-1851
▁Slijmvlies	-1852
▁betreffende	-1853
our	-1854
▁front	-1855
▁plasma	-1856
indingen	-1857
ING	-1858
opla	-1859
-01-1	-1860
ikel	-1861
▁ant	-1862
deling	-1863
▁tubul	-1864
ug	-1865
ement	-1866
iatie	-1867
1-20	-1868
lokje	-1869
▁papillair	-1870
▁Hoog	-1871
iteerde	-1872
Er	-1873
mucosa	-1874
lokalisatie	-1875
ligg	-1876
luiten	-1877
▁repres	-1878
▁Appende	-1879
▁respectievelijk	-1880
▁dunne	-1881
▁volgen	-1882
va	-1883
ane	-1884
adig	-1885
▁squameuze	-1886
▁13	-1887
▁def	-1888
▁revisie	-1889
maligniteit	-1890
▁classificeren	-1891
itein	-1892
▁stroma	-1893
▁papilloom	-1894
▁perivasculaire	-1895
▁hemat	-1896
▁Beenmerg	-1897
▁dorsaal	-1898
aris	-1899
ille	-1900
▁plan	-1901
vorming	-1902
▁aanvullende	-1903
▁appendicitis	-1904
inaal	-1905
score	-1906
▁ster	-1907
positief	-1908
omorf	-1909
▁lies	-1910
▁level	-1911
▁slecht	-1912
▁%	-1913
aam	-1914
▁verder	-1915
▁beoordeling	-1916
ITIE	-1917
effect	-1918
▁tussen	-1919
▁endocervicale	-1920
alc	-1921
lop	-1922
ons	-1923
dien	-1924
▁Her	-1925
odulair	-1926
▁descendens	-1927
geven	-1928
▁hemangioom	-1929
eveel	-1930
anthoom	-1931
sectier	-1932
▁tevens	-1933
▁sprieterige	-1934
▁19	-1935
itslag	-1936
gra	-1937
lid	-1938
Huidbiopt	-1939
▁bepaling	-1940
▁spongiotische	-1941
epat	-1942
▁sterke	-1943
▁infiltrerend	-1944
▁microscopische	-1945
Revisie	-1946
ista	-1947
▁mil	-1948
ustype	-1949
▁panel	-1950
▁hoeveel	-1951
▁ovarium	-1952
/20	-1953
▁AL	-1954
organismen	-1955
▁uitbreiding	-1956
2,	-1957
25	-1958
CIS	-1959
▁Cyt	-1960
▁beginn	-1961
arcinoma	-1962
ure	-1963
▁max	-1964
arcoom	-1965
▁hoeveelheid	-1966
▁granulocyten	-1967
oth	-1968
▁dank	-1969
▁bevestig	-1970
▁lymfocytose	-1971
▁St	-1972
▁inst	-1973
agitis	-1974
▁spier	-1975
▁uitein	-1976
receptor	-1977
▁Galblaas	-1978
▁endometri	-1979
▁schimmels	-1980
ging	-1981
▁Appendectomie	-1982
▁vulg	-1983
▁Voorts	-1984
▁multif	-1985
▁̄d	-1986
grond	-1987
▁retour	-1988
atell	-1989
▁vulgaris	-1990
▁Huidshave	-1991
▁verwerkt	-1992
▁epitheliale	-1993
▁Sp	-1994
▁onbekend	-1995
EF	-1996
▁16	-1997
illa	-1998
spoel	-1999
▁prox	-2000
erminale	-2001
▁lentigo	-2002
▁twee	-2003
▁vasc	-2004
extirpatie	-2005
▁Naaldbiopten	-2006
zen	-2007
▁Bij	-2008
steking	-2009
urettement	-2010
▁invasiediepte	-2011
▁Pla	-2012
▁vaso	-2013
lammatoire	-2014
loc	-2015
▁dr	-2016
linisch	-2017
▁mediale	-2018
▁frontaal	-2019
▁CIN	-2020
iardia	-2021
BB	-2022
reid	-2023
ruct	-2024
▁<	-2025
omer	-2026
isexcisie	-2027
SI	-2028
wang	-2029
▁bot	-2030
▁extern	-2031
▁le	-2032
onen	-2033
gemaak	-2034
▁bevindingen	-2035
EFIN	-2036
--	-2037
▁typ	-2038
neden	-2039
▁derden	-2040
▁moleculaire	-2041
ft	-2042
vert	-2043
▁ALK	-2044
▁recid	-2045
irriteerde	-2046
▁=	-2047
onale	-2048
▁perif	-2049
EFINITIE	-2050
diameter	-2051
negatief	-2052
▁kleuringen	-2053
▁no	-2054
▁zo	-2055
▁cyst	-2056
▁Uterus	-2057
▁bloeding	-2058
indweefsel	-2059
▁representatief	-2060
low	-2061
genomen	-2062
CH	-2063
▁ruim	-2064
esda	-2065
▁angio	-2066
▁Giardia	-2067
▁ax	-2068
aarde	-2069
▁urine	-2070
▁2.	-2071
rake	-2072
▁nas	-2073
generatie	-2074
▁classificerende	-2075
▁mac	-2076
▁onge	-2077
▁naast	-2078
▁classificatie	-2079
epel	-2080
ethesda	-2081
▁sprake	-2082
iculaire	-2083
▁coecum	-2084
oedelijk	-2085
▁intraderm	-2086
▁grootcellig	-2087
▁poliepectomie	-2088
▁post	-2089
buik	-2090
anger	-2091
behor	-2092
▁beho	-2093
agin	-2094
trof	-2095
▁eryth	-2096
▁thorax	-2097
gemaakte	-2098
,5	-2099
lab	-2100
▁int	-2101
ositieve	-2102
clerose	-2103
▁bijbehor	-2104
ST	-2105
▁det	-2106
▁pathogene	-2107
ied	-2108
▁sluiten	-2109
veranderingen	-2110
▁vorm	-2111
punctie	-2112
▁bijbehorende	-2113
sori	-2114
vall	-2115
▁geh	-2116
plificatie	-2117
oken	-2118
▁necrot	-2119
sectieranden	-2120
aard	-2121
▁veel	-2122
▁nader	-2123
blast	-2124
▁Daar	-2125
▁glomer	-2126
roliferatie	-2127
▁maagcorpus	-2128
▁Prostaatbiopten	-2129
VE	-2130
▁DNA	-2131
LO	-2132
▁18	-2133
▁FISH	-2134
ifferentiatie	-2135
alp	-2136
▁cran	-2137
▁bindweefsel	-2138
RE	-2139
ila	-2140
mid	-2141
▁Ig	-2142
▁neuro	-2143
mb	-2144
bra	-2145
odg	-2146
▁dis	-2147
antie	-2148
▁zijs	-2149
▁verander	-2150
-8	-2151
▁PR	-2152
▁gep	-2153
erkte	-2154
▁proces	-2155
▁slokdarm	-2156
▁therapie	-2157
▁uits	-2158
odgkin	-2159
hoek	-2160
amm	-2161
evlak	-2162
▁mucosa	-2163
▁hyperkeratose	-2164
LE	-2165
osie	-2166
▁gew	-2167
▁kap	-2168
1.	-2169
▁geirriteerde	-2170
▁Niet	-2171
alcificatie	-2172
zicht	-2173
▁betrouw	-2174
▁dermaal	-2175
GIE	-2176
iseerd	-2177
▁Biopsie	-2178
▁ontstoken	-2179
▁laaggradig	-2180
▁dig	-2181
-11-1	-2182
▁spoel	-2183
orpustype	-2184
.3	-2185
ameus	-2186
inder	-2187
▁opvall	-2188
kenmerken	-2189
▁ventraal	-2190
▁Cervixbiopt	-2191
END	-2192
her	-2193
▁30	-2194
ischem	-2195
rofiel	-2196
▁variant	-2197
▁vasculitis	-2198
▁cir	-2199
▁diepere	-2200
▁primair	-2201
Huidexcisie	-2202
▁.	-2203
arge	-2204
evus	-2205
▁NGS	-2206
iekte	-2207
▁dieper	-2208
▁erosie	-2209
▁distale	-2210
▁MET	-2211
▁ext	-2212
itaal	-2213
neevlak	-2214
▁rond	-2215
infil	-2216
ocriene	-2217
▁doorgemaakte	-2218
▁DD	-2219
asus	-2220
otisch	-2221
centage	-2222
▁pancre	-2223
▁beschadig	-2224
▁sy	-2225
▁zover	-2226
nie	-2227
▁25	-2228
▁lob	-2229
▁Conform	-2230
▁origine	-2231
▁granuloma	-2232
rijp	-2233
groei	-2234
uscel	-2235
▁psori	-2236
▁reactie	-2237
▁uitgebreid	-2238
▁Weke	-2239
▁arch	-2240
▁blij	-2241
ieerde	-2242
oplasie	-2243
▁planus	-2244
▁17	-2245
otis	-2246
▁mic	-2247
itone	-2248
isatie	-2249
▁prostaatbiopten	-2250
-7	-2251
▁cryp	-2252
▁ischem	-2253
▁gefragment	-2254
-18	-2255
exon	-2256
▁geg	-2257
26	-2258
▁ulcus	-2259
TIE	-2260
atori	-2261
▁Mat	-2262
iciteit	-2263
HO	-2264
▁Imm	-2265
▁regio	-2266
locatie	-2267
schouder	-2268
▁vooralsnog	-2269
pret	-2270
roon	-2271
▁diepte	-2272
▁terminale	-2273
▁gediagnost	-2274
▁localisatie	-2275
▁fibroadenoom	-2276
rocyt	-2277
▁deel	-2278
olaire	-2279
▁positieve	-2280
▁Huidstansbiopt	-2281
nt	-2282
enk	-2283
vies	-2284
▁Hier	-2285
1;	-2286
▁PD	-2287
▁Huidstans	-2288
▁intradermale	-2289
▁nr	-2290
-12-1	-2291
▁regressie	-2292
30	-2293
ollikel	-2294
▁Definitieve	-2295
▁Colonslijmvlies	-2296
iA	-2297
PCL	-2298
▁nek	-2299
eliak	-2300
pressie	-2301
▁hoogte	-2302
▁hypertrof	-2303
▁papillomat	-2304
▁TP	-2305
▁com	-2306
▁achtergrond	-2307
ce	-2308
asaal	-2309
scite	-2310
ructuren	-2311
acanthoom	-2312
icaliteit	-2313
-19	-2314
erg	-2315
▁kerato	-2316
▁neusrug	-2317
▁leiomyoom	-2318
▁correlatie	-2319
St	-2320
illeus	-2321
vlakken	-2322
▁necrose	-2323
rush	-2324
klein	-2325
▁kliniek	-2326
▁carcinoma	-2327
▁voet	-2328
ndroom	-2329
▁hepat	-2330
▁gegevens	-2331
▁amplificatie	-2332
CC	-2333
TNM	-2334
▁non	-2335
▁vir	-2336
zocht	-2337
▁caud	-2338
eliakie	-2339
▁nieuwe	-2340
hr	-2341
▁beschouw	-2342
▁Lev	-2343
▁knie	-2344
uus	-2345
▁enkel	-2346
▁recidief	-2347
▁maagbiopten	-2348
▁multifocaal	-2349
ulus	-2350
scites	-2351
▁mammacarcinoom	-2352
-13/*******/	-2353
▁all	-2354
▁focus	-2355
▁meest	-2356
▁nodus	-2357
amelijk	-2358
▁Snijvlak	-2359
▁cil	-2360
br	-2361
opoe	-2362
▁Invasie	-2363
▁vermoedelijk	-2364
AR	-2365
ees	-2366
flu	-2367
▁Rad	-2368
▁lum	-2369
wijzig	-2370
▁verslag	-2371
▁lymfocyten	-2372
-)	-2373
GE	-2374
MOR	-2375
laire	-2376
atelliet	-2377
▁squameus	-2378
▁uitsluit	-2379
▁coeliakie	-2380
▁beginnende	-2381
▁et	-2382
▁zoals	-2383
▁beperkte	-2384
cellymfoom	-2385
▁bed	-2386
▁blokje	-2387
▁verdere	-2388
▁bovenkwab	-2389
▁morfologisch	-2390
HM	-2391
-21	-2392
▁IN	-2393
osit	-2394
activiteit	-2395
▁Cytologische	-2396
▁rel	-2397
ooglid	-2398
▁Oesophagus	-2399
raak	-2400
▁dik	-2401
▁variatie	-2402
assoc	-2403
micro	-2404
▁fibros	-2405
▁Daarnaast	-2406
wege	-2407
▁toe	-2408
eleide	-2409
zonder	-2410
▁ingez	-2411
▁*******)	-2412
AANVULLEND	-2413
rat	-2414
ven	-2415
▁ob	-2416
opoese	-2417
fragmenten	-2418
▁doorsnijd	-2419
▁1:	-2420
▁bestaande	-2421
2-	-2422
lex	-2423
urg	-2424
brauw	-2425
▁middel	-2426
enkbrauw	-2427
namelijk	-2428
▁glomerul	-2429
▁Sch	-2430
▁Tumor	-2431
gegeven	-2432
iagnose	-2433
▁micron	-2434
▁parotis	-2435
▁behaarde	-2436
heden	-2437
reerde	-2438
▁handrug	-2439
zaak	-2440
▁medi	-2441
▁Gezien	-2442
▁onderzocht	-2443
alk	-2444
roh	-2445
▁station	-2446
alcificaties	-2447
▁ontstekingsrest	-2448
24	-2449
NB	-2450
iver	-2451
rohn	-2452
▁onderlip	-2453
▁vriescoupe	-2454
roei	-2455
▁bul	-2456
▁sla	-2457
atieve	-2458
CBD	-2459
graad	-2460
▁uteri	-2461
▁hierin	-2462
elp	-2463
▁1,5	-2464
▁degeneratie	-2465
▁22	-2466
anel	-2467
▁(0/	-2468
▁slechts	-2469
OM	-2470
lar	-2471
icus	-2472
▁beste	-2473
▁lichte	-2474
▁diffuus	-2475
▁DEFINITIE	-2476
▁instantie	-2477
Na	-2478
duid	-2479
schap	-2480
spraak	-2481
▁slaap	-2482
Biopten	-2483
▁subcutis	-2484
▁syndroom	-2485
▁naaldbiopten	-2486
gte	-2487
rac	-2488
▁arm	-2489
▁ple	-2490
irurg	-2491
itect	-2492
stand	-2493
▁even	-2494
schelp	-2495
▁Crohn	-2496
▁tonen	-2497
▁axilla	-2498
▁Differentiaal	-2499
rt	-2500
-23	-2501
▁Tub	-2502
▁crypt	-2503
▁celarm	-2504
▁Oesofagus	-2505
▁neoplasie	-2506
HMH	-2507
imp	-2508
▁GE	-2509
▁cl	-2510
▁pse	-2511
innen	-2512
oupes	-2513
▁lamb	-2514
▁eventueel	-2515
-9	-2516
AI	-2517
ade	-2518
erden	-2519
▁lymfocytaire	-2520
ikte	-2521
punt	-2522
quor	-2523
apula	-2524
iform	-2525
formatie	-2526
▁Mogelijk	-2527
▁hr	-2528
leugel	-2529
Mutatie	-2530
▁acanth	-2531
selklier	-2532
▁CM	-2533
▁anus	-2534
▁werden	-2535
▁zijdigheid	-2536
Bij	-2537
▁(4	-2538
▁EB	-2539
vrij	-2540
vleugel	-2541
▁focale	-2542
▁meerdere	-2543
kleincellig	-2544
▁ed	-2545
▁cut	-2546
olifer	-2547
rogeen	-2548
stitie	-2549
▁gevol	-2550
▁klasse	-2551
▁wenkbrauw	-2552
▁opvallende	-2553
▁cholecystitis	-2554
.(	-2555
ill	-2556
huid	-2557
▁DCIS	-2558
middel	-2559
strijk	-2560
▁atypisch	-2561
▁pancreas	-2562
▁ontvangen	-2563
eu	-2564
asen	-2565
cont	-2566
eron	-2567
▁Indien	-2568
▁Placenta	-2569
▁bil	-2570
iologisch	-2571
proliferatie	-2572
rant	-2573
urie	-2574
▁musc	-2575
▁Focaal	-2576
▁histologische	-2577
▁verruc	-2578
▁voornamelijk	-2579
▁Maagslijmvlies	-2580
eek	-2581
▁24	-2582
▁nee	-2583
▁weken	-2584
▁ulcerosa	-2585
▁onderkwab	-2586
raagt	-2587
▁romp	-2588
naevus	-2589
th	-2590
ark	-2591
▁3,	-2592
▁Over	-2593
adrant	-2594
Consult	-2595
▁doorsnijdingen	-2596
▁21	-2597
▁Na	-2598
derende	-2599
▁Uitslag	-2600
athologie	-2601
onderzoek	-2602
▁translocatie	-2603
ui	-2604
emd	-2605
hol	-2606
leet	-2607
▁Met	-2608
uizen	-2609
ibiaal	-2610
▁Shave	-2611
iverende	-2612
▁ontvangt	-2613
ulatieweefsel	-2614
mon	-2615
▁uw	-2616
chog	-2617
rista	-2618
▁editie	-2619
▁onderrug	-2620
itale	-2621
▁distaal	-2622
▁sclerosus	-2623
2/	-2624
eve	-2625
itus	-2626
▁bronchus	-2627
▁correleren	-2628
▁infiltraat	-2629
▁definitieve	-2630
50	-2631
▁py	-2632
▁mucine	-2633
▁hooguit	-2634
▁inflammatoire	-2635
con	-2636
▁1/	-2637
hand	-2638
groep	-2639
reductie	-2640
▁chirurg	-2641
▁normale	-2642
laviculair	-2643
▁onderligg	-2644
▁ulcererende	-2645
VI	-2646
-15/	-2647
ruik	-2648
▁(10	-2649
▁̄de	-2650
wijzigd	-2651
▁blijft	-2652
estrogeen	-2653
▁*******:	-2654
coch	-2655
sten	-2656
regen	-2657
gesteron	-2658
▁resectieranden	-2659
efr	-2660
gevo	-2661
▁Cel	-2662
egment	-2663
▁gebied	-2664
ovilleus	-2665
99	-2666
▁J	-2667
▁(8	-2668
▁BR	-2669
blad	-2670
▁ROS	-2671
▁sug	-2672
cochle	-2673
▁tepel	-2674
▁preparaat	-2675
▁psoriasis	-2676
▁Aanvullende	-2677
▁gediagnostic	-2678
▁darmslijmvlies	-2679
ng	-2680
led	-2681
▁aanv	-2682
astase	-2683
kwadrant	-2684
eekselklier	-2685
ereus	-2686
ecrose	-2687
▁actief	-2688
▁totaal	-2689
infiltraat	-2690
▁gastropathie	-2691
IJ	-2692
USIE	-2693
door	-2694
owel	-2695
▁mast	-2696
eringe	-2697
▁profiel	-2698
▁behandeling	-2699
▁basocellulair	-2700
CLUSIE	-2701
▁atrof	-2702
dis	-2703
eid	-2704
▁cell	-2705
▁kaak	-2706
▁segment	-2707
▁lymfoide	-2708
▁Beenmergbiopt	-2709
DI	-2710
tal	-2711
▁abce	-2712
waliteit	-2713
▁uitspraak	-2714
▁plasmacellen	-2715
DS	-2716
LA	-2717
sa	-2718
inus	-2719
▁craniaal	-2720
▁galblaas	-2721
▁corpustype	-2722
MR	-2723
ank	-2724
▁28	-2725
emie	-2726
spot	-2727
edarm	-2728
reemd	-2729
contin	-2730
dermat	-2731
reslow	-2732
▁bedraagt	-2733
▁papillomatosus	-2734
▁26	-2735
▁Li	-2736
hals	-2737
lymf	-2738
lijden	-2739
▁differentiatie	-2740
28	-2741
]20	-2742
▁23	-2743
▁Ook	-2744
▁mon	-2745
Tumor	-2746
otspot	-2747
reg	-2748
▁HP	-2749
neus	-2750
reep	-2751
▁gec	-2752
▁tox	-2753
▁Hist	-2754
laesie	-2755
▁suggest	-2756
▁Diameter	-2757
ben	-2758
▁27	-2759
impl	-2760
▁zal	-2761
▁pret	-2762
▁opruim	-2763
ONCLUSIE	-2764
ysplasie	-2765
▁geassoc	-2766
▁mediaan	-2767
▁tr	-2768
uptu	-2769
▁NRAS	-2770
▁gelaat	-2771
▁scapula	-2772
▁gal	-2773
▁casus	-2774
▁aspect	-2775
▁binnen	-2776
zijdigheid	-2777
▁neusvleugel	-2778
▁spierweefsel	-2779
-00	-2780
-16/	-2781
▁CMV	-2782
▁onc	-2783
▁ste	-2784
lopig	-2785
▁histi	-2786
ocervix	-2787
▁sereus	-2788
▁reexcisie	-2789
▁Bla	-2790
onderbeen	-2791
▁folliculaire	-2792
2.	-2793
ERI	-2794
equ	-2795
▁kin	-2796
diagnose	-2797
TAL	-2798
▁29	-2799
aria	-2800
lijn	-2801
▁0,5	-2802
▁hyp	-2803
▁Crista	-2804
▁Verder	-2805
pretatie	-2806
▁caudaal	-2807
▁reuscel	-2808
▁*******.	-2809
bin	-2810
ple	-2811
issel	-2812
▁punt	-2813
ofagitis	-2814
▁appendix	-2815
▁lymfangio	-2816
▁oorschelp	-2817
▁suggestief	-2818
ars	-2819
▁drie	-2820
parenchym	-2821
histochemische	-2822
▁endocervicaal	-2823
▁tubulovilleus	-2824
▁gefragmenteerd	-2825
3.	-2826
med	-2827
unn	-2828
▁hy	-2829
▁cholel	-2830
▁architect	-2831
▁verruceuze	-2832
▁abcederende	-2833
▁fibroserende	-2834
▁mammaweefsel	-2835
ynov	-2836
rusor	-2837
ulare	-2838
▁uitrijp	-2839
▁bovenlip	-2840
▁helicobacter	-2841
▁infiltratieve	-2842
TU	-2843
opt	-2844
typ	-2845
▁Ad	-2846
▁uret	-2847
initief	-2848
▁Append	-2849
▁thorac	-2850
▁mediast	-2851
▁plaveiselcel	-2852
▁duodenumbiopten	-2853
46	-2854
95	-2855
ude	-2856
ume	-2857
itoneum	-2858
klinisch	-2859
chogeleide	-2860
▁bijzonder	-2861
40	-2862
MA	-2863
comp	-2864
-2023	-2865
▁zowel	-2866
▁geruptu	-2867
▁zwanger	-2868
▁verkregen	-2869
▁pretibiaal	-2870
▁uitgesproken	-2871
▁zwangerschap	-2872
▁cholelithiasis	-2873
HE	-2874
▁aantal	-2875
▁lastig	-2876
follikel	-2877
▁Al	-2878
gens	-2879
akerat	-2880
▁vulva	-2881
eenbeen	-2882
MF	-2883
ings	-2884
▁dep	-2885
▁tegen	-2886
▁schade	-2887
stitiele	-2888
eesmiddel	-2889
▁betrouwbare	-2890
ann	-2891
boog	-2892
▁BRCA	-2893
▁locatie	-2894
▁curettage	-2895
▁expressie	-2896
-14/*******/	-2897
▁Invasiediepte	-2898
▁opruimreactie	-2899
ici	-2900
rik	-2901
▁3.	-2902
▁sep	-2903
▁gest	-2904
ziekte	-2905
▁fibre	-2906
▁vagin	-2907
▁arteri	-2908
▁micros	-2909
iserende	-2910
▁prolifer	-2911
▁tumorvrij	-2912
ocol	-2913
▁dub	-2914
▁maximale	-2915
▁pl	-2916
ilia	-2917
waar	-2918
▁cor	-2919
▁Deze	-2920
▁krab	-2921
▁klierb	-2922
▁Bethesda	-2923
▁sneevlak	-2924
▁radicaliteit	-2925
Op	-2926
PI	-2927
ive	-2928
exist	-2929
▁been	-2930
pigment	-2931
▁herhal	-2932
▁virale	-2933
▁ooghoek	-2934
dermatitis	-2935
▁PCR	-2936
▁mit	-2937
▁tal	-2938
andib	-2939
▁fund	-2940
▁gaarne	-2941
litteken	-2942
▁Ascites	-2943
▁ingreep	-2944
▁cilinder	-2945
▁onderver	-2946
icum	-2947
ermat	-2948
▁kuit	-2949
entrum	-2950
iratie	-2951
otheli	-2952
▁inzend	-2953
skenmerken	-2954
▁pleuravocht	-2955
raf	-2956
▁PAS	-2957
▁leuk	-2958
▁tong	-2959
▁verb	-2960
▁danwel	-2961
▁detrusor	-2962
▁proximaal	-2963
▁Bronchusspoel	-2964
▁speekselklier	-2965
▁bijzonderheden	-2966
▁Ex	-2967
▁via	-2968
▁slijm	-2969
▁welke	-2970
aardige	-2971
gevoerd	-2972
▁metastasen	-2973
▁adenomateuze	-2974
▁geneesmiddel	-2975
asc	-2976
▁tri	-2977
▁test	-2978
bovenbeen	-2979
endocriene	-2980
▁Huidresectie	-2981
atum	-2982
dens	-2983
lich	-2984
ylin	-2985
▁Immuun	-2986
▁basale	-2987
▁CONCLUSIE	-2988
▁colonbiopten	-2989
▁geruptureerde	-2990
oloog	-2991
▁verh	-2992
-11-20	-2993
afwijk	-2994
necrose	-2995
oratori	-2996
richting	-2997
▁Appendix	-2998
▁bovenrug	-2999
27	-3000
CHT	-3001
ria	-3002
romb	-3003
dikte	-3004
erfor	-3005
▁sarc	-3006
▁oesofagitis	-3007
aams	-3008
acte	-3009
▁ingroei	-3010
osclerose	-3011
specifieke	-3012
continentie	-3013
▁intestinaal	-3014
lia	-3015
▁ann	-3016
icula	-3017
emband	-3018
otheel	-3019
oratorium	-3020
▁punctaat	-3021
PE	-3022
Neu	-3023
ity	-3024
osen	-3025
▁helix	-3026
▁retro	-3027
▁divert	-3028
▁inclusie	-3029
▁nodularis	-3030
▁Resectievlakken	-3031
oo	-3032
DER	-3033
erior	-3034
acteri	-3035
▁elast	-3036
▁spreid	-3037
▁parakerat	-3038
▁zijsnijvlak	-3039
eker	-3040
atroon	-3041
actieve	-3042
▁Liquor	-3043
pervlakk	-3044
▁Geringe	-3045
▁context	-3046
▁uiteinden	-3047
▁structuren	-3048
Ad	-3049
au	-3050
OLE	-3051
▁Ac	-3052
-2021	-3053
▁onderzochte	-3054
Stv	-3055
▁PI	-3056
▁was	-3057
▁scalp	-3058
▁oorzaak	-3059
▁folliculair	-3060
DH	-3061
iel	-3062
▁Is	-3063
cidu	-3064
ammap	-3065
bodem	-3066
▁Rect	-3067
-02-20	-3068
▁random	-3069
riescoupe	-3070
▁beoordeeld	-3071
▁Gleasonscore	-3072
33	-3073
dyl	-3074
enc	-3075
ura	-3076
edeem	-3077
tiele	-3078
opulatie	-3079
cochleaat	-3080
▁uiteinde	-3081
curettement	-3082
▁transformatie	-3083
igmoA	-3084
oplas	-3085
▁poliepen	-3086
▁spreidend	-3087
▁haarfollikel	-3088
▁schouderblad	-3089
heids	-3090
holte	-3091
▁kapsel	-3092
▁toegenomen	-3093
Imm	-3094
ced	-3095
use	-3096
▁En	-3097
▁Gen	-3098
▁los	-3099
oelig	-3100
ograf	-3101
▁angi	-3102
▁sinus	-3103
▁gehele	-3104
▁wissel	-3105
▁annulare	-3106
olithiasis	-3107
90	-3108
TF	-3109
dit	-3110
spl	-3111
▁sequ	-3112
actief	-3113
▁patiA	-3114
▁behoeve	-3115
▁uitgevoerd	-3116
resectievlak	-3117
▁necrotiserende	-3118
OE	-3119
baal	-3120
ctus	-3121
inel	-3122
implex	-3123
▁oedeem	-3124
▁ontbre	-3125
▁lamblia	-3126
▁aangegeven	-3127
?[	-3128
rop	-3129
▁nav	-3130
▁top	-3131
engte	-3132
ester	-3133
raden	-3134
entinel	-3135
▁secund	-3136
▁simplex	-3137
▁0.	-3138
▁ses	-3139
-2020	-3140
scheid	-3141
osarcoom	-3142
▁gepigment	-3143
▁Echogeleide	-3144
_00	-3145
houd	-3146
veer	-3147
▁BERI	-3148
▁colla	-3149
▁BERICHT	-3150
▁hiervan	-3151
▁stansbiopt	-3152
raclaviculair	-3153
▁We	-3154
ante	-3155
-2022	-3156
ontaan	-3157
▁groep	-3158
▁Naaldbiopt	-3159
▁aankleuring	-3160
adv	-3161
ooi	-3162
▁VI	-3163
▁ru	-3164
▁ect	-3165
▁result	-3166
▁maligna	-3167
▁lobulair	-3168
Moleculair	-3169
gesteronreceptor	-3170
▁grensvlaknaevus	-3171
75	-3172
ores	-3173
▁myc	-3174
rijke	-3175
oidose	-3176
epithel	-3177
delingen	-3178
▁Radicaal	-3179
▁chirurgie	-3180
▁thoracaal	-3181
▁onderscheid	-3182
incontinentie	-3183
2;	-3184
▁CT	-3185
▁pap	-3186
anaal	-3187
▁hoorn	-3188
ografie	-3189
▁sessie	-3190
adviseerd	-3191
▁besproken	-3192
udo	-3193
atyp	-3194
keuze	-3195
▁Lever	-3196
▁coupe	-3197
▁heeft	-3198
▁separ	-3199
▁matuur	-3200
▁adenomy	-3201
▁scheenbeen	-3202
oen	-3203
▁ma	-3204
▁sign	-3205
-12-20	-3206
leboog	-3207
▁intern	-3208
▁lengte	-3209
▁digitus	-3210
▁aanvulling	-3211
gd	-3212
ipele	-3213
matig	-3214
rated	-3215
▁amyl	-3216
dermie	-3217
▁Breslow	-3218
▁duidelijk	-3219
▁ongewijzigd	-3220
▁bovenkwadrant	-3221
▁interpretatie	-3222
▁hypertrofische	-3223
98	-3224
YMF	-3225
merk	-3226
▁bre	-3227
ocard	-3228
raagd	-3229
ranod	-3230
▁prom	-3231
▁tubae	-3232
▁Slokdarm	-3233
▁overwegingen	-3234
ijz	-3235
ynx	-3236
uurd	-3237
▁2,5	-3238
-13:[	-3239
-2019	-3240
▁foet	-3241
atisch	-3242
cedure	-3243
Invasie	-3244
staande	-3245
▁Rectum	-3246
▁Hodgkin	-3247
schildklier	-3248
▁onderooglid	-3249
PD	-3250
pt	-3251
ary	-3252
-14:[	-3253
osale	-3254
▁nasi	-3255
▁snij	-3256
oornend	-3257
▁oesoph	-3258
orescent	-3259
▁erosieve	-3260
▁serrated	-3261
▁stemband	-3262
▁proximale	-3263
▁DEFINITIEF	-3264
▁activerende	-3265
▁metaplastisch	-3266
▁tumorpositief	-3267
MS	-3268
NGS	-3269
app	-3270
bes	-3271
----	-3272
▁RET	-3273
-01-20	-3274
iforme	-3275
oblast	-3276
▁(100%	-3277
▁condyl	-3278
▁beperkt	-3279
3,	-3280
▁,	-3281
▁plaats	-3282
unnedarm	-3283
▁diffuse	-3284
▁onderste	-3285
▁Materiaal	-3286
▁granulerende	-3287
▁ontstekingsp	-3288
0%.	-3289
-17/	-3290
asie	-3291
elat	-3292
urigo	-3293
▁gang	-3294
▁mass	-3295
▁prot	-3296
immuun	-3297
▁cysteuze	-3298
▁granuloom	-3299
▁Maagantrum	-3300
▁antrumtype	-3301
▁degeneratieve	-3302
7,	-3303
ea	-3304
HER	-3305
▁5%	-3306
iologie	-3307
osities	-3308
▁perfor	-3309
orescentie	-3310
gl	-3311
▁net	-3312
▁zone	-3313
ranspl	-3314
▁geval	-3315
▁grote	-3316
ineaire	-3317
arkeerde	-3318
▁Centrum	-3319
▁lymfoid	-3320
▁tractus	-3321
dissectie	-3322
ransplant	-3323
▁bevestigd	-3324
▁endometriose	-3325
▁interstitiele	-3326
34	-3327
Her	-3328
▁07	-3329
apillair	-3330
stekings	-3331
▁lumbaal	-3332
▁Lisexcisie	-3333
▁micronodulair	-3334
ros	-3335
aakt	-3336
▁Med	-3337
-2017	-3338
iomorf	-3339
▁recent	-3340
▁neuspunt	-3341
▁Snijranden	-3342
▁activiteit	-3343
▁biologisch	-3344
sn	-3345
-22	-3346
▁aut	-3347
▁GEEN	-3348
▁para	-3349
linische	-3350
▁verband	-3351
88	-3352
BBL	-3353
ers	-3354
hip	-3355
ins	-3356
▁3+	-3357
▁Sub	-3358
panel	-3359
ronde	-3360
▁fibr	-3361
▁mond	-3362
▁dicht	-3363
▁labium	-3364
▁hetgeen	-3365
▁compleet	-3366
▁verrichte	-3367
▁beschouwen	-3368
CUL	-3369
VIN	-3370
kop	-3371
▁ha	-3372
inum	-3373
rtic	-3374
ieden	-3375
▁ERBB	-3376
▁enig	-3377
Coupes	-3378
legmon	-3379
roscop	-3380
spreid	-3381
▁param	-3382
▁pariet	-3383
▁waarop	-3384
osigmoid	-3385
▁adnexen	-3386
▁geadviseerd	-3387
ema	-3388
eens	-3389
▁BCL	-3390
-2018	-3391
▁duiden	-3392
punctaat	-3393
▁extranod	-3394
▁doorsnijden	-3395
BK	-3396
▁>	-3397
-16:[	-3398
hipple	-3399
prostaat	-3400
cellulair	-3401
▁behandel	-3402
▁mesotheel	-3403
pigmentatie	-3404
▁verrukeuze	-3405
45	-3406
70	-3407
cop	-3408
dom	-3409
gew	-3410
let	-3411
arsh	-3412
ening	-3413
▁ilia	-3414
▁Oppervlakk	-3415
ls	-3416
ate	-3417
igh	-3418
oge	-3419
▁(5	-3420
kenh	-3421
oord	-3422
orro	-3423
▁aort	-3424
▁chond	-3425
gesneden	-3426
▁ingezet	-3427
▁ziekenh	-3428
▁mesotheli	-3429
▁oesophagitis	-3430
▁parakeratose	-3431
OOM	-3432
elf	-3433
ring	-3434
ruin	-3435
▁IgA	-3436
▁heup	-3437
gklier	-3438
▁vreemd	-3439
infectie	-3440
▁overleg	-3441
▁pipelle	-3442
▁ischemie	-3443
▁pleiomorf	-3444
▁krabeffect	-3445
6,	-3446
ha	-3447
uno	-3448
hoog	-3449
-2016	-3450
wacht	-3451
▁node	-3452
▁chori	-3453
bovenarm	-3454
▁verzoek	-3455
▁glandula	-3456
▁klierbuizen	-3457
▁normocellulair	-3458
AANTAL	-3459
▁cylin	-3460
▁urtic	-3461
iculitis	-3462
▁veranderd	-3463
▁microsatelliet	-3464
erie	-3465
upus	-3466
▁Bot	-3467
▁WHO	-3468
oscop	-3469
iceerd	-3470
▁behou	-3471
Excisie	-3472
snijden	-3473
▁cutane	-3474
▁fibroom	-3475
microscop	-3476
▁ongeveer	-3477
▁richting	-3478
6/	-3479
ly	-3480
▁MY	-3481
▁ml	-3482
▁Kan	-3483
▁Vol	-3484
ranul	-3485
▁Long	-3486
▁circ	-3487
teerde	-3488
▁genet	-3489
▁randen	-3490
▁sessiel	-3491
▁elleboog	-3492
▁eveneens	-3493
▁perforatie	-3494
▁celmateriaal	-3495
▁exter	-3496
▁spermat	-3497
▁minimaal	-3498
▁separaat	-3499
▁ontbreken	-3500
▁talgklier	-3501
Aanvullende	-3502
▁beschadigde	-3503
SH	-3504
▁MD	-3505
AIRE	-3506
▁Whipple	-3507
legmoneuze	-3508
percentage	-3509
OK	-3510
gr	-3511
jw	-3512
neum	-3513
tend	-3514
▁heb	-3515
▁laat	-3516
▁oude	-3517
Nieuwe	-3518
▁ather	-3519
▁navel	-3520
▁pyogen	-3521
]*******[	-3522
▁receptor	-3523
3/*******/	-3524
▁pyogenicum	-3525
▁Cristabiopt	-3526
▁architectuur	-3527
lev	-3528
▁2:	-3529
flux	-3530
▁MMR	-3531
▁ven	-3532
Hodgkin	-3533
▁microc	-3534
▁reflux	-3535
▁testis	-3536
▁compact	-3537
▁opzicht	-3538
▁erytrocyt	-3539
▁voldoende	-3540
▁gepigmenteerde	-3541
5/	-3542
80	-3543
SF	-3544
ue	-3545
uta	-3546
▁06	-3547
▁imp	-3548
-15:[	-3549
▁Door	-3550
▁apex	-3551
olaris	-3552
▁Dunne	-3553
atische	-3554
▁gelijk	-3555
▁nadere	-3556
▁vreemdlich	-3557
omorfologisch	-3558
MET	-3559
▁Te	-3560
▁Per	-3561
▁EBUS	-3562
▁acuta	-3563
▁prurigo	-3564
▁ontstaan	-3565
AANVULLING	-3566
▁Pathologie	-3567
lat	-3568
kern	-3569
ulva	-3570
▁Aan	-3571
▁drs	-3572
▁gram	-3573
▁trich	-3574
CULAIRE	-3575
unction	-3576
▁hebben	-3577
▁opzichte	-3578
▁typering	-3579
▁myometrium	-3580
adenocarcinoom	-3581
KI	-3582
OT	-3583
cf	-3584
▁HR	-3585
21-1	-3586
elet	-3587
entum	-3588
epres	-3589
▁doch	-3590
paraten	-3591
patroon	-3592
▁interes	-3593
▁verhoornend	-3594
60	-3595
79	-3596
ijd	-3597
dequ	-3598
otyp	-3599
stel	-3600
▁gist	-3601
ediaan	-3602
▁polyp	-3603
Uitslag	-3604
▁totale	-3605
▁gezicht	-3606
▁verlies	-3607
▁Klinisch	-3608
epitheliaal	-3609
▁perifollic	-3610
▁Huidbiopten	-3611
▁PT	-3612
oren	-3613
zone	-3614
marge	-3615
oring	-3616
▁prop	-3617
▁TUMOR	-3618
▁geven	-3619
▁ronde	-3620
▁neurof	-3621
▁mucineus	-3622
eslijmvlies	-3623
▁naaldbiopt	-3624
▁mediastinum	-3625
▁specificiteit	-3626
ged	-3627
▁08	-3628
▁Be	-3629
ding	-3630
▁geA	-3631
intern	-3632
▁aangev	-3633
voorhoofd	-3634
▁aanvraag	-3635
▁Curettage	-3636
▁interesse	-3637
▁uitsluitend	-3638
EP	-3639
HC	-3640
▁id	-3641
ieus	-3642
nier	-3643
requ	-3644
-2015	-3645
▁clav	-3646
▁synov	-3647
▁resten	-3648
pectomie	-3649
stelling	-3650
▁Punctaat	-3651
▁overwegen	-3652
▁papillaire	-3653
67	-3654
AD	-3655
js	-3656
▁35	-3657
▁4,	-3658
akary	-3659
etect	-3660
ekenis	-3661
▁verst	-3662
eration	-3663
▁crista	-3664
Bethesda	-3665
▁multipele	-3666
▁lisexcisie	-3667
▁hematopoese	-3668
kh	-3669
ry	-3670
ieuw	-3671
raat	-3672
▁NST	-3673
schik	-3674
ibrose	-3675
▁haard	-3676
ecifiek	-3677
esterol	-3678
lymfoom	-3679
▁combin	-3680
icodermie	-3681
▁hierover	-3682
ontsteking	-3683
▁labnummer	-3684
▁peritoneum	-3685
▁extranodale	-3686
LH	-3687
pT	-3688
acu	-3689
loom	-3690
reng	-3691
▁auto	-3692
▁vast	-3693
encing	-3694
▁lupus	-3695
entrale	-3696
▁indien	-3697
▁afstand	-3698
▁fibreus	-3699
▁gewicht	-3700
▁ziekenhuis	-3701
▁fragmentjes	-3702
▁onderliggende	-3703
600	-3704
ieel	-3705
▁50%	-3706
srest	-3707
▁acin	-3708
achter	-3709
ferent	-3710
illair	-3711
▁adequ	-3712
▁grond	-3713
▁gebruik	-3714
▁vrijwel	-3715
▁inzendingen	-3716
▁verlitteken	-3717
▁Histologisch	-3718
arak	-3719
▁get	-3720
▁ijz	-3721
▁gesch	-3722
arakter	-3723
▁blasten	-3724
▁propria	-3725
▁erythema	-3726
▁beenmergbiopt	-3727
▁calcificaties	-3728
hin	-3729
rie	-3730
cret	-3731
ereb	-3732
olip	-3733
uiten	-3734
▁Nier	-3735
▁mark	-3736
▁vanwege	-3737
▁poliepeus	-3738
▁neurofibroom	-3739
▁prostaatweefsel	-3740
PR	-3741
▁lok	-3742
▁pols	-3743
tratie	-3744
▁milde	-3745
▁papel	-3746
▁sigmoA	-3747
▁hierbij	-3748
▁afdeling	-3749
▁oncogene	-3750
OLECULAIRE	-3751
▁bijschildklier	-3752
29	-3753
]16	-3754
vum	-3755
▁Uit	-3756
▁neg	-3757
▁hart	-3758
ortale	-3759
erhalve	-3760
▁pleura	-3761
▁subopt	-3762
▁perifeer	-3763
▁poliepje	-3764
▁betekenis	-3765
▁cholesterol	-3766
58	-3767
AF	-3768
KL	-3769
rh	-3770
eds	-3771
▁(7	-3772
▁IDH	-3773
▁IgG	-3774
▁MSI	-3775
▁(2):	-3776
▁mede	-3777
▁Blaas	-3778
ocytair	-3779
▁middels	-3780
▁onderbuik	-3781
▁reticulaire	-3782
▁hypercellulair	-3783
▁hyperplastisch	-3784
68	-3785
AP	-3786
cip	-3787
▁03	-3788
EREN	-3789
aand	-3790
laag	-3791
gener	-3792
uteri	-3793
▁nefr	-3794
gaande	-3795
▁paras	-3796
▁geduid	-3797
▁laesies	-3798
▁collagen	-3799
▁kwaliteit	-3800
▁overweging	-3801
▁ischemische	-3802
]18	-3803
uct	-3804
rale	-3805
▁Kle	-3806
▁milj	-3807
oornis	-3808
▁steat	-3809
▁duoden	-3810
▁prostat	-3811
▁respons	-3812
etecteerd	-3813
▁maagtype	-3814
▁afwijkend	-3815
▁onbekende	-3816
▁extirpatie	-3817
▁infectieuze	-3818
▁paramediaan	-3819
]1	-3820
Bls	-3821
chn	-3822
▁7,	-3823
icol	-3824
ular	-3825
▁gaat	-3826
▁subm	-3827
onderarm	-3828
▁gerelat	-3829
requentie	-3830
▁karakter	-3831
▁signific	-3832
▁clavicula	-3833
▁uitstrijk	-3834
epresentatief	-3835
▁chroniciteit	-3836
4,	-3837
6.	-3838
Pro	-3839
dat	-3840
▁ja	-3841
odon	-3842
▁gek	-3843
▁meg	-3844
▁toch	-3845
▁Marge	-3846
▁maagc	-3847
▁Malign	-3848
▁celgroep	-3849
▁aspiratie	-3850
▁vasculaire	-3851
▁lymfeklieren	-3852
▁papillomateuze	-3853
7/	-3854
]3	-3855
omt	-3856
▁Hem	-3857
arynx	-3858
▁vagina	-3859
▁sarcoom	-3860
▁tumoren	-3861
▁verspreid	-3862
▁combinatie	-3863
▁darmziekte	-3864
▁gezichtspunten	-3865
38	-3866
Mw	-3867
▁04	-3868
▁09	-3869
ampl	-3870
kaak	-3871
▁wij	-3872
▁zon	-3873
Advies	-3874
▁cereb	-3875
▁pseud	-3876
▁traum	-3877
ytische	-3878
▁decidu	-3879
▁pseudo	-3880
▁cervixbiopt	-3881
▁consultatie	-3882
▁Huidcurettage	-3883
EL	-3884
TR	-3885
]13	-3886
eut	-3887
▁05	-3888
resp	-3889
▁PIK	-3890
▁TTF	-3891
reven	-3892
chting	-3893
▁vaten	-3894
▁vraag	-3895
▁alleen	-3896
ildwacht	-3897
▁hotspot	-3898
idectomie	-3899
▁musculus	-3900
▁dunnedarm	-3901
▁subcutaan	-3902
▁glandulaire	-3903
aad	-3904
▁An	-3905
RADS	-3906
eked	-3907
enst	-3908
osum	-3909
▁emb	-3910
append	-3911
verted	-3912
▁fusie	-3913
▁dubieus	-3914
▁macroscop	-3915
▁endocervix	-3916
▁Mammareductie	-3917
▁verlittekening	-3918
VU	-3919
cm	-3920
?).	-3921
asp	-3922
tot	-3923
▁40	-3924
para	-3925
▁1).	-3926
onaal	-3927
▁oste	-3928
dering	-3929
gelijk	-3930
neumon	-3931
▁massa	-3932
ermamma	-3933
▁rondom	-3934
▁bacteri	-3935
▁restant	-3936
▁Derhalve	-3937
▁Nodulair	-3938
▁inactief	-3939
▁tumorcel	-3940
▁glomeruli	-3941
▁morfologie	-3942
▁sarcoidose	-3943
▁suboptimaal	-3944
inflammatoire	-3945
▁laboratorium	-3946
▁mogelijkheid	-3947
3)	-3948
47	-3949
ID	-3950
SL	-3951
]2:	-3952
▁NM	-3953
▁man	-3954
gesch	-3955
▁Diep	-3956
▁komt	-3957
▁pity	-3958
atypie	-3959
▁cavum	-3960
▁dikke	-3961
ekedelen	-3962
▁Sigmoid	-3963
▁foetale	-3964
▁krapste	-3965
▁solaris	-3966
▁Excisiebiopt	-3967
▁infiltratief	-3968
▁geneesmiddelen	-3969
]19	-3970
enis	-3971
isol	-3972
grens	-3973
irrit	-3974
later	-3975
▁wand	-3976
▁Adnex	-3977
▁geeft	-3978
tendeels	-3979
▁acanthol	-3980
▁subcutane	-3981
▁grotendeels	-3982
▁uitsluiting	-3983
▁proliferatieve	-3984
48	-3985
49	-3986
cs	-3987
]07	-3988
ekt	-3989
▁as	-3990
lion	-3991
ynch	-3992
▁1,2	-3993
domen	-3994
culair	-3995
wijzing	-3996
▁Echter	-3997
▁aanduid	-3998
▁kenmerk	-3999
metastase	-4000
▁herhalen	-4001
▁megakary	-4002
▁fragmentje	-4003
▁gedetecteerd	-4004
▁toxicodermie	-4005
▁diagnostische	-4006
1).	-4007
]17	-4008
aff	-4009
eiw	-4010
ger	-4011
rect	-4012
▁0,1	-4013
▁Ont	-4014
▁gla	-4015
▁oud	-4016
prostat	-4017
▁gedila	-4018
▁geisol	-4019
▁iliaca	-4020
▁patiente	-4021
▁Definitief	-4022
▁Vriescoupe	-4023
stekingsbeeld	-4024
ps	-4025
iva	-4026
rch	-4027
▁31	-4028
▁AD	-4029
▁oc	-4030
raal	-4031
▁CDK	-4032
-17:[	-4033
▁Lymf	-4034
icatie	-4035
ocrien	-4036
▁kruin	-4037
▁mycose	-4038
▁elastose	-4039
▁relatief	-4040
Moleculaire	-4041
▁rectosigmoid	-4042
▁Representatief	-4043
PS	-4044
els	-4045
vat	-4046
▁ir	-4047
oeil	-4048
gging	-4049
iraat	-4050
▁100%	-4051
▁vert	-4052
▁vier	-4053
anasaal	-4054
erapeut	-4055
leiding	-4056
oeilijk	-4057
▁solaire	-4058
▁typisch	-4059
oordeling	-4060
▁beschouwd	-4061
▁aanduiding	-4062
▁mesothelioom	-4063
]14	-4064
reik	-4065
stiv	-4066
▁Twe	-4067
coeur	-4068
olair	-4069
▁tril	-4070
credit	-4071
iopath	-4072
igestiv	-4073
▁gisten	-4074
▁hersen	-4075
▁wegens	-4076
icientie	-4077
▁acinair	-4078
▁*******[	-4079
▁leiomyomen	-4080
▁Schildklier	-4081
▁proliferatief	-4082
35	-4083
7.	-4084
TER	-4085
rek	-4086
▁MC	-4087
▁GNA	-4088
lassie	-4089
▁Trans	-4090
▁circa	-4091
▁tromb	-4092
igineuze	-4093
▁omentum	-4094
▁overeen	-4095
▁dermatose	-4096
▁epidermiscyste	-4097
FI	-4098
▁x	-4099
Een	-4100
]10	-4101
]15	-4102
mede	-4103
sist	-4104
TUMOR	-4105
crete	-4106
emaal	-4107
▁Vulva	-4108
▁chrom	-4109
▁irrit	-4110
▁bulbus	-4111
odulaire	-4112
▁puntjes	-4113
▁capillair	-4114
▁aanleiding	-4115
ALE	-4116
KLI	-4117
]23	-4118
say	-4119
▁(<	-4120
▁ep	-4121
ATIE	-4122
risk	-4123
▁0,6	-4124
secten	-4125
gewicht	-4126
▁paraff	-4127
▁recente	-4128
onaliteit	-4129
▁digestiv	-4130
▁inverted	-4131
▁opsnijden	-4132
▁spongiose	-4133
▁preauriculair	-4134
05	-4135
]06	-4136
Over	-4137
icul	-4138
ioom	-4139
▁MLH	-4140
▁Ter	-4141
oides	-4142
orect	-4143
▁LYMF	-4144
▁Tuba	-4145
lexura	-4146
tensie	-4147
▁Lynch	-4148
▁anders	-4149
▁buiten	-4150
▁inzage	-4151
uteriene	-4152
▁LYMFKLI	-4153
▁miljoen	-4154
otherapie	-4155
▁snijrand	-4156
▁doorgroei	-4157
▁huidbiopten	-4158
KSF	-4159
eert	-4160
oort	-4161
▁Inf	-4162
▁Ileum	-4163
▁strom	-4164
ocytoom	-4165
▁erythemat	-4166
▁Vooralsnog	-4167
▁afwijkende	-4168
▁ingezonden	-4169
appendicitis	-4170
1)	-4171
hy	-4172
Met	-4173
OEI	-4174
WHO	-4175
cer	-4176
rap	-4177
son	-4178
ASIE	-4179
ROEI	-4180
anks	-4181
arct	-4182
▁0,8	-4183
▁fun	-4184
adium	-4185
inter	-4186
regel	-4187
riasis	-4188
status	-4189
sigmoid	-4190
zegging	-4191
▁chondro	-4192
▁parietaal	-4193
iagnostisch	-4194
▁digestivus	-4195
▁betrouwbaar	-4196
▁dankzegging	-4197
▁verandering	-4198
▁bovenstaande	-4199
▁longcarcinoom	-4200
3;	-4201
MB	-4202
4:[	-4203
Gly	-4204
ida	-4205
niet	-4206
zijn	-4207
▁bew	-4208
▁pur	-4209
▁neut	-4210
itaire	-4211
snijvlak	-4212
▁Celrijke	-4213
▁negatieve	-4214
▁gesclerose	-4215
opathologische	-4216
="	-4217
]26	-4218
mee	-4219
-14/	-4220
lete	-4221
text	-4222
klasse	-4223
▁stern	-4224
stische	-4225
▁ductus	-4226
▁Accredit	-4227
▁sentinel	-4228
prostatische	-4229
▁lentigineuze	-4230
▁geassocieerde	-4231
08	-4232
VASIE	-4233
zeker	-4234
▁fase	-4235
▁zich	-4236
▁basal	-4237
▁embry	-4238
▁staat	-4239
▁ureter	-4240
▁ziekte	-4241
veolaire	-4242
iescoupes	-4243
▁melanoma	-4244
▁plasmacel	-4245
▁verdachte	-4246
]08	-4247
get	-4248
tij	-4249
tur	-4250
atus	-4251
iese	-4252
olab	-4253
histi	-4254
▁brush	-4255
▁daarin	-4256
cipitaal	-4257
ronische	-4258
▁Weefsel	-4259
▁abdomen	-4260
▁daarbij	-4261
▁insecten	-4262
▁apocriene	-4263
▁procedure	-4264
▁deposities	-4265
▁topografie	-4266
▁wisselende	-4267
▁curettement	-4268
fluorescentie	-4269
▁geassocieerd	-4270
▁keratoacanthoom	-4271
ARD	-4272
ina	-4273
oes	-4274
istr	-4275
▁0,2	-4276
▁mis	-4277
▁val	-4278
osaal	-4279
▁horm	-4280
kernige	-4281
ministr	-4282
▁helder	-4283
▁intrad	-4284
neumonie	-4285
▁discrete	-4286
▁resultaat	-4287
▁beschreven	-4288
▁temporalis	-4289
▁gemarkeerde	-4290
▁verwijderde	-4291
sm	-4292
▁Q	-4293
NVE	-4294
]2.	-4295
]24	-4296
]25	-4297
def	-4298
ewel	-4299
fact	-4300
▁0,4	-4301
▁MSH	-4302
astom	-4303
etsel	-4304
orbus	-4305
▁tons	-4306
lopige	-4307
▁onregel	-4308
afwijking	-4309
▁junction	-4310
▁partiele	-4311
▁sequencing	-4312
waarschijnlijk	-4313
▁histiocytaire	-4314
4.	-4315
hv	-4316
▁'	-4317
]09	-4318
]29	-4319
ile	-4320
yre	-4321
▁0,3	-4322
gment	-4323
oiese	-4324
andida	-4325
jectie	-4326
▁hrHPV	-4327
▁nabij	-4328
▁reeds	-4329
iseerde	-4330
▁Geheel	-4331
▁effect	-4332
ascendens	-4333
sdiagnose	-4334
▁Voorkeur	-4335
▁hiervoor	-4336
epidermale	-4337
▁Moleculair	-4338
▁pityriasis	-4339
ransplantatie	-4340
.:	-4341
2)	-4342
amn	-4343
0%).	-4344
eten	-4345
ethy	-4346
pect	-4347
▁Pap	-4348
uiste	-4349
▁aorta	-4350
▁geind	-4351
segment	-4352
▁alsmede	-4353
▁gevolge	-4354
▁zijwand	-4355
▁volgende	-4356
▁daarnaast	-4357
▁paranasaal	-4358
▁Oppervlakkige	-4359
▁reuscelreactie	-4360
4/	-4361
MD	-4362
ISO	-4363
]05	-4364
rok	-4365
▁(9	-4366
enuw	-4367
iets	-4368
otje	-4369
▁Hoe	-4370
▁ind	-4371
▁myx	-4372
▁rep	-4373
aling	-4374
▁lang	-4375
▁zien	-4376
ernaal	-4377
gemeen	-4378
intest	-4379
omateus	-4380
▁amyloid	-4381
existente	-4382
▁percentage	-4383
▁gedilateerde	-4384
63	-4385
65	-4386
;[	-4387
189	-4388
]21	-4389
]22	-4390
elfde	-4391
ortus	-4392
▁card	-4393
ledige	-4394
▁algemeen	-4395
▁celrijke	-4396
▁verwijzing	-4397
-16/*******/	-4398
-17/*******/	-4399
▁perivasculair	-4400
TY	-4401
ox	-4402
JSL	-4403
ert	-4404
maag	-4405
stru	-4406
antal	-4407
▁iets	-4408
▁nive	-4409
▁vill	-4410
▁bulle	-4411
▁inges	-4412
▁Subcut	-4413
▁herken	-4414
▁ooglid	-4415
turatori	-4416
▁Botbiopt	-4417
▁ganglion	-4418
ocervicale	-4419
▁behoudens	-4420
▁submandib	-4421
icolectomie	-4422
▁muscularis	-4423
▁vetnecrose	-4424
ozo	-4425
val	-4426
igin	-4427
mmer	-4428
▁MYC	-4429
regio	-4430
▁fist	-4431
streng	-4432
▁blijk	-4433
▁zenuw	-4434
station	-4435
▁fundic	-4436
▁juiste	-4437
olabiaal	-4438
▁chromos	-4439
▁dorsale	-4440
igexcisie	-4441
lymfklier	-4442
schikking	-4443
▁adequate	-4444
▁buikwand	-4445
▁leukemie	-4446
heidshalve	-4447
erapeutisch	-4448
VII	-4449
afd	-4450
cob	-4451
sub	-4452
elev	-4453
meer	-4454
rist	-4455
▁100	-4456
▁2).	-4457
▁ald	-4458
▁ins	-4459
ecaal	-4460
▁prep	-4461
▁sept	-4462
Immuun	-4463
sneden	-4464
wezige	-4465
▁geink	-4466
▁kraak	-4467
rofagen	-4468
Snijvlak	-4469
astomose	-4470
▁immunof	-4471
▁rejectie	-4472
structuren	-4473
▁neutrofie	-4474
▁aangevraagd	-4475
▁flegmoneuze	-4476
EU	-4477
Re	-4478
0%)	-4479
LOY	-4480
]04	-4481
▁7:	-4482
line	-4483
▁den	-4484
besch	-4485
itose	-4486
▁zwak	-4487
rument	-4488
▁delet	-4489
▁dikte	-4490
▁omgev	-4491
▁volledige	-4492
▁mammareductie	-4493
▁vreemdlichaams	-4494
..	-4495
?)	-4496
ole	-4497
▁sn	-4498
▁0,7	-4499
▁PIN	-4500
▁FGFR	-4501
▁abla	-4502
▁moet	-4503
aardig	-4504
ionale	-4505
tefact	-4506
▁perit	-4507
▁myocard	-4508
▁patroon	-4509
4/*******/	-4510
▁actinisch	-4511
▁beginnend	-4512
▁schimmeld	-4513
▁linkerwang	-4514
▁secundaire	-4515
▁adenomyosis	-4516
▁Slokdarmbiopten	-4517
▁rechterschouder	-4518
2:	-4519
CM	-4520
On	-4521
OOR	-4522
bev	-4523
pas	-4524
▁6,	-4525
aren	-4526
umin	-4527
▁sten	-4528
chniek	-4529
tijdig	-4530
genitale	-4531
ienummer	-4532
▁Benigne	-4533
▁cysteus	-4534
oornissen	-4535
▁atrofisch	-4536
▁intraduct	-4537
excochleaat	-4538
▁tumorweefsel	-4539
pa	-4540
Skh	-4541
]03	-4542
oir	-4543
maal	-4544
▁AAN	-4545
▁Dik	-4546
▁eiw	-4547
▁ile	-4548
INGEN	-4549
excid	-4550
▁(1):	-4551
▁blue	-4552
▁merg	-4553
▁radi	-4554
▁Graag	-4555
gressie	-4556
oplasma	-4557
pasbaar	-4558
gestuurd	-4559
▁Medisch	-4560
▁geinkte	-4561
▁klassie	-4562
▁kraakbeen	-4563
▁frequentie	-4564
▁histologie	-4565
▁meerkernige	-4566
▁Mammabiopten	-4567
▁onderliggend	-4568
IP	-4569
EHE	-4570
MMA	-4571
bel	-4572
emf	-4573
vid	-4574
ving	-4575
amman	-4576
groot	-4577
▁Norm	-4578
▁Wart	-4579
▁foci	-4580
anneer	-4581
rische	-4582
▁bevat	-4583
dermaal	-4584
emische	-4585
▁gastro	-4586
▁hemorr	-4587
▁letsel	-4588
▁mammap	-4589
existent	-4590
▁Maligne	-4591
▁stromale	-4592
opathische	-4593
▁Bowenoide	-4594
▁spermatozo	-4595
diagnostisch	-4596
▁bevestiging	-4597
▁gelijktijdig	-4598
▁metastatisch	-4599
3=	-4600
4:	-4601
GRE	-4602
ook	-4603
ribr	-4604
▁cru	-4605
▁maj	-4606
ieten	-4607
olsel	-4608
spron	-4609
▁kalk	-4610
▁poly	-4611
▁vlak	-4612
Tevens	-4613
eftijd	-4614
▁lamin	-4615
▁huidad	-4616
▁infarc	-4617
▁langer	-4618
snijrand	-4619
▁*******:[	-4620
▁inpasbaar	-4621
▁lobulaire	-4622
▁occipitaal	-4623
▁afwezigheid	-4624
▁trilineaire	-4625
therapeutisch	-4626
▁groeipatroon	-4627
kd	-4628
kt	-4629
nu	-4630
3):	-4631
]27	-4632
]28	-4633
▁BE	-4634
1-10	-4635
ibel	-4636
roch	-4637
uurs	-4638
▁KIT	-4639
▁Pre	-4640
▁pil	-4641
ibros	-4642
▁glad	-4643
ardson	-4644
gebied	-4645
▁gemen	-4646
liggende	-4647
▁sternum	-4648
DEFINITIE	-4649
ichardson	-4650
populatie	-4651
▁idiopath	-4652
▁waardoor	-4653
▁bovenbuik	-4654
▁urticaria	-4655
▁oestrogeen	-4656
typeslijmvlies	-4657
ff	-4658
Dit	-4659
weg	-4660
▁Af	-4661
0%.[	-4662
icam	-4663
icis	-4664
name	-4665
▁3).	-4666
▁ala	-4667
-2014	-4668
ogeen	-4669
▁mate	-4670
▁noem	-4671
oordeeld	-4672
▁geexcid	-4673
▁gegeven	-4674
▁hematop	-4675
▁geisoleerd	-4676
respectievelijk	-4677
BZ	-4678
1):	-4679
bep	-4680
ebe	-4681
▁2-	-4682
DERE	-4683
EGFR	-4684
FICA	-4685
ting	-4686
ucle	-4687
zins	-4688
▁Wel	-4689
▁pal	-4690
codon	-4691
haafd	-4692
igens	-4693
▁jaar	-4694
entrik	-4695
granul	-4696
ositis	-4697
uspect	-4698
▁Marsh	-4699
▁ijzer	-4700
FICATIE	-4701
▁verkla	-4702
▁volume	-4703
emporaal	-4704
▁Warthin	-4705
▁bestaat	-4706
▁wanneer	-4707
▁lichenoA	-4708
▁obductie	-4709
▁aanwezige	-4710
▁etiologie	-4711
▁satelliet	-4712
▁uitrijping	-4713
▁achterzijde	-4714
▁binnenzijde	-4715
▁heldercellig	-4716
1-	-4717
1/	-4718
hra	-4719
ikt	-4720
acea	-4721
gele	-4722
kend	-4723
mamma	-4724
gezien	-4725
zijnde	-4726
▁Brush	-4727
▁Infil	-4728
▁penis	-4729
▁bekled	-4730
▁detect	-4731
▁fistel	-4732
mogelijk	-4733
viditeit	-4734
waardige	-4735
▁bijnier	-4736
▁genomen	-4737
▁noemens	-4738
dysplasie	-4739
uitstrijk	-4740
▁gevoelig	-4741
▁leeftijd	-4742
▁moeilijk	-4743
▁necrotisch	-4744
▁aantoonbare	-4745
▁goedaardige	-4746
▁neutrofiele	-4747
▁vriescoupes	-4748
▁beschadiging	-4749
▁vraagstelling	-4750
37	-4751
5%	-4752
3:[	-4753
▁02	-4754
chan	-4755
▁(1)	-4756
▁fam	-4757
▁sem	-4758
itair	-4759
trans	-4760
atibel	-4761
basaal	-4762
lonale	-4763
zelfde	-4764
▁cardia	-4765
▁circum	-4766
▁huidst	-4767
▁marges	-4768
▁suspect	-4769
lammatoir	-4770
▁geanalyse	-4771
▁populatie	-4772
aaldbiopsie	-4773
▁atrofische	-4774
tratiediepte	-4775
▁darmbiopten	-4776
▁rechterwang	-4777
▁zijsnijrand	-4778
▁microscopisch	-4779
CD	-4780
▁X	-4781
AST	-4782
ise	-4783
tje	-4784
▁os	-4785
ject	-4786
kalk	-4787
▁200	-4788
▁erf	-4789
immel	-4790
▁syst	-4791
onitis	-4792
▁bowen	-4793
▁vrouw	-4794
gebruik	-4795
▁gehand	-4796
▁submuc	-4797
▁tweede	-4798
gevoelig	-4799
▁archief	-4800
atellitose	-4801
▁mogelijke	-4802
▁Stansbiopt	-4803
▁LYMFKLIEREN	-4804
▁congenitale	-4805
▁karakterist	-4806
▁pigmentosus	-4807
▁gefragmenteerde	-4808
▁noemenswaardige	-4809
4;	-4810
-01	-4811
]30	-4812
hel	-4813
iem	-4814
tio	-4815
▁38	-4816
▁Am	-4817
orad	-4818
▁IHC	-4819
abiel	-4820
flank	-4821
trole	-4822
asieen	-4823
ocyste	-4824
volume	-4825
▁blaar	-4826
▁kappa	-4827
▁stase	-4828
Gleason	-4829
vormige	-4830
▁externa	-4831
▁flexura	-4832
▁placent	-4833
Klinische	-4834
bijzijnde	-4835
▁administr	-4836
▁hoofdhuid	-4837
▁paraffine	-4838
▁voorlopig	-4839
▁anastomose	-4840
▁macrofagen	-4841
▁overlijden	-4842
▁gehandhaafd	-4843
▁graviditeit	-4844
▁cholesterolose	-4845
3/	-4846
AT	-4847
NV	-4848
SE	-4849
▁AP	-4850
etal	-4851
raad	-4852
spronk	-4853
▁Matig	-4854
▁Vagin	-4855
▁breuk	-4856
iliteit	-4857
reuscel	-4858
▁haemat	-4859
▁onduid	-4860
andibula	-4861
emateuze	-4862
▁behoort	-4863
beschadig	-4864
▁cutaneum	-4865
▁hepatica	-4866
▁achterlip	-4867
▁aspecifiek	-4868
▁DEFINITIEVE	-4869
▁Cervixbiopten	-4870
.5	-4871
66	-4872
DE	-4873
IG	-4874
.35	-4875
11;	-4876
JCC	-4877
Lev	-4878
lag	-4879
▁3)	-4880
▁Ev	-4881
▁1,3	-4882
GREEP	-4883
borst	-4884
leden	-4885
▁Part	-4886
▁herk	-4887
▁hoge	-4888
lokjes	-4889
▁goede	-4890
ampling	-4891
▁Levern	-4892
▁aldaar	-4893
▁blijkt	-4894
▁gedaan	-4895
▁lamina	-4896
▁myelod	-4897
atselijk	-4898
entrikel	-4899
uscellen	-4900
▁INGREEP	-4901
▁voorlip	-4902
bovenkwab	-4903
endocrien	-4904
wijzingen	-4905
▁hotspots	-4906
▁Transuret	-4907
▁varianten	-4908
▁parasieten	-4909
-15/*******/	-4910
▁ulceratieve	-4911
ildwachtklier	-4912
▁linkerschouder	-4913
▁schimmeldraden	-4914
TC	-4915
ALK	-4916
osp	-4917
top	-4918
ulp	-4919
▁01	-4920
VIND	-4921
leed	-4922
▁TVU	-4923
▁som	-4924
▁ves	-4925
iaire	-4926
▁cerv	-4927
ectrum	-4928
ginale	-4929
oeling	-4930
onisch	-4931
menging	-4932
olipoom	-4933
rijging	-4934
▁BEVIND	-4935
▁Coupes	-4936
▁promot	-4937
▁vertex	-4938
▁axillair	-4939
▁chronicus	-4940
▁BEVINDINGEN	-4941
73	-4942
IA	-4943
TH	-4944
di	-4945
6:[	-4946
▁5,	-4947
▁NS	-4948
0%),	-4949
▁Min	-4950
▁TKI	-4951
colon	-4952
edoch	-4953
risch	-4954
▁flow	-4955
▁lage	-4956
▁tang	-4957
ariant	-4958
erieur	-4959
▁Bloom	-4960
▁cribr	-4961
▁crust	-4962
edochus	-4963
efritis	-4964
rosacea	-4965
▁Mammap	-4966
▁minste	-4967
omponent	-4968
▁inzicht	-4969
▁spectrum	-4970
▁steatose	-4971
ocervicaal	-4972
▁bacterien	-4973
▁irritatie	-4974
▁Richardson	-4975
▁bepalingen	-4976
▁opgestuurd	-4977
AK	-4978
4):	-4979
SIL	-4980
hyl	-4981
ial	-4982
uff	-4983
uut	-4984
▁3-	-4985
emde	-4986
opec	-4987
arget	-4988
ermie	-4989
▁CDKN	-4990
inding	-4991
murale	-4992
rectum	-4993
▁Hyper	-4994
▁prola	-4995
cytomet	-4996
▁carcin	-4997
▁gevolg	-4998
Kwaliteit	-4999
▁acanthose	-5000
▁inzichten	-5001
▁vergelijk	-5002
stbijzijnde	-5003
▁obturatori	-5004
▁kenmerkende	-5005
▁significante	-5006
epitheelcellen	-5007
▁2)	-5008
▁LE	-5009
duct	-5010
kele	-5011
▁VIN	-5012
▁fem	-5013
order	-5014
▁Derm	-5015
▁Inst	-5016
▁comm	-5017
▁glob	-5018
anwege	-5019
etigin	-5020
zijdig	-5021
▁cornu	-5022
▁promin	-5023
▁therap	-5024
▁rosacea	-5025
▁zijrand	-5026
cytologie	-5027
▁hersenen	-5028
▁bevestigt	-5029
▁Rectumbiopten	-5030
▁inclusiecyste	-5031
▁atherosclerose	-5032
1:	-5033
78	-5034
dd	-5035
2).	-5036
max	-5037
▁nu	-5038
▁vl	-5039
iect	-5040
▁2,0	-5041
brush	-5042
ronen	-5043
▁flar	-5044
▁Micro	-5045
▁omdat	-5046
▁reden	-5047
▁acumin	-5048
▁mechan	-5049
▁Tumoren	-5050
▁complex	-5051
▁helicis	-5052
▁neuroom	-5053
onefritis	-5054
plaveisel	-5055
ulariteit	-5056
umpectomie	-5057
▁*******):	-5058
▁marginale	-5059
▁nasolabiaal	-5060
▁pigmentatie	-5061
▁cytologische	-5062
unohistochemisch	-5063
▁Huidexcochleaat	-5064
MP	-5065
ess	-5066
ijf	-5067
zak	-5068
▁BI	-5069
ASSI	-5070
memb	-5071
wijs	-5072
▁10%	-5073
▁EUS	-5074
▁tij	-5075
ASTAS	-5076
ellen	-5077
igoid	-5078
orden	-5079
▁Cave	-5080
▁chem	-5081
ANDERE	-5082
icient	-5083
ulente	-5084
▁Panel	-5085
▁allel	-5086
ionitis	-5087
▁alopec	-5088
▁behulp	-5089
▁denken	-5090
▁vooral	-5091
radicaal	-5092
▁Diepere	-5093
▁Hierbij	-5094
▁abortus	-5095
▁ductale	-5096
ingenomen	-5097
▁inclusief	-5098
▁mesenchym	-5099
ASSIFICATIE	-5100
intestinale	-5101
▁compatibel	-5102
▁choledochus	-5103
▁Resectieranden	-5104
▁administratief	-5105
96	-5106
WE	-5107
Mat	-5108
PON	-5109
]02	-5110
LOPI	-5111
cele	-5112
ilic	-5113
▁(12	-5114
▁JBZ	-5115
-19:[	-5116
apsel	-5117
ongen	-5118
yster	-5119
▁Borg	-5120
▁VOOR	-5121
oename	-5122
▁Verru	-5123
▁Corpus	-5124
▁ovaria	-5125
▁tubulo	-5126
▁vitale	-5127
arenchym	-5128
▁bekleed	-5129
▁myeloom	-5130
Lymfklier	-5131
rumentaal	-5132
▁cylinder	-5133
▁follikel	-5134
▁hemorrag	-5135
▁ventrale	-5136
▁(*******,	-5137
▁cytologie	-5138
▁ingenomen	-5139
▁secundair	-5140
▁Leverbiopt	-5141
▁achterwand	-5142
▁reuscellen	-5143
▁navelstreng	-5144
ifferentieerd	-5145
▁ontstekingsc	-5146
▁zonbeschadig	-5147
▁Instrumentaal	-5148
▁micronodulaire	-5149
▁mutatieanalyse	-5150
▁intestinaaltype	-5151
8,	-5152
5:[	-5153
TRK	-5154
oil	-5155
▁37	-5156
▁3:	-5157
1).[	-5158
aste	-5159
beet	-5160
edel	-5161
oire	-5162
rikk	-5163
ulum	-5164
▁2):	-5165
▁FNA	-5166
▁opt	-5167
▁vro	-5168
-2013	-5169
erens	-5170
plooi	-5171
▁kern	-5172
▁lymfo	-5173
▁vanaf	-5174
angiect	-5175
▁exacte	-5176
efonisch	-5177
▁urethra	-5178
▁vlokken	-5179
omatische	-5180
▁lichaams	-5181
amnionitis	-5182
▁doorsneden	-5183
▁behandelend	-5184
▁krabeffecten	-5185
reuscelreactie	-5186
aG	-5187
GRA	-5188
]11	-5189
eit	-5190
tub	-5191
TYPE	-5192
▁0,9	-5193
▁BCC	-5194
▁zeg	-5195
-18:[	-5196
abces	-5197
itten	-5198
▁AJCC	-5199
▁kans	-5200
ortaal	-5201
eratoom	-5202
merking	-5203
uitslag	-5204
▁Enkele	-5205
▁chorio	-5206
▁verbre	-5207
--------	-5208
▁ablatio	-5209
▁gewenst	-5210
▁portale	-5211
▁vorming	-5212
component	-5213
▁deferens	-5214
naaldbiopt	-5215
▁Nierbiopt	-5216
▁pneumonie	-5217
AANVULLENDE	-5218
▁verstoring	-5219
▁erytrocyten	-5220
▁geindiceerd	-5221
▁fragmentatie	-5222
▁placentarest	-5223
klierdissectie	-5224
▁beoordeelbare	-5225
▁corpusbiopten	-5226
▁50	-5227
▁EM	-5228
▁kw	-5229
dist	-5230
rosp	-5231
tere	-5232
▁dus	-5233
adier	-5234
ancer	-5235
eduur	-5236
oksel	-5237
▁arter	-5238
iedenis	-5239
blastoom	-5240
▁familie	-5241
▁fibrine	-5242
▁gemaakt	-5243
ochemisch	-5244
▁VOORLOPI	-5245
▁condyloma	-5246
▁mandibula	-5247
Snijvlakken	-5248
▁middenkwab	-5249
CLASSIFICATIE	-5250
▁cervixpoliep	-5251
▁geanalyseerd	-5252
▁coloncarcinoom	-5253
▁(6	-5254
ater	-5255
raan	-5256
▁APC	-5257
▁dec	-5258
▁hid	-5259
esult	-5260
oemde	-5261
▁prof	-5262
▁abces	-5263
▁impon	-5264
komende	-5265
▁Eventu	-5266
▁adenose	-5267
▁interne	-5268
▁scleros	-5269
apillaire	-5270
▁Partiele	-5271
▁sampling	-5272
▁depositie	-5273
▁geneticus	-5274
▁haargrens	-5275
▁hepatitis	-5276
▁nierbiopt	-5277
▁submucosa	-5278
▁Generation	-5279
▁nefropathie	-5280
ekerheidshalve	-5281
▁bloedingsrest	-5282
▁diverticulitis	-5283
ood	-5284
stb	-5285
ule	-5286
▁.[	-5287
▁4+	-5288
▁BV	-5289
FISH	-5290
verd	-5291
▁pul	-5292
ation	-5293
match	-5294
ragen	-5295
rcher	-5296
selen	-5297
▁Past	-5298
▁Zeer	-5299
▁gede	-5300
▁subc	-5301
▁vacu	-5302
Blokje	-5303
lengte	-5304
ristal	-5305
INVASIE	-5306
Overige	-5307
consult	-5308
omatose	-5309
▁crusta	-5310
▁tonsil	-5311
▁vitaal	-5312
aliseerde	-5313
stechniek	-5314
▁Schimmel	-5315
▁protocol	-5316
neevlakken	-5317
onaliteits	-5318
▁Maagbiopt	-5319
▁diagnosen	-5320
▁gradering	-5321
MOLECULAIRE	-5322
schijnselen	-5323
▁Vulvabiopt	-5324
geschiedenis	-5325
▁cystadenoom	-5326
▁doorgesneden	-5327
▁gescleroseerd	-5328
rijgingstechniek	-5329
4)	-5330
55	-5331
TE	-5332
lc	-5333
▁1)	-5334
▁CTI	-5335
▁Gro	-5336
utium	-5337
▁buis	-5338
▁repair	-5339
orectaal	-5340
▁arteria	-5341
▁deletie	-5342
▁ductect	-5343
▁ernstig	-5344
▁gemengd	-5345
▁infarct	-5346
▁leverbiopt	-5347
▁Plaatselijk	-5348
▁onduidelijk	-5349
▁regressieve	-5350
▁maagcorpustype	-5351
1[	-5352
2[	-5353
77	-5354
IO	-5355
%).	-5356
FPE	-5357
eku	-5358
▁TB	-5359
ORTC	-5360
▁NOS	-5361
▁sta	-5362
deels	-5363
istof	-5364
otype	-5365
▁AARD	-5366
ending	-5367
impele	-5368
▁lokaal	-5369
▁geschat	-5370
▁kleiner	-5371
▁tijdens	-5372
Materiaal	-5373
▁gebieden	-5374
▁mismatch	-5375
DEFINITIEVE	-5376
▁opgesneden	-5377
▁geexcideerd	-5378
roliferatieve	-5379
▁endometrioid	-5380
▁pathologisch	-5381
▁zonbeschadigde	-5382
09	-5383
GM	-5384
OH	-5385
AIN	-5386
LAG	-5387
LAK	-5388
iat	-5389
mus	-5390
uli	-5391
yna	-5392
▁My	-5393
VLAK	-5394
even	-5395
thor	-5396
▁3,5	-5397
▁EBV	-5398
▁ROK	-5399
▁lig	-5400
etref	-5401
onair	-5402
▁Alle	-5403
laring	-5404
▁Dikke	-5405
oorzaak	-5406
▁bekken	-5407
▁mening	-5408
▁myelop	-5409
bepaling	-5410
ospermie	-5411
▁Dermale	-5412
▁Mutatie	-5413
▁bulleus	-5414
orroeduur	-5415
rofoblast	-5416
▁lymfomen	-5417
▁sclerose	-5418
▁spoeling	-5419
▁Oestrogeen	-5420
▁embryonale	-5421
▁colonpoliep	-5422
▁peritonitis	-5423
▁radiculaire	-5424
▁Radicaliteit	-5425
▁hoornmateriaal	-5426
43	-5427
6:	-5428
Af	-5429
rs	-5430
/13	-5431
AID	-5432
het	-5433
ric	-5434
▁33	-5435
▁4:	-5436
▁ro	-5437
Verk	-5438
bris	-5439
▁Tot	-5440
▁UIT	-5441
▁VII	-5442
▁mal	-5443
esion	-5444
ombin	-5445
ynaec	-5446
▁ware	-5447
aximale	-5448
mutatie	-5449
▁mitosen	-5450
▁prolaps	-5451
expressie	-5452
wezigheid	-5453
▁aangelev	-5454
▁grootste	-5455
oscopische	-5456
▁Reexcisie	-5457
▁Voorlopig	-5458
▁overleden	-5459
ysplastisch	-5460
▁celgroepen	-5461
▁verklaring	-5462
▁bovenooglid	-5463
▁gerelateerde	-5464
▁mastopathische	-5465
OL	-5466
jr	-5467
lp	-5468
▁"	-5469
15,	-5470
WIJ	-5471
▁RE	-5472
▁ag	-5473
SLAG	-5474
▁(20	-5475
▁LBK	-5476
▁bel	-5477
icard	-5478
▁fors	-5479
ernale	-5480
▁Onder	-5481
▁acuut	-5482
▁langs	-5483
▁ruime	-5484
▁interf	-5485
▁lambda	-5486
-*******	-5487
gebreide	-5488
structie	-5489
▁onzeker	-5490
▁gedegener	-5491
▁verminder	-5492
afwijkingen	-5493
ositiviteit	-5494
▁colonmucosa	-5495
▁infarcering	-5496
▁inflammatoir	-5497
▁insectenbeet	-5498
▁overgevoelig	-5499
resectievlakken	-5500
▁urotheelcellen	-5501
0.	-5502
ace	-5503
aps	-5504
yro	-5505
agel	-5506
peri	-5507
▁ecz	-5508
ieken	-5509
ocele	-5510
▁zuur	-5511
ereren	-5512
minder	-5513
▁graag	-5514
liggend	-5515
uperfic	-5516
▁fibrin	-5517
rectomie	-5518
reparaat	-5519
sternaal	-5520
▁ascites	-5521
efragment	-5522
epitheeld	-5523
orderline	-5524
voorbeeld	-5525
pathologie	-5526
▁basaalcel	-5527
orfologisch	-5528
▁superficiA	-5529
▁fo	-5530
DCIS	-5531
ient	-5532
long	-5533
opie	-5534
▁1-2	-5535
▁MDS	-5536
▁PDL	-5537
▁RBK	-5538
ntrum	-5539
verte	-5540
▁Next	-5541
uratie	-5542
▁aando	-5543
ASTASEN	-5544
rekking	-5545
rotocol	-5546
▁Mamman	-5547
▁cylind	-5548
▁genher	-5549
▁target	-5550
▁blokjes	-5551
▁laatste	-5552
▁schedel	-5553
▁passende	-5554
▁tongrand	-5555
spoelvocht	-5556
▁tubulaire	-5557
▁Tubectomie	-5558
▁therapieke	-5559
aanwijzingen	-5560
▁cribriforme	-5561
▁waargenomen	-5562
verschijnselen	-5563
▁huidafwijking	-5564
▁Slijmvliesbiopt	-5565
▁littekenvorming	-5566
4=	-5567
7:	-5568
sd	-5569
-02	-5570
]01	-5571
]12	-5572
bil	-5573
int	-5574
itz	-5575
▁39	-5576
▁av	-5577
19.[	-5578
21-2	-5579
emph	-5580
graf	-5581
stit	-5582
▁1,8	-5583
▁ost	-5584
▁Ampl	-5585
▁plek	-5586
vreemd	-5587
▁Inter	-5588
▁blast	-5589
▁immat	-5590
▁maakt	-5591
aanvull	-5592
▁Klasse	-5593
▁polype	-5594
▁Overige	-5595
▁angioom	-5596
▁relatie	-5597
▁botbiopt	-5598
▁complete	-5599
▁myeloide	-5600
▁referent	-5601
▁herhaling	-5602
▁micrograf	-5603
stoornissen	-5604
▁Mammabiopt	-5605
▁herkenbaar	-5606
klierweefsel	-5607
▁Helicobacters	-5608
5,	-5609
6)	-5610
aj	-5611
rg	-5612
2):	-5613
NNB	-5614
isc	-5615
rab	-5616
▁(>	-5617
▁2/	-5618
▁36	-5619
iops	-5620
iseq	-5621
vlok	-5622
▁40%	-5623
▁MDO	-5624
▁NIE	-5625
▁and	-5626
▁ess	-5627
▁spi	-5628
-22:[	-5629
▁coll	-5630
▁haem	-5631
▁reek	-5632
▁vijf	-5633
ariele	-5634
rombus	-5635
slagen	-5636
▁Morbus	-5637
▁blauwe	-5638
▁bronch	-5639
▁vanuit	-5640
asiforme	-5641
ektronen	-5642
lateraal	-5643
tefacten	-5644
▁evident	-5645
▁simpele	-5646
▁stadium	-5647
temporaal	-5648
▁adenomen	-5649
▁cystewand	-5650
▁opvallend	-5651
▁chromosoom	-5652
▁hypertrofe	-5653
▁uitrijpend	-5654
▁lymfocytair	-5655
▁vaatinvasie	-5656
▁spoelcellige	-5657
microscopische	-5658
▁idiopathische	-5659
▁transplantatie	-5660
▁Huidcurettement	-5661
5.	-5662
69	-5663
8/	-5664
TI	-5665
rw	-5666
16:	-5667
Def	-5668
▁5:	-5669
▁Ep	-5670
assp	-5671
iden	-5672
▁1,1	-5673
▁CIS	-5674
▁PPI	-5675
▁lar	-5676
▁ons	-5677
vaten	-5678
▁Aden	-5679
▁Zijn	-5680
▁arts	-5681
▁desm	-5682
▁high	-5683
▁mola	-5684
▁assay	-5685
▁lesie	-5686
▁regel	-5687
▁bewijs	-5688
▁cysten	-5689
▁ostium	-5690
aspiraat	-5691
▁tweetal	-5692
▁diepreik	-5693
▁plaatsen	-5694
▁erfelijke	-5695
▁microkalk	-5696
▁purulente	-5697
▁trofoblast	-5698
▁keratocyste	-5699
▁obturatorius	-5700
▁acantholytische	-5701
3:	-5702
IM	-5703
/11	-5704
cav	-5705
col	-5706
▁6.	-5707
HEID	-5708
Path	-5709
lear	-5710
next	-5711
oret	-5712
wann	-5713
▁Des	-5714
▁mot	-5715
iddel	-5716
ptuur	-5717
ratie	-5718
▁Goed	-5719
▁PTEN	-5720
inalis	-5721
inhoud	-5722
iteerd	-5723
trofie	-5724
ytisch	-5725
▁parat	-5726
leuring	-5727
ondanks	-5728
ormatie	-5729
▁cutaan	-5730
▁minusc	-5731
nextumor	-5732
omatosus	-5733
▁subtype	-5734
▁veneuze	-5735
▁eiwitten	-5736
▁polyposis	-5737
▁wekedelen	-5738
▁wisselend	-5739
iepreparaat	-5740
opathologie	-5741
transversum	-5742
ufficientie	-5743
▁betrekking	-5744
▁huidlaesie	-5745
▁collageneuze	-5746
▁excisiebiopt	-5747
%.	-5748
9/	-5749
DIG	-5750
LOK	-5751
Val	-5752
man	-5753
ser	-5754
ual	-5755
-21/	-5756
19-5	-5757
ubis	-5758
▁MAR	-5759
▁tek	-5760
-21:[	-5761
acute	-5762
irect	-5763
urele	-5764
▁pust	-5765
▁flard	-5766
-2022:[	-5767
maligne	-5768
vasatie	-5769
vertebr	-5770
▁Antrum	-5771
▁gynaec	-5772
▁mesent	-5773
invasief	-5774
overgang	-5775
verdacht	-5776
▁UITSLAG	-5777
▁fibreuze	-5778
▁geworden	-5779
▁perifere	-5780
preparaten	-5781
▁bowenoide	-5782
▁parenchym	-5783
▁Gefragment	-5784
▁VOORLOPIGE	-5785
lassificatie	-5786
▁telefonisch	-5787
▁positiviteit	-5788
▁micrografische	-5789
07	-5790
LL	-5791
yg	-5792
10)	-5793
GIO	-5794
ZIG	-5795
amp	-5796
vez	-5797
ALIS	-5798
ngio	-5799
ocla	-5800
volg	-5801
▁MAP	-5802
▁PMS	-5803
METER	-5804
basis	-5805
▁Anus	-5806
▁reum	-5807
advies	-5808
ilaris	-5809
proces	-5810
▁Acute	-5811
▁EORTC	-5812
▁minus	-5813
▁plasm	-5814
▁vrije	-5815
-2023:[	-5816
DIGHEID	-5817
ofarynx	-5818
pipelle	-5819
▁Vagina	-5820
▁afname	-5821
▁longen	-5822
esultaat	-5823
▁Verruca	-5824
▁adenoid	-5825
▁caudale	-5826
▁extensie	-5827
▁promotor	-5828
efrectomie	-5829
▁Reactieve	-5830
epithelioom	-5831
▁resultaten	-5832
▁ileumbiopten	-5833
▁lokalisaties	-5834
▁therapiekeuze	-5835
▁Zekerheidshalve	-5836
▁genherschikking	-5837
▁slijmvliesbiopt	-5838
4[	-5839
UV	-5840
lo	-5841
vl	-5842
vm	-5843
9:[	-5844
Ook	-5845
ber	-5846
rim	-5847
▁+3	-5848
▁1+	-5849
20-0	-5850
hese	-5851
hier	-5852
voet	-5853
▁Asp	-5854
▁hyd	-5855
Marsh	-5856
ervel	-5857
gland	-5858
szins	-5859
▁3+3=	-5860
▁amen	-5861
▁memb	-5862
▁tele	-5863
▁toez	-5864
elring	-5865
matige	-5866
▁clear	-5867
▁geldt	-5868
▁majus	-5869
conform	-5870
▁BIRADS	-5871
▁Huidre	-5872
istoffen	-5873
▁Hotspot	-5874
▁medisch	-5875
▁Ampliseq	-5876
▁bestaand	-5877
▁coronair	-5878
▁spontaan	-5879
6/*******/	-5880
▁epitheeld	-5881
▁uitgaande	-5882
▁zegelring	-5883
▁acuminatum	-5884
heidsreactie	-5885
▁achterhoofd	-5886
▁angiolipoom	-5887
▁flowcytomet	-5888
omiepreparaat	-5889
03	-5890
-11	-5891
ZIJ	-5892
ata	-5893
22-4	-5894
arch	-5895
caal	-5896
kans	-5897
▁1,4	-5898
▁fot	-5899
roper	-5900
▁milt	-5901
▁stud	-5902
rokken	-5903
▁Tepel	-5904
▁beter	-5905
▁grade	-5906
▁pubis	-5907
▁types	-5908
rijving	-5909
wannoom	-5910
eeranden	-5911
spoeling	-5912
▁bepalen	-5913
▁clonale	-5914
▁kristal	-5915
▁anterior	-5916
▁craniale	-5917
▁teratoom	-5918
topografie	-5919
▁hematurie	-5920
▁ventrikel	-5921
▁(*******):	-5922
▁beschadigd	-5923
▁cryptabces	-5924
▁prominente	-5925
▁toezending	-5926
oreticulaire	-5927
▁grootcellige	-5928
▁histiocytoom	-5929
▁infiltrerende	-5930
▁morfologische	-5931
9.	-5932
BE	-5933
po	-5934
19:	-5935
DNA	-5936
PCR	-5937
▁SN	-5938
20-3	-5939
ctin	-5940
▁CNV	-5941
▁Par	-5942
▁hal	-5943
▁zod	-5944
inger	-5945
iteri	-5946
recid	-5947
ritis	-5948
▁pars	-5949
▁valt	-5950
WIJZIG	-5951
ageren	-5952
▁Deels	-5953
▁biops	-5954
▁naevi	-5955
▁sluit	-5956
enteuze	-5957
gesteld	-5958
▁levert	-5959
▁lijken	-5960
▁tenzij	-5961
▁trauma	-5962
aliseerd	-5963
itoneale	-5964
▁externe	-5965
onderkwab	-5966
▁multipel	-5967
▁synovium	-5968
asslijmvlies	-5969
▁(*******):[	-5970
▁transmurale	-5971
▁zijsnijranden	-5972
▁lichaamsvreemd	-5973
▁zijsnijvlakken	-5974
14,	-5975
Ont	-5976
ege	-5977
lob	-5978
nem	-5979
▁<1	-5980
ella	-5981
▁LOK	-5982
▁TER	-5983
slaap	-5984
uwing	-5985
▁doet	-5986
▁glio	-5987
imeter	-5988
oplasm	-5989
aplasie	-5990
erfusie	-5991
gelegen	-5992
profiel	-5993
vlokken	-5994
▁lymfoA	-5995
ocytocla	-5996
▁gesteld	-5997
▁toxisch	-5998
▁Eventueel	-5999
▁maternale	-6000
▁onderkaak	-6001
▁posterior	-6002
▁infectieus	-6003
▁ondersteun	-6004
▁proficient	-6005
▁spermatozoa	-6006
▁Ileumbiopten	-6007
▁Mammapunctie	-6008
▁onregelmatig	-6009
▁huidadnextumor	-6010
▁retroauriculair	-6011
%)	-6012
97	-6013
AB	-6014
AH	-6015
JBE	-6016
TUR	-6017
sol	-6018
▁Ab	-6019
-19/	-6020
Next	-6021
alen	-6022
amne	-6023
ange	-6024
lamm	-6025
renz	-6026
ANGIO	-6027
adnex	-6028
grote	-6029
leerd	-6030
uraal	-6031
▁Buik	-6032
▁anti	-6033
▁isch	-6034
▁koil	-6035
▁uurs	-6036
▁CTNNB	-6037
▁gerev	-6038
▁inder	-6039
▁maken	-6040
Variant	-6041
mediaan	-6042
▁Hyster	-6043
▁dubbel	-6044
spontaan	-6045
▁duodeni	-6046
▁gekende	-6047
▁opnieuw	-6048
▁organis	-6049
▁reading	-6050
▁verkalk	-6051
▁Minimale	-6052
▁klassiek	-6053
▁reageren	-6054
▁genereren	-6055
▁oorspronk	-6056
▁aandoening	-6057
▁basaalmemb	-6058
▁middermaal	-6059
▁segmentale	-6060
▁Lumpectomie	-6061
▁macroscopie	-6062
▁reusceltumor	-6063
▁Duodenumbiopt	-6064
▁psoriasiforme	-6065
0,	-6066
61	-6067
Ge	-6068
db	-6069
.34	-6070
?):	-6071
Arg	-6072
▁SM	-6073
uter	-6074
▁(22	-6075
▁2-3	-6076
▁20%	-6077
▁Rec	-6078
▁fus	-6079
/2015	-6080
ielen	-6081
vaste	-6082
▁vers	-6083
decidu	-6084
▁NSAID	-6085
▁reeks	-6086
▁steun	-6087
▁Pleura	-6088
▁debris	-6089
▁dorsum	-6090
▁fibrot	-6091
▁fundus	-6092
▁hoewel	-6093
▁medebe	-6094
▁puntje	-6095
▁remmer	-6096
ergische	-6097
▁monotyp	-6098
▁ruptuur	-6099
▁stolsel	-6100
▁Volledig	-6101
▁alopecia	-6102
▁controle	-6103
▁maximaal	-6104
Oestrogeen	-6105
ZIJDIGHEID	-6106
▁tangentie	-6107
▁tumorrest	-6108
▁Chronische	-6109
▁Maagcorpus	-6110
▁haematurie	-6111
▁Lokalisatie	-6112
▁antistoffen	-6113
▁erythematosus	-6114
▁scleroserende	-6115
▁behandeladvies	-6116
▁epitheelcellen	-6117
▁megakaryocyten	-6118
Ontstekingsbeeld	-6119
06	-6120
Ex	-6121
NF	-6122
-12	-6123
7:[	-6124
lel	-6125
rsi	-6126
▁0[	-6127
▁He	-6128
▁La	-6129
Mohs	-6130
bouw	-6131
cyst	-6132
daad	-6133
scri	-6134
▁Vas	-6135
▁exc	-6136
▁lis	-6137
Mamma	-6138
ernen	-6139
otact	-6140
racht	-6141
wegen	-6142
▁fasc	-6143
▁pemf	-6144
▁rijp	-6145
rapste	-6146
▁nieuw	-6147
achtige	-6148
▁Hemith	-6149
▁alsook	-6150
▁daarom	-6151
▁direct	-6152
▁verwij	-6153
ificeerd	-6154
lammatie	-6155
▁candida	-6156
▁hormoon	-6157
▁verhoog	-6158
▁subtiele	-6159
▁waarvoor	-6160
vertebraal	-6161
▁Cytologie	-6162
▁betreffen	-6163
▁voorzijde	-6164
uperficieel	-6165
▁detecteert	-6166
▁informatie	-6167
▁irradicaal	-6168
▁gereviseerd	-6169
▁lumpectomie	-6170
▁sneevlakken	-6171
▁beschrijving	-6172
▁mesenchymale	-6173
gedifferentieerd	-6174
▁zijresectievlak	-6175
56	-6176
EB	-6177
bv	-6178
hl	-6179
my	-6180
rc	-6181
/12	-6182
VAF	-6183
deel	-6184
lark	-6185
lokt	-6186
lott	-6187
ylor	-6188
▁Lab	-6189
▁ivm	-6190
intra	-6191
ustom	-6192
▁spec	-6193
coecum	-6194
kedarm	-6195
▁ischa	-6196
▁opgev	-6197
▁silic	-6198
tumoren	-6199
▁advies	-6200
▁bacter	-6201
▁buizen	-6202
▁gedeel	-6203
▁liquor	-6204
Resectie	-6205
bronchus	-6206
keratose	-6207
oidcyste	-6208
oomcyste	-6209
▁klieren	-6210
▁palatum	-6211
▁spiroch	-6212
elichting	-6213
▁Litteken	-6214
▁mucocele	-6215
▁halscyste	-6216
▁immunofen	-6217
▁celrijkdom	-6218
▁diverticul	-6219
▁duodenitis	-6220
▁preparaten	-6221
▁Curettement	-6222
▁inflammatie	-6223
Tumordiameter	-6224
▁circumferent	-6225
▁eosinofielen	-6226
▁leverweefsel	-6227
▁mammaparenchym	-6228
1.[	-6229
:12	-6230
agi	-6231
aus	-6232
dep	-6233
idu	-6234
imb	-6235
-23/	-6236
15-2	-6237
16-5	-6238
22-0	-6239
LYMF	-6240
igen	-6241
odex	-6242
olle	-6243
plas	-6244
rach	-6245
vage	-6246
▁1):	-6247
▁ast	-6248
▁vez	-6249
lagig	-6250
olype	-6251
stens	-6252
uscum	-6253
▁2014	-6254
▁klep	-6255
bitaal	-6256
erings	-6257
gelegd	-6258
▁Kerat	-6259
▁datum	-6260
▁femur	-6261
▁hecht	-6262
▁waren	-6263
agiosum	-6264
▁wervel	-6265
cysteuze	-6266
olluscum	-6267
▁AANVULL	-6268
▁galgang	-6269
▁medicam	-6270
▁seborro	-6271
Tumortype	-6272
▁Maximale	-6273
uterisatie	-6274
▁enigszins	-6275
▁inderdaad	-6276
▁zuurvaste	-6277
achtergrond	-6278
▁botweefsel	-6279
▁ingesloten	-6280
▁veroorzaak	-6281
luorescentie	-6282
▁MOLECULAIRE	-6283
▁Uitgebreide	-6284
▁contagiosum	-6285
▁gerelateerd	-6286
▁mastopathie	-6287
▁clonaliteits	-6288
▁huidexcisies	-6289
▁amenorroeduur	-6290
">	-6291
</	-6292
gv	-6293
18:	-6294
DIA	-6295
Glu	-6296
TKI	-6297
Ver	-6298
bed	-6299
ime	-6300
pal	-6301
pan	-6302
ppe	-6303
tag	-6304
▁Sj	-6305
▁ju	-6306
-18/	-6307
19-0	-6308
GFRA	-6309
Maag	-6310
cred	-6311
pjes	-6312
▁30%	-6313
▁NEN	-6314
▁TPS	-6315
▁src	-6316
119.[	-6317
etica	-6318
junct	-6319
ulcer	-6320
verst	-6321
▁2013	-6322
▁FFPE	-6323
▁NTRK	-6324
▁Raad	-6325
▁TERT	-6326
▁date	-6327
▁fung	-6328
▁geac	-6329
▁herp	-6330
▁hybr	-6331
-15189	-6332
amnese	-6333
assing	-6334
▁Actin	-6335
▁Intra	-6336
▁Nader	-6337
▁nagel	-6338
▁pemph	-6339
▁cilind	-6340
▁serosa	-6341
▁studie	-6342
▁zouden	-6343
ALISATIE	-6344
celtumor	-6345
▁Blaassp	-6346
-15189:12	-6347
carcinoma	-6348
▁geaccred	-6349
▁sprietig	-6350
7/*******/	-6351
atienummer	-6352
▁blaashals	-6353
▁mucineuze	-6354
ibroserende	-6355
snijvlakken	-6356
▁Lymfeklier	-6357
▁darmlijden	-6358
▁erythrocyt	-6359
etiginisatie	-6360
▁huidbiopsie	-6361
▁lichenoides	-6362
▁ondersteunt	-6363
▁responskans	-6364
▁veroorzaakt	-6365
▁Accreditatie	-6366
▁onderkwadrant	-6367
▁geaccrediteerd	-6368
.</	-6369
IST	-6370
aru	-6371
ikk	-6372
oco	-6373
ror	-6374
▁32	-6375
▁70	-6376
▁:[	-6377
▁NA	-6378
▁Om	-6379
-13/	-6380
17-2	-6381
epen	-6382
haar	-6383
kank	-6384
unis	-6385
▁1,6	-6386
▁EIN	-6387
▁cur	-6388
-20:[	-6389
Angio	-6390
aruke	-6391
asale	-6392
ember	-6393
ocale	-6394
kintag	-6395
▁Spitz	-6396
▁error	-6397
verlies	-6398
recidief	-6399
▁maxilla	-6400
centratie	-6401
ethyleerd	-6402
ificeerde	-6403
▁complexe	-6404
▁lineaire	-6405
▁radicale	-6406
▁Wekedelen	-6407
▁getroffen	-6408
▁overgangs	-6409
▁waaronder	-6410
localisatie	-6411
oplastische	-6412
▁circulatie	-6413
▁opgevraagd	-6414
▁voorgelegd	-6415
fibroserende	-6416
ransplantaat	-6417
▁Excochleaat	-6418
▁junctionele	-6419
▁teleangiect	-6420
▁cylindrische	-6421
▁dysplastisch	-6422
▁mogelijkheden	-6423
slijmvliesbiopt	-6424
▁Lymfklierbiopt	-6425
▁insufficientie	-6426
44	-6427
LB	-6428
TP	-6429
.17	-6430
GMT	-6431
vet	-6432
▁IK	-6433
▁kl	-6434
18-0	-6435
KRAS	-6436
atio	-6437
eoom	-6438
knie	-6439
omst	-6440
▁4,5	-6441
▁Gra	-6442
▁MDM	-6443
▁por	-6444
iezen	-6445
▁Aard	-6446
▁Waar	-6447
▁cave	-6448
▁gein	-6449
▁pept	-6450
▁werk	-6451
kanker	-6452
▁behor	-6453
▁losse	-6454
▁potje	-6455
revisie	-6456
▁Aantal	-6457
▁fibrom	-6458
▁stukje	-6459
DIAMETER	-6460
duodenum	-6461
edieerde	-6462
omatoide	-6463
volledig	-6464
▁kaaklijn	-6465
▁kaakrand	-6466
verstoring	-6467
▁mesenteri	-6468
▁molluscum	-6469
▁verklaren	-6470
▁schwannoom	-6471
▁ulcererend	-6472
▁Resectievlak	-6473
▁pathologische	-6474
▁basaalmembraan	-6475
▁leiomyosarcoom	-6476
▁impetiginisatie	-6477
.,	-6478
9,	-6479
CB	-6480
MN	-6481
/10	-6482
3).	-6483
8:[	-6484
TRA	-6485
▁4.	-6486
▁As	-6487
▁Ov	-6488
20-2	-6489
21-0	-6490
23-0	-6491
="16	-6492
ease	-6493
▁RNA	-6494
▁TNM	-6495
▁kon	-6496
cobas	-6497
papil	-6498
▁(3):	-6499
▁pees	-6500
IJVLAK	-6501
nemend	-6502
oidale	-6503
stitiA	-6504
thorax	-6505
ventie	-6506
▁helft	-6507
▁irreg	-6508
▁monoc	-6509
▁zodat	-6510
-2016:[	-6511
oliepen	-6512
▁Basaal	-6513
▁Hoewel	-6514
▁krappe	-6515
inclusie	-6516
ocoecaal	-6517
▁Normaal	-6518
▁bepaald	-6519
▁beschik	-6520
▁gevalid	-6521
▁snijden	-6522
▁essentie	-6523
▁insturen	-6524
▁lymfaden	-6525
▁secretoir	-6526
microscopie	-6527
▁divertikel	-6528
▁veranderde	-6529
▁toelichting	-6530
▁Morfologisch	-6531
▁cauterisatie	-6532
▁intraductaal	-6533
▁endometriosis	-6534
▁recidiverende	-6535
▁vasoinvasieve	-6536
▁linkerbovenbeen	-6537
▁linkeronderbeen	-6538
51	-6539
74	-6540
DT	-6541
rr	-6542
2),	-6543
6):	-6544
Per	-6545
ail	-6546
hib	-6547
mel	-6548
ous	-6549
▁8,	-6550
▁Co	-6551
▁ON	-6552
▁SP	-6553
▁ST	-6554
16-2	-6555
ilus	-6556
odes	-6557
spro	-6558
tjes	-6559
▁BVO	-6560
▁ana	-6561
arina	-6562
level	-6563
oeder	-6564
stype	-6565
trent	-6566
▁2016	-6567
▁Comp	-6568
▁hyal	-6569
▁ingu	-6570
▁intr	-6571
▁kiem	-6572
▁term	-6573
assend	-6574
ilater	-6575
▁Beide	-6576
▁gelok	-6577
▁group	-6578
▁ingeb	-6579
▁molle	-6580
▁terug	-6581
▁vocht	-6582
-2021:[	-6583
Punctie	-6584
aortaal	-6585
iformis	-6586
oscopie	-6587
▁PDGFRA	-6588
▁Randen	-6589
▁aangeb	-6590
▁hybrid	-6591
▁tricho	-6592
ematisch	-6593
epatitis	-6594
laterale	-6595
zakelijk	-6596
▁gebiopt	-6597
▁niveaus	-6598
▁persist	-6599
▁traject	-6600
oppervlak	-6601
▁epitheli	-6602
▁gastrale	-6603
▁retroper	-6604
bespreking	-6605
illectomie	-6606
▁collagene	-6607
▁poliepjes	-6608
LOKALISATIE	-6609
▁Desondanks	-6610
▁generation	-6611
▁lipomateuze	-6612
▁presternaal	-6613
▁regeneratie	-6614
▁Oppervlakkig	-6615
▁celpopulatie	-6616
▁extravasatie	-6617
▁rechtermamma	-6618
ocytoclastische	-6619
▁submandibularis	-6620
ZH	-6621
9):	-6622
Gra	-6623
IHC	-6624
cus	-6625
des	-6626
▁34	-6627
▁60	-6628
▁ME	-6629
▁Th	-6630
16-3	-6631
22-2	-6632
VIII	-6633
atop	-6634
gast	-6635
hang	-6636
orme	-6637
▁(1/	-6638
maals	-6639
sduur	-6640
teerd	-6641
usual	-6642
vende	-6643
▁Tons	-6644
▁ling	-6645
aanden	-6646
asting	-6647
ilaire	-6648
ronden	-6649
script	-6650
▁relev	-6651
Conform	-6652
▁Bronch	-6653
▁compon	-6654
▁niveau	-6655
▁oorlel	-6656
▁planop	-6657
▁versch	-6658
▁vroege	-6659
delingse	-6660
voorstel	-6661
▁criteri	-6662
▁globaal	-6663
▁interna	-6664
▁tubulus	-6665
▁voetrug	-6666
arcinomen	-6667
handeling	-6668
▁communis	-6669
▁gecombin	-6670
▁pancreat	-6671
▁reductie	-6672
metaplasie	-6673
oidectomie	-6674
sectierand	-6675
▁Voldoende	-6676
▁betrokken	-6677
▁meerlagig	-6678
▁mondbodem	-6679
▁overigens	-6680
▁goedaardig	-6681
▁progressie	-6682
▁cilindercel	-6683
▁colorectaal	-6684
▁planopilaris	-6685
▁hypertrofisch	-6686
▁huidstansbiopt	-6687
▁Gefragmenteerde	-6688
▁ileumslijmvlies	-6689
▁weefselfragment	-6690
ML	-6691
SN	-6692
117	-6693
AHA	-6694
ala	-6695
oeg	-6696
rix	-6697
▁1%	-6698
aget	-6699
lega	-6700
omyc	-6701
pool	-6702
▁(14	-6703
▁Pan	-6704
▁fra	-6705
▁gez	-6706
▁hom	-6707
▁hun	-6708
issie	-6709
ulose	-6710
wezen	-6711
▁pann	-6712
knepen	-6713
okerat	-6714
▁GROEI	-6715
▁gemod	-6716
▁herbe	-6717
INGROEI	-6718
mediale	-6719
▁collega	-6720
▁maanden	-6721
eenlijden	-6722
wijdering	-6723
▁*******;	-6724
▁behouden	-6725
▁biopsies	-6726
▁geschikt	-6727
▁gestelde	-6728
▁helemaal	-6729
cisiebiopt	-6730
laaggradig	-6731
otactische	-6732
▁different	-6733
▁peptische	-6734
▁sequentie	-6735
▁verknepen	-6736
▁zijranden	-6737
▁Tepelvocht	-6738
▁meningeoom	-6739
ANGIOINVASIE	-6740
histiocytaire	-6741
▁hybridisatie	-6742
▁panniculitis	-6743
▁hemorragische	-6744
▁plaatepitheel	-6745
▁Waarschijnlijk	-6746
▁hemicolectomie	-6747
▁prolifererende	-6748
▁Bronchusbiopten	-6749
▁blaasslijmvlies	-6750
+,	-6751
8.	-6752
TA	-6753
TM	-6754
bi	-6755
ux	-6756
17:	-6757
Cyt	-6758
MBR	-6759
UWE	-6760
irc	-6761
▁1[	-6762
ails	-6763
rise	-6764
wikk	-6765
▁BAL	-6766
▁Sle	-6767
▁neo	-6768
▁oed	-6769
▁̄rr	-6770
extra	-6771
ilemm	-6772
▁coli	-6773
▁neur	-6774
▁noch	-6775
evocht	-6776
icrise	-6777
schede	-6778
▁Bodem	-6779
▁compo	-6780
▁voorh	-6781
erieure	-6782
▁Celarm	-6783
▁defect	-6784
▁lavage	-6785
▁marker	-6786
▁mitose	-6787
eratieve	-6788
poliepen	-6789
▁hoogste	-6790
▁mycosis	-6791
▁stellen	-6792
▁trombus	-6793
adierings	-6794
▁Hierover	-6795
▁aspiraat	-6796
▁darmtype	-6797
▁hechting	-6798
▁kaakhoek	-6799
▁keratine	-6800
vasculaire	-6801
▁acanthoom	-6802
▁dubbelbre	-6803
▁fungoides	-6804
▁groeiende	-6805
▁maturatie	-6806
▁Wigexcisie	-6807
▁aangeboden	-6808
▁multiforme	-6809
▁dermatoloog	-6810
▁eczemateuze	-6811
▁linkermamma	-6812
▁aangeleverde	-6813
▁diverticulose	-6814
ctomiepreparaat	-6815
▁flowcytometrie	-6816
▁maagantrumtype	-6817
▁paravertebraal	-6818
kedarmslijmvlies	-6819
▁schildklierkwab	-6820
85	-6821
.):	-6822
18,	-6823
TTF	-6824
VCM	-6825
cri	-6826
ibr	-6827
oos	-6828
rib	-6829
▁Le	-6830
13-3	-6831
14-3	-6832
18-2	-6833
2-10	-6834
Type	-6835
morf	-6836
reen	-6837
▁(2)	-6838
▁2.[	-6839
▁Bep	-6840
▁MYD	-6841
▁fen	-6842
▁the	-6843
▁zes	-6844
iging	-6845
▁uitg	-6846
coupes	-6847
hoewel	-6848
monale	-6849
▁Assay	-6850
▁derde	-6851
▁intim	-6852
-2020:[	-6853
apeling	-6854
fibroom	-6855
ienalis	-6856
▁Nieuwe	-6857
▁curvat	-6858
▁grader	-6859
▁incomp	-6860
▁slijmv	-6861
▁staven	-6862
oradisch	-6863
▁Celrijk	-6864
▁apicaal	-6865
▁decidua	-6866
▁ontwikk	-6867
▁bovenste	-6868
▁compound	-6869
▁genoemde	-6870
▁herkomst	-6871
▁omgeving	-6872
▁subacute	-6873
▁verwijde	-6874
▁klierbuis	-6875
▁regelmatig	-6876
▁thoraxwand	-6877
▁̄rriteerde	-6878
▁epitheliaal	-6879
▁linkerzijde	-6880
▁mediastinale	-6881
▁Bronchusbrush	-6882
▁haarfollikels	-6883
▁immuunprofiel	-6884
▁submandibulair	-6885
-,	-6886
5:	-6887
li	-6888
21:	-6889
Cys	-6890
JTH	-6891
KIN	-6892
bul	-6893
ift	-6894
iss	-6895
ome	-6896
ung	-6897
13-2	-6898
19-3	-6899
BRAF	-6900
olen	-6901
▁(3+	-6902
▁Ion	-6903
▁LOH	-6904
Beeld	-6905
IMALE	-6906
ragma	-6907
snede	-6908
vraag	-6909
▁HRAS	-6910
▁Twee	-6911
▁clin	-6912
▁isth	-6913
Poliep	-6914
ingiva	-6915
ioneel	-6916
onucle	-6917
▁12/13	-6918
▁Synov	-6919
▁comed	-6920
▁lange	-6921
▁thyre	-6922
eerbaar	-6923
▁adenoc	-6924
▁gehoor	-6925
▁methyl	-6926
▁viraal	-6927
▁voorts	-6928
cidentie	-6929
▁disease	-6930
Resultaat	-6931
▁bevatten	-6932
▁flardjes	-6933
▁hematoom	-6934
▁immature	-6935
▁nogmaals	-6936
▁anterieur	-6937
▁immuuncyt	-6938
▁represent	-6939
▁uitsluiten	-6940
▁beschikbaar	-6941
▁pancreaskop	-6942
▁Huidexcisies	-6943
▁bijvoorbeeld	-6944
▁cellulariteit	-6945
▁chemotherapie	-6946
▁restmateriaal	-6947
▁vreemdlichaam	-6948
83	-6949
87	-6950
IC	-6951
UP	-6952
gn	-6953
ko	-6954
-2-	-6955
CLC	-6956
pse	-6957
18-3	-6958
GEEN	-6959
ISCH	-6960
irat	-6961
moid	-6962
norm	-6963
odus	-6964
uble	-6965
ulat	-6966
▁2,2	-6967
▁Dem	-6968
▁Ser	-6969
braak	-6970
ekent	-6971
embol	-6972
hrale	-6973
ipeus	-6974
latie	-6975
▁acht	-6976
▁stri	-6977
Aantal	-6978
blokje	-6979
ervorm	-6980
midden	-6981
random	-6982
▁Samen	-6983
▁tekst	-6984
Vanwege	-6985
distaal	-6986
▁Cancer	-6987
▁inhoud	-6988
▁tanden	-6989
▁Demodex	-6990
usculaire	-6991
▁gevolgen	-6992
▁lienalis	-6993
▁villitis	-6994
▁blijvende	-6995
▁curvatuur	-6996
▁regionale	-6997
▁siliconen	-6998
▁Aanvulling	-6999
▁gehoorgang	-7000
▁trichilemm	-7001
▁voorlopige	-7002
▁cristabiopt	-7003
▁hypertensie	-7004
▁Verwijdering	-7005
▁diepreikende	-7006
▁rechterzijde	-7007
differentiatie	-7008
▁onregelmatige	-7009
04	-7010
ao	-7011
za	-7012
ICC	-7013
TOR	-7014
]31	-7015
ekk	-7016
▁0/	-7017
15-3	-7018
alan	-7019
fund	-7020
ouwd	-7021
rium	-7022
roep	-7023
▁1.[	-7024
arige	-7025
eleid	-7026
idend	-7027
naire	-7028
weest	-7029
▁1).[	-7030
▁pTaG	-7031
▁part	-7032
▁reep	-7033
▁risk	-7034
1-11-1	-7035
ochond	-7036
▁dagen	-7037
▁order	-7038
astasen	-7039
grootte	-7040
▁Diepte	-7041
▁Naruke	-7042
▁perine	-7043
▁vinger	-7044
maximale	-7045
mucosale	-7046
▁(0/1).[	-7047
▁gericht	-7048
▁huidige	-7049
▁isthmus	-7050
▁tubaire	-7051
cobacteri	-7052
inclusief	-7053
voorlopig	-7054
▁aangrenz	-7055
▁dezelfde	-7056
▁excisies	-7057
▁hidraden	-7058
▁nefritis	-7059
alperfusie	-7060
ocellulaire	-7061
ovenstaande	-7062
▁adenomyose	-7063
▁darmkanker	-7064
▁elektronen	-7065
▁gastrische	-7066
▁onverdacht	-7067
▁poliepeuze	-7068
▁voorhanden	-7069
Naaldbiopten	-7070
yroidectomie	-7071
▁componenten	-7072
▁necrotische	-7073
▁verwijdering	-7074
unohistochemie	-7075
▁ductectasieen	-7076
▁ectocervicaal	-7077
▁leverparenchym	-7078
HL	-7079
RG	-7080
ni	-7081
yc	-7082
-1.	-7083
OEK	-7084
ROS	-7085
alu	-7086
gek	-7087
omm	-7088
ora	-7089
pje	-7090
pur	-7091
▁-)	-7092
▁HE	-7093
▁dw	-7094
▁sk	-7095
CAAL	-7096
heen	-7097
ossa	-7098
▁Dep	-7099
▁Ten	-7100
▁wil	-7101
Level	-7102
clone	-7103
haard	-7104
helix	-7105
reerd	-7106
udaal	-7107
vagin	-7108
▁Atyp	-7109
▁Neus	-7110
▁diaf	-7111
▁inkt	-7112
▁verl	-7113
-2019:	-7114
-2021:	-7115
entrif	-7116
plasia	-7117
▁MARGE	-7118
▁eerst	-7119
▁nevus	-7120
▁plooi	-7121
apulair	-7122
omycose	-7123
rolifer	-7124
▁Advies	-7125
▁Laesie	-7126
Voorstel	-7127
orbitaal	-7128
▁gangren	-7129
▁geulcer	-7130
▁geweest	-7131
▁vliezen	-7132
▁*******-	-7133
▁GEWIJZIG	-7134
▁polypeus	-7135
▁Klinische	-7136
▁preputium	-7137
▁tandenrij	-7138
▁variaties	-7139
▁Colonbiopt	-7140
▁borderline	-7141
iesmateriaal	-7142
▁lymfoplasma	-7143
▁malperfusie	-7144
▁melanocyten	-7145
▁tangentieel	-7146
▁tumorlengte	-7147
▁chirurgische	-7148
▁intraductale	-7149
▁naaldbiopsie	-7150
Differentiatie	-7151
▁Blaasspoeling	-7152
▁gemodificeerde	-7153
0[	-7154
5)	-7155
54	-7156
NO	-7157
RC	-7158
2.[	-7159
Asp	-7160
Zij	-7161
aas	-7162
ipp	-7163
uld	-7164
▁Ki	-7165
-22/	-7166
14-2	-7167
15-4	-7168
ZOEK	-7169
abet	-7170
cran	-7171
hank	-7172
iken	-7173
klep	-7174
oris	-7175
zool	-7176
▁Bes	-7177
▁CLL	-7178
▁RIP	-7179
▁vru	-7180
▁zin	-7181
.1799	-7182
briek	-7183
▁Link	-7184
▁Torr	-7185
▁duim	-7186
erking	-7187
haarde	-7188
idalis	-7189
▁Clark	-7190
▁ONDER	-7191
▁digit	-7192
▁steel	-7193
arsgest	-7194
handrug	-7195
verneus	-7196
ytrocyt	-7197
▁Archer	-7198
▁Hierin	-7199
▁aanbev	-7200
▁alhier	-7201
▁antrac	-7202
▁diabet	-7203
▁verval	-7204
▁vrucht	-7205
dictieve	-7206
gevonden	-7207
sproduct	-7208
xanthoom	-7209
▁Torrent	-7210
▁chorion	-7211
▁endomet	-7212
▁geprikk	-7213
▁membran	-7214
▁mesangi	-7215
▁rijping	-7216
▁Spontaan	-7217
5/*******/	-7218
bijmenging	-7219
chronische	-7220
cochleatie	-7221
etreffende	-7222
ronodulair	-7223
▁basaloide	-7224
▁collageen	-7225
▁huidshave	-7226
▁inzending	-7227
▁serositis	-7228
Definitieve	-7229
Sneevlakken	-7230
▁bloedvaten	-7231
▁conclusief	-7232
▁immunoloog	-7233
▁imponerend	-7234
▁kristallen	-7235
▁maagmucosa	-7236
▁shavebiopt	-7237
▁urineblaas	-7238
▁infiltraten	-7239
▁longweefsel	-7240
▁lymfatische	-7241
▁submucosaal	-7242
▁voorkomende	-7243
▁Breslowdikte	-7244
▁anaplastisch	-7245
▁glioblastoom	-7246
▁huidresectie	-7247
▁dubbelbrekend	-7248
▁macroscopisch	-7249
▁trichilemmale	-7250
▁hepatocellulair	-7251
64	-7252
EM	-7253
NOS	-7254
ana	-7255
mal	-7256
uul	-7257
▁MP	-7258
22:[	-7259
Door	-7260
orum	-7261
reek	-7262
time	-7263
▁1,7	-7264
▁DIA	-7265
▁HPF	-7266
▁JAK	-7267
▁Lip	-7268
▁Low	-7269
Marge	-7270
hibit	-7271
steek	-7272
▁Aang	-7273
▁cort	-7274
▁doen	-7275
▁endo	-7276
▁pyel	-7277
▁soms	-7278
eikend	-7279
totaal	-7280
yperen	-7281
▁Paget	-7282
▁myoom	-7283
▁semen	-7284
▁usual	-7285
-2018:[	-7286
dermale	-7287
neusrug	-7288
ropoese	-7289
▁Weinig	-7290
▁geloos	-7291
▁lesion	-7292
▁oproep	-7293
▁stenen	-7294
▁toonde	-7295
ofibrose	-7296
ventieve	-7297
wijzigde	-7298
▁Bericht	-7299
▁eenduid	-7300
▁keratin	-7301
▁vaatjes	-7302
▁voorste	-7303
Pathogene	-7304
otypering	-7305
▁centrale	-7306
▁galwegen	-7307
▁gesneden	-7308
▁groepjes	-7309
▁spoelcel	-7310
▁vesicula	-7311
carcinomen	-7312
▁ONDERZOEK	-7313
▁afgenomen	-7314
▁behorende	-7315
▁bevinding	-7316
▁linkeroor	-7317
▁resttumor	-7318
▁slijmvorm	-7319
behandeling	-7320
olypectomie	-7321
▁amyloidose	-7322
▁artefacten	-7323
▁bijmenging	-7324
▁fibromatose	-7325
▁mechanische	-7326
▁pseudodecidu	-7327
▁resectierand	-7328
▁Endocervicale	-7329
▁fibroxanthoom	-7330
▁linkeronderarm	-7331
,6	-7332
57	-7333
93	-7334
4).	-7335
VEN	-7336
cir	-7337
cur	-7338
ras	-7339
▁+/	-7340
▁ZN	-7341
▁il	-7342
17-5	-7343
18-5	-7344
23-3	-7345
cand	-7346
diep	-7347
dors	-7348
pTNM	-7349
riae	-7350
verm	-7351
▁%).	-7352
▁(15	-7353
▁ANA	-7354
▁afd	-7355
-23:[	-7356
/2014	-7357
Micro	-7358
astas	-7359
front	-7360
immun	-7361
ouble	-7362
romet	-7363
▁SISH	-7364
▁aard	-7365
▁afge	-7366
▁heel	-7367
▁kwab	-7368
▁nauw	-7369
▁plat	-7370
▁zaad	-7371
follic	-7372
iddels	-7373
lation	-7374
stenen	-7375
▁Cyste	-7376
▁Delen	-7377
▁cardi	-7378
▁clust	-7379
▁heter	-7380
▁organ	-7381
▁pylor	-7382
▁zwart	-7383
Afstand	-7384
geassoc	-7385
reikend	-7386
▁belang	-7387
▁foetus	-7388
▁reiken	-7389
▁stasis	-7390
behaarde	-7391
▁arterie	-7392
▁cerebri	-7393
▁daarmee	-7394
▁rubriek	-7395
architect	-7396
ativiteit	-7397
ilaterale	-7398
procedure	-7399
▁Reactief	-7400
▁Subcutis	-7401
▁chronica	-7402
▁conjunct	-7403
▁geloosde	-7404
▁reikende	-7405
▁dwarsgest	-7406
▁solitaire	-7407
▁werkgroep	-7408
Lokalisatie	-7409
Pleuravocht	-7410
endometrium	-7411
▁pemphigoid	-7412
▁wigexcisie	-7413
▁Stadierings	-7414
▁overtuigend	-7415
▁vastgesteld	-7416
interstitiele	-7417
▁blaarvorming	-7418
▁glomerulaire	-7419
▁verkalkingen	-7420
▁Transuretrale	-7421
▁atheroomcyste	-7422
▁betrokkenheid	-7423
-03-13/*******/	-7424
▁Sigmoidresectie	-7425
89	-7426
NS	-7427
PM	-7428
SA	-7429
-67	-7430
1),	-7431
UVD	-7432
Vol	-7433
nek	-7434
nos	-7435
ode	-7436
▁Ar	-7437
▁Br	-7438
20:[	-7439
clus	-7440
looi	-7441
mark	-7442
ruma	-7443
weet	-7444
wend	-7445
▁(11	-7446
▁(2,	-7447
▁2,3	-7448
▁3),	-7449
▁3.[	-7450
▁80%	-7451
▁ATM	-7452
▁Wat	-7453
annen	-7454
auter	-7455
elden	-7456
ermed	-7457
komen	-7458
ogren	-7459
tieel	-7460
ylori	-7461
▁2015	-7462
▁High	-7463
▁MGMT	-7464
▁Uret	-7465
▁gesp	-7466
▁thym	-7467
▁toep	-7468
DERING	-7469
Gezien	-7470
etisch	-7471
tussen	-7472
udeerd	-7473
▁juist	-7474
▁media	-7475
▁pilon	-7476
▁scrot	-7477
-2017:[	-7478
-2019:[	-7479
ructuur	-7480
volgens	-7481
▁Nadere	-7482
▁bewijz	-7483
▁septum	-7484
▁waarde	-7485
stitieel	-7486
typering	-7487
▁(100%),	-7488
▁crypten	-7489
▁stenose	-7490
GRADERING	-7491
▁betekent	-7492
▁respirat	-7493
▁verwacht	-7494
ohepatitis	-7495
▁basalioom	-7496
▁cryptitis	-7497
glandulaire	-7498
▁bacteriele	-7499
▁liposarcoom	-7500
▁prostatitis	-7501
▁sclerotisch	-7502
▁uitbreidend	-7503
▁Blaasbiopten	-7504
▁endometriale	-7505
▁gemethyleerd	-7506
▁systematisch	-7507
▁Interpretatie	-7508
▁duodenumbiopt	-7509
▁ondersteuning	-7510
▁persisterende	-7511
▁Adenocarcinoom	-7512
▁metaplastische	-7513
IX	-7514
LY	-7515
ju	-7516
11,	-7517
Ind	-7518
]3.	-7519
kas	-7520
ord	-7521
pol	-7522
▁6:	-7523
▁qu	-7524
CROM	-7525
Hoog	-7526
greg	-7527
ijns	-7528
loed	-7529
▁(23	-7530
▁1,0	-7531
▁90%	-7532
▁ano	-7533
auhin	-7534
delen	-7535
kleur	-7536
ofyse	-7537
orood	-7538
▁GNAQ	-7539
▁Orch	-7540
▁bijt	-7541
▁veld	-7542
▁with	-7543
1-12-1	-7544
CROMET	-7545
groeid	-7546
ijkant	-7547
stisch	-7548
▁Melan	-7549
▁Spoel	-7550
▁Stere	-7551
▁abdom	-7552
▁apopt	-7553
▁monok	-7554
▁plaqu	-7555
▁semin	-7556
1-12-20	-7557
opoiese	-7558
quameus	-7559
stabiel	-7560
▁Totale	-7561
ierbiopt	-7562
nodulair	-7563
▁Broncho	-7564
▁Krapste	-7565
▁Ovarium	-7566
▁Sjogren	-7567
▁avitaal	-7568
▁pilomat	-7569
▁sereuze	-7570
▁Receptor	-7571
▁Tubulair	-7572
▁astrocyt	-7573
▁optimaal	-7574
▁pericard	-7575
▁voetzool	-7576
▁voorwand	-7577
alveolaire	-7578
▁Dunnedarm	-7579
▁cytonucle	-7580
▁diafragma	-7581
▁dissectie	-7582
▁hierboven	-7583
▁inguinaal	-7584
▁referentie	-7585
▁spoelvocht	-7586
▁toepassing	-7587
Tumorgrootte	-7588
▁cilindrisch	-7589
▁koilocytose	-7590
▁pilonidalis	-7591
CROMETASTASEN	-7592
▁seborroische	-7593
▁vergelijking	-7594
▁cryptabcessen	-7595
▁gedegenereerd	-7596
▁Hemicolectomie	-7597
▁architecturele	-7598
icopathologische	-7599
▁fibromusculaire	-7600
000	-7601
cha	-7602
chr	-7603
its	-7604
jun	-7605
sec	-7606
▁2[	-7607
▁7.	-7608
▁80	-7609
▁8:	-7610
▁MI	-7611
▁cq	-7612
▁og	-7613
▁ul	-7614
erig	-7615
onge	-7616
palm	-7617
ster	-7618
▁LDT	-7619
▁kel	-7620
▁low	-7621
▁rib	-7622
andom	-7623
ethyl	-7624
inose	-7625
ustyp	-7626
▁IUVD	-7627
▁Mede	-7628
▁Onge	-7629
▁Verm	-7630
▁stuk	-7631
▁zoek	-7632
Gaarne	-7633
Indien	-7634
atoide	-7635
bronch	-7636
ctitis	-7637
elijks	-7638
iatype	-7639
lonaal	-7640
nivers	-7641
omelan	-7642
tritis	-7643
▁dilat	-7644
▁enter	-7645
▁pleit	-7646
▁serie	-7647
-06-15/	-7648
agenoeg	-7649
aginale	-7650
angitis	-7651
cendens	-7652
entiele	-7653
imbriae	-7654
toename	-7655
usculus	-7656
veolair	-7657
verwege	-7658
▁(100%)	-7659
▁Tweede	-7660
▁ingest	-7661
▁thromb	-7662
bijholte	-7663
▁fibroma	-7664
▁gronden	-7665
▁haardje	-7666
▁neiging	-7667
▁pylorus	-7668
▁stuwing	-7669
▁uitgaat	-7670
](*******	-7671
▁Fragment	-7672
▁criteria	-7673
▁endocard	-7674
▁epicrise	-7675
▁gecauter	-7676
▁gegroeid	-7677
▁platform	-7678
aanvulling	-7679
cellulaire	-7680
operatieve	-7681
▁Aspiratie	-7682
▁aanvragen	-7683
▁bewijzend	-7684
▁pemfigoid	-7685
▁samenhang	-7686
▁AANVULLEND	-7687
▁halverwege	-7688
▁mitotische	-7689
▁myomatosus	-7690
▁ulcusbodem	-7691
▁vacuolaire	-7692
▁spirocheten	-7693
▁calcificatie	-7694
▁gevalideerde	-7695
▁huidfragment	-7696
▁monotypische	-7697
▁myelofibrose	-7698
▁lymfomenpanel	-7699
▁Huidshavebiopt	-7700
▁bloedbijmenging	-7701
▁bloedingsresten	-7702
TG	-7703
7):	-7704
End	-7705
NST	-7706
STR	-7707
Ser	-7708
]3:	-7709
ain	-7710
ves	-7711
zet	-7712
▁5.	-7713
▁CK	-7714
▁OP	-7715
▁ie	-7716
OTCH	-7717
TALE	-7718
_004	-7719
akle	-7720
amin	-7721
antw	-7722
erma	-7723
erst	-7724
glas	-7725
idym	-7726
sent	-7727
▁STK	-7728
▁erg	-7729
▁gef	-7730
/2013	-7731
Casus	-7732
defin	-7733
ollow	-7734
ortio	-7735
potje	-7736
▁VIII	-7737
▁cent	-7738
▁gren	-7739
▁hele	-7740
▁ligg	-7741
▁nood	-7742
▁real	-7743
▁rode	-7744
▁teen	-7745
▁vena	-7746
Voorts	-7747
jarige	-7748
morbus	-7749
pseudo	-7750
shalve	-7751
▁aange	-7752
▁blauw	-7753
▁galst	-7754
▁stemp	-7755
▁therm	-7756
legging	-7757
ofibros	-7758
umnaire	-7759
▁aggreg	-7760
▁biopsy	-7761
▁vooraf	-7762
afibrose	-7763
▁bloeder	-7764
▁celarme	-7765
▁evenmin	-7766
▁haarden	-7767
▁herkend	-7768
▁markers	-7769
▁typeren	-7770
papilloom	-7771
▁Sentinel	-7772
▁bevonden	-7773
▁talrijke	-7774
▁vergrote	-7775
descendens	-7776
▁Papklasse	-7777
▁bekleding	-7778
▁correlaat	-7779
▁opgegeven	-7780
▁proctitis	-7781
▁stemplooi	-7782
▁zoekvraag	-7783
▁incidentie	-7784
architectuur	-7785
▁urticariele	-7786
▁hematopoiese	-7787
▁kleincellige	-7788
▁leversegment	-7789
▁dermatomycose	-7790
-02-13/*******/	-7791
-04-13/*******/	-7792
-11-13/*******/	-7793
▁Uterusresectie	-7794
▁linkerbovenarm	-7795
▁verslaglegging	-7796
▁Adnexextirpatie	-7797
▁neuroendocriene	-7798
▁zekerheidshalve	-7799
.)	-7800
8:	-7801
MC	-7802
ZE	-7803
aN	-7804
ln	-7805
zw	-7806
Bes	-7807
Leu	-7808
UIT	-7809
erc	-7810
erp	-7811
nte	-7812
onp	-7813
oop	-7814
uhr	-7815
▁5)	-7816
,14,	-7817
14-4	-7818
17-4	-7819
23:[	-7820
LYSE	-7821
Lymf	-7822
path	-7823
▁(95	-7824
▁Als	-7825
▁BAP	-7826
▁tib	-7827
Extra	-7828
antel	-7829
erkel	-7830
ifeer	-7831
iitis	-7832
reept	-7833
▁TKIs	-7834
▁calc	-7835
▁impl	-7836
▁mest	-7837
-2020:	-7838
beginn	-7839
emfyse	-7840
exacte	-7841
omyces	-7842
totale	-7843
vezels	-7844
▁Immun	-7845
▁Klein	-7846
▁Klier	-7847
▁NOTCH	-7848
▁bulla	-7849
▁nodig	-7850
-2015:[	-7851
angulus	-7852
passend	-7853
rimaire	-7854
▁(0/1).	-7855
▁Kleine	-7856
▁NIEUWE	-7857
▁extrac	-7858
▁larynx	-7859
▁mantel	-7860
▁uitgeb	-7861
▁vlakke	-7862
orectale	-7863
snijding	-7864
usculair	-7865
voorkeur	-7866
▁ANALYSE	-7867
▁Vanwege	-7868
▁colloid	-7869
▁gingiva	-7870
▁myxoide	-7871
▁reepjes	-7872
▁scrotum	-7873
▁transit	-7874
hankelijk	-7875
ingsgroep	-7876
positieve	-7877
roeiwijze	-7878
▁artritis	-7879
▁graderen	-7880
▁naevoide	-7881
▁bekledend	-7882
▁condyloom	-7883
▁klassieke	-7884
▁knieholte	-7885
e	-7886
▁	-7887
i	-7888
n	-7889
a	-7890
t	-7891
o	-7892
r	-7893
l	-7894
s	-7895
d	-7896
c	-7897
m	-7898
g	-7899
u	-7900
p	-7901
v	-7902
.	-7903
h	-7904
k	-7905
b	-7906
f	-7907
:	-7908
j	-7909
*	-7910
C	-7911
R	-7912
w	-7913
L	-7914
y	-7915
F	-7916
I	-7917
z	-7918
,	-7919
[	-7920
]	-7921
-	-7922
1	-7923
H	-7924
G	-7925
)	-7926
(	-7927
x	-7928
2	-7929
0	-7930
A	-7931
E	-7932
B	-7933
D	-7934
T	-7935
3	-7936
P	-7937
/	-7938
M	-7939
S	-7940
N	-7941
5	-7942
V	-7943
4	-7944
6	-7945
7	-7946
O	-7947
8	-7948
9	-7949
;	-7950
U	-7951
K	-7952
%	-7953
Z	-7954
W	-7955
q	-7956
+	-7957
?	-7958
>	-7959
J	-7960
=	-7961
̄	-7962
«	-7963
Y	-7964
<	-7965
X	-7966
'	-7967
"	-7968
_	-7969
Q	-7970
!	-7971
©	-7972
ƒ	-7973
&	-7974
⁄	-7975
‚	-7976
’	-7977
¶	-7978
‘	-7979
–	-7980
~	-7981
±	-7982
̈	-7983
#	-7984
¿	-7985
|	-7986
@	-7987
\	-7988
`	-7989
§	-7990
μ	-7991
