<unk>	0
<s>	0
</s>	0
[PAD]	0
[UNK]	0
[CLS]	0
[MASK]	0
[C-SEP]	0
en	-0
er	-1
in	-2
ie	-3
an	-4
▁m	-5
el	-6
is	-7
al	-8
▁v	-9
et	-10
ch	-11
een	-12
on	-13
it	-14
ij	-15
▁b	-16
▁d	-17
la	-18
or	-19
at	-20
**	-21
re	-22
st	-23
▁g	-24
ing	-25
op	-26
▁a	-27
ar	-28
om	-29
CR	-30
id	-31
ig	-32
LF	-33
CRLF	-34
▁p	-35
▁h	-36
▁c	-37
▁met	-38
▁l	-39
▁n	-40
iop	-41
der	-42
ct	-43
▁s	-44
▁t	-45
iopt	-46
▁re	-47
as	-48
ol	-49
end	-50
▁(	-51
aal	-52
▁H	-53
ro	-54
uid	-55
oor	-56
▁G	-57
▁in	-58
▁van	-59
cht	-60
us	-61
▁een	-62
ek	-63
oom	-64
isch	-65
▁on	-66
.[	-67
▁en	-68
▁Geen	-69
um	-70
ic	-71
eel	-72
biopt	-73
ex	-74
sie	-75
▁w	-76
▁k	-77
isie	-78
****	-79
▁Huid	-80
ign	-81
▁z	-82
▁o	-83
▁aan	-84
▁de	-85
ag	-86
ctie	-87
ite	-88
cisie	-89
wij	-90
den	-91
▁voor	-92
ingen	-93
ve	-94
se	-95
cel	-96
arc	-97
align	-98
ent	-99
atie	-100
ev	-101
arcin	-102
iteit	-103
▁ver	-104
▁malign	-105
ink	-106
▁I	-107
arcinoom	-108
▁geen	-109
ul	-110
▁recht	-111
ale	-112
▁link	-113
pla	-114
excisie	-115
og	-116
ische	-117
▁maligniteit	-118
ula	-119
le	-120
yp	-121
ra	-122
carcinoom	-123
aar	-124
▁het	-125
plasie	-126
▁bij	-127
▁ont	-128
▁u	-129
▁rechts	-130
▁links	-131
eeld	-132
ed	-133
▁ontst	-134
):	-135
▁B	-136
eking	-137
▁ontsteking	-138
ur	-139
ir	-140
es	-141
if	-142
em	-143
▁f	-144
▁na	-145
***	-146
*******	-147
un	-148
II	-149
iet	-150
ot	-151
ep	-152
ier	-153
oc	-154
▁is	-155
▁beeld	-156
ys	-157
celcarcinoom	-158
▁E	-159
de	-160
▁[	-161
am	-162
ende	-163
▁dys	-164
ec	-165
os	-166
ron	-167
▁onder	-168
▁D	-169
▁Huidexcisie	-170
ass	-171
▁1	-172
ym	-173
wijz	-174
▁C	-175
onder	-176
ijk	-177
we	-178
▁dysplasie	-179
ru	-180
▁bas	-181
▁af	-182
eri	-183
▁op	-184
ver	-185
▁of	-186
▁pass	-187
-1	-188
il	-189
te	-190
ymf	-191
biopten	-192
ige	-193
▁ch	-194
ctieve	-195
▁M	-196
▁uit	-197
ies	-198
▁la	-199
▁aanwijz	-200
▁zonder	-201
ok	-202
▁T	-203
▁niet	-204
ast	-205
▁P	-206
eer	-207
im	-208
lak	-209
▁biopt	-210
erm	-211
ose	-212
ge	-213
ire	-214
▁basaal	-215
ei	-216
▁naev	-217
▁*******	-218
▁gro	-219
▁aanwijzingen	-220
ran	-221
▁be	-222
vlak	-223
wijk	-224
▁waar	-225
lij	-226
ulair	-227
iep	-228
▁lymf	-229
cell	-230
▁2	-231
▁afwijk	-232
▁Huidbiopt	-233
▁ge	-234
sel	-235
od	-236
lier	-237
ull	-238
vull	-239
▁mat	-240
-0	-241
▁chron	-242
ef	-243
ken	-244
ri	-245
▁sp	-246
lies	-247
▁at	-248
lijm	-249
itis	-250
▁con	-251
ze	-252
aat	-253
lijmv	-254
ering	-255
yt	-256
▁groei	-257
lijmvlies	-258
ide	-259
▁aden	-260
ist	-261
▁pla	-262
of	-263
elijk	-264
▁wor	-265
ste	-266
klier	-267
▁vr	-268
umor	-269
▁huid	-270
▁afwijkingen	-271
olog	-272
ang	-273
ander	-274
▁passend	-275
▁zij	-276
▁di	-277
ant	-278
▁ne	-279
eriaal	-280
▁gering	-281
mer	-282
heel	-283
ke	-284
▁A	-285
▁rea	-286
).	-287
sectie	-288
▁chronische	-289
orm	-290
rof	-291
vas	-292
up	-293
▁derm	-294
▁over	-295
ov	-296
anvull	-297
ine	-298
ho	-299
ter	-300
yper	-301
aag	-302
20	-303
▁vrij	-304
nij	-305
▁S	-306
ap	-307
ens	-308
ris	-309
ub	-310
ib	-311
▁atyp	-312
▁te	-313
rad	-314
▁R	-315
sp	-316
efsel	-317
▁tot	-318
anderingen	-319
▁naevus	-320
cl	-321
agn	-322
▁tumor	-323
epit	-324
zo	-325
erat	-326
▁geringe	-327
▁st	-328
▁Biopt	-329
oven	-330
▁col	-331
ut	-332
▁vol	-333
vasie	-334
▁3	-335
▁kan	-336
ik	-337
ype	-338
▁hyper	-339
act	-340
ma	-341
▁veranderingen	-342
oliep	-343
omet	-344
Aanvull	-345
▁materiaal	-346
and	-347
▁actieve	-348
als	-349
▁cel	-350
▁waarin	-351
:[	-352
alis	-353
eken	-354
oed	-355
▁nod	-356
arm	-357
▁biopten	-358
ometri	-359
▁reactieve	-360
zoek	-361
ica	-362
ocarcinoom	-363
ele	-364
▁rechter	-365
itie	-366
▁zijn	-367
sc	-368
▁end	-369
▁linker	-370
atief	-371
slijmvlies	-372
ulaire	-373
ca	-374
▁De	-375
erd	-376
iff	-377
▁N	-378
▁boven	-379
ico	-380
usie	-381
ad	-382
▁mm	-383
ne	-384
veis	-385
▁V	-386
rug	-387
veisel	-388
▁adenocarcinoom	-389
esie	-390
ometrium	-391
he	-392
ment	-393
orr	-394
▁lymfklier	-395
▁verru	-396
oog	-397
Aanvulling	-398
▁plaveisel	-399
▁onderzoek	-400
ect	-401
▁volg	-402
clusie	-403
ocell	-404
erent	-405
amma	-406
ocyt	-407
▁O	-408
pre	-409
▁ged	-410
▁In	-411
eb	-412
▁aang	-413
uze	-414
imm	-415
ibro	-416
▁passen	-417
▁worden	-418
alisatie	-419
▁L	-420
ularis	-421
oon	-422
lin	-423
ifferent	-424
▁diagn	-425
erv	-426
▁maag	-427
▁meta	-428
▁laesie	-429
▁dit	-430
wez	-431
ip	-432
▁pro	-433
ecif	-434
xcisie	-435
▁kle	-436
▁er	-437
wijder	-438
▁cm	-439
weefsel	-440
▁kerat	-441
▁verruca	-442
nijvlak	-443
▁verwijder	-444
wezig	-445
inale	-446
▁0	-447
▁sch	-448
heid	-449
▁metaplasie	-450
iek	-451
ost	-452
▁colon	-453
ret	-454
▁aanget	-455
epitheel	-456
▁Excisie	-457
▁atypie	-458
yste	-459
omie	-460
grad	-461
ix	-462
gen	-463
▁verwijderd	-464
ath	-465
▁naevocell	-466
been	-467
ak	-468
-20	-469
okalisatie	-470
bre	-471
▁foc	-472
▁Het	-473
▁naevocellularis	-474
▁excisie	-475
sch	-476
▁nodulair	-477
ase	-478
olec	-479
▁seb	-480
icro	-481
ori	-482
ien	-483
▁II	-484
▁Biopten	-485
▁inf	-486
eels	-487
rum	-488
▁groeiend	-489
▁poliep	-490
orrho	-491
test	-492
▁act	-493
▁seborrho	-494
▁carcinoom	-495
och	-496
erf	-497
ou	-498
gatief	-499
▁seborrhoica	-500
do	-501
dt	-502
aire	-503
chter	-504
▁sup	-505
▁we	-506
▁ex	-507
acter	-508
▁type	-509
▁mamma	-510
staat	-511
tra	-512
ogelijk	-513
▁goed	-514
▁invasie	-515
bacter	-516
▁intest	-517
sla	-518
▁Er	-519
elico	-520
elicobacter	-521
del	-522
▁volgt	-523
yl	-524
▁metast	-525
▁wordt	-526
ositie	-527
▁4	-528
oid	-529
vol	-530
▁aanwezig	-531
form	-532
ult	-533
ologisch	-534
▁deels	-535
▁klin	-536
IN	-537
▁endometrium	-538
▁resectie	-539
▁gran	-540
rofie	-541
▁li	-542
erfic	-543
▁specif	-544
rag	-545
▁micro	-546
▁lokalisatie	-547
▁actin	-548
PV	-549
slag	-550
utatie	-551
▁hoog	-552
eratie	-553
▁pr	-554
doende	-555
euze	-556
▁superfic	-557
▁intestinale	-558
unctie	-559
▁negatief	-560
▁door	-561
▁ar	-562
per	-563
▁e	-564
▁du	-565
▁per	-566
▁Helicobacter	-567
▁dermale	-568
orp	-569
ia	-570
▁superficie	-571
iaal	-572
▁focaal	-573
ieke	-574
ific	-575
▁conclusie	-576
▁imm	-577
omp	-578
antrum	-579
len	-580
oden	-581
elan	-582
ervix	-583
▁mogelijk	-584
▁fibro	-585
ragment	-586
▁granul	-587
ong	-588
je	-589
▁metastase	-590
mat	-591
▁tub	-592
voldoende	-593
▁bet	-594
merken	-595
▁hyperplasie	-596
RA	-597
▁laag	-598
iopsie	-599
▁rug	-600
▁maligne	-601
gest	-602
las	-603
aald	-604
gradige	-605
▁melan	-606
ologie	-607
▁past	-608
ieerd	-609
▁beoor	-610
▁ook	-611
▁U	-612
▁dermat	-613
pervlak	-614
gebre	-615
ositief	-616
),	-617
▁co	-618
hist	-619
enign	-620
bij	-621
lok	-622
itt	-623
enigne	-624
▁5	-625
odenum	-626
ochem	-627
erk	-628
zien	-629
III	-630
▁uitgebre	-631
▁gedifferent	-632
▁ken	-633
▁mutatie	-634
ogen	-635
▁reik	-636
eli	-637
▁par	-638
fen	-639
omat	-640
omen	-641
▁pyl	-642
par	-643
▁aanvull	-644
eerd	-645
▁K	-646
-2	-647
▁diep	-648
▁keratose	-649
apil	-650
▁pylori	-651
ER	-652
histochem	-653
uit	-654
orpus	-655
▁min	-656
▁benigne	-657
itteken	-658
acht	-659
▁slijmvlies	-660
▁an	-661
agus	-662
▁gra	-663
▁adenoom	-664
▁kenmerken	-665
▁ac	-666
▁oppervlak	-667
oma	-668
▁diagnose	-669
ofd	-670
unt	-671
▁med	-672
▁mor	-673
ow	-674
▁HPV	-675
▁eer	-676
zij	-677
plast	-678
icaal	-679
▁ev	-680
▁lich	-681
qu	-682
▁teken	-683
scop	-684
ari	-685
▁cyste	-686
cent	-687
aan	-688
uun	-689
▁Re	-690
▁cellen	-691
▁al	-692
oide	-693
evens	-694
uc	-695
▁conform	-696
tr	-697
roffen	-698
▁superficieel	-699
ummer	-700
▁gen	-701
▁gev	-702
erende	-703
).[	-704
▁tekenen	-705
baar	-706
ulc	-707
▁/	-708
ac	-709
▁als	-710
▁dan	-711
io	-712
beeld	-713
eter	-714
sult	-715
▁prostaat	-716
nen	-717
▁sub	-718
▁epitheel	-719
▁lichen	-720
▁Z	-721
ges	-722
▁aangetroffen	-723
▁bek	-724
▁uitgebreide	-725
ab	-726
nijvlakken	-727
16	-728
ectomie	-729
▁positief	-730
IE	-731
0%	-732
De	-733
oll	-734
▁ulc	-735
▁oes	-736
▁oppervlakk	-737
▁enk	-738
epith	-739
bus	-740
▁uitslag	-741
yse	-742
▁litteken	-743
▁ontstekings	-744
ave	-745
▁hist	-746
▁atypische	-747
▁laaggradige	-748
nd	-749
/*******	-750
bla	-751
ameter	-752
▁rad	-753
18	-754
▁neus	-755
▁bes	-756
riet	-757
osis	-758
▁Maag	-759
▁papil	-760
ere	-761
dig	-762
amen	-763
olif	-764
age	-765
▁specifieke	-766
ref	-767
▁W	-768
▁gezien	-769
▁uur	-770
▁comp	-771
eerde	-772
rot	-773
elde	-774
▁actinische	-775
ion	-776
▁spriet	-777
invasie	-778
▁diagnost	-779
19	-780
epid	-781
keur	-782
▁weefsel	-783
▁path	-784
15	-785
stig	-786
dere	-787
▁sol	-788
king	-789
17	-790
▁aangetoon	-791
▁F	-792
▁infil	-793
pp	-794
IS	-795
rans	-796
▁Con	-797
▁hals	-798
▁huidexcisie	-799
alyse	-800
erde	-801
elen	-802
resectie	-803
epiderm	-804
▁rest	-805
▁betref	-806
▁aangetoond	-807
▁matig	-808
have	-809
imale	-810
▁hier	-811
ocytaire	-812
▁ter	-813
ocht	-814
▁6	-815
gestelde	-816
ouder	-817
▁sprieter	-818
22	-819
ctomie	-820
uret	-821
▁dat	-822
▁solide	-823
/*******/	-824
cellen	-825
▁microscop	-826
▁samen	-827
13	-828
ijn	-829
uring	-830
▁mar	-831
osin	-832
▁intra	-833
aaldbiopten	-834
urale	-835
osinof	-836
14	-837
epitheli	-838
ectie	-839
▁to	-840
rine	-841
▁huidbiopt	-842
EN	-843
▁mid	-844
▁aanvullend	-845
iagn	-846
enten	-847
leu	-848
ericht	-849
merg	-850
evisie	-851
ans	-852
lass	-853
▁eosinof	-854
▁enkele	-855
ctief	-856
▁voorkeur	-857
cellig	-858
na	-859
1-1	-860
ind	-861
▁th	-862
lijk	-863
iele	-864
eenmerg	-865
▁zek	-866
▁antrum	-867
▁graad	-868
▁On	-869
▁later	-870
uw	-871
ard	-872
▁samengestelde	-873
lassific	-874
▁my	-875
▁atrofie	-876
▁plaat	-877
▁duid	-878
▁best	-879
▁klein	-880
plastische	-881
unnen	-882
cor	-883
▁morbus	-884
gum	-885
oliferatie	-886
▁immuun	-887
▁kunnen	-888
vocht	-889
▁Voor	-890
endens	-891
▁fragment	-892
▁corpus	-893
▁wang	-894
▁epiderm	-895
▁ka	-896
▁naar	-897
▁afwijking	-898
uur	-899
onden	-900
]2	-901
igm	-902
urett	-903
eld	-904
▁nog	-905
gumenten	-906
▁klinische	-907
jes	-908
▁cervix	-909
Geen	-910
▁chronisch	-911
▁argumenten	-912
ell	-913
osa	-914
elijke	-915
▁7	-916
rand	-917
▁ten	-918
▁delen	-919
▁uitges	-920
▁0,	-921
ineurale	-922
paraat	-923
▁bericht	-924
▁resectievlak	-925
▁infiltr	-926
oph	-927
histochemisch	-928
▁duodenum	-929
olon	-930
▁*******,	-931
yst	-932
entr	-933
▁trans	-934
oleculaire	-935
▁onvoldoende	-936
est	-937
▁pre	-938
▁bl	-939
hoofd	-940
▁beoordel	-941
schijn	-942
00	-943
rijk	-944
▁geheel	-945
link	-946
▁classific	-947
kw	-948
▁Resectie	-949
emp	-950
epitheliale	-951
biopsie	-952
lot	-953
van	-954
▁perineurale	-955
ollic	-956
ame	-957
air	-958
▁ho	-959
▁invasieve	-960
▁deze	-961
▁gl	-962
ologische	-963
ulitis	-964
randen	-965
▁lev	-966
▁toon	-967
▁onderbeen	-968
▁verm	-969
▁End	-970
scendens	-971
▁waarbij	-972
ute	-973
▁enige	-974
▁inter	-975
▁tubulair	-976
▁i	-977
▁hem	-978
▁reikend	-979
23	-980
▁Zie	-981
▁bep	-982
▁dermatitis	-983
co	-984
oel	-985
▁bla	-986
▁ca	-987
schijnlijk	-988
▁el	-989
odem	-990
▁long	-991
▁oor	-992
eren	-993
▁schouder	-994
hal	-995
▁III	-996
loten	-997
▁toont	-998
▁meer	-999
▁Huidst	-1000
▁darm	-1001
▁peri	-1002
▁maar	-1003
▁daar	-1004
▁lymfoom	-1005
risico	-1006
leura	-1007
▁rect	-1008
owen	-1009
▁ing	-1010
2-1	-1011
omateuze	-1012
▁-	-1013
iagnost	-1014
▁verd	-1015
▁zeer	-1016
▁Colon	-1017
]0	-1018
▁lymfklieren	-1019
▁radicaal	-1020
▁nummer	-1021
inig	-1022
materiaal	-1023
10	-1024
itu	-1025
uk	-1026
kle	-1027
empor	-1028
RAS	-1029
gev	-1030
lan	-1031
▁norm	-1032
▁marge	-1033
igmoid	-1034
▁basis	-1035
▁kader	-1036
ocyten	-1037
▁1,	-1038
asis	-1039
aak	-1040
iv	-1041
CL	-1042
omy	-1043
▁overwe	-1044
▁colitis	-1045
AN	-1046
GF	-1047
pl	-1048
type	-1049
▁melanoom	-1050
ente	-1051
▁uitgesloten	-1052
▁pat	-1053
▁situ	-1054
▁vas	-1055
iepte	-1056
▁sprieterig	-1057
entu	-1058
▁bloed	-1059
min	-1060
opath	-1061
▁gast	-1062
▁klinisch	-1063
lair	-1064
igment	-1065
]*******	-1066
▁wel	-1067
▁+	-1068
▁gevonden	-1069
ud	-1070
▁analyse	-1071
▁beh	-1072
▁asp	-1073
▁achter	-1074
▁aanwezigheid	-1075
ax	-1076
21	-1077
wogen	-1078
▁Onvoldoende	-1079
▁werd	-1080
▁bovenbeen	-1081
uik	-1082
▁weinig	-1083
-3	-1084
onent	-1085
ronch	-1086
▁punctie	-1087
▁Endometrium	-1088
▁duct	-1089
▁20	-1090
entraal	-1091
ild	-1092
▁overwogen	-1093
▁beoord	-1094
ofagus	-1095
raag	-1096
pro	-1097
▁fibrose	-1098
gradig	-1099
▁ret	-1100
▁diameter	-1101
eke	-1102
▁immun	-1103
chts	-1104
GFR	-1105
▁om	-1106
ibroom	-1107
▁Bowen	-1108
diepte	-1109
▁Tevens	-1110
leas	-1111
leason	-1112
▁papill	-1113
sen	-1114
▁der	-1115
▁Revisie	-1116
ext	-1117
ophagus	-1118
▁betreft	-1119
mm	-1120
▁zie	-1121
upes	-1122
▁tempor	-1123
rea	-1124
▁proliferatie	-1125
Con	-1126
▁waarschijnlijk	-1127
ifferentiaal	-1128
▁acute	-1129
▁pathologie	-1130
▁cont	-1131
cler	-1132
▁follic	-1133
me	-1134
▁aant	-1135
▁beide	-1136
▁voorhoofd	-1137
▁duidelijke	-1138
res	-1139
rond	-1140
▁urot	-1141
nijranden	-1142
icht	-1143
leum	-1144
▁matige	-1145
▁verdacht	-1146
▁zw	-1147
▁microscopie	-1148
ET	-1149
kwab	-1150
preparaat	-1151
kom	-1152
be	-1153
▁ec	-1154
▁eventu	-1155
richt	-1156
angi	-1157
▁Urine	-1158
▁Punctie	-1159
tie	-1160
ppend	-1161
▁rectum	-1162
▁urotheel	-1163
voor	-1164
▁vet	-1165
rij	-1166
▁reactief	-1167
▁snijvlak	-1168
12	-1169
▁cyt	-1170
reactie	-1171
▁keratosis	-1172
Huid	-1173
▁besch	-1174
▁kleine	-1175
▁gastr	-1176
In	-1177
ept	-1178
▁melanocytaire	-1179
▁pati	-1180
fragment	-1181
▁onderarm	-1182
▁beenmerg	-1183
▁overweg	-1184
▁10	-1185
terus	-1186
ocerv	-1187
uodenum	-1188
initie	-1189
leuravocht	-1190
]-	-1191
-03	-1192
entie	-1193
▁schimm	-1194
ort	-1195
Deze	-1196
wand	-1197
▁pan	-1198
▁echter	-1199
lip	-1200
luit	-1201
▁Aanvull	-1202
▁oppervlakkig	-1203
▁kra	-1204
cid	-1205
▁PA	-1206
▁bodem	-1207
urettage	-1208
▁muc	-1209
▁actinica	-1210
kerat	-1211
▁reikt	-1212
NA	-1213
▁Gleason	-1214
af	-1215
ipel	-1216
oleculair	-1217
rest	-1218
▁wat	-1219
ors	-1220
▁celbeeld	-1221
blaas	-1222
▁Pro	-1223
gro	-1224
▁zou	-1225
▁̄	-1226
one	-1227
▁lip	-1228
▁sec	-1229
eur	-1230
▁(*******	-1231
aden	-1232
otische	-1233
▁temporaal	-1234
unct	-1235
-15	-1236
halve	-1237
▁oppervlakkige	-1238
▁component	-1239
ymfklier	-1240
zeem	-1241
emen	-1242
▁prim	-1243
ronchus	-1244
▁:	-1245
▁8	-1246
-10	-1247
▁specifiek	-1248
snij	-1249
angio	-1250
oet	-1251
centa	-1252
ildklier	-1253
▁bekende	-1254
IT	-1255
tu	-1256
▁vlok	-1257
▁bovenarm	-1258
▁squ	-1259
wijze	-1260
gang	-1261
▁zeker	-1262
)[	-1263
▁snijvlakken	-1264
▁j	-1265
anth	-1266
▁reg	-1267
eg	-1268
▁beoordelen	-1269
erap	-1270
▁eczeem	-1271
▁histologisch	-1272
▁stat	-1273
▁diagnostiek	-1274
IV	-1275
▁ileum	-1276
pres	-1277
▁Beeld	-1278
▁sle	-1279
▁Duodenum	-1280
-13	-1281
ont	-1282
▁12	-1283
over	-1284
▁Cervix	-1285
▁beoordeel	-1286
rom	-1287
▁Een	-1288
BD	-1289
ola	-1290
▁minimale	-1291
▁lichenoide	-1292
inf	-1293
ern	-1294
▁gr	-1295
-14	-1296
ief	-1297
orst	-1298
ipelle	-1299
poliep	-1300
iculair	-1301
upe	-1302
▁midden	-1303
ust	-1304
▁r	-1305
osus	-1306
▁ab	-1307
komstig	-1308
▁kleuring	-1309
▁eerder	-1310
▁her	-1311
ificatie	-1312
▁lateraal	-1313
unten	-1314
▁schimmel	-1315
▁waarvan	-1316
▁9	-1317
Voor	-1318
▁Maagbiopten	-1319
aarne	-1320
UL	-1321
ob	-1322
icale	-1323
cut	-1324
▁groeiwijze	-1325
-06	-1326
ium	-1327
ogene	-1328
);	-1329
AL	-1330
derm	-1331
geen	-1332
vers	-1333
erend	-1334
kn	-1335
▁EGFR	-1336
aliteit	-1337
ofibroom	-1338
▁mult	-1339
▁ascendens	-1340
▁afkomstig	-1341
-04	-1342
iale	-1343
erkt	-1344
▁aanwijzing	-1345
▁nec	-1346
atrofie	-1347
▁ad	-1348
-07	-1349
▁Prostaat	-1350
agen	-1351
ilie	-1352
▁shave	-1353
spunten	-1354
invasieve	-1355
elling	-1356
▁resp	-1357
▁exon	-1358
ond	-1359
▁epidermale	-1360
ede	-1361
cyt	-1362
ders	-1363
▁Snijvlakken	-1364
nex	-1365
-16	-1366
ces	-1367
▁hyperkerat	-1368
imaal	-1369
▁colonslijmvlies	-1370
culaire	-1371
oh	-1372
▁vermeld	-1373
ds	-1374
-09	-1375
▁name	-1376
RAF	-1377
boven	-1378
oA	-1379
ansbiopt	-1380
org	-1381
▁toto	-1382
▁fragmenten	-1383
▁2,	-1384
):[	-1385
▁Moleculaire	-1386
▁hyperplastische	-1387
orrel	-1388
oe	-1389
▁beoordeelbaar	-1390
▁ander	-1391
▁am	-1392
ocytose	-1393
▁ulceratie	-1394
rose	-1395
ename	-1396
ledig	-1397
▁eosinofiele	-1398
ecifieke	-1399
cellige	-1400
▁append	-1401
▁invasief	-1402
▁granulomen	-1403
US	-1404
▁oesofagus	-1405
alblaas	-1406
▁dermatofibroom	-1407
HPV	-1408
▁KRAS	-1409
orf	-1410
▁endocerv	-1411
▁vul	-1412
▁vlokatrofie	-1413
art	-1414
▁;	-1415
cre	-1416
ider	-1417
▁hoofd	-1418
gem	-1419
aande	-1420
cyste	-1421
-08	-1422
▁TU	-1423
-05	-1424
-4	-1425
are	-1426
▁coeur	-1427
▁zijde	-1428
▁biopsie	-1429
ruim	-1430
iameter	-1431
▁consult	-1432
ocaal	-1433
▁vari	-1434
▁ulcer	-1435
all	-1436
igo	-1437
▁ok	-1438
▁groot	-1439
▁snijranden	-1440
muc	-1441
▁bev	-1442
anden	-1443
▁littekenweefsel	-1444
▁aantoon	-1445
tern	-1446
▁alle	-1447
▁Poliep	-1448
yn	-1449
▁CD	-1450
emb	-1451
versum	-1452
▁bekend	-1453
Het	-1454
▁eventuele	-1455
CA	-1456
du	-1457
core	-1458
zijds	-1459
▁lever	-1460
▁differentiaal	-1461
eptor	-1462
initieve	-1463
AAN	-1464
wel	-1465
▁dist	-1466
uwe	-1467
▁maagslijmvlies	-1468
cord	-1469
▁ern	-1470
iviteit	-1471
▁dors	-1472
▁eryt	-1473
ulatie	-1474
rechter	-1475
iesco	-1476
bek	-1477
▁correl	-1478
opathie	-1479
▁infectie	-1480
-5	-1481
▁Op	-1482
▁opn	-1483
▁score	-1484
▁mes	-1485
▁minder	-1486
▁Lymfklier	-1487
und	-1488
▁pT	-1489
▁twe	-1490
▁BRAF	-1491
▁Mamma	-1492
▁oksel	-1493
▁neu	-1494
arret	-1495
hyper	-1496
▁klier	-1497
▁contact	-1498
▁verricht	-1499
▁(2	-1500
ohs	-1501
linker	-1502
cordant	-1503
▁diagnostisch	-1504
▁superficiele	-1505
ith	-1506
unne	-1507
OR	-1508
▁borst	-1509
▁eosinofilie	-1510
eus	-1511
▁oog	-1512
zijde	-1513
▁sigmoid	-1514
▁(1	-1515
▁overige	-1516
▁sc	-1517
sect	-1518
vorm	-1519
▁oesophagus	-1520
▁immuno	-1521
▁afwezig	-1522
stige	-1523
▁thor	-1524
▁secret	-1525
selijk	-1526
lank	-1527
oping	-1528
icitis	-1529
▁Ch	-1530
▁fib	-1531
▁licht	-1532
arrett	-1533
▁normaal	-1534
iderzijds	-1535
](	-1536
nummer	-1537
iagnostiek	-1538
▁Pleuravocht	-1539
GS	-1540
Zie	-1541
▁grens	-1542
▁toename	-1543
▁ductaal	-1544
▁loc	-1545
▁15	-1546
iding	-1547
▁gem	-1548
▁evid	-1549
▁blaas	-1550
men	-1551
▁nodulaire	-1552
ts	-1553
eth	-1554
▁ov	-1555
▁centraal	-1556
-17	-1557
▁chol	-1558
▁sterk	-1559
unctaat	-1560
▁elders	-1561
▁cr	-1562
▁bepal	-1563
▁die	-1564
knoping	-1565
▁Oes	-1566
▁geb	-1567
rechts	-1568
vang	-1569
▁pol	-1570
▁rand	-1571
minste	-1572
▁eerdere	-1573
darm	-1574
eiomy	-1575
▁weke	-1576
angioom	-1577
▁spong	-1578
denking	-1579
kleuring	-1580
mw	-1581
▁hel	-1582
eklier	-1583
▁infiltratie	-1584
ukje	-1585
elegen	-1586
ceptor	-1587
▁aanknoping	-1588
Conclusie	-1589
links	-1590
patie	-1591
preking	-1592
▁grensvlak	-1593
▁lipoom	-1594
▁lab	-1595
irpatie	-1596
lokdarm	-1597
▁spongi	-1598
▁vetweefsel	-1599
▁beiderzijds	-1600
lam	-1601
▁ser	-1602
aaldbiopt	-1603
aten	-1604
▁subcut	-1605
neu	-1606
organ	-1607
corpus	-1608
▁celrijk	-1609
▁pigment	-1610
▁Consult	-1611
▁perivas	-1612
▁Aanvullend	-1613
▁verdenking	-1614
▁gedacht	-1615
tuig	-1616
▁Barrett	-1617
da	-1618
▁hand	-1619
▁leiomy	-1620
▁risico	-1621
▁*******/	-1622
▁Diagnostiek	-1623
▁(0	-1624
▁diepe	-1625
ardia	-1626
▁buik	-1627
▁morf	-1628
ectiev	-1629
▁haar	-1630
▁zekere	-1631
▁*******.[	-1632
▁concordant	-1633
met	-1634
rus	-1635
▁IV	-1636
▁overtuig	-1637
1,	-1638
ich	-1639
▁onbek	-1640
digheid	-1641
ectievelijk	-1642
oorn	-1643
▁overwegend	-1644
PA	-1645
entatief	-1646
▁transversum	-1647
▁verk	-1648
▁ontvang	-1649
▁aantoonbaar	-1650
ene	-1651
naast	-1652
plastisch	-1653
ISH	-1654
irr	-1655
stat	-1656
naaldbiopten	-1657
usc	-1658
Aanvullend	-1659
▁resectievlakken	-1660
teri	-1661
▁Mohs	-1662
▁opnemen	-1663
53	-1664
▁genen	-1665
▁1.	-1666
▁ernstige	-1667
hyperplasie	-1668
ieuwe	-1669
▁dd	-1670
▁patient	-1671
▁lijk	-1672
▁scler	-1673
▁volledig	-1674
▁for	-1675
▁volgens	-1676
▁;[	-1677
▁lent	-1678
▁or	-1679
▁dysplastische	-1680
▁maagantrum	-1681
emat	-1682
ocellulair	-1683
▁tenminste	-1684
▁moleculair	-1685
VUL	-1686
erapie	-1687
▁Ver	-1688
▁gel	-1689
traat	-1690
lu	-1691
▁me	-1692
roma	-1693
▁hooggradig	-1694
tumor	-1695
▁plas	-1696
VULL	-1697
▁verw	-1698
▁dermis	-1699
ymfoom	-1700
ront	-1701
▁epidermis	-1702
▁ER	-1703
lammat	-1704
▁Colonbiopten	-1705
▁laterale	-1706
ench	-1707
▁kunt	-1708
organis	-1709
▁Conclusie	-1710
malign	-1711
leg	-1712
ductie	-1713
▁plaatse	-1714
▁mutaties	-1715
OS	-1716
kin	-1717
arium	-1718
▁Huidbiopsie	-1719
▁ger	-1720
▁gelegen	-1721
iasis	-1722
▁coupes	-1723
▁cytologisch	-1724
▁overtuigende	-1725
▁cholec	-1726
▁evidente	-1727
CIN	-1728
▁Ge	-1729
ystectomie	-1730
▁inz	-1731
fende	-1732
▁squam	-1733
lammato	-1734
▁kleincellig	-1735
gin	-1736
▁Pipelle	-1737
▁he	-1738
bare	-1739
ten	-1740
igine	-1741
visie	-1742
▁gastritis	-1743
▁hooggradige	-1744
▁plaatselijk	-1745
nog	-1746
fect	-1747
▁status	-1748
iescoupe	-1749
11	-1750
▁dient	-1751
adenoom	-1752
▁overgang	-1753
zie	-1754
▁derhalve	-1755
▁zwelling	-1756
histochemie	-1757
▁(3	-1758
enchym	-1759
aur	-1760
eling	-1761
▁nier	-1762
▁TUR	-1763
shave	-1764
▁lymfeklier	-1765
▁flank	-1766
AS	-1767
▁zekerheid	-1768
▁HER	-1769
▁ges	-1770
▁bespreking	-1771
hor	-1772
igg	-1773
▁forse	-1774
▁eerste	-1775
▁tumorcellen	-1776
NM	-1777
-02-1	-1778
▁schildklier	-1779
gel	-1780
▁andere	-1781
eft	-1782
room	-1783
▁Dit	-1784
▁Poliepectomie	-1785
ussen	-1786
▁uitbre	-1787
▁placenta	-1788
ren	-1789
▁diff	-1790
▁myel	-1791
ore	-1792
ecum	-1793
rouw	-1794
lasse	-1795
▁Gaarne	-1796
ocri	-1797
ON	-1798
▁uterus	-1799
ez	-1800
▁tel	-1801
auriculair	-1802
proken	-1803
uringen	-1804
▁doorsnij	-1805
/0	-1806
ppende	-1807
▁vragen	-1808
▁11	-1809
▁krap	-1810
▁tuba	-1811
▁Duodenumbiopten	-1812
iaan	-1813
▁gland	-1814
▁IBD	-1815
ariaat	-1816
▁folliculitis	-1817
▁secretariaat	-1818
uren	-1819
▁behand	-1820
geb	-1821
▁Bronchus	-1822
uis	-1823
alsnog	-1824
▁adnex	-1825
▁lijkt	-1826
▁Def	-1827
▁tra	-1828
▁Cholec	-1829
▁cholecyst	-1830
ressie	-1831
▁mediaal	-1832
analyse	-1833
ithiasis	-1834
-6	-1835
ouw	-1836
▁Huidstukje	-1837
Biopt	-1838
AANVULL	-1839
2-20	-1840
▁extra	-1841
ginn	-1842
▁14	-1843
▁ap	-1844
▁vaat	-1845
▁aspecifieke	-1846
▁granulomateuze	-1847
vestig	-1848
▁primaire	-1849
lav	-1850
curettage	-1851
▁Slijmvlies	-1852
▁betreffende	-1853
our	-1854
▁front	-1855
▁plasma	-1856
indingen	-1857
ING	-1858
opla	-1859
-01-1	-1860
ikel	-1861
▁ant	-1862
deling	-1863
▁tubul	-1864
ug	-1865
ement	-1866
iatie	-1867
1-20	-1868
lokje	-1869
▁papillair	-1870
▁Hoog	-1871
iteerde	-1872
Er	-1873
mucosa	-1874
lokalisatie	-1875
ligg	-1876
luiten	-1877
▁repres	-1878
▁Appende	-1879
▁respectievelijk	-1880
▁dunne	-1881
▁volgen	-1882
va	-1883
ane	-1884
adig	-1885
▁squameuze	-1886
▁13	-1887
▁def	-1888
▁revisie	-1889
maligniteit	-1890
▁classificeren	-1891
itein	-1892
▁stroma	-1893
▁papilloom	-1894
▁perivasculaire	-1895
▁hemat	-1896
▁Beenmerg	-1897
▁dorsaal	-1898
aris	-1899
ille	-1900
▁plan	-1901
vorming	-1902
▁aanvullende	-1903
▁appendicitis	-1904
inaal	-1905
score	-1906
▁ster	-1907
positief	-1908
omorf	-1909
▁lies	-1910
▁level	-1911
▁slecht	-1912
▁%	-1913
aam	-1914
▁verder	-1915
▁beoordeling	-1916
ITIE	-1917
effect	-1918
▁tussen	-1919
▁endocervicale	-1920
alc	-1921
lop	-1922
ons	-1923
dien	-1924
▁Her	-1925
odulair	-1926
▁descendens	-1927
geven	-1928
▁hemangioom	-1929
eveel	-1930
anthoom	-1931
sectier	-1932
▁tevens	-1933
▁sprieterige	-1934
▁19	-1935
itslag	-1936
gra	-1937
lid	-1938
Huidbiopt	-1939
▁bepaling	-1940
▁spongiotische	-1941
epat	-1942
▁sterke	-1943
▁infiltrerend	-1944
▁microscopische	-1945
Revisie	-1946
ista	-1947
▁mil	-1948
ustype	-1949
▁panel	-1950
▁hoeveel	-1951
▁ovarium	-1952
/20	-1953
▁AL	-1954
organismen	-1955
▁uitbreiding	-1956
2,	-1957
25	-1958
CIS	-1959
▁Cyt	-1960
▁beginn	-1961
arcinoma	-1962
ure	-1963
▁max	-1964
arcoom	-1965
▁hoeveelheid	-1966
▁granulocyten	-1967
oth	-1968
▁dank	-1969
▁bevestig	-1970
▁lymfocytose	-1971
▁St	-1972
▁inst	-1973
agitis	-1974
▁spier	-1975
▁uitein	-1976
receptor	-1977
▁Galblaas	-1978
▁endometri	-1979
▁schimmels	-1980
ging	-1981
▁Appendectomie	-1982
▁vulg	-1983
▁Voorts	-1984
▁multif	-1985
▁̄d	-1986
grond	-1987
▁retour	-1988
atell	-1989
▁vulgaris	-1990
▁Huidshave	-1991
▁verwerkt	-1992
▁epitheliale	-1993
▁Sp	-1994
▁onbekend	-1995
EF	-1996
▁16	-1997
illa	-1998
spoel	-1999
▁prox	-2000
erminale	-2001
▁lentigo	-2002
▁twee	-2003
▁vasc	-2004
extirpatie	-2005
▁Naaldbiopten	-2006
zen	-2007
▁Bij	-2008
steking	-2009
urettement	-2010
▁invasiediepte	-2011
▁Pla	-2012
▁vaso	-2013
lammatoire	-2014
loc	-2015
▁dr	-2016
linisch	-2017
▁mediale	-2018
▁frontaal	-2019
▁CIN	-2020
iardia	-2021
BB	-2022
reid	-2023
ruct	-2024
▁<	-2025
omer	-2026
isexcisie	-2027
SI	-2028
wang	-2029
▁bot	-2030
▁extern	-2031
▁le	-2032
onen	-2033
gemaak	-2034
▁bevindingen	-2035
EFIN	-2036
--	-2037
▁typ	-2038
neden	-2039
▁derden	-2040
▁moleculaire	-2041
ft	-2042
vert	-2043
▁ALK	-2044
▁recid	-2045
irriteerde	-2046
▁=	-2047
onale	-2048
▁perif	-2049
EFINITIE	-2050
diameter	-2051
negatief	-2052
▁kleuringen	-2053
▁no	-2054
▁zo	-2055
▁cyst	-2056
▁Uterus	-2057
▁bloeding	-2058
indweefsel	-2059
▁representatief	-2060
low	-2061
genomen	-2062
CH	-2063
▁ruim	-2064
esda	-2065
▁angio	-2066
▁Giardia	-2067
▁ax	-2068
aarde	-2069
▁urine	-2070
▁2.	-2071
rake	-2072
▁nas	-2073
generatie	-2074
▁classificerende	-2075
▁mac	-2076
▁onge	-2077
▁naast	-2078
▁classificatie	-2079
epel	-2080
ethesda	-2081
▁sprake	-2082
iculaire	-2083
▁coecum	-2084
oedelijk	-2085
▁intraderm	-2086
▁grootcellig	-2087
▁poliepectomie	-2088
▁post	-2089
buik	-2090
anger	-2091
behor	-2092
▁beho	-2093
agin	-2094
trof	-2095
▁eryth	-2096
▁thorax	-2097
gemaakte	-2098
,5	-2099
lab	-2100
▁int	-2101
ositieve	-2102
clerose	-2103
▁bijbehor	-2104
ST	-2105
▁det	-2106
▁pathogene	-2107
ied	-2108
▁sluiten	-2109
veranderingen	-2110
▁vorm	-2111
punctie	-2112
▁bijbehorende	-2113
sori	-2114
vall	-2115
▁geh	-2116
plificatie	-2117
oken	-2118
▁necrot	-2119
sectieranden	-2120
aard	-2121
▁veel	-2122
▁nader	-2123
blast	-2124
▁Daar	-2125
▁glomer	-2126
roliferatie	-2127
▁maagcorpus	-2128
▁Prostaatbiopten	-2129
VE	-2130
▁DNA	-2131
LO	-2132
▁18	-2133
▁FISH	-2134
ifferentiatie	-2135
alp	-2136
▁cran	-2137
▁bindweefsel	-2138
RE	-2139
ila	-2140
mid	-2141
▁Ig	-2142
▁neuro	-2143
mb	-2144
bra	-2145
odg	-2146
▁dis	-2147
antie	-2148
▁zijs	-2149
▁verander	-2150
-8	-2151
▁PR	-2152
▁gep	-2153
erkte	-2154
▁proces	-2155
▁slokdarm	-2156
▁therapie	-2157
▁uits	-2158
odgkin	-2159
hoek	-2160
amm	-2161
evlak	-2162
▁mucosa	-2163
▁hyperkeratose	-2164
LE	-2165
osie	-2166
▁gew	-2167
▁kap	-2168
1.	-2169
▁geirriteerde	-2170
▁Niet	-2171
alcificatie	-2172
zicht	-2173
▁betrouw	-2174
▁dermaal	-2175
GIE	-2176
iseerd	-2177
▁Biopsie	-2178
▁ontstoken	-2179
▁laaggradig	-2180
▁dig	-2181
-11-1	-2182
▁spoel	-2183
orpustype	-2184
.3	-2185
ameus	-2186
inder	-2187
▁opvall	-2188
kenmerken	-2189
▁ventraal	-2190
▁Cervixbiopt	-2191
END	-2192
her	-2193
▁30	-2194
ischem	-2195
rofiel	-2196
▁variant	-2197
▁vasculitis	-2198
▁cir	-2199
▁diepere	-2200
▁primair	-2201
Huidexcisie	-2202
▁.	-2203
arge	-2204
evus	-2205
▁NGS	-2206
iekte	-2207
▁dieper	-2208
▁erosie	-2209
▁distale	-2210
▁MET	-2211
▁ext	-2212
itaal	-2213
neevlak	-2214
▁rond	-2215
infil	-2216
ocriene	-2217
▁doorgemaakte	-2218
▁DD	-2219
asus	-2220
otisch	-2221
centage	-2222
▁pancre	-2223
▁beschadig	-2224
▁sy	-2225
▁zover	-2226
nie	-2227
▁25	-2228
▁lob	-2229
▁Conform	-2230
▁origine	-2231
▁granuloma	-2232
rijp	-2233
groei	-2234
uscel	-2235
▁psori	-2236
▁reactie	-2237
▁uitgebreid	-2238
▁Weke	-2239
▁arch	-2240
▁blij	-2241
ieerde	-2242
oplasie	-2243
▁planus	-2244
▁17	-2245
otis	-2246
▁mic	-2247
itone	-2248
isatie	-2249
▁prostaatbiopten	-2250
-7	-2251
▁cryp	-2252
▁ischem	-2253
▁gefragment	-2254
-18	-2255
exon	-2256
▁geg	-2257
26	-2258
▁ulcus	-2259
TIE	-2260
atori	-2261
▁Mat	-2262
iciteit	-2263
HO	-2264
▁Imm	-2265
▁regio	-2266
locatie	-2267
schouder	-2268
▁vooralsnog	-2269
pret	-2270
roon	-2271
▁diepte	-2272
▁terminale	-2273
▁gediagnost	-2274
▁localisatie	-2275
▁fibroadenoom	-2276
rocyt	-2277
▁deel	-2278
olaire	-2279
▁positieve	-2280
▁Huidstansbiopt	-2281
nt	-2282
enk	-2283
vies	-2284
▁Hier	-2285
1;	-2286
▁PD	-2287
▁Huidstans	-2288
▁intradermale	-2289
▁nr	-2290
-12-1	-2291
▁regressie	-2292
30	-2293
ollikel	-2294
▁Definitieve	-2295
▁Colonslijmvlies	-2296
iA	-2297
PCL	-2298
▁nek	-2299
eliak	-2300
pressie	-2301
▁hoogte	-2302
▁hypertrof	-2303
▁papillomat	-2304
▁TP	-2305
▁com	-2306
▁achtergrond	-2307
ce	-2308
asaal	-2309
scite	-2310
ructuren	-2311
acanthoom	-2312
icaliteit	-2313
-19	-2314
erg	-2315
▁kerato	-2316
▁neusrug	-2317
▁leiomyoom	-2318
▁correlatie	-2319
St	-2320
illeus	-2321
vlakken	-2322
▁necrose	-2323
rush	-2324
klein	-2325
▁kliniek	-2326
▁carcinoma	-2327
▁voet	-2328
ndroom	-2329
▁hepat	-2330
▁gegevens	-2331
▁amplificatie	-2332
CC	-2333
TNM	-2334
▁non	-2335
▁vir	-2336
zocht	-2337
▁caud	-2338
eliakie	-2339
▁nieuwe	-2340
hr	-2341
▁beschouw	-2342
▁Lev	-2343
▁knie	-2344
uus	-2345
▁enkel	-2346
▁recidief	-2347
▁maagbiopten	-2348
▁multifocaal	-2349
ulus	-2350
scites	-2351
▁mammacarcinoom	-2352
-13/*******/	-2353
▁all	-2354
▁focus	-2355
▁meest	-2356
▁nodus	-2357
amelijk	-2358
▁Snijvlak	-2359
▁cil	-2360
br	-2361
opoe	-2362
▁Invasie	-2363
▁vermoedelijk	-2364
AR	-2365
ees	-2366
flu	-2367
▁Rad	-2368
▁lum	-2369
wijzig	-2370
▁verslag	-2371
▁lymfocyten	-2372
-)	-2373
GE	-2374
MOR	-2375
laire	-2376
atelliet	-2377
▁squameus	-2378
▁uitsluit	-2379
▁coeliakie	-2380
▁beginnende	-2381
▁et	-2382
▁zoals	-2383
▁beperkte	-2384
cellymfoom	-2385
▁bed	-2386
▁blokje	-2387
▁verdere	-2388
▁bovenkwab	-2389
▁morfologisch	-2390
HM	-2391
-21	-2392
▁IN	-2393
osit	-2394
activiteit	-2395
▁Cytologische	-2396
▁rel	-2397
ooglid	-2398
▁Oesophagus	-2399
raak	-2400
▁dik	-2401
▁variatie	-2402
assoc	-2403
micro	-2404
▁fibros	-2405
▁Daarnaast	-2406
wege	-2407
▁toe	-2408
eleide	-2409
zonder	-2410
▁ingez	-2411
▁*******)	-2412
AANVULLEND	-2413
rat	-2414
ven	-2415
▁ob	-2416
opoese	-2417
fragmenten	-2418
▁doorsnijd	-2419
▁1:	-2420
▁bestaande	-2421
2-	-2422
lex	-2423
urg	-2424
brauw	-2425
▁middel	-2426
enkbrauw	-2427
namelijk	-2428
▁glomerul	-2429
▁Sch	-2430
▁Tumor	-2431
gegeven	-2432
iagnose	-2433
▁micron	-2434
▁parotis	-2435
▁behaarde	-2436
heden	-2437
reerde	-2438
▁handrug	-2439
zaak	-2440
▁medi	-2441
▁Gezien	-2442
▁onderzocht	-2443
alk	-2444
roh	-2445
▁station	-2446
alcificaties	-2447
▁ontstekingsrest	-2448
24	-2449
NB	-2450
iver	-2451
rohn	-2452
▁onderlip	-2453
▁vriescoupe	-2454
roei	-2455
▁bul	-2456
▁sla	-2457
atieve	-2458
CBD	-2459
graad	-2460
▁uteri	-2461
▁hierin	-2462
elp	-2463
▁1,5	-2464
▁degeneratie	-2465
▁22	-2466
anel	-2467
▁(0/	-2468
▁slechts	-2469
OM	-2470
lar	-2471
icus	-2472
▁beste	-2473
▁lichte	-2474
▁diffuus	-2475
▁DEFINITIE	-2476
▁instantie	-2477
Na	-2478
duid	-2479
schap	-2480
spraak	-2481
▁slaap	-2482
Biopten	-2483
▁subcutis	-2484
▁syndroom	-2485
▁naaldbiopten	-2486
gte	-2487
rac	-2488
▁arm	-2489
▁ple	-2490
irurg	-2491
itect	-2492
stand	-2493
▁even	-2494
schelp	-2495
▁Crohn	-2496
▁tonen	-2497
▁axilla	-2498
▁Differentiaal	-2499
rt	-2500
-23	-2501
▁Tub	-2502
▁crypt	-2503
▁celarm	-2504
▁Oesofagus	-2505
▁neoplasie	-2506
HMH	-2507
imp	-2508
▁GE	-2509
▁cl	-2510
▁pse	-2511
innen	-2512
oupes	-2513
▁lamb	-2514
▁eventueel	-2515
-9	-2516
AI	-2517
ade	-2518
erden	-2519
▁lymfocytaire	-2520
ikte	-2521
punt	-2522
quor	-2523
apula	-2524
iform	-2525
formatie	-2526
▁Mogelijk	-2527
▁hr	-2528
leugel	-2529
Mutatie	-2530
▁acanth	-2531
selklier	-2532
▁CM	-2533
▁anus	-2534
▁werden	-2535
▁zijdigheid	-2536
Bij	-2537
▁(4	-2538
▁EB	-2539
vrij	-2540
vleugel	-2541
▁focale	-2542
▁meerdere	-2543
kleincellig	-2544
▁ed	-2545
▁cut	-2546
olifer	-2547
rogeen	-2548
stitie	-2549
▁gevol	-2550
▁klasse	-2551
▁wenkbrauw	-2552
▁opvallende	-2553
▁cholecystitis	-2554
.(	-2555
ill	-2556
huid	-2557
▁DCIS	-2558
middel	-2559
strijk	-2560
▁atypisch	-2561
▁pancreas	-2562
▁ontvangen	-2563
eu	-2564
asen	-2565
cont	-2566
eron	-2567
▁Indien	-2568
▁Placenta	-2569
▁bil	-2570
iologisch	-2571
proliferatie	-2572
rant	-2573
urie	-2574
▁musc	-2575
▁Focaal	-2576
▁histologische	-2577
▁verruc	-2578
▁voornamelijk	-2579
▁Maagslijmvlies	-2580
eek	-2581
▁24	-2582
▁nee	-2583
▁weken	-2584
▁ulcerosa	-2585
▁onderkwab	-2586
raagt	-2587
▁romp	-2588
naevus	-2589
th	-2590
ark	-2591
▁3,	-2592
▁Over	-2593
adrant	-2594
Consult	-2595
▁doorsnijdingen	-2596
▁21	-2597
▁Na	-2598
derende	-2599
▁Uitslag	-2600
athologie	-2601
onderzoek	-2602
▁translocatie	-2603
ui	-2604
emd	-2605
hol	-2606
leet	-2607
▁Met	-2608
uizen	-2609
ibiaal	-2610
▁Shave	-2611
iverende	-2612
▁ontvangt	-2613
ulatieweefsel	-2614
mon	-2615
▁uw	-2616
chog	-2617
rista	-2618
▁editie	-2619
▁onderrug	-2620
itale	-2621
▁distaal	-2622
▁sclerosus	-2623
2/	-2624
eve	-2625
itus	-2626
▁bronchus	-2627
▁correleren	-2628
▁infiltraat	-2629
▁definitieve	-2630
50	-2631
▁py	-2632
▁mucine	-2633
▁hooguit	-2634
▁inflammatoire	-2635
con	-2636
▁1/	-2637
hand	-2638
groep	-2639
reductie	-2640
▁chirurg	-2641
▁normale	-2642
laviculair	-2643
▁onderligg	-2644
▁ulcererende	-2645
VI	-2646
-15/	-2647
ruik	-2648
▁(10	-2649
▁̄de	-2650
wijzigd	-2651
▁blijft	-2652
estrogeen	-2653
▁*******:	-2654
coch	-2655
sten	-2656
regen	-2657
gesteron	-2658
▁resectieranden	-2659
efr	-2660
gevo	-2661
▁Cel	-2662
egment	-2663
▁gebied	-2664
ovilleus	-2665
99	-2666
▁J	-2667
▁(8	-2668
▁BR	-2669
blad	-2670
▁ROS	-2671
▁sug	-2672
cochle	-2673
▁tepel	-2674
▁preparaat	-2675
▁psoriasis	-2676
▁Aanvullende	-2677
▁gediagnostic	-2678
▁darmslijmvlies	-2679
ng	-2680
led	-2681
▁aanv	-2682
astase	-2683
kwadrant	-2684
eekselklier	-2685
ereus	-2686
ecrose	-2687
▁actief	-2688
▁totaal	-2689
infiltraat	-2690
▁gastropathie	-2691
IJ	-2692
USIE	-2693
door	-2694
owel	-2695
▁mast	-2696
eringe	-2697
▁profiel	-2698
▁behandeling	-2699
▁basocellulair	-2700
CLUSIE	-2701
▁atrof	-2702
dis	-2703
eid	-2704
▁cell	-2705
▁kaak	-2706
▁segment	-2707
▁lymfoide	-2708
▁Beenmergbiopt	-2709
DI	-2710
tal	-2711
▁abce	-2712
waliteit	-2713
▁uitspraak	-2714
▁plasmacellen	-2715
DS	-2716
LA	-2717
sa	-2718
inus	-2719
▁craniaal	-2720
▁galblaas	-2721
▁corpustype	-2722
MR	-2723
ank	-2724
▁28	-2725
emie	-2726
spot	-2727
edarm	-2728
reemd	-2729
contin	-2730
dermat	-2731
reslow	-2732
▁bedraagt	-2733
▁papillomatosus	-2734
▁26	-2735
▁Li	-2736
hals	-2737
lymf	-2738
lijden	-2739
▁differentiatie	-2740
28	-2741
]20	-2742
▁23	-2743
▁Ook	-2744
▁mon	-2745
Tumor	-2746
otspot	-2747
reg	-2748
▁HP	-2749
neus	-2750
reep	-2751
▁gec	-2752
▁tox	-2753
▁Hist	-2754
laesie	-2755
▁suggest	-2756
▁Diameter	-2757
ben	-2758
▁27	-2759
impl	-2760
▁zal	-2761
▁pret	-2762
▁opruim	-2763
ONCLUSIE	-2764
ysplasie	-2765
▁geassoc	-2766
▁mediaan	-2767
▁tr	-2768
uptu	-2769
▁NRAS	-2770
▁gelaat	-2771
▁scapula	-2772
▁gal	-2773
▁casus	-2774
▁aspect	-2775
▁binnen	-2776
zijdigheid	-2777
▁neusvleugel	-2778
▁spierweefsel	-2779
-00	-2780
-16/	-2781
▁CMV	-2782
▁onc	-2783
▁ste	-2784
lopig	-2785
▁histi	-2786
ocervix	-2787
▁sereus	-2788
▁reexcisie	-2789
▁Bla	-2790
onderbeen	-2791
▁folliculaire	-2792
2.	-2793
ERI	-2794
equ	-2795
▁kin	-2796
diagnose	-2797
TAL	-2798
▁29	-2799
aria	-2800
lijn	-2801
▁0,5	-2802
▁hyp	-2803
▁Crista	-2804
▁Verder	-2805
pretatie	-2806
▁caudaal	-2807
▁reuscel	-2808
▁*******.	-2809
bin	-2810
ple	-2811
issel	-2812
▁punt	-2813
ofagitis	-2814
▁appendix	-2815
▁lymfangio	-2816
▁oorschelp	-2817
▁suggestief	-2818
ars	-2819
▁drie	-2820
parenchym	-2821
histochemische	-2822
▁endocervicaal	-2823
▁tubulovilleus	-2824
▁gefragmenteerd	-2825
3.	-2826
med	-2827
unn	-2828
▁hy	-2829
▁cholel	-2830
▁architect	-2831
▁verruceuze	-2832
▁abcederende	-2833
▁fibroserende	-2834
▁mammaweefsel	-2835
ynov	-2836
rusor	-2837
ulare	-2838
▁uitrijp	-2839
▁bovenlip	-2840
▁helicobacter	-2841
▁infiltratieve	-2842
TU	-2843
opt	-2844
typ	-2845
▁Ad	-2846
▁uret	-2847
initief	-2848
▁Append	-2849
▁thorac	-2850
▁mediast	-2851
▁plaveiselcel	-2852
▁duodenumbiopten	-2853
46	-2854
95	-2855
ude	-2856
ume	-2857
itoneum	-2858
klinisch	-2859
chogeleide	-2860
▁bijzonder	-2861
40	-2862
MA	-2863
comp	-2864
-2023	-2865
▁zowel	-2866
▁geruptu	-2867
▁zwanger	-2868
▁verkregen	-2869
▁pretibiaal	-2870
▁uitgesproken	-2871
▁zwangerschap	-2872
▁cholelithiasis	-2873
HE	-2874
▁aantal	-2875
▁lastig	-2876
follikel	-2877
▁Al	-2878
gens	-2879
akerat	-2880
▁vulva	-2881
eenbeen	-2882
MF	-2883
ings	-2884
▁dep	-2885
▁tegen	-2886
▁schade	-2887
stitiele	-2888
eesmiddel	-2889
▁betrouwbare	-2890
ann	-2891
boog	-2892
▁BRCA	-2893
▁locatie	-2894
▁curettage	-2895
▁expressie	-2896
-14/*******/	-2897
▁Invasiediepte	-2898
▁opruimreactie	-2899
ici	-2900
rik	-2901
▁3.	-2902
▁sep	-2903
▁gest	-2904
ziekte	-2905
▁fibre	-2906
▁vagin	-2907
▁arteri	-2908
▁micros	-2909
iserende	-2910
▁prolifer	-2911
▁tumorvrij	-2912
ocol	-2913
▁dub	-2914
▁maximale	-2915
▁pl	-2916
ilia	-2917
waar	-2918
▁cor	-2919
▁Deze	-2920
▁krab	-2921
▁klierb	-2922
▁Bethesda	-2923
▁sneevlak	-2924
▁radicaliteit	-2925
Op	-2926
PI	-2927
ive	-2928
exist	-2929
▁been	-2930
pigment	-2931
▁herhal	-2932
▁virale	-2933
▁ooghoek	-2934
dermatitis	-2935
▁PCR	-2936
▁mit	-2937
▁tal	-2938
andib	-2939
▁fund	-2940
▁gaarne	-2941
litteken	-2942
▁Ascites	-2943
▁ingreep	-2944
▁cilinder	-2945
▁onderver	-2946
icum	-2947
ermat	-2948
▁kuit	-2949
entrum	-2950
iratie	-2951
otheli	-2952
▁inzend	-2953
skenmerken	-2954
▁pleuravocht	-2955
raf	-2956
▁PAS	-2957
▁leuk	-2958
▁tong	-2959
▁verb	-2960
▁danwel	-2961
▁detrusor	-2962
▁proximaal	-2963
▁Bronchusspoel	-2964
▁speekselklier	-2965
▁bijzonderheden	-2966
▁Ex	-2967
▁via	-2968
▁slijm	-2969
▁welke	-2970
aardige	-2971
gevoerd	-2972
▁metastasen	-2973
▁adenomateuze	-2974
▁geneesmiddel	-2975
asc	-2976
▁tri	-2977
▁test	-2978
bovenbeen	-2979
endocriene	-2980
▁Huidresectie	-2981
atum	-2982
dens	-2983
lich	-2984
ylin	-2985
▁Immuun	-2986
▁basale	-2987
▁CONCLUSIE	-2988
▁colonbiopten	-2989
▁geruptureerde	-2990
oloog	-2991
▁verh	-2992
-11-20	-2993
afwijk	-2994
necrose	-2995
oratori	-2996
richting	-2997
▁Appendix	-2998
▁bovenrug	-2999
27	-3000
CHT	-3001
ria	-3002
romb	-3003
dikte	-3004
erfor	-3005
▁sarc	-3006
▁oesofagitis	-3007
aams	-3008
acte	-3009
▁ingroei	-3010
osclerose	-3011
specifieke	-3012
continentie	-3013
▁intestinaal	-3014
lia	-3015
▁ann	-3016
icula	-3017
emband	-3018
otheel	-3019
oratorium	-3020
▁punctaat	-3021
PE	-3022
Neu	-3023
ity	-3024
osen	-3025
▁helix	-3026
▁retro	-3027
▁divert	-3028
▁inclusie	-3029
▁nodularis	-3030
▁Resectievlakken	-3031
oo	-3032
DER	-3033
erior	-3034
acteri	-3035
▁elast	-3036
▁spreid	-3037
▁parakerat	-3038
▁zijsnijvlak	-3039
eker	-3040
atroon	-3041
actieve	-3042
▁Liquor	-3043
pervlakk	-3044
▁Geringe	-3045
▁context	-3046
▁uiteinden	-3047
▁structuren	-3048
Ad	-3049
au	-3050
OLE	-3051
▁Ac	-3052
-2021	-3053
▁onderzochte	-3054
Stv	-3055
▁PI	-3056
▁was	-3057
▁scalp	-3058
▁oorzaak	-3059
▁folliculair	-3060
DH	-3061
iel	-3062
▁Is	-3063
cidu	-3064
ammap	-3065
bodem	-3066
▁Rect	-3067
-02-20	-3068
▁random	-3069
riescoupe	-3070
▁beoordeeld	-3071
▁Gleasonscore	-3072
33	-3073
dyl	-3074
enc	-3075
ura	-3076
edeem	-3077
tiele	-3078
opulatie	-3079
cochleaat	-3080
▁uiteinde	-3081
curettement	-3082
▁transformatie	-3083
igmoA	-3084
oplas	-3085
▁poliepen	-3086
▁spreidend	-3087
▁haarfollikel	-3088
▁schouderblad	-3089
heids	-3090
holte	-3091
▁kapsel	-3092
▁toegenomen	-3093
Imm	-3094
ced	-3095
use	-3096
▁En	-3097
▁Gen	-3098
▁los	-3099
oelig	-3100
ograf	-3101
▁angi	-3102
▁sinus	-3103
▁gehele	-3104
▁wissel	-3105
▁annulare	-3106
olithiasis	-3107
90	-3108
TF	-3109
dit	-3110
spl	-3111
▁sequ	-3112
actief	-3113
▁patiA	-3114
▁behoeve	-3115
▁uitgevoerd	-3116
resectievlak	-3117
▁necrotiserende	-3118
OE	-3119
baal	-3120
ctus	-3121
inel	-3122
implex	-3123
▁oedeem	-3124
▁ontbre	-3125
▁lamblia	-3126
▁aangegeven	-3127
?[	-3128
rop	-3129
▁nav	-3130
▁top	-3131
engte	-3132
ester	-3133
raden	-3134
entinel	-3135
▁secund	-3136
▁simplex	-3137
▁0.	-3138
▁ses	-3139
-2020	-3140
scheid	-3141
osarcoom	-3142
▁gepigment	-3143
▁Echogeleide	-3144
_00	-3145
houd	-3146
veer	-3147
▁BERI	-3148
▁colla	-3149
▁BERICHT	-3150
▁hiervan	-3151
▁stansbiopt	-3152
raclaviculair	-3153
▁We	-3154
ante	-3155
-2022	-3156
ontaan	-3157
▁groep	-3158
▁Naaldbiopt	-3159
▁aankleuring	-3160
adv	-3161
ooi	-3162
▁VI	-3163
▁ru	-3164
▁ect	-3165
▁result	-3166
▁maligna	-3167
▁lobulair	-3168
Moleculair	-3169
gesteronreceptor	-3170
▁grensvlaknaevus	-3171
75	-3172
ores	-3173
▁myc	-3174
rijke	-3175
oidose	-3176
epithel	-3177
delingen	-3178
▁Radicaal	-3179
▁chirurgie	-3180
▁thoracaal	-3181
▁onderscheid	-3182
incontinentie	-3183
2;	-3184
▁CT	-3185
▁pap	-3186
anaal	-3187
▁hoorn	-3188
ografie	-3189
▁sessie	-3190
adviseerd	-3191
▁besproken	-3192
udo	-3193
atyp	-3194
keuze	-3195
▁Lever	-3196
▁coupe	-3197
▁heeft	-3198
▁separ	-3199
▁matuur	-3200
▁adenomy	-3201
▁scheenbeen	-3202
oen	-3203
▁ma	-3204
▁sign	-3205
-12-20	-3206
leboog	-3207
▁intern	-3208
▁lengte	-3209
▁digitus	-3210
▁aanvulling	-3211
gd	-3212
ipele	-3213
matig	-3214
rated	-3215
▁amyl	-3216
dermie	-3217
▁Breslow	-3218
▁duidelijk	-3219
▁ongewijzigd	-3220
▁bovenkwadrant	-3221
▁interpretatie	-3222
▁hypertrofische	-3223
98	-3224
YMF	-3225
merk	-3226
▁bre	-3227
ocard	-3228
raagd	-3229
ranod	-3230
▁prom	-3231
▁tubae	-3232
▁Slokdarm	-3233
▁overwegingen	-3234
ijz	-3235
ynx	-3236
uurd	-3237
▁2,5	-3238
-13:[	-3239
-2019	-3240
▁foet	-3241
atisch	-3242
cedure	-3243
Invasie	-3244
staande	-3245
▁Rectum	-3246
▁Hodgkin	-3247
schildklier	-3248
▁onderooglid	-3249
PD	-3250
pt	-3251
ary	-3252
-14:[	-3253
osale	-3254
▁nasi	-3255
▁snij	-3256
oornend	-3257
▁oesoph	-3258
orescent	-3259
▁erosieve	-3260
▁serrated	-3261
▁stemband	-3262
▁proximale	-3263
▁DEFINITIEF	-3264
▁activerende	-3265
▁metaplastisch	-3266
▁tumorpositief	-3267
MS	-3268
NGS	-3269
app	-3270
bes	-3271
----	-3272
▁RET	-3273
-01-20	-3274
iforme	-3275
oblast	-3276
▁(100%	-3277
▁condyl	-3278
▁beperkt	-3279
3,	-3280
▁,	-3281
▁plaats	-3282
unnedarm	-3283
▁diffuse	-3284
▁onderste	-3285
▁Materiaal	-3286
▁granulerende	-3287
▁ontstekingsp	-3288
0%.	-3289
-17/	-3290
asie	-3291
elat	-3292
urigo	-3293
▁gang	-3294
▁mass	-3295
▁prot	-3296
immuun	-3297
▁cysteuze	-3298
▁granuloom	-3299
▁Maagantrum	-3300
▁antrumtype	-3301
▁degeneratieve	-3302
7,	-3303
ea	-3304
HER	-3305
▁5%	-3306
iologie	-3307
osities	-3308
▁perfor	-3309
orescentie	-3310
gl	-3311
▁net	-3312
▁zone	-3313
ranspl	-3314
▁geval	-3315
▁grote	-3316
ineaire	-3317
arkeerde	-3318
▁Centrum	-3319
▁lymfoid	-3320
▁tractus	-3321
dissectie	-3322
ransplant	-3323
▁bevestigd	-3324
▁endometriose	-3325
▁interstitiele	-3326
34	-3327
Her	-3328
▁07	-3329
apillair	-3330
stekings	-3331
▁lumbaal	-3332
▁Lisexcisie	-3333
▁micronodulair	-3334
ros	-3335
aakt	-3336
▁Med	-3337
-2017	-3338
iomorf	-3339
▁recent	-3340
▁neuspunt	-3341
▁Snijranden	-3342
▁activiteit	-3343
▁biologisch	-3344
sn	-3345
-22	-3346
▁aut	-3347
▁GEEN	-3348
▁para	-3349
linische	-3350
▁verband	-3351
88	-3352
BBL	-3353
ers	-3354
hip	-3355
ins	-3356
▁3+	-3357
▁Sub	-3358
panel	-3359
ronde	-3360
▁fibr	-3361
▁mond	-3362
▁dicht	-3363
▁labium	-3364
▁hetgeen	-3365
▁compleet	-3366
▁verrichte	-3367
▁beschouwen	-3368
CUL	-3369
VIN	-3370
kop	-3371
▁ha	-3372
inum	-3373
rtic	-3374
ieden	-3375
▁ERBB	-3376
▁enig	-3377
Coupes	-3378
legmon	-3379
roscop	-3380
spreid	-3381
▁param	-3382
▁pariet	-3383
▁waarop	-3384
osigmoid	-3385
▁adnexen	-3386
▁geadviseerd	-3387
ema	-3388
eens	-3389
▁BCL	-3390
-2018	-3391
▁duiden	-3392
punctaat	-3393
▁extranod	-3394
▁doorsnijden	-3395
BK	-3396
▁>	-3397
-16:[	-3398
hipple	-3399
prostaat	-3400
cellulair	-3401
▁behandel	-3402
▁mesotheel	-3403
pigmentatie	-3404
▁verrukeuze	-3405
45	-3406
70	-3407
cop	-3408
dom	-3409
gew	-3410
let	-3411
arsh	-3412
ening	-3413
▁ilia	-3414
▁Oppervlakk	-3415
ls	-3416
ate	-3417
igh	-3418
oge	-3419
▁(5	-3420
kenh	-3421
oord	-3422
orro	-3423
▁aort	-3424
▁chond	-3425
gesneden	-3426
▁ingezet	-3427
▁ziekenh	-3428
▁mesotheli	-3429
▁oesophagitis	-3430
▁parakeratose	-3431
OOM	-3432
elf	-3433
ring	-3434
ruin	-3435
▁IgA	-3436
▁heup	-3437
gklier	-3438
▁vreemd	-3439
infectie	-3440
▁overleg	-3441
▁pipelle	-3442
▁ischemie	-3443
▁pleiomorf	-3444
▁krabeffect	-3445
6,	-3446
ha	-3447
uno	-3448
hoog	-3449
-2016	-3450
wacht	-3451
▁node	-3452
▁chori	-3453
bovenarm	-3454
▁verzoek	-3455
▁glandula	-3456
▁klierbuizen	-3457
▁normocellulair	-3458
AANTAL	-3459
▁cylin	-3460
▁urtic	-3461
iculitis	-3462
▁veranderd	-3463
▁microsatelliet	-3464
erie	-3465
upus	-3466
▁Bot	-3467
▁WHO	-3468
oscop	-3469
iceerd	-3470
▁behou	-3471
Excisie	-3472
snijden	-3473
▁cutane	-3474
▁fibroom	-3475
microscop	-3476
▁ongeveer	-3477
▁richting	-3478
6/	-3479
ly	-3480
▁MY	-3481
▁ml	-3482
▁Kan	-3483
▁Vol	-3484
ranul	-3485
▁Long	-3486
▁circ	-3487
teerde	-3488
▁genet	-3489
▁randen	-3490
▁sessiel	-3491
▁elleboog	-3492
▁eveneens	-3493
▁perforatie	-3494
▁celmateriaal	-3495
▁exter	-3496
▁spermat	-3497
▁minimaal	-3498
▁separaat	-3499
▁ontbreken	-3500
▁talgklier	-3501
Aanvullende	-3502
▁beschadigde	-3503
SH	-3504
▁MD	-3505
AIRE	-3506
▁Whipple	-3507
legmoneuze	-3508
percentage	-3509
OK	-3510
gr	-3511
jw	-3512
neum	-3513
tend	-3514
▁heb	-3515
▁laat	-3516
▁oude	-3517
Nieuwe	-3518
▁ather	-3519
▁navel	-3520
▁pyogen	-3521
]*******[	-3522
▁receptor	-3523
3/*******/	-3524
▁pyogenicum	-3525
▁Cristabiopt	-3526
▁architectuur	-3527
lev	-3528
▁2:	-3529
flux	-3530
▁MMR	-3531
▁ven	-3532
Hodgkin	-3533
▁microc	-3534
▁reflux	-3535
▁testis	-3536
▁compact	-3537
▁opzicht	-3538
▁erytrocyt	-3539
▁voldoende	-3540
▁gepigmenteerde	-3541
5/	-3542
80	-3543
SF	-3544
ue	-3545
uta	-3546
▁06	-3547
▁imp	-3548
-15:[	-3549
▁Door	-3550
▁apex	-3551
olaris	-3552
▁Dunne	-3553
atische	-3554
▁gelijk	-3555
▁nadere	-3556
▁vreemdlich	-3557
omorfologisch	-3558
MET	-3559
▁Te	-3560
▁Per	-3561
▁EBUS	-3562
▁acuta	-3563
▁prurigo	-3564
▁ontstaan	-3565
AANVULLING	-3566
▁Pathologie	-3567
lat	-3568
kern	-3569
ulva	-3570
▁Aan	-3571
▁drs	-3572
▁gram	-3573
▁trich	-3574
CULAIRE	-3575
unction	-3576
▁hebben	-3577
▁opzichte	-3578
▁typering	-3579
▁myometrium	-3580
adenocarcinoom	-3581
KI	-3582
OT	-3583
cf	-3584
▁HR	-3585
21-1	-3586
elet	-3587
entum	-3588
epres	-3589
▁doch	-3590
paraten	-3591
patroon	-3592
▁interes	-3593
▁verhoornend	-3594
60	-3595
79	-3596
ijd	-3597
dequ	-3598
otyp	-3599
stel	-3600
▁gist	-3601
ediaan	-3602
▁polyp	-3603
Uitslag	-3604
▁totale	-3605
▁gezicht	-3606
▁verlies	-3607
▁Klinisch	-3608
epitheliaal	-3609
▁perifollic	-3610
▁Huidbiopten	-3611
▁PT	-3612
oren	-3613
zone	-3614
marge	-3615
oring	-3616
▁prop	-3617
▁TUMOR	-3618
▁geven	-3619
▁ronde	-3620
▁neurof	-3621
▁mucineus	-3622
eslijmvlies	-3623
▁naaldbiopt	-3624
▁mediastinum	-3625
▁specificiteit	-3626
ged	-3627
▁08	-3628
▁Be	-3629
ding	-3630
▁geA	-3631
intern	-3632
▁aangev	-3633
voorhoofd	-3634
▁aanvraag	-3635
▁Curettage	-3636
▁interesse	-3637
▁uitsluitend	-3638
EP	-3639
HC	-3640
▁id	-3641
ieus	-3642
nier	-3643
requ	-3644
-2015	-3645
▁clav	-3646
▁synov	-3647
▁resten	-3648
pectomie	-3649
stelling	-3650
▁Punctaat	-3651
▁overwegen	-3652
▁papillaire	-3653
67	-3654
AD	-3655
js	-3656
▁35	-3657
▁4,	-3658
akary	-3659
etect	-3660
ekenis	-3661
▁verst	-3662
eration	-3663
▁crista	-3664
Bethesda	-3665
▁multipele	-3666
▁lisexcisie	-3667
▁hematopoese	-3668
kh	-3669
ry	-3670
ieuw	-3671
raat	-3672
▁NST	-3673
schik	-3674
ibrose	-3675
▁haard	-3676
ecifiek	-3677
esterol	-3678
lymfoom	-3679
▁combin	-3680
icodermie	-3681
▁hierover	-3682
ontsteking	-3683
▁labnummer	-3684
▁peritoneum	-3685
▁extranodale	-3686
LH	-3687
pT	-3688
acu	-3689
loom	-3690
reng	-3691
▁auto	-3692
▁vast	-3693
encing	-3694
▁lupus	-3695
entrale	-3696
▁indien	-3697
▁afstand	-3698
▁fibreus	-3699
▁gewicht	-3700
▁ziekenhuis	-3701
▁fragmentjes	-3702
▁onderliggende	-3703
600	-3704
ieel	-3705
▁50%	-3706
srest	-3707
▁acin	-3708
achter	-3709
ferent	-3710
illair	-3711
▁adequ	-3712
▁grond	-3713
▁gebruik	-3714
▁vrijwel	-3715
▁inzendingen	-3716
▁verlitteken	-3717
▁Histologisch	-3718
arak	-3719
▁get	-3720
▁ijz	-3721
▁gesch	-3722
arakter	-3723
▁blasten	-3724
▁propria	-3725
▁erythema	-3726
▁beenmergbiopt	-3727
▁calcificaties	-3728
hin	-3729
rie	-3730
cret	-3731
ereb	-3732
olip	-3733
uiten	-3734
▁Nier	-3735
▁mark	-3736
▁vanwege	-3737
▁poliepeus	-3738
▁neurofibroom	-3739
▁prostaatweefsel	-3740
PR	-3741
▁lok	-3742
▁pols	-3743
tratie	-3744
▁milde	-3745
▁papel	-3746
▁sigmoA	-3747
▁hierbij	-3748
▁afdeling	-3749
▁oncogene	-3750
OLECULAIRE	-3751
▁bijschildklier	-3752
29	-3753
]16	-3754
vum	-3755
▁Uit	-3756
▁neg	-3757
▁hart	-3758
ortale	-3759
erhalve	-3760
▁pleura	-3761
▁subopt	-3762
▁perifeer	-3763
▁poliepje	-3764
▁betekenis	-3765
▁cholesterol	-3766
58	-3767
AF	-3768
KL	-3769
rh	-3770
eds	-3771
▁(7	-3772
▁IDH	-3773
▁IgG	-3774
▁MSI	-3775
▁(2):	-3776
▁mede	-3777
▁Blaas	-3778
ocytair	-3779
▁middels	-3780
▁onderbuik	-3781
▁reticulaire	-3782
▁hypercellulair	-3783
▁hyperplastisch	-3784
68	-3785
AP	-3786
cip	-3787
▁03	-3788
EREN	-3789
aand	-3790
laag	-3791
gener	-3792
uteri	-3793
▁nefr	-3794
gaande	-3795
▁paras	-3796
▁geduid	-3797
▁laesies	-3798
▁collagen	-3799
▁kwaliteit	-3800
▁overweging	-3801
▁ischemische	-3802
]18	-3803
uct	-3804
rale	-3805
▁Kle	-3806
▁milj	-3807
oornis	-3808
▁steat	-3809
▁duoden	-3810
▁prostat	-3811
▁respons	-3812
etecteerd	-3813
▁maagtype	-3814
▁afwijkend	-3815
▁onbekende	-3816
▁extirpatie	-3817
▁infectieuze	-3818
▁paramediaan	-3819
]1	-3820
Bls	-3821
chn	-3822
▁7,	-3823
icol	-3824
ular	-3825
▁gaat	-3826
▁subm	-3827
onderarm	-3828
▁gerelat	-3829
requentie	-3830
▁karakter	-3831
▁signific	-3832
▁clavicula	-3833
▁uitstrijk	-3834
epresentatief	-3835
▁chroniciteit	-3836
4,	-3837
6.	-3838
Pro	-3839
dat	-3840
▁ja	-3841
odon	-3842
▁gek	-3843
▁meg	-3844
▁toch	-3845
▁Marge	-3846
▁maagc	-3847
▁Malign	-3848
▁celgroep	-3849
▁aspiratie	-3850
▁vasculaire	-3851
▁lymfeklieren	-3852
▁papillomateuze	-3853
7/	-3854
]3	-3855
omt	-3856
▁Hem	-3857
arynx	-3858
▁vagina	-3859
▁sarcoom	-3860
▁tumoren	-3861
▁verspreid	-3862
▁combinatie	-3863
▁darmziekte	-3864
▁gezichtspunten	-3865
38	-3866
Mw	-3867
▁04	-3868
▁09	-3869
ampl	-3870
kaak	-3871
▁wij	-3872
▁zon	-3873
Advies	-3874
▁cereb	-3875
▁pseud	-3876
▁traum	-3877
ytische	-3878
▁decidu	-3879
▁pseudo	-3880
▁cervixbiopt	-3881
▁consultatie	-3882
▁Huidcurettage	-3883
EL	-3884
TR	-3885
]13	-3886
eut	-3887
▁05	-3888
resp	-3889
▁PIK	-3890
▁TTF	-3891
reven	-3892
chting	-3893
▁vaten	-3894
▁vraag	-3895
▁alleen	-3896
ildwacht	-3897
▁hotspot	-3898
idectomie	-3899
▁musculus	-3900
▁dunnedarm	-3901
▁subcutaan	-3902
▁glandulaire	-3903
aad	-3904
▁An	-3905
RADS	-3906
eked	-3907
enst	-3908
osum	-3909
▁emb	-3910
append	-3911
verted	-3912
▁fusie	-3913
▁dubieus	-3914
▁macroscop	-3915
▁endocervix	-3916
▁Mammareductie	-3917
▁verlittekening	-3918
VU	-3919
cm	-3920
?).	-3921
asp	-3922
tot	-3923
▁40	-3924
para	-3925
▁1).	-3926
onaal	-3927
▁oste	-3928
dering	-3929
gelijk	-3930
neumon	-3931
▁massa	-3932
ermamma	-3933
▁rondom	-3934
▁bacteri	-3935
▁restant	-3936
▁Derhalve	-3937
▁Nodulair	-3938
▁inactief	-3939
▁tumorcel	-3940
▁glomeruli	-3941
▁morfologie	-3942
▁sarcoidose	-3943
▁suboptimaal	-3944
inflammatoire	-3945
▁laboratorium	-3946
▁mogelijkheid	-3947
3)	-3948
47	-3949
ID	-3950
SL	-3951
]2:	-3952
▁NM	-3953
▁man	-3954
gesch	-3955
▁Diep	-3956
▁komt	-3957
▁pity	-3958
atypie	-3959
▁cavum	-3960
▁dikke	-3961
ekedelen	-3962
▁Sigmoid	-3963
▁foetale	-3964
▁krapste	-3965
▁solaris	-3966
▁Excisiebiopt	-3967
▁infiltratief	-3968
▁geneesmiddelen	-3969
]19	-3970
enis	-3971
isol	-3972
grens	-3973
irrit	-3974
later	-3975
▁wand	-3976
▁Adnex	-3977
▁geeft	-3978
tendeels	-3979
▁acanthol	-3980
▁subcutane	-3981
▁grotendeels	-3982
▁uitsluiting	-3983
▁proliferatieve	-3984
48	-3985
49	-3986
cs	-3987
]07	-3988
ekt	-3989
▁as	-3990
lion	-3991
ynch	-3992
▁1,2	-3993
domen	-3994
culair	-3995
wijzing	-3996
▁Echter	-3997
▁aanduid	-3998
▁kenmerk	-3999
metastase	-4000
▁herhalen	-4001
▁megakary	-4002
▁fragmentje	-4003
▁gedetecteerd	-4004
▁toxicodermie	-4005
▁diagnostische	-4006
1).	-4007
]17	-4008
aff	-4009
eiw	-4010
ger	-4011
rect	-4012
▁0,1	-4013
▁Ont	-4014
▁gla	-4015
▁oud	-4016
prostat	-4017
▁gedila	-4018
▁geisol	-4019
▁iliaca	-4020
▁patiente	-4021
▁Definitief	-4022
▁Vriescoupe	-4023
stekingsbeeld	-4024
ps	-4025
iva	-4026
rch	-4027
▁31	-4028
▁AD	-4029
▁oc	-4030
raal	-4031
▁CDK	-4032
-17:[	-4033
▁Lymf	-4034
icatie	-4035
ocrien	-4036
▁kruin	-4037
▁mycose	-4038
▁elastose	-4039
▁relatief	-4040
Moleculaire	-4041
▁rectosigmoid	-4042
▁Representatief	-4043
PS	-4044
els	-4045
vat	-4046
▁ir	-4047
oeil	-4048
gging	-4049
iraat	-4050
▁100%	-4051
▁vert	-4052
▁vier	-4053
anasaal	-4054
erapeut	-4055
leiding	-4056
oeilijk	-4057
▁solaire	-4058
▁typisch	-4059
oordeling	-4060
▁beschouwd	-4061
▁aanduiding	-4062
▁mesothelioom	-4063
]14	-4064
reik	-4065
stiv	-4066
▁Twe	-4067
coeur	-4068
olair	-4069
▁tril	-4070
credit	-4071
iopath	-4072
igestiv	-4073
▁gisten	-4074
▁hersen	-4075
▁wegens	-4076
icientie	-4077
▁acinair	-4078
▁*******[	-4079
▁leiomyomen	-4080
▁Schildklier	-4081
▁proliferatief	-4082
35	-4083
7.	-4084
TER	-4085
rek	-4086
▁MC	-4087
▁GNA	-4088
lassie	-4089
▁Trans	-4090
▁circa	-4091
▁tromb	-4092
igineuze	-4093
▁omentum	-4094
▁overeen	-4095
▁dermatose	-4096
▁epidermiscyste	-4097
FI	-4098
▁x	-4099
Een	-4100
]10	-4101
]15	-4102
mede	-4103
sist	-4104
TUMOR	-4105
crete	-4106
emaal	-4107
▁Vulva	-4108
▁chrom	-4109
▁irrit	-4110
▁bulbus	-4111
odulaire	-4112
▁puntjes	-4113
▁capillair	-4114
▁aanleiding	-4115
ALE	-4116
KLI	-4117
]23	-4118
say	-4119
▁(<	-4120
▁ep	-4121
ATIE	-4122
risk	-4123
▁0,6	-4124
secten	-4125
gewicht	-4126
▁paraff	-4127
▁recente	-4128
onaliteit	-4129
▁digestiv	-4130
▁inverted	-4131
▁opsnijden	-4132
▁spongiose	-4133
▁preauriculair	-4134
05	-4135
]06	-4136
Over	-4137
icul	-4138
ioom	-4139
▁MLH	-4140
▁Ter	-4141
oides	-4142
orect	-4143
▁LYMF	-4144
▁Tuba	-4145
lexura	-4146
tensie	-4147
▁Lynch	-4148
▁anders	-4149
▁buiten	-4150
▁inzage	-4151
uteriene	-4152
▁LYMFKLI	-4153
▁miljoen	-4154
otherapie	-4155
▁snijrand	-4156
▁doorgroei	-4157
▁huidbiopten	-4158
KSF	-4159
eert	-4160
oort	-4161
▁Inf	-4162
▁Ileum	-4163
▁strom	-4164
ocytoom	-4165
▁erythemat	-4166
▁Vooralsnog	-4167
▁afwijkende	-4168
▁ingezonden	-4169
appendicitis	-4170
1)	-4171
hy	-4172
Met	-4173
OEI	-4174
WHO	-4175
cer	-4176
rap	-4177
son	-4178
ASIE	-4179
ROEI	-4180
anks	-4181
arct	-4182
▁0,8	-4183
▁fun	-4184
adium	-4185
inter	-4186
regel	-4187
riasis	-4188
status	-4189
sigmoid	-4190
zegging	-4191
▁chondro	-4192
▁parietaal	-4193
iagnostisch	-4194
▁digestivus	-4195
▁betrouwbaar	-4196
▁dankzegging	-4197
▁verandering	-4198
▁bovenstaande	-4199
▁longcarcinoom	-4200
3;	-4201
MB	-4202
4:[	-4203
Gly	-4204
ida	-4205
niet	-4206
zijn	-4207
▁bew	-4208
▁pur	-4209
▁neut	-4210
itaire	-4211
snijvlak	-4212
▁Celrijke	-4213
▁negatieve	-4214
▁gesclerose	-4215
opathologische	-4216
="	-4217
]26	-4218
mee	-4219
-14/	-4220
lete	-4221
text	-4222
klasse	-4223
▁stern	-4224
stische	-4225
▁ductus	-4226
▁Accredit	-4227
▁sentinel	-4228
prostatische	-4229
▁lentigineuze	-4230
▁geassocieerde	-4231
08	-4232
VASIE	-4233
zeker	-4234
▁fase	-4235
▁zich	-4236
▁basal	-4237
▁embry	-4238
▁staat	-4239
▁ureter	-4240
▁ziekte	-4241
veolaire	-4242
iescoupes	-4243
▁melanoma	-4244
▁plasmacel	-4245
▁verdachte	-4246
]08	-4247
get	-4248
tij	-4249
tur	-4250
atus	-4251
iese	-4252
olab	-4253
histi	-4254
▁brush	-4255
▁daarin	-4256
cipitaal	-4257
ronische	-4258
▁Weefsel	-4259
▁abdomen	-4260
▁daarbij	-4261
▁insecten	-4262
▁apocriene	-4263
▁procedure	-4264
▁deposities	-4265
▁topografie	-4266
▁wisselende	-4267
▁curettement	-4268
fluorescentie	-4269
▁geassocieerd	-4270
▁keratoacanthoom	-4271
ARD	-4272
ina	-4273
oes	-4274
istr	-4275
▁0,2	-4276
▁mis	-4277
▁val	-4278
osaal	-4279
▁horm	-4280
kernige	-4281
ministr	-4282
▁helder	-4283
▁intrad	-4284
neumonie	-4285
▁discrete	-4286
▁resultaat	-4287
▁beschreven	-4288
▁temporalis	-4289
▁gemarkeerde	-4290
▁verwijderde	-4291
sm	-4292
▁Q	-4293
NVE	-4294
]2.	-4295
]24	-4296
]25	-4297
def	-4298
ewel	-4299
fact	-4300
▁0,4	-4301
▁MSH	-4302
astom	-4303
etsel	-4304
orbus	-4305
▁tons	-4306
lopige	-4307
▁onregel	-4308
afwijking	-4309
▁junction	-4310
▁partiele	-4311
▁sequencing	-4312
waarschijnlijk	-4313
▁histiocytaire	-4314
4.	-4315
hv	-4316
▁'	-4317
]09	-4318
]29	-4319
ile	-4320
yre	-4321
▁0,3	-4322
gment	-4323
oiese	-4324
andida	-4325
jectie	-4326
▁hrHPV	-4327
▁nabij	-4328
▁reeds	-4329
iseerde	-4330
▁Geheel	-4331
▁effect	-4332
ascendens	-4333
sdiagnose	-4334
▁Voorkeur	-4335
▁hiervoor	-4336
epidermale	-4337
▁Moleculair	-4338
▁pityriasis	-4339
ransplantatie	-4340
.:	-4341
2)	-4342
amn	-4343
0%).	-4344
eten	-4345
ethy	-4346
pect	-4347
▁Pap	-4348
uiste	-4349
▁aorta	-4350
▁geind	-4351
segment	-4352
▁alsmede	-4353
▁gevolge	-4354
▁zijwand	-4355
▁volgende	-4356
▁daarnaast	-4357
▁paranasaal	-4358
▁Oppervlakkige	-4359
▁reuscelreactie	-4360
4/	-4361
MD	-4362
ISO	-4363
]05	-4364
rok	-4365
▁(9	-4366
enuw	-4367
iets	-4368
otje	-4369
▁Hoe	-4370
▁ind	-4371
▁myx	-4372
▁rep	-4373
aling	-4374
▁lang	-4375
▁zien	-4376
ernaal	-4377
gemeen	-4378
intest	-4379
omateus	-4380
▁amyloid	-4381
existente	-4382
▁percentage	-4383
▁gedilateerde	-4384
63	-4385
65	-4386
;[	-4387
189	-4388
]21	-4389
]22	-4390
elfde	-4391
ortus	-4392
▁card	-4393
ledige	-4394
▁algemeen	-4395
▁celrijke	-4396
▁verwijzing	-4397
-16/*******/	-4398
-17/*******/	-4399
▁perivasculair	-4400
TY	-4401
ox	-4402
JSL	-4403
ert	-4404
maag	-4405
stru	-4406
antal	-4407
▁iets	-4408
▁nive	-4409
▁vill	-4410
▁bulle	-4411
▁inges	-4412
▁Subcut	-4413
▁herken	-4414
▁ooglid	-4415
turatori	-4416
▁Botbiopt	-4417
▁ganglion	-4418
ocervicale	-4419
▁behoudens	-4420
▁submandib	-4421
icolectomie	-4422
▁muscularis	-4423
▁vetnecrose	-4424
ozo	-4425
val	-4426
igin	-4427
mmer	-4428
▁MYC	-4429
regio	-4430
▁fist	-4431
streng	-4432
▁blijk	-4433
▁zenuw	-4434
station	-4435
▁fundic	-4436
▁juiste	-4437
olabiaal	-4438
▁chromos	-4439
▁dorsale	-4440
igexcisie	-4441
lymfklier	-4442
schikking	-4443
▁adequate	-4444
▁buikwand	-4445
▁leukemie	-4446
heidshalve	-4447
erapeutisch	-4448
VII	-4449
afd	-4450
cob	-4451
sub	-4452
elev	-4453
meer	-4454
rist	-4455
▁100	-4456
▁2).	-4457
▁ald	-4458
▁ins	-4459
ecaal	-4460
▁prep	-4461
▁sept	-4462
Immuun	-4463
sneden	-4464
wezige	-4465
▁geink	-4466
▁kraak	-4467
rofagen	-4468
Snijvlak	-4469
astomose	-4470
▁immunof	-4471
▁rejectie	-4472
structuren	-4473
▁neutrofie	-4474
▁aangevraagd	-4475
▁flegmoneuze	-4476
EU	-4477
Re	-4478
0%)	-4479
LOY	-4480
]04	-4481
▁7:	-4482
line	-4483
▁den	-4484
besch	-4485
itose	-4486
▁zwak	-4487
rument	-4488
▁delet	-4489
▁dikte	-4490
▁omgev	-4491
▁volledige	-4492
▁mammareductie	-4493
▁vreemdlichaams	-4494
..	-4495
?)	-4496
ole	-4497
▁sn	-4498
▁0,7	-4499
▁PIN	-4500
▁FGFR	-4501
▁abla	-4502
▁moet	-4503
aardig	-4504
ionale	-4505
tefact	-4506
▁perit	-4507
▁myocard	-4508
▁patroon	-4509
4/*******/	-4510
▁actinisch	-4511
▁beginnend	-4512
▁schimmeld	-4513
▁linkerwang	-4514
▁secundaire	-4515
▁adenomyosis	-4516
▁Slokdarmbiopten	-4517
▁rechterschouder	-4518
2:	-4519
CM	-4520
On	-4521
OOR	-4522
bev	-4523
pas	-4524
▁6,	-4525
aren	-4526
umin	-4527
▁sten	-4528
chniek	-4529
tijdig	-4530
genitale	-4531
ienummer	-4532
▁Benigne	-4533
▁cysteus	-4534
oornissen	-4535
▁atrofisch	-4536
▁intraduct	-4537
excochleaat	-4538
▁tumorweefsel	-4539
pa	-4540
Skh	-4541
]03	-4542
oir	-4543
maal	-4544
▁AAN	-4545
▁Dik	-4546
▁eiw	-4547
▁ile	-4548
INGEN	-4549
excid	-4550
▁(1):	-4551
▁blue	-4552
▁merg	-4553
▁radi	-4554
▁Graag	-4555
gressie	-4556
oplasma	-4557
pasbaar	-4558
gestuurd	-4559
▁Medisch	-4560
▁geinkte	-4561
▁klassie	-4562
▁kraakbeen	-4563
▁frequentie	-4564
▁histologie	-4565
▁meerkernige	-4566
▁Mammabiopten	-4567
▁onderliggend	-4568
IP	-4569
EHE	-4570
MMA	-4571
bel	-4572
emf	-4573
vid	-4574
ving	-4575
amman	-4576
groot	-4577
▁Norm	-4578
▁Wart	-4579
▁foci	-4580
anneer	-4581
rische	-4582
▁bevat	-4583
dermaal	-4584
emische	-4585
▁gastro	-4586
▁hemorr	-4587
▁letsel	-4588
▁mammap	-4589
existent	-4590
▁Maligne	-4591
▁stromale	-4592
opathische	-4593
▁Bowenoide	-4594
▁spermatozo	-4595
diagnostisch	-4596
▁bevestiging	-4597
▁gelijktijdig	-4598
▁metastatisch	-4599
3=	-4600
4:	-4601
GRE	-4602
ook	-4603
ribr	-4604
▁cru	-4605
▁maj	-4606
ieten	-4607
olsel	-4608
spron	-4609
▁kalk	-4610
▁poly	-4611
▁vlak	-4612
Tevens	-4613
eftijd	-4614
▁lamin	-4615
▁huidad	-4616
▁infarc	-4617
▁langer	-4618
snijrand	-4619
▁*******:[	-4620
▁inpasbaar	-4621
▁lobulaire	-4622
▁occipitaal	-4623
▁afwezigheid	-4624
▁trilineaire	-4625
therapeutisch	-4626
▁groeipatroon	-4627
kd	-4628
kt	-4629
nu	-4630
3):	-4631
]27	-4632
]28	-4633
▁BE	-4634
1-10	-4635
ibel	-4636
roch	-4637
uurs	-4638
▁KIT	-4639
▁Pre	-4640
▁pil	-4641
ibros	-4642
▁glad	-4643
ardson	-4644
gebied	-4645
▁gemen	-4646
liggende	-4647
▁sternum	-4648
DEFINITIE	-4649
ichardson	-4650
populatie	-4651
▁idiopath	-4652
▁waardoor	-4653
▁bovenbuik	-4654
▁urticaria	-4655
▁oestrogeen	-4656
typeslijmvlies	-4657
ff	-4658
Dit	-4659
weg	-4660
▁Af	-4661
0%.[	-4662
icam	-4663
icis	-4664
name	-4665
▁3).	-4666
▁ala	-4667
-2014	-4668
ogeen	-4669
▁mate	-4670
▁noem	-4671
oordeeld	-4672
▁geexcid	-4673
▁gegeven	-4674
▁hematop	-4675
▁geisoleerd	-4676
respectievelijk	-4677
BZ	-4678
1):	-4679
bep	-4680
ebe	-4681
▁2-	-4682
DERE	-4683
EGFR	-4684
FICA	-4685
ting	-4686
ucle	-4687
zins	-4688
▁Wel	-4689
▁pal	-4690
codon	-4691
haafd	-4692
igens	-4693
▁jaar	-4694
entrik	-4695
granul	-4696
ositis	-4697
uspect	-4698
▁Marsh	-4699
▁ijzer	-4700
FICATIE	-4701
▁verkla	-4702
▁volume	-4703
emporaal	-4704
▁Warthin	-4705
▁bestaat	-4706
▁wanneer	-4707
▁lichenoA	-4708
▁obductie	-4709
▁aanwezige	-4710
▁etiologie	-4711
▁satelliet	-4712
▁uitrijping	-4713
▁achterzijde	-4714
▁binnenzijde	-4715
▁heldercellig	-4716
1-	-4717
1/	-4718
hra	-4719
ikt	-4720
acea	-4721
gele	-4722
kend	-4723
mamma	-4724
gezien	-4725
zijnde	-4726
▁Brush	-4727
▁Infil	-4728
▁penis	-4729
▁bekled	-4730
▁detect	-4731
▁fistel	-4732
mogelijk	-4733
viditeit	-4734
waardige	-4735
▁bijnier	-4736
▁genomen	-4737
▁noemens	-4738
dysplasie	-4739
uitstrijk	-4740
▁gevoelig	-4741
▁leeftijd	-4742
▁moeilijk	-4743
▁necrotisch	-4744
▁aantoonbare	-4745
▁goedaardige	-4746
▁neutrofiele	-4747
▁vriescoupes	-4748
▁beschadiging	-4749
▁vraagstelling	-4750
37	-4751
5%	-4752
3:[	-4753
▁02	-4754
chan	-4755
▁(1)	-4756
▁fam	-4757
▁sem	-4758
itair	-4759
trans	-4760
atibel	-4761
basaal	-4762
lonale	-4763
zelfde	-4764
▁cardia	-4765
▁circum	-4766
▁huidst	-4767
▁marges	-4768
▁suspect	-4769
lammatoir	-4770
▁geanalyse	-4771
▁populatie	-4772
aaldbiopsie	-4773
▁atrofische	-4774
tratiediepte	-4775
▁darmbiopten	-4776
▁rechterwang	-4777
▁zijsnijrand	-4778
▁microscopisch	-4779
CD	-4780
▁X	-4781
AST	-4782
ise	-4783
tje	-4784
▁os	-4785
ject	-4786
kalk	-4787
▁200	-4788
▁erf	-4789
immel	-4790
▁syst	-4791
onitis	-4792
▁bowen	-4793
▁vrouw	-4794
gebruik	-4795
▁gehand	-4796
▁submuc	-4797
▁tweede	-4798
gevoelig	-4799
▁archief	-4800
atellitose	-4801
▁mogelijke	-4802
▁Stansbiopt	-4803
▁LYMFKLIEREN	-4804
▁congenitale	-4805
▁karakterist	-4806
▁pigmentosus	-4807
▁gefragmenteerde	-4808
▁noemenswaardige	-4809
4;	-4810
-01	-4811
]30	-4812
hel	-4813
iem	-4814
tio	-4815
▁38	-4816
▁Am	-4817
orad	-4818
▁IHC	-4819
abiel	-4820
flank	-4821
trole	-4822
asieen	-4823
ocyste	-4824
volume	-4825
▁blaar	-4826
▁kappa	-4827
▁stase	-4828
Gleason	-4829
vormige	-4830
▁externa	-4831
▁flexura	-4832
▁placent	-4833
Klinische	-4834
bijzijnde	-4835
▁administr	-4836
▁hoofdhuid	-4837
▁paraffine	-4838
▁voorlopig	-4839
▁anastomose	-4840
▁macrofagen	-4841
▁overlijden	-4842
▁gehandhaafd	-4843
▁graviditeit	-4844
▁cholesterolose	-4845
3/	-4846
AT	-4847
NV	-4848
SE	-4849
▁AP	-4850
etal	-4851
raad	-4852
spronk	-4853
▁Matig	-4854
▁Vagin	-4855
▁breuk	-4856
iliteit	-4857
reuscel	-4858
▁haemat	-4859
▁onduid	-4860
andibula	-4861
emateuze	-4862
▁behoort	-4863
beschadig	-4864
▁cutaneum	-4865
▁hepatica	-4866
▁achterlip	-4867
▁aspecifiek	-4868
▁DEFINITIEVE	-4869
▁Cervixbiopten	-4870
.5	-4871
66	-4872
DE	-4873
IG	-4874
.35	-4875
11;	-4876
JCC	-4877
Lev	-4878
lag	-4879
▁3)	-4880
▁Ev	-4881
▁1,3	-4882
GREEP	-4883
borst	-4884
leden	-4885
▁Part	-4886
▁herk	-4887
▁hoge	-4888
lokjes	-4889
▁goede	-4890
ampling	-4891
▁Levern	-4892
▁aldaar	-4893
▁blijkt	-4894
▁gedaan	-4895
▁lamina	-4896
▁myelod	-4897
atselijk	-4898
entrikel	-4899
uscellen	-4900
▁INGREEP	-4901
▁voorlip	-4902
bovenkwab	-4903
endocrien	-4904
wijzingen	-4905
▁hotspots	-4906
▁Transuret	-4907
▁varianten	-4908
▁parasieten	-4909
-15/*******/	-4910
▁ulceratieve	-4911
ildwachtklier	-4912
▁linkerschouder	-4913
▁schimmeldraden	-4914
TC	-4915
ALK	-4916
osp	-4917
top	-4918
ulp	-4919
▁01	-4920
VIND	-4921
leed	-4922
▁TVU	-4923
▁som	-4924
▁ves	-4925
iaire	-4926
▁cerv	-4927
ectrum	-4928
ginale	-4929
oeling	-4930
onisch	-4931
menging	-4932
olipoom	-4933
rijging	-4934
▁BEVIND	-4935
▁Coupes	-4936
▁promot	-4937
▁vertex	-4938
▁axillair	-4939
▁chronicus	-4940
▁BEVINDINGEN	-4941
73	-4942
IA	-4943
TH	-4944
di	-4945
6:[	-4946
▁5,	-4947
▁NS	-4948
0%),	-4949
▁Min	-4950
▁TKI	-4951
colon	-4952
edoch	-4953
risch	-4954
▁flow	-4955
▁lage	-4956
▁tang	-4957
ariant	-4958
erieur	-4959
▁Bloom	-4960
▁cribr	-4961
▁crust	-4962
edochus	-4963
efritis	-4964
rosacea	-4965
▁Mammap	-4966
▁minste	-4967
omponent	-4968
▁inzicht	-4969
▁spectrum	-4970
▁steatose	-4971
ocervicaal	-4972
▁bacterien	-4973
▁irritatie	-4974
▁Richardson	-4975
▁bepalingen	-4976
▁opgestuurd	-4977
AK	-4978
4):	-4979
SIL	-4980
hyl	-4981
ial	-4982
uff	-4983
uut	-4984
▁3-	-4985
emde	-4986
opec	-4987
arget	-4988
ermie	-4989
▁CDKN	-4990
inding	-4991
murale	-4992
rectum	-4993
▁Hyper	-4994
▁prola	-4995
cytomet	-4996
▁carcin	-4997
▁gevolg	-4998
Kwaliteit	-4999
▁acanthose	-5000
▁inzichten	-5001
▁vergelijk	-5002
stbijzijnde	-5003
▁obturatori	-5004
▁kenmerkende	-5005
▁significante	-5006
epitheelcellen	-5007
▁2)	-5008
▁LE	-5009
duct	-5010
kele	-5011
▁VIN	-5012
▁fem	-5013
order	-5014
▁Derm	-5015
▁Inst	-5016
▁comm	-5017
▁glob	-5018
anwege	-5019
etigin	-5020
zijdig	-5021
▁cornu	-5022
▁promin	-5023
▁therap	-5024
▁rosacea	-5025
▁zijrand	-5026
cytologie	-5027
▁hersenen	-5028
▁bevestigt	-5029
▁Rectumbiopten	-5030
▁inclusiecyste	-5031
▁atherosclerose	-5032
1:	-5033
78	-5034
dd	-5035
2).	-5036
max	-5037
▁nu	-5038
▁vl	-5039
iect	-5040
▁2,0	-5041
brush	-5042
ronen	-5043
▁flar	-5044
▁Micro	-5045
▁omdat	-5046
▁reden	-5047
▁acumin	-5048
▁mechan	-5049
▁Tumoren	-5050
▁complex	-5051
▁helicis	-5052
▁neuroom	-5053
onefritis	-5054
plaveisel	-5055
ulariteit	-5056
umpectomie	-5057
▁*******):	-5058
▁marginale	-5059
▁nasolabiaal	-5060
▁pigmentatie	-5061
▁cytologische	-5062
unohistochemisch	-5063
▁Huidexcochleaat	-5064
MP	-5065
ess	-5066
ijf	-5067
zak	-5068
▁BI	-5069
ASSI	-5070
memb	-5071
wijs	-5072
▁10%	-5073
▁EUS	-5074
▁tij	-5075
ASTAS	-5076
ellen	-5077
igoid	-5078
orden	-5079
▁Cave	-5080
▁chem	-5081
ANDERE	-5082
icient	-5083
ulente	-5084
▁Panel	-5085
▁allel	-5086
ionitis	-5087
▁alopec	-5088
▁behulp	-5089
▁denken	-5090
▁vooral	-5091
radicaal	-5092
▁Diepere	-5093
▁Hierbij	-5094
▁abortus	-5095
▁ductale	-5096
ingenomen	-5097
▁inclusief	-5098
▁mesenchym	-5099
ASSIFICATIE	-5100
intestinale	-5101
▁compatibel	-5102
▁choledochus	-5103
▁Resectieranden	-5104
▁administratief	-5105
96	-5106
WE	-5107
Mat	-5108
PON	-5109
]02	-5110
LOPI	-5111
cele	-5112
ilic	-5113
▁(12	-5114
▁JBZ	-5115
-19:[	-5116
apsel	-5117
ongen	-5118
yster	-5119
▁Borg	-5120
▁VOOR	-5121
oename	-5122
▁Verru	-5123
▁Corpus	-5124
▁ovaria	-5125
▁tubulo	-5126
▁vitale	-5127
arenchym	-5128
▁bekleed	-5129
▁myeloom	-5130
Lymfklier	-5131
rumentaal	-5132
▁cylinder	-5133
▁follikel	-5134
▁hemorrag	-5135
▁ventrale	-5136
▁(*******,	-5137
▁cytologie	-5138
▁ingenomen	-5139
▁secundair	-5140
▁Leverbiopt	-5141
▁achterwand	-5142
▁reuscellen	-5143
▁navelstreng	-5144
ifferentieerd	-5145
▁ontstekingsc	-5146
▁zonbeschadig	-5147
▁Instrumentaal	-5148
▁micronodulaire	-5149
▁mutatieanalyse	-5150
▁intestinaaltype	-5151
8,	-5152
5:[	-5153
TRK	-5154
oil	-5155
▁37	-5156
▁3:	-5157
1).[	-5158
aste	-5159
beet	-5160
edel	-5161
oire	-5162
rikk	-5163
ulum	-5164
▁2):	-5165
▁FNA	-5166
▁opt	-5167
▁vro	-5168
-2013	-5169
erens	-5170
plooi	-5171
▁kern	-5172
▁lymfo	-5173
▁vanaf	-5174
angiect	-5175
▁exacte	-5176
efonisch	-5177
▁urethra	-5178
▁vlokken	-5179
omatische	-5180
▁lichaams	-5181
amnionitis	-5182
▁doorsneden	-5183
▁behandelend	-5184
▁krabeffecten	-5185
reuscelreactie	-5186
aG	-5187
GRA	-5188
]11	-5189
eit	-5190
tub	-5191
TYPE	-5192
▁0,9	-5193
▁BCC	-5194
▁zeg	-5195
-18:[	-5196
abces	-5197
itten	-5198
▁AJCC	-5199
▁kans	-5200
ortaal	-5201
eratoom	-5202
merking	-5203
uitslag	-5204
▁Enkele	-5205
▁chorio	-5206
▁verbre	-5207
--------	-5208
▁ablatio	-5209
▁gewenst	-5210
▁portale	-5211
▁vorming	-5212
component	-5213
▁deferens	-5214
naaldbiopt	-5215
▁Nierbiopt	-5216
▁pneumonie	-5217
AANVULLENDE	-5218
▁verstoring	-5219
▁erytrocyten	-5220
▁geindiceerd	-5221
▁fragmentatie	-5222
▁placentarest	-5223
klierdissectie	-5224
▁beoordeelbare	-5225
▁corpusbiopten	-5226
▁50	-5227
▁EM	-5228
▁kw	-5229
dist	-5230
rosp	-5231
tere	-5232
▁dus	-5233
adier	-5234
ancer	-5235
eduur	-5236
oksel	-5237
▁arter	-5238
iedenis	-5239
blastoom	-5240
▁familie	-5241
▁fibrine	-5242
▁gemaakt	-5243
ochemisch	-5244
▁VOORLOPI	-5245
▁condyloma	-5246
▁mandibula	-5247
Snijvlakken	-5248
▁middenkwab	-5249
CLASSIFICATIE	-5250
▁cervixpoliep	-5251
▁geanalyseerd	-5252
▁coloncarcinoom	-5253
▁(6	-5254
ater	-5255
raan	-5256
▁APC	-5257
▁dec	-5258
▁hid	-5259
esult	-5260
oemde	-5261
▁prof	-5262
▁abces	-5263
▁impon	-5264
komende	-5265
▁Eventu	-5266
▁adenose	-5267
▁interne	-5268
▁scleros	-5269
apillaire	-5270
▁Partiele	-5271
▁sampling	-5272
▁depositie	-5273
▁geneticus	-5274
▁haargrens	-5275
▁hepatitis	-5276
▁nierbiopt	-5277
▁submucosa	-5278
▁Generation	-5279
▁nefropathie	-5280
ekerheidshalve	-5281
▁bloedingsrest	-5282
▁diverticulitis	-5283
ood	-5284
stb	-5285
ule	-5286
▁.[	-5287
▁4+	-5288
▁BV	-5289
FISH	-5290
verd	-5291
▁pul	-5292
ation	-5293
match	-5294
ragen	-5295
rcher	-5296
selen	-5297
▁Past	-5298
▁Zeer	-5299
▁gede	-5300
▁subc	-5301
▁vacu	-5302
Blokje	-5303
lengte	-5304
ristal	-5305
INVASIE	-5306
Overige	-5307
consult	-5308
omatose	-5309
▁crusta	-5310
▁tonsil	-5311
▁vitaal	-5312
aliseerde	-5313
stechniek	-5314
▁Schimmel	-5315
▁protocol	-5316
neevlakken	-5317
onaliteits	-5318
▁Maagbiopt	-5319
▁diagnosen	-5320
▁gradering	-5321
MOLECULAIRE	-5322
schijnselen	-5323
▁Vulvabiopt	-5324
geschiedenis	-5325
▁cystadenoom	-5326
▁doorgesneden	-5327
▁gescleroseerd	-5328
rijgingstechniek	-5329
4)	-5330
55	-5331
TE	-5332
lc	-5333
▁1)	-5334
▁CTI	-5335
▁Gro	-5336
utium	-5337
▁buis	-5338
▁repair	-5339
orectaal	-5340
▁arteria	-5341
▁deletie	-5342
▁ductect	-5343
▁ernstig	-5344
▁gemengd	-5345
▁infarct	-5346
▁leverbiopt	-5347
▁Plaatselijk	-5348
▁onduidelijk	-5349
▁regressieve	-5350
▁maagcorpustype	-5351
1[	-5352
2[	-5353
77	-5354
IO	-5355
%).	-5356
FPE	-5357
eku	-5358
▁TB	-5359
ORTC	-5360
▁NOS	-5361
▁sta	-5362
deels	-5363
istof	-5364
otype	-5365
▁AARD	-5366
ending	-5367
impele	-5368
▁lokaal	-5369
▁geschat	-5370
▁kleiner	-5371
▁tijdens	-5372
Materiaal	-5373
▁gebieden	-5374
▁mismatch	-5375
DEFINITIEVE	-5376
▁opgesneden	-5377
▁geexcideerd	-5378
roliferatieve	-5379
▁endometrioid	-5380
▁pathologisch	-5381
▁zonbeschadigde	-5382
09	-5383
GM	-5384
OH	-5385
AIN	-5386
LAG	-5387
LAK	-5388
iat	-5389
mus	-5390
uli	-5391
yna	-5392
▁My	-5393
VLAK	-5394
even	-5395
thor	-5396
▁3,5	-5397
▁EBV	-5398
▁ROK	-5399
▁lig	-5400
etref	-5401
onair	-5402
▁Alle	-5403
laring	-5404
▁Dikke	-5405
oorzaak	-5406
▁bekken	-5407
▁mening	-5408
▁myelop	-5409
bepaling	-5410
ospermie	-5411
▁Dermale	-5412
▁Mutatie	-5413
▁bulleus	-5414
orroeduur	-5415
rofoblast	-5416
▁lymfomen	-5417
▁sclerose	-5418
▁spoeling	-5419
▁Oestrogeen	-5420
▁embryonale	-5421
▁colonpoliep	-5422
▁peritonitis	-5423
▁radiculaire	-5424
▁Radicaliteit	-5425
▁hoornmateriaal	-5426
43	-5427
6:	-5428
Af	-5429
rs	-5430
/13	-5431
AID	-5432
het	-5433
ric	-5434
▁33	-5435
▁4:	-5436
▁ro	-5437
Verk	-5438
bris	-5439
▁Tot	-5440
▁UIT	-5441
▁VII	-5442
▁mal	-5443
esion	-5444
ombin	-5445
ynaec	-5446
▁ware	-5447
aximale	-5448
mutatie	-5449
▁mitosen	-5450
▁prolaps	-5451
expressie	-5452
wezigheid	-5453
▁aangelev	-5454
▁grootste	-5455
oscopische	-5456
▁Reexcisie	-5457
▁Voorlopig	-5458
▁overleden	-5459
ysplastisch	-5460
▁celgroepen	-5461
▁verklaring	-5462
▁bovenooglid	-5463
▁gerelateerde	-5464
▁mastopathische	-5465
OL	-5466
jr	-5467
lp	-5468
▁"	-5469
15,	-5470
WIJ	-5471
▁RE	-5472
▁ag	-5473
SLAG	-5474
▁(20	-5475
▁LBK	-5476
▁bel	-5477
icard	-5478
▁fors	-5479
ernale	-5480
▁Onder	-5481
▁acuut	-5482
▁langs	-5483
▁ruime	-5484
▁interf	-5485
▁lambda	-5486
-*******	-5487
gebreide	-5488
structie	-5489
▁onzeker	-5490
▁gedegener	-5491
▁verminder	-5492
afwijkingen	-5493
ositiviteit	-5494
▁colonmucosa	-5495
▁infarcering	-5496
▁inflammatoir	-5497
▁insectenbeet	-5498
▁overgevoelig	-5499
resectievlakken	-5500
▁urotheelcellen	-5501
0.	-5502
ace	-5503
aps	-5504
yro	-5505
agel	-5506
peri	-5507
▁ecz	-5508
ieken	-5509
ocele	-5510
▁zuur	-5511
ereren	-5512
minder	-5513
▁graag	-5514
liggend	-5515
uperfic	-5516
▁fibrin	-5517
rectomie	-5518
reparaat	-5519
sternaal	-5520
▁ascites	-5521
efragment	-5522
epitheeld	-5523
orderline	-5524
voorbeeld	-5525
pathologie	-5526
▁basaalcel	-5527
orfologisch	-5528
▁superficiA	-5529
▁fo	-5530
DCIS	-5531
ient	-5532
long	-5533
opie	-5534
▁1-2	-5535
▁MDS	-5536
▁PDL	-5537
▁RBK	-5538
ntrum	-5539
verte	-5540
▁Next	-5541
uratie	-5542
▁aando	-5543
ASTASEN	-5544
rekking	-5545
rotocol	-5546
▁Mamman	-5547
▁cylind	-5548
▁genher	-5549
▁target	-5550
▁blokjes	-5551
▁laatste	-5552
▁schedel	-5553
▁passende	-5554
▁tongrand	-5555
spoelvocht	-5556
▁tubulaire	-5557
▁Tubectomie	-5558
▁therapieke	-5559
aanwijzingen	-5560
▁cribriforme	-5561
▁waargenomen	-5562
verschijnselen	-5563
▁huidafwijking	-5564
▁Slijmvliesbiopt	-5565
▁littekenvorming	-5566
4=	-5567
7:	-5568
sd	-5569
-02	-5570
]01	-5571
]12	-5572
bil	-5573
int	-5574
itz	-5575
▁39	-5576
▁av	-5577
19.[	-5578
21-2	-5579
emph	-5580
graf	-5581
stit	-5582
▁1,8	-5583
▁ost	-5584
▁Ampl	-5585
▁plek	-5586
vreemd	-5587
▁Inter	-5588
▁blast	-5589
▁immat	-5590
▁maakt	-5591
aanvull	-5592
▁Klasse	-5593
▁polype	-5594
▁Overige	-5595
▁angioom	-5596
▁relatie	-5597
▁botbiopt	-5598
▁complete	-5599
▁myeloide	-5600
▁referent	-5601
▁herhaling	-5602
▁micrograf	-5603
stoornissen	-5604
▁Mammabiopt	-5605
▁herkenbaar	-5606
klierweefsel	-5607
▁Helicobacters	-5608
5,	-5609
6)	-5610
aj	-5611
rg	-5612
2):	-5613
NNB	-5614
isc	-5615
rab	-5616
▁(>	-5617
▁2/	-5618
▁36	-5619
iops	-5620
iseq	-5621
vlok	-5622
▁40%	-5623
▁MDO	-5624
▁NIE	-5625
▁and	-5626
▁ess	-5627
▁spi	-5628
-22:[	-5629
▁coll	-5630
▁haem	-5631
▁reek	-5632
▁vijf	-5633
ariele	-5634
rombus	-5635
slagen	-5636
▁Morbus	-5637
▁blauwe	-5638
▁bronch	-5639
▁vanuit	-5640
asiforme	-5641
ektronen	-5642
lateraal	-5643
tefacten	-5644
▁evident	-5645
▁simpele	-5646
▁stadium	-5647
temporaal	-5648
▁adenomen	-5649
▁cystewand	-5650
▁opvallend	-5651
▁chromosoom	-5652
▁hypertrofe	-5653
▁uitrijpend	-5654
▁lymfocytair	-5655
▁vaatinvasie	-5656
▁spoelcellige	-5657
microscopische	-5658
▁idiopathische	-5659
▁transplantatie	-5660
▁Huidcurettement	-5661
5.	-5662
69	-5663
8/	-5664
TI	-5665
rw	-5666
16:	-5667
Def	-5668
▁5:	-5669
▁Ep	-5670
assp	-5671
iden	-5672
▁1,1	-5673
▁CIS	-5674
▁PPI	-5675
▁lar	-5676
▁ons	-5677
vaten	-5678
▁Aden	-5679
▁Zijn	-5680
▁arts	-5681
▁desm	-5682
▁high	-5683
▁mola	-5684
▁assay	-5685
▁lesie	-5686
▁regel	-5687
▁bewijs	-5688
▁cysten	-5689
▁ostium	-5690
aspiraat	-5691
▁tweetal	-5692
▁diepreik	-5693
▁plaatsen	-5694
▁erfelijke	-5695
▁microkalk	-5696
▁purulente	-5697
▁trofoblast	-5698
▁keratocyste	-5699
▁obturatorius	-5700
▁acantholytische	-5701
3:	-5702
IM	-5703
/11	-5704
cav	-5705
col	-5706
▁6.	-5707
HEID	-5708
Path	-5709
lear	-5710
next	-5711
oret	-5712
wann	-5713
▁Des	-5714
▁mot	-5715
iddel	-5716
ptuur	-5717
ratie	-5718
▁Goed	-5719
▁PTEN	-5720
inalis	-5721
inhoud	-5722
iteerd	-5723
trofie	-5724
ytisch	-5725
▁parat	-5726
leuring	-5727
ondanks	-5728
ormatie	-5729
▁cutaan	-5730
▁minusc	-5731
nextumor	-5732
omatosus	-5733
▁subtype	-5734
▁veneuze	-5735
▁eiwitten	-5736
▁polyposis	-5737
▁wekedelen	-5738
▁wisselend	-5739
iepreparaat	-5740
opathologie	-5741
transversum	-5742
ufficientie	-5743
▁betrekking	-5744
▁huidlaesie	-5745
▁collageneuze	-5746
▁excisiebiopt	-5747
%.	-5748
9/	-5749
DIG	-5750
LOK	-5751
Val	-5752
man	-5753
ser	-5754
ual	-5755
-21/	-5756
19-5	-5757
ubis	-5758
▁MAR	-5759
▁tek	-5760
-21:[	-5761
acute	-5762
irect	-5763
urele	-5764
▁pust	-5765
▁flard	-5766
-2022:[	-5767
maligne	-5768
vasatie	-5769
vertebr	-5770
▁Antrum	-5771
▁gynaec	-5772
▁mesent	-5773
invasief	-5774
overgang	-5775
verdacht	-5776
▁UITSLAG	-5777
▁fibreuze	-5778
▁geworden	-5779
▁perifere	-5780
preparaten	-5781
▁bowenoide	-5782
▁parenchym	-5783
▁Gefragment	-5784
▁VOORLOPIGE	-5785
lassificatie	-5786
▁telefonisch	-5787
▁positiviteit	-5788
▁micrografische	-5789
07	-5790
LL	-5791
yg	-5792
10)	-5793
GIO	-5794
ZIG	-5795
amp	-5796
vez	-5797
ALIS	-5798
ngio	-5799
ocla	-5800
volg	-5801
▁MAP	-5802
▁PMS	-5803
METER	-5804
basis	-5805
▁Anus	-5806
▁reum	-5807
advies	-5808
ilaris	-5809
proces	-5810
▁Acute	-5811
▁EORTC	-5812
▁minus	-5813
▁plasm	-5814
▁vrije	-5815
-2023:[	-5816
DIGHEID	-5817
ofarynx	-5818
pipelle	-5819
▁Vagina	-5820
▁afname	-5821
▁longen	-5822
esultaat	-5823
▁Verruca	-5824
▁adenoid	-5825
▁caudale	-5826
▁extensie	-5827
▁promotor	-5828
efrectomie	-5829
▁Reactieve	-5830
epithelioom	-5831
▁resultaten	-5832
▁ileumbiopten	-5833
▁lokalisaties	-5834
▁therapiekeuze	-5835
▁Zekerheidshalve	-5836
▁genherschikking	-5837
▁slijmvliesbiopt	-5838
4[	-5839
UV	-5840
lo	-5841
vl	-5842
vm	-5843
9:[	-5844
Ook	-5845
ber	-5846
rim	-5847
▁+3	-5848
▁1+	-5849
20-0	-5850
hese	-5851
hier	-5852
voet	-5853
▁Asp	-5854
▁hyd	-5855
Marsh	-5856
ervel	-5857
gland	-5858
szins	-5859
▁3+3=	-5860
▁amen	-5861
▁memb	-5862
▁tele	-5863
▁toez	-5864
elring	-5865
matige	-5866
▁clear	-5867
▁geldt	-5868
▁majus	-5869
conform	-5870
▁BIRADS	-5871
▁Huidre	-5872
istoffen	-5873
▁Hotspot	-5874
▁medisch	-5875
▁Ampliseq	-5876
▁bestaand	-5877
▁coronair	-5878
▁spontaan	-5879
6/*******/	-5880
▁epitheeld	-5881
▁uitgaande	-5882
▁zegelring	-5883
▁acuminatum	-5884
heidsreactie	-5885
▁achterhoofd	-5886
▁angiolipoom	-5887
▁flowcytomet	-5888
omiepreparaat	-5889
03	-5890
-11	-5891
ZIJ	-5892
ata	-5893
22-4	-5894
arch	-5895
caal	-5896
kans	-5897
▁1,4	-5898
▁fot	-5899
roper	-5900
▁milt	-5901
▁stud	-5902
rokken	-5903
▁Tepel	-5904
▁beter	-5905
▁grade	-5906
▁pubis	-5907
▁types	-5908
rijving	-5909
wannoom	-5910
eeranden	-5911
spoeling	-5912
▁bepalen	-5913
▁clonale	-5914
▁kristal	-5915
▁anterior	-5916
▁craniale	-5917
▁teratoom	-5918
topografie	-5919
▁hematurie	-5920
▁ventrikel	-5921
▁(*******):	-5922
▁beschadigd	-5923
▁cryptabces	-5924
▁prominente	-5925
▁toezending	-5926
oreticulaire	-5927
▁grootcellige	-5928
▁histiocytoom	-5929
▁infiltrerende	-5930
▁morfologische	-5931
9.	-5932
BE	-5933
po	-5934
19:	-5935
DNA	-5936
PCR	-5937
▁SN	-5938
20-3	-5939
ctin	-5940
▁CNV	-5941
▁Par	-5942
▁hal	-5943
▁zod	-5944
inger	-5945
iteri	-5946
recid	-5947
ritis	-5948
▁pars	-5949
▁valt	-5950
WIJZIG	-5951
ageren	-5952
▁Deels	-5953
▁biops	-5954
▁naevi	-5955
▁sluit	-5956
enteuze	-5957
gesteld	-5958
▁levert	-5959
▁lijken	-5960
▁tenzij	-5961
▁trauma	-5962
aliseerd	-5963
itoneale	-5964
▁externe	-5965
onderkwab	-5966
▁multipel	-5967
▁synovium	-5968
asslijmvlies	-5969
▁(*******):[	-5970
▁transmurale	-5971
▁zijsnijranden	-5972
▁lichaamsvreemd	-5973
▁zijsnijvlakken	-5974
14,	-5975
Ont	-5976
ege	-5977
lob	-5978
nem	-5979
▁<1	-5980
ella	-5981
▁LOK	-5982
▁TER	-5983
slaap	-5984
uwing	-5985
▁doet	-5986
▁glio	-5987
imeter	-5988
oplasm	-5989
aplasie	-5990
erfusie	-5991
gelegen	-5992
profiel	-5993
vlokken	-5994
▁lymfoA	-5995
ocytocla	-5996
▁gesteld	-5997
▁toxisch	-5998
▁Eventueel	-5999
▁maternale	-6000
▁onderkaak	-6001
▁posterior	-6002
▁infectieus	-6003
▁ondersteun	-6004
▁proficient	-6005
▁spermatozoa	-6006
▁Ileumbiopten	-6007
▁Mammapunctie	-6008
▁onregelmatig	-6009
▁huidadnextumor	-6010
▁retroauriculair	-6011
%)	-6012
97	-6013
AB	-6014
AH	-6015
JBE	-6016
TUR	-6017
sol	-6018
▁Ab	-6019
-19/	-6020
Next	-6021
alen	-6022
amne	-6023
ange	-6024
lamm	-6025
renz	-6026
ANGIO	-6027
adnex	-6028
grote	-6029
leerd	-6030
uraal	-6031
▁Buik	-6032
▁anti	-6033
▁isch	-6034
▁koil	-6035
▁uurs	-6036
▁CTNNB	-6037
▁gerev	-6038
▁inder	-6039
▁maken	-6040
Variant	-6041
mediaan	-6042
▁Hyster	-6043
▁dubbel	-6044
spontaan	-6045
▁duodeni	-6046
▁gekende	-6047
▁opnieuw	-6048
▁organis	-6049
▁reading	-6050
▁verkalk	-6051
▁Minimale	-6052
▁klassiek	-6053
▁reageren	-6054
▁genereren	-6055
▁oorspronk	-6056
▁aandoening	-6057
▁basaalmemb	-6058
▁middermaal	-6059
▁segmentale	-6060
▁Lumpectomie	-6061
▁macroscopie	-6062
▁reusceltumor	-6063
▁Duodenumbiopt	-6064
▁psoriasiforme	-6065
0,	-6066
61	-6067
Ge	-6068
db	-6069
.34	-6070
?):	-6071
Arg	-6072
▁SM	-6073
uter	-6074
▁(22	-6075
▁2-3	-6076
▁20%	-6077
▁Rec	-6078
▁fus	-6079
/2015	-6080
ielen	-6081
vaste	-6082
▁vers	-6083
decidu	-6084
▁NSAID	-6085
▁reeks	-6086
▁steun	-6087
▁Pleura	-6088
▁debris	-6089
▁dorsum	-6090
▁fibrot	-6091
▁fundus	-6092
▁hoewel	-6093
▁medebe	-6094
▁puntje	-6095
▁remmer	-6096
ergische	-6097
▁monotyp	-6098
▁ruptuur	-6099
▁stolsel	-6100
▁Volledig	-6101
▁alopecia	-6102
▁controle	-6103
▁maximaal	-6104
Oestrogeen	-6105
ZIJDIGHEID	-6106
▁tangentie	-6107
▁tumorrest	-6108
▁Chronische	-6109
▁Maagcorpus	-6110
▁haematurie	-6111
▁Lokalisatie	-6112
▁antistoffen	-6113
▁erythematosus	-6114
▁scleroserende	-6115
▁behandeladvies	-6116
▁epitheelcellen	-6117
▁megakaryocyten	-6118
Ontstekingsbeeld	-6119
06	-6120
Ex	-6121
NF	-6122
-12	-6123
7:[	-6124
lel	-6125
rsi	-6126
▁0[	-6127
▁He	-6128
▁La	-6129
Mohs	-6130
bouw	-6131
cyst	-6132
daad	-6133
scri	-6134
▁Vas	-6135
▁exc	-6136
▁lis	-6137
Mamma	-6138
ernen	-6139
otact	-6140
racht	-6141
wegen	-6142
▁fasc	-6143
▁pemf	-6144
▁rijp	-6145
rapste	-6146
▁nieuw	-6147
achtige	-6148
▁Hemith	-6149
▁alsook	-6150
▁daarom	-6151
▁direct	-6152
▁verwij	-6153
ificeerd	-6154
lammatie	-6155
▁candida	-6156
▁hormoon	-6157
▁verhoog	-6158
▁subtiele	-6159
▁waarvoor	-6160
vertebraal	-6161
▁Cytologie	-6162
▁betreffen	-6163
▁voorzijde	-6164
uperficieel	-6165
▁detecteert	-6166
▁informatie	-6167
▁irradicaal	-6168
▁gereviseerd	-6169
▁lumpectomie	-6170
▁sneevlakken	-6171
▁beschrijving	-6172
▁mesenchymale	-6173
gedifferentieerd	-6174
▁zijresectievlak	-6175
56	-6176
EB	-6177
bv	-6178
hl	-6179
my	-6180
rc	-6181
/12	-6182
VAF	-6183
deel	-6184
lark	-6185
lokt	-6186
lott	-6187
ylor	-6188
▁Lab	-6189
▁ivm	-6190
intra	-6191
ustom	-6192
▁spec	-6193
coecum	-6194
kedarm	-6195
▁ischa	-6196
▁opgev	-6197
▁silic	-6198
tumoren	-6199
▁advies	-6200
▁bacter	-6201
▁buizen	-6202
▁gedeel	-6203
▁liquor	-6204
Resectie	-6205
bronchus	-6206
keratose	-6207
oidcyste	-6208
oomcyste	-6209
▁klieren	-6210
▁palatum	-6211
▁spiroch	-6212
elichting	-6213
▁Litteken	-6214
▁mucocele	-6215
▁halscyste	-6216
▁immunofen	-6217
▁celrijkdom	-6218
▁diverticul	-6219
▁duodenitis	-6220
▁preparaten	-6221
▁Curettement	-6222
▁inflammatie	-6223
Tumordiameter	-6224
▁circumferent	-6225
▁eosinofielen	-6226
▁leverweefsel	-6227
▁mammaparenchym	-6228
1.[	-6229
:12	-6230
agi	-6231
aus	-6232
dep	-6233
idu	-6234
imb	-6235
-23/	-6236
15-2	-6237
16-5	-6238
22-0	-6239
LYMF	-6240
igen	-6241
odex	-6242
olle	-6243
plas	-6244
rach	-6245
vage	-6246
▁1):	-6247
▁ast	-6248
▁vez	-6249
lagig	-6250
olype	-6251
stens	-6252
uscum	-6253
▁2014	-6254
▁klep	-6255
bitaal	-6256
erings	-6257
gelegd	-6258
▁Kerat	-6259
▁datum	-6260
▁femur	-6261
▁hecht	-6262
▁waren	-6263
agiosum	-6264
▁wervel	-6265
cysteuze	-6266
olluscum	-6267
▁AANVULL	-6268
▁galgang	-6269
▁medicam	-6270
▁seborro	-6271
Tumortype	-6272
▁Maximale	-6273
uterisatie	-6274
▁enigszins	-6275
▁inderdaad	-6276
▁zuurvaste	-6277
achtergrond	-6278
▁botweefsel	-6279
▁ingesloten	-6280
▁veroorzaak	-6281
luorescentie	-6282
▁MOLECULAIRE	-6283
▁Uitgebreide	-6284
▁contagiosum	-6285
▁gerelateerd	-6286
▁mastopathie	-6287
▁clonaliteits	-6288
▁huidexcisies	-6289
▁amenorroeduur	-6290
">	-6291
</	-6292
gv	-6293
18:	-6294
DIA	-6295
Glu	-6296
TKI	-6297
Ver	-6298
bed	-6299
ime	-6300
pal	-6301
pan	-6302
ppe	-6303
tag	-6304
▁Sj	-6305
▁ju	-6306
-18/	-6307
19-0	-6308
GFRA	-6309
Maag	-6310
cred	-6311
pjes	-6312
▁30%	-6313
▁NEN	-6314
▁TPS	-6315
▁src	-6316
119.[	-6317
etica	-6318
junct	-6319
ulcer	-6320
verst	-6321
▁2013	-6322
▁FFPE	-6323
▁NTRK	-6324
▁Raad	-6325
▁TERT	-6326
▁date	-6327
▁fung	-6328
▁geac	-6329
▁herp	-6330
▁hybr	-6331
-15189	-6332
amnese	-6333
assing	-6334
▁Actin	-6335
▁Intra	-6336
▁Nader	-6337
▁nagel	-6338
▁pemph	-6339
▁cilind	-6340
▁serosa	-6341
▁studie	-6342
▁zouden	-6343
ALISATIE	-6344
celtumor	-6345
▁Blaassp	-6346
-15189:12	-6347
carcinoma	-6348
▁geaccred	-6349
▁sprietig	-6350
7/*******/	-6351
atienummer	-6352
▁blaashals	-6353
▁mucineuze	-6354
ibroserende	-6355
snijvlakken	-6356
▁Lymfeklier	-6357
▁darmlijden	-6358
▁erythrocyt	-6359
etiginisatie	-6360
▁huidbiopsie	-6361
▁lichenoides	-6362
▁ondersteunt	-6363
▁responskans	-6364
▁veroorzaakt	-6365
▁Accreditatie	-6366
▁onderkwadrant	-6367
▁geaccrediteerd	-6368
.</	-6369
IST	-6370
aru	-6371
ikk	-6372
oco	-6373
ror	-6374
▁32	-6375
▁70	-6376
▁:[	-6377
▁NA	-6378
▁Om	-6379
-13/	-6380
17-2	-6381
epen	-6382
haar	-6383
kank	-6384
unis	-6385
▁1,6	-6386
▁EIN	-6387
▁cur	-6388
-20:[	-6389
Angio	-6390
aruke	-6391
asale	-6392
ember	-6393
ocale	-6394
kintag	-6395
▁Spitz	-6396
▁error	-6397
verlies	-6398
recidief	-6399
▁maxilla	-6400
centratie	-6401
ethyleerd	-6402
ificeerde	-6403
▁complexe	-6404
▁lineaire	-6405
▁radicale	-6406
▁Wekedelen	-6407
▁getroffen	-6408
▁overgangs	-6409
▁waaronder	-6410
localisatie	-6411
oplastische	-6412
▁circulatie	-6413
▁opgevraagd	-6414
▁voorgelegd	-6415
fibroserende	-6416
ransplantaat	-6417
▁Excochleaat	-6418
▁junctionele	-6419
▁teleangiect	-6420
▁cylindrische	-6421
▁dysplastisch	-6422
▁mogelijkheden	-6423
slijmvliesbiopt	-6424
▁Lymfklierbiopt	-6425
▁insufficientie	-6426
44	-6427
LB	-6428
TP	-6429
.17	-6430
GMT	-6431
vet	-6432
▁IK	-6433
▁kl	-6434
18-0	-6435
KRAS	-6436
atio	-6437
eoom	-6438
knie	-6439
omst	-6440
▁4,5	-6441
▁Gra	-6442
▁MDM	-6443
▁por	-6444
iezen	-6445
▁Aard	-6446
▁Waar	-6447
▁cave	-6448
▁gein	-6449
▁pept	-6450
▁werk	-6451
kanker	-6452
▁behor	-6453
▁losse	-6454
▁potje	-6455
revisie	-6456
▁Aantal	-6457
▁fibrom	-6458
▁stukje	-6459
DIAMETER	-6460
duodenum	-6461
edieerde	-6462
omatoide	-6463
volledig	-6464
▁kaaklijn	-6465
▁kaakrand	-6466
verstoring	-6467
▁mesenteri	-6468
▁molluscum	-6469
▁verklaren	-6470
▁schwannoom	-6471
▁ulcererend	-6472
▁Resectievlak	-6473
▁pathologische	-6474
▁basaalmembraan	-6475
▁leiomyosarcoom	-6476
▁impetiginisatie	-6477
.,	-6478
9,	-6479
CB	-6480
MN	-6481
/10	-6482
3).	-6483
8:[	-6484
TRA	-6485
▁4.	-6486
▁As	-6487
▁Ov	-6488
20-2	-6489
21-0	-6490
23-0	-6491
="16	-6492
ease	-6493
▁RNA	-6494
▁TNM	-6495
▁kon	-6496
cobas	-6497
papil	-6498
▁(3):	-6499
▁pees	-6500
IJVLAK	-6501
nemend	-6502
oidale	-6503
stitiA	-6504
thorax	-6505
ventie	-6506
▁helft	-6507
▁irreg	-6508
▁monoc	-6509
▁zodat	-6510
-2016:[	-6511
oliepen	-6512
▁Basaal	-6513
▁Hoewel	-6514
▁krappe	-6515
inclusie	-6516
ocoecaal	-6517
▁Normaal	-6518
▁bepaald	-6519
▁beschik	-6520
▁gevalid	-6521
▁snijden	-6522
▁essentie	-6523
▁insturen	-6524
▁lymfaden	-6525
▁secretoir	-6526
microscopie	-6527
▁divertikel	-6528
▁veranderde	-6529
▁toelichting	-6530
▁Morfologisch	-6531
▁cauterisatie	-6532
▁intraductaal	-6533
▁endometriosis	-6534
▁recidiverende	-6535
▁vasoinvasieve	-6536
▁linkerbovenbeen	-6537
▁linkeronderbeen	-6538
51	-6539
74	-6540
DT	-6541
rr	-6542
2),	-6543
6):	-6544
Per	-6545
ail	-6546
hib	-6547
mel	-6548
ous	-6549
▁8,	-6550
▁Co	-6551
▁ON	-6552
▁SP	-6553
▁ST	-6554
16-2	-6555
ilus	-6556
odes	-6557
spro	-6558
tjes	-6559
▁BVO	-6560
▁ana	-6561
arina	-6562
level	-6563
oeder	-6564
stype	-6565
trent	-6566
▁2016	-6567
▁Comp	-6568
▁hyal	-6569
▁ingu	-6570
▁intr	-6571
▁kiem	-6572
▁term	-6573
assend	-6574
ilater	-6575
▁Beide	-6576
▁gelok	-6577
▁group	-6578
▁ingeb	-6579
▁molle	-6580
▁terug	-6581
▁vocht	-6582
-2021:[	-6583
Punctie	-6584
aortaal	-6585
iformis	-6586
oscopie	-6587
▁PDGFRA	-6588
▁Randen	-6589
▁aangeb	-6590
▁hybrid	-6591
▁tricho	-6592
ematisch	-6593
epatitis	-6594
laterale	-6595
zakelijk	-6596
▁gebiopt	-6597
▁niveaus	-6598
▁persist	-6599
▁traject	-6600
oppervlak	-6601
▁epitheli	-6602
▁gastrale	-6603
▁retroper	-6604
bespreking	-6605
illectomie	-6606
▁collagene	-6607
▁poliepjes	-6608
LOKALISATIE	-6609
▁Desondanks	-6610
▁generation	-6611
▁lipomateuze	-6612
▁presternaal	-6613
▁regeneratie	-6614
▁Oppervlakkig	-6615
▁celpopulatie	-6616
▁extravasatie	-6617
▁rechtermamma	-6618
ocytoclastische	-6619
▁submandibularis	-6620
ZH	-6621
9):	-6622
Gra	-6623
IHC	-6624
cus	-6625
des	-6626
▁34	-6627
▁60	-6628
▁ME	-6629
▁Th	-6630
16-3	-6631
22-2	-6632
VIII	-6633
atop	-6634
gast	-6635
hang	-6636
orme	-6637
▁(1/	-6638
maals	-6639
sduur	-6640
teerd	-6641
usual	-6642
vende	-6643
▁Tons	-6644
▁ling	-6645
aanden	-6646
asting	-6647
ilaire	-6648
ronden	-6649
script	-6650
▁relev	-6651
Conform	-6652
▁Bronch	-6653
▁compon	-6654
▁niveau	-6655
▁oorlel	-6656
▁planop	-6657
▁versch	-6658
▁vroege	-6659
delingse	-6660
voorstel	-6661
▁criteri	-6662
▁globaal	-6663
▁interna	-6664
▁tubulus	-6665
▁voetrug	-6666
arcinomen	-6667
handeling	-6668
▁communis	-6669
▁gecombin	-6670
▁pancreat	-6671
▁reductie	-6672
metaplasie	-6673
oidectomie	-6674
sectierand	-6675
▁Voldoende	-6676
▁betrokken	-6677
▁meerlagig	-6678
▁mondbodem	-6679
▁overigens	-6680
▁goedaardig	-6681
▁progressie	-6682
▁cilindercel	-6683
▁colorectaal	-6684
▁planopilaris	-6685
▁hypertrofisch	-6686
▁huidstansbiopt	-6687
▁Gefragmenteerde	-6688
▁ileumslijmvlies	-6689
▁weefselfragment	-6690
ML	-6691
SN	-6692
117	-6693
AHA	-6694
ala	-6695
oeg	-6696
rix	-6697
▁1%	-6698
aget	-6699
lega	-6700
omyc	-6701
pool	-6702
▁(14	-6703
▁Pan	-6704
▁fra	-6705
▁gez	-6706
▁hom	-6707
▁hun	-6708
issie	-6709
ulose	-6710
wezen	-6711
▁pann	-6712
knepen	-6713
okerat	-6714
▁GROEI	-6715
▁gemod	-6716
▁herbe	-6717
INGROEI	-6718
mediale	-6719
▁collega	-6720
▁maanden	-6721
eenlijden	-6722
wijdering	-6723
▁*******;	-6724
▁behouden	-6725
▁biopsies	-6726
▁geschikt	-6727
▁gestelde	-6728
▁helemaal	-6729
cisiebiopt	-6730
laaggradig	-6731
otactische	-6732
▁different	-6733
▁peptische	-6734
▁sequentie	-6735
▁verknepen	-6736
▁zijranden	-6737
▁Tepelvocht	-6738
▁meningeoom	-6739
ANGIOINVASIE	-6740
histiocytaire	-6741
▁hybridisatie	-6742
▁panniculitis	-6743
▁hemorragische	-6744
▁plaatepitheel	-6745
▁Waarschijnlijk	-6746
▁hemicolectomie	-6747
▁prolifererende	-6748
▁Bronchusbiopten	-6749
▁blaasslijmvlies	-6750
+,	-6751
8.	-6752
TA	-6753
TM	-6754
bi	-6755
ux	-6756
17:	-6757
Cyt	-6758
MBR	-6759
UWE	-6760
irc	-6761
▁1[	-6762
ails	-6763
rise	-6764
wikk	-6765
▁BAL	-6766
▁Sle	-6767
▁neo	-6768
▁oed	-6769
▁̄rr	-6770
extra	-6771
ilemm	-6772
▁coli	-6773
▁neur	-6774
▁noch	-6775
evocht	-6776
icrise	-6777
schede	-6778
▁Bodem	-6779
▁compo	-6780
▁voorh	-6781
erieure	-6782
▁Celarm	-6783
▁defect	-6784
▁lavage	-6785
▁marker	-6786
▁mitose	-6787
eratieve	-6788
poliepen	-6789
▁hoogste	-6790
▁mycosis	-6791
▁stellen	-6792
▁trombus	-6793
adierings	-6794
▁Hierover	-6795
▁aspiraat	-6796
▁darmtype	-6797
▁hechting	-6798
▁kaakhoek	-6799
▁keratine	-6800
vasculaire	-6801
▁acanthoom	-6802
▁dubbelbre	-6803
▁fungoides	-6804
▁groeiende	-6805
▁maturatie	-6806
▁Wigexcisie	-6807
▁aangeboden	-6808
▁multiforme	-6809
▁dermatoloog	-6810
▁eczemateuze	-6811
▁linkermamma	-6812
▁aangeleverde	-6813
▁diverticulose	-6814
ctomiepreparaat	-6815
▁flowcytometrie	-6816
▁maagantrumtype	-6817
▁paravertebraal	-6818
kedarmslijmvlies	-6819
▁schildklierkwab	-6820
85	-6821
.):	-6822
18,	-6823
TTF	-6824
VCM	-6825
cri	-6826
ibr	-6827
oos	-6828
rib	-6829
▁Le	-6830
13-3	-6831
14-3	-6832
18-2	-6833
2-10	-6834
Type	-6835
morf	-6836
reen	-6837
▁(2)	-6838
▁2.[	-6839
▁Bep	-6840
▁MYD	-6841
▁fen	-6842
▁the	-6843
▁zes	-6844
iging	-6845
▁uitg	-6846
coupes	-6847
hoewel	-6848
monale	-6849
▁Assay	-6850
▁derde	-6851
▁intim	-6852
-2020:[	-6853
apeling	-6854
fibroom	-6855
ienalis	-6856
▁Nieuwe	-6857
▁curvat	-6858
▁grader	-6859
▁incomp	-6860
▁slijmv	-6861
▁staven	-6862
oradisch	-6863
▁Celrijk	-6864
▁apicaal	-6865
▁decidua	-6866
▁ontwikk	-6867
▁bovenste	-6868
▁compound	-6869
▁genoemde	-6870
▁herkomst	-6871
▁omgeving	-6872
▁subacute	-6873
▁verwijde	-6874
▁klierbuis	-6875
▁regelmatig	-6876
▁thoraxwand	-6877
▁̄rriteerde	-6878
▁epitheliaal	-6879
▁linkerzijde	-6880
▁mediastinale	-6881
▁Bronchusbrush	-6882
▁haarfollikels	-6883
▁immuunprofiel	-6884
▁submandibulair	-6885
-,	-6886
5:	-6887
li	-6888
21:	-6889
Cys	-6890
JTH	-6891
KIN	-6892
bul	-6893
ift	-6894
iss	-6895
ome	-6896
ung	-6897
13-2	-6898
19-3	-6899
BRAF	-6900
olen	-6901
▁(3+	-6902
▁Ion	-6903
▁LOH	-6904
Beeld	-6905
IMALE	-6906
ragma	-6907
snede	-6908
vraag	-6909
▁HRAS	-6910
▁Twee	-6911
▁clin	-6912
▁isth	-6913
Poliep	-6914
ingiva	-6915
ioneel	-6916
onucle	-6917
▁12/13	-6918
▁Synov	-6919
▁comed	-6920
▁lange	-6921
▁thyre	-6922
eerbaar	-6923
▁adenoc	-6924
▁gehoor	-6925
▁methyl	-6926
▁viraal	-6927
▁voorts	-6928
cidentie	-6929
▁disease	-6930
Resultaat	-6931
▁bevatten	-6932
▁flardjes	-6933
▁hematoom	-6934
▁immature	-6935
▁nogmaals	-6936
▁anterieur	-6937
▁immuuncyt	-6938
▁represent	-6939
▁uitsluiten	-6940
▁beschikbaar	-6941
▁pancreaskop	-6942
▁Huidexcisies	-6943
▁bijvoorbeeld	-6944
▁cellulariteit	-6945
▁chemotherapie	-6946
▁restmateriaal	-6947
▁vreemdlichaam	-6948
83	-6949
87	-6950
IC	-6951
UP	-6952
gn	-6953
ko	-6954
-2-	-6955
CLC	-6956
pse	-6957
18-3	-6958
GEEN	-6959
ISCH	-6960
irat	-6961
moid	-6962
norm	-6963
odus	-6964
uble	-6965
ulat	-6966
▁2,2	-6967
▁Dem	-6968
▁Ser	-6969
braak	-6970
ekent	-6971
embol	-6972
hrale	-6973
ipeus	-6974
latie	-6975
▁acht	-6976
▁stri	-6977
Aantal	-6978
blokje	-6979
ervorm	-6980
midden	-6981
random	-6982
▁Samen	-6983
▁tekst	-6984
Vanwege	-6985
distaal	-6986
▁Cancer	-6987
▁inhoud	-6988
▁tanden	-6989
▁Demodex	-6990
usculaire	-6991
▁gevolgen	-6992
▁lienalis	-6993
▁villitis	-6994
▁blijvende	-6995
▁curvatuur	-6996
▁regionale	-6997
▁siliconen	-6998
▁Aanvulling	-6999
▁gehoorgang	-7000
▁trichilemm	-7001
▁voorlopige	-7002
▁cristabiopt	-7003
▁hypertensie	-7004
▁Verwijdering	-7005
▁diepreikende	-7006
▁rechterzijde	-7007
differentiatie	-7008
▁onregelmatige	-7009
04	-7010
ao	-7011
za	-7012
ICC	-7013
TOR	-7014
]31	-7015
ekk	-7016
▁0/	-7017
15-3	-7018
alan	-7019
fund	-7020
ouwd	-7021
rium	-7022
roep	-7023
▁1.[	-7024
arige	-7025
eleid	-7026
idend	-7027
naire	-7028
weest	-7029
▁1).[	-7030
▁pTaG	-7031
▁part	-7032
▁reep	-7033
▁risk	-7034
1-11-1	-7035
ochond	-7036
▁dagen	-7037
▁order	-7038
astasen	-7039
grootte	-7040
▁Diepte	-7041
▁Naruke	-7042
▁perine	-7043
▁vinger	-7044
maximale	-7045
mucosale	-7046
▁(0/1).[	-7047
▁gericht	-7048
▁huidige	-7049
▁isthmus	-7050
▁tubaire	-7051
cobacteri	-7052
inclusief	-7053
voorlopig	-7054
▁aangrenz	-7055
▁dezelfde	-7056
▁excisies	-7057
▁hidraden	-7058
▁nefritis	-7059
alperfusie	-7060
ocellulaire	-7061
ovenstaande	-7062
▁adenomyose	-7063
▁darmkanker	-7064
▁elektronen	-7065
▁gastrische	-7066
▁onverdacht	-7067
▁poliepeuze	-7068
▁voorhanden	-7069
Naaldbiopten	-7070
yroidectomie	-7071
▁componenten	-7072
▁necrotische	-7073
▁verwijdering	-7074
unohistochemie	-7075
▁ductectasieen	-7076
▁ectocervicaal	-7077
▁leverparenchym	-7078
HL	-7079
RG	-7080
ni	-7081
yc	-7082
-1.	-7083
OEK	-7084
ROS	-7085
alu	-7086
gek	-7087
omm	-7088
ora	-7089
pje	-7090
pur	-7091
▁-)	-7092
▁HE	-7093
▁dw	-7094
▁sk	-7095
CAAL	-7096
heen	-7097
ossa	-7098
▁Dep	-7099
▁Ten	-7100
▁wil	-7101
Level	-7102
clone	-7103
haard	-7104
helix	-7105
reerd	-7106
udaal	-7107
vagin	-7108
▁Atyp	-7109
▁Neus	-7110
▁diaf	-7111
▁inkt	-7112
▁verl	-7113
-2019:	-7114
-2021:	-7115
entrif	-7116
plasia	-7117
▁MARGE	-7118
▁eerst	-7119
▁nevus	-7120
▁plooi	-7121
apulair	-7122
omycose	-7123
rolifer	-7124
▁Advies	-7125
▁Laesie	-7126
Voorstel	-7127
orbitaal	-7128
▁gangren	-7129
▁geulcer	-7130
▁geweest	-7131
▁vliezen	-7132
▁*******-	-7133
▁GEWIJZIG	-7134
▁polypeus	-7135
▁Klinische	-7136
▁preputium	-7137
▁tandenrij	-7138
▁variaties	-7139
▁Colonbiopt	-7140
▁borderline	-7141
iesmateriaal	-7142
▁lymfoplasma	-7143
▁malperfusie	-7144
▁melanocyten	-7145
▁tangentieel	-7146
▁tumorlengte	-7147
▁chirurgische	-7148
▁intraductale	-7149
▁naaldbiopsie	-7150
Differentiatie	-7151
▁Blaasspoeling	-7152
▁gemodificeerde	-7153
0[	-7154
5)	-7155
54	-7156
NO	-7157
RC	-7158
2.[	-7159
Asp	-7160
Zij	-7161
aas	-7162
ipp	-7163
uld	-7164
▁Ki	-7165
-22/	-7166
14-2	-7167
15-4	-7168
ZOEK	-7169
abet	-7170
cran	-7171
hank	-7172
iken	-7173
klep	-7174
oris	-7175
zool	-7176
▁Bes	-7177
▁CLL	-7178
▁RIP	-7179
▁vru	-7180
▁zin	-7181
.1799	-7182
briek	-7183
▁Link	-7184
▁Torr	-7185
▁duim	-7186
erking	-7187
haarde	-7188
idalis	-7189
▁Clark	-7190
▁ONDER	-7191
▁digit	-7192
▁steel	-7193
arsgest	-7194
handrug	-7195
verneus	-7196
ytrocyt	-7197
▁Archer	-7198
▁Hierin	-7199
▁aanbev	-7200
▁alhier	-7201
▁antrac	-7202
▁diabet	-7203
▁verval	-7204
▁vrucht	-7205
dictieve	-7206
gevonden	-7207
sproduct	-7208
xanthoom	-7209
▁Torrent	-7210
▁chorion	-7211
▁endomet	-7212
▁geprikk	-7213
▁membran	-7214
▁mesangi	-7215
▁rijping	-7216
▁Spontaan	-7217
5/*******/	-7218
bijmenging	-7219
chronische	-7220
cochleatie	-7221
etreffende	-7222
ronodulair	-7223
▁basaloide	-7224
▁collageen	-7225
▁huidshave	-7226
▁inzending	-7227
▁serositis	-7228
Definitieve	-7229
Sneevlakken	-7230
▁bloedvaten	-7231
▁conclusief	-7232
▁immunoloog	-7233
▁imponerend	-7234
▁kristallen	-7235
▁maagmucosa	-7236
▁shavebiopt	-7237
▁urineblaas	-7238
▁infiltraten	-7239
▁longweefsel	-7240
▁lymfatische	-7241
▁submucosaal	-7242
▁voorkomende	-7243
▁Breslowdikte	-7244
▁anaplastisch	-7245
▁glioblastoom	-7246
▁huidresectie	-7247
▁dubbelbrekend	-7248
▁macroscopisch	-7249
▁trichilemmale	-7250
▁hepatocellulair	-7251
64	-7252
EM	-7253
NOS	-7254
ana	-7255
mal	-7256
uul	-7257
▁MP	-7258
22:[	-7259
Door	-7260
orum	-7261
reek	-7262
time	-7263
▁1,7	-7264
▁DIA	-7265
▁HPF	-7266
▁JAK	-7267
▁Lip	-7268
▁Low	-7269
Marge	-7270
hibit	-7271
steek	-7272
▁Aang	-7273
▁cort	-7274
▁doen	-7275
▁endo	-7276
▁pyel	-7277
▁soms	-7278
eikend	-7279
totaal	-7280
yperen	-7281
▁Paget	-7282
▁myoom	-7283
▁semen	-7284
▁usual	-7285
-2018:[	-7286
dermale	-7287
neusrug	-7288
ropoese	-7289
▁Weinig	-7290
▁geloos	-7291
▁lesion	-7292
▁oproep	-7293
▁stenen	-7294
▁toonde	-7295
ofibrose	-7296
ventieve	-7297
wijzigde	-7298
▁Bericht	-7299
▁eenduid	-7300
▁keratin	-7301
▁vaatjes	-7302
▁voorste	-7303
Pathogene	-7304
otypering	-7305
▁centrale	-7306
▁galwegen	-7307
▁gesneden	-7308
▁groepjes	-7309
▁spoelcel	-7310
▁vesicula	-7311
carcinomen	-7312
▁ONDERZOEK	-7313
▁afgenomen	-7314
▁behorende	-7315
▁bevinding	-7316
▁linkeroor	-7317
▁resttumor	-7318
▁slijmvorm	-7319
behandeling	-7320
olypectomie	-7321
▁amyloidose	-7322
▁artefacten	-7323
▁bijmenging	-7324
▁fibromatose	-7325
▁mechanische	-7326
▁pseudodecidu	-7327
▁resectierand	-7328
▁Endocervicale	-7329
▁fibroxanthoom	-7330
▁linkeronderarm	-7331
,6	-7332
57	-7333
93	-7334
4).	-7335
VEN	-7336
cir	-7337
cur	-7338
ras	-7339
▁+/	-7340
▁ZN	-7341
▁il	-7342
17-5	-7343
18-5	-7344
23-3	-7345
cand	-7346
diep	-7347
dors	-7348
pTNM	-7349
riae	-7350
verm	-7351
▁%).	-7352
▁(15	-7353
▁ANA	-7354
▁afd	-7355
-23:[	-7356
/2014	-7357
Micro	-7358
astas	-7359
front	-7360
immun	-7361
ouble	-7362
romet	-7363
▁SISH	-7364
▁aard	-7365
▁afge	-7366
▁heel	-7367
▁kwab	-7368
▁nauw	-7369
▁plat	-7370
▁zaad	-7371
follic	-7372
iddels	-7373
lation	-7374
stenen	-7375
▁Cyste	-7376
▁Delen	-7377
▁cardi	-7378
▁clust	-7379
▁heter	-7380
▁organ	-7381
▁pylor	-7382
▁zwart	-7383
Afstand	-7384
geassoc	-7385
reikend	-7386
▁belang	-7387
▁foetus	-7388
▁reiken	-7389
▁stasis	-7390
behaarde	-7391
▁arterie	-7392
▁cerebri	-7393
▁daarmee	-7394
▁rubriek	-7395
architect	-7396
ativiteit	-7397
ilaterale	-7398
procedure	-7399
▁Reactief	-7400
▁Subcutis	-7401
▁chronica	-7402
▁conjunct	-7403
▁geloosde	-7404
▁reikende	-7405
▁dwarsgest	-7406
▁solitaire	-7407
▁werkgroep	-7408
Lokalisatie	-7409
Pleuravocht	-7410
endometrium	-7411
▁pemphigoid	-7412
▁wigexcisie	-7413
▁Stadierings	-7414
▁overtuigend	-7415
▁vastgesteld	-7416
interstitiele	-7417
▁blaarvorming	-7418
▁glomerulaire	-7419
▁verkalkingen	-7420
▁Transuretrale	-7421
▁atheroomcyste	-7422
▁betrokkenheid	-7423
-03-13/*******/	-7424
▁Sigmoidresectie	-7425
89	-7426
NS	-7427
PM	-7428
SA	-7429
-67	-7430
1),	-7431
UVD	-7432
Vol	-7433
nek	-7434
nos	-7435
ode	-7436
▁Ar	-7437
▁Br	-7438
20:[	-7439
clus	-7440
looi	-7441
mark	-7442
ruma	-7443
weet	-7444
wend	-7445
▁(11	-7446
▁(2,	-7447
▁2,3	-7448
▁3),	-7449
▁3.[	-7450
▁80%	-7451
▁ATM	-7452
▁Wat	-7453
annen	-7454
auter	-7455
elden	-7456
ermed	-7457
komen	-7458
ogren	-7459
tieel	-7460
ylori	-7461
▁2015	-7462
▁High	-7463
▁MGMT	-7464
▁Uret	-7465
▁gesp	-7466
▁thym	-7467
▁toep	-7468
DERING	-7469
Gezien	-7470
etisch	-7471
tussen	-7472
udeerd	-7473
▁juist	-7474
▁media	-7475
▁pilon	-7476
▁scrot	-7477
-2017:[	-7478
-2019:[	-7479
ructuur	-7480
volgens	-7481
▁Nadere	-7482
▁bewijz	-7483
▁septum	-7484
▁waarde	-7485
stitieel	-7486
typering	-7487
▁(100%),	-7488
▁crypten	-7489
▁stenose	-7490
GRADERING	-7491
▁betekent	-7492
▁respirat	-7493
▁verwacht	-7494
ohepatitis	-7495
▁basalioom	-7496
▁cryptitis	-7497
glandulaire	-7498
▁bacteriele	-7499
▁liposarcoom	-7500
▁prostatitis	-7501
▁sclerotisch	-7502
▁uitbreidend	-7503
▁Blaasbiopten	-7504
▁endometriale	-7505
▁gemethyleerd	-7506
▁systematisch	-7507
▁Interpretatie	-7508
▁duodenumbiopt	-7509
▁ondersteuning	-7510
▁persisterende	-7511
▁Adenocarcinoom	-7512
▁metaplastische	-7513
IX	-7514
LY	-7515
ju	-7516
11,	-7517
Ind	-7518
]3.	-7519
kas	-7520
ord	-7521
pol	-7522
▁6:	-7523
▁qu	-7524
CROM	-7525
Hoog	-7526
greg	-7527
ijns	-7528
loed	-7529
▁(23	-7530
▁1,0	-7531
▁90%	-7532
▁ano	-7533
auhin	-7534
delen	-7535
kleur	-7536
ofyse	-7537
orood	-7538
▁GNAQ	-7539
▁Orch	-7540
▁bijt	-7541
▁veld	-7542
▁with	-7543
1-12-1	-7544
CROMET	-7545
groeid	-7546
ijkant	-7547
stisch	-7548
▁Melan	-7549
▁Spoel	-7550
▁Stere	-7551
▁abdom	-7552
▁apopt	-7553
▁monok	-7554
▁plaqu	-7555
▁semin	-7556
1-12-20	-7557
opoiese	-7558
quameus	-7559
stabiel	-7560
▁Totale	-7561
ierbiopt	-7562
nodulair	-7563
▁Broncho	-7564
▁Krapste	-7565
▁Ovarium	-7566
▁Sjogren	-7567
▁avitaal	-7568
▁pilomat	-7569
▁sereuze	-7570
▁Receptor	-7571
▁Tubulair	-7572
▁astrocyt	-7573
▁optimaal	-7574
▁pericard	-7575
▁voetzool	-7576
▁voorwand	-7577
alveolaire	-7578
▁Dunnedarm	-7579
▁cytonucle	-7580
▁diafragma	-7581
▁dissectie	-7582
▁hierboven	-7583
▁inguinaal	-7584
▁referentie	-7585
▁spoelvocht	-7586
▁toepassing	-7587
Tumorgrootte	-7588
▁cilindrisch	-7589
▁koilocytose	-7590
▁pilonidalis	-7591
CROMETASTASEN	-7592
▁seborroische	-7593
▁vergelijking	-7594
▁cryptabcessen	-7595
▁gedegenereerd	-7596
▁Hemicolectomie	-7597
▁architecturele	-7598
icopathologische	-7599
▁fibromusculaire	-7600
000	-7601
cha	-7602
chr	-7603
its	-7604
jun	-7605
sec	-7606
▁2[	-7607
▁7.	-7608
▁80	-7609
▁8:	-7610
▁MI	-7611
▁cq	-7612
▁og	-7613
▁ul	-7614
erig	-7615
onge	-7616
palm	-7617
ster	-7618
▁LDT	-7619
▁kel	-7620
▁low	-7621
▁rib	-7622
andom	-7623
ethyl	-7624
inose	-7625
ustyp	-7626
▁IUVD	-7627
▁Mede	-7628
▁Onge	-7629
▁Verm	-7630
▁stuk	-7631
▁zoek	-7632
Gaarne	-7633
Indien	-7634
atoide	-7635
bronch	-7636
ctitis	-7637
elijks	-7638
iatype	-7639
lonaal	-7640
nivers	-7641
omelan	-7642
tritis	-7643
▁dilat	-7644
▁enter	-7645
▁pleit	-7646
▁serie	-7647
-06-15/	-7648
agenoeg	-7649
aginale	-7650
angitis	-7651
cendens	-7652
entiele	-7653
imbriae	-7654
toename	-7655
usculus	-7656
veolair	-7657
verwege	-7658
▁(100%)	-7659
▁Tweede	-7660
▁ingest	-7661
▁thromb	-7662
bijholte	-7663
▁fibroma	-7664
▁gronden	-7665
▁haardje	-7666
▁neiging	-7667
▁pylorus	-7668
▁stuwing	-7669
▁uitgaat	-7670
](*******	-7671
▁Fragment	-7672
▁criteria	-7673
▁endocard	-7674
▁epicrise	-7675
▁gecauter	-7676
▁gegroeid	-7677
▁platform	-7678
aanvulling	-7679
cellulaire	-7680
operatieve	-7681
▁Aspiratie	-7682
▁aanvragen	-7683
▁bewijzend	-7684
▁pemfigoid	-7685
▁samenhang	-7686
▁AANVULLEND	-7687
▁halverwege	-7688
▁mitotische	-7689
▁myomatosus	-7690
▁ulcusbodem	-7691
▁vacuolaire	-7692
▁spirocheten	-7693
▁calcificatie	-7694
▁gevalideerde	-7695
▁huidfragment	-7696
▁monotypische	-7697
▁myelofibrose	-7698
▁lymfomenpanel	-7699
▁Huidshavebiopt	-7700
▁bloedbijmenging	-7701
▁bloedingsresten	-7702
TG	-7703
7):	-7704
End	-7705
NST	-7706
STR	-7707
Ser	-7708
]3:	-7709
ain	-7710
ves	-7711
zet	-7712
▁5.	-7713
▁CK	-7714
▁OP	-7715
▁ie	-7716
OTCH	-7717
TALE	-7718
_004	-7719
akle	-7720
amin	-7721
antw	-7722
erma	-7723
erst	-7724
glas	-7725
idym	-7726
sent	-7727
▁STK	-7728
▁erg	-7729
▁gef	-7730
/2013	-7731
Casus	-7732
defin	-7733
ollow	-7734
ortio	-7735
potje	-7736
▁VIII	-7737
▁cent	-7738
▁gren	-7739
▁hele	-7740
▁ligg	-7741
▁nood	-7742
▁real	-7743
▁rode	-7744
▁teen	-7745
▁vena	-7746
Voorts	-7747
jarige	-7748
morbus	-7749
pseudo	-7750
shalve	-7751
▁aange	-7752
▁blauw	-7753
▁galst	-7754
▁stemp	-7755
▁therm	-7756
legging	-7757
ofibros	-7758
umnaire	-7759
▁aggreg	-7760
▁biopsy	-7761
▁vooraf	-7762
afibrose	-7763
▁bloeder	-7764
▁celarme	-7765
▁evenmin	-7766
▁haarden	-7767
▁herkend	-7768
▁markers	-7769
▁typeren	-7770
papilloom	-7771
▁Sentinel	-7772
▁bevonden	-7773
▁talrijke	-7774
▁vergrote	-7775
descendens	-7776
▁Papklasse	-7777
▁bekleding	-7778
▁correlaat	-7779
▁opgegeven	-7780
▁proctitis	-7781
▁stemplooi	-7782
▁zoekvraag	-7783
▁incidentie	-7784
architectuur	-7785
▁urticariele	-7786
▁hematopoiese	-7787
▁kleincellige	-7788
▁leversegment	-7789
▁dermatomycose	-7790
-02-13/*******/	-7791
-04-13/*******/	-7792
-11-13/*******/	-7793
▁Uterusresectie	-7794
▁linkerbovenarm	-7795
▁verslaglegging	-7796
▁Adnexextirpatie	-7797
▁neuroendocriene	-7798
▁zekerheidshalve	-7799
.)	-7800
8:	-7801
MC	-7802
ZE	-7803
aN	-7804
ln	-7805
zw	-7806
Bes	-7807
Leu	-7808
UIT	-7809
erc	-7810
erp	-7811
nte	-7812
onp	-7813
oop	-7814
uhr	-7815
▁5)	-7816
,14,	-7817
14-4	-7818
17-4	-7819
23:[	-7820
LYSE	-7821
Lymf	-7822
path	-7823
▁(95	-7824
▁Als	-7825
▁BAP	-7826
▁tib	-7827
Extra	-7828
antel	-7829
erkel	-7830
ifeer	-7831
iitis	-7832
reept	-7833
▁TKIs	-7834
▁calc	-7835
▁impl	-7836
▁mest	-7837
-2020:	-7838
beginn	-7839
emfyse	-7840
exacte	-7841
omyces	-7842
totale	-7843
vezels	-7844
▁Immun	-7845
▁Klein	-7846
▁Klier	-7847
▁NOTCH	-7848
▁bulla	-7849
▁nodig	-7850
-2015:[	-7851
angulus	-7852
passend	-7853
rimaire	-7854
▁(0/1).	-7855
▁Kleine	-7856
▁NIEUWE	-7857
▁extrac	-7858
▁larynx	-7859
▁mantel	-7860
▁uitgeb	-7861
▁vlakke	-7862
orectale	-7863
snijding	-7864
usculair	-7865
voorkeur	-7866
▁ANALYSE	-7867
▁Vanwege	-7868
▁colloid	-7869
▁gingiva	-7870
▁myxoide	-7871
▁reepjes	-7872
▁scrotum	-7873
▁transit	-7874
hankelijk	-7875
ingsgroep	-7876
positieve	-7877
roeiwijze	-7878
▁artritis	-7879
▁graderen	-7880
▁naevoide	-7881
▁bekledend	-7882
▁condyloom	-7883
▁klassieke	-7884
▁knieholte	-7885
▁papilloma	-7886
▁serologie	-7887
▁squamocol	-7888
Onvoldoende	-7889
niversitair	-7890
▁aantasting	-7891
▁ectocervix	-7892
▁peesschede	-7893
Helicobacter	-7894
▁allergische	-7895
▁geulcereerd	-7896
▁hypertrofie	-7897
▁mesenterium	-7898
▁systemische	-7899
▁uitrijpende	-7900
▁Naaldbiopsie	-7901
▁intradermaal	-7902
Hodgkinlymfoom	-7903
▁erytrocyturie	-7904
▁organiserende	-7905
▁subepidermale	-7906
-01-14/*******/	-7907
-10-13/*******/	-7908
LYMFANGIOINVASIE	-7909
▁slokdarmbiopten	-7910
▁steatohepatitis	-7911
39	-7912
Cp	-7913
HP	-7914
SC	-7915
Sp	-7916
pv	-7917
vt	-7918
.18	-7919
Loc	-7920
Lys	-7921
cin	-7922
▁):	-7923
▁4-	-7924
▁45	-7925
▁AN	-7926
▁je	-7927
19-2	-7928
RADI	-7929
oriz	-7930
ursa	-7931
▁2),	-7932
▁5,5	-7933
▁Zij	-7934
▁mut	-7935
/2016	-7936
breuk	-7937
ctuur	-7938
derma	-7939
idden	-7940
ollet	-7941
scalp	-7942
▁Mort	-7943
▁gere	-7944
▁trim	-7945
enteus	-7946
idymis	-7947
italis	-7948
ouglas	-7949
versch	-7950
▁Vater	-7951
▁eccri	-7952
▁graft	-7953
▁ieder	-7954
▁ilium	-7955
▁ingev	-7956
▁maart	-7957
▁virus	-7958
illeuze	-7959
mediaal	-7960
ogenaam	-7961
omatoid	-7962
orizont	-7963
ovarium	-7964
▁galweg	-7965
▁groeit	-7966
igniteit	-7967
neuspunt	-7968
ylorisch	-7969
▁aanvrag	-7970
▁gedeelt	-7971
▁geleide	-7972
▁inhibit	-7973
▁paratub	-7974
▁scannen	-7975
▁skintag	-7976
osquameus	-7977
rikkeling	-7978
▁Compleet	-7979
▁bacteriA	-7980
▁intracav	-7981
▁Longbiopt	-7982
▁bewerking	-7983
▁bovenkaak	-7984
▁cervicaal	-7985
▁colontype	-7986
▁doorsnede	-7987
▁trimester	-7988
▁Voorlopige	-7989
▁definitief	-7990
▁maxillaris	-7991
▁sporadisch	-7992
▁tumorvrije	-7993
amplificeerd	-7994
roliferatief	-7995
▁Cytologisch	-7996
▁aangetoonde	-7997
▁acantholyse	-7998
▁haemangioom	-7999
▁multifocale	-8000
▁zijdelingse	-8001
▁Superficieel	-8002
▁klierweefsel	-8003
▁radiologisch	-8004
▁slijmvormend	-8005
▁Orchidectomie	-8006
▁Pleurabiopten	-8007
▁antrumbiopten	-8008
▁prolifererend	-8009
-02-14/*******/	-8010
▁prostatectomie	-8011
ustypeslijmvlies	-8012
▁Stereotactische	-8013
▁buitenoppervlak	-8014
6[	-8015
FF	-8016
OC	-8017
▁*	-8018
.5:	-8019
15:	-8020
CEP	-8021
ENT	-8022
emm	-8023
fig	-8024
hen	-8025
uim	-8026
▁9,	-8027
▁AK	-8028
▁EX	-8029
▁Sn	-8030
-4);	-8031
CTIE	-8032
ERBB	-8033
Long	-8034
aart	-8035
erse	-8036
iens	-8037
igon	-8038
ilis	-8039
nten	-8040
rain	-8041
▁(13	-8042
▁1,9	-8043
▁1/3	-8044
▁2,1	-8045
▁70%	-8046
▁IEL	-8047
▁WEL	-8048
▁are	-8049
▁ber	-8050
▁hol	-8051
▁reA	-8052
▁sin	-8053
LOGIE	-8054
juvan	-8055
luste	-8056
zaken	-8057
▁Heup	-8058
▁gaan	-8059
▁onze	-8060
ipping	-8061
ivatie	-8062
wegend	-8063
▁Brunn	-8064
▁codon	-8065
▁gelet	-8066
▁hypox	-8067
▁villi	-8068
adipeus	-8069
caudaal	-8070
haarden	-8071
handeld	-8072
illende	-8073
infarct	-8074
juvante	-8075
zijwand	-8076
▁retrom	-8077
▁tubuli	-8078
▁vascul	-8079
RADICAAL	-8080
houdende	-8081
ommissie	-8082
ylinders	-8083
▁Afstand	-8084
▁Daarbij	-8085
▁grotere	-8086
▁intacte	-8087
▁omtrent	-8088
▁protonp	-8089
▁stabiel	-8090
▁ulcerof	-8091
▁zijkant	-8092
secteerde	-8093
▁adequaat	-8094
emateriaal	-8095
▁Overigens	-8096
▁caverneus	-8097
▁genetisch	-8098
▁interpret	-8099
▁Endocervix	-8100
▁arteriitis	-8101
▁darmmucosa	-8102
▁lymfoplasm	-8103
▁Preventieve	-8104
▁celgroepjes	-8105
▁ileocoecaal	-8106
▁satellieten	-8107
classificatie	-8108
▁angioinvasie	-8109
▁blaasbiopten	-8110
▁cytonucleaire	-8111
▁fibrocysteuze	-8112
▁herbeoordeeld	-8113
▁interstitieel	-8114
▁overgangstype	-8115
▁prostaatbiopt	-8116
▁radiotherapie	-8117
▁dwarsgestreept	-8118
▁gescleroseerde	-8119
▁medebeoordeeld	-8120
▁neusslijmvlies	-8121
▁rechterbovenarm	-8122
▁tumorpercentage	-8123
+/	-8124
59	-8125
84	-8126
PT	-8127
SV	-8128
YC	-8129
cr	-8130
.16	-8131
/08	-8132
53,	-8133
ETZ	-8134
MAD	-8135
can	-8136
oss	-8137
ray	-8138
uiv	-8139
ypT	-8140
▁+4	-8141
aang	-8142
best	-8143
eper	-8144
indt	-8145
oper	-8146
ordt	-8147
taal	-8148
verk	-8149
vula	-8150
▁0.[	-8151
▁enA	-8152
▁sac	-8153
▁sca	-8154
▁sen	-8155
creas	-8156
datum	-8157
ekere	-8158
junum	-8159
rache	-8160
▁phyl	-8161
-2023:	-8162
CEPTOR	-8163
igonum	-8164
ijbeen	-8165
lottis	-8166
subcut	-8167
uiving	-8168
▁kopie	-8169
-01-16/	-8170
ergisch	-8171
etastas	-8172
▁Random	-8173
▁graadA	-8174
amenlijk	-8175
anamnese	-8176
centraal	-8177
frontaal	-8178
volgende	-8179
▁Heupkop	-8180
▁aanzien	-8181
▁bestaan	-8182
▁gepaard	-8183
▁groepen	-8184
▁lingula	-8185
▁remmers	-8186
atypische	-8187
entoename	-8188
▁RECEPTOR	-8189
▁borstkas	-8190
▁skipping	-8191
▁tweemaal	-8192
Vriescoupe	-8193
oplastisch	-8194
sonderzoek	-8195
▁Metastase	-8196
▁galstenen	-8197
▁hormonale	-8198
▁huidadnex	-8199
▁pulmonale	-8200
▁voorkomen	-8201
▁weefselst	-8202
betreffende	-8203
infiltratie	-8204
▁Peritoneum	-8205
▁bloedingen	-8206
▁cellulaire	-8207
▁hematopoet	-8208
▁mestcellen	-8209
▁secretoire	-8210
▁verminderd	-8211
lassificeerd	-8212
▁dyskeratose	-8213
opathologisch	-8214
▁Ascitesvocht	-8215
▁Vermoedelijk	-8216
▁beeldvorming	-8217
omorfologische	-8218
transplantatie	-8219
▁Samengestelde	-8220
▁immunologisch	-8221
▁keratinocyten	-8222
-09-13/*******/	-8223
▁Tonsillectomie	-8224
▁medicamenteuze	-8225
▁onderverdeling	-8226
/5	-8227
fs	-8228
vo	-8229
/04	-8230
25)	-8231
FNA	-8232
Gln	-8233
MSS	-8234
Rad	-8235
kel	-8236
mac	-8237
oca	-8238
twe	-8239
via	-8240
zyg	-8241
▁8.	-8242
▁IG	-8243
▁sh	-8244
-2).	-8245
17-0	-8246
19-1	-8247
19:[	-8248
Diep	-8249
GNOS	-8250
band	-8251
dont	-8252
enen	-8253
igus	-8254
oont	-8255
open	-8256
prox	-8257
reig	-8258
vent	-8259
▁cin	-8260
▁lym	-8261
▁pot	-8262
OMPON	-8263
acaal	-8264
aklep	-8265
anale	-8266
derde	-8267
draad	-8268
leven	-8269
melan	-8270
omast	-8271
spier	-8272
▁2020	-8273
▁3+4=	-8274
▁epid	-8275
▁scab	-8276
▁sial	-8277
▁uter	-8278
Double	-8279
ageale	-8280
alking	-8281
herine	-8282
ibulum	-8283
kapsel	-8284
ysteem	-8285
▁anaal	-8286
▁diver	-8287
▁fossa	-8288
▁opgeb	-8289
▁overg	-8290
Breslow	-8291
gerelat	-8292
wijderd	-8293
▁keloid	-8294
▁pulmon	-8295
▁ruimte	-8296
▁sleeve	-8297
▁wijzen	-8298
Beenmerg	-8299
OMPONENT	-8300
gebleven	-8301
▁Douglas	-8302
▁INVASIE	-8303
▁Slechts	-8304
▁centrum	-8305
▁evenals	-8306
▁nodosum	-8307
Opmerking	-8308
tenminste	-8309
▁Diagnose	-8310
▁gespecif	-8311
▁horizont	-8312
▁hypofyse	-8313
▁innemend	-8314
▁mucosale	-8315
▁zogenaam	-8316
Groeiwijze	-8317
Somatische	-8318
lisexcisie	-8319
▁Hemithyre	-8320
▁Invasieve	-8321
▁Plaveisel	-8322
▁eenduidig	-8323
▁minuscule	-8324
▁onsteking	-8325
rometastase	-8326
▁aanbevolen	-8327
▁foveolaire	-8328
▁fundustype	-8329
▁prikkeling	-8330
▁prostatica	-8331
▁aangrenzend	-8332
▁gezamenlijk	-8333
▁malformatie	-8334
▁satellitose	-8335
▁tumorvolume	-8336
▁Laboratorium	-8337
▁Prostaatbiopt	-8338
▁erythematodes	-8339
▁hoofdbronchus	-8340
▁rectumbiopten	-8341
▁chorionvlokken	-8342
▁Levernaaldbiopt	-8343
▁rechteronderarm	-8344
9[	-8345
EA	-8346
IF	-8347
RI	-8348
263	-8349
PAS	-8350
afw	-8351
sis	-8352
wab	-8353
▁NE	-8354
▁RB	-8355
▁bi	-8356
▁̄n	-8357
-20/	-8358
13-4	-8359
17-3	-8360
18:[	-8361
19-4	-8362
20-4	-8363
20-5	-8364
20-6	-8365
DIFF	-8366
EUZE	-8367
LBCL	-8368
dood	-8369
iast	-8370
kuit	-8371
terk	-8372
▁4):	-8373
▁POS	-8374
▁TOT	-8375
▁art	-8376
▁nat	-8377
▁res	-8378
▁wig	-8379
23-00	-8380
GRAAD	-8381
oment	-8382
roces	-8383
rogen	-8384
rosea	-8385
terne	-8386
undel	-8387
zoals	-8388
▁12-1	-8389
▁Sequ	-8390
▁feit	-8391
▁wond	-8392
-2017:	-8393
Archer	-8394
arieel	-8395
arteri	-8396
rocyst	-8397
screen	-8398
umeper	-8399
zekere	-8400
▁Enige	-8401
▁geloc	-8402
▁ident	-8403
▁jicht	-8404
▁laten	-8405
▁ligam	-8406
▁odont	-8407
▁pariA	-8408
▁tibia	-8409
-02-16/	-8410
eerdere	-8411
eosinof	-8412
icrodis	-8413
scapula	-8414
▁Pylori	-8415
▁lokale	-8416
▁polycl	-8417
▁waarna	-8418
DIFFEREN	-8419
antwoord	-8420
breiding	-8421
gressief	-8422
▁daarvan	-8423
▁indefin	-8424
▁reticul	-8425
ATIEGRAAD	-8426
adjuvante	-8427
omenpanel	-8428
ratervorm	-8429
reactieve	-8430
specifiek	-8431
▁Synovium	-8432
▁cystitis	-8433
▁fimbriae	-8434
oesophagus	-8435
scheenbeen	-8436
▁ischaemie	-8437
▁minuscuul	-8438
▁perianaal	-8439
▁Sneeranden	-8440
▁gemicrodis	-8441
▁kenmerkend	-8442
Angioinvasie	-8443
Polypectomie	-8444
histiocytose	-8445
▁Maligniteit	-8446
▁afgehandeld	-8447
▁bijtfibroom	-8448
▁erytropoese	-8449
▁excochleaat	-8450
▁gemedieerde	-8451
▁paratubaire	-8452
▁peritoneale	-8453
▁verminderde	-8454
▁Aanwezigheid	-8455
▁endocarditis	-8456
▁erythrocyten	-8457
▁regeneratieve	-8458
▁verschillende	-8459
-01-13/*******/	-8460
-06-14/*******/	-8461
-07-13/*******/	-8462
▁Transurethrale	-8463
▁blastentoename	-8464
▁gespecificeerd	-8465
▁Mammanaaldbiopt	-8466
▁geclassificeerd	-8467
▁oorspronkelijke	-8468
▁restlokalisatie	-8469
0(	-8470
0)	-8471
AM	-8472
BR	-8473
CN	-8474
DD	-8475
OX	-8476
▁)	-8477
+).	-8478
-2.	-8479
/03	-8480
5),	-8481
ALT	-8482
ITE	-8483
PER	-8484
Pla	-8485
hag	-8486
oli	-8487
ril	-8488
▁Ob	-8489
21-3	-8490
22-1	-8491
22-3	-8492
23-2	-8493
HSIL	-8494
ebru	-8495
ieen	-8496
situ	-8497
▁(1,	-8498
▁0).	-8499
▁2,4	-8500
▁2,7	-8501
▁3):	-8502
▁60%	-8503
▁AML	-8504
▁Fib	-8505
▁Mil	-8506
▁RAD	-8507
▁VAN	-8508
▁elk	-8509
▁evt	-8510
▁ren	-8511
▁wit	-8512
▁̄nd	-8513
ITIEF	-8514
beide	-8515
eelde	-8516
okele	-8517
ulaat	-8518
▁2).[	-8519
▁eind	-8520
▁mill	-8521
bladen	-8522
carina	-8523
elders	-8524
geleid	-8525
kingen	-8526
▁bijna	-8527
▁evalu	-8528
▁glans	-8529
▁lamel	-8530
▁rosea	-8531
▁xanth	-8532
-01-15/	-8533
ebruari	-8534
odermie	-8535
oriatie	-8536
▁Sperma	-8537
▁aanleg	-8538
▁exonen	-8539
▁follow	-8540
▁groter	-8541
▁infect	-8542
▁kernen	-8543
▁straal	-8544
▁struma	-8545
bovenlip	-8546
craniaal	-8547
ervicale	-8548
itoneaal	-8549
lceratie	-8550
ultipele	-8551
▁(100%).	-8552
▁DIAGNOS	-8553
▁bewerkt	-8554
▁cirrose	-8555
▁diverse	-8556
abiliteit	-8557
rocystoom	-8558
▁POSITIEF	-8559
▁handpalm	-8560
▁prothese	-8561
▁romphuid	-8562
▁trombose	-8563
eentumoren	-8564
lymfocyten	-8565
▁Subcutane	-8566
▁blaaswand	-8567
▁bloederig	-8568
▁dilatatie	-8569
▁genitalis	-8570
▁vaginatop	-8571
encylinders	-8572
ytrocyturie	-8573
▁gemetastas	-8574
▁geprikkeld	-8575
▁linkerhand	-8576
▁millimeter	-8577
▁pilomatrix	-8578
▁posterieur	-8579
▁premaligne	-8580
histologisch	-8581
iagnostische	-8582
▁adenomateus	-8583
▁astrocytoom	-8584
▁fibrosering	-8585
▁linkszijdig	-8586
▁submucosale	-8587
Poliepectomie	-8588
microscopisch	-8589
umepercentage	-8590
▁plasmocytose	-8591
▁acanthotische	-8592
▁cervixbiopten	-8593
▁ectocervicale	-8594
▁insectensteek	-8595
▁macronodulair	-8596
▁overexpressie	-8597
▁translocaties	-8598
Voorbehandeling	-8599
▁achtergebleven	-8600
▁gedegenereerde	-8601
▁subepitheliale	-8602
▁wangslijmvlies	-8603
----------------	-8604
36	-8605
8)	-8606
86	-8607
Ig	-8608
OLD	-8609
STE	-8610
elv	-8611
jac	-8612
sle	-8613
▁El	-8614
▁ou	-8615
▁un	-8616
16-1	-8617
brug	-8618
este	-8619
ouch	-8620
part	-8621
prom	-8622
utel	-8623
▁11)	-8624
▁Gem	-8625
▁QIA	-8626
▁Sol	-8627
▁hum	-8628
▁thv	-8629
▁tpv	-8630
ITEIT	-8631
corne	-8632
coupe	-8633
erdep	-8634
ervus	-8635
grade	-8636
hepat	-8637
iment	-8638
olyse	-8639
reken	-8640
wicht	-8641
ymorf	-8642
▁GNAS	-8643
▁Mond	-8644
▁Rest	-8645
▁SMAR	-8646
▁diam	-8647
▁foto	-8648
-2018[	-8649
derend	-8650
entana	-8651
enties	-8652
erkwab	-8653
ijpjes	-8654
lichen	-8655
ortusc	-8656
putium	-8657
resten	-8658
ukbeen	-8659
▁breed	-8660
▁eiwit	-8661
▁geser	-8662
▁holte	-8663
▁naald	-8664
▁ratio	-8665
▁reads	-8666
▁trach	-8667
Barrett	-8668
VENEUZE	-8669
apicaal	-8670
▁emfyse	-8671
▁levern	-8672
▁mature	-8673
▁microb	-8674
▁morfea	-8675
▁pyelum	-8676
▁resist	-8677
▁syring	-8678
Prostaat	-8679
SNIJVLAK	-8680
jaculaat	-8681
radenoom	-8682
utelbeen	-8683
▁Candida	-8684
▁centrif	-8685
▁dysmorf	-8686
▁grootte	-8687
▁heupkop	-8688
▁hiermee	-8689
▁ligging	-8690
▁melanof	-8691
neoplasie	-8692
vaginatie	-8693
▁iliacaal	-8694
▁mondhoek	-8695
▁tumortje	-8696
8/*******/	-8697
omelanosis	-8698
receptoren	-8699
verwijderd	-8700
vriescoupe	-8701
▁QIAscreen	-8702
▁digniteit	-8703
▁hetzelfde	-8704
deficientie	-8705
gemarkeerde	-8706
▁*******):[	-8707
▁Receptoren	-8708
▁mechanisch	-8709
▁mesangiale	-8710
▁nauwelijks	-8711
▁rechteroor	-8712
▁Nefrectomie	-8713
▁ductaaltype	-8714
▁fibrotische	-8715
▁rechterhand	-8716
▁Universitair	-8717
▁maagresectie	-8718
▁noodzakelijk	-8719
▁Erytrocyturie	-8720
▁gelokaliseerd	-8721
▁gepigmenteerd	-8722
▁vergelijkbaar	-8723
-06-13/*******/	-8724
-08-13/*******/	-8725
▁Buikspoelvocht	-8726
▁duodenummucosa	-8727
▁geamplificeerd	-8728
▁tumorkenmerken	-8729
01	-8730
94	-8731
CT	-8732
GG	-8733
NI	-8734
)).	-8735
.25	-8736
/07	-8737
/14	-8738
858	-8739
MMR	-8740
NEU	-8741
Oes	-8742
RET	-8743
Reg	-8744
]1.	-8745
ahl	-8746
isk	-8747
▁3/	-8748
▁41	-8749
▁MS	-8750
▁RM	-8751
▁lu	-8752
-1).	-8753
-21:	-8754
22-5	-8755
ISUP	-8756
RALE	-8757
atte	-8758
heem	-8759
loge	-8760
omin	-8761
orta	-8762
oupe	-8763
roph	-8764
▁5%.	-8765
▁AKT	-8766
▁Loc	-8767
▁amp	-8768
▁ham	-8769
▁nvt	-8770
▁okt	-8771
▁vor	-8772
/2017	-8773
Colon	-8774
]2015	-8775
ahler	-8776
chond	-8777
dtype	-8778
inden	-8779
kruin	-8780
ullen	-8781
▁Zoom	-8782
▁herh	-8783
-2015:	-8784
SECTIE	-8785
delins	-8786
elitis	-8787
etreft	-8788
ietran	-8789
inales	-8790
ionele	-8791
kernig	-8792
oderma	-8793
raagde	-8794
solide	-8795
▁Tubae	-8796
▁alien	-8797
▁amorf	-8798
▁hilus	-8799
▁perip	-8800
▁ruber	-8801
▁subst	-8802
-04-15/	-8803
-05-15/	-8804
-08-16/	-8805
benigne	-8806
inische	-8807
labella	-8808
▁Bauhin	-8809
▁adnexa	-8810
▁discre	-8811
▁nervus	-8812
▁opbouw	-8813
▁sepsis	-8814
▁zullen	-8815
Protocol	-8816
mucosaal	-8817
obductie	-8818
racheaal	-8819
rekzijde	-8820
spatroon	-8821
▁bevindt	-8822
▁globale	-8823
▁krabben	-8824
▁senilis	-8825
▁villeus	-8826
]*******/	-8827
aspiratie	-8828
gastritis	-8829
▁compacte	-8830
▁locaties	-8831
▁oorzaken	-8832
▁perineum	-8833
▁serosale	-8834
Zijdigheid	-8835
](*******)	-8836
definitief	-8837
▁Microscop	-8838
▁antracose	-8839
▁deciduale	-8840
▁discontin	-8841
▁dysplasia	-8842
▁infarcten	-8843
▁interface	-8844
▁omgevende	-8845
▁opgebouwd	-8846
▁restanten	-8847
▁seminales	-8848
▁thoracale	-8849
▁verhoogde	-8850
▁GEWIJZIGDE	-8851
▁Kleuringen	-8852
▁alveolaire	-8853
▁epididymis	-8854
▁maagcardia	-8855
▁motiliteit	-8856
▁overeenkom	-8857
▁vruchtdood	-8858
vermoedelijk	-8859
▁Sneevlakken	-8860
▁Verrichting	-8861
▁cholangitis	-8862
▁nefrectomie	-8863
▁oedemateuze	-8864
▁serologisch	-8865
▁subtypering	-8866
geassocieerde	-8867
▁neusbijholte	-8868
▁prepylorisch	-8869
▁spermatozoon	-8870
▁voorafgaande	-8871
▁zegelringcel	-8872
▁Speekselklier	-8873
▁hypocellulair	-8874
▁intimafibrose	-8875
▁metastatische	-8876
▁significantie	-8877
▁adenocarcinoma	-8878
▁stembandpoliep	-8879
▁vriesmateriaal	-8880
▁familieanamnese	-8881
(-	-8882
76	-8883
fl	-8884
ml	-8885
▁?	-8886
/06	-8887
3.[	-8888
Ala	-8889
CLL	-8890
Cel	-8891
MYC	-8892
RES	-8893
bet	-8894
dak	-8895
hem	-8896
pen	-8897
▁DE	-8898
▁Vr	-8899
21-5	-8900
INEU	-8901
inec	-8902
inib	-8903
iren	-8904
kant	-8905
like	-8906
oard	-8907
obul	-8908
ppen	-8909
verh	-8910
▁(18	-8911
▁CPS	-8912
▁Muc	-8913
▁RAS	-8914
▁Sec	-8915
▁aug	-8916
▁ben	-8917
▁men	-8918
▁nam	-8919
▁vit	-8920
18-00	-8921
Lever	-8922
acuum	-8923
allux	-8924
domin	-8925
plaat	-8926
▁0).[	-8927
▁Fuhr	-8928
▁NIET	-8929
▁Pity	-8930
▁beel	-8931
▁corp	-8932
▁dyst	-8933
▁zelf	-8934
-2016:	-8935
-2023[	-8936
liniek	-8937
mentum	-8938
orient	-8939
staart	-8940
streek	-8941
vinger	-8942
▁bestr	-8943
▁methy	-8944
▁necro	-8945
▁plana	-8946
▁probe	-8947
-08-15/	-8948
-10-14/	-8949
Ingroei	-8950
PERINEU	-8951
complex	-8952
emateus	-8953
geringe	-8954
medicam	-8955
osering	-8956
yndroom	-8957
▁Kahler	-8958
▁concha	-8959
▁contra	-8960
▁hallux	-8961
▁suppur	-8962
▁vervet	-8963
Duodenum	-8964
adiering	-8965
omatosis	-8966
onderrug	-8967
otypisch	-8968
vormende	-8969
▁dijbeen	-8970
▁epithel	-8971
▁hilaire	-8972
▁verwant	-8973
bevinding	-8974
rosarcoom	-8975
▁Spoeling	-8976
▁begeleid	-8977
▁centrifu	-8978
▁cholangi	-8979
▁ijzerdep	-8980
▁intermed	-8981
▁mucokele	-8982
▁neusbrug	-8983
▁onzekere	-8984
▁verbreed	-8985
deposities	-8986
ethylation	-8987
ethylering	-8988
oppervlakk	-8989
rospinalis	-8990
▁Onderzoek	-8991
▁cervicale	-8992
▁immunocyt	-8993
▁tongbasis	-8994
▁verruceus	-8995
PERINEURALE	-8996
rechterwang	-8997
▁bevestigen	-8998
▁discordant	-8999
▁excoriatie	-9000
▁vaatlaesie	-9001
▁Beentumoren	-9002
▁conjunctiva	-9003
▁cystoscopie	-9004
▁dieptegroei	-9005
▁mastocytose	-9006
▁monoklonale	-9007
▁mycobacteri	-9008
▁uitgebluste	-9009
TUMORDIAMETER	-9010
▁lymfoompanel	-9011
▁mammabiopten	-9012
▁seborrhoische	-9013
▁vasculopathie	-9014
-07-14/*******/	-9015
▁galsteenlijden	-9016
▁cerebrospinalis	-9017
▁rectumcarcinoom	-9018
4-	-9019
7;	-9020
AA	-9021
IL	-9022
]*	-9023
100	-9024
18-	-9025
4),	-9026
5):	-9027
AND	-9028
ITU	-9029
SGS	-9030
aut	-9031
det	-9032
eil	-9033
eps	-9034
ish	-9035
soc	-9036
sup	-9037
tri	-9038
urt	-9039
▁9-	-9040
▁BA	-9041
▁MA	-9042
▁MU	-9043
▁cy	-9044
▁ol	-9045
%).[	-9046
13-1	-9047
13-5	-9048
18-4	-9049
19-6	-9050
AFST	-9051
imer	-9052
inea	-9053
ober	-9054
omed	-9055
omon	-9056
oude	-9057
ozyg	-9058
pols	-9059
raum	-9060
▁%.[	-9061
▁(16	-9062
▁2,8	-9063
▁XII	-9064
▁dur	-9065
▁fix	-9066
▁hog	-9067
▁pgv	-9068
ISCHE	-9069
aceus	-9070
casus	-9071
fusie	-9072
ircum	-9073
isier	-9074
komst	-9075
menop	-9076
nodus	-9077
oesof	-9078
oging	-9079
reden	-9080
▁Hart	-9081
▁MALT	-9082
▁SITU	-9083
▁UICC	-9084
▁naad	-9085
-2021[	-9086
Cervix	-9087
aanget	-9088
atient	-9089
focaal	-9090
iculus	-9091
oideum	-9092
ollete	-9093
ostose	-9094
promot	-9095
reigde	-9096
stroma	-9097
ulares	-9098
▁Fibro	-9099
▁alles	-9100
▁bursa	-9101
▁inact	-9102
▁intro	-9103
▁lumen	-9104
▁meden	-9105
▁parap	-9106
▁wijst	-9107
-07-15/	-9108
AFSTAND	-9109
geblokt	-9110
ochemie	-9111
ogenese	-9112
osigmoA	-9113
rothese	-9114
▁Coecum	-9115
▁erytro	-9116
▁glioom	-9117
▁intram	-9118
▁multin	-9119
▁residu	-9120
▁subser	-9121
▁vezels	-9122
esionaal	-9123
ongorood	-9124
rieterig	-9125
▁beelden	-9126
▁cytogen	-9127
▁oktober	-9128
▁scabies	-9129
amputatie	-9130
apsulaire	-9131
asternaal	-9132
klinische	-9133
okleuring	-9134
scapulair	-9135
▁Abortusc	-9136
▁Musculus	-9137
▁februari	-9138
▁gevallen	-9139
▁namelijk	-9140
▁neusgang	-9141
▁polymorf	-9142
▁trigonum	-9143
▁verhoogd	-9144
DIFFERENTI	-9145
▁Commissie	-9146
▁Genetisch	-9147
▁Hiernaast	-9148
▁anusbiopt	-9149
▁bedreigde	-9150
▁blastaire	-9151
▁deciduaal	-9152
▁endometro	-9153
▁fusietran	-9154
▁onderpool	-9155
▁plasmacyt	-9156
▁̄ndiceerd	-9157
Localisatie	-9158
▁Spoelvocht	-9159
▁bijkomende	-9160
▁centimeter	-9161
▁embryonaal	-9162
▁fibrotisch	-9163
▁onvolledig	-9164
gerelateerde	-9165
▁centrifugum	-9166
▁interstitiA	-9167
▁traumatisch	-9168
▁gedeeltelijk	-9169
▁hidrocystoom	-9170
▁sclerodermie	-9171
▁Slokdarmbiopt	-9172
▁maagcarcinoom	-9173
▁papillomatose	-9174
▁poliepexcisie	-9175
-04-14/*******/	-9176
▁hematopoetisch	-9177
▁macrometastase	-9178
▁schouderbladen	-9179
epitheliomateuze	-9180
▁pseudomelanosis	-9181
%,	-9182
.8	-9183
3[	-9184
7[	-9185
An	-9186
BX	-9187
UC	-9188
WZ	-9189
ii	-9190
%.[	-9191
-3.	-9192
10,	-9193
3),	-9194
5).	-9195
Aan	-9196
BXW	-9197
KEN	-9198
LMS	-9199
PDL	-9200
Pre	-9201
TPS	-9202
bda	-9203
bew	-9204
ian	-9205
ody	-9206
▁Me	-9207
14-7	-9208
16-8	-9209
Weke	-9210
appa	-9211
domy	-9212
eikt	-9213
iene	-9214
inds	-9215
vill	-9216
zaam	-9217
▁Ext	-9218
▁HLA	-9219
▁HSV	-9220
▁Ile	-9221
▁TBC	-9222
▁don	-9223
▁kop	-9224
20-10	-9225
22-00	-9226
22-03	-9227
Onder	-9228
breng	-9229
erapp	-9230
hemat	-9231
icans	-9232
inige	-9233
ittek	-9234
olent	-9235
ustus	-9236
▁2018	-9237
▁ANCA	-9238
▁SMAD	-9239
▁data	-9240
▁luid	-9241
▁sigm	-9242
▁tijd	-9243
▁vest	-9244
-2018:	-9245
chrift	-9246
ergens	-9247
schors	-9248
▁allen	-9249
▁oment	-9250
▁vroeg	-9251
-03-16/	-9252
brengst	-9253
ellicht	-9254
eringen	-9255
omastie	-9256
stadium	-9257
stolsel	-9258
▁3+3=6.	-9259
▁Status	-9260
▁anemie	-9261
▁fascie	-9262
▁herpes	-9263
▁herpet	-9264
▁hydrop	-9265
▁intact	-9266
▁lymfop	-9267
▁velden	-9268
-02-14:[	-9269
-03-14:[	-9270
-04-14:[	-9271
corneale	-9272
genoemde	-9273
iotische	-9274
olymfoom	-9275
onderlip	-9276
placenta	-9277
rosporum	-9278
▁alienum	-9279
▁angulus	-9280
▁avitale	-9281
▁details	-9282
▁eccrien	-9283
▁element	-9284
▁gescand	-9285
▁uiterst	-9286
▁weinige	-9287
indicatie	-9288
onderbuik	-9289
oscopisch	-9290
▁adenosis	-9291
▁apocrien	-9292
▁bulleuze	-9293
▁cardiomy	-9294
▁december	-9295
▁fenotype	-9296
▁glabella	-9297
▁minstens	-9298
▁toxische	-9299
▁verbrede	-9300
▁verdikte	-9301
generatief	-9302
▁Terminale	-9303
▁aortaklep	-9304
▁carcinoid	-9305
▁clearcell	-9306
▁elastosis	-9307
▁markering	-9308
▁opmerking	-9309
▁patholoog	-9310
▁waarnaast	-9311
Endometrium	-9312
▁Actinische	-9313
▁Blaasbiopt	-9314
▁Sequencing	-9315
▁Somatische	-9316
▁aangewezen	-9317
▁anterieure	-9318
▁hechtdraad	-9319
▁indefinite	-9320
▁kapseldoor	-9321
▁kratervorm	-9322
▁lobectomie	-9323
▁myelopoese	-9324
▁odontogene	-9325
▁osteochond	-9326
deringsgroep	-9327
verschuiving	-9328
▁Serologisch	-9329
▁abortusrest	-9330
▁claviculair	-9331
▁gebiopteerd	-9332
▁geisoleerde	-9333
▁irregulaire	-9334
▁myocarditis	-9335
▁rechterlies	-9336
▁rectosigmoA	-9337
▁schildwacht	-9338
▁sleutelbeen	-9339
antwoordelijk	-9340
▁doorsnijding	-9341
▁romphuidtype	-9342
▁Histologische	-9343
▁herpetiformis	-9344
▁instabiliteit	-9345
▁radiologische	-9346
▁oorspronkelijk	-9347
▁adnexextirpatie	-9348
▁fusietranscript	-9349
▁littekenreactie	-9350
▁microorganismen	-9351
.0	-9352
Be	-9353
RP	-9354
nl	-9355
.38	-9356
17,	-9357
170	-9358
CNV	-9359
PIE	-9360
Rec	-9361
THO	-9362
VEL	-9363
auz	-9364
flr	-9365
gde	-9366
hom	-9367
koa	-9368
non	-9369
▁CO	-9370
▁IX	-9371
▁MK	-9372
▁NB	-9373
▁PZ	-9374
▁Pe	-9375
0546	-9376
13-8	-9377
2).[	-9378
21:[	-9379
3).[	-9380
Daar	-9381
ERDE	-9382
HERA	-9383
Hist	-9384
iard	-9385
ling	-9386
omuc	-9387
omyx	-9388
orse	-9389
post	-9390
sens	-9391
ulde	-9392
utum	-9393
▁5-1	-9394
▁Ond	-9395
▁Wig	-9396
▁car	-9397
▁pTa	-9398
▁tbv	-9399
▁vat	-9400
15189	-9401
20-00	-9402
]2016	-9403
ecrot	-9404
hesie	-9405
ilich	-9406
lobul	-9407
oraal	-9408
volve	-9409
▁3).[	-9410
▁ecto	-9411
▁form	-9412
▁gall	-9413
andard	-9414
arcoma	-9415
artoom	-9416
axilla	-9417
eelsen	-9418
istale	-9419
kernen	-9420
▁Extra	-9421
▁LEVEL	-9422
▁PATHO	-9423
▁THERA	-9424
▁domin	-9425
▁geret	-9426
▁index	-9427
▁supra	-9428
-06-16/	-9429
-06-17/	-9430
-09-15/	-9431
_000546	-9432
eptorst	-9433
erappor	-9434
iceerde	-9435
ingroei	-9436
ogranul	-9437
▁Aangev	-9438
▁Grover	-9439
▁mammae	-9440
▁solair	-9441
▁trombi	-9442
▁tuberc	-9443
adenitis	-9444
adnexale	-9445
onecrose	-9446
poliepje	-9447
soriasis	-9448
▁geduide	-9449
▁groepje	-9450
▁lichaam	-9451
▁organen	-9452
▁uterina	-9453
iardiasis	-9454
oblastoom	-9455
okeratose	-9456
oorspronk	-9457
▁fractuur	-9458
▁gestuurd	-9459
▁inferior	-9460
▁kleinste	-9461
▁operatie	-9462
▁(*******)	-9463
▁Ingeblokt	-9464
▁Keratosis	-9465
▁amputatie	-9466
▁lichenoid	-9467
▁maagbiopt	-9468
▁myopathie	-9469
▁neoplasma	-9470
▁terminaal	-9471
▁transuret	-9472
beoordeling	-9473
eptorstatus	-9474
neusvleugel	-9475
otidectomie	-9476
▁Ontsteking	-9477
▁herkenbare	-9478
▁organismen	-9479
▁reumatoide	-9480
▁verrichten	-9481
▁verwachten	-9482
aanwezigheid	-9483
▁Actinomyces	-9484
▁aansnijding	-9485
▁ductectasie	-9486
▁oncocytaire	-9487
▁parasitaire	-9488
▁urotheelcel	-9489
Invasiediepte	-9490
▁basosquameus	-9491
▁dermoidcyste	-9492
▁gecombineerd	-9493
▁hidradenitis	-9494
▁Sigmoidbiopten	-9495
▁gemetastaseerd	-9496
▁celproliferatie	-9497
▁cholesterolosis	-9498
▁littekenachtige	-9499
▁lymfadenopathie	-9500
▁naevocellulares	-9501
BM	-9502
LT	-9503
WK	-9504
/01	-9505
/05	-9506
22:	-9507
23:	-9508
40,	-9509
AKO	-9510
His	-9511
dys	-9512
eem	-9513
odu	-9514
ruk	-9515
▁+5	-9516
▁2+	-9517
▁Gl	-9518
▁LV	-9519
-3).	-9520
10):	-9521
17-1	-9522
23-4	-9523
Niet	-9524
able	-9525
ourn	-9526
rikt	-9527
▁(0,	-9528
▁(25	-9529
▁CDH	-9530
▁RMK	-9531
▁SMO	-9532
▁mig	-9533
▁oss	-9534
▁spl	-9535
▁tag	-9536
0%).[	-9537
21-00	-9538
arges	-9539
ender	-9540
index	-9541
omale	-9542
otica	-9543
sluit	-9544
umber	-9545
▁Epid	-9546
▁Hals	-9547
▁Laag	-9548
▁alve	-9549
▁juli	-9550
▁ligt	-9551
▁snel	-9552
▁wild	-9553
2-12-1	-9554
auzaal	-9555
meting	-9556
opisch	-9557
weging	-9558
▁INTER	-9559
▁april	-9560
▁geden	-9561
▁infra	-9562
▁nemen	-9563
▁parac	-9564
▁plant	-9565
▁sinon	-9566
▁snede	-9567
▁staan	-9568
▁stoma	-9569
arinaal	-9570
eratuur	-9571
esneden	-9572
estatie	-9573
icaties	-9574
normaal	-9575
oglobul	-9576
▁Dermat	-9577
▁Merkel	-9578
▁Ureter	-9579
▁gladde	-9580
▁opmerk	-9581
▁plaque	-9582
▁rondes	-9583
▁ruimer	-9584
▁uitlop	-9585
-09-14:[	-9586
.*******	-9587
aminatie	-9588
epigment	-9589
ourneerd	-9590
▁gallige	-9591
▁inziens	-9592
▁mediane	-9593
▁necrobi	-9594
▁special	-9595
▁stukjes	-9596
CONCLUSIE	-9597
Daarnaast	-9598
]*******,	-9599
satelliet	-9600
▁THERAPIE	-9601
▁gewricht	-9602
▁inzender	-9603
▁sebaceus	-9604
▁verloren	-9605
beginnende	-9606
borderline	-9607
hooggradig	-9608
metastasen	-9609
opatholoog	-9610
snijranden	-9611
▁Multipele	-9612
▁Preputium	-9613
▁ejaculaat	-9614
▁evaluatie	-9615
▁relevante	-9616
▁sprietige	-9617
olipectomie	-9618
▁aggregaten	-9619
▁cardiatype	-9620
▁colonbiopt	-9621
▁obstructie	-9622
▁pigmentosa	-9623
▁sigmoideum	-9624
▁sneeranden	-9625
▁vestibulum	-9626
▁vulvabiopt	-9627
▁zogenaamde	-9628
Cytologische	-9629
folliculitis	-9630
▁Beoordeling	-9631
▁membraneuze	-9632
▁methylering	-9633
▁placentaire	-9634
▁predictieve	-9635
▁resistentie	-9636
invasiediepte	-9637
transplantaat	-9638
▁Bovenstaande	-9639
▁Incisiebiopt	-9640
▁Leverbiopten	-9641
▁darmresectie	-9642
▁dermatologie	-9643
▁haardvormige	-9644
▁huidsnijvlak	-9645
▁idiopathisch	-9646
oorspronkelijk	-9647
▁Endocervicaal	-9648
▁detecteerbaar	-9649
▁geretourneerd	-9650
▁gynaecomastie	-9651
▁pilomatrixoom	-9652
-03-14/*******/	-9653
-05-13/*******/	-9654
▁Oesofagusbiopt	-9655
▁gelocaliseerde	-9656
▁karakteristiek	-9657
▁lymfklierbiopt	-9658
▁spermatogenese	-9659
'.	-9660
Am	-9661
DR	-9662
lb	-9663
%),	-9664
/09	-9665
20,	-9666
20[	-9667
228	-9668
500	-9669
53.	-9670
790	-9671
ELL	-9672
GGP	-9673
Med	-9674
Uit	-9675
ius	-9676
lum	-9677
vir	-9678
▁Ca	-9679
▁mn	-9680
▁ra	-9681
▁tw	-9682
13-6	-9683
14-5	-9684
15);	-9685
15-5	-9686
20-1	-9687
21-4	-9688
erus	-9689
gist	-9690
itzo	-9691
laas	-9692
romp	-9693
stij	-9694
umab	-9695
ynge	-9696
▁(19	-9697
▁(2/	-9698
▁95%	-9699
▁CWZ	-9700
▁EMR	-9701
▁EZH	-9702
▁JTH	-9703
▁ent	-9704
▁jug	-9705
▁nef	-9706
▁pen	-9707
▁plm	-9708
▁weg	-9709
.2573	-9710
circa	-9711
falen	-9712
hyfen	-9713
ichen	-9714
ieuze	-9715
traum	-9716
verru	-9717
▁(2);	-9718
▁EBER	-9719
▁FSGS	-9720
▁HSIL	-9721
▁OGGP	-9722
▁PARP	-9723
▁TBNA	-9724
▁naam	-9725
▁wijz	-9726
-2022:	-9727
Status	-9728
acanth	-9729
ammair	-9730
ekenen	-9731
eliale	-9732
iefase	-9733
olater	-9734
▁Casus	-9735
▁NSCLC	-9736
▁nates	-9737
▁pouch	-9738
▁sperm	-9739
-01-17/	-9740
-03-15/	-9741
-04-16/	-9742
ethmoid	-9743
oduoden	-9744
▁12/13)	-9745
▁Arteri	-9746
▁Gering	-9747
▁SMARCB	-9748
▁amyloA	-9749
▁fecaal	-9750
▁helaas	-9751
▁hemith	-9752
▁versus	-9753
▁zwakke	-9754
-01-14:[	-9755
-04-15:[	-9756
Bronchus	-9757
areolair	-9758
sclerose	-9759
▁Beperkt	-9760
▁Fuhrman	-9761
▁Interne	-9762
▁directe	-9763
▁jejunum	-9764
▁jukbeen	-9765
▁systeem	-9766
iteratuur	-9767
ogeniteit	-9768
ventrikel	-9769
volvement	-9770
▁alhoewel	-9771
▁blaasdak	-9772
▁bloedvat	-9773
▁exostose	-9774
▁nagenoeg	-9775
▁sprieten	-9776
▁tekening	-9777
▁typische	-9778
bronchiale	-9779
kleuringen	-9780
▁Aangezien	-9781
▁COMPONENT	-9782
▁LYMFKLIER	-9783
▁huidstans	-9784
▁naevuscel	-9785
▁ontbreekt	-9786
▁uitslagen	-9787
▁verklaard	-9788
eosinofiele	-9789
fragmentjes	-9790
hypertrofie	-9791
menopauzaal	-9792
schikkingen	-9793
▁anderszins	-9794
▁bilaterale	-9795
▁restlaesie	-9796
▁rondkernig	-9797
▁submammair	-9798
▁Progesteron	-9799
▁horizontale	-9800
▁losliggende	-9801
▁monoclonale	-9802
▁periportale	-9803
cellulariteit	-9804
▁bloedverlies	-9805
▁contaminatie	-9806
▁gebiopteerde	-9807
▁klierstation	-9808
▁overliggende	-9809
▁secretiefase	-9810
▁Poliepexcisie	-9811
▁gecombineerde	-9812
▁gemengdcellig	-9813
▁longparenchym	-9814
▁peroperatieve	-9815
-02-16/*******/	-9816
▁chondrosarcoom	-9817
▁immunofenotype	-9818
▁klierparenchym	-9819
▁lymfoplasmacyt	-9820
(1	-9821
-/	-9822
DP	-9823
PN	-9824
ƒA	-9825
.20	-9826
1)[	-9827
20:	-9828
22,	-9829
8):	-9830
MBP	-9831
PEC	-9832
Sch	-9833
Ter	-9834
Twe	-9835
]1:	-9836
cad	-9837
cho	-9838
opy	-9839
oud	-9840
rem	-9841
▁--	-9842
▁90	-9843
▁AB	-9844
▁ty	-9845
/03/	-9846
16);	-9847
NRAS	-9848
Naar	-9849
ONCH	-9850
PONS	-9851
Scan	-9852
blok	-9853
coli	-9854
icat	-9855
olom	-9856
orte	-9857
pura	-9858
roof	-9859
sbew	-9860
slab	-9861
xcid	-9862
▁(17	-9863
▁10:	-9864
▁3,2	-9865
▁6.[	-9866
▁61)	-9867
▁CEA	-9868
▁FLT	-9869
▁IgM	-9870
▁NEO	-9871
▁NPM	-9872
▁VHL	-9873
▁dun	-9874
▁myo	-9875
▁obv	-9876
▁tgv	-9877
▁ypT	-9878
▁zsm	-9879
▁zyg	-9880
UITEN	-9881
_0000	-9882
aking	-9883
aries	-9884
erans	-9885
gnost	-9886
ineus	-9887
ipoom	-9888
oduli	-9889
terie	-9890
ulent	-9891
vloed	-9892
zover	-9893
▁1-2.	-9894
▁2017	-9895
▁POLE	-9896
▁Tran	-9897
▁drug	-9898
▁myof	-9899
-2019[	-9900
17025)	-9901
bekled	-9902
cervix	-9903
ergill	-9904
formul	-9905
infarc	-9906
osider	-9907
preken	-9908
sporen	-9909
▁Sterk	-9910
▁anale	-9911
▁clone	-9912
▁geimp	-9913
▁glaas	-9914
▁luidt	-9915
▁ogend	-9916
▁tyros	-9917
▁vezel	-9918
-02-15/	-9919
-07-17/	-9920
-09-16/	-9921
-10-15/	-9922
-10-16/	-9923
-11-14/	-9924
15,16);	-9925
15189).	-9926
Pipelle	-9927
RESPONS	-9928
fibrose	-9929
geleide	-9930
omatosa	-9931
omeScan	-9932
origine	-9933
orrelia	-9934
ringing	-9935
urettag	-9936
wendige	-9937
▁AANTAL	-9938
▁BUITEN	-9939
▁Granul	-9940
▁motiel	-9941
▁oudere	-9942
▁schuim	-9943
-02-16:[	-9944
-04-13:[	-9945
-06-16:[	-9946
-07-15:[	-9947
-08-13:[	-9948
Placenta	-9949
ibraries	-9950
omenteel	-9951
▁Onzeker	-9952
▁Reikend	-9953
▁Ventana	-9954
▁midline	-9955
▁oorrand	-9956
▁overall	-9957
▁valvula	-9958
▁vesikel	-9959
Besproken	-9960
Microscop	-9961
cellipoom	-9962
ditionele	-9963
sbewaking	-9964
verdeling	-9965
▁Douglasi	-9966
▁Kleuring	-9967
▁antilich	-9968
▁augustus	-9969
▁chemorad	-9970
▁genetica	-9971
▁herhaald	-9972
▁seminoom	-9973
▁solitair	-9974
▁spoelsel	-9975
▁superior	-9976
Definitief	-9977
Naaldbiopt	-9978
epidermaal	-9979
▁Anusbiopt	-9980
▁hoornlaag	-9981
▁introitus	-9982
▁leverkwab	-9983
huidexcisie	-9984
verhoornend	-9985
▁Aangevulde	-9986
▁PATHOLOGIE	-9987
▁inhibitors	-9988
▁irritatief	-9989
▁strekzijde	-9990
amplificatie	-9991
doorgemaakte	-9992
ppendectomie	-9993
▁Longbiopten	-9994
▁Lymfklieren	-9995
▁Lymfocytose	-9996
▁aangeleverd	-9997
▁aangesneden	-9998
▁diabetische	-9999
▁invaginatie	-10000
▁linkerflank	-10001
▁mastectomie	-10002
▁oppervlakte	-10003
▁respiratoir	-10004
▁tangentiele	-10005
slaboratorium	-10006
▁bloedstolsel	-10007
▁ijzerpigment	-10008
▁parasternaal	-10009
▁vastgestelde	-10010
▁xanthogranul	-10011
▁infarceringen	-10012
▁interpreteren	-10013
▁neoplastische	-10014
▁pseudolymfoom	-10015
Graderingsgroep	-10016
▁Weefselexcisie	-10017
▁mondslijmvlies	-10018
verantwoordelijk	-10019
▁intraepidermale	-10020
▁medebeoordeling	-10021
▁mesotheelcellen	-10022
+)	-10023
1⁄	-10024
VA	-10025
kl	-10026
to	-10027
12,	-10028
16[	-10029
1⁄4	-10030
6).	-10031
AAL	-10032
ADJ	-10033
EUS	-10034
IJE	-10035
MIN	-10036
TYH	-10037
Tel	-10038
anu	-10039
cot	-10040
emt	-10041
upu	-10042
▁IA	-10043
▁IP	-10044
▁LP	-10045
15-8	-10046
ANTE	-10047
RIJE	-10048
TUMP	-10049
abed	-10050
cave	-10051
ight	-10052
krap	-10053
olus	-10054
tief	-10055
uaal	-10056
▁(21	-10057
▁10,	-10058
▁11,	-10059
▁3,0	-10060
▁Bet	-10061
▁CIC	-10062
▁CSF	-10063
▁Hir	-10064
▁Lok	-10065
▁NRG	-10066
▁SRC	-10067
▁cas	-10068
▁var	-10069
22-14	-10070
ADJUV	-10071
Cover	-10072
adric	-10073
estis	-10074
fibro	-10075
iated	-10076
ichte	-10077
iemsa	-10078
lacht	-10079
lagen	-10080
mmers	-10081
oneus	-10082
oorde	-10083
upuyt	-10084
usion	-10085
▁2019	-10086
▁4+4=	-10087
▁band	-10088
▁dent	-10089
-2022[	-10090
achtig	-10091
cardia	-10092
ietaal	-10093
necrot	-10094
rictie	-10095
ullair	-10096
zoeken	-10097
▁Board	-10098
▁Links	-10099
▁MUTYH	-10100
▁antib	-10101
▁class	-10102
▁crani	-10103
▁driet	-10104
▁eigen	-10105
▁kapje	-10106
▁macro	-10107
▁peric	-10108
▁staaf	-10109
▁stans	-10110
-12-17/	-10111
distale	-10112
rombose	-10113
▁Hirsch	-10114
▁Totaal	-10115
▁atroph	-10116
▁beiden	-10117
▁beslag	-10118
▁contin	-10119
▁custom	-10120
▁ducten	-10121
▁fusies	-10122
▁gemeld	-10123
▁hierop	-10124
▁kapjes	-10125
▁kinase	-10126
▁nieren	-10127
▁schaam	-10128
▁sporen	-10129
▁sturen	-10130
▁suprac	-10131
▁vastus	-10132
▁vorige	-10133
-02-15:[	-10134
-03-16:[	-10135
-06-14:[	-10136
Coverage	-10137
MINIMALE	-10138
Radicaal	-10139
abiopsie	-10140
adriceps	-10141
blastoma	-10142
esionale	-10143
oblasten	-10144
ofytisch	-10145
preteerd	-10146
ropoiese	-10147
sentinel	-10148
sociatie	-10149
spoelsel	-10150
stoornis	-10151
upuytren	-10152
▁Celarme	-10153
▁Distale	-10154
▁Omentum	-10155
▁clonaal	-10156
▁hypoxie	-10157
▁ileitis	-10158
▁massaal	-10159
▁mindere	-10160
▁ongesch	-10161
▁osteomy	-10162
▁signaal	-10163
ADJUVANTE	-10164
bekleding	-10165
huidbiopt	-10166
hypertrof	-10167
oadenitis	-10168
stapeling	-10169
▁Perifeer	-10170
▁Primaire	-10171
▁biologie	-10172
▁bronchop	-10173
▁deleties	-10174
▁erfelijk	-10175
▁maagfund	-10176
▁partieel	-10177
▁pyoderma	-10178
▁separate	-10179
▁thyreoid	-10180
▁vaatwand	-10181
▁wellicht	-10182
Frequentie	-10183
Slijmvlies	-10184
aparenchym	-10185
artefacten	-10186
evindingen	-10187
isieranden	-10188
otemporaal	-10189
▁(*******:	-10190
▁Subcutaan	-10191
▁bespreken	-10192
▁foveolair	-10193
▁gesteelde	-10194
▁hoogstens	-10195
▁imponeert	-10196
▁insnijden	-10197
▁interfase	-10198
▁lateralis	-10199
▁libraries	-10200
▁longbiopt	-10201
▁medicatie	-10202
▁melanosis	-10203
▁parietale	-10204
▁relatieve	-10205
▁verslagen	-10206
▁vervallen	-10207
Lymfklieren	-10208
Perineurale	-10209
rotocollair	-10210
▁Gewijzigde	-10211
▁colectomie	-10212
▁cystevocht	-10213
▁incomplete	-10214
▁ligamentum	-10215
▁nasofarynx	-10216
▁receptoren	-10217
▁verbreding	-10218
▁verkalking	-10219
schouderblad	-10220
▁Dieptegroei	-10221
▁Ontstekings	-10222
▁discontinue	-10223
▁echogeleide	-10224
▁gedenudeerd	-10225
▁linkerslaap	-10226
▁monoclonaal	-10227
▁pancreatico	-10228
▁polyclonale	-10229
▁spoelcellig	-10230
▁stoornissen	-10231
▁verdringing	-10232
▁Cervixpoliep	-10233
▁Huidfragment	-10234
▁NEOADJUVANTE	-10235
▁degeneratief	-10236
▁mammapunctie	-10237
▁mesenchymaal	-10238
▁ontwikkeling	-10239
▁rechteroksel	-10240
▁Bronchusbiopt	-10241
▁osteomyelitis	-10242
-09-14/*******/	-10243
edifferentieerd	-10244
▁angioinvasieve	-10245
▁immunokleuring	-10246
▁osteochondroom	-10247
▁stromaceltumor	-10248
▁vaatstructuren	-10249
ranulatieweefsel	-10250
▁linkerbovenkwab	-10251
▁pseudodeciduale	-10252
▁representatieve	-10253
.2	-10254
.4	-10255
7)	-10256
9:	-10257
Al	-10258
CP	-10259
DA	-10260
SO	-10261
Th	-10262
iz	-10263
nr	-10264
/19	-10265
033	-10266
140	-10267
495	-10268
bot	-10269
cep	-10270
hyp	-10271
ilf	-10272
jsm	-10273
ldb	-10274
lux	-10275
pat	-10276
raa	-10277
spr	-10278
▁Ne	-10279
▁sm	-10280
-19:	-10281
/05/	-10282
/20:	-10283
15-0	-10284
assa	-10285
cess	-10286
cian	-10287
curr	-10288
iciA	-10289
mber	-10290
mine	-10291
ocus	-10292
opii	-10293
sner	-10294
▁(30	-10295
▁18,	-10296
▁7):	-10297
▁KDR	-10298
▁MRI	-10299
▁Moh	-10300
▁PSA	-10301
▁TCR	-10302
▁bem	-10303
▁mam	-10304
▁red	-10305
14-13	-10306
erken	-10307
evorm	-10308
iling	-10309
kolom	-10310
ocyst	-10311
roren	-10312
unica	-10313
▁70%.	-10314
▁Cyst	-10315
▁Disc	-10316
▁casu	-10317
▁dood	-10318
▁glom	-10319
▁glyc	-10320
▁like	-10321
▁lymp	-10322
▁meso	-10323
▁morp	-10324
▁nove	-10325
▁prog	-10326
▁vele	-10327
-2015[	-10328
-2016[	-10329
globul	-10330
ineuze	-10331
laimer	-10332
ologen	-10333
ormoon	-10334
▁Ziehl	-10335
▁durum	-10336
▁fotos	-10337
▁lepid	-10338
▁schat	-10339
▁zicht	-10340
▁̄dose	-10341
-03-17/	-10342
-09-17/	-10343
details	-10344
eilitis	-10345
infiltr	-10346
klieren	-10347
middels	-10348
traject	-10349
villeus	-10350
wachten	-10351
▁Afwijk	-10352
▁Kapsel	-10353
▁Lichen	-10354
▁beloop	-10355
▁chemie	-10356
▁hyperm	-10357
▁nodule	-10358
▁overla	-10359
▁portio	-10360
▁thymus	-10361
▁zygoma	-10362
-01-15:[	-10363
-07-13:[	-10364
-07-16:[	-10365
-09-13:[	-10366
-11-13:[	-10367
Mogelijk	-10368
effecten	-10369
gevoerde	-10370
keratine	-10371
minimale	-10372
ubulaire	-10373
ucocyten	-10374
xcideerd	-10375
▁Arteria	-10376
▁Incisie	-10377
▁Ondanks	-10378
▁cholest	-10379
▁desmoid	-10380
▁dystrof	-10381
▁erosief	-10382
▁gegener	-10383
▁purpura	-10384
blastaire	-10385
obectomie	-10386
proximaal	-10387
reexcisie	-10388
terminale	-10389
verteerde	-10390
▁SNIJVLAK	-10391
▁alopecie	-10392
▁entiteit	-10393
▁gerappor	-10394
▁haardjes	-10395
▁homogeen	-10396
▁metastas	-10397
▁november	-10398
▁omgevend	-10399
▁promoter	-10400
▁voetrand	-10401
▁wildtype	-10402
iologische	-10403
ircumcisie	-10404
▁Atypische	-10405
▁decollete	-10406
▁hamartoom	-10407
▁lithiasis	-10408
▁september	-10409
Maagbiopten	-10410
bevindingen	-10411
degeneratie	-10412
interstitiA	-10413
laviculaire	-10414
ocellularis	-10415
▁Extirpatie	-10416
▁Shavebiopt	-10417
▁contactall	-10418
▁focusscore	-10419
▁ingestuurd	-10420
▁literatuur	-10421
▁verstoorde	-10422
▁voorgaande	-10423
▁zaadcellen	-10424
rectosigmoid	-10425
superficieel	-10426
▁Perineurale	-10427
▁colorectale	-10428
▁gangreneuze	-10429
▁hydropische	-10430
▁linkeroksel	-10431
▁melanofagen	-10432
▁sarcomatoid	-10433
▁apoptotische	-10434
▁Hysterectomie	-10435
▁Mammapunctaat	-10436
▁comedonecrose	-10437
▁kratervormige	-10438
▁schimmelhyfen	-10439
▁sialoadenitis	-10440
▁teruggevonden	-10441
-06-15/*******/	-10442
▁hechtmateriaal	-10443
▁macroscopische	-10444
▁megakaryopoese	-10445
▁spoelcellipoom	-10446
▁subepitheliaal	-10447
▁plaveiselcellen	-10448
▁plaveiselcellig	-10449
82	-10450
AX	-10451
CE	-10452
DQ	-10453
FO	-10454
GA	-10455
OV	-10456
]4	-10457
pr	-10458
.3:	-10459
16,	-10460
23,	-10461
MAX	-10462
clu	-10463
eck	-10464
ilt	-10465
nas	-10466
net	-10467
▁3[	-10468
▁4)	-10469
▁43	-10470
▁44	-10471
▁5-	-10472
▁5/	-10473
▁<=	-10474
▁CA	-10475
▁Ha	-10476
▁bp	-10477
▁um	-10478
▁ww	-10479
-22:	-10480
-23:	-10481
/09/	-10482
0%)[	-10483
23-8	-10484
EBUS	-10485
Onco	-10486
alib	-10487
ariA	-10488
emia	-10489
erve	-10490
goed	-10491
ices	-10492
imab	-10493
mail	-10494
odig	-10495
sequ	-10496
udio	-10497
vaat	-10498
werk	-10499
zion	-10500
▁(>5	-10501
▁0.3	-10502
▁1),	-10503
▁11:	-10504
▁5):	-10505
▁Bcl	-10506
▁Ect	-10507
▁Ged	-10508
▁HNF	-10509
▁VER	-10510
▁ond	-10511
18-21	-10512
Immun	-10513
arran	-10514
ctive	-10515
eurys	-10516
omata	-10517
tegen	-10518
uncus	-10519
uptie	-10520
▁(4):	-10521
▁Bijn	-10522
▁FBXW	-10523
▁GIST	-10524
▁LVSI	-10525
▁ante	-10526
▁derg	-10527
▁epig	-10528
▁extr	-10529
▁kort	-10530
▁pect	-10531
-03-18	-10532
TRATIE	-10533
Verder	-10534
chatte	-10535
ekkage	-10536
essner	-10537
gement	-10538
hoogte	-10539
inosis	-10540
iteind	-10541
opulat	-10542
rimair	-10543
schade	-10544
sprung	-10545
undels	-10546
verage	-10547
zonden	-10548
▁14-10	-10549
▁DLBCL	-10550
▁Forse	-10551
▁Spier	-10552
▁Vocht	-10553
▁array	-10554
▁ddPCR	-10555
▁komen	-10556
▁labia	-10557
▁strip	-10558
▁techn	-10559
▁wenst	-10560
▁witte	-10561
-02-17/	-10562
-05-16/	-10563
-07-16/	-10564
-08-17/	-10565
-11-15/	-10566
Middels	-10567
allopii	-10568
arkeerd	-10569
aterale	-10570
estudio	-10571
heliale	-10572
ustumor	-10573
verslag	-10574
▁(90%),	-10575
▁Matige	-10576
▁bijeen	-10577
▁digiti	-10578
▁macula	-10579
▁multip	-10580
▁orient	-10581
▁partiA	-10582
▁pustel	-10583
-05-13:[	-10584
-05-14:[	-10585
-09-17:[	-10586
-11-14:[	-10587
beenmerg	-10588
elleboog	-10589
ucleatie	-10590
▁Abortus	-10591
▁Middels	-10592
▁Normale	-10593
▁achtige	-10594
▁blijven	-10595
▁ethmoid	-10596
▁humerus	-10597
▁migrans	-10598
▁ondanks	-10599
▁polycyt	-10600
▁present	-10601
▁vervolg	-10602
/*******[	-10603
annelijke	-10604
granuloom	-10605
leuringen	-10606
opulaties	-10607
tubulaire	-10608
▁Borrelia	-10609
▁Centraal	-10610
▁Invasief	-10611
▁Obductie	-10612
▁Stemband	-10613
▁anamnese	-10614
▁cardiale	-10615
▁gedeelte	-10616
▁indolent	-10617
▁somscore	-10618
▁tongpunt	-10619
▁tyrosine	-10620
▁verheven	-10621
METASTASEN	-10622
pretibiaal	-10623
roscopisch	-10624
▁Congorood	-10625
▁Dupuytren	-10626
▁dergelijk	-10627
▁dysmorfie	-10628
▁emfysemat	-10629
▁funiculus	-10630
▁hyalinose	-10631
▁ingeblokt	-10632
▁structuur	-10633
▁voorgrond	-10634
amniotische	-10635
arrangement	-10636
gemedieerde	-10637
oesofageale	-10638
uitbreiding	-10639
▁(*******).	-10640
▁Genestudio	-10641
▁Goedaardig	-10642
▁autoimmuun	-10643
▁bemoeilijk	-10644
▁dergelijke	-10645
▁incompleet	-10646
▁losliggend	-10647
▁ongeschikt	-10648
▁quadriceps	-10649
▁sequenties	-10650
domyosarcoom	-10651
etiginiseerd	-10652
geirriteerde	-10653
▁Ongewijzigd	-10654
▁diepreikend	-10655
▁endometroid	-10656
▁gangrenosum	-10657
▁onderzoeken	-10658
▁rechterknie	-10659
▁steenlijden	-10660
▁wervelkolom	-10661
▁Hirschsprung	-10662
▁endometriaal	-10663
▁excochleatie	-10664
▁ischaemische	-10665
▁mesotheliale	-10666
▁methylerings	-10667
▁thyreoiditis	-10668
▁carcinomatosa	-10669
▁dermatofibros	-10670
▁eerstvolgende	-10671
▁hoofdzakelijk	-10672
▁papillomateus	-10673
▁protocollaire	-10674
-08-14/*******/	-10675
▁anusslijmvlies	-10676
▁gelokaliseerde	-10677
▁interscapulair	-10678
▁intracavitaire	-10679
▁myocardinfarct	-10680
▁neuroendocrien	-10681
lymfklierexcisie	-10682
▁Ileumslijmvlies	-10683
▁huidsnijvlakken	-10684
.1	-10685
31	-10686
8[	-10687
ES	-10688
SP	-10689
ZN	-10690
bN	-10691
cd	-10692
dm	-10693
%)[	-10694
.22	-10695
.23	-10696
750	-10697
BRE	-10698
MAR	-10699
Mol	-10700
Ten	-10701
Thr	-10702
Tot	-10703
akk	-10704
hof	-10705
hvd	-10706
itm	-10707
toe	-10708
vel	-10709
▁55	-10710
▁AF	-10711
▁AR	-10712
▁AS	-10713
▁Ec	-10714
▁No	-10715
▁OS	-10716
▁Ok	-10717
▁Ul	-10718
▁Zw	-10719
▁ox	-10720
14):	-10721
14-1	-10722
22-7	-10723
CELL	-10724
MOLD	-10725
TIEK	-10726
ages	-10727
cott	-10728
etab	-10729
hans	-10730
ieze	-10731
krab	-10732
naad	-10733
nair	-10734
orie	-10735
pTaG	-10736
rang	-10737
rokk	-10738
vasc	-10739
▁2,6	-10740
▁6,5	-10741
▁CON	-10742
▁Nog	-10743
▁Van	-10744
▁bif	-10745
▁cry	-10746
▁mbv	-10747
▁mee	-10748
▁mei	-10749
▁pas	-10750
▁www	-10751
20-13	-10752
BREID	-10753
Bowen	-10754
ISOLE	-10755
angen	-10756
ermin	-10757
ileum	-10758
lijke	-10759
olemm	-10760
ompre	-10761
space	-10762
▁2022	-10763
▁KMBP	-10764
▁PTPN	-10765
▁Vaso	-10766
▁Vrij	-10767
▁aber	-10768
▁janu	-10769
▁neot	-10770
▁nest	-10771
▁rood	-10772
▁stim	-10773
▁vera	-10774
/2016:	-10775
2-11-1	-10776
CELLEN	-10777
alping	-10778
ertoli	-10779
etting	-10780
helder	-10781
koepel	-10782
oedeem	-10783
openie	-10784
oriale	-10785
oscler	-10786
sensus	-10787
▁24-08	-10788
▁3+3=6	-10789
▁Bench	-10790
▁Level	-10791
▁Omdat	-10792
▁penet	-10793
▁phyll	-10794
▁splij	-10795
▁zware	-10796
-04-17/	-10797
-05-17/	-10798
-11-17/	-10799
-12-16/	-10800
MolOnco	-10801
Neelsen	-10802
alazion	-10803
astumor	-10804
geleken	-10805
hotspot	-10806
membran	-10807
opcodon	-10808
remmers	-10809
ronisch	-10810
uberans	-10811
voorlip	-10812
▁Giemsa	-10813
▁Intern	-10814
▁Larynx	-10815
▁Linker	-10816
▁Sputum	-10817
▁Vacuum	-10818
▁gecomp	-10819
▁gestuw	-10820
▁merend	-10821
▁microp	-10822
▁second	-10823
-03-15:[	-10824
-09-16:[	-10825
amillair	-10826
apsulair	-10827
etabulum	-10828
hechting	-10829
melanoom	-10830
ventraal	-10831
▁Actieve	-10832
▁Epiderm	-10833
▁GEISOLE	-10834
▁Jessner	-10835
▁Mediast	-10836
▁Nergens	-10837
▁adenoma	-10838
▁aneurys	-10839
▁buisjes	-10840
▁evenwel	-10841
▁januari	-10842
▁omgeven	-10843
▁paramet	-10844
▁traumat	-10845
▁verdwij	-10846
▁waarden	-10847
iradenoom	-10848
ofytische	-10849
opathisch	-10850
othelioom	-10851
▁Beperkte	-10852
▁Celbeeld	-10853
▁Keratine	-10854
▁Pancreas	-10855
▁diabetes	-10856
▁membraan	-10857
▁myofibro	-10858
▁papulose	-10859
DEFINITIEF	-10860
SECTIEVLAK	-10861
aanvullend	-10862
achterwand	-10863
▁Brunnerse	-10864
▁aanvrager	-10865
▁afwachten	-10866
▁cheilitis	-10867
▁fasciitis	-10868
▁fibroaden	-10869
▁linkeroog	-10870
▁middelste	-10871
▁mondholte	-10872
▁patienten	-10873
▁stapeling	-10874
▁syringoom	-10875
▁transitie	-10876
▁zichtbaar	-10877
MolOncoPath	-10878
grootcellig	-10879
intestinaal	-10880
▁Disclaimer	-10881
▁Fragmenten	-10882
▁GenomeScan	-10883
▁abdominale	-10884
▁associatie	-10885
▁irregulair	-10886
▁linkerlies	-10887
Bovenstaande	-10888
Mammabiopten	-10889
bijvoorbeeld	-10890
▁DIAGNOSTIEK	-10891
▁GEISOLEERDE	-10892
▁TUMORCELLEN	-10893
▁antrumbiopt	-10894
▁bijeenkomst	-10895
▁doorgegeven	-10896
▁gynaecoloog	-10897
▁linkerborst	-10898
▁longbiopten	-10899
▁lymfangiect	-10900
▁micronoduli	-10901
▁talgklieren	-10902
▁zenuwvezels	-10903
▁Leverbiopsie	-10904
▁Longspoeling	-10905
▁Mammaweefsel	-10906
▁angiosarcoom	-10907
▁begeleidende	-10908
▁circumscript	-10909
▁lymfomatoide	-10910
▁rechterflank	-10911
▁tumorexcisie	-10912
▁zenuwweefsel	-10913
▁bodemsnijvlak	-10914
▁chemoradiatie	-10915
▁epitheelcyste	-10916
▁helicobacters	-10917
▁intramucosaal	-10918
-12-13/*******/	-10919
ingsstoornissen	-10920
▁Excisiebiopsie	-10921
▁condylomateuze	-10922
▁erythrocyturie	-10923
▁tumorcelkernen	-10924
receptorbepaling	-10925
▁MACROMETASTASEN	-10926
▁MICROMETASTASEN	-10927
▁adenomyomateuze	-10928
▁gecauteriseerde	-10929
▁kapseldoorbraak	-10930
▁linkeronderkwab	-10931
▁postmenopauzaal	-10932
.7	-10933
41	-10934
72	-10935
91	-10936
LD	-10937
cy	-10938
-1)	-10939
.2:	-10940
/02	-10941
14:	-10942
179	-10943
22[	-10944
545	-10945
ABL	-10946
CMV	-10947
FTA	-10948
IEP	-10949
NOD	-10950
TOT	-10951
bit	-10952
dup	-10953
fel	-10954
gat	-10955
ips	-10956
ker	-10957
lit	-10958
mes	-10959
onc	-10960
tak	-10961
tes	-10962
yla	-10963
▁6-	-10964
▁lo	-10965
▁pN	-10966
-125	-10967
-20:	-10968
16:[	-10969
17:[	-10970
23-5	-10971
FFPE	-10972
Nier	-10973
PRET	-10974
_005	-10975
anim	-10976
atel	-10977
edep	-10978
mond	-10979
pars	-10980
prof	-10981
wing	-10982
▁(3)	-10983
▁2+,	-10984
▁4).	-10985
▁CDX	-10986
▁NET	-10987
▁Nab	-10988
▁PLE	-10989
▁SWK	-10990
▁web	-10991
19-00	-10992
Grade	-10993
IEPTE	-10994
bloed	-10995
cieze	-10996
delet	-10997
eiwit	-10998
erste	-10999
gemen	-11000
hilus	-11001
ifere	-11002
ilair	-11003
iligo	-11004
massa	-11005
recht	-11006
stein	-11007
▁(1),	-11008
▁2021	-11009
▁4+3=	-11010
▁Gast	-11011
▁IFTA	-11012
▁LCIS	-11013
▁Risk	-11014
▁Tong	-11015
▁dens	-11016
▁gene	-11017
▁meen	-11018
▁mons	-11019
▁stam	-11020
-2020[	-11021
BRONCH	-11022
Intern	-11023
NODALE	-11024
TOTAAL	-11025
_00433	-11026
custom	-11027
emisch	-11028
glomer	-11029
iffuus	-11030
itheel	-11031
oralis	-11032
osynov	-11033
otomie	-11034
▁Crist	-11035
▁Diepe	-11036
▁VRIJE	-11037
▁cicat	-11038
▁drain	-11039
▁gecon	-11040
▁grove	-11041
▁korte	-11042
▁lager	-11043
▁major	-11044
▁ongew	-11045
▁parag	-11046
▁pleur	-11047
▁zweet	-11048
-12-15/	-11049
/2014.[	-11050
/2016.[	-11051
Celrijk	-11052
apillar	-11053
ariatie	-11054
blasten	-11055
centrum	-11056
contact	-11057
crement	-11058
digitus	-11059
lachten	-11060
uramine	-11061
uriteit	-11062
variant	-11063
▁Fusion	-11064
▁Rechts	-11065
▁Solide	-11066
▁gaande	-11067
▁gerang	-11068
▁hogere	-11069
▁hyster	-11070
▁mamman	-11071
▁plekje	-11072
▁poroom	-11073
▁scopie	-11074
▁steeds	-11075
▁tunica	-11076
-01-16:[	-11077
-02-13:[	-11078
-04-16:[	-11079
-05-15:[	-11080
BREIDING	-11081
Diameter	-11082
PRETATIE	-11083
centages	-11084
evorming	-11085
iliacaal	-11086
promoter	-11087
subcutis	-11088
zwelling	-11089
▁Besluit	-11090
▁Betreft	-11091
▁Epstein	-11092
▁Mortons	-11093
▁Rechter	-11094
▁breslow	-11095
▁grenzen	-11096
▁homozyg	-11097
▁kiemcel	-11098
▁slechte	-11099
▁truncus	-11100
▁veldjes	-11101
Dysplasie	-11102
TRANODALE	-11103
irculatie	-11104
italiteit	-11105
olytische	-11106
otiliteit	-11107
ructurele	-11108
thoracaal	-11109
verkregen	-11110
▁Meerdere	-11111
▁Sneevlak	-11112
▁abcessen	-11113
▁biopsien	-11114
▁clusters	-11115
▁coverage	-11116
▁dyskerat	-11117
▁eenderde	-11118
▁geperfor	-11119
▁medische	-11120
▁meenemen	-11121
▁nagelbed	-11122
▁optimale	-11123
▁predomin	-11124
▁sessiele	-11125
▁techniek	-11126
▁vitiligo	-11127
Pathologie	-11128
linkerwang	-11129
peritoneum	-11130
rumentatie	-11131
stansbiopt	-11132
unctionele	-11133
▁acuminata	-11134
▁chalazion	-11135
▁erytroide	-11136
▁hiernaast	-11137
▁medenemen	-11138
▁subtotale	-11139
▁synoviale	-11140
▁verlittek	-11141
▁Vasectomie	-11142
▁cervicitis	-11143
▁gelijkende	-11144
▁ingevroren	-11145
▁oncocytoom	-11146
▁onderzijde	-11147
▁stimulatie	-11148
▁thermische	-11149
▁tricholemm	-11150
▁vaginawand	-11151
▁vergeleken	-11152
ulairadenoom	-11153
▁(*******).[	-11154
▁Circumcisie	-11155
▁Gemarkeerde	-11156
▁coecumbodem	-11157
▁geserreerde	-11158
▁hepatocyten	-11159
▁posterieure	-11160
▁progesteron	-11161
▁protuberans	-11162
▁subcarinaal	-11163
▁verwijderen	-11164
interpreteerd	-11165
▁Mammabiopsie	-11166
▁breslowdikte	-11167
▁chromosomale	-11168
▁concentratie	-11169
▁geexcideerde	-11170
▁hemorragisch	-11171
▁klierbuisjes	-11172
▁neoterminale	-11173
▁opmerkelijke	-11174
▁porokeratose	-11175
▁protonpompre	-11176
▁samenhangend	-11177
▁medicamenteus	-11178
▁pigmentlaesie	-11179
-02-18/*******/	-11180
-05-14/*******/	-11181
Duodenumbiopten	-11182
▁desmoplastisch	-11183
▁ganglioncellen	-11184
▁gecauteriseerd	-11185
▁gemengdcellige	-11186
▁herschikkingen	-11187
▁instrumentatie	-11188
▁tubulusatrofie	-11189
▁Beenmergbiopsie	-11190
▁Hyperplastische	-11191
▁Oesophagusbiopt	-11192
▁extracapsulaire	-11193
▁hyperkeratotica	-11194
▁incidentiedatum	-11195
▁linkerventrikel	-11196
▁microcirculatie	-11197
02	-11198
1(	-11199
62	-11200
BQ	-11201
DK	-11202
IK	-11203
MM	-11204
RO	-11205
▁&	-11206
-2,	-11207
0.[	-11208
14.	-11209
15.	-11210
16.	-11211
17-	-11212
21,	-11213
746	-11214
Als	-11215
MAS	-11216
MOT	-11217
MSI	-11218
PRO	-11219
WER	-11220
alv	-11221
bas	-11222
hou	-11223
lor	-11224
was	-11225
▁*:	-11226
▁58	-11227
▁65	-11228
▁9.	-11229
▁CR	-11230
▁EN	-11231
▁MM	-11232
▁PL	-11233
▁ko	-11234
-9);	-11235
12-1	-11236
13-0	-11237
14-8	-11238
15-6	-11239
16-0	-11240
21-6	-11241
21-9	-11242
22-8	-11243
4).[	-11244
4):[	-11245
GIST	-11246
Plex	-11247
arts	-11248
elli	-11249
emur	-11250
etux	-11251
gere	-11252
heum	-11253
high	-11254
host	-11255
hout	-11256
iair	-11257
ical	-11258
ieme	-11259
itum	-11260
myel	-11261
naar	-11262
opor	-11263
tral	-11264
voer	-11265
zend	-11266
▁(28	-11267
▁(3,	-11268
▁(4+	-11269
▁(<1	-11270
▁12-	-11271
▁19,	-11272
▁7,5	-11273
▁Bul	-11274
▁Col	-11275
▁Cor	-11276
▁Dub	-11277
▁GBM	-11278
▁PAP	-11279
▁VAF	-11280
▁kit	-11281
▁out	-11282
▁ped	-11283
13-20	-11284
18-10	-11285
18-13	-11286
19-10	-11287
19-13	-11288
20-14	-11289
7,15,	-11290
MOTIL	-11291
Samen	-11292
acuut	-11293
egens	-11294
etens	-11295
lever	-11296
lioom	-11297
retro	-11298
snijd	-11299
uctie	-11300
ulcus	-11301
werkt	-11302
▁(>25	-11303
▁2012	-11304
▁CARD	-11305
▁Drie	-11306
▁Even	-11307
▁bind	-11308
▁host	-11309
▁immu	-11310
▁meeg	-11311
▁pTNM	-11312
-2014:	-11313
binnen	-11314
crasie	-11315
crista	-11316
entigo	-11317
geving	-11318
iddeld	-11319
inders	-11320
leolus	-11321
pansie	-11322
sgraad	-11323
weinig	-11324
wijfel	-11325
▁(0%).	-11326
▁15-10	-11327
▁24-07	-11328
▁Meest	-11329
▁Naast	-11330
▁Sweet	-11331
▁agens	-11332
▁exant	-11333
▁nucle	-11334
▁reuma	-11335
▁richt	-11336
-11-16/	-11337
-12-14/	-11338
-2014:[	-11339
Biopsie	-11340
ameters	-11341
atheter	-11342
bekende	-11343
dorsaal	-11344
elviene	-11345
erdacht	-11346
flexura	-11347
gemaakt	-11348
hagisch	-11349
ichting	-11350
lisatie	-11351
mammair	-11352
oleiomy	-11353
rotheel	-11354
schacht	-11355
skintag	-11356
uceerde	-11357
ypering	-11358
▁Eczeem	-11359
▁Hersen	-11360
▁Langer	-11361
▁Naboth	-11362
▁alsnog	-11363
▁benign	-11364
▁elkaar	-11365
▁etmoid	-11366
▁myxoom	-11367
▁overal	-11368
▁reanim	-11369
▁versie	-11370
-03-13:[	-11371
-03-17:[	-11372
-08-16:[	-11373
-12-15:[	-11374
ergillus	-11375
etuximab	-11376
iectomie	-11377
innemend	-11378
iopathie	-11379
itumumab	-11380
metingen	-11381
ocytosis	-11382
oplasmat	-11383
therapie	-11384
verander	-11385
▁(100%)[	-11386
▁Bijnier	-11387
▁BowenoA	-11388
▁Externe	-11389
▁Locatie	-11390
▁Tweetal	-11391
▁ablatie	-11392
▁commiss	-11393
▁immunop	-11394
▁lokatie	-11395
▁pijpjes	-11396
▁trachea	-11397
▁uiteind	-11398
cadherine	-11399
cluderend	-11400
conclusie	-11401
oblastair	-11402
olateraal	-11403
wenkbrauw	-11404
▁antibody	-11405
▁arteriol	-11406
▁geregist	-11407
▁lytische	-11408
▁maagwand	-11409
▁puncties	-11410
▁rechterm	-11411
▁relevant	-11412
▁tepelhof	-11413
▁verdient	-11414
7,15,18-21	-11415
MOTILITEIT	-11416
_000546.5:	-11417
oblastaire	-11418
overwegend	-11419
snijdingen	-11420
▁Administr	-11421
▁Verspreid	-11422
▁aangevuld	-11423
▁behandeld	-11424
▁biopteren	-11425
▁endotheel	-11426
▁exantheem	-11427
▁georganis	-11428
▁hemosider	-11429
▁indicatie	-11430
▁longembol	-11431
▁malleolus	-11432
▁pleuritis	-11433
▁polypeuze	-11434
▁prominent	-11435
▁substraat	-11436
▁tenosynov	-11437
-15/*******	-11438
Cytologisch	-11439
Methylation	-11440
involvement	-11441
nasolabiaal	-11442
oesofagitis	-11443
olliculaire	-11444
statectomie	-11445
▁(*******)[	-11446
▁Cystevocht	-11447
▁FusionPlex	-11448
▁Lobectomie	-11449
▁Urineblaas	-11450
▁acetabulum	-11451
▁capillaire	-11452
▁fibrinoide	-11453
▁getrombose	-11454
▁infestatie	-11455
▁oedemateus	-11456
▁paraffinec	-11457
▁parietalis	-11458
▁pathologen	-11459
▁pulmonalis	-11460
▁tubectomie	-11461
▁vasectomie	-11462
angioinvasie	-11463
ebeoordeling	-11464
▁afhankelijk	-11465
▁bemoeilijkt	-11466
▁extranodaal	-11467
▁hoofdcarina	-11468
▁inactivatie	-11469
▁structurele	-11470
▁subcorneale	-11471
Beenmergbiopt	-11472
Differentiaal	-11473
rangschikking	-11474
▁Pityrosporum	-11475
▁Polipectomie	-11476
▁angiomateuze	-11477
▁ascitesvocht	-11478
▁periadnexale	-11479
▁sclerotische	-11480
▁ziekenhuizen	-11481
ifferentieerde	-11482
linkerschouder	-11483
medicamenteuze	-11484
resectieranden	-11485
▁INTERPRETATIE	-11486
▁crustavorming	-11487
▁excisieranden	-11488
▁geinverteerde	-11489
▁intermediaire	-11490
▁ongemarkeerde	-11491
▁transuretrale	-11492
▁weefselstukje	-11493
-10-17/*******/	-11494
▁carcinosarcoom	-11495
▁intramusculair	-11496
▁myelodysplasie	-11497
▁*******-*******	-11498
▁Littekenweefsel	-11499
▁epidermoidcyste	-11500
▁geinterpreteerd	-11501
▁maagantrumbiopt	-11502
▁placentavlokken	-11503
▁restmaligniteit	-11504
BI	-11505
Cl	-11506
EX	-11507
Mb	-11508
NL	-11509
TB	-11510
eq	-11511
mA	-11512
-1,	-11513
-1:	-11514
-2)	-11515
18[	-11516
19[	-11517
21[	-11518
265	-11519
360	-11520
<25	-11521
Bot	-11522
DUC	-11523
Gro	-11524
MLH	-11525
OHS	-11526
SLL	-11527
_22	-11528
alg	-11529
fra	-11530
lis	-11531
meg	-11532
nap	-11533
osi	-11534
ote	-11535
sac	-11536
uni	-11537
▁).	-11538
▁48	-11539
▁fa	-11540
▁fe	-11541
▁ps	-11542
▁rh	-11543
/08/	-11544
/11/	-11545
23-1	-11546
ERON	-11547
GEST	-11548
MASS	-11549
STRO	-11550
_000	-11551
aalf	-11552
apar	-11553
dige	-11554
epar	-11555
fasc	-11556
ieve	-11557
inde	-11558
legm	-11559
leng	-11560
leur	-11561
opur	-11562
roeb	-11563
tijd	-11564
visc	-11565
▁(+/	-11566
▁(99	-11567
▁0.6	-11568
▁1/4	-11569
▁3,1	-11570
▁3,6	-11571
▁3,8	-11572
▁4,0	-11573
▁5),	-11574
▁CTC	-11575
▁FOX	-11576
▁Gec	-11577
▁MPL	-11578
▁Reg	-11579
▁alb	-11580
▁syn	-11581
▁tov	-11582
19-03	-11583
19-14	-11584
Coupe	-11585
Prova	-11586
alanx	-11587
allen	-11588
eming	-11589
ensie	-11590
epast	-11591
halen	-11592
hecht	-11593
herbe	-11594
ieren	-11595
iveau	-11596
kappa	-11597
lokte	-11598
oplak	-11599
otrop	-11600
plant	-11601
semin	-11602
stomp	-11603
uurde	-11604
virus	-11605
▁5%.[	-11606
▁Bart	-11607
▁Copy	-11608
▁IKMN	-11609
▁Morf	-11610
▁PeIN	-11611
▁TURT	-11612
▁Zoon	-11613
▁chor	-11614
▁clit	-11615
▁geel	-11616
▁juni	-11617
▁lues	-11618
▁neer	-11619
▁skin	-11620
▁vulv	-11621
▁wijs	-11622
Focaal	-11623
METING	-11624
OESTRO	-11625
_00498	-11626
alvans	-11627
echter	-11628
ginaal	-11629
ikking	-11630
itsing	-11631
lambda	-11632
loride	-11633
oesoph	-11634
ortion	-11635
search	-11636
staand	-11637
ummerd	-11638
versus	-11639
verval	-11640
vormig	-11641
wendig	-11642
▁100%.	-11643
▁2-4);	-11644
▁Groot	-11645
▁Hemat	-11646
▁Lapar	-11647
▁PDGFR	-11648
▁datab	-11649
▁groen	-11650
▁korst	-11651
▁lymph	-11652
▁mijns	-11653
-02-18/	-11654
-03-18/	-11655
-2023):	-11656
1-11-20	-11657
Diepere	-11658
INISCHE	-11659
MASSALE	-11660
PROGEST	-11661
ablatie	-11662
eculair	-11663
erzijds	-11664
gebreid	-11665
gemerkt	-11666
itzoide	-11667
krapste	-11668
oordeel	-11669
ositeit	-11670
▁(>5<25	-11671
▁Alcian	-11672
▁Binnen	-11673
▁Lokaal	-11674
▁Number	-11675
▁Transc	-11676
▁abnorm	-11677
▁cyclus	-11678
▁cystic	-11679
▁farynx	-11680
▁gemist	-11681
▁gevorm	-11682
▁iProva	-11683
▁intrat	-11684
▁ketens	-11685
▁koepel	-11686
▁medium	-11687
▁ribben	-11688
▁tekens	-11689
▁vacuum	-11690
-01-17:[	-11691
-12-13:[	-11692
GEWIJZIG	-11693
Volledig	-11694
biopsieA	-11695
bovenrug	-11696
icularis	-11697
megakary	-11698
seceerde	-11699
villeuze	-11700
▁Hiermee	-11701
▁Sertoli	-11702
▁bekeken	-11703
▁classif	-11704
▁convent	-11705
▁flardje	-11706
▁gemeten	-11707
▁hieraan	-11708
▁massale	-11709
▁paracol	-11710
▁progest	-11711
▁pseudop	-11712
▁twijfel	-11713
▁vermoed	-11714
electieve	-11715
legmoneus	-11716
▁Controle	-11717
▁Pericard	-11718
▁aankleur	-11719
▁afmeting	-11720
▁clitoris	-11721
▁discreet	-11722
▁kleinere	-11723
▁multiple	-11724
▁osteopor	-11725
▁verbrokk	-11726
▁vervette	-11727
▁voorhuid	-11728
▁webspace	-11729
OESTROGEEN	-11730
Stadiering	-11731
erilisatie	-11732
erkleuring	-11733
ochemische	-11734
populaties	-11735
sprieterig	-11736
ulovilleus	-11737
▁Resultaat	-11738
▁Ulceratie	-11739
▁afgegeven	-11740
▁bloedvaat	-11741
▁decalvans	-11742
▁ectopisch	-11743
▁genummerd	-11744
▁naschrift	-11745
▁onderdeel	-11746
▁ongebruik	-11747
▁splitsing	-11748
▁stopcodon	-11749
▁verdwijnt	-11750
▁̄dectomie	-11751
PROGESTERON	-11752
apillaritis	-11753
oxicodermie	-11754
▁Overwegend	-11755
▁alveolaris	-11756
▁arterioven	-11757
▁blaastumor	-11758
▁botvorming	-11759
▁fistelgang	-11760
▁giardiasis	-11761
▁granulatie	-11762
▁ileumbiopt	-11763
▁mannelijke	-11764
▁reanimatie	-11765
▁reticuline	-11766
▁tumorgroei	-11767
Amplificatie	-11768
inflammatoir	-11769
▁EXTRANODALE	-11770
▁Nierbiopsie	-11771
▁biopsiename	-11772
▁corpusbiopt	-11773
▁deficientie	-11774
▁implicaties	-11775
▁obturatoria	-11776
▁urotheliale	-11777
▁Mohsresectie	-11778
▁aangevraagde	-11779
▁glioblastoma	-11780
▁kiemceltumor	-11781
▁periorbitaal	-11782
▁rechterslaap	-11783
▁rechtszijdig	-11784
▁respiratoire	-11785
▁spoelvormige	-11786
▁traumatische	-11787
▁tubulopathie	-11788
granulomateuze	-11789
necrotiserende	-11790
▁appendectomie	-11791
▁bijnierschors	-11792
▁erythropoiese	-11793
▁geperforeerde	-11794
▁gerapporteerd	-11795
▁huidcurettage	-11796
▁incontinentie	-11797
▁microbiologie	-11798
▁mycobacterien	-11799
▁nierparenchym	-11800
▁paratracheaal	-11801
▁proliferaties	-11802
▁rearrangement	-11803
▁traumatisatie	-11804
▁tumordiameter	-11805
▁Bijschildklier	-11806
▁acantholytisch	-11807
▁celhyperplasie	-11808
▁littekengebied	-11809
▁retromamillair	-11810
▁schimmelsporen	-11811
Consultmateriaal	-11812
Revisiemateriaal	-11813
▁arteriosclerose	-11814
▁dermatitisbeeld	-11815
▁sigmoidresectie	-11816
![	-11817
%[	-11818
*[	-11819
/4	-11820
92	-11821
FD	-11822
SR	-11823
].	-11824
hc	-11825
yr	-11826
0):	-11827
14)	-11828
18)	-11829
18.	-11830
2)[	-11831
23.	-11832
24.	-11833
67.	-11834
Gen	-11835
IDH	-11836
NET	-11837
NFD	-11838
]4.	-11839
cem	-11840
duc	-11841
eal	-11842
sud	-11843
ulo	-11844
urk	-11845
urm	-11846
▁('	-11847
▁(=	-11848
▁46	-11849
▁7;	-11850
▁9:	-11851
▁Dd	-11852
▁VC	-11853
▁ik	-11854
▁mo	-11855
-12,	-11856
/06/	-11857
14-0	-11858
15-1	-11859
16-4	-11860
19-9	-11861
20-7	-11862
20-8	-11863
22-6	-11864
23);	-11865
6,7,	-11866
ENFD	-11867
LETZ	-11868
Link	-11869
Mede	-11870
brek	-11871
dder	-11872
drie	-11873
holm	-11874
iley	-11875
iose	-11876
isme	-11877
nion	-11878
ntie	-11879
onde	-11880
pert	-11881
pons	-11882
quam	-11883
sche	-11884
spre	-11885
woor	-11886
▁0.5	-11887
▁3-4	-11888
▁CVU	-11889
▁EPI	-11890
▁Ges	-11891
▁KIN	-11892
▁Mal	-11893
▁VCM	-11894
▁buc	-11895
▁dag	-11896
▁fij	-11897
▁har	-11898
▁lam	-11899
▁lij	-11900
▁opg	-11901
▁oph	-11902
▁pod	-11903
▁pus	-11904
▁vis	-11905
,6-10	-11906
15-00	-11907
15-13	-11908
16-19	-11909
18,21	-11910
IENFD	-11911
Steel	-11912
]2014	-11913
]2017	-11914
ablat	-11915
atoom	-11916
bulle	-11917
cline	-11918
diepe	-11919
enkel	-11920
ertie	-11921
hraal	-11922
ietak	-11923
ikels	-11924
kloon	-11925
kwand	-11926
orsie	-11927
ralis	-11928
rante	-11929
ratum	-11930
stans	-11931
terke	-11932
typen	-11933
▁(2,4	-11934
▁10%.	-11935
▁80%.	-11936
▁Krap	-11937
▁LiPA	-11938
▁Path	-11939
▁Post	-11940
▁Prox	-11941
▁SPEC	-11942
▁SSTR	-11943
▁blan	-11944
▁brug	-11945
▁dVIN	-11946
▁fiss	-11947
▁fraa	-11948
▁plus	-11949
▁rhab	-11950
▁smal	-11951
▁supr	-11952
▁vaak	-11953
▁week	-11954
▁zeld	-11955
-2017[	-11956
Cancer	-11957
Totaal	-11958
Tweede	-11959
ageaal	-11960
artila	-11961
aticum	-11962
extern	-11963
isitis	-11964
kelijk	-11965
omheen	-11966
pelijk	-11967
rolyse	-11968
stumor	-11969
vangen	-11970
▁2000[	-11971
▁Gelet	-11972
▁IENFD	-11973
▁Wordt	-11974
▁cutis	-11975
▁grill	-11976
▁jaren	-11977
▁meten	-11978
▁minor	-11979
▁neemt	-11980
▁perid	-11981
▁plave	-11982
,14,15,	-11983
Candida	-11984
DUCTALE	-11985
ablatio	-11986
andaard	-11987
arterie	-11988
bacteri	-11989
celrijk	-11990
herapie	-11991
lumbaal	-11992
omische	-11993
omyxoma	-11994
vattend	-11995
woordig	-11996
▁(2-4);	-11997
▁Atypie	-11998
▁Morton	-11999
▁PDGFRB	-12000
▁Volume	-12001
▁Wegens	-12002
▁aanged	-12003
▁aanlev	-12004
▁atrium	-12005
▁dienen	-12006
▁geleid	-12007
▁gemeen	-12008
▁intima	-12009
▁kanaal	-12010
▁konden	-12011
▁lipoid	-12012
▁myxoid	-12013
▁origin	-12014
▁scherp	-12015
▁twaalf	-12016
-01-13:[	-12017
-06-15:[	-12018
-10-13:[	-12019
-12-14:[	-12020
MAXIMALE	-12021
Maximale	-12022
Mutaties	-12023
Prognost	-12024
excisies	-12025
gebracht	-12026
grootste	-12027
partiele	-12028
soorzaak	-12029
variatie	-12030
vectomie	-12031
vezeling	-12032
▁Hiervan	-12033
▁Parotis	-12034
▁Verdere	-12035
▁dikwand	-12036
▁drietal	-12037
▁femoris	-12038
▁hemorro	-12039
▁junctie	-12040
▁minieme	-12041
▁neusgat	-12042
▁overlap	-12043
▁setting	-12044
▁thymoom	-12045
,14,18,21	-12046
6/*******	-12047
akeratose	-12048
chogeleid	-12049
ekleuring	-12050
epidermal	-12051
esteatoom	-12052
formulier	-12053
okeratine	-12054
okeratoom	-12055
oorschelp	-12056
opbrengst	-12057
operatief	-12058
overgangs	-12059
regressie	-12060
▁Bevestig	-12061
▁Vaginale	-12062
▁Verdacht	-12063
▁aantonen	-12064
▁androgen	-12065
▁biliaire	-12066
▁buismaag	-12067
▁darmwand	-12068
▁gemengde	-12069
▁grenzend	-12070
▁inversum	-12071
▁maagcard	-12072
▁overlegd	-12073
▁pleomorf	-12074
▁radiatie	-12075
▁targeted	-12076
▁verhoorn	-12077
Motiliteit	-12078
alibreerde	-12079
iolateraal	-12080
lowcytomet	-12081
oleiomyoom	-12082
▁Afwijking	-12083
▁Eventuele	-12084
▁Gradering	-12085
▁Subtotale	-12086
▁Uitstrijk	-12087
▁Vaginatop	-12088
▁achterste	-12089
▁atroficus	-12090
▁axillaire	-12091
▁buikholte	-12092
▁buitenste	-12093
▁chronicum	-12094
▁corticale	-12095
▁dominante	-12096
▁funisitis	-12097
▁hematopoA	-12098
▁hieronder	-12099
▁longtumor	-12100
▁polymorfe	-12101
▁recidiver	-12102
▁splijting	-12103
▁thermisch	-12104
▁vaginalis	-12105
▁verdeling	-12106
▁verstuurd	-12107
▁vesiculae	-12108
-16/*******	-12109
Huidbiopsie	-12110
Microscopie	-12111
Progressief	-12112
beiderzijds	-12113
laaggradige	-12114
malformatie	-12115
ontstekings	-12116
schappelijk	-12117
viscositeit	-12118
▁AANVULLING	-12119
▁Cholecyste	-12120
▁Hyperkerat	-12121
▁Okselklier	-12122
▁arterietak	-12123
▁bekledende	-12124
▁epidermaal	-12125
▁epiglottis	-12126
▁epitheloid	-12127
▁ischemisch	-12128
▁linkerknie	-12129
▁markerings	-12130
▁neerslagen	-12131
▁protonpomp	-12132
▁resterende	-12133
▁tumordikte	-12134
▁wijsvinger	-12135
7,15,18-21);	-12136
Concentratie	-12137
eiwitanalyse	-12138
homogeniteit	-12139
tegenwoordig	-12140
▁bovenstaand	-12141
▁capillairen	-12142
▁cylindercel	-12143
▁dysmegakary	-12144
▁epithelioid	-12145
▁mediaanlijn	-12146
▁nierweefsel	-12147
▁onverdachte	-12148
▁organisatie	-12149
▁presentatie	-12150
▁rechterlong	-12151
▁tuberculose	-12152
Classificatie	-12153
amenorroeduur	-12154
differentiaal	-12155
evocellularis	-12156
oppervlakkige	-12157
▁cytogenetica	-12158
▁mesenteriale	-12159
▁suppuratieve	-12160
▁verwantschap	-12161
,6-10,14,18,21	-12162
▁celpopulaties	-12163
▁cholesteatoom	-12164
▁emfysemateuze	-12165
▁immunoprofiel	-12166
▁metastasering	-12167
▁tumornegatief	-12168
-03-18/*******/	-12169
-06-16/*******/	-12170
-09-17/*******/	-12171
-10-14/*******/	-12172
-12-17/*******/	-12173
▁Hyperplastisch	-12174
▁Intraepidermal	-12175
▁differentiaald	-12176
▁immunotherapie	-12177
▁overeenkomstig	-12178
▁parotidectomie	-12179
Lymfklierpunctie	-12180
rechteronderbeen	-12181
▁Laparoscopische	-12182
▁biopsielitteken	-12183
▁cardiomyopathie	-12184
▁extracapillaire	-12185
▁testisparenchym	-12186
))	-12187
9)	-12188
Ch	-12189
Pv	-12190
eh	-12191
);[	-12192
.)[	-12193
10.	-12194
13,	-12195
138	-12196
19,	-12197
38.	-12198
6.[	-12199
719	-12200
9).	-12201
99.	-12202
Cad	-12203
EIN	-12204
KTE	-12205
LOH	-12206
LPA	-12207
MCL	-12208
OLG	-12209
POT	-12210
Pan	-12211
Seq	-12212
Tyr	-12213
VID	-12214
]4:	-12215
dur	-12216
ebs	-12217
geg	-12218
iol	-12219
ito	-12220
nea	-12221
oto	-12222
pTa	-12223
sus	-12224
tru	-12225
▁%)	-12226
▁+,	-12227
▁2;	-12228
▁75	-12229
▁BK	-12230
▁SF	-12231
▁Zo	-12232
▁kn	-12233
▁nl	-12234
-15:	-12235
1047	-12236
16-9	-12237
17-9	-12238
18-1	-12239
21-8	-12240
CHPv	-12241
GEPA	-12242
aant	-12243
anus	-12244
apex	-12245
edes	-12246
gren	-12247
heup	-12248
iche	-12249
iemb	-12250
lust	-12251
opoA	-12252
rijs	-12253
sein	-12254
▁(35	-12255
▁(4)	-12256
▁(40	-12257
▁+).	-12258
▁4,2	-12259
▁4,8	-12260
▁7.[	-12261
▁All	-12262
▁Fax	-12263
▁HMC	-12264
▁Hel	-12265
▁MEK	-12266
▁Mes	-12267
▁NHL	-12268
▁Non	-12269
▁PET	-12270
▁PIP	-12271
▁PTK	-12272
▁SDH	-12273
▁SNP	-12274
▁TMB	-12275
▁Wal	-12276
▁Zou	-12277
-18);	-12278
13-08	-12279
13-10	-12280
13-17	-12281
18-04	-12282
19-15	-12283
20-15	-12284
21-20	-12285
22-15	-12286
Vraag	-12287
Vulva	-12288
ather	-12289
denst	-12290
derom	-12291
elect	-12292
ident	-12293
oorte	-12294
samen	-12295
scent	-12296
sinus	-12297
ugger	-12298
wordt	-12299
▁(2),	-12300
▁(4);	-12301
▁3000	-12302
▁Beck	-12303
▁Chis	-12304
▁LSIL	-12305
▁MLPA	-12306
▁Syst	-12307
▁Veel	-12308
▁Webs	-12309
▁bijd	-12310
▁geop	-12311
▁loge	-12312
▁nodi	-12313
▁only	-12314
▁orch	-12315
▁pend	-12316
▁somm	-12317
▁stap	-12318
-2013:	-12319
Custom	-12320
Eerste	-12321
atherm	-12322
epaste	-12323
haemia	-12324
infect	-12325
ishman	-12326
itosen	-12327
labium	-12328
orgaan	-12329
ostase	-12330
ragend	-12331
raumat	-12332
roebel	-12333
uitein	-12334
ulosis	-12335
urkitt	-12336
vertex	-12337
waarde	-12338
werken	-12339
worden	-12340
▁15-04	-12341
▁16-03	-12342
▁2040,	-12343
▁5-10%	-12344
▁Sturm	-12345
▁brede	-12346
▁geinc	-12347
▁oblit	-12348
▁orbit	-12349
▁shift	-12350
▁sinds	-12351
▁steen	-12352
▁thans	-12353
/2015.[	-12354
18,23);	-12355
Tumoren	-12356
aadwerk	-12357
aginaal	-12358
ementen	-12359
erentie	-12360
figuren	-12361
iembaan	-12362
inctive	-12363
iserend	-12364
oxische	-12365
uterien	-12366
▁Andere	-12367
▁Mucosa	-12368
▁Stukje	-12369
▁Tonsil	-12370
▁aangem	-12371
▁acrale	-12372
▁infund	-12373
▁nasale	-12374
▁ogende	-12375
▁omslag	-12376
▁recurr	-12377
-02-18:[	-12378
-06-13:[	-12379
-06-17:[	-12380
-07-17:[	-12381
-07-2020	-12382
-12-16:[	-12383
Afdeling	-12384
_004333.	-12385
alanitis	-12386
ongeveer	-12387
rotische	-12388
spunctie	-12389
syndroom	-12390
tweemaal	-12391
▁Fibrose	-12392
▁Station	-12393
▁Tekenen	-12394
▁Volgens	-12395
▁Website	-12396
▁arterio	-12397
▁begrens	-12398
▁breedte	-12399
▁diepste	-12400
▁erosies	-12401
▁fixatie	-12402
▁floride	-12403
▁geboren	-12404
▁immuunt	-12405
▁incisie	-12406
▁leveren	-12407
▁periren	-12408
▁pyogeen	-12409
▁septale	-12410
▁species	-12411
▁spreken	-12412
▁troebel	-12413
Cadherine	-12414
Oesofagus	-12415
acteriele	-12416
dyscrasie	-12417
iddenkwab	-12418
oresectie	-12419
orrelatie	-12420
pathogene	-12421
testinale	-12422
vasculair	-12423
▁AFMETING	-12424
▁Alhoewel	-12425
▁Chisholm	-12426
▁Genetica	-12427
▁Hierdoor	-12428
▁Infectie	-12429
▁Malherbe	-12430
▁Minimaal	-12431
▁Radicale	-12432
▁Waldenst	-12433
▁apoptose	-12434
▁artefact	-12435
▁detectie	-12436
▁diastase	-12437
▁effecten	-12438
▁expansie	-12439
▁geinfarc	-12440
▁gesugger	-12441
▁hierdoor	-12442
▁immatuur	-12443
▁lamellen	-12444
▁pemfigus	-12445
▁slijmnap	-12446
▁suspecte	-12447
▁thrombus	-12448
Lymfeklier	-12449
helderheid	-12450
immuniteit	-12451
musculaire	-12452
oduodenale	-12453
overweging	-12454
turatorius	-12455
▁Overwogen	-12456
▁Proximale	-12457
▁Regionale	-12458
▁aangezien	-12459
▁diameters	-12460
▁gewijzigd	-12461
▁leukoplak	-12462
▁originele	-12463
▁orofarynx	-12464
▁overgaand	-12465
▁overgrijp	-12466
▁phyllodes	-12467
▁polypoide	-12468
▁spirochet	-12469
▁verdachts	-12470
-12,15,16);	-12471
achterzijde	-12472
angiopathie	-12473
constructie	-12474
henospermie	-12475
linkerzijde	-12476
ocapillaire	-12477
omorfologie	-12478
▁(*******),	-12479
▁Aspecifiek	-12480
▁Langerhans	-12481
▁Spierbiopt	-12482
▁aanvragend	-12483
▁blaasbodem	-12484
▁bovenzijde	-12485
▁bronchiaal	-12486
▁cholestase	-12487
▁cribriform	-12488
▁cytoplasma	-12489
▁eosinofiel	-12490
▁flegmoneus	-12491
▁ingeblokte	-12492
▁ingesneden	-12493
▁ingevangen	-12494
▁laesionaal	-12495
▁linkerlong	-12496
▁losgelegen	-12497
▁mammabiopt	-12498
▁myxofibros	-12499
erapeutische	-12500
histiocytair	-12501
parakeratose	-12502
radiologisch	-12503
▁Cystectomie	-12504
▁Laaggradige	-12505
▁Vriescoupes	-12506
▁condylomata	-12507
▁doorgemaakt	-12508
▁funiculitis	-12509
▁gedilateerd	-12510
▁histiocyten	-12511
▁immunologie	-12512
▁necrobiosis	-12513
▁pankeratine	-12514
▁pseudocyste	-12515
▁rechtervoet	-12516
▁weefselstuk	-12517
evenbevinding	-12518
▁Appendicitis	-12519
▁Vulvabiopten	-12520
▁corpusmucosa	-12521
▁herschikking	-12522
▁lymffollikel	-12523
▁neuspoliepen	-12524
▁ondergelegen	-12525
▁rechterborst	-12526
▁sterilisatie	-12527
,14,15,18,23);	-12528
linkerbovenarm	-12529
▁Cristabiopsie	-12530
▁basissnijvlak	-12531
▁intracavitair	-12532
▁oorschelprand	-12533
▁overgangszone	-12534
▁pericardvocht	-12535
▁tenosynoviale	-12536
▁tricholemmale	-12537
▁zwangerschaps	-12538
-02-15/*******/	-12539
-03-16/*******/	-12540
Prostaatbiopten	-12541
linkeronderbeen	-12542
▁Neusslijmvlies	-12543
▁excisiebiopten	-12544
▁geregistreerde	-12545
▁ijzerdepositie	-12546
▁ijzerstapeling	-12547
▁ongebruikelijk	-12548
▁subclaviculair	-12549
▁tumormateriaal	-12550
,6-10,14,18,21);	-12551
rechterbovenbeen	-12552
supraclaviculair	-12553
▁Administratieve	-12554
▁Uteruscurettage	-12555
▁desmoplastische	-12556
▁maagcorpusbiopt	-12557
▁vertegenwoordig	-12558
':	-12559
*,	-12560
5[	-12561
Is	-12562
Mx	-12563
Nx	-12564
PL	-12565
We	-12566
XI	-12567
bn	-12568
go	-12569
nh	-12570
sb	-12571
tt	-12572
105	-12573
108	-12574
13-	-12575
14[	-12576
15[	-12577
17[	-12578
20.	-12579
23)	-12580
7),	-12581
7).	-12582
75)	-12583
75.	-12584
EBV	-12585
GUS	-12586
MIS	-12587
NIE	-12588
ORD	-12589
PGM	-12590
SUL	-12591
TVU	-12592
ati	-12593
ble	-12594
elk	-12595
han	-12596
kan	-12597
mic	-12598
ock	-12599
oot	-12600
rit	-12601
▁6/	-12602
▁7/	-12603
▁BH	-12604
▁Hp	-12605
▁NF	-12606
▁PP	-12607
▁TR	-12608
▁XI	-12609
▁im	-12610
▁mb	-12611
-17:	-12612
-23[	-12613
/07/	-12614
/12/	-12615
13-7	-12616
15):	-12617
15-7	-12618
15:[	-12619
16-6	-12620
18-6	-12621
20-9	-12622
22-9	-12623
263)	-12624
90):	-12625
DAKO	-12626
IMEN	-12627
Prot	-12628
alle	-12629
ancy	-12630
arte	-12631
atoe	-12632
ator	-12633
doet	-12634
eryt	-12635
hode	-12636
huis	-12637
lein	-12638
lode	-12639
maar	-12640
mult	-12641
ofag	-12642
oond	-12643
tong	-12644
uVIN	-12645
ysis	-12646
▁12:	-12647
▁2/3	-12648
▁38:	-12649
▁5).	-12650
▁<5%	-12651
▁ATR	-12652
▁LAB	-12653
▁MED	-12654
▁PCC	-12655
▁SjA	-12656
▁Thy	-12657
▁WDP	-12658
▁aur	-12659
▁cre	-12660
▁del	-12661
▁fys	-12662
▁hoe	-12663
▁mij	-12664
▁nag	-12665
▁ort	-12666
▁pir	-12667
="160	-12668
Clone	-12669
DIKTE	-12670
ERIGE	-12671
MARGE	-12672
aalde	-12673
abdom	-12674
ativa	-12675
chrom	-12676
ecidu	-12677
endym	-12678
helft	-12679
inion	-12680
inoom	-12681
orrag	-12682
osits	-12683
pport	-12684
ylact	-12685
▁(14/	-12686
▁(3),	-12687
▁5%).	-12688
▁6495	-12689
▁90%.	-12690
▁BRIP	-12691
▁CDLE	-12692
▁CISH	-12693
▁Dens	-12694
▁FOXL	-12695
▁PALB	-12696
▁RICC	-12697
▁Reed	-12698
▁acne	-12699
▁amel	-12700
▁dele	-12701
▁doel	-12702
▁glan	-12703
▁hern	-12704
▁kind	-12705
▁late	-12706
▁sect	-12707
▁stag	-12708
▁stro	-12709
▁synd	-12710
▁tool	-12711
▁weer	-12712
▁wilt	-12713
-2013[	-12714
-2014[	-12715
/2015:	-12716
DIEPTE	-12717
Proton	-12718
]21-10	-12719
abiele	-12720
cavaal	-12721
cutane	-12722
gelaat	-12723
ionaal	-12724
itiele	-12725
itmest	-12726
muraal	-12727
ocytic	-12728
ontane	-12729
rachus	-12730
ractie	-12731
repres	-12732
richts	-12733
romale	-12734
rommel	-12735
stijds	-12736
ugeerd	-12737
undair	-12738
▁(1+).	-12739
▁(90%)	-12740
▁11-10	-12741
▁14-09	-12742
▁21-10	-12743
▁Aorta	-12744
▁Ewing	-12745
▁Reikt	-12746
▁Stans	-12747
▁Ultra	-12748
▁excid	-12749
▁exsud	-12750
▁haren	-12751
▁loopt	-12752
▁monot	-12753
▁onged	-12754
▁polyk	-12755
▁react	-12756
▁rheum	-12757
▁small	-12758
▁varia	-12759
▁verse	-12760
-01-18/	-12761
-02-13/	-12762
-09-14/	-12763
-12-13/	-12764
GEPASTE	-12765
afstand	-12766
aortale	-12767
bundels	-12768
cysteus	-12769
dorsale	-12770
erflank	-12771
erschap	-12772
illaire	-12773
kleppen	-12774
matumor	-12775
mentaar	-12776
riciele	-12777
sistent	-12778
spreide	-12779
waarden	-12780
▁Dieper	-12781
▁Immuno	-12782
▁LABPON	-12783
▁Portio	-12784
▁Tenzij	-12785
▁access	-12786
▁blanco	-12787
▁carina	-12788
▁comedo	-12789
▁indruk	-12790
▁intens	-12791
▁minisc	-12792
▁plekke	-12793
▁renaal	-12794
▁sneden	-12795
▁telken	-12796
▁vaatst	-12797
▁veldje	-12798
▁vierde	-12799
▁volair	-12800
-07-14:[	-12801
Botbiopt	-12802
Punctaat	-12803
bedraagt	-12804
bevestig	-12805
epresent	-12806
ereikend	-12807
gewricht	-12808
lassieke	-12809
mammaire	-12810
sentumor	-12811
standige	-12812
stations	-12813
▁Bladder	-12814
▁Kliniek	-12815
▁Wassing	-12816
▁adhesie	-12817
▁bilnaad	-12818
▁digitum	-12819
▁klonale	-12820
▁mucosae	-12821
▁opinion	-12822
▁plaques	-12823
▁puntige	-12824
▁rapport	-12825
▁sommige	-12826
▁urachus	-12827
▁voorbij	-12828
▁waarmee	-12829
▁zijwaar	-12830
KLINISCHE	-12831
Nierbiopt	-12832
Ulceratie	-12833
beoordeel	-12834
crementen	-12835
ethylatie	-12836
globuline	-12837
granuloma	-12838
omucosale	-12839
velstreng	-12840
▁Excisies	-12841
▁Hiervoor	-12842
▁afspraak	-12843
▁bewaarde	-12844
▁driemaal	-12845
▁elastine	-12846
▁grillige	-12847
▁insertie	-12848
▁kiembaan	-12849
▁ovarieel	-12850
▁staafjes	-12851
▁tumoraal	-12852
▁zenuwtak	-12853
Oesophagus	-12854
glandulair	-12855
granulomen	-12856
lodestumor	-12857
voorlopige	-12858
▁*******),	-12859
▁GEWIJZIGD	-12860
▁aangepast	-12861
▁excideren	-12862
▁gefibrose	-12863
▁geschatte	-12864
▁ingescand	-12865
▁richtlijn	-12866
▁seminalis	-12867
▁tubulitis	-12868
binnenzijde	-12869
uitstrijken	-12870
▁*******).[	-12871
▁Myometrium	-12872
▁bekkenwand	-12873
▁belangrijk	-12874
▁blaasbiopt	-12875
▁classifier	-12876
▁cryoglobul	-12877
▁destructie	-12878
▁dikwandige	-12879
▁fibrinedep	-12880
▁fibrinopur	-12881
▁genetische	-12882
▁homozygote	-12883
▁leverhilus	-12884
▁mammatumor	-12885
▁merendeels	-12886
▁omliggende	-12887
▁regressief	-12888
▁synoviitis	-12889
▁Colonpoliep	-12890
▁DisclaimerA	-12891
▁Rectumbiopt	-12892
▁Waldenstrom	-12893
▁antilichaam	-12894
▁blaaskoepel	-12895
▁buitenzijde	-12896
▁lipomatosus	-12897
▁omslagplooi	-12898
▁placentabed	-12899
▁vrouwelijke	-12900
overgangszone	-12901
pathologische	-12902
▁Rectosigmoid	-12903
▁bloedvaatjes	-12904
▁capillaritis	-12905
▁cilindrische	-12906
▁endometritis	-12907
▁epithelioide	-12908
▁incisiebiopt	-12909
▁mediastinaal	-12910
▁voorgestelde	-12911
celhyperplasie	-12912
▁Microscopisch	-12913
▁Tubulovilleus	-12914
▁androgenetica	-12915
▁angiokeratoom	-12916
▁conventioneel	-12917
▁granulomateus	-12918
▁immuuncomplex	-12919
▁multinodulair	-12920
▁orchidectomie	-12921
▁pleurabiopten	-12922
▁polycythaemia	-12923
▁subepidermaal	-12924
▁vermoedelijke	-12925
-08-17/*******/	-12926
rechterschouder	-12927
▁Dermatofibroom	-12928
▁Gefragmenteerd	-12929
▁angioleiomyoom	-12930
▁architecturale	-12931
▁differentiated	-12932
▁epitheelatypie	-12933
▁herbeoordeling	-12934
▁Peritoneumbiopt	-12935
▁antrumgastritis	-12936
▁bronchusbiopten	-12937
▁frontotemporaal	-12938
▁genamplificatie	-12939
▁glomerulopathie	-12940
▁gynaecologische	-12941
▁oesophagusbiopt	-12942
▁vasculitisbeeld	-12943
".	-12944
(2	-12945
/2	-12946
?.	-12947
Li	-12948
TS	-12949
TZ	-12950
jz	-12951
nb	-12952
’/	-12953
103	-12954
116	-12955
146	-12956
21.	-12957
26,	-12958
273	-12959
50)	-12960
7.[	-12961
9),	-12962
9.[	-12963
ATS	-12964
Ile	-12965
TIC	-12966
]5.	-12967
ash	-12968
ias	-12969
kte	-12970
lig	-12971
occ	-12972
uin	-12973
ukt	-12974
utt	-12975
▁%,	-12976
▁Du	-12977
▁IU	-12978
▁RA	-12979
▁TE	-12980
▁eo	-12981
▁pa	-12982
▁ph	-12983
▁po	-12984
▁up	-12985
-14:	-12986
.182	-12987
1):[	-12988
10),	-12989
14-6	-12990
19):	-12991
19-8	-12992
20):	-12993
23):	-12994
746_	-12995
?).[	-12996
Aard	-12997
Hier	-12998
MPUS	-12999
Rect	-13000
SULT	-13001
acin	-13002
alie	-13003
alum	-13004
arme	-13005
diam	-13006
ever	-13007
heer	-13008
ixed	-13009
land	-13010
ppel	-13011
raam	-13012
reun	-13013
tegr	-13014
tiel	-13015
tuba	-13016
uken	-13017
week	-13018
▁(27	-13019
▁15%	-13020
▁16:	-13021
▁2,9	-13022
▁5%)	-13023
▁8):	-13024
▁Cil	-13025
▁Exc	-13026
▁IGH	-13027
▁LBQ	-13028
▁LMS	-13029
▁Ley	-13030
▁MIB	-13031
▁MZH	-13032
▁Mac	-13033
▁PSC	-13034
▁enc	-13035
▁fac	-13036
▁fec	-13037
▁rab	-13038
13-14	-13039
14-10	-13040
15-14	-13041
16-15	-13042
16-16	-13043
17-10	-13044
18-14	-13045
18-20	-13046
19-16	-13047
21-04	-13048
22-13	-13049
23-10	-13050
23-20	-13051
Clark	-13052
NSAID	-13053
ageen	-13054
akket	-13055
alans	-13056
ellum	-13057
gaand	-13058
ialis	-13059
quorp	-13060
vulva	-13061
yroid	-13062
▁(+/-	-13063
▁20%.	-13064
▁60%.	-13065
▁Chol	-13066
▁Gram	-13067
▁Hemi	-13068
▁LETZ	-13069
▁MGUS	-13070
▁cMYC	-13071
▁lijn	-13072
▁mild	-13073
▁ovar	-13074
▁pTis	-13075
▁pink	-13076
▁reak	-13077
▁tien	-13078
Basale	-13079
Uterus	-13080
alings	-13081
asperm	-13082
bulbus	-13083
gebeld	-13084
gedraa	-13085
gevoeg	-13086
ierend	-13087
ignaal	-13088
olking	-13089
oxisch	-13090
rectie	-13091
retage	-13092
ubeerd	-13093
ureter	-13094
wijzen	-13095
▁(1400	-13096
▁08-08	-13097
▁15-06	-13098
▁2014:	-13099
▁26-03	-13100
▁Fiber	-13101
▁LLETZ	-13102
▁Nerve	-13103
▁Niets	-13104
▁aldus	-13105
▁apart	-13106
▁colum	-13107
▁invas	-13108
▁jonge	-13109
▁kloon	-13110
▁pneum	-13111
▁preex	-13112
▁serum	-13113
▁tatoe	-13114
▁valse	-13115
▁vlekk	-13116
▁vries	-13117
▁zeven	-13118
-2018):	-13119
Mandard	-13120
betrouw	-13121
breking	-13122
clusies	-13123
colitis	-13124
ereerde	-13125
functie	-13126
iniaire	-13127
kristal	-13128
laesies	-13129
ometrie	-13130
parotis	-13131
sarcoom	-13132
vaardig	-13133
▁Elders	-13134
▁Lipoom	-13135
▁Testis	-13136
▁areola	-13137
▁berust	-13138
▁gevuld	-13139
▁ingang	-13140
▁morpha	-13141
▁opgave	-13142
▁opname	-13143
▁overig	-13144
▁punten	-13145
▁synovi	-13146
▁triple	-13147
▁uiteen	-13148
▁vormen	-13149
▁zeggen	-13150
-02-17:[	-13151
-05-16:[	-13152
-10-16:[	-13153
-11-16:[	-13154
-12-19:[	-13155
Slokdarm	-13156
derhalve	-13157
elevante	-13158
hotspots	-13159
lottisch	-13160
ocaecaal	-13161
ovariele	-13162
ulmonale	-13163
voergang	-13164
ytologie	-13165
▁Bauhini	-13166
▁Density	-13167
▁Grocott	-13168
▁benigna	-13169
▁breuken	-13170
▁cryptde	-13171
▁eerstel	-13172
▁flarden	-13173
▁mastoid	-13174
▁pilaris	-13175
▁pustels	-13176
▁stratum	-13177
▁subtiel	-13178
bacterien	-13179
reuninger	-13180
▁Curettag	-13181
▁Lipbiopt	-13182
▁Negatief	-13183
▁SPECIMEN	-13184
▁Tweemaal	-13185
▁Voorstel	-13186
▁daadwerk	-13187
▁daarvoor	-13188
▁dubieuze	-13189
▁getracht	-13190
▁gevormde	-13191
▁occlusie	-13192
▁omsneden	-13193
▁overheer	-13194
▁polypoid	-13195
▁potentie	-13196
▁retentie	-13197
▁uitloper	-13198
▁vaatrijk	-13199
▁vaginose	-13200
▁voorvoet	-13201
Bacteriele	-13202
epithelial	-13203
lonaliteit	-13204
membraneus	-13205
occipitaal	-13206
paranasaal	-13207
▁Dysplasie	-13208
▁Hypertrof	-13209
▁Procedure	-13210
▁aberrante	-13211
▁aneurysma	-13212
▁antihelix	-13213
▁balanitis	-13214
▁bovenpool	-13215
▁daaronder	-13216
▁eigenlijk	-13217
▁feitelijk	-13218
▁follikels	-13219
▁gecentrif	-13220
▁getraumat	-13221
▁helixrand	-13222
▁hemithyre	-13223
▁hepaticus	-13224
▁inflammat	-13225
▁lesionaal	-13226
▁lipoidica	-13227
▁marginaal	-13228
▁opgemerkt	-13229
▁opgenomen	-13230
▁processus	-13231
▁standaard	-13232
Predictieve	-13233
allergische	-13234
moleculaire	-13235
perineurale	-13236
reticulaire	-13237
▁Bespreking	-13238
▁Botbiopten	-13239
▁allergisch	-13240
▁behandelen	-13241
▁bestraling	-13242
▁cerebellum	-13243
▁conclusieI	-13244
▁glomerulus	-13245
▁ingebracht	-13246
▁methylatie	-13247
▁orientatie	-13248
▁pustulaire	-13249
▁radiologie	-13250
▁rechterbil	-13251
▁rechteroog	-13252
▁somatische	-13253
▁suprasperm	-13254
▁toereikend	-13255
▁uitbreiden	-13256
Histologisch	-13257
aangetroffen	-13258
extravasatie	-13259
hepatectomie	-13260
ocytologisch	-13261
omonocytaire	-13262
spierweefsel	-13263
▁Bevindingen	-13264
▁Ileocoecaal	-13265
▁additionele	-13266
▁clonaliteit	-13267
▁geincubeerd	-13268
▁gevalideerd	-13269
▁panitumumab	-13270
▁rechtzijdig	-13271
▁tumorproces	-13272
▁vervezeling	-13273
Vraagstelling	-13274
beenmergbiopt	-13275
ecidualiseerd	-13276
gekalibreerde	-13277
▁Aanwijzingen	-13278
▁Excochleatie	-13279
▁Normospermie	-13280
▁Voornamelijk	-13281
▁cicatriciele	-13282
▁leverbiopten	-13283
▁lymfkliertje	-13284
▁maagovergang	-13285
▁neoadjuvante	-13286
▁pseudomyxoma	-13287
▁scleroserend	-13288
▁uiteindelijk	-13289
onderverdeling	-13290
▁Anusuitstrijk	-13291
▁Cervixbiopsie	-13292
▁Coecumbiopten	-13293
▁Pericardvocht	-13294
▁Transplantaat	-13295
▁ameloblastoom	-13296
▁berichtgeving	-13297
▁cryptabcesjes	-13298
▁halslymfklier	-13299
▁hysterectomie	-13300
▁markerpatroon	-13301
▁transplantaat	-13302
-01-16/*******/	-13303
-06-17/*******/	-13304
-07-16/*******/	-13305
▁Microcurettage	-13306
▁georganiseerde	-13307
▁pancreasstaart	-13308
▁phyllodestumor	-13309
olkingsonderzoek	-13310
ologiebespreking	-13311
▁Medebeoordeling	-13312
▁Synoviumbiopten	-13313
▁gecentrifugeerd	-13314
▁hepatoduodenale	-13315
▁ijzerdeposities	-13316
▁lymfadenectomie	-13317
▁naevuscelnaevus	-13318
▁retroperitoneum	-13319
▁tubulairadenoom	-13320
▁vaatmalformatie	-13321
42	-13322
5=	-13323
BP	-13324
CK	-13325
En	-13326
az	-13327
cN	-13328
pH	-13329
▁y	-13330
-25	-13331
-50	-13332
.10	-13333
12.	-13334
208	-13335
23[	-13336
25.	-13337
4.[	-13338
542	-13339
70)	-13340
80.	-13341
?),	-13342
CEN	-13343
COR	-13344
HPF	-13345
Lab	-13346
PIK	-13347
RAL	-13348
Sec	-13349
Str	-13350
WSR	-13351
chy	-13352
dag	-13353
dan	-13354
inx	-13355
ogn	-13356
plg	-13357
seb	-13358
tse	-13359
uig	-13360
umm	-13361
wal	-13362
ypt	-13363
▁%.	-13364
▁%[	-13365
▁1;	-13366
▁42	-13367
▁Ap	-13368
▁IR	-13369
▁Ib	-13370
▁Ir	-13371
▁Of	-13372
▁Pr	-13373
▁bh	-13374
▁vd	-13375
▁vs	-13376
-18:	-13377
-20%	-13378
-3);	-13379
/10/	-13380
16-7	-13381
18):	-13382
2):[	-13383
6).[	-13384
MGMT	-13385
Roch	-13386
_033	-13387
adiA	-13388
aker	-13389
ally	-13390
ateg	-13391
auto	-13392
ceus	-13393
gene	-13394
hing	-13395
idus	-13396
iter	-13397
node	-13398
onei	-13399
onse	-13400
oron	-13401
oste	-13402
ress	-13403
toge	-13404
unch	-13405
uzet	-13406
weeg	-13407
▁%)[	-13408
▁(50	-13409
▁1.5	-13410
▁4,3	-13411
▁6,0	-13412
▁7,2	-13413
▁<1%	-13414
▁AIN	-13415
▁EIF	-13416
▁Gal	-13417
▁IGK	-13418
▁MCP	-13419
▁Mon	-13420
▁Neu	-13421
▁Vet	-13422
▁acc	-13423
▁asc	-13424
▁sur	-13425
▁tem	-13426
▁tum	-13427
21-16	-13428
Blaas	-13429
GROEI	-13430
Regio	-13431
Roche	-13432
asien	-13433
beker	-13434
dylla	-13435
entro	-13436
ergie	-13437
evalu	-13438
gerij	-13439
group	-13440
ivert	-13441
penis	-13442
radit	-13443
ratio	-13444
toont	-13445
trial	-13446
ureel	-13447
vulus	-13448
▁(1,5	-13449
▁02-1	-13450
▁100.	-13451
▁40%.	-13452
▁50%.	-13453
▁ARAF	-13454
▁ATRX	-13455
▁Beta	-13456
▁LORD	-13457
▁Mass	-13458
▁PERI	-13459
▁anat	-13460
▁beta	-13461
▁flat	-13462
▁grof	-13463
▁gutt	-13464
▁hiel	-13465
▁left	-13466
▁lute	-13467
▁meng	-13468
▁olig	-13469
▁oogt	-13470
▁site	-13471
▁subg	-13472
▁trab	-13473
▁tran	-13474
ELTUMP	-13475
alpinx	-13476
arynge	-13477
eeling	-13478
eerste	-13479
emming	-13480
fascie	-13481
icolor	-13482
niones	-13483
omonas	-13484
osilic	-13485
pancre	-13486
ruppel	-13487
schikt	-13488
undarm	-13489
▁08-03	-13490
▁12-07	-13491
▁13-08	-13492
▁21-04	-13493
▁Bloed	-13494
▁Femur	-13495
▁Zowel	-13496
▁fijne	-13497
▁hydat	-13498
▁hyfen	-13499
▁impet	-13500
▁juven	-13501
▁lapar	-13502
▁large	-13503
▁lucht	-13504
▁mixed	-13505
▁opget	-13506
▁ovula	-13507
▁right	-13508
▁sacro	-13509
▁stere	-13510
▁stoll	-13511
▁traan	-13512
-03-14/	-13513
-2021):	-13514
Hotspot	-13515
Sigmoid	-13516
abdomen	-13517
artilag	-13518
ductaal	-13519
entueel	-13520
hooguit	-13521
lekkage	-13522
lengten	-13523
prurigo	-13524
telling	-13525
uzetest	-13526
vormend	-13527
▁Bulbus	-13528
▁Ductus	-13529
▁Huidex	-13530
▁beleid	-13531
▁cornea	-13532
▁cortex	-13533
▁kleurt	-13534
▁lijden	-13535
▁lipoma	-13536
▁majora	-13537
▁mesang	-13538
▁multic	-13539
▁mutant	-13540
▁onrijp	-13541
▁poging	-13542
▁seroom	-13543
▁subple	-13544
▁ventro	-13545
▁vinden	-13546
▁viscer	-13547
▁zaadje	-13548
▁zelfde	-13549
-01-18:[	-13550
-01-19:[	-13551
-02-19:[	-13552
-10-15:[	-13553
-11-2020	-13554
Receptor	-13555
artefact	-13556
complete	-13557
diastase	-13558
ganglion	-13559
inisatie	-13560
lobulair	-13561
maximaal	-13562
ocytoide	-13563
omyocard	-13564
onderste	-13565
oserende	-13566
partieel	-13567
sluitend	-13568
▁Burkitt	-13569
▁CONSULT	-13570
▁Hormoon	-13571
▁afbraak	-13572
▁bereikt	-13573
▁bewezen	-13574
▁discrep	-13575
▁enchond	-13576
▁gevolgd	-13577
▁giardia	-13578
▁guttata	-13579
▁implant	-13580
▁kleppen	-13581
▁langdur	-13582
▁methode	-13583
▁motiele	-13584
▁nummers	-13585
▁pericol	-13586
▁primers	-13587
▁rustige	-13588
▁synovia	-13589
▁verdikt	-13590
Doorgroei	-13591
Regressie	-13592
endometri	-13593
eresectie	-13594
figuratie	-13595
otheliale	-13596
parietaal	-13597
togewicht	-13598
voorzijde	-13599
▁Bioptjes	-13600
▁Melanoom	-13601
▁Onderlip	-13602
▁Perifere	-13603
▁ciliaire	-13604
▁continue	-13605
▁crescent	-13606
▁cysticus	-13607
▁database	-13608
▁destijds	-13609
▁dyshemat	-13610
▁fallopii	-13611
▁follicul	-13612
▁gasthuis	-13613
▁genitaal	-13614
▁gevraagd	-13615
▁glaasjes	-13616
▁identiek	-13617
▁klachten	-13618
▁melanose	-13619
▁mucinose	-13620
▁omkapsel	-13621
▁pleurale	-13622
▁research	-13623
▁secretie	-13624
▁subacuut	-13625
▁volvulus	-13626
▁weefselp	-13627
USSNIJVLAK	-13628
aangetoond	-13629
aantasting	-13630
rondcellen	-13631
zoospermie	-13632
▁Benchmark	-13633
▁Momenteel	-13634
▁VOORLOPIG	-13635
▁borstbeen	-13636
▁borstwand	-13637
▁chemische	-13638
▁coderende	-13639
▁deficient	-13640
▁enerzijds	-13641
▁granulair	-13642
▁mitochond	-13643
▁peritonei	-13644
▁perniones	-13645
▁scapulair	-13646
▁spierlaag	-13647
▁spitzoide	-13648
▁tweederde	-13649
▁uurszijde	-13650
▁verklaart	-13651
▁verzonden	-13652
-14/*******	-13653
Progesteron	-13654
Satellitose	-13655
UITBREIDING	-13656
cobacterium	-13657
erolateraal	-13658
maagbiopten	-13659
onderooglid	-13660
quorpunctie	-13661
▁AANGEPASTE	-13662
▁Elektronen	-13663
▁Enucleatie	-13664
▁Preparaten	-13665
▁Uitgebreid	-13666
▁aangemaakt	-13667
▁aanleveren	-13668
▁commentaar	-13669
▁conjunctiv	-13670
▁cystebeeld	-13671
▁doorgebeld	-13672
▁exofytisch	-13673
▁huidstukje	-13674
▁naresectie	-13675
▁neuspoliep	-13676
▁ongevoelig	-13677
▁ontwikkeld	-13678
▁uitgenomen	-13679
▁versicolor	-13680
▁zweetklier	-13681
Colonbiopten	-13682
Gleasonscore	-13683
Volledigheid	-13684
celpopulatie	-13685
ceptorstatus	-13686
infiltrerend	-13687
odiagnostiek	-13688
oppervlakkig	-13689
rodermatitis	-13690
translocatie	-13691
▁Navelstreng	-13692
▁atheroscler	-13693
▁bestralings	-13694
▁blaasmucosa	-13695
▁cytoplasmat	-13696
▁distinctive	-13697
▁eerstelijns	-13698
▁glomustumor	-13699
▁hidradenoom	-13700
▁ingestuurde	-13701
▁leukoplakie	-13702
▁longorigine	-13703
▁lymfangioom	-13704
▁methylation	-13705
▁osteoporose	-13706
▁parametrium	-13707
▁rectumbiopt	-13708
▁spermaticus	-13709
▁suppurativa	-13710
▁testisbiopt	-13711
▁triliniaire	-13712
▁verhoorning	-13713
▁Fibroadenoom	-13714
▁Pipellebiopt	-13715
▁cytokeratine	-13716
▁duodenumtype	-13717
▁endoscopisch	-13718
▁geinduceerde	-13719
▁geruptureerd	-13720
▁histiocytose	-13721
▁lymfadenitis	-13722
▁ondersteunen	-13723
▁onduidelijke	-13724
▁schaamstreek	-13725
▁spirochetose	-13726
▁trombosering	-13727
▁vezeltoename	-13728
▁Diepteinvasie	-13729
▁Huidreexcisie	-13730
▁amplificaties	-13731
▁condylomateus	-13732
▁daadwerkelijk	-13733
▁geanalyseerde	-13734
▁gesuggereerde	-13735
▁getromboseerd	-13736
▁lymfkliertjes	-13737
▁mucosabiopten	-13738
▁verlittekende	-13739
-05-16/*******/	-13740
-07-17/*******/	-13741
-09-15/*******/	-13742
Resectievlakken	-13743
Zekerheidshalve	-13744
linkerbovenbeen	-13745
▁Mondslijmvlies	-13746
▁Transurethraal	-13747
▁differentieren	-13748
▁excisiebiopsie	-13749
▁immuuntherapie	-13750
▁intratubulaire	-13751
▁multinodulaire	-13752
▁naevocellulare	-13753
▁nevenbevinding	-13754
▁plaatsgevonden	-13755
▁sigmoidbiopten	-13756
▁slokdarmmucosa	-13757
▁ulcusmateriaal	-13758
▁Corpuscurettage	-13759
▁follikelcentrum	-13760
▁ileocoecaalklep	-13761
▁megakaryopoiese	-13762
▁peritoneumbiopt	-13763
*)	-13764
2(	-13765
32	-13766
IH	-13767
IZ	-13768
KS	-13769
gs	-13770
-3,	-13771
126	-13772
13:	-13773
158	-13774
17.	-13775
19.	-13776
209	-13777
26.	-13778
35.	-13779
40.	-13780
524	-13781
95.	-13782
ASH	-13783
CTI	-13784
EPI	-13785
ESS	-13786
ISE	-13787
JBZ	-13788
MDS	-13789
Myc	-13790
RNA	-13791
Thy	-13792
]1/	-13793
dus	-13794
gec	-13795
ieA	-13796
ona	-13797
pel	-13798
uil	-13799
urc	-13800
ych	-13801
yto	-13802
▁2%	-13803
▁52	-13804
▁54	-13805
▁56	-13806
▁66	-13807
▁67	-13808
▁>5	-13809
▁FN	-13810
▁HU	-13811
▁IS	-13812
▁Kw	-13813
▁Ur	-13814
▁WT	-13815
▁ur	-13816
,5),	-13817
-16:	-13818
-50%	-13819
/01/	-13820
/146	-13821
18-7	-13822
18-8	-13823
AARD	-13824
Cave	-13825
EBER	-13826
Hals	-13827
LSIL	-13828
VOLG	-13829
akke	-13830
anal	-13831
aser	-13832
berg	-13833
calc	-13834
cort	-13835
dent	-13836
egio	-13837
elia	-13838
erum	-13839
hele	-13840
hose	-13841
oemd	-13842
omeg	-13843
rich	-13844
rint	-13845
rogl	-13846
rood	-13847
sept	-13848
syst	-13849
thle	-13850
trom	-13851
weke	-13852
zeer	-13853
▁(6,	-13854
▁1+,	-13855
▁10.	-13856
▁15:	-13857
▁3+3	-13858
▁3,7	-13859
▁4-8	-13860
▁5,2	-13861
▁AIS	-13862
▁BTG	-13863
▁DDR	-13864
▁DIP	-13865
▁Dar	-13866
▁Det	-13867
▁Ern	-13868
▁Gew	-13869
▁HRD	-13870
▁Hyp	-13871
▁LAD	-13872
▁MTP	-13873
▁Neg	-13874
▁ReA	-13875
▁Red	-13876
▁Rel	-13877
▁ach	-13878
▁dem	-13879
▁imb	-13880
▁oxy	-13881
▁tez	-13882
13-00	-13883
13-16	-13884
16-17	-13885
16-18	-13886
16-20	-13887
20-03	-13888
22-10	-13889
23-15	-13890
DLBCL	-13891
Graag	-13892
MORFO	-13893
NSCLC	-13894
antit	-13895
autor	-13896
elast	-13897
erige	-13898
ffect	-13899
iecem	-13900
ineum	-13901
inkes	-13902
obbel	-13903
orcel	-13904
ovend	-13905
patiA	-13906
sthor	-13907
▁(13/	-13908
▁(<5%	-13909
▁12-7	-13910
▁20-3	-13911
▁22-1	-13912
▁Abla	-13913
▁DISH	-13914
▁EWSR	-13915
▁Peri	-13916
▁Rond	-13917
▁Vari	-13918
▁anth	-13919
▁bloc	-13920
▁cocc	-13921
▁cong	-13922
▁echo	-13923
▁elke	-13924
▁groe	-13925
▁jong	-13926
▁myco	-13927
▁ontv	-13928
▁pijn	-13929
▁rete	-13930
▁ring	-13931
▁side	-13932
-2017.	-13933
/2013.	-13934
ASTASE	-13935
Levern	-13936
NIEUWE	-13937
active	-13938
alance	-13939
arcyto	-13940
buiten	-13941
ecific	-13942
eletie	-13943
esbaar	-13944
exonen	-13945
gevend	-13946
haling	-13947
ilfers	-13948
itieve	-13949
kleine	-13950
lectie	-13951
lijnen	-13952
papill	-13953
rijgen	-13954
rokkel	-13955
trauma	-13956
urthle	-13957
wissel	-13958
ylorus	-13959
▁02-10	-13960
▁06-05	-13961
▁07-08	-13962
▁09-08	-13963
▁10-03	-13964
▁100%,	-13965
▁17-03	-13966
▁19-09	-13967
▁2016:	-13968
▁22-08	-13969
▁31-10	-13970
▁6495)	-13971
▁70%.[	-13972
▁Myoom	-13973
▁abuis	-13974
▁afgew	-13975
▁conus	-13976
▁donor	-13977
▁einde	-13978
▁elekt	-13979
▁embol	-13980
▁gemac	-13981
▁isola	-13982
▁keten	-13983
▁kolon	-13984
▁manus	-13985
▁menst	-13986
▁negen	-13987
▁osteo	-13988
▁palat	-13989
▁rubra	-13990
▁toest	-13991
▁trial	-13992
▁versn	-13993
-05-19/	-13994
-07-13/	-13995
-2022.[	-13996
/2017.[	-13997
Mitosen	-13998
Patient	-13999
_033360	-14000
acinair	-14001
compens	-14002
houdend	-14003
ifocaal	-14004
mortaal	-14005
olypeus	-14006
reening	-14007
vanwege	-14008
verruca	-14009
wandige	-14010
washout	-14011
▁(0/1)[	-14012
▁(90%).	-14013
▁3+3=6,	-14014
▁4+4=8,	-14015
▁Extern	-14016
▁Hailey	-14017
▁Helaas	-14018
▁Leydig	-14019
▁Lichte	-14020
▁Opvall	-14021
▁atrofe	-14022
▁atroof	-14023
▁betrof	-14024
▁daarna	-14025
▁gebrek	-14026
▁gemute	-14027
▁genese	-14028
▁gliale	-14029
▁hoogst	-14030
▁influx	-14031
▁laatst	-14032
▁matrix	-14033
▁minora	-14034
▁moeten	-14035
▁myeloA	-14036
▁rommel	-14037
▁sacrum	-14038
▁sectio	-14039
▁series	-14040
▁stadiA	-14041
▁suprag	-14042
▁trache	-14043
-03-18:[	-14044
-11-17:[	-14045
aalplaat	-14046
adnexaal	-14047
agulatie	-14048
ategorie	-14049
ergelijk	-14050
iecemeal	-14051
mucineus	-14052
nectomie	-14053
olytisch	-14054
opharynx	-14055
ovendien	-14056
romatose	-14057
uiteinde	-14058
voorwand	-14059
▁(0/3).[	-14060
▁Barthol	-14061
▁Chirurg	-14062
▁Diffuus	-14063
▁Gedacht	-14064
▁Infiltr	-14065
▁Lymfoom	-14066
▁Mandard	-14067
▁Passend	-14068
▁Patient	-14069
▁accumin	-14070
▁antrale	-14071
▁bowenoA	-14072
▁celblok	-14073
▁congest	-14074
▁contral	-14075
▁gebouwd	-14076
▁geident	-14077
▁gekleur	-14078
▁gepunch	-14079
▁larynge	-14080
▁meegere	-14081
▁plaatsv	-14082
▁schacht	-14083
▁subling	-14084
▁tezamen	-14085
Consensus	-14086
GEWIJZIGD	-14087
beginnend	-14088
biopteren	-14089
bovenbuik	-14090
classific	-14091
ermammair	-14092
erytrocyt	-14093
gewijzigd	-14094
markering	-14095
omyositis	-14096
oradische	-14097
ralisklep	-14098
relevante	-14099
▁(100%).[	-14100
▁25-11-20	-14101
▁Grootste	-14102
▁Poliepje	-14103
▁Positief	-14104
▁Reductie	-14105
▁Typering	-14106
▁Zwelling	-14107
▁agarcyto	-14108
▁daardoor	-14109
▁dichtbij	-14110
▁gestuwde	-14111
▁intralum	-14112
▁morphaea	-14113
▁opwerken	-14114
▁paragang	-14115
▁paratrab	-14116
▁periduct	-14117
▁redelijk	-14118
▁signalen	-14119
▁stervorm	-14120
▁tatoeage	-14121
Bespreking	-14122
Kleuringen	-14123
MORFOLOGIE	-14124
Vulvabiopt	-14125
actinische	-14126
cellularis	-14127
hepatische	-14128
inusoidale	-14129
kristallen	-14130
leucocyten	-14131
moleculair	-14132
vitaliteit	-14133
▁Buikvocht	-14134
▁METASTASE	-14135
▁Serologie	-14136
▁Tenminste	-14137
▁Variation	-14138
▁aangedaan	-14139
▁aggregaat	-14140
▁alveolair	-14141
▁cetuximab	-14142
▁congorood	-14143
▁criterium	-14144
▁elementen	-14145
▁gemiddeld	-14146
▁gevraagde	-14147
▁glycogene	-14148
▁hemorroid	-14149
▁hydrolyse	-14150
▁identieke	-14151
▁inactieve	-14152
▁lepidisch	-14153
▁medullair	-14154
▁middenoor	-14155
▁neurogene	-14156
▁neusholte	-14157
▁productie	-14158
▁screening	-14159
▁segmenten	-14160
▁stromacel	-14161
▁tonsillen	-14162
▁verwijzen	-14163
▁verwissel	-14164
▁voorzover	-14165
Zijdelingse	-14166
aankleuring	-14167
autoriseerd	-14168
bovenooglid	-14169
methylering	-14170
roscopische	-14171
wangerschap	-14172
▁Breuninger	-14173
▁Concordant	-14174
▁Morfologie	-14175
▁aanmerking	-14176
▁auriculair	-14177
▁carcinomen	-14178
▁celgroepje	-14179
▁dunwandige	-14180
▁essentiele	-14181
▁follicular	-14182
▁glandulair	-14183
▁hypoplasie	-14184
▁maagfundus	-14185
▁mycobacter	-14186
▁piriformis	-14187
▁slijmbeker	-14188
▁tepelvocht	-14189
▁ulceratief	-14190
▁ulceraties	-14191
▁vervaardig	-14192
Excisiebiopt	-14193
geassocieerd	-14194
kleincellige	-14195
▁Flegmoneuze	-14196
▁Goedaardige	-14197
▁Intestinale	-14198
▁aspergillus	-14199
▁cystectomie	-14200
▁endometrioA	-14201
▁geprikkelde	-14202
▁hersentumor	-14203
▁huidadnexen	-14204
▁intensiteit	-14205
▁midfrontaal	-14206
▁transmuraal	-14207
▁uitgevoerde	-14208
▁vaattoename	-14209
▁verbrokkeld	-14210
INVASIEDIEPTE	-14211
atheroomcyste	-14212
calcificaties	-14213
radiologische	-14214
▁Protocollair	-14215
▁Shaveexcisie	-14216
▁aangrenzende	-14217
▁adenomatoide	-14218
▁cystevorming	-14219
▁doodsoorzaak	-14220
▁gevoeligheid	-14221
▁korstvorming	-14222
▁myeloblasten	-14223
▁plasmocytoom	-14224
▁subcapsulair	-14225
▁verhevenheid	-14226
[...]
