<unk>	0
<s>	0
</s>	0
[PAD]	0
[UNK]	0
[CLS]	0
[MASK]	0
[C-SEP]	0
e	-2.15897
▁	-2.9541
.	-3.06077
▁van	-3.71373
▁de	-3.73605
▁een	-3.83563
▁met	-4.10515
▁en	-4.10876
,	-4.11585
▁in	-4.36219
▁het	-4.52471
▁bij	-5.00598
▁is	-5.0824
▁geen	-5.09137
▁voor	-5.12755
C	-5.18562
-	-5.23149
RL	-5.3417
▁De	-5.3637
▁werd	-5.39551
▁op	-5.42954
▁Geen	-5.46581
)	-5.56331
▁was	-5.70212
▁niet	-5.74831
▁beeld	-5.77951
▁rechts	-5.81815
0	-5.861
▁Het	-5.86363
▁links	-5.86962
▁Bij	-5.88321
▁er	-5.90147
▁oud	-5.92251
▁obductie	-5.92368
▁1	-5.97595
▁linker	-5.98419
▁zijn	-6.02513
▁Er	-6.03107
▁-	-6.06584
▁In	-6.06864
▁na	-6.07011
▁afwijkingen	-6.10018
1	-6.13163
▁overlijden	-6.14158
▁aan	-6.14833
carcinoom	-6.15345
▁onderzoek	-6.15645
▁of	-6.16488
▁maligniteit	-6.17576
).	-6.19343
s	-6.19389
▁rechter	-6.20305
▁uitgebreide	-6.21843
▁worden	-6.24084
▁gezien	-6.24547
▁ontsteking	-6.25268
▁tot	-6.25397
▁passend	-6.25423
▁te	-6.27064
▁zonder	-6.27437
▁aanwijzingen	-6.30161
▁overleden	-6.30162
▁jaar	-6.30271
▁hart	-6.3057
I	-6.32991
▁2	-6.33297
▁aangetroffen	-6.34089
▁man	-6.35863
▁door	-6.36825
▁ook	-6.37196
▁patient	-6.37657
▁geworden	-6.37741
▁longen	-6.4285
▁kan	-6.43984
en	-6.46004
▁als	-6.46476
A	-6.46945
▁lever	-6.50227
▁I	-6.5151
▁wordt	-6.51962
2	-6.52295
▁betreft	-6.5277
▁tekenen	-6.53191
▁cm	-6.53862
▁gevonden	-6.54551
▁die	-6.68256
▁vrouw	-6.70229
v	-6.71224
▁deze	-6.71744
▁ventrikel	-6.72098
▁gram	-6.73822
p	-6.75253
▁mogelijk	-6.76009
▁Huidexcisie	-6.76741
▁veranderingen	-6.77178
▁geringe	-6.78562
d	-6.79158
E	-6.79191
▁basis	-6.79703
▁tumor	-6.80715
▁waren	-6.81169
▁adenocarcinoom	-6.81851
▁waarschijnlijk	-6.82041
▁werden	-6.85425
▁basaalcel	-6.85879
ie	-6.86627
▁sprake	-6.86891
▁onder	-6.8801
▁bekend	-6.88537
▁atherosclerose	-6.88845
▁dysplasie	-6.89326
▁microscopisch	-6.90583
▁zeer	-6.90743
▁dit	-6.91261
▁vrij	-6.9336
▁toonde	-6.93852
▁acute	-6.94291
▁waarbij	-6.95185
▁aorta	-6.95273
▁dat	-6.95464
▁chronische	-6.95776
▁pneumonie	-6.96301
▁goed	-6.9727
▁long	-6.99885
jarige	-7.00465
▁C	-7.02414
▁ernstige	-7.03378
D	-7.0406
▁opgenomen	-7.05044
▁sepsis	-7.05354
▁toont	-7.06391
a	-7.06945
▁Een	-7.08679
evens	-7.11051
▁ter	-7.11533
▁Huidbiopt	-7.11947
▁beiderzijds	-7.13182
▁*	-7.13778
▁infarct	-7.14129
▁bloeding	-7.1459
atient	-7.14773
▁milt	-7.15685
▁naar	-7.16071
▁recente	-7.16877
▁myocardinfarct	-7.17493
▁status	-7.17646
▁kunnen	-7.18038
▁passen	-7.18792
▁*******	-7.18902
gedifferentieerd	-7.20171
▁bronchopneumoni	-7.20205
▁uit	-7.20379
R	-7.213
▁enkele	-7.21771
▁dagen	-7.24013
▁ten	-7.24305
▁bevindingen	-7.24444
▁beide	-7.25437
▁Deze	-7.25523
▁aanwezig	-7.26033
▁volgt	-7.26062
▁myocard	-7.26186
▁klinisch	-7.26305
▁gevolg	-7.26696
▁verricht	-7.28139
▁carcinoom	-7.28626
▁stuwing	-7.29032
▁name	-7.29071
▁waarin	-7.29194
▁nog	-7.30818
t	-7.30987
voorgeschiedenis	-7.31846
▁heeft	-7.3326
▁deels	-7.33749
▁weken	-7.34997
00	-7.35751
▁nieren	-7.35867
II	-7.36257
m	-7.38796
▁materiaal	-7.39202
▁kleine	-7.39538
▁actieve	-7.3978
▁II	-7.40537
▁echter	-7.40695
▁H	-7.40942
▁g	-7.42324
▁waarvoor	-7.4266
-0	-7.44476
▁infarcering	-7.44662
▁maar	-7.45213
IE	-7.45775
▁epicrise	-7.46081
▁type	-7.46344
H	-7.47249
▁insufficientie	-7.48166
▁Dit	-7.48316
▁ischemie	-7.48577
▁fibrose	-7.48629
▁verwijderd	-7.49525
▁A	-7.49764
▁mm	-7.50358
▁dan	-7.51094
▁duidelijke	-7.51328
▁colon	-7.51365
n	-7.5141
▁cordis	-7.51541
▁nier	-7.51757
▁verband	-7.51936
▁hersenen	-7.52247
▁wat	-7.53626
▁oorzaak	-7.54187
▁uitgebreid	-7.54433
▁matig	-7.54587
▁focaal	-7.55571
▁bloed	-7.55969
▁grote	-7.5731
▁sterk	-7.57374
▁reactieve	-7.57795
▁verder	-7.57984
▁past	-7.59032
▁darm	-7.59088
▁meer	-7.59089
▁metastase	-7.59726
▁verklaren	-7.60021
ok	-7.6009
▁wel	-7.60204
▁naevus	-7.60632
▁maag	-7.61223
g	-7.61513
▁groeiend	-7.61739
▁tonen	-7.6204
▁gevolge	-7.62598
▁lokalisatie	-7.62712
▁plaatse	-7.62881
▁prostaat	-7.64059
▁recent	-7.64096
▁cardiale	-7.64124
),	-7.64762
▁zou	-7.64878
▁biopten	-7.65862
▁organen	-7.65986
▁biopt	-7.66192
▁hebben	-7.66587
▁lymfklieren	-7.66639
▁groei	-7.66789
▁hypertensie	-7.67642
▁d	-7.67678
▁diagnose	-7.68149
le	-7.68437
▁enige	-7.6864
▁gr	-7.69076
▁plaveiselcel	-7.70403
▁patiente	-7.70413
▁dood	-7.70653
▁klinische	-7.70785
▁diameter	-7.71
▁uur	-7.71472
▁forse	-7.71559
▁negatief	-7.71672
▁bleek	-7.72327
▁overleed	-7.7276
▁metastasen	-7.72815
▁shock	-7.72995
▁decompensatio	-7.73322
▁lymfklier	-7.73346
▁nodulair	-7.74766
oorts	-7.75186
▁normaal	-7.75192
▁laesie	-7.75496
▁a	-7.7552
er	-7.75742
▁B	-7.75915
▁dd	-7.76106
▁0	-7.76719
▁acuut	-7.77316
▁hypertrofie	-7.77661
▁oedeem	-7.78898
▁arteria	-7.78943
▁huid	-7.79286
el	-7.80202
▁reanimatie	-7.81497
▁conclusie	-7.82399
▁achterwand	-7.82736
▁matige	-7.83347
▁t	-7.83753
erder	-7.83958
▁aneurysma	-7.83961
▁ischaemie	-7.84386
▁respiratoire	-7.84934
▁E	-7.8505
▁macroscopisch	-7.85123
▁aangetoond	-7.85298
B	-7.85922
▁coronairscleros	-7.86253
▁tevens	-7.86271
▁coronair	-7.88146
▁andere	-7.88491
▁Als	-7.88967
▁ontstaan	-7.89211
L	-7.90008
▁kader	-7.90158
tatus	-7.90328
icroscopisch	-7.90337
▁mamma	-7.90351
▁zich	-7.90729
▁doodsoorzaak	-7.91572
▁aanwezigheid	-7.9258
▁Daarnaast	-7.92726
▁dag	-7.93038
▁pleuravocht	-7.93175
▁positief	-7.93623
Aanvulling	-7.93642
▁conform	-7.93787
▁meerdere	-7.94005
▁necrose	-7.94091
▁welke	-7.94124
gewicht	-7.94356
▁dunne	-7.94415
▁groot	-7.94698
▁intra	-7.94849
▁Aanvulling	-7.95556
▁p	-7.95848
▁maligne	-7.96017
▁toonden	-7.97657
▁over	-7.97776
▁klein	-7.98189
▁opname	-7.98685
▁overige	-7.98774
▁gewicht	-7.98866
▁pancreas	-7.99106
oor	-7.99756
b	-8.00533
▁Excisie	-8.00701
▁multipele	-8.00995
al	-8.0101
▁beenmerg	-8.01043
▁bericht	-8.0105
▁hier	-8.01223
▁LAD	-8.01553
▁excisie	-8.01813
▁verdenking	-8.01968
▁atypie	-8.0199
▁metaplasie	-8.02238
▁stenose	-8.0228
▁alle	-8.02629
ij	-8.02805
▁graad	-8.0305
▁zien	-8.0312
▁afwijking	-8.03237
in	-8.03317
▁infectie	-8.03512
▁Biopten	-8.04448
▁aspiratie	-8.04476
▁verruca	-8.04492
▁combinatie	-8.05236
▁diffuse	-8.06413
▁vermoedelijk	-8.06617
▁ca	-8.06763
o	-8.06981
▁hyperplasie	-8.0746
▁histologisch	-8.0755
▁wegens	-8.08045
▁zij	-8.08061
▁lymfoom	-8.08334
▁onderkwab	-8.08644
▁jarige	-8.08854
▁had	-8.08966
▁hetgeen	-8.09426
▁kenmerken	-8.09473
▁naevocellularis	-8.09663
c	-8.09713
f	-8.09946
▁aanvullend	-8.10063
▁geheel	-8.10245
▁veel	-8.10501
▁bevestigd	-8.10654
G	-8.10749
▁10	-8.10888
hypertrofie	-8.11638
bductie	-8.11834
▁rug	-8.1226
▁zowel	-8.12555
▁foetus	-8.12782
▁meest	-8.12901
▁vaten	-8.12961
▁Huid	-8.13207
▁verklaard	-8.14232
▁placenta	-8.14705
▁geweest	-8.15041
▁DE	-8.15215
▁slecht	-8.15422
▁linkerventrikel	-8.15567
▁eerder	-8.16125
▁Definitieve	-8.16153
▁geleid	-8.16256
▁om	-8.16441
▁peritonitis	-8.1653
▁D	-8.17043
▁hij	-8.17145
▁gegeneraliseerd	-8.17437
▁situ	-8.1772
▁pla	-8.17957
▁vastgesteld	-8.18407
▁seborrhoica	-8.18563
▁microscopie	-8.18612
▁duidelijk	-8.18687
▁beginnende	-8.19174
▁III	-8.19447
▁reeds	-8.19465
▁chronisch	-8.19755
▁lijkt	-8.19913
▁slijmvlies	-8.20205
▁schade	-8.21051
▁doorgemaakte	-8.21249
▁gemetastaseerd	-8.2159
▁ernstig	-8.21665
▁cellen	-8.22
▁weinig	-8.226
▁12	-8.2266
▁endometrium	-8.22852
▁uitgesloten	-8.23059
▁gevolgen	-8.23131
▁waarna	-8.23197
▁kon	-8.23715
▁adenoom	-8.24154
▁sterke	-8.24896
▁buik	-8.25444
▁al	-8.25548
▁ischemische	-8.25654
▁pulmonale	-8.26231
▁longoedeem	-8.26477
▁uitbreiding	-8.26606
▁twee	-8.27938
▁dilatatie	-8.28421
▁L	-8.29187
sche	-8.29411
▁specifieke	-8.29415
▁solide	-8.29917
▁betrof	-8.30112
▁intestinale	-8.3025
▁wand	-8.30742
▁gering	-8.31053
▁pathologie	-8.31076
▁zie	-8.31127
histochemisch	-8.31304
▁weefsel	-8.31749
-1	-8.31811
▁boven	-8.32052
▁behandeling	-8.32177
▁gebied	-8.32268
▁congenitale	-8.32449
▁c	-8.32671
▁resectie	-8.32878
▁aspect	-8.32888
▁uiteindelijk	-8.33028
▁dermale	-8.34672
▁hoogte	-8.34747
▁morbus	-8.3477
europathologisch	-8.35617
▁perforatie	-8.36194
▁benigne	-8.36736
▁blaas	-8.36801
▁circa	-8.3695
▁septum	-8.37018
▁n	-8.37267
▁superficieel	-8.37405
biopten	-8.37722
*******	-8.37813
▁hals	-8.37891
▁gedilateerd	-8.37939
i	-8.3826
▁zoals	-8.38382
▁bestaande	-8.38597
▁waarvan	-8.38662
insufficientie	-8.38797
▁verklaring	-8.38921
▁ascites	-8.3955
▁Epicrise	-8.39919
▁poliep	-8.39982
▁evidente	-8.40037
ogelijk	-8.4015
▁Helicobacter	-8.40227
h	-8.40326
▁duodenum	-8.41165
▁we	-8.41229
▁rest	-8.41285
an	-8.41328
▁atrofie	-8.41389
x	-8.41827
▁minder	-8.42214
▁gelegen	-8.42296
▁oesophagus	-8.42608
▁cc	-8.44519
▁deel	-8.44769
▁Aanvullend	-8.45006
▁200	-8.45082
▁ongeveer	-8.451
▁bovenkwab	-8.4548
▁fors	-8.45575
▁massale	-8.45607
▁2.	-8.45836
▁z	-8.45935
▁hartfalen	-8.46078
▁focus	-8.46106
▁pre	-8.46335
▁vocht	-8.46479
▁langer	-8.46689
▁tussen	-8.47197
▁Biopt	-8.47232
▁uitslag	-8.4791
▁Gezien	-8.48015
▁litteken	-8.48201
▁doorgankelijk	-8.48738
▁bijzonderheden	-8.48791
us	-8.48897
▁cyste	-8.48917
III	-8.49018
▁sigmoid	-8.50302
▁longembolieen	-8.50375
▁plaatselijk	-8.5051
▁overwogen	-8.50621
▁verslag	-8.5072
▁atypische	-8.50825
▁rond	-8.51232
atiente	-8.51431
▁syndroom	-8.51487
▁reikend	-8.51766
▁zal	-8.51823
▁primair	-8.51824
▁veroorzaakt	-8.51874
▁primaire	-8.51912
▁bloedingen	-8.52093
▁diffuus	-8.52427
▁steatose	-8.52705
▁gedacht	-8.52748
r	-8.52795
▁cardiomyopathie	-8.53344
▁schildklier	-8.53757
▁verdacht	-8.54325
▁ontwikkelde	-8.54355
▁o	-8.54461
sch	-8.54472
▁Conclusie	-8.54574
preparaat	-8.55322
▁keratose	-8.55469
▁1.	-8.5562
▁operatie	-8.56145
▁derhalve	-8.56196
zie	-8.56337
ing	-8.5719
▁falen	-8.57386
▁pylori	-8.57429
▁wij	-8.57454
▁proces	-8.57633
CL	-8.57673
▁CABG	-8.58038
10	-8.58138
▁micro	-8.58288
▁radicaal	-8.58348
20	-8.58656
▁i	-8.5878
stoornissen	-8.58799
▁abdominale	-8.58805
▁licht	-8.59154
▁pleura	-8.59509
▁septische	-8.59514
▁ascendens	-8.5961
▁epitheel	-8.59905
▁hypertrofisch	-8.59928
▁hiervan	-8.60079
▁diabetes	-8.60164
▁sclerose	-8.60168
▁carcinomatosa	-8.60451
▁sectie	-8.60629
▁voorwand	-8.61066
▁delen	-8.61235
▁m	-8.61318
▁opgetreden	-8.61413
▁alsmede	-8.61417
▁beleid	-8.6164
▁BE	-8.61806
▁aortaklep	-8.61972
▁multi	-8.6233
▁gecompliceerd	-8.6251
▁rectum	-8.62539
amenvattend	-8.62703
▁onvoldoende	-8.62764
▁atheroscleroti	-8.62813
▁thrombus	-8.63174
u	-8.63303
GE	-8.63515
▁vetweefsel	-8.63583
▁ruptuur	-8.63598
▁ischaemische	-8.63871
▁week	-8.64224
▁eerste	-8.65431
▁moet	-8.65605
▁gegevens	-8.65632
▁aantoonbaar	-8.65853
▁naast	-8.66014
▁maanden	-8.66195
▁ml	-8.66281
▁longembolie	-8.6633
▁grootcellig	-8.66346
▁coronairarterie	-8.66429
ostmortaal	-8.66668
▁onderbeen	-8.66962
▁dissectie	-8.67
▁pancreatitis	-8.67062
▁arterie	-8.67083
▁gehele	-8.67111
DI	-8.674
▁Lever	-8.67456
▁ziekte	-8.67928
▁G	-8.68419
▁kleuring	-8.68433
k	-8.68672
▁laaggradige	-8.68982
▁component	-8.69224
l	-8.69251
▁immuun	-8.6934
▁verspreid	-8.69451
▁20	-8.69495
▁normale	-8.69615
▁zijde	-8.70158
▁diagnostisch	-8.70396
▁actinisch	-8.70705
▁invasieve	-8.7084
w	-8.70901
▁colitis	-8.71028
▁daarbij	-8.71043
▁slechts	-8.712
▁granulocyten	-8.713
▁11	-8.71334
▁argumenten	-8.71482
▁abdominalis	-8.71503
▁Hart	-8.71584
▁haarden	-8.7198
▁kleincellig	-8.72236
▁sinds	-8.72331
▁Concluderend	-8.72428
de	-8.72487
▁R	-8.72523
▁interstitiele	-8.72531
▁tractus	-8.7269
▁Longen	-8.72769
▁melanoom	-8.72818
▁huidexcisie	-8.72851
▁eveneens	-8.72942
▁infarcten	-8.73164
AA	-8.73219
▁vergroot	-8.73495
▁ramus	-8.73543
▁papillair	-8.73924
te	-8.74147
▁galblaas	-8.74428
▁descendens	-8.74521
▁metastasering	-8.75203
▁emfyseem	-8.75384
▁wang	-8.75441
▁distale	-8.75467
▁liter	-8.75527
▁bekende	-8.75656
cel	-8.75666
▁coupes	-8.75763
▁ulcus	-8.75828
▁hierbij	-8.76408
▁volledig	-8.76869
wangerschapsduur	-8.76903
▁u	-8.76929
▁recidief	-8.772
▁cardiaal	-8.77261
▁afkomstig	-8.77285
▁mutatie	-8.7742
▁nummer	-8.77515
▁drie	-8.77851
▁afwijkend	-8.78162
▁toename	-8.78244
▁Hierbij	-8.78248
▁toestemming	-8.78414
▁mellitus	-8.78527
▁sprieterig	-8.78628
▁lumen	-8.78704
coronairarterien	-8.78866
▁corpus	-8.78905
▁infiltrerend	-8.79306
▁huidbiopt	-8.79736
▁vorm	-8.79803
▁beoordelen	-8.79986
▁voorkeur	-8.80008
wel	-8.80117
▁uitgesproken	-8.80129
▁analyse	-8.80133
▁urotheelcel	-8.80157
is	-8.80286
▁s	-8.80326
▁terminale	-8.80522
▁behandeld	-8.80746
▁hoeveelheid	-8.80766
▁digestivus	-8.80799
▁tubulair	-8.81761
▁secundair	-8.81868
▁stent	-8.82189
▁afsluiting	-8.82388
▁elders	-8.8288
▁gestuwd	-8.83641
▁doch	-8.83704
▁Hersenen	-8.83861
▁dyspnoe	-8.83964
it	-8.83988
re	-8.84059
et	-8.84205
▁toch	-8.84445
▁vrijwel	-8.84476
▁LDH	-8.8498
▁leeftijd	-8.85076
RA	-8.85105
▁alveolaire	-8.85478
▁localisatie	-8.85598
▁marge	-8.85765
▁zekerheid	-8.86144
▁ductaal	-8.86176
▁tijdens	-8.86235
▁RCA	-8.8654
▁best	-8.86627
▁samen	-8.86645
▁mammacarcinoom	-8.8675
▁bilaterale	-8.86769
▁eerdere	-8.86793
▁inwendig	-8.86993
▁perineurale	-8.87367
ARD	-8.8781
▁temporaal	-8.87836
links	-8.88425
▁arterien	-8.88874
▁re	-8.88875
▁vanwege	-8.89079
▁blijkt	-8.89118
▁lateraal	-8.89379
▁lichte	-8.89594
Geen	-8.89598
▁Geringe	-8.89832
▁snede	-8.90032
▁uterus	-8.90075
▁helder	-8.9026
heid	-8.90443
▁bovenbeen	-8.90721
▁coronairen	-8.90726
▁pijn	-8.90887
▁verhoogd	-8.91092
▁voorhoofd	-8.91236
▁Aan	-8.91258
▁positieve	-8.9145
▁pericard	-8.91686
▁gebieden	-8.91852
▁ver	-8.9197
▁centraal	-8.9197
▁schouwing	-8.92259
▁waardoor	-8.92324
▁zijwand	-8.92465
▁necrotiserende	-8.92597
▁morfologisch	-8.92701
▁hoog	-8.92827
▁zeker	-8.92951
ar	-8.93158
▁antrum	-8.93165
ues	-8.93226
▁myocarditis	-8.93403
▁pulmonalis	-8.93421
▁basale	-8.93516
▁vena	-8.93576
▁doorgroei	-8.93579
▁later	-8.93666
linisch	-8.93772
▁nader	-8.93888
▁CD	-8.94268
▁distaal	-8.94416
▁oppervlakkig	-8.94418
▁mediastinum	-8.94497
diameter	-8.94693
▁borst	-8.95091
▁201	-8.95195
▁behouden	-8.9523
▁reikt	-8.95366
▁koorts	-8.95646
ijdens	-8.95866
▁para	-8.95986
▁samengestelde	-8.96109
pneumonie	-8.96136
2-	-8.96376
▁bestond	-8.96423
itgebreide	-8.9657
12	-8.96613
slijmvlies	-8.96731
▁bijnier	-8.96831
▁daar	-8.97274
▁buikholte	-8.97348
▁bijnieren	-8.97409
▁aanwijzing	-8.98067
▁ileum	-8.98149
▁slechte	-8.98407
▁opvallende	-8.9842
▁cervix	-8.9844
▁endocarditis	-8.98446
▁inklemming	-8.98483
ritmestoornissen	-8.98524
▁plotseling	-8.98692
on	-8.98706
▁beschreven	-8.98783
▁minimale	-8.99775
▁resectievlak	-9.00248
▁pericarditis	-9.00314
▁klachten	-9.00374
▁enig	-9.00627
▁darmen	-9.00919
▁trombus	-9.00923
▁specifiek	-9.01124
▁proximale	-9.01463
biopt	-9.01553
▁trachea	-9.01703
▁significante	-9.02356
▁oudere	-9.0244
▁ulceratie	-9.026
▁immuno	-9.02818
0-	-9.02865
▁l	-9.03195
▁oesofagus	-9.03238
▁autolyse	-9.03303
▁non	-9.03434
▁mannelijke	-9.03627
▁progressieve	-9.03638
resectie	-9.04533
▁bovenstaande	-9.0456
201	-9.0456
▁decompensatie	-9.04575
▁Revisie	-9.04726
▁cerebellum	-9.04735
▁plaats	-9.04839
▁vermeld	-9.04943
▁laterale	-9.05252
▁cerebrale	-9.053
ICRI	-9.05325
▁gemacereerde	-9.05388
▁mate	-9.05672
▁volgens	-9.05961
▁eventuele	-9.06221
▁nieuwe	-9.06396
▁b	-9.06453
at	-9.06516
▁therapie	-9.06517
▁weke	-9.06545
▁schouder	-9.06647
arterioloscleros	-9.06655
▁beloop	-9.06814
om	-9.06851
▁purulente	-9.07233
▁vaatlijden	-9.07378
▁hypoxie	-9.07397
▁Beeld	-9.07568
▁iliaca	-9.07619
▁longcarcinoom	-9.07827
▁doorgemaakt	-9.07827
▁laatste	-9.08201
cm	-9.08469
▁tenminste	-9.08687
▁abdomen	-9.08775
ver	-9.09024
▁invasief	-9.09376
materiaal	-9.09417
▁abstinerend	-9.09496
▁coronairlijden	-9.09522
▁proliferatie	-9.09607
▁obstructie	-9.09736
▁afwezig	-9.098
y	-9.09844
▁veneuze	-9.099
▁jaren	-9.09939
▁lichaamsobducti	-9.1003
▁thorax	-9.10266
▁differentiaal	-9.10354
▁toto	-9.10408
▁reactief	-9.10772
▁Ernstige	-9.10906
▁bodem	-9.11029
▁rondom	-9.11144
ur	-9.11173
▁totale	-9.11233
▁snijvlak	-9.11318
acroscopisch	-9.11358
▁ileus	-9.11528
▁1,	-9.11614
▁frontaal	-9.11798
▁consult	-9.12029
ieren	-9.12256
nvoldoende	-9.12289
1-	-9.12357
icroscopie	-9.12548
▁hematoom	-9.12685
▁punctie	-9.12726
▁ruim	-9.1286
▁geven	-9.12992
fibrilleren	-9.12997
▁neus	-9.13016
z	-9.13107
▁dermatitis	-9.13134
▁organiserende	-9.13379
▁vooral	-9.13477
▁kort	-9.135
▁zwaar	-9.1424
▁opvallend	-9.14347
af	-9.14358
▁score	-9.14362
of	-9.14366
▁iets	-9.14615
tal	-9.14676
▁bijgedragen	-9.1492
▁verse	-9.15022
▁*******,	-9.15174
▁chemotherapie	-9.1524
▁ritmestoornis	-9.15294
▁coecum	-9.15476
▁ontvangt	-9.15545
▁Hier	-9.15851
▁infarceringen	-9.16131
ze	-9.16317
▁0,	-9.16509
uteriene	-9.16562
▁Daarbij	-9.16706
▁overtuigende	-9.1679
▁toestand	-9.16827
▁maximale	-9.1685
st	-9.16877
beeld	-9.16891
met	-9.17016
▁vergrote	-9.17205
▁onderarm	-9.17475
▁vast	-9.17592
ilt	-9.17643
GI	-9.17664
as	-9.17758
metastasen	-9.17927
▁Bowen	-9.18027
▁infiltratie	-9.18126
▁tijd	-9.1816
geen	-9.18255
▁occlusie	-9.18352
▁Resectie	-9.18516
▁keratosis	-9.18635
▁AA	-9.18722
LLE	-9.18909
▁totaal	-9.19034
▁waar	-9.1927
▁geduid	-9.19485
▁verklaart	-9.19485
11	-9.19581
▁aanknopingspunt	-9.19712
▁reactie	-9.19732
▁ovarium	-9.19958
▁algehele	-9.20259
▁inderdaad	-9.2048
▁overwegend	-9.20687
▁hersenobductie	-9.20864
▁Gleason	-9.2089
▁dikke	-9.2089
▁hoge	-9.21233
▁hierin	-9.21317
▁vrouwelijke	-9.21332
▁kreeg	-9.21559
▁overgang	-9.2165
▁infiltraat	-9.21677
▁intact	-9.21816
▁overleg	-9.21818
▁anterior	-9.22146
▁on	-9.22165
▁atrium	-9.22244
▁voornamelijk	-9.22332
▁CI	-9.22341
▁danwel	-9.22343
▁transversum	-9.22482
▁bloedverlies	-9.22535
eerd	-9.22646
▁gegeven	-9.2309
▁media	-9.232
▁gecontraheerd	-9.23232
ra	-9.23328
▁haard	-9.23428
▁toenemend	-9.23499
▁CA	-9.2352
▁abcederende	-9.23547
▁proximaal	-9.23576
▁actinica	-9.23765
▁diverse	-9.23766
hyperplasie	-9.23797
▁exon	-9.23827
▁oppervlakkige	-9.24055
▁oksel	-9.24126
▁thoracale	-9.24169
▁achter	-9.24297
rine	-9.24377
▁onderging	-9.24409
▁substraat	-9.24482
▁bevinding	-9.24517
▁ingroei	-9.24545
▁diagnostiek	-9.24574
▁ontstond	-9.2459
▁neuro	-9.24985
▁antibiotica	-9.25023
▁vruchtdood	-9.25023
▁ontbreken	-9.25023
CH	-9.25079
EG	-9.25103
leuravocht	-9.25142
▁lengte	-9.2519
ER	-9.25231
▁perifeer	-9.25299
infarcering	-9.25593
▁diepe	-9.25733
▁beoordeelbaar	-9.25796
▁vasculitis	-9.25815
▁lichaam	-9.25848
ue	-9.25866
▁daarnaast	-9.25935
▁groeiwijze	-9.26392
▁plaatsen	-9.26437
DE	-9.26667
▁circulatie	-9.26704
▁zichtbaar	-9.26755
▁bovenarm	-9.26761
▁ivm	-9.26843
▁arteriosclerose	-9.26849
▁kweken	-9.26867
▁nevenbevinding	-9.26911
▁hiervoor	-9.26963
▁kweek	-9.27091
▁haardvormige	-9.27218
▁vanuit	-9.27357
▁parenchym	-9.27384
▁superior	-9.27437
embolieen	-9.27835
▁beoordeling	-9.28036
▁22	-9.28041
▁waarop	-9.28154
▁stolsels	-9.28248
▁vers	-9.28267
▁trivasculaire	-9.28323
▁separaat	-9.28426
ro	-9.28436
▁hoofd	-9.28439
▁afdeling	-9.28477
▁midden	-9.28712
▁amyloid	-9.28754
▁x	-9.28936
▁ontvangen	-9.29175
▁achteruitgang	-9.29176
▁cerebrum	-9.2922
▁uitwendige	-9.29293
▁littekenweefsel	-9.29384
▁100	-9.29444
▁2,	-9.29464
▁laat	-9.29706
▁failure	-9.29793
▁21	-9.29801
▁ons	-9.29845
or	-9.30033
▁haar	-9.30103
▁Consult	-9.30122
▁respiratoir	-9.30197
▁zekere	-9.30221
op	-9.30239
ocaal	-9.30417
▁eventueel	-9.30502
▁septisch	-9.30532
▁tumorcellen	-9.30578
▁trombo	-9.30689
orgaanfalen	-9.30793
weefsel	-9.30869
▁HER	-9.30933
unctie	-9.31223
▁maturatie	-9.3127
▁bespreking	-9.3139
▁snijvlakken	-9.31455
▁pleuritis	-9.31561
▁harttamponade	-9.31573
▁levercirrose	-9.31658
▁prothese	-9.31948
▁oppervlak	-9.31979
▁origine	-9.32018
▁schedelobductie	-9.32052
▁asystolie	-9.32259
neu	-9.3238
▁verleden	-9.32521
▁mitralisklep	-9.32914
▁hypertroof	-9.32918
▁post	-9.33047
▁wervelkolom	-9.33408
▁enkel	-9.33774
▁zagen	-9.33817
▁hersenstam	-9.33862
▁gastritis	-9.33929
▁vonden	-9.33966
▁lies	-9.34024
▁thuis	-9.34068
▁Histologisch	-9.34452
aar	-9.34529
▁dient	-9.34607
▁neutrofiele	-9.34645
▁uren	-9.34669
▁diafragma	-9.34674
▁hemorragische	-9.34887
▁mede	-9.35023
atige	-9.35062
CHE	-9.353
▁granulomen	-9.35388
▁diagnosen	-9.3539
▁diverticulitis	-9.35408
▁nodulaire	-9.3547
▁focale	-9.35575
▁verminderde	-9.35683
▁vet	-9.35962
▁carcinoma	-9.35966
▁bekken	-9.35979
gen	-9.36062
▁subendocardiale	-9.36099
rostaat	-9.36104
▁via	-9.36302
um	-9.36449
▁bypass	-9.36509
▁sluiten	-9.36515
▁been	-9.36539
▁thrombi	-9.3684
ndanks	-9.37033
▁eosinofiele	-9.37037
▁gedilateerde	-9.37047
▁melanocytair	-9.37113
▁perifere	-9.37115
naaldbiopten	-9.37188
▁hartinfarct	-9.37219
▁dus	-9.37302
▁thrombo	-9.37586
oorlopige	-9.37614
▁ductus	-9.37935
▁familie	-9.38033
▁gekweekt	-9.38034
▁dieper	-9.38211
▁datum	-9.38259
▁Endometrium	-9.38402
▁open	-9.38462
▁onderkwabben	-9.38557
▁cortex	-9.38562
▁fixatie	-9.3858
▁foci	-9.3865
▁besloten	-9.38655
jaar	-9.38747
▁beperkte	-9.3878
▁mesenterica	-9.38862
▁kleuringen	-9.38942
▁zover	-9.39035
-201	-9.39157
▁rol	-9.39183
▁ontkleuring	-9.39265
▁hooggradig	-9.39291
Deze	-9.39414
▁witte	-9.39415
▁trombose	-9.39465
▁stadium	-9.39572
sinfiltraat	-9.39793
▁Echter	-9.4001
nijvlakken	-9.40122
▁blanco	-9.40536
bevindingen	-9.40567
▁postmortaal	-9.40624
kleuring	-9.4067
▁directe	-9.40683
aag	-9.40764
▁grond	-9.40819
necrose	-9.40864
▁abces	-9.41047
aarschijnlijk	-9.41049
▁afstand	-9.41156
▁lijden	-9.41323
▁hepatitis	-9.41535
▁liet	-9.41575
▁diep	-9.4166
glomeruloscleros	-9.41726
ig	-9.41901
tumor	-9.42245
li	-9.42256
▁coeur	-9.42318
▁geruptureerd	-9.42534
▁uitwendig	-9.42551
▁IC	-9.4258
▁carotis	-9.42642
cholecystectomie	-9.42669
▁hyperplastische	-9.42988
▁macrofagen	-9.43039
▁zwelling	-9.43411
▁mucosa	-9.43424
▁darmischemie	-9.43437
CR	-9.43511
▁longemfyseem	-9.43541
▁necrotisch	-9.43836
▁longstuwing	-9.4394
amma	-9.44048
▁kliniek	-9.44081
▁respectievelijk	-9.4417
▁mortis	-9.44191
▁per	-9.44194
▁ik	-9.44228
rechts	-9.44373
▁zouden	-9.44667
▁resectievlakken	-9.44753
▁middels	-9.45119
▁mediastinale	-9.45293
mm	-9.45372
▁onbekend	-9.45389
▁aanleiding	-9.45624
▁extern	-9.45705
▁hyper	-9.45939
am	-9.4603
▁bindweefsel	-9.46176
▁waargenomen	-9.46181
▁peri	-9.46301
▁opgegeven	-9.46317
na	-9.46406
▁celrijk	-9.46517
▁nierfunctie	-9.46634
▁toegenomen	-9.46742
▁fase	-9.46789
▁Definitief	-9.46895
▁gevuld	-9.47038
▁maagslijmvlies	-9.47059
▁rechterlong	-9.47159
▁slap	-9.47172
▁bevestigt	-9.47303
▁cerebri	-9.47324
▁thrombose	-9.47386
▁Enkele	-9.47416
▁suggestief	-9.47758
▁klep	-9.4791
▁snel	-9.48235
ic	-9.48276
▁oedemateus	-9.48326
▁urine	-9.48344
▁bed	-9.48489
▁relatief	-9.48601
invasieve	-9.4862
infarct	-9.48679
▁celbeeld	-9.49133
bij	-9.49192
-10	-9.4927
aagbiopten	-9.49315
▁gestart	-9.49357
nt	-9.49361
▁Causa	-9.49472
▁Doodsoorzaak	-9.49593
iet	-9.49658
▁lichen	-9.49697
▁uitgevoerd	-9.49935
ook	-9.4994
▁ondanks	-9.5006
transplantatie	-9.50078
▁ziekenhuis	-9.50158
▁granulomateuze	-9.50171
▁zodat	-9.50171
rechterventrikel	-9.50242
22	-9.5028
▁omentum	-9.50286
▁Her	-9.50391
▁biopsie	-9.50394
▁laag	-9.50442
▁kernen	-9.50554
▁bestaan	-9.50571
je	-9.5064
▁traject	-9.50793
▁snijranden	-9.50797
▁aantal	-9.50826
▁Beide	-9.51113
▁berusten	-9.51116
ste	-9.51181
▁eczeem	-9.51219
▁emfysemateuze	-9.51241
ca	-9.51272
▁instantie	-9.51336
▁extra	-9.51693
▁richting	-9.51855
▁hartkamer	-9.5188
▁gastro	-9.5221
▁Hodgkin	-9.5226
▁geschat	-9.5239
▁doorsnede	-9.5271
▁hartspier	-9.52718
oleculaire	-9.52828
▁ulcererende	-9.52858
▁tweede	-9.52949
▁pyelonefritis	-9.52998
▁graft	-9.53018
▁val	-9.53102
▁volgen	-9.53115
▁gestuwde	-9.53258
▁levercirrhose	-9.53362
▁hypertrofische	-9.535
▁lymfocytaire	-9.53575
ol	-9.53696
▁zware	-9.53722
▁onderzocht	-9.53745
▁voorts	-9.53829
▁retour	-9.53836
▁systeem	-9.53882
▁beperkt	-9.53897
▁invasie	-9.54036
▁maand	-9.54037
▁fragmenten	-9.54096
▁coloncarcinoom	-9.54366
ekenen	-9.54525
▁conditie	-9.54529
▁mitralis	-9.5455
▁bronchus	-9.54579
normaal	-9.54608
▁anatomische	-9.54681
▁colonslijmvlies	-9.54807
itis	-9.54836
onderzoek	-9.55008
▁procedure	-9.55103
▁eosinofilie	-9.55181
In	-9.55255
▁lichenoide	-9.55489
▁macroscopische	-9.55651
▁st	-9.55772
▁bronchitis	-9.55776
▁vooralsnog	-9.55787
▁noch	-9.558
▁medisch	-9.55915
▁degeneratieve	-9.55961
▁cor	-9.56016
▁epidermale	-9.5606
21	-9.56184
▁lymfocyten	-9.5648
▁ouderdom	-9.56612
▁AD	-9.56758
Het	-9.5684
mw	-9.5688
▁blijft	-9.56896
uit	-9.56905
▁circumflexus	-9.56909
▁geconstateerd	-9.57021
ta	-9.57199
itslag	-9.5724
▁ureter	-9.57593
wee	-9.57775
als	-9.57915
▁bepaling	-9.57936
▁mesenterium	-9.58023
▁veranderd	-9.58034
▁leverstuwing	-9.58064
verige	-9.58118
ten	-9.58343
▁embolieen	-9.58474
gecompromitteerd	-9.58526
toevalsbevinding	-9.58581
▁bron	-9.58605
type	-9.58661
▁contact	-9.58664
lijmvliesbiopten	-9.5903
▁geboren	-9.59032
▁onduidelijk	-9.59161
▁virale	-9.59284
▁braken	-9.59287
▁degeneratie	-9.59366
▁haardjes	-9.59423
▁slokdarm	-9.59424
▁opnieuw	-9.59454
▁sub	-9.5958
▁gedaan	-9.59926
veranderingen	-9.60098
▁mediale	-9.60117
▁Hoe	-9.60118
▁folliculair	-9.60121
dien	-9.6036
▁onwel	-9.60463
▁anastomose	-9.60562
▁superficiele	-9.60697
▁rand	-9.60782
▁gebruik	-9.60861
itwendig	-9.60888
▁cytologisch	-9.60957
▁Huidbiopsie	-9.61025
▁aanvullende	-9.61029
▁tumorweefsel	-9.61105
▁splenitis	-9.61174
uterien	-9.61209
▁huisarts	-9.61345
▁radiotherapie	-9.61424
▁multifocaal	-9.61477
voor	-9.61577
▁Door	-9.61587
▁galwegen	-9.61633
ul	-9.61795
Aanvullend	-9.61941
wand	-9.6195
ter	-9.61971
▁subendocardiaal	-9.61998
▁betreffende	-9.62018
dat	-9.6202
▁verslechtering	-9.62127
▁bifurcatie	-9.62209
nder	-9.62274
▁gespeeld	-9.62521
atie	-9.62531
▁beschadiging	-9.62537
▁lymfangitis	-9.62545
▁alleen	-9.62624
▁li	-9.62653
▁pancreaskop	-9.62657
▁revisie	-9.62711
▁vernauwing	-9.62711
end	-9.62798
▁Differentiaal	-9.62801
▁abdominaal	-9.62813
▁resten	-9.63027
▁ventrikels	-9.63047
▁naadlekkage	-9.63049
▁schedelsectie	-9.63063
retroperitoneaal	-9.63182
▁peritoneum	-9.63192
▁dubbelzijdige	-9.63225
▁buikpijn	-9.63273
to	-9.63305
▁doorbraak	-9.63357
▁dermatofibroom	-9.63446
ier	-9.63474
▁regio	-9.63558
▁Barrett	-9.63711
▁moleculair	-9.63905
▁defect	-9.63912
▁dysplastische	-9.63931
▁betekenis	-9.63978
▁net	-9.64034
▁afgenomen	-9.64112
▁overigens	-9.64273
▁flank	-9.64284
▁nu	-9.64321
▁duiden	-9.64538
▁bloederig	-9.64658
▁uitgaande	-9.64728
▁slijm	-9.64763
-2	-9.65215
▁verschillende	-9.65348
biopsie	-9.65379
▁dorsaal	-9.65409
gediagnosticeerd	-9.65592
▁ingreep	-9.65688
▁Alzheimer	-9.65689
AL	-9.65727
▁ingezet	-9.6584
▁dementie	-9.65889
▁meningitis	-9.65961
▁tamponade	-9.66051
▁direct	-9.66085
il	-9.66116
▁vlokatrofie	-9.66136
▁definitieve	-9.66205
▁AL	-9.66298
▁systemische	-9.66615
▁ander	-9.66665
▁linkerlong	-9.66759
▁af	-9.66789
▁partiele	-9.67065
▁tegen	-9.67085
▁communis	-9.67096
▁secundaire	-9.6712
▁stroma	-9.67228
▁oedemateuze	-9.67236
▁stof	-9.67405
▁Acute	-9.67419
▁bacteriele	-9.67486
▁cysten	-9.67692
▁mediaal	-9.67886
▁tubulusnecrose	-9.67927
aal	-9.68006
▁beschouwd	-9.68067
▁buikwand	-9.68381
tumorlokalisatie	-9.68498
▁lipoom	-9.68517
cellen	-9.68528
CA	-9.68529
▁trombi	-9.68563
▁talrijke	-9.68624
▁littekens	-9.68658
▁hemicolectomie	-9.68709
▁portale	-9.68807
▁zelf	-9.68923
▁onderwand	-9.68968
▁bot	-9.69017
▁truncus	-9.69041
ontstekingsbeeld	-9.69049
excisie	-9.692
▁plots	-9.69225
-200	-9.6923
organismen	-9.69273
ma	-9.69405
▁achtergrond	-9.69672
▁moment	-9.69747
▁schimmels	-9.6986
▁geval	-9.69885
▁*******.	-9.69984
▁haemorrhagische	-9.70003
▁Derhalve	-9.70102
▁uw	-9.70157
▁leukemie	-9.70174
▁bestaand	-9.70255
vorming	-9.70426
▁navelstreng	-9.70559
▁cholecystitis	-9.70597
▁geplaatst	-9.70597
▁gestaakt	-9.70597
▁daarna	-9.70619
▁hippocampus	-9.70996
▁nodus	-9.71001
▁malaise	-9.71025
tische	-9.71136
▁auto	-9.71541
▁classificeren	-9.71636
▁onderliggende	-9.71723
tuwing	-9.71897
▁drietaks	-9.71932
▁pro	-9.7197
▁gereanimeerd	-9.72032
▁arrest	-9.7209
den	-9.72133
▁ontstoken	-9.72322
▁mogelijkheid	-9.7244
▁risico	-9.72476
▁maximaal	-9.72561
▁recidiverende	-9.72567
ir	-9.72596
▁maceratie	-9.72614
ohs	-9.72936
▁dermis	-9.7305
uor	-9.73056
▁cirrhose	-9.73205
▁posterior	-9.73213
▁Lymfklier	-9.73311
▁Gaarne	-9.73407
▁amenorroeduur	-9.73489
▁pleuraholte	-9.73619
uameuze	-9.73636
▁organisatie	-9.73637
▁interna	-9.73699
▁gehad	-9.7393
▁leverfalen	-9.7413
▁infiltratiev	-9.7444
▁waaronder	-9.74462
200	-9.74519
▁hypotensie	-9.74598
▁BRA	-9.74788
▁verlies	-9.74826
▁infectieuze	-9.75047
▁pons	-9.75066
▁bloedvaten	-9.75178
▁postmortal	-9.75188
▁lage	-9.75227
euze	-9.75281
ast	-9.75321
▁laaggradig	-9.75425
▁ulcera	-9.75525
▁coupe	-9.75541
ud	-9.7565
▁tgv	-9.75715
mo	-9.75749
▁binnen	-9.75868
▁Linker	-9.75965
▁nr	-9.76291
▁subtotale	-9.76319
▁arterio	-9.76328
▁anemie	-9.76468
▁wisselende	-9.76536
▁ging	-9.7692
02	-9.76945
umor	-9.76957
01	-9.76959
▁kwam	-9.77054
▁ventrikelwand	-9.7724
▁onderbuik	-9.77373
▁reexcisie	-9.77422
▁fistel	-9.77481
▁aspecifieke	-9.77641
gebied	-9.77647
▁ischemisch	-9.77699
▁occipitaal	-9.77734
▁diverticulose	-9.77773
▁gewichten	-9.77785
▁wijzen	-9.78189
▁max	-9.7828
▁DD	-9.78401
▁krap	-9.78431
-12	-9.78469
▁alcohol	-9.78505
ost	-9.78799
▁bleken	-9.78805
▁evident	-9.7886
DER	-9.78981
achterwand	-9.78988
▁aortaklepstenos	-9.79169
ad	-9.79172
▁thoracaal	-9.7924
▁komen	-9.79343
▁problematiek	-9.79462
▁haemorrhagisch	-9.79542
metastase	-9.79599
▁vier	-9.79608
▁even	-9.79633
▁gerelateerd	-9.79648
▁bovenbuik	-9.79668
▁uitspraak	-9.79704
▁cardiac	-9.7971
lo	-9.7974
▁volledige	-9.79807
▁gepaard	-9.7985
▁vele	-9.79862
▁apex	-9.80086
▁vasculaire	-9.80239
▁concordant	-9.8028
▁amyloidose	-9.80375
triumfibrilleren	-9.80422
▁coli	-9.80727
parenchymateuze	-9.80958
▁aureus	-9.81109
aaldbiopten	-9.8111
▁classificatie	-9.81208
▁coronairvaten	-9.81289
afwijkingen	-9.81291
▁ruiterembolus	-9.81497
▁perivasculaire	-9.81507
▁choledochus	-9.81562
▁parietaal	-9.8159
▁massaal	-9.81613
▁Aanvullende	-9.81728
▁Long	-9.81826
▁transmurale	-9.81905
▁tm	-9.81907
ostoperatief	-9.82032
CI	-9.82061
▁centrale	-9.82167
▁intreden	-9.82226
▁pacemaker	-9.82228
ort	-9.82255
status	-9.8226
▁aankleuring	-9.82399
▁pathologische	-9.82475
▁plasmacellen	-9.82545
▁atelectase	-9.82589
▁basaal	-9.82602
▁teken	-9.82688
▁grotendeels	-9.82708
▁spierweefsel	-9.82714
▁casus	-9.82742
▁verkregen	-9.82895
▁pathologisch	-9.8293
Conclusie	-9.82987
▁hersensectie	-9.83351
▁cava	-9.83412
▁level	-9.83956
▁bijkomende	-9.84139
▁origo	-9.84165
▁presenteerde	-9.84168
gr	-9.842
▁adipeuze	-9.84491
▁langdurige	-9.84653
gediagnostiseerd	-9.84655
▁oor	-9.84761
▁bloedingsfocus	-9.84819
atig	-9.84945
▁vaat	-9.84948
▁insufficient	-9.84981
▁mutaties	-9.85019
▁calcificaties	-9.85064
▁vitaal	-9.85149
▁pus	-9.85153
▁hypovolemische	-9.85178
▁moeilijk	-9.85313
▁arm	-9.85479
▁stolling	-9.85502
▁coronaria	-9.85626
▁cardiogene	-9.85633
▁the	-9.85779
hart	-9.85811
▁aangegeven	-9.8584
ardiorespiratoir	-9.85849
ancreas	-9.85934
ch	-9.85964
▁gen	-9.85995
lever	-9.86078
▁infiltraten	-9.86187
▁gevolgd	-9.86203
▁relatie	-9.86431
▁icterus	-9.86476
▁differentiatie	-9.86486
microscopisch	-9.86506
▁gesteld	-9.86623
▁Huidstukje	-9.86643
▁bacterien	-9.86658
▁nek	-9.86683
Er	-9.86722
▁mesothelioom	-9.86811
▁necrotische	-9.86827
rostaatbiopten	-9.86864
iteindelijk	-9.86968
▁hemangioom	-9.86978
▁hemisfeer	-9.87315
ap	-9.87478
▁gelokaliseerd	-9.87484
▁daarin	-9.87563
▁epitheliale	-9.87676
▁laparotomie	-9.8778
▁low	-9.87791
▁voldoende	-9.87823
▁transmuraal	-9.87824
▁kleinere	-9.87907
▁laesies	-9.87973
IGE	-9.88053
▁pigment	-9.88055
▁middenkwab	-9.88075
▁levermetastasen	-9.88304
▁retroperitoneal	-9.88333
▁circulair	-9.88351
▁Colonbiopten	-9.88363
▁vorming	-9.88381
isch	-9.88446
ri	-9.88451
klinisch	-9.88475
▁geopereerd	-9.88501
▁hulp	-9.88501
▁progressief	-9.8852
▁genen	-9.8852
bloeding	-9.88655
▁concentrische	-9.88715
▁ontwikkeld	-9.88784
▁tumoren	-9.88786
▁komt	-9.88843
▁gaat	-9.88888
▁Longoedeem	-9.89028
▁cerebellaire	-9.89057
▁neurologische	-9.89183
▁Diagnostiek	-9.89186
▁ER	-9.89213
▁foetale	-9.89358
▁bestaat	-9.89368
▁verkalkingen	-9.89475
j	-9.89493
▁disease	-9.89521
▁lokaal	-9.8953
▁gezichtspunten	-9.89702
▁fibrineuze	-9.89703
▁benen	-9.89732
niercelcarcinoom	-9.89831
▁inferior	-9.89839
ahler	-9.89875
▁subarachnoidale	-9.9005
▁uitbreidend	-9.90057
▁terminaal	-9.90108
▁geassocieerd	-9.90266
▁trauma	-9.90274
▁ostium	-9.90281
thorax	-9.90324
▁lobulair	-9.90429
▁hooguit	-9.90483
▁gelaat	-9.9057
▁oorzaken	-9.90743
▁obv	-9.90775
▁verlittekening	-9.90803
▁leiomyoom	-9.90815
▁hoe	-9.90842
-11	-9.90852
▁voet	-9.90903
▁slaap	-9.9095
▁Hoog	-9.91031
▁overlijdt	-9.91096
▁aangelegd	-9.91111
▁bijvoorbeeld	-9.9112
▁blijken	-9.91142
longen	-9.91156
▁cholelithiasis	-9.91267
▁periode	-9.91314
▁druk	-9.91322
▁heup	-9.91432
▁duodeni	-9.91442
EH	-9.91495
▁kleppen	-9.91584
▁appendectomie	-9.91618
▁struma	-9.91623
▁lymfeklier	-9.9168
owel	-9.91735
▁Conform	-9.91794
▁Alle	-9.91808
▁hand	-9.91943
▁basocellulair	-9.91971
▁tumorproces	-9.92012
▁besproken	-9.92149
▁etiologie	-9.92308
▁Hersenobductie	-9.92325
▁macroscopie	-9.92339
orse	-9.92578
▁splenomegalie	-9.9265
▁maaginhoud	-9.92689
▁Aorta	-9.92692
id	-9.92726
orgaan	-9.92754
▁fibrine	-9.92766
therosclerotisch	-9.92817
verigens	-9.9284
▁langs	-9.92846
▁vragen	-9.92859
ose	-9.93002
▁muscularis	-9.93037
tr	-9.9313
os	-9.93267
▁oog	-9.93281
▁verklevingen	-9.93287
▁knie	-9.93362
▁hypoxische	-9.93391
▁beoordeeld	-9.93572
▁sereus	-9.93574
RICH	-9.93587
cellymfoom	-9.93597
▁appendicitis	-9.93775
RI	-9.93794
ende	-9.93863
▁Galblaas	-9.9389
▁cysteuze	-9.93892
▁zijdigheid	-9.93981
ipelle	-9.94139
▁postoperatief	-9.94163
▁toe	-9.94212
th	-9.94253
▁lekkage	-9.94524
▁opnemen	-9.94565
▁echo	-9.94701
ectomie	-9.94793
oliepectomie	-9.94806
▁fibroserende	-9.94822
terus	-9.94846
terke	-9.9493
▁takken	-9.94935
▁stolsel	-9.94963
▁metastatisch	-9.95021
▁grootste	-9.95025
▁pericardvocht	-9.95025
Bij	-9.95036
▁plaveiselcellig	-9.95039
ermoedelijk	-9.9526
▁hersen	-9.95339
ader	-9.95382
▁hersenonderzoek	-9.95389
▁haematoom	-9.95479
▁preparaat	-9.95562
pen	-9.95576
▁propria	-9.95748
▁zwangerschap	-9.95751
▁verbloeding	-9.95936
▁vetnecrose	-9.95947
▁ventraal	-9.96117
▁bevond	-9.96138
linische	-9.96211
▁sneevlak	-9.96283
▁afgesloten	-9.96485
▁longweefsel	-9.96658
▁prognose	-9.96669
▁thoraxwand	-9.9687
▁Biopsie	-9.96908
cc	-9.97036
aortaal	-9.97059
erd	-9.97189
ring	-9.97209
▁negatieve	-9.97234
▁aanduiding	-9.97292
▁complicaties	-9.97353
▁aannemelijk	-9.97598
▁hoogrisico	-9.97599
▁anteroseptaal	-9.97602
oom	-9.97767
▁vinden	-9.97796
▁stenosering	-9.97901
▁collaps	-9.97945
▁lymfeklieren	-9.97959
▁cystitis	-9.97966
▁urosepsis	-9.97973
▁longparenchym	-9.98025
ct	-9.9805
▁pathogene	-9.98132
▁bijna	-9.98139
aast	-9.98282
▁bleke	-9.98313
ath	-9.98363
uterusextirpatie	-9.98417
lacenta	-9.98433
▁gaan	-9.98439
▁naad	-9.98446
▁pinpoint	-9.98622
▁output	-9.98726
▁sarcoidose	-9.98726
▁kapsel	-9.98761
▁hierover	-9.98943
▁01	-9.9902
▁maagantrum	-9.99142
▁lymfadenopathie	-9.99294
▁grotere	-9.9933
▁teruggevonden	-9.99484
▁bedraagt	-9.99484
pathologie	-9.99656
▁bevindt	-9.99677
▁plaatsing	-9.99683
meer	-9.99703
▁endocervicale	-9.99715
▁regressie	-9.99867
▁stenoserende	-9.99993
eren	-10.0004
▁kunt	-10.0006
▁arteriele	-10.001
ot	-10.0011
▁appendix	-10.0013
eer	-10.0017
▁Gewicht	-10.0025
▁coronaire	-10.0028
ac	-10.0038
▁circulatoire	-10.0039
▁verslechterde	-10.0043
▁ontwikkeling	-10.0045
▁effect	-10.0051
▁glomeruli	-10.0053
▁hooggradige	-10.0055
▁alcoholabusus	-10.0063
DIAG	-10.0064
po	-10.0077
ateriaal	-10.0083
▁candida	-10.0088
pvallend	-10.01
▁IBD	-10.0104
▁beslag	-10.0107
▁fibrosering	-10.012
▁sinus	-10.0135
▁cholestase	-10.014
▁ruimte	-10.0168
▁niveau	-10.0172
▁lentigo	-10.0179
▁cardiovasculair	-10.018
▁trad	-10.0183
▁pulmonaal	-10.0183
▁juist	-10.0213
operatie	-10.0213
▁ade	-10.0217
▁stress	-10.022
▁diarree	-10.0238
▁hemorragisch	-10.0239
▁BI	-10.024
▁intraepithelial	-10.0266
▁folliculitis	-10.0277
▁ribfracturen	-10.0277
▁ovaria	-10.0277
▁nabij	-10.0296
▁zullen	-10.0297
prothese	-10.0301
▁actief	-10.0326
▁laten	-10.0328
▁leverde	-10.0335
▁Li	-10.0338
sis	-10.0342
▁panel	-10.0349
▁vriescoupe	-10.0356
lokalisatie	-10.0368
▁epidermis	-10.0372
▁pyelum	-10.0376
▁Duodenumbiopten	-10.0401
▁informatie	-10.0409
tweetal	-10.0424
nijvlak	-10.043
▁bdz	-10.0436
▁medicatie	-10.0436
jes	-10.0436
▁weer	-10.0452
▁maten	-10.0457
▁uteri	-10.0475
verleden	-10.0477
▁Enig	-10.0477
▁circumflex	-10.048
yocard	-10.0488
▁cirrose	-10.0498
▁massa	-10.0515
Cholecystectomie	-10.0516
▁stroomgebied	-10.0529
▁papilloom	-10.0531
▁anus	-10.0536
reactie	-10.0541
▁troebel	-10.0552
▁vliezen	-10.0557
▁resectieranden	-10.0562
▁macro	-10.0571
▁longembolien	-10.0576
▁neusrug	-10.0577
sverschijnselen	-10.0587
▁beginnend	-10.0597
▁DC	-10.0599
▁zone	-10.0619
▁buiten	-10.0624
▁Rechter	-10.0636
▁onverwacht	-10.0638
▁profiel	-10.064
onder	-10.0643
▁achteruit	-10.0659
infectie	-10.0662
▁afsluitende	-10.067
▁metabole	-10.0679
▁staat	-10.069
▁adhesies	-10.0694
assend	-10.0705
▁inhoud	-10.0705
▁coronairsysteem	-10.0721
mogelijk	-10.0723
terk	-10.0724
▁omgevend	-10.0727
▁bloedstolsels	-10.0728
▁dominant	-10.0731
▁stenosen	-10.0741
▁longbeeld	-10.0742
▁beademing	-10.075
▁schors	-10.0761
▁volgde	-10.0761
▁vlak	-10.0762
un	-10.0763
uameus	-10.0781
▁neuroendocrien	-10.0785
▁onderliggend	-10.0785
▁histologische	-10.079
▁leven	-10.0794
▁wond	-10.0795
▁hoofdstam	-10.0795
▁rectosigmoid	-10.0799
▁ambulance	-10.0802
nummer	-10.0806
▁nigra	-10.0823
▁and	-10.0823
▁nierfalen	-10.0825
▁Hypertrofie	-10.0839
▁geeft	-10.0845
▁shaveexcisie	-10.0845
▁Al	-10.0857
▁structuren	-10.0864
geschiedenis	-10.0868
▁prostaatbiopten	-10.0877
▁optreden	-10.0883
▁toxisch	-10.0888
▁aandoening	-10.0896
eke	-10.0898
▁classificerend	-10.0901
epitheel	-10.0911
▁zo	-10.0919
▁cho	-10.0921
▁Appendectomie	-10.0927
▁verzoek	-10.0927
▁stoma	-10.0932
▁be	-10.0942
▁secretariaat	-10.0948
▁vernauwd	-10.0948
▁h	-10.0949
▁trivasculair	-10.0951
▁corticale	-10.0962
▁Crohn	-10.0981
▁instabiele	-10.0998
lecystolithiasis	-10.1
decompensatie	-10.1001
▁vervolgens	-10.1014
▁persisterende	-10.1021
▁aldaar	-10.1033
▁uitgenomen	-10.1034
▁atypisch	-10.1036
urineweginfectie	-10.1042
setting	-10.1043
ater	-10.1055
▁Re	-10.1055
▁lumina	-10.1057
▁functie	-10.1071
ci	-10.1085
▁holte	-10.1093
▁renalis	-10.1097
ag	-10.1097
▁verkleuring	-10.1104
▁onbekende	-10.1105
amengevat	-10.1115
ultipele	-10.1115
▁lymfoide	-10.1118
▁stellen	-10.1118
▁leek	-10.1118
▁tumorvrij	-10.1121
▁volgende	-10.1122
inds	-10.1123
▁longafwijkingen	-10.1132
▁tubulovilleus	-10.1141
▁Beiderzijds	-10.1142
▁serosa	-10.1143
▁mucineus	-10.1145
▁openen	-10.1147
graad	-10.1149
▁verkleefd	-10.1161
▁invasiediepte	-10.1161
LLI	-10.1168
▁varices	-10.1171
▁nauwelijks	-10.1183
▁situatie	-10.1195
▁nefrectomie	-10.1204
▁Huidstans	-10.1212
▁hepato	-10.1212
▁minimaal	-10.1214
▁waaraan	-10.1226
▁daarvan	-10.1227
▁microorganismen	-10.1228
▁tuba	-10.1234
nderzoek	-10.1236
▁inclusief	-10.1241
laveiselepitheel	-10.1245
▁deposities	-10.1246
▁uitsluitend	-10.1247
▁intravasa	-10.1247
▁minuten	-10.1247
ia	-10.1281
▁milde	-10.1286
DL	-10.129
▁geboorte	-10.129
▁chirurgisch	-10.1292
▁maken	-10.13
ken	-10.13
▁ontstekingsrest	-10.1308
stwaarschijnlijk	-10.131
▁thoracalis	-10.1312
▁lymfocytose	-10.1312
weken	-10.1315
sreactie	-10.1322
▁aanvulling	-10.1324
▁thoraxholte	-10.1327
▁hepatocellulair	-10.1334
▁dunnedarm	-10.1335
▁verloop	-10.1342
▁EB	-10.1344
▁intern	-10.1353
▁diepte	-10.1355
▁hierboven	-10.1358
▁variant	-10.1362
Huidbiopt	-10.1369
▁spier	-10.137
▁verandering	-10.1376
▁drain	-10.1378
▁palliatief	-10.138
▁bronchi	-10.1381
▁gemaakt	-10.1392
▁adnex	-10.1407
▁care	-10.1407
▁omgeving	-10.1422
gesteronreceptor	-10.1424
▁fibreuze	-10.1444
▁enigszins	-10.1448
ritmestoornis	-10.1449
klepvervanging	-10.1451
oorlopig	-10.1452
▁Hb	-10.1455
▁patroon	-10.1458
▁algemene	-10.1466
▁bulleus	-10.1469
▁mid	-10.1474
▁bijbehorend	-10.1488
▁longfibrose	-10.1494
▁micronodulaire	-10.1502
AR	-10.1508
▁Inwendig	-10.151
▁vulgaris	-10.151
▁aanleggen	-10.1513
rest	-10.1521
▁dank	-10.1523
la	-10.1527
▁out	-10.1532
▁kenmerkend	-10.1533
▁grafts	-10.1549
Revisie	-10.1549
▁fraai	-10.1555
▁jejunum	-10.1565
proliferatieve	-10.1577
▁lijken	-10.158
▁expressie	-10.1582
▁lokalisaties	-10.1584
▁cel	-10.1588
▁segment	-10.1589
▁gecombineerd	-10.1592
▁klier	-10.1596
▁aantoonbare	-10.16
▁neuronen	-10.1603
▁representatief	-10.1612
▁aftakkingen	-10.1621
▁melaena	-10.1622
amputatie	-10.1623
▁aanvankelijk	-10.1645
▁bilateraal	-10.1645
▁consistentie	-10.1647
ICR	-10.1659
▁lastig	-10.1668
scan	-10.1674
dometriumpoliep	-10.1687
▁soms	-10.169
no	-10.1692
▁et	-10.1705
▁ischaemisch	-10.1709
▁chirurgie	-10.1716
▁fibrotische	-10.1717
lijk	-10.1718
ide	-10.1725
▁bleef	-10.1736
▁compleet	-10.1736
▁multipel	-10.1743
hy	-10.1743
aortale	-10.1744
▁Beenmerg	-10.1746
▁gesuperponeerd	-10.1749
▁hilus	-10.1754
▁morfologische	-10.1756
▁hernia	-10.1762
▁anti	-10.1767
splenomegalie	-10.1771
▁tezamen	-10.1771
▁duidend	-10.1778
▁lokale	-10.1781
▁wisselend	-10.1794
▁fibro	-10.1799
▁gevallen	-10.1808
▁Intra	-10.1813
▁angio	-10.1814
▁astma	-10.185
▁spongiotische	-10.185
▁myeloide	-10.185
▁fractuur	-10.1851
▁craniaal	-10.1865
▁plaveiselepithe	-10.1869
▁herkenbaar	-10.1873
▁nefropathie	-10.1877
kt	-10.1877
▁infectieus	-10.1891
▁darmlissen	-10.1896
▁porta	-10.1909
▁grensvlak	-10.1919
▁erosieve	-10.1923
childklier	-10.1924
▁activiteit	-10.1929
anwege	-10.193
aan	-10.1931
▁darmslijmvlies	-10.1936
▁papillairspier	-10.1937
▁hr	-10.1937
▁hele	-10.1939
▁hydronefrose	-10.1942
▁afwijkende	-10.1953
over	-10.1976
AD	-10.1979
aat	-10.1984
▁aspergillus	-10.2012
existente	-10.2018
▁Lewy	-10.2036
▁uiting	-10.2039
▁feit	-10.2059
▁aanvrager	-10.2059
▁gecollabeerd	-10.2059
▁geel	-10.2064
▁Drie	-10.2073
▁verwerkt	-10.2083
▁fibreus	-10.2083
invasie	-10.2098
▁staken	-10.2106
▁heldercellig	-10.2107
ijn	-10.2108
▁luchtwegen	-10.2109
▁histomorfologi	-10.211
▁adnexen	-10.2124
▁subcutis	-10.2131
proliferatie	-10.2134
▁poliepectomie	-10.2138
▁compressie	-10.214
ische	-10.2151
▁mitraalklep	-10.2155
▁Hierna	-10.2158
▁2000	-10.2162
▁intracerebrale	-10.2163
stoornis	-10.2169
▁verkalking	-10.2189
▁overeen	-10.2195
▁node	-10.2196
▁scheur	-10.2197
▁terug	-10.2201
▁succesvol	-10.2206
▁derden	-10.2206
voorwand	-10.2207
▁cardio	-10.2221
▁tb	-10.2224
▁complicatie	-10.2229
▁dikte	-10.223
▁externa	-10.2234
▁blokje	-10.2246
▁leverfunctie	-10.2265
▁atrofisch	-10.2269
▁compact	-10.2272
evenbevindingen	-10.2274
do	-10.2285
taks	-10.2286
▁verbetering	-10.2297
▁vitale	-10.2297
▁dextra	-10.2298
co	-10.2302
▁RC	-10.2312
▁bevat	-10.2318
▁Giardia	-10.2321
▁noemenswaardig	-10.2321
positieve	-10.2334
▁rode	-10.2335
van	-10.2344
negatief	-10.2347
▁geruptureerde	-10.2356
▁cachectische	-10.2368
ut	-10.238
▁Cervix	-10.2391
mi	-10.2403
chedelsectie	-10.2415
▁maart	-10.2429
▁lucht	-10.2446
IA	-10.2458
▁Is	-10.2467
sclerose	-10.2475
▁neuropatholoog	-10.2488
▁kond	-10.2489
▁coeliacus	-10.2491
▁multiple	-10.2492
▁Blaas	-10.2497
▁respons	-10.2507
▁genomen	-10.251
▁snelle	-10.2511
laatselijk	-10.2516
▁geleden	-10.2517
▁ECG	-10.2517
oleculair	-10.2519
▁operatiegebied	-10.2525
▁aanleg	-10.2525
immuunhistochemi	-10.2527
▁hospital	-10.2536
▁interne	-10.2536
▁toegestaan	-10.2541
ergens	-10.2546
stenose	-10.2554
skenmerken	-10.2555
▁intensive	-10.2559
▁Huidstansbiopt	-10.2559
▁flow	-10.2561
▁gefragmenteerd	-10.2565
▁structurele	-10.2565
▁lang	-10.2566
▁beste	-10.2572
▁vond	-10.2577
▁verhoornend	-10.2583
▁vaso	-10.2585
▁schimmel	-10.2598
ren	-10.2599
▁gedecompenseerd	-10.2599
▁dicht	-10.26
▁bevatten	-10.2603
aagslijmvlies	-10.2609
ors	-10.2609
▁randen	-10.262
▁orgaan	-10.2624
▁leverparenchym	-10.2626
▁gliose	-10.2632
▁opruimreactie	-10.264
▁Colon	-10.2659
▁Bevindingen	-10.266
▁musculus	-10.2665
chorioamnionitis	-10.2666
erende	-10.2677
▁tel	-10.2683
long	-10.2684
▁moleculaire	-10.2685
▁geirriteerde	-10.269
▁mesenteriale	-10.269
▁interstitieel	-10.269
▁intradermale	-10.269
▁januari	-10.2715
▁neuropathologie	-10.2717
▁gekend	-10.2717
▁bil	-10.2721
▁aankomst	-10.2723
▁leverhilus	-10.2732
▁buikklachten	-10.2742
▁Cervixbiopt	-10.275
▁bijbevinding	-10.2756
▁correlatie	-10.2765
▁celarm	-10.2765
lijn	-10.2785
▁ruggenmerg	-10.279
▁hyperkeratose	-10.279
▁behaard	-10.2796
▁ondergaan	-10.2804
▁handrug	-10.2809
rand	-10.2816
▁urineblaas	-10.2816
▁granuloma	-10.2817
▁sprieterige	-10.2821
▁typisch	-10.2826
▁brein	-10.2827
▁langdurig	-10.283
▁geslacht	-10.2841
▁onderlip	-10.2841
▁vraagstelling	-10.2841
supraclaviculair	-10.2842
rh	-10.2846
▁Bcel	-10.2846
▁verwijd	-10.2856
▁onderzochte	-10.286
sen	-10.2861
▁02	-10.2865
▁stenen	-10.2866
▁kruin	-10.2867
▁Cytologisch	-10.2881
gaand	-10.2882
coronairlijden	-10.2887
itgebreid	-10.29
▁restlumen	-10.2908
embolie	-10.291
▁dissociatie	-10.2918
▁dermaal	-10.2926
▁dehydratie	-10.2927
ranulatieweefsel	-10.2928
▁morfologie	-10.2935
▁vertakkingen	-10.2935
▁co	-10.2946
▁purulent	-10.295
▁hemodynamische	-10.2953
▁adipositas	-10.2954
▁tpv	-10.2969
▁ulcererend	-10.2973
og	-10.2977
▁caudaal	-10.2982
embolus	-10.2983
▁tepel	-10.299
▁medulla	-10.2994
▁2-	-10.3002
▁longemboli	-10.3009
▁f	-10.3011
▁nefrosclerose	-10.3021
▁telefonisch	-10.3021
▁Ascites	-10.3028
chedelobductie	-10.3044
▁antibiotisch	-10.3046
▁embolus	-10.3048
▁epicard	-10.3055
▁poliepen	-10.3063
▁overgeplaatst	-10.3073
ti	-10.3073
Huidexcisie	-10.3077
▁ongewijzigd	-10.3099
▁microbiologisch	-10.31
▁patholoog	-10.3102
▁architectuur	-10.3106
▁Coupes	-10.3108
▁belangrijke	-10.3124
▁acuta	-10.3125
▁overwegingen	-10.3135
▁Recent	-10.3138
▁inspectie	-10.3151
rt	-10.3153
▁Colonslijmvlies	-10.3155
intestinale	-10.3155
hyperkeratotisch	-10.3177
▁epilepsie	-10.3177
▁globale	-10.3177
▁kuit	-10.3178
strogeenreceptor	-10.3184
▁papil	-10.3184
coli	-10.3196
▁schedel	-10.3203
▁plaatsgevonden	-10.3203
▁thalamus	-10.3204
▁intracraniel	-10.3212
▁neoplasie	-10.3212
▁neusvleugel	-10.3214
▁CLL	-10.3216
▁hypo	-10.3219
▁men	-10.3229
▁helicobacter	-10.323
▁dysmorf	-10.323
▁herstel	-10.323
▁helft	-10.3232
baar	-10.3246
acroscopie	-10.3254
▁aanspreekbaar	-10.3256
▁Gleasonscore	-10.3257
ormaal	-10.3276
ant	-10.3277
▁ingenomen	-10.3287
▁problemen	-10.3289
▁hartfunctie	-10.3303
▁steatohepatitis	-10.3309
▁Resectievlakken	-10.331
▁heb	-10.331
maal	-10.3315
▁Reanimatie	-10.3336
▁ulcerosa	-10.3336
ehalve	-10.3336
existent	-10.335
arkinson	-10.3363
▁sinistra	-10.3363
sub	-10.3363
▁ouder	-10.3365
linker	-10.3366
▁hieraan	-10.3366
▁spreidend	-10.3389
▁exacerbatie	-10.339
▁retroperitoneum	-10.339
▁beeldvorming	-10.3394
▁kg	-10.34
▁staan	-10.34
▁lab	-10.3404
▁cerebraal	-10.3408
dr	-10.341
▁inflammatoire	-10.3413
▁trans	-10.3418
niet	-10.3425
▁fragment	-10.3426
rij	-10.343
▁wenkbrauw	-10.3439
▁coeliakie	-10.3443
▁betreffen	-10.3468
▁station	-10.3471
▁hierdoor	-10.3472
ak	-10.3478
▁vijf	-10.3479
oc	-10.3496
▁instabiel	-10.3505
▁evenmin	-10.3511
▁verzocht	-10.3525
▁subcutaan	-10.3525
▁lymfangio	-10.3534
▁diam	-10.354
▁hemodynamisch	-10.3541
▁fibroadenoom	-10.3552
▁diabetische	-10.3552
▁romp	-10.3553
▁dorsale	-10.3553
regio	-10.3555
▁Creutzfeldt	-10.3559
▁darmwand	-10.3562
▁Licht	-10.3574
▁Centrum	-10.3579
▁antistolling	-10.3586
nevenbevindingen	-10.3593
▁naaldbiopten	-10.3598
▁Rechts	-10.3598
▁gele	-10.3598
dissectie	-10.3607
▁opgestuurd	-10.3614
im	-10.3627
▁planus	-10.3634
▁neurologisch	-10.3635
▁cardiomyocyten	-10.3636
rechter	-10.3636
▁wijst	-10.364
▁valt	-10.3648
adenoom	-10.3659
▁letsel	-10.3659
▁hypoxisch	-10.3685
▁achterhalen	-10.3689
▁suspect	-10.3689
▁naden	-10.369
▁myocardischemie	-10.3693
▁hartstilstand	-10.3699
▁amplificatie	-10.3699
celcarcinoom	-10.3711
akob	-10.3717
▁hersenoedeem	-10.3717
Diagnosen	-10.372
▁stam	-10.372
▁nefritis	-10.3727
▁nadere	-10.3728
ph	-10.373
uentie	-10.373
▁maagbiopten	-10.3731
▁pseudo	-10.3737
onwaarschijnlijk	-10.3737
▁ribben	-10.3745
waarschijnlijk	-10.3755
▁Links	-10.3779
▁sigmoidresectie	-10.3781
▁extirpatie	-10.3793
▁ze	-10.3801
▁longkwabben	-10.3802
cyt	-10.3806
▁rib	-10.3808
▁hoofdbronchus	-10.3812
kweek	-10.3817
illis	-10.3825
▁adenomateuze	-10.3826
voedingstoestand	-10.3829
▁literatuur	-10.3829
▁klieren	-10.383
fragmenten	-10.3837
ooralsnog	-10.3856
▁myometrium	-10.3857
sepsis	-10.3859
▁wervel	-10.3863
diagnose	-10.3868
▁vlekkerig	-10.3885
uate	-10.3887
ium	-10.3887
▁vegetaties	-10.3891
len	-10.3897
▁arts	-10.3903
▁Elders	-10.3913
▁oblongata	-10.3913
▁lange	-10.3923
▁embolie	-10.3924
cl	-10.3925
di	-10.3933
▁kind	-10.3938
▁Dunne	-10.3941
▁denken	-10.3949
▁ernst	-10.3969
▁parotis	-10.397
▁thv	-10.3971
▁verval	-10.3971
▁Bronchopneumoni	-10.3972
▁pneumothorax	-10.3986
▁Aanwijzing	-10.3989
▁voorkomen	-10.3992
▁circulaire	-10.3998
LD	-10.4006
▁Gegeneraliseerd	-10.4015
▁rood	-10.4028
▁Rond	-10.4028
▁doorsnijdingen	-10.4029
▁correleren	-10.4037
▁wijzend	-10.4048
▁hiermee	-10.4048
▁hepatis	-10.4053
▁reden	-10.4055
▁cholangitis	-10.4055
▁spoedeisende	-10.4056
week	-10.4075
▁bepaald	-10.4084
▁zogenaamd	-10.4086
-11-0	-10.4087
act	-10.4091
pl	-10.4098
▁der	-10.4106
▁bloedinkjes	-10.4118
▁overvulling	-10.4133
▁basilaris	-10.4136
▁klasse	-10.4142
▁zondermeer	-10.4142
ab	-10.4152
▁geperforeerd	-10.4156
▁plaveisel	-10.4156
LAD	-10.4161
▁sarcoom	-10.4167
▁levercelverval	-10.4171
▁slijmvormend	-10.4171
▁postoperatieve	-10.4171
▁testis	-10.4172
▁samenhangend	-10.4175
▁pols	-10.4178
▁substanti	-10.4191
▁bevestiging	-10.42
▁verminderd	-10.4203
▁uiteinden	-10.4205
eld	-10.4214
▁nee	-10.4219
▁oorschelp	-10.4223
▁korte	-10.4226
▁steatosis	-10.423
▁thymus	-10.423
▁aortadissectie	-10.4239
▁levert	-10.4249
ng	-10.425
io	-10.4255
▁resultaat	-10.4258
▁ligt	-10.4259
tjes	-10.426
▁lumbaal	-10.4264
▁aangezien	-10.4269
▁min	-10.4281
LI	-10.4282
▁belangrijks	-10.4284
▁palliatie	-10.4285
erspreid	-10.4287
▁betrekking	-10.4288
▁middel	-10.4296
▁haardje	-10.4304
LA	-10.4307
▁radicaliteit	-10.4317
▁complete	-10.4317
▁ooghoek	-10.4317
▁subduraal	-10.4317
▁extranodale	-10.4319
▁divertikel	-10.4339
▁keratoacanthoom	-10.4347
▁ascitesvocht	-10.4348
▁aard	-10.4353
▁achterst	-10.437
▁zes	-10.4383
▁genetisch	-10.4401
▁mei	-10.4411
ontsteking	-10.4414
procedure	-10.4418
▁uiteinde	-10.4424
▁discrete	-10.4436
▁cavum	-10.4436
▁grootte	-10.4447
▁forward	-10.4465
verantwoordelijk	-10.4465
▁april	-10.4469
▁onderrug	-10.4475
▁bovenlip	-10.4484
oid	-10.4485
▁larynx	-10.4488
▁tak	-10.449
▁beelden	-10.4491
▁redelijk	-10.4496
▁rechtszijdig	-10.4508
▁infect	-10.4511
▁anatomisch	-10.4512
▁oesofagitis	-10.4526
▁1000	-10.453
▁influx	-10.4535
▁kin	-10.4535
curettage	-10.4538
▁acidose	-10.4553
▁Bovendien	-10.4556
▁alhier	-10.4556
▁posteroseptaal	-10.4556
Hodgkinlymfoom	-10.4557
▁beschouwen	-10.4557
actieve	-10.4567
▁rectumcarcinoom	-10.4568
▁maakt	-10.4569
▁februari	-10.4571
syndroom	-10.4587
min	-10.4599
positief	-10.4602
▁berust	-10.4615
▁lienalis	-10.4616
haarden	-10.4617
punctie	-10.4621
gebruik	-10.4636
▁sternum	-10.4646
▁infaust	-10.4646
▁nagenoeg	-10.4647
▁evenwel	-10.4649
▁flexu	-10.4657
▁urotheel	-10.466
▁stollings	-10.4663
▁hemorrhagische	-10.4664
etastasen	-10.4672
▁kwabben	-10.4682
ovariumcarcinoom	-10.4687
tisch	-10.4688
alveolaire	-10.4692
▁bewustzijn	-10.4697
▁amputatie	-10.4706
▁darmperforatie	-10.4712
resectievlak	-10.4715
▁gedeelte	-10.4739
▁luchthoudend	-10.4743
▁Diameter	-10.4747
▁axilla	-10.4748
▁myelo	-10.4758
▁hierop	-10.4759
▁instabiliteit	-10.4759
abdominale	-10.4783
▁resp	-10.4783
2)	-10.4785
000	-10.4785
▁verkalkte	-10.4787
*******)	-10.4789
orbus	-10.4792
▁wie	-10.4819
sie	-10.4826
▁destructie	-10.4827
rwijl	-10.4831
▁geobjectiveerd	-10.4831
▁multinodulair	-10.4832
▁Beenmergbiopt	-10.4836
▁merg	-10.4839
▁her	-10.4839
▁voorwandinfarct	-10.4839
filtratiediepte	-10.4842
▁myocardial	-10.4853
ruptuur	-10.4854
▁ex	-10.4855
od	-10.4857
▁Behouden	-10.4862
▁vasoinvasie	-10.4864
ly	-10.4866
▁lymfo	-10.4868
▁Daar	-10.4869
▁locatie	-10.4875
▁cachexie	-10.4885
ieuwe	-10.4885
▁angina	-10.4893
▁vaatjes	-10.4896
tv	-10.4902
▁cysteus	-10.4903
▁pleuraholten	-10.4905
▁verwijding	-10.4907
▁voorste	-10.491
Anat	-10.4914
▁hepatica	-10.4924
tje	-10.4924
▁darmischaemie	-10.4927
▁maagcorpus	-10.4933
▁ruimten	-10.4936
▁mammaweefsel	-10.4936
mortaal	-10.4951
▁plak	-10.4953
▁bevestigen	-10.4956
▁posterolateraal	-10.4956
▁pericardholte	-10.4957
score	-10.4973
▁receptor	-10.4976
▁simplex	-10.4987
▁zin	-10.4987
▁vaak	-10.4987
▁progressie	-10.499
▁vaatwand	-10.4994
▁infiltratief	-10.4998
eu	-10.5009
▁geisoleerd	-10.5019
▁streaks	-10.5019
▁ontstane	-10.5019
erslag	-10.5019
▁scapula	-10.5024
▁blasten	-10.505
▁hersenarterien	-10.5051
▁rechternier	-10.5054
▁eindstadium	-10.5055
▁cardia	-10.5056
▁maagresectie	-10.5066
▁abcessen	-10.5069
multiorgaanfalen	-10.5071
▁angiopathie	-10.5081
▁anaplastisch	-10.5082
▁agonale	-10.5084
▁cell	-10.5087
▁Radicaal	-10.5093
▁arteriolosclero	-10.5101
leine	-10.5102
abdominaal	-10.5107
▁geperforeerde	-10.5111
hypertensieve	-10.5113
▁metaplastisch	-10.5114
▁partus	-10.5116
▁hadden	-10.5121
incontinentie	-10.5146
▁oesophagitis	-10.5146
▁translocatie	-10.5146
▁verwekker	-10.5157
100	-10.5167
▁backward	-10.5168
▁subclavia	-10.5178
effect	-10.5178
▁verdikte	-10.5184
up	-10.5189
▁uitval	-10.5198
▁HI	-10.52
▁with	-10.5211
▁aa	-10.5225
eeds	-10.5226
ling	-10.5228
▁derde	-10.5242
hipple	-10.5242
▁juni	-10.5242
▁belang	-10.5242
▁psoriasis	-10.5243
broekprothese	-10.5247
▁top	-10.5247
▁gerelateerde	-10.5258
pt	-10.5271
ub	-10.5273
▁dialyse	-10.5275
▁parietalis	-10.5275
▁context	-10.5275
▁subcutane	-10.5275
▁tumorload	-10.5277
▁vol	-10.5283
▁galstenen	-10.5307
▁resterende	-10.5308
▁los	-10.5308
▁aortaboog	-10.5312
▁mediaan	-10.5316
▁ureteren	-10.5317
▁virus	-10.5328
▁behulp	-10.534
▁petechien	-10.5341
Alab	-10.5344
▁afmeting	-10.5346
▁hersenbloeding	-10.5347
▁posterieur	-10.5347
▁longlijden	-10.5348
▁verweking	-10.5356
lein	-10.5357
parenchym	-10.5369
▁hematopoese	-10.5372
▁hydrocephalus	-10.5372
▁abusus	-10.5374
ering	-10.538
▁alcoholische	-10.5381
eest	-10.5381
▁laboratorium	-10.5382
▁pretibiaal	-10.5405
osis	-10.5407
▁hierna	-10.5408
tt	-10.5409
▁Bijkomende	-10.5414
edisch	-10.5419
immunohistochemi	-10.5425
▁positiviteit	-10.5425
▁RE	-10.5427
▁erfelijke	-10.5434
enslotte	-10.5438
▁Huidshave	-10.5442
▁aantasting	-10.5445
▁gaande	-10.5455
ormale	-10.546
▁pleurale	-10.547
▁gaarn	-10.5471
▁vulva	-10.5472
▁wellicht	-10.5473
▁consultatie	-10.5474
men	-10.5483
Biopten	-10.549
▁lobaire	-10.5496
▁onderscheid	-10.5497
coronairarterie	-10.5501
nier	-10.5502
▁begin	-10.5504
▁gelocaliseerd	-10.5504
▁editie	-10.5504
aire	-10.5505
rechteronderkwab	-10.5508
▁papperig	-10.5508
art	-10.551
▁fatty	-10.551
rug	-10.552
▁sp	-10.5529
▁psoas	-10.5534
▁atria	-10.5535
▁december	-10.5537
▁hartdood	-10.5537
▁lobectomie	-10.5537
▁maligna	-10.5537
▁obesitas	-10.5538
▁premaligniteit	-10.5539
isatie	-10.5543
▁relevante	-10.5544
▁bovengenoemde	-10.5558
▁intima	-10.556
▁waarme	-10.5562
▁factor	-10.5568
▁voorlopig	-10.5572
▁bradycardie	-10.5573
▁groep	-10.5589
▁cholangio	-10.5592
haard	-10.5594
▁ingesloten	-10.5602
▁vasculopathie	-10.5604
aaldbiopt	-10.5614
fibrose	-10.5621
▁collega	-10.5638
▁stuwingsbeeld	-10.5638
▁preauriculair	-10.5639
▁myeloom	-10.5639
pre	-10.5639
▁maagcarcinoom	-10.5643
▁tubulus	-10.5651
ijf	-10.5659
▁verschijnselen	-10.5667
so	-10.5673
▁bestraling	-10.5676
RE	-10.5677
▁LI	-10.5679
1)	-10.5687
logie	-10.5687
▁setting	-10.5689
Anummer	-10.5697
▁verdikt	-10.5699
▁verwijde	-10.5701
ingen	-10.5703
▁subacute	-10.5706
els	-10.5714
sactiviteit	-10.5717
▁november	-10.5723
curettement	-10.5728
▁femoralis	-10.5734
▁augustus	-10.5739
▁hepatomegalie	-10.5739
▁mediastinaal	-10.5739
▁neuspunt	-10.5739
▁opzichte	-10.5741
▁Chronische	-10.5761
▁preexistente	-10.5768
▁sclerosus	-10.5773
▁vervetting	-10.5773
▁maagperforatie	-10.5778
tumorlocalisatie	-10.5778
▁dubieus	-10.578
▁2010	-10.5797
tie	-10.5799
dilatatie	-10.5799
▁histologie	-10.5806
▁amenorrhoeduur	-10.5807
▁organ	-10.5807
▁faecale	-10.5807
▁misselijkheid	-10.5807
▁mesenteriaal	-10.5817
▁Bethesda	-10.5824
▁fre	-10.5827
jw	-10.5839
▁indien	-10.5839
▁doen	-10.5841
verschuiving	-10.5841
▁betrouwbaar	-10.5841
▁oktober	-10.5841
▁juli	-10.5841
▁frontale	-10.5847
ment	-10.5848
▁rechterzijde	-10.5859
▁Hersenonderzoek	-10.5869
▁membranen	-10.5875
▁ieder	-10.5876
LE	-10.589
▁detrusor	-10.5892
▁perivasculair	-10.5894
▁micronodulair	-10.5905
-12-0	-10.5909
riescoupe	-10.591
ard	-10.5922
▁2012	-10.5928
iteit	-10.5928
▁Candida	-10.5934
Consult	-10.5945
▁endocervicaal	-10.5945
▁perfusie	-10.5946
▁peritoneale	-10.5947
alis	-10.5949
▁drainage	-10.595
▁papmilt	-10.5956
▁dezelfde	-10.5957
▁ritme	-10.5966
▁restant	-10.5969
▁oorsprong	-10.598
paraneoplastisch	-10.5982
▁eind	-10.5987
erend	-10.5987
▁seniele	-10.599
▁vermoeden	-10.599
▁jonge	-10.601
▁pectoris	-10.601
betrouwbare	-10.6014
▁herkend	-10.6014
ens	-10.6015
ation	-10.6023
▁sluit	-10.603
▁pneumoniae	-10.6032
embolien	-10.6034
lu	-10.6039
▁encefalopathie	-10.6046
enkele	-10.6048
max	-10.6048
▁inter	-10.6048
▁papillomatosus	-10.6049
adenocarcinoom	-10.605
▁hyperplastisch	-10.6051
▁random	-10.6053
circa	-10.6057
▁Huidresectie	-10.6062
▁hypoplasie	-10.6066
▁transplantatie	-10.6071
▁goedaardig	-10.6085
▁Hersensectie	-10.6085
myocardischaemie	-10.6086
▁staphylococcus	-10.6087
▁lymfoid	-10.6087
klachten	-10.6087
▁Immuun	-10.6106
▁tumorhaarden	-10.6108
uur	-10.6111
▁vlekkig	-10.6115
ractus	-10.6116
▁immature	-10.612
▁Andere	-10.6122
lijden	-10.6122
operatief	-10.6139
▁uitrijping	-10.6141
▁corpustype	-10.6145
▁nacht	-10.6146
immuun	-10.6149
test	-10.6156
▁urethra	-10.616
▁gal	-10.6183
▁typering	-10.6195
▁nucle	-10.6195
▁gisten	-10.6197
▁mechanische	-10.6208
▁volume	-10.6209
▁linkerzijde	-10.6213
▁prominente	-10.6214
tri	-10.6215
▁elkaar	-10.6227
▁kern	-10.6228
▁vulling	-10.6233
iernaast	-10.6235
▁Litteken	-10.6241
ker	-10.6247
ziekte	-10.6247
beensamputatie	-10.6248
▁divertikels	-10.6251
▁Bijnieren	-10.626
▁simpel	-10.6262
▁supra	-10.6285
schimmelinfectie	-10.6293
▁georganiseerde	-10.6296
▁trisomie	-10.6298
EI	-10.6299
▁controle	-10.6309
▁variatie	-10.632
▁overtuigend	-10.6333
▁radiologisch	-10.6339
▁preexistent	-10.6345
▁hematomen	-10.637
-10-0	-10.637
▁digitus	-10.6371
▁curettage	-10.6379
▁anaemie	-10.6406
▁gastropathie	-10.6406
▁granulerende	-10.6407
▁stemband	-10.641
▁bovenste	-10.6415
▁chromosomale	-10.6419
▁doorsneden	-10.6435
nijranden	-10.6441
▁2001	-10.6442
▁spontaan	-10.6443
▁pijnklachten	-10.6444
▁tumorpositief	-10.6456
▁dame	-10.6456
pro	-10.6461
jarig	-10.6463
GEE	-10.6469
▁verruc	-10.647
deel	-10.6477
▁2011	-10.6478
▁groeirestrictie	-10.6479
▁lymfogene	-10.6479
▁Aangezien	-10.648
▁windingen	-10.6482
▁depositie	-10.6482
▁tau	-10.6483
▁kleur	-10.6485
▁bloedkweek	-10.6486
▁afname	-10.6494
perforatie	-10.6505
▁aortawand	-10.6505
▁carcinoid	-10.6506
vi	-10.6529
▁stents	-10.6532
▁glandulaire	-10.6535
▁submucosa	-10.6545
com	-10.6547
▁vergroeid	-10.6552
▁granulocytair	-10.6552
▁doet	-10.6552
▁hypofyse	-10.6553
▁lieten	-10.6572
▁wervels	-10.6579
▁ulceraties	-10.6582
athologie	-10.6584
▁vagina	-10.6587
▁behoeve	-10.6589
▁multifocale	-10.6589
▁pulpa	-10.6589
▁zorg	-10.659
ALE	-10.6606
ond	-10.6608
▁venen	-10.661
▁vat	-10.6611
▁Hypertrofisch	-10.6612
▁encephalopathie	-10.6614
▁rejectie	-10.6626
▁scalp	-10.6626
▁Groot	-10.6638
▁linkernier	-10.6654
▁tubuli	-10.6663
▁bloederige	-10.6663
elijk	-10.667
▁leidend	-10.6674
▁transformatie	-10.6676
emboli	-10.6681
▁factoren	-10.6682
▁ondersteuning	-10.6685
▁minste	-10.6698
▁leiomyomen	-10.6701
▁woog	-10.6701
▁bovenkwabben	-10.6701
▁sentinel	-10.6702
per	-10.6715
▁geneesmiddelen	-10.6722
▁nietkleincellig	-10.6727
▁spoed	-10.6735
▁RB	-10.6736
Hodgkin	-10.6742
▁lumpectomie	-10.6745
endocriene	-10.6747
▁empyeem	-10.6764
si	-10.6767
▁Bronchus	-10.6768
sta	-10.6772
▁intubatie	-10.6776
▁atrofische	-10.6782
uitsluitend	-10.6783
diagnostisch	-10.6783
▁longvaten	-10.6784
▁geinfecteerde	-10.6785
▁aangevraagd	-10.6813
▁geadviseerd	-10.6813
▁avond	-10.6813
▁compatibel	-10.6814
▁speekselklier	-10.6814
-01-0	-10.6826
maximale	-10.6826
▁to	-10.6828
▁graag	-10.6833
▁stoornissen	-10.6833
▁Gering	-10.6836
▁therapeutisch	-10.6848
▁hypertrofe	-10.6851
ui	-10.6855
▁allen	-10.6858
ip	-10.6875
maag	-10.6889
▁fasciitis	-10.6889
▁gevoerd	-10.6889
▁hydrothorax	-10.689
▁bovenkwadrant	-10.689
▁stentplaatsing	-10.689
▁symmetrisch	-10.689
aspiratie	-10.6903
▁enzymkleuring	-10.6911
▁art	-10.6918
▁uitsluiting	-10.6928
▁darmpakket	-10.693
▁epi	-10.6932
▁hartkleppen	-10.6933
▁tumoreus	-10.6939
orfologisch	-10.6948
▁mond	-10.6949
▁toen	-10.695
rechterbovenkwab	-10.695
ers	-10.6951
egens	-10.6952
▁Clark	-10.6966
▁cardiopulmonale	-10.6966
▁Basal	-10.6966
▁naaldbiopt	-10.697
och	-10.6981
▁kleiner	-10.6993
seudomonas	-10.7
lebsiella	-10.7004
▁resttumor	-10.701
holte	-10.7017
▁atherosclerosis	-10.7018
▁reuscellen	-10.702
▁bijnierschors	-10.7043
▁staven	-10.7043
▁afgezien	-10.7044
arge	-10.7045
oud	-10.7045
▁nierarterien	-10.7051
▁pas	-10.7054
gram	-10.7062
nieren	-10.7063
yl	-10.7064
▁overweging	-10.7066
▁duodenumbiopten	-10.7069
ventrikelsysteem	-10.7073
carcinoma	-10.7078
▁algemeen	-10.7082
▁dissecans	-10.7082
▁visceralis	-10.7082
▁eigenlijk	-10.7082
▁erosie	-10.7086
▁kamer	-10.7103
passend	-10.7103
▁broncho	-10.7108
▁lymfocytair	-10.7117
▁verkleurd	-10.7121
▁zwart	-10.7121
▁vene	-10.7126
▁doorlopend	-10.7128
▁ingehecht	-10.7143
▁biologisch	-10.716
▁renum	-10.716
▁gebarsten	-10.716
▁maagbloeding	-10.7161
▁cervicale	-10.7164
lomerulonefritis	-10.7172
▁stamcel	-10.7173
▁prostaatweefsel	-10.7179
lis	-10.7182
ware	-10.719
mdat	-10.7196
zijde	-10.7198
▁verdikking	-10.7199
▁Grote	-10.7199
▁meerkernige	-10.7199
▁refractair	-10.7199
▁angioinvasie	-10.721
▁histopathologi	-10.7211
einde	-10.7214
▁lymf	-10.7217
pla	-10.7218
▁ochtend	-10.7218
▁definitief	-10.7221
▁gewenst	-10.7224
▁autolytisch	-10.7224
▁middelgro	-10.7226
-02-0	-10.7232
beschadiging	-10.7233
▁helix	-10.7234
▁veranderde	-10.7236
▁bemoeilijkt	-10.7238
▁eenduidig	-10.7238
▁gaaf	-10.7238
▁hypoperfusie	-10.7238
ervolgens	-10.7239
lap	-10.7244
▁shave	-10.7246
endocrien	-10.7261
▁fatale	-10.7265
▁overwegen	-10.7267
ik	-10.7271
▁velden	-10.7271
▁donker	-10.7278
▁succes	-10.7278
yelodysplastisch	-10.7278
▁hydrops	-10.7278
▁pars	-10.7278
▁pancreasstaart	-10.7278
diagnosen	-10.728
▁scheenbeen	-10.7298
▁herseninfarct	-10.7309
my	-10.7309
entree	-10.7309
▁onderooglid	-10.7312
▁colectomie	-10.7317
▁sclerotisch	-10.7321
▁longbloeding	-10.7322
analyse	-10.7325
▁vraag	-10.7327
▁colonbiopten	-10.7338
▁verkleving	-10.7341
esophagus	-10.7348
▁Immuno	-10.7353
ho	-10.7357
▁emfysemateus	-10.7357
AI	-10.7357
▁bovenrug	-10.736
▁bruin	-10.7363
▁2002	-10.7365
con	-10.7366
naal	-10.7371
▁erytrocyten	-10.7385
▁glad	-10.7395
▁klierbuizen	-10.7397
▁reflux	-10.7397
▁tong	-10.74
▁tumormassa	-10.7401
▁ont	-10.7408
mat	-10.7412
▁Aspergillus	-10.7418
▁schouderblad	-10.7432
▁k	-10.7434
▁atheromateuze	-10.7437
▁buismaag	-10.7438
▁relaparotomie	-10.7438
ogen	-10.7444
odulair	-10.7476
onderwandinfarct	-10.7476
▁gedurende	-10.7478
▁BRCA	-10.7479
esophagusbiopten	-10.7488
dig	-10.7488
▁elleboog	-10.7492
cyste	-10.7501
oornaam	-10.7518
milt	-10.7518
▁elektro	-10.7518
▁pylorus	-10.7518
cholesterolemie	-10.7518
▁onderste	-10.752
systeem	-10.7527
▁magere	-10.7527
minder	-10.7533
venmin	-10.7539
punctaat	-10.755
▁implantatie	-10.7553
▁Dilatatie	-10.7559
▁extremiteiten	-10.7559
vaten	-10.756
▁tweemaal	-10.7563
▁beta	-10.7568
terusextirpatie	-10.7568
ry	-10.7588
▁geindiceerd	-10.76
▁september	-10.76
▁hilaire	-10.7602
▁beter	-10.7602
▁hypotensief	-10.7608
▁ziektebeeld	-10.7608
▁bijdragend	-10.7611
▁harthypertrofie	-10.7612
▁ac	-10.7614
▁Bloom	-10.7619
▁aneurysmatische	-10.7626
▁aangedaan	-10.7641
▁bulbus	-10.7641
▁samengevat	-10.7646
daling	-10.765
▁IgG	-10.7655
▁idiopathische	-10.7661
▁Invasiediepte	-10.7666
lig	-10.7679
▁myomatosus	-10.7682
▁gewichtsverlies	-10.7682
▁mannelijk	-10.7682
▁fibrotisch	-10.769
▁aortastenose	-10.7698
emie	-10.7708
ns	-10.771
au	-10.7713
rb	-10.7716
▁mee	-10.7717
▁collabeerde	-10.7723
▁resulterend	-10.7723
ts	-10.7724
▁alveoli	-10.7725
acht	-10.7725
▁bacteriemie	-10.7745
▁groeit	-10.7747
▁boezem	-10.7765
▁paramediaan	-10.7765
▁ventrale	-10.777
▁gepigmenteerde	-10.7778
ek	-10.7786
▁cholesterol	-10.7792
achtig	-10.7799
tro	-10.7803
▁exacte	-10.7804
▁hoeverre	-10.7806
▁cirkel	-10.7807
▁complex	-10.781
epsis	-10.7824
▁circulatoir	-10.7833
▁longtumor	-10.7841
▁contractieband	-10.7844
▁kwab	-10.7846
▁congestie	-10.7849
▁arterietakken	-10.7849
ys	-10.7854
omtrent	-10.7858
▁Richardson	-10.7862
rouw	-10.7864
-01-1	-10.7866
mechanische	-10.7867
▁genoemde	-10.7879
▁endo	-10.788
▁voorlopige	-10.7883
falen	-10.7884
verlies	-10.7885
plastiek	-10.7888
▁geexcideerd	-10.789
▁interpretatie	-10.789
▁kalk	-10.789
▁blaaswand	-10.7898
▁bovendien	-10.7898
▁capillair	-10.7917
▁En	-10.7922
▁bronchien	-10.7922
alwaar	-10.7931
▁hypercellulair	-10.7933
▁labium	-10.7933
▁stansbiopt	-10.7935
av	-10.7937
▁BCL	-10.796
▁erg	-10.7961
▁Appendix	-10.7972
▁onderbenen	-10.7975
▁pleiomorf	-10.7975
▁scherp	-10.7975
▁wederom	-10.7975
▁artritis	-10.7975
▁oestrogeen	-10.798
▁ruime	-10.7984
▁mogelijkheden	-10.7985
▁Reexcisie	-10.7989
▁lymfatische	-10.7996
▁inclusies	-10.7997
het	-10.8008
▁vermeldt	-10.8014
▁adenomen	-10.8016
▁Gedurend	-10.8017
▁diverticulosis	-10.8017
▁pericentrale	-10.8017
▁Goed	-10.8018
▁IgA	-10.8025
▁thrombotische	-10.8036
aten	-10.8044
▁vervanging	-10.8046
aritmogene	-10.806
geproportioneerd	-10.806
▁lichaamssectie	-10.806
▁marginal	-10.806
▁duur	-10.8062
metastasering	-10.8063
▁intacte	-10.8063
▁daling	-10.8088
▁intestinaal	-10.809
olgens	-10.8091
▁toxische	-10.8096
lymfangioinvasie	-10.8107
assale	-10.8107
▁bypasses	-10.8113
▁vroege	-10.8118
▁se	-10.8122
▁arterioscleroti	-10.8126
deels	-10.8138
kl	-10.8141
▁ijzerstapeling	-10.8145
oli	-10.8146
▁nodularis	-10.8146
▁gedeeltelijk	-10.8147
▁recentere	-10.815
▁solitaire	-10.8153
▁icterische	-10.8161
▁reanimeren	-10.8181
achtige	-10.8181
▁punctaat	-10.8186
acute	-10.8188
▁gekregen	-10.8189
▁tuberculose	-10.819
▁doorsnijden	-10.8193
▁inzichten	-10.8193
▁ICD	-10.8195
door	-10.8198
▁ulceratieve	-10.8198
BC	-10.8201
boven	-10.8206
▁verkalkt	-10.8207
▁hemorrhagisch	-10.8208
▁11-0	-10.8226
▁stoornis	-10.8226
▁fulminante	-10.8226
▁dys	-10.8233
▁asfyxie	-10.8233
▁geoccludeerd	-10.8233
▁specificiteit	-10.8233
▁kraakbeen	-10.8233
▁inzage	-10.8233
▁buitenzijde	-10.8233
cor	-10.8237
cal	-10.8239
-12-1	-10.8245
▁leverkwab	-10.8246
▁obductieverslag	-10.8251
▁striatum	-10.8263
mucosa	-10.8264
▁os	-10.8269
▁bijschildklier	-10.8274
▁ijzer	-10.8274
▁heel	-10.8278
▁adenocarcinoma	-10.8279
omen	-10.8282
▁littekenvorming	-10.8283
▁aangenomen	-10.8285
▁maagwand	-10.8293
ff	-10.8293
▁orgaanfalen	-10.8293
▁Ernstig	-10.8307
vermoedelijk	-10.8311
raagstelling	-10.832
▁locus	-10.8322
▁vaatafwijkingen	-10.8324
helaas	-10.8325
minstens	-10.8326
esofagusbiopten	-10.8327
organ	-10.8333
▁vroeger	-10.8334
uc	-10.8339
papillairspieren	-10.8343
▁leiden	-10.8345
groei	-10.8346
▁Eventue	-10.8363
athologisch	-10.8364
BE	-10.8366
sgraad	-10.8369
▁thrombusvorming	-10.837
innemend	-10.8373
▁longembolus	-10.838
▁clavicula	-10.838
extirpatie	-10.8386
therapie	-10.8409
▁pneumosepsis	-10.8409
ang	-10.841
▁matuur	-10.841
ventrikelfunctie	-10.8411
stuwing	-10.8412
patroon	-10.842
▁gemarkeerde	-10.8423
der	-10.8431
sl	-10.8437
▁poliepje	-10.8449
▁verweekt	-10.8453
▁Benigne	-10.8454
▁mocht	-10.8454
▁hersenweefsel	-10.8455
▁thrombosering	-10.8456
▁verwikkelingen	-10.8459
▁fibroom	-10.8466
▁beschadigde	-10.8467
▁autolytische	-10.8469
bl	-10.8472
▁episode	-10.8472
▁gekomen	-10.8473
▁galgang	-10.8474
AB	-10.8491
▁noodzakelijk	-10.8498
▁extramedullair	-10.8501
▁overhecht	-10.8508
▁nieuw	-10.8511
circumferentiele	-10.8516
all	-10.8524
kleincellig	-10.853
▁plotse	-10.853
▁blaascarcinoom	-10.853
▁small	-10.8545
▁lumbale	-10.8554
▁sporadisch	-10.8555
▁raakte	-10.8559
▁calcificatie	-10.8567
▁beenmergbiopt	-10.8575
▁regionale	-10.8588
▁vormen	-10.8588
▁glandula	-10.8589
▁zijsnijvlak	-10.8589
▁emboli	-10.8589
▁shocknieren	-10.8595
0)	-10.8595
▁darmresectie	-10.8605
▁*******)	-10.8609
▁interventie	-10.8609
▁di	-10.8623
▁Duodenum	-10.8632
▁schimmeldraden	-10.8633
uren	-10.8636
▁omliggend	-10.8636
component	-10.8639
▁tr	-10.8644
▁ductale	-10.8648
▁anders	-10.8649
▁Breslow	-10.8656
▁21-0	-10.8658
diam	-10.8663
▁gevormd	-10.8672
▁geraakt	-10.8678
▁thyreoiditis	-10.8678
▁hyaliene	-10.8685
▁Lumpectomie	-10.8697
scomponent	-10.8699
vo	-10.8702
ob	-10.8704
versus	-10.8705
samen	-10.8711
veneuze	-10.8711
▁necrotiserend	-10.8712
▁betrokken	-10.8723
▁collumfractuur	-10.8724
▁associatie	-10.8724
▁1200	-10.8725
▁10-0	-10.8725
▁lymfogeen	-10.8726
ris	-10.8734
▁ontstekings	-10.8736
▁alles	-10.8752
▁reeks	-10.8754
▁nasi	-10.8754
occipitaal	-10.8755
▁beschadigd	-10.8759
▁stase	-10.8764
taphylococcus	-10.8767
▁annulare	-10.877
▁bewijs	-10.877
▁ijzerpigment	-10.877
▁meningeoom	-10.877
▁achterzijde	-10.8771
▁enterococcus	-10.8771
▁buikaorta	-10.8772
▁serosale	-10.878
bo	-10.8784
helft	-10.8793
ive	-10.8793
air	-10.8807
totaal	-10.8807
oma	-10.8808
▁bepalen	-10.8816
▁dyspneu	-10.8816
▁lamelleren	-10.8816
▁geinfarceerd	-10.8816
▁varierend	-10.8817
▁gezwollen	-10.8817
ntie	-10.8817
▁paar	-10.8818
▁hartoor	-10.882
▁ileusbeeld	-10.8822
▁mn	-10.8829
degeneratieve	-10.883
▁embolien	-10.8831
▁situs	-10.8842
▁topografie	-10.8843
ACR	-10.8844
orzaak	-10.8846
▁lag	-10.8861
An	-10.8862
▁subpleuraal	-10.8862
▁onzeker	-10.8863
klier	-10.8863
dikte	-10.8864
cho	-10.8865
▁abcesvorming	-10.8865
▁1-2	-10.8868
▁linkeronderkwab	-10.8872
sproces	-10.8877
kwab	-10.8878
ammabiopt	-10.8881
even	-10.889
▁Gedilateerd	-10.8893
dysplasie	-10.8899
onderverdelingen	-10.8901
▁lamblia	-10.8909
▁sessiel	-10.8909
▁pulmonales	-10.891
▁extravasatie	-10.891
▁mogen	-10.8911
▁hartzakje	-10.8912
▁Cristabiopt	-10.8912
fractuur	-10.8913
bi	-10.8914
▁tumorrest	-10.8916
-01	-10.8927
nen	-10.8929
▁catheter	-10.8936
lateraal	-10.8939
▁keratine	-10.8944
▁septa	-10.8952
▁LC	-10.8953
▁dankzegging	-10.8955
▁herpes	-10.8955
▁hoesten	-10.8956
aemie	-10.8957
aortaklepprothes	-10.8959
▁oorspronkelijke	-10.8962
▁verzwaard	-10.8969
▁verspreiding	-10.8972
▁aspecifiek	-10.8975
vormige	-10.8975
▁Cholelithiasis	-10.898
▁tricuspidalis	-10.8992
js	-10.8993
▁vreemdlichaams	-10.8998
▁bronchiolitis	-10.8998
differentiatie	-10.9
▁gestenoseerd	-10.9002
▁kwaliteit	-10.9003
▁Daarna	-10.9003
calcificaties	-10.9004
▁02-0	-10.9009
lin	-10.9014
▁septaal	-10.902
arterien	-10.9031
▁onregelmatig	-10.9034
pogingen	-10.9041
icrobiologisch	-10.9047
▁120	-10.9048
zij	-10.9048
▁Geheel	-10.905
▁breuk	-10.9058
fluorescentie	-10.9059
GA	-10.9061
▁spongiose	-10.907
cysteuze	-10.9073
top	-10.9074
▁01-0	-10.9075
0-0	-10.9076
litteken	-10.9084
▁endocard	-10.9096
▁vaker	-10.9097
▁patiAnt	-10.9098
▁diafragmatica	-10.9098
Coupes	-10.9099
▁trombotische	-10.91
alveolair	-10.9108
▁zwak	-10.9115
▁Cerebrum	-10.9117
▁contaminatie	-10.9119
CBD	-10.9126
▁coma	-10.9128
egener	-10.9131
▁gaf	-10.9134
specifieke	-10.9135
rijk	-10.9136
hi	-10.9137
klierdissectie	-10.9138
▁sneevlakken	-10.9143
carcinomen	-10.9145
▁asthma	-10.9145
▁erythema	-10.9145
▁gyrus	-10.9145
▁sedatie	-10.9145
functie	-10.9145
▁zenuwstelsel	-10.9145
▁duidt	-10.9145
ext	-10.9146
▁geinfecteerd	-10.9168
ierover	-10.9174
▁dig	-10.9175
proces	-10.9176
▁apicaal	-10.9177
loge	-10.9177
oa	-10.9181
▁ingestuurd	-10.9182
▁steen	-10.9189
▁asymmetrische	-10.919
▁patent	-10.9193
▁Hierdoor	-10.9194
211	-10.9198
gelegen	-10.9201
▁vernauwingen	-10.9204
▁Recente	-10.9215
formatie	-10.9216
▁linkszijdig	-10.9231
▁parietale	-10.9241
▁alcoholgebruik	-10.9241
arterie	-10.9252
maligniteit	-10.9254
▁dergelijke	-10.9261
▁nodi	-10.9267
ecundair	-10.9267
kh	-10.9267
▁adhaesies	-10.927
eert	-10.9273
▁22-0	-10.9274
irca	-10.9286
▁meisje	-10.9289
▁prostatitis	-10.9289
▁Echogeleid	-10.9289
▁Lisexcisie	-10.9289
▁grensvlaknaevus	-10.9289
▁normocellulair	-10.9289
▁getroffen	-10.929
▁mediane	-10.9292
▁katheter	-10.9297
tica	-10.9298
▁compensatoire	-10.9307
▁LB	-10.9315
icro	-10.932
▁gesloten	-10.9331
Invasie	-10.9337
▁bewezen	-10.9337
▁suboptimaal	-10.9338
▁heupprothese	-10.9339
▁hydropische	-10.9339
sn	-10.9342
▁thoracotomie	-10.9345
uitslag	-10.9359
IG	-10.9366
ax	-10.9378
▁plekke	-10.9381
▁Direct	-10.9386
▁ablatio	-10.9389
▁lobulaire	-10.9391
▁Hierop	-10.9392
spoelvocht	-10.9392
-10-201	-10.9394
▁Bcellymfoom	-10.9399
▁contractie	-10.9399
▁bullae	-10.9401
pa	-10.9406
▁poly	-10.9411
▁groen	-10.9416
naaldbiopt	-10.942
▁vaatverandering	-10.9421
IL	-10.9423
ICA	-10.9428
▁Curettage	-10.9435
▁Basaal	-10.9435
▁spontane	-10.9436
anvraagformulier	-10.9436
▁antrumtype	-10.9451
▁infarcthaarden	-10.9452
▁operatief	-10.9456
▁persisterend	-10.9464
▁snijrand	-10.9469
▁verstoorde	-10.947
ru	-10.9476
▁bevatte	-10.9484
▁verwardheid	-10.9485
▁stenotisch	-10.9489
Huidexcisiebiopt	-10.9491
ster	-10.9493
ger	-10.9496
▁percentage	-10.9504
▁Lichte	-10.9519
▁gebouwde	-10.952
▁eci	-10.9523
▁vasculair	-10.953
mb	-10.9532
eefsel	-10.9532
▁aeruginosa	-10.9534
▁archief	-10.9534
▁retroauriculair	-10.9534
▁angioinvasieve	-10.9537
▁lytische	-10.9542
▁hem	-10.9543
▁ERBB	-10.9543
▁dr	-10.9549
▁aneurysmata	-10.955
RAD	-10.9553
her	-10.9556
▁ingebracht	-10.9557
▁viraal	-10.9559
▁bloeddruk	-10.9572
▁cytoplasma	-10.9579
▁carotiden	-10.9584
▁ileostoma	-10.9584
▁confluerende	-10.9584
▁macrovesiculair	-10.9584
▁buisprothese	-10.9588
▁inbrengen	-10.9589
▁medicamenteuze	-10.9596
del	-10.9614
▁graads	-10.9614
▁stukje	-10.9615
matig	-10.9618
▁kaak	-10.962
▁verstoring	-10.9625
▁subcapsulair	-10.9629
▁voeten	-10.963
▁buikorganen	-10.9634
▁serrated	-10.9634
▁temporalis	-10.9634
▁geinkte	-10.9634
▁hypoplastisch	-10.9634
▁kappa	-10.9634
▁daarmee	-10.9635
▁toxicologisch	-10.9635
▁oa	-10.9652
▁voorzijde	-10.966
Gleason	-10.9666
ige	-10.9668
etastase	-10.9669
▁myo	-10.9674
▁longhypoplasie	-10.9685
▁pleit	-10.9685
▁baten	-10.9686
▁pan	-10.969
▁Celrijk	-10.9696
chi	-10.9704
-10-1	-10.9704
las	-10.9707
haveexcisie	-10.9711
▁enteritis	-10.9712
▁segmental	-10.9721
▁ademhaling	-10.9723
kweken	-10.9724
▁endometriose	-10.9728
HER	-10.9729
▁operaties	-10.9731
▁gezocht	-10.9734
▁termijn	-10.9734
▁half	-10.9735
▁aanwijsbaar	-10.9735
▁patchy	-10.9735
▁opbouw	-10.9735
Immuunhistochemi	-10.9738
tot	-10.9751
▁trombosering	-10.9756
▁20-0	-10.9762
estrogeen	-10.9765
eri	-10.9778
ngeveer	-10.978
▁melanoma	-10.9784
▁localis	-10.9785
▁epileptisch	-10.9785
▁lichamelijk	-10.9785
▁rijping	-10.9785
▁verrukeu	-10.9785
▁reticulair	-10.9786
▁faeces	-10.9786
peripancreatisch	-10.979
▁nodig	-10.9791
▁dysplastisch	-10.9803
ccr	-10.9809
LAIR	-10.9815
▁bloedstolsel	-10.9816
▁Ca	-10.9822
▁lacunair	-10.9824
▁fragmentjes	-10.9827
▁blokjes	-10.9829
▁ja	-10.9836
▁colostoma	-10.9836
▁spoelcellig	-10.9836
▁Cardiaal	-10.9837
▁femur	-10.9838
▁Rest	-10.984
▁broekprothese	-10.9843
▁aortakleppen	-10.9845
▁gestelde	-10.9847
▁Bovenstaand	-10.9849
▁zuurstof	-10.9851
hal	-10.9862
▁placentaire	-10.9867
▁Coupe	-10.9867
▁aanvraag	-10.987
▁jw	-10.9886
▁endometrioid	-10.9888
▁onbegrepen	-10.9888
▁sputum	-10.9888
▁activeren	-10.9888
▁cystadenoom	-10.9888
▁kortademigheid	-10.9888
▁pipelle	-10.9898
▁12-0	-10.9908
2).	-10.991
ib	-10.9915
▁dergelijk	-10.9917
▁liggen	-10.9922
▁adeno	-10.9923
▁kop	-10.9923
▁grove	-10.9927
Ik	-10.993
▁Bloed	-10.9938
▁mesotheel	-10.9938
▁artherosclerose	-10.9939
▁dilaterende	-10.9939
▁buitenoppervlak	-10.994
▁schildklierkwab	-10.994
ien	-10.9941
▁malen	-10.9944
racheobronchitis	-10.9953
▁vruchtwater	-10.9955
oedeem	-10.9966
▁ziek	-10.9971
▁HE	-10.9972
▁gegaan	-10.9973
ion	-10.9975
▁oxygenatie	-10.9978
▁uitgebreidheid	-10.9982
yp	-10.9986
▁Dikke	-10.9991
▁lactaat	-10.9991
▁opgebouwd	-10.9991
▁presentatie	-10.9991
▁voetlengte	-10.9991
▁urinewegen	-10.9997
val	-10.9999
▁lisexcisie	-10.9999
ductaalcarcinoom	-10.9999
LAG	-11.0008
▁Coronair	-11.0013
▁krapst	-11.0017
▁rectaal	-11.0018
sel	-11.0026
▁insult	-11.0027
lg	-11.0031
▁fibroepithelia	-11.0034
-00	-11.0038
▁Aneurysma	-11.0043
▁behoort	-11.0043
▁toegeschreven	-11.0043
▁fecale	-11.0043
▁obliteratie	-11.0043
▁blaasslijmvlies	-11.0043
▁verwijdering	-11.0045
▁hoger	-11.0048
▁longmetastasen	-11.0049
hr	-11.0049
▁delier	-11.0058
LH	-11.0066
▁consolidatie	-11.0075
adat	-11.0087
inimale	-11.0087
▁HR	-11.0094
▁lamina	-11.0095
▁talgklier	-11.0095
▁cognitieve	-11.0096
▁neurofibroom	-11.0096
▁Leverstuwing	-11.0097
▁stabiel	-11.0105
▁str	-11.0105
out	-11.0106
▁debris	-11.0108
▁fusie	-11.0111
▁tumormetastasen	-11.0115
gang	-11.012
▁endocervix	-11.0127
▁gecompromiteerd	-11.0133
zijnde	-11.0137
▁malformatie	-11.014
blok	-11.0141
troffen	-11.0147
kel	-11.0148
▁aanvoelend	-11.0148
▁geldt	-11.0148
▁Gram	-11.0148
▁megakaryocyten	-11.0148
▁fijn	-11.0149
▁behorend	-11.0151
vangingsfibrose	-11.0153
▁subtiele	-11.0153
atrofie	-11.0156
▁lis	-11.0168
rig	-11.0177
pijn	-11.018
▁afsluitingen	-11.0187
sveranderingen	-11.0187
▁parieto	-11.0195
▁prednison	-11.0197
▁reuscelreactie	-11.0198
▁ooglid	-11.0198
▁lupus	-11.0201
▁melena	-11.0201
hyperpigmentatie	-11.0201
▁uiterlijk	-11.0201
▁fibrinopurulent	-11.0201
▁parakeratose	-11.0201
▁infrarenaal	-11.0201
▁test	-11.0203
tent	-11.0208
oide	-11.0214
▁cerebellair	-11.0215
▁kans	-11.0217
▁vergroeiingen	-11.0221
▁ingezonden	-11.0222
tpn	-11.0225
▁con	-11.0227
fectieparameters	-11.0235
stilstand	-11.0236
unctaat	-11.0238
▁tachycardie	-11.0242
▁populatie	-11.0243
voorlopig	-11.0247
▁longhilus	-11.0249
▁dubbelbrekend	-11.0254
▁mesencephalon	-11.0254
▁donatie	-11.0255
▁begeleidend	-11.0255
ua	-11.0258
▁ziet	-11.0262
▁acinair	-11.027
▁retro	-11.0275
▁Dr	-11.0286
1).	-11.0287
▁vermoed	-11.0291
lokalisaties	-11.0291
▁fragmentje	-11.0296
▁emphyseem	-11.03
▁Excisiebiopt	-11.0302
▁spreken	-11.0308
▁hepatocyten	-11.0308
▁regelmatig	-11.0308
▁comateus	-11.0308
▁Respiratoir	-11.0308
▁axillair	-11.0309
▁intrahepatisch	-11.0311
uaat	-11.0313
▁bloedkweken	-11.0313
▁myocardfibrose	-11.0319
cuut	-11.0319
liezen	-11.0321
▁nauw	-11.0324
▁mij	-11.0326
▁aanhoudend	-11.0329
▁anderhal	-11.0332
▁mucosale	-11.0344
▁sclerotische	-11.0344
obstructief	-11.0344
congestieve	-11.0346
ria	-11.0349
ica	-11.0359
▁chorio	-11.036
▁lichaamsvreemd	-11.0361
▁alfa	-11.0361
Biopt	-11.0365
▁puntjes	-11.0372
▁lijn	-11.0373
waar	-11.038
▁tumorhaard	-11.0385
▁eerst	-11.0387
▁decubitus	-11.0388
▁protocol	-11.0407
last	-11.0411
▁hypoxemie	-11.0415
▁electieve	-11.0415
▁kapseldoorbraak	-11.0415
▁levenloos	-11.0416
▁nerv	-11.0416
arsh	-11.0416
▁verwijderen	-11.0417
▁indicatie	-11.0425
EA	-11.0426
localisatie	-11.0428
▁namelijk	-11.0432
▁aftakking	-11.0449
▁sufficient	-11.0452
▁eiwit	-11.0454
▁ingesteld	-11.0456
darm	-11.0459
▁reumato	-11.046
lechts	-11.0465
uent	-11.0466
▁Diffus	-11.0467
▁geabstineerd	-11.047
▁rondkernig	-11.047
▁ontstaat	-11.047
▁ondersteunt	-11.047
▁tengevolge	-11.047
▁binnenzijde	-11.0471
▁hoofdpijn	-11.0471
▁at	-11.0473
▁solair	-11.0476
ostmortale	-11.0483
▁slappe	-11.0483
▁natuurlijk	-11.0485
▁anamnese	-11.0485
bio	-11.0493
-02	-11.0493
tic	-11.0498
can	-11.051
▁ingevroren	-11.0524
▁radicale	-11.0524
▁gehandhaafd	-11.0524
▁morfine	-11.0525
▁intimafibrose	-11.0525
▁Cardiale	-11.0525
▁sepsisbeeld	-11.0526
fr	-11.0528
EL	-11.0531
▁bijzonder	-11.0531
▁opgemerkt	-11.0539
▁localisaties	-11.0539
▁plotselinge	-11.0544
blaas	-11.0547
luchtweginfectie	-11.0555
▁hypovolemie	-11.0556
Excisie	-11.0557
▁probleem	-11.0573
▁ontwikkelen	-11.0576
▁relatieve	-11.0576
▁globaal	-11.0579
▁majus	-11.0579
▁pussig	-11.0579
▁aantonen	-11.0579
embolische	-11.0579
▁locale	-11.058
▁postanoxische	-11.0584
pname	-11.0584
▁fibrineus	-11.0586
▁kopie	-11.0591
▁Grawitz	-11.0591
ord	-11.0594
seudomembraneuze	-11.0598
zelfde	-11.0599
▁DAD	-11.0604
▁RD	-11.0623
▁dragen	-11.0626
▁bijdrage	-11.0629
▁scleroserende	-11.063
▁betrokkenheid	-11.0631
ging	-11.0632
▁kaliber	-11.0635
▁calcificerend	-11.0635
▁oncogene	-11.0635
necrologie	-11.0635
tra	-11.064
ton	-11.0643
fl	-11.065
▁Rectum	-11.0654
name	-11.0657
▁vezels	-11.0661
mede	-11.0669
▁Gestuwde	-11.0672
▁verbinding	-11.0674
▁schrompelnier	-11.0674
slijmvliesbiopt	-11.0676
man	-11.0676
▁Lymfklieren	-11.0681
▁bevonden	-11.0683
▁poging	-11.0689
▁prurigo	-11.069
▁subarachnoidaal	-11.069
▁toegezonden	-11.069
▁myofibrosis	-11.069
▁influenza	-11.0691
▁Breslowdikte	-11.0691
▁hun	-11.0691
▁osteo	-11.0707
delen	-11.0712
ischemie	-11.0717
▁penis	-11.0722
tu	-11.0728
▁bloedvat	-11.073
▁nietspecifiek	-11.074
oppervlak	-11.0741
▁enerzijds	-11.0746
▁wijde	-11.0749
DAD	-11.075
ther	-11.0754
▁tien	-11.0763
▁infecties	-11.0764
▁Coronairscleros	-11.0766
▁familiaire	-11.0768
uba	-11.0773
▁autoimmuun	-11.0775
poliep	-11.0781
▁operatieve	-11.0782
ppervlakkige	-11.0792
▁echografisch	-11.0802
10)	-11.0805
▁poliepeus	-11.0806
▁maternal	-11.0806
doorgemaakte	-11.0806
▁flr	-11.0814
▁keer	-11.0821
▁tangles	-11.0823
treft	-11.0829
▁gescleroseerd	-11.0829
▁LCA	-11.0833
tak	-11.084
aren	-11.0848
bloedingen	-11.0852
odulaire	-11.0856
▁infarctjes	-11.0857
▁albicans	-11.0859
▁damage	-11.0859
▁pancytopenie	-11.0859
▁extreme	-11.0859
▁foramen	-11.0859
▁inziens	-11.0859
▁optrad	-11.0859
▁ostia	-11.0859
▁osteoporose	-11.0859
▁prostatectomie	-11.086
▁ventriculaire	-11.086
▁tonsil	-11.0861
▁mitosen	-11.0863
▁CEA	-11.0872
arm	-11.0887
IR	-11.0889
-02-1	-11.089
lijmvlies	-11.0891
stase	-11.0891
corpusslijmvlies	-11.0892
plenomegalie	-11.0893
para	-11.0898
aligne	-11.0907
neumonie	-11.0908
▁tensie	-11.0909
BR	-11.0912
▁gekenmerk	-11.0915
▁orgaansystemen	-11.0916
▁mediastinitis	-11.0916
▁crista	-11.0916
▁hepatische	-11.0916
▁mastectomie	-11.0916
Arterioloscleros	-11.0917
▁caudale	-11.0917
▁ka	-11.0917
▁carina	-11.0919
▁ophoping	-11.0922
▁putamen	-11.0923
ulti	-11.0926
▁histiocytaire	-11.0934
▁fundus	-11.0946
02-	-11.0946
▁elastose	-11.0954
form	-11.0957
▁groter	-11.0962
excochleaat	-11.0965
groep	-11.0967
angetroffen	-11.0968
▁pyogenicum	-11.0973
▁multiforme	-11.0973
▁wandstandige	-11.0975
▁celmateriaal	-11.0976
▁RI	-11.0987
aagantrum	-11.0989
▁leverweefsel	-11.1004
utatie	-11.1005
▁gebruikte	-11.1009
▁Lokalisatie	-11.1017
▁r	-11.102
ml	-11.1024
▁AAA	-11.1025
▁verlittekend	-11.103
▁hematogene	-11.103
▁tensiedaling	-11.103
▁linkerbovenkwab	-11.1036
▁groeipatroon	-11.1036
▁papel	-11.1038
▁tubae	-11.1044
oliep	-11.105
▁Braak	-11.1053
▁drs	-11.1056
shaarden	-11.1059
▁intoxicatie	-11.1073
LEC	-11.1075
▁heart	-11.1076
▁huidbiopten	-11.1083
▁armen	-11.1088
▁geaspireerd	-11.1088
▁vlokken	-11.1088
▁gradering	-11.1088
structuren	-11.1089
▁plm	-11.1089
▁lichaamsgewicht	-11.1093
▁daarvoor	-11.1094
zeer	-11.1096
▁doorgroeiend	-11.1101
Galblaasresectie	-11.1101
angiopathie	-11.1105
*	-11.1106
▁patienten	-11.1107
houdend	-11.1108
zijwand	-11.1111
bloed	-11.1117
vocht	-11.1132
teerd	-11.1133
dit	-11.1136
nterococcus	-11.1144
zonder	-11.1145
▁pupillen	-11.1147
bol	-11.115
reuscelreactie	-11.115
geschat	-11.1151
histologisch	-11.1151
▁aangrenzend	-11.1156
▁ab	-11.116
▁geassocieerde	-11.1162
obstructie	-11.1167
▁omgeven	-11.1182
▁dubbel	-11.1182
and	-11.1201
peri	-11.1202
▁borderline	-11.1202
▁Collegialiter	-11.1204
▁Lynch	-11.1204
▁aspergillose	-11.1204
▁hematothorax	-11.1205
▁haemodynamisch	-11.1205
▁spectrum	-11.1205
▁daardoor	-11.1206
▁daarom	-11.1214
▁last	-11.1215
▁troebele	-11.1219
stadium	-11.1238
▁medicamenteus	-11.125
▁viel	-11.1251
gezien	-11.1257
▁bovenbeschreven	-11.1263
▁ganglia	-11.1263
▁tijdstip	-11.1264
bare	-11.1267
▁inzendingen	-11.1269
▁fracturen	-11.1273
zoals	-11.1276
flow	-11.1276
zymhistochemisch	-11.1277
ongeveer	-11.1278
HL	-11.1289
▁doorbloeding	-11.1293
▁Later	-11.1298
nl	-11.1313
▁Diffuus	-11.1322
▁aangeboden	-11.1322
▁coeruleus	-11.1322
▁linkerhartkamer	-11.1322
▁geinduceerd	-11.1323
▁pericentraal	-11.1323
▁mondbodem	-11.1323
stand	-11.1323
▁imponerend	-11.1324
▁dysfunctie	-11.1326
ischemische	-11.1338
▁klassiek	-11.1339
virus	-11.1343
▁nabloeding	-11.1345
nr	-11.1347
▁mat	-11.1379
▁vrouwelijk	-11.1382
▁voedselresten	-11.1382
▁herkomst	-11.1382
▁mevrouw	-11.1383
▁prolaps	-11.1386
▁Botbiopt	-11.139
iek	-11.1395
-01-201	-11.1398
▁Hemicolectomie	-11.1417
▁maagtype	-11.1422
▁beschikbaar	-11.1442
▁solaris	-11.1442
▁flegmoneuze	-11.1442
▁tonsillen	-11.1442
hepatisch	-11.1443
cilinderepitheel	-11.1445
neevlakken	-11.1446
▁voorafgaande	-11.1448
▁pseudomonas	-11.1448
been	-11.1449
▁alveolair	-11.145
▁blauw	-11.1451
▁ged	-11.1454
▁epidermiscyste	-11.1456
problematiek	-11.1468
GR	-11.1471
▁klassieke	-11.1476
▁bovenpool	-11.1477
▁gedetecteerd	-11.1477
▁nefro	-11.1483
▁streng	-11.1487
▁intrauterien	-11.1492
▁concrementen	-11.1496
Lichaamsobductie	-11.1502
▁afgesproken	-11.1502
▁vertebralis	-11.1502
▁mycose	-11.1503
excisiepreparaat	-11.1505
tis	-11.151
ara	-11.151
cu	-11.1515
▁tumorgroei	-11.1517
beginnende	-11.1529
utaties	-11.153
▁perforaties	-11.1531
▁kl	-11.1532
sbaar	-11.1535
pgenomen	-11.1539
▁haarfollikel	-11.1542
ist	-11.1544
▁alho	-11.1544
▁zegelringcel	-11.1546
vers	-11.1555
formulier	-11.1561
arfan	-11.1563
▁achtergebleven	-11.1563
▁liesbreuk	-11.1563
▁1,2	-11.1564
▁niveaus	-11.1566
▁trombusvorming	-11.1568
zen	-11.1571
▁nierparenchym	-11.1573
▁Bowenoid	-11.1575
rose	-11.1583
▁late	-11.1595
▁symptomen	-11.1598
▁letsels	-11.1609
nog	-11.161
▁deficientie	-11.1618
uencing	-11.1624
▁Desondanks	-11.1624
▁achterhoofd	-11.1624
▁intrapulmonale	-11.1627
ary	-11.1627
▁subcapsulaire	-11.163
▁Con	-11.1631
▁puspockets	-11.1635
▁ovale	-11.1642
▁loop	-11.1643
recidief	-11.1645
▁leverbiopt	-11.1645
rale	-11.1648
maanden	-11.1656
functieverlies	-11.1666
operatieve	-11.1667
210	-11.167
▁obstruerende	-11.1673
LIER	-11.1674
ding	-11.168
▁voedsel	-11.168
▁gland	-11.1681
jejunostomie	-11.1685
▁wanneer	-11.1685
▁ontbreekt	-11.1685
▁levercelnecrose	-11.1685
sereuz	-11.1686
▁vierde	-11.1697
▁infarctlitteken	-11.1698
behoeftig	-11.1699
▁bacterie	-11.1699
▁longfunctie	-11.17
▁dun	-11.1702
▁afhankelijk	-11.1704
activiteit	-11.1707
▁amygdala	-11.1711
chemisch	-11.1712
-12-201	-11.1714
rg	-11.1715
haardjes	-11.1715
▁kr	-11.1721
EC	-11.173
10-	-11.1739
▁brief	-11.1747
▁codon	-11.1747
▁gebroken	-11.1747
▁ruggemerg	-11.1747
▁bijgewoond	-11.1747
▁geulcereerd	-11.1747
▁Atherosclerose	-11.1747
▁ligament	-11.1747
▁spiervezels	-11.1747
▁splenectomie	-11.1747
▁comp	-11.1747
0).	-11.1748
oAd	-11.1752
▁Adenocarcinoom	-11.1754
▁vlekkige	-11.1755
Her	-11.1761
cardiale	-11.1762
▁semi	-11.1764
▁spieren	-11.1765
los	-11.1765
traject	-11.1786
▁encefalitis	-11.1795
▁curvatuur	-11.1805
▁benauwd	-11.1808
▁geb	-11.1808
kken	-11.1808
▁Beperkt	-11.1809
▁Decompensatio	-11.1809
▁cardiopulmonaal	-11.1809
▁paratracheaal	-11.1809
▁verwijzing	-11.1811
igmoid	-11.1813
▁athero	-11.1813
▁terecht	-11.1815
ll	-11.1824
eerdere	-11.1824
obductie	-11.1825
▁gemengd	-11.1826
coupes	-11.1829
itwendige	-11.1832
▁agonaal	-11.1833
▁lambda	-11.1837
problemen	-11.184
receptorbepaling	-11.1844
ill	-11.1847
plaats	-11.1848
▁depressie	-11.1849
▁allergisch	-11.1851
▁diagnoses	-11.1854
▁tubulo	-11.1865
oorkeur	-11.1871
▁eindstandig	-11.1871
▁geanalyseerd	-11.1871
▁karakter	-11.1871
▁plexus	-11.1871
▁versmalling	-11.1871
▁papillomateuze	-11.1871
▁halverwege	-11.1871
▁faecaal	-11.1872
▁subpleurale	-11.1872
▁body	-11.1875
ong	-11.1876
▁Graa	-11.1884
microscopie	-11.1891
▁wit	-11.1892
-11-1	-11.1898
▁skelet	-11.1901
invasief	-11.1903
coupe	-11.1903
▁progesteron	-11.1905
sus	-11.1913
▁cutane	-11.1915
▁tumoreuze	-11.1918
▁lesie	-11.1927
▁myelum	-11.1934
▁paranasaal	-11.1935
▁streptococcus	-11.1936
infarcten	-11.1937
▁rechterwang	-11.1941
▁berichten	-11.1945
221	-11.1951
▁temporale	-11.1952
▁neo	-11.1967
rend	-11.197
▁stond	-11.197
huid	-11.1982
▁herhaald	-11.1997
▁chromosoom	-11.1998
▁onderpool	-11.1998
▁apart	-11.1998
▁anurie	-11.1998
oetus	-11.1998
▁coronarialijden	-11.1999
▁sigmoideum	-11.1999
neren	-11.2001
datum	-11.2003
Een	-11.2004
▁darmziekte	-11.2007
lecht	-11.2007
▁externe	-11.2014
▁duct	-11.2022
1-0	-11.2025
ari	-11.2026
▁vroeg	-11.2034
osa	-11.2041
▁vergroeiing	-11.2045
cr	-11.2051
▁steun	-11.2055
▁mechanisch	-11.2055
entinel	-11.2059
ping	-11.206
▁Duidelijk	-11.2061
▁interesse	-11.2061
▁verergerd	-11.2061
▁postuur	-11.2063
▁hotspot	-11.2066
▁bevinden	-11.2069
▁daarop	-11.2069
▁ingevuld	-11.2071
leura	-11.2081
▁inactief	-11.2084
▁event	-11.2086
aorta	-11.2087
▁hechting	-11.2094
fragment	-11.2098
▁wijd	-11.2109
▁Bloeding	-11.2112
drain	-11.2115
▁stromal	-11.2117
▁onsteking	-11.2123
verslag	-11.2124
getwijfeld	-11.2125
▁zuurvaste	-11.2125
▁faecium	-11.2125
GIEGIE	-11.2126
▁werkdiagnose	-11.2126
▁sampling	-11.2126
▁hoofdhuid	-11.2126
▁fibrosis	-11.2127
▁benauwdheid	-11.2127
▁nemen	-11.2128
▁erythrocyten	-11.2129
▁snoergroeven	-11.213
▁huidig	-11.213
LDH	-11.2133
▁onze	-11.2135
septische	-11.2141
▁dis	-11.2149
▁vaatwanden	-11.2158
▁gallige	-11.2182
220	-11.2182
Bls	-11.2187
ammareductie	-11.2188
negatieve	-11.2189
▁hyaline	-11.2189
▁beschrijving	-11.219
▁villitis	-11.219
▁IDH	-11.219
▁microbiologie	-11.2191
▁grof	-11.2192
▁blaashals	-11.2192
▁ganglion	-11.2195
▁belasting	-11.2196
▁Huidcurettage	-11.2196
Intern	-11.2198
schade	-11.2216
scellen	-11.2226
▁heen	-11.2227
▁ERC	-11.223
▁dermat	-11.2231
ischaemische	-11.2231
resectievlakken	-11.2242
▁voorafgaand	-11.2248
▁hetzelfde	-11.2253
▁herhaling	-11.2255
▁Arteria	-11.2255
▁genitalia	-11.2255
▁herhalen	-11.2255
▁necroticans	-11.2255
▁veroorzaken	-11.2255
▁percutane	-11.2255
▁Clostridium	-11.2255
▁immunologisch	-11.2256
hocknieren	-11.2258
klasse	-11.2261
▁gebiedjes	-11.2274
einig	-11.2277
▁curettement	-11.2279
lymfoom	-11.2298
▁lacunaire	-11.2302
▁bl	-11.2303
artiele	-11.2306
▁aangrenzende	-11.2309
recente	-11.231
▁lip	-11.2314
▁fibroblasten	-11.2319
weede	-11.232
▁Aspiratie	-11.232
▁abcedering	-11.232
▁bekleed	-11.232
▁gedegenereerd	-11.232
▁vessel	-11.232
▁lekker	-11.232
▁controleren	-11.2321
resten	-11.2322
▁hersteld	-11.2326
graft	-11.2327
▁voorkomende	-11.2327
▁stomp	-11.2327
▁belaste	-11.2329
stel	-11.233
▁hartventrikel	-11.2331
▁obstructieve	-11.2332
ruim	-11.2334
▁fibrosehaarden	-11.2335
ulair	-11.2338
▁perioden	-11.234
CLC	-11.2341
▁nierarterie	-11.235
▁cytologie	-11.2361
▁chroniciteit	-11.2368
▁no	-11.2369
angio	-11.2372
▁occluderende	-11.2374
▁uitsluiten	-11.2384
auriculair	-11.2384
▁Ruim	-11.2386
▁aanmerking	-11.2386
▁abnormale	-11.2386
▁geneticus	-11.2386
▁genetica	-11.2386
▁sigmoAd	-11.2386
▁grondslag	-11.2387
Advies	-11.2392
-11-201	-11.2392
gb	-11.2402
▁communicans	-11.241
▁longbloedingen	-11.2424
pathologisch	-11.2428
01-	-11.2433
▁syndrome	-11.2447
▁cervixbiopt	-11.2447
▁graviditeit	-11.2451
▁atelectatisch	-11.2452
▁gestold	-11.2452
▁verlaagd	-11.2452
▁anterolateraal	-11.2452
▁anderzijds	-11.2452
▁gericht	-11.2452
▁craniale	-11.2453
▁endoprothese	-11.2453
▁holtevorming	-11.2454
▁dyspnoeisch	-11.2458
ischaemie	-11.2459
GIE	-11.2462
▁hieruit	-11.247
▁insulten	-11.2473
▁traumatische	-11.248
▁afmetingen	-11.2485
klep	-11.2495
komst	-11.2497
age	-11.2509
lyse	-11.2511
▁handen	-11.2514
▁herkenba	-11.2518
▁adenomyosis	-11.2519
▁geidentificeerd	-11.2519
▁irregulair	-11.2519
▁inotropie	-11.2519
▁adenoid	-11.252
▁fragmentatie	-11.2521
▁deletie	-11.2522
▁botweefsel	-11.2523
▁overgroei	-11.2524
coronary	-11.2524
▁pG	-11.2527
▁behandelend	-11.2527
Dit	-11.2531
▁lichaams	-11.2532
▁arterieen	-11.2534
komen	-11.2537
ha	-11.2551
▁hartlijden	-11.2553
▁causa	-11.2559
ind	-11.2565
▁tri	-11.2576
hals	-11.2577
lhoe	-11.2584
▁bovenvermeld	-11.2586
▁lentigineuze	-11.2586
▁shunt	-11.2586
▁ijzerhoudend	-11.2586
▁tamelijk	-11.2587
▁verslechterd	-11.259
takken	-11.259
ati	-11.2593
▁for	-11.2595
▁linkerwang	-11.2595
▁opsnijden	-11.26
broncho	-11.2606
▁Cho	-11.2611
▁neutrofielen	-11.263
▁acht	-11.2631
RD	-11.2633
reerd	-11.2635
epitheliaal	-11.2639
ude	-11.2646
▁cerebro	-11.2648
▁gefixeerd	-11.2654
▁scrotum	-11.2654
▁screening	-11.2654
▁hoofdtakken	-11.2655
▁roken	-11.2656
nucleaire	-11.2656
kd	-11.2656
▁bewijzend	-11.2657
▁navel	-11.2657
erk	-11.2658
▁nogmaal	-11.2672
like	-11.2675
recent	-11.2692
rond	-11.2695
taal	-11.2696
afwijking	-11.2699
▁verrichten	-11.2704
ratie	-11.2706
▁innemend	-11.2708
opathie	-11.2709
cellig	-11.2714
▁IHC	-11.2714
▁papperige	-11.2715
fibrillatie	-11.2722
▁neonaat	-11.2722
▁optimaal	-11.2722
▁myelofibrose	-11.2722
yocardinfarct	-11.2724
▁subtype	-11.2724
bepaling	-11.2726
▁resterend	-11.2731
lak	-11.2736
▁junction	-11.2736
▁weg	-11.2749
▁veroudering	-11.2749
▁overgangscel	-11.2751
▁Diverticulose	-11.2761
▁wanddikte	-11.2766
nc	-11.2768
gekomen	-11.2772
▁brede	-11.2788
▁astrocytoom	-11.279
▁evaluatie	-11.279
▁inspanning	-11.279
▁mucineuze	-11.279
▁fascie	-11.279
▁corticaal	-11.2794
▁dominante	-11.2795
HH	-11.2798
▁motor	-11.28
▁inpa	-11.2801
▁inverte	-11.2802
voer	-11.2807
▁Adipositas	-11.2811
hartspierweefsel	-11.2819
micro	-11.2829
col	-11.2849
▁gebracht	-11.285
enteritis	-11.2857
▁kortdurend	-11.2859
12-1	-11.286
▁ontlasting	-11.286
▁rechterschouder	-11.2864
▁minus	-11.2865
▁Rectumbiopten	-11.2865
▁complexe	-11.2875
▁harthelft	-11.2886
▁stenoserend	-11.2887
▁gang	-11.2892
Lever	-11.29
gerelateerd	-11.2904
CLA	-11.2913
ALI	-11.2917
▁arterieel	-11.2919
▁bolle	-11.292
▁ala	-11.2925
tansbiopt	-11.2925
▁marker	-11.2927
renaal	-11.2928
▁geconsolideerd	-11.2928
▁gevorderd	-11.2928
▁ondersteund	-11.2928
▁chemoradiatie	-11.2929
▁accident	-11.2929
▁dermatose	-11.2929
ierbiopt	-11.2933
▁dentatus	-11.2933
lectromechanisch	-11.294
▁capillairen	-11.2941
▁ware	-11.2943
▁state	-11.2944
▁genetische	-11.2944
▁aanzien	-11.2945
▁foto	-11.2945
klierweefsel	-11.2951
▁adventitia	-11.2954
ug	-11.2956
▁crypt	-11.2959
CD	-11.296
waarvoor	-11.2969
▁chemo	-11.297
▁apocriene	-11.2974
▁saturatie	-11.2978
rsi	-11.2978
anel	-11.2979
wond	-11.2987
trauma	-11.2993
▁coccen	-11.2993
▁verdringing	-11.2996
▁GE	-11.2997
▁geintubeerd	-11.2998
▁gelijktijdig	-11.2998
▁isthmus	-11.2998
▁knapte	-11.2998
▁mastopathisch	-11.2998
▁faecalis	-11.2998
▁verstrekte	-11.2998
▁cardiomegalie	-11.2999
▁familieleden	-11.2999
▁myoom	-11.3001
hangt	-11.3001
▁aortawortel	-11.3003
Rprostaat	-11.3004
uterine	-11.3007
▁sporadische	-11.3007
▁angiogram	-11.302
▁jongen	-11.302
gastrointestinal	-11.3025
▁markers	-11.3031
▁start	-11.3039
▁enzym	-11.3048
nodulair	-11.3048
▁patch	-11.3049
cre	-11.3056
keursdiagnose	-11.3063
bed	-11.3064
▁slijmvliesbiopt	-11.3068
port	-11.3069
▁conservatief	-11.3069
▁grijze	-11.3069
▁ongecompliceerd	-11.3069
▁Hydrothorax	-11.3069
▁sacculair	-11.3069
▁toxicodermie	-11.3069
▁thrombusmassa	-11.307
▁aortabifurcatie	-11.3071
▁Hiervan	-11.3072
▁myocardschade	-11.3076
ventrikelzijwand	-11.3084
▁hoogst	-11.3087
▁schrompelnieren	-11.3091
▁bestonden	-11.3097
laag	-11.3097
dermatitis	-11.3098
behandeling	-11.3105
▁1100	-11.3108
11-	-11.3108
▁stuk	-11.3111
▁Dieper	-11.3113
olledig	-11.3114
▁Bijkomend	-11.312
▁enorm	-11.3127
king	-11.3131
plasma	-11.3135
▁gevoelig	-11.3139
▁arthritis	-11.314
▁deferens	-11.314
▁invullen	-11.314
▁laparoscopisch	-11.314
▁pigmentosus	-11.314
▁trilineair	-11.314
▁kidney	-11.314
▁ligging	-11.314
▁Representatief	-11.314
▁Hepatomegalie	-11.314
▁pubis	-11.314
▁obese	-11.314
▁hersenparenchym	-11.3141
▁meningen	-11.3148
gesteld	-11.3149
vormend	-11.3159
bespreking	-11.3163
epitheliale	-11.3167
lus	-11.3167
▁grade	-11.3171
lang	-11.318
▁Cave	-11.3196
▁inflammatoir	-11.3201
▁lagen	-11.3203
▁Diverticulosis	-11.3211
▁gyri	-11.3211
▁mandibula	-11.3211
▁princip	-11.3211
▁moest	-11.3211
▁geoblitereerd	-11.3211
ox	-11.3212
cs	-11.3218
haardje	-11.3221
▁inductie	-11.3222
veneens	-11.3223
Gr	-11.3242
▁aortaprothese	-11.3246
▁erosies	-11.3249
▁overal	-11.325
rood	-11.3252
▁stage	-11.3253
▁pin	-11.3259
verig	-11.3267
▁blijven	-11.327
▁neiging	-11.3283
▁collageen	-11.3283
▁beoordeelbare	-11.3283
▁gefibroseerd	-11.3283
▁hartspiervezels	-11.3283
▁afloop	-11.3284
▁Longstuwing	-11.3284
▁mutatieanalyse	-11.3286
▁verwacht	-11.3291
▁uitstrijk	-11.3316
vallen	-11.3324
▁sarcomatoid	-11.3325
pathie	-11.3326
▁Duodenums	-11.3333
12-2	-11.3334
interstitiele	-11.3336
▁verlopen	-11.3343
▁Coronairen	-11.3344
gebieden	-11.3346
zowel	-11.335
▁toeval	-11.3355
▁hemopericard	-11.3355
▁gestopt	-11.3356
▁jugularis	-11.3356
▁fecaal	-11.3356
▁convexiteit	-11.3356
▁neocortex	-11.3356
▁orgaangewichten	-11.3356
▁cholesterolose	-11.3357
▁epicarditis	-11.3358
uurs	-11.3367
▁zijsnijranden	-11.3371
▁hartplak	-11.3372
ERE	-11.3372
zijdig	-11.3377
Endometriumbiopt	-11.3381
▁dik	-11.339
▁Di	-11.341
▁paralytisch	-11.3415
▁vacuolair	-11.3415
profiel	-11.3419
▁gas	-11.3425
▁vesicula	-11.3428
▁ileocoecaal	-11.3428
▁hematopoiese	-11.3429
▁hematurie	-11.3429
▁uitrijpend	-11.3429
▁granulair	-11.3429
▁beademd	-11.3429
▁Bericht	-11.3429
▁eigen	-11.3429
▁voorlip	-11.3429
▁intramuraal	-11.3429
▁moeder	-11.343
▁Hersengewicht	-11.3432
▁bodies	-11.3434
▁irreversibele	-11.3439
▁plastiek	-11.3441
tensive	-11.3448
▁overlegd	-11.345
▁Bijnier	-11.3469
▁peritoneaal	-11.3471
wonden	-11.3473
septum	-11.3485
▁brush	-11.3487
▁opge	-11.3489
▁Hersen	-11.3489
▁prion	-11.349
▁AI	-11.3496
▁embolisatie	-11.3499
▁fundic	-11.3502
▁jicht	-11.3502
▁voorgrond	-11.3502
▁slikklachten	-11.3502
▁drukverhoging	-11.3502
▁wogen	-11.3503
▁hersenvaten	-11.3503
▁usual	-11.3503
▁infectiefocus	-11.3504
Ale	-11.3506
▁vormt	-11.3514
dia	-11.353
▁stukjes	-11.3533
esophagusvarices	-11.3539
tekens	-11.3542
▁centrum	-11.355
schildwachtklier	-11.3553
▁anastomosen	-11.3553
▁stijging	-11.3557
vasculaire	-11.3559
lc	-11.356
dd	-11.3562
▁noduli	-11.3569
iale	-11.357
▁erysipelas	-11.3576
▁plusminus	-11.3576
▁celrijkdom	-11.3576
▁idem	-11.3577
▁beenvaten	-11.3578
▁buikvocht	-11.358
▁botbiopt	-11.3584
▁iliacale	-11.3585
edeem	-11.3599
▁ingrepen	-11.36
▁haemangioom	-11.3603
verlijden	-11.3604
annelijke	-11.3612
stent	-11.3613
▁pneumonia	-11.3615
stage	-11.362
▁gekleurd	-11.3623
▁seder	-11.363
▁galweg	-11.3632
toestand	-11.3634
▁intravasculaire	-11.3635
ges	-11.3635
entraal	-11.3643
acu	-11.3648
▁Afwijking	-11.3651
perifolliculitis	-11.3651
▁mesenchymal	-11.3651
▁verslaglegging	-11.3651
Blokje	-11.3651
▁tracheostoma	-11.3651
▁pneumectomie	-11.3652
tussen	-11.3652
▁wandlagen	-11.3652
▁intestinaaltype	-11.3652
▁gelig	-11.3652
▁herniatie	-11.3652
▁overgenomen	-11.3654
conform	-11.3655
sonde	-11.3659
▁GR	-11.366
▁episoden	-11.366
010	-11.3662
▁occipitale	-11.3665
▁tweeling	-11.3666
aG	-11.3667
▁significant	-11.3668
ii	-11.3668
▁encephalitis	-11.3672
ectie	-11.3675
▁paraffine	-11.3677
▁granuloom	-11.3677
ntstekingsbeeld	-11.3685
asus	-11.37
cy	-11.3705
▁opening	-11.3705
laesie	-11.3708
▁elk	-11.3709
▁verbeterde	-11.3724
▁onverwachts	-11.3726
▁glioblastoma	-11.3726
Hyper	-11.3727
▁cornea	-11.3727
gew	-11.3727
▁blue	-11.3728
▁mammareductie	-11.3729
▁pigmentatie	-11.373
▁aorto	-11.3732
▁submucosaal	-11.3733
amyloid	-11.3734
▁groepjes	-11.3734
▁doorgeschoten	-11.3736
▁02.	-11.3737
▁studie	-11.3743
infiltratie	-11.3744
▁reconstructie	-11.3745
ragen	-11.375
▁darmbiopten	-11.3752
▁bloedend	-11.3759
▁Lichtmicroscopi	-11.3766
avs	-11.3767
▁porte	-11.3774
▁LE	-11.378
▁anterieur	-11.3781
AID	-11.3781
lengte	-11.3784
▁ontstonden	-11.3787
mand	-11.3791
▁renale	-11.3794
acro	-11.3797
ubulair	-11.3798
▁geinterpreteerd	-11.3802
▁hemoptoe	-11.3802
▁hemorragie	-11.3802
▁leidde	-11.3802
▁anderszins	-11.3802
▁vergelijkba	-11.3802
▁hoogste	-11.3802
▁Haemorrhagisch	-11.3803
tose	-11.3808
pulmonale	-11.3817
▁ogend	-11.382
Ad	-11.3822
▁hemo	-11.3824
hartgewicht	-11.3828
▁correctie	-11.3834
shock	-11.3834
hemato	-11.3837
weg	-11.384
▁onregelmatige	-11.3841
▁grens	-11.3851
▁samenhang	-11.3855
biopsiemateriaal	-11.3856
▁cervicaal	-11.3858
▁kunstklep	-11.3862
defect	-11.3868
▁dichtstbij	-11.3878
▁myxoid	-11.3878
▁osteomyelitis	-11.3878
bvdw	-11.3878
▁allogene	-11.3878
▁caudatus	-11.3878
▁prikkeling	-11.3878
▁functionele	-11.3878
▁pneumococcen	-11.3878
▁hard	-11.388
periappendicitis	-11.3881
amen	-11.389
▁ges	-11.3898
▁marges	-11.3903
letsel	-11.3905
▁verk	-11.391
▁intermediair	-11.391
▁gescleroseerde	-11.3918
▁extensie	-11.3921
erminaal	-11.3921
respiratoir	-11.3922
▁vaatinvasie	-11.3925
▁teen	-11.3929
ventrikel	-11.3936
▁zijsnijrand	-11.3939
HB	-11.3948
▁zat	-11.395
▁huidlaesie	-11.3953
ngewijzigd	-11.3953
▁longinfarct	-11.3953
▁geclassificeerd	-11.3955
knoop	-11.3955
▁trombolyse	-11.3956
yc	-11.3957
beiderzijds	-11.3977
dominant	-11.3985
▁BA	-11.3999
▁huis	-11.4002
esofagus	-11.4024
erifeer	-11.4029
▁criteria	-11.403
▁alveolar	-11.4031
rouwelijke	-11.4032
▁aangewezen	-11.4033
▁dyspnoisch	-11.4033
▁gestoord	-11.4033
▁serositis	-11.4033
▁korrelig	-11.4033
▁aanzienlijk	-11.4033
▁Leverbiopt	-11.4034
▁overeenkomend	-11.4036
▁vochtrijk	-11.4036
▁rugpijn	-11.4037
▁niercysten	-11.4039
chronische	-11.4041
uro	-11.4045
▁bloedingsresten	-11.4046
text	-11.4048
▁hemolytisch	-11.4048
▁cyto	-11.405
ppervlakkig	-11.4052
cellulair	-11.4059
onderwand	-11.4061
urie	-11.4069
tekening	-11.4069
▁infarctje	-11.4069
202	-11.407
myco	-11.4075
anaf	-11.408
oot	-11.4081
oude	-11.4083
▁infra	-11.4089
▁nierbiopt	-11.4093
▁01.	-11.4099
111	-11.4099
aximale	-11.4103
▁dreigende	-11.4104
▁Resectierand	-11.4109
GREE	-11.4109
▁Aanvankelijk	-11.4111
▁geinfiltreerd	-11.4111
▁gereviseerd	-11.4111
▁trombopenie	-11.4111
▁achterlip	-11.4111
▁neoplasma	-11.4112
▁vriescoupes	-11.4113
▁potje	-11.4115
▁hartafwijking	-11.4116
stv	-11.4122
oorstel	-11.4123
werking	-11.4127
▁infarctgebied	-11.4135
vats	-11.4136
121	-11.4143
colon	-11.4143
▁verlopende	-11.4161
ces	-11.4171
▁thoraxdrain	-11.4174
anwezigheid	-11.4174
▁vallen	-11.4176
212	-11.4178
iddels	-11.4181
Huidshaveexcisie	-11.4182
omtrek	-11.4186
fo	-11.4187
▁colloid	-11.4187
▁Hepato	-11.4189
▁agenesie	-11.4189
▁geluxeerd	-11.4189
▁geprikkeld	-11.4189
▁immatuur	-11.4189
▁subdurale	-11.4189
▁vaststellen	-11.4189
▁condyloma	-11.419
▁bewaard	-11.419
▁bronchustakken	-11.419
▁ventrikelseptum	-11.4191
lokdarmbiopten	-11.4193
chrom	-11.4195
▁intravasculair	-11.4201
uiteraard	-11.4205
▁vingers	-11.4206
abces	-11.4207
▁welk	-11.421
acanthoom	-11.4212
ologisch	-11.4214
▁longontsteking	-11.4214
uw	-11.4215
volume	-11.4217
▁Bricker	-11.4219
definitief	-11.4224
▁referentie	-11.4226
fase	-11.4227
preparaten	-11.4232
agina	-11.4235
▁contusie	-11.4247
▁hartziekte	-11.4265
▁doorgebroken	-11.4269
▁geopend	-11.4269
▁hypothyreoidie	-11.4269
▁miljoen	-11.4269
▁kolonies	-11.4269
▁losliggend	-11.4269
▁myofibrose	-11.4269
▁hepatorenaal	-11.4269
▁heupoperatie	-11.4271
DG	-11.4271
▁jongetje	-11.4272
▁aangebracht	-11.4275
▁circumferent	-11.4277
ulvabiopt	-11.4278
rachea	-11.428
ron	-11.4281
res	-11.4284
12-	-11.4288
▁bepalingen	-11.4293
-01-200	-11.4301
litis	-11.4302
restanten	-11.4308
enzymkleuring	-11.4309
▁mijn	-11.4312
▁plasmacel	-11.4313
▁Radicaliteit	-11.4315
▁preparaten	-11.4315
▁zwakke	-11.4316
▁circumferente	-11.4318
postinflammatoir	-11.4321
▁geneesmiddel	-11.4333
▁dura	-11.4334
▁gemeten	-11.4342
▁punt	-11.4343
▁morbid	-11.4348
▁toilet	-11.4349
▁handelen	-11.4349
▁pityriasi	-11.4349
ov	-11.4349
▁coagulatie	-11.435
▁leeg	-11.4351
ueruptuur	-11.4352
▁longvelden	-11.4354
▁losse	-11.4356
▁vreemdlichaam	-11.4357
▁zeven	-11.4357
▁resultaten	-11.4364
che	-11.4381
▁blauwe	-11.4382
▁functioneel	-11.4382
▁destijds	-11.4389
▁norm	-11.4394
▁antistoffen	-11.44
trombose	-11.4401
snijvlak	-11.4401
thrombose	-11.4402
▁gepigmenteerd	-11.4404
lymfklier	-11.4406
▁Cervixbiopten	-11.4408
spatroon	-11.4408
myo	-11.4414
▁abstineren	-11.4418
▁pseudocyste	-11.4422
eoordeling	-11.4425
icht	-11.4426
▁repair	-11.4429
▁fibromusculair	-11.4429
▁spierlaag	-11.443
▁Douglasi	-11.4431
▁multiorgaan	-11.4434
▁naevi	-11.4435
▁Bronchusbiopten	-11.444
hor	-11.4441
panel	-11.4461
stru	-11.4463
oon	-11.4466
natieve	-11.4475
aandoening	-11.4485
lr	-11.4492
apmilt	-11.4496
▁arteriolo	-11.4497
▁zijrand	-11.4504
sigmoid	-11.4507
treptococcus	-11.4508
▁hydro	-11.451
▁aritmie	-11.4511
▁overeenstemming	-11.4511
▁afgedekt	-11.4511
▁perirenale	-11.4511
venen	-11.4511
▁pneumo	-11.4513
Bronchusspoeling	-11.4513
▁meningo	-11.4514
▁voorbij	-11.4522
▁miltstuwing	-11.4525
ricuspidalisklep	-11.4528
pitheeldysplasie	-11.4534
terventricularis	-11.4536
ernstige	-11.4538
▁EC	-11.4538
-02-201	-11.4542
▁bi	-11.4543
stoma	-11.4549
raag	-11.4554
cell	-11.4555
▁variaties	-11.4557
▁uitge	-11.4559
plooi	-11.4561
▁afge	-11.4567
breidt	-11.4585
▁snoergroeve	-11.4588
weefselversterf	-11.4593
▁Accreditatie	-11.4593
▁Hypertroof	-11.4593
▁fossa	-11.4593
▁gesneden	-11.4593
▁palatum	-11.4593
▁tekst	-11.4593
▁arcus	-11.4593
▁schouw	-11.4593
▁urogenitalis	-11.4593
▁neuronale	-11.4594
fs	-11.4594
▁myopathie	-11.4595
erse	-11.4596
bro	-11.4596
▁linkerschouder	-11.46
▁inclusiecyste	-11.4602
ki	-11.4604
oals	-11.461
avd	-11.4616
ft	-11.4618
klein	-11.4622
otale	-11.4643
anamnese	-11.4647
vlak	-11.4653
▁structuur	-11.4653
marge	-11.4665
▁Arterio	-11.4667
▁resectierand	-11.4667
▁Adnex	-11.4675
bulleuze	-11.4675
▁bekledend	-11.4675
▁cribriform	-11.4675
▁procent	-11.4675
▁umbilicalis	-11.4675
▁verliep	-11.4675
▁dwarslaesie	-11.4675
▁afgerond	-11.4675
▁peribronchiale	-11.4676
▁afdoende	-11.4676
▁sufheid	-11.4676
tion	-11.4676
oorgeschiedenis	-11.4677
▁maagulcus	-11.4678
▁evt	-11.468
▁koud	-11.4682
otaal	-11.4682
▁processen	-11.4682
kant	-11.4683
▁port	-11.4685
▁lichaamslengte	-11.4695
▁radio	-11.4696
hondrodermatitis	-11.4699
plak	-11.4703
yn	-11.4704
▁cf	-11.4708
▁beeldvormend	-11.4711
tatie	-11.4712
▁elastisch	-11.4718
▁Beginnend	-11.4723
▁lipomateu	-11.473
▁trofoblast	-11.4733
ilic	-11.4738
reconstructie	-11.4738
spiegel	-11.4738
neuro	-11.4741
▁aandoeningen	-11.4741
▁mural	-11.4744
lokdarm	-11.4753
▁Boven	-11.4757
urkinje	-11.4758
▁Larynx	-11.4759
▁inflammatie	-11.4759
▁tunica	-11.4759
▁hoeveelheden	-11.4759
▁duim	-11.4759
▁continu	-11.4759
▁samenvatting	-11.4761
BBL	-11.4763
▁Af	-11.4765
▁lichaampjes	-11.4768
▁gemacereerd	-11.4778
vaat	-11.4781
101	-11.4783
▁cs	-11.4786
jr	-11.4786
iswaar	-11.481
10-1	-11.4819
adere	-11.4822
breuk	-11.4824
▁excisiebiopt	-11.4827
for	-11.4831
stomp	-11.4832
▁leuko	-11.4833
punt	-11.4838
varium	-11.4841
▁galsteen	-11.4842
▁inotropica	-11.4843
▁obstipatie	-11.4843
▁sprietig	-11.4843
▁zodanig	-11.4843
▁geinformeerd	-11.4843
▁blaarvorming	-11.4843
▁angiosarcoom	-11.4843
▁gastroscopie	-11.4844
▁tekening	-11.4846
▁darminhoud	-11.4847
EB	-11.4848
▁wijten	-11.4856
▁wild	-11.4856
if	-11.4874
▁celpopulatie	-11.4875
-20	-11.488
mut	-11.4887
ms	-11.4896
ransformatiezone	-11.4899
lob	-11.4902
▁fibrilleren	-11.4906
▁lichtmicroscopi	-11.491
▁weefselfragment	-11.4915
ventriculaire	-11.4917
igexcisie	-11.4923
▁administratie	-11.4927
▁buizen	-11.4927
▁cirrhotisch	-11.4927
▁gespannen	-11.4927
▁syndromale	-11.4927
▁zeggen	-11.4927
bronchiectasieen	-11.4927
▁leiomyosarcoom	-11.4927
▁centrolobulair	-11.4927
▁gemeld	-11.4928
▁epicardiale	-11.4928
▁heupfractuur	-11.4928
hoek	-11.4928
▁klepafwijkingen	-11.4932
▁verkeerde	-11.4937
ergrote	-11.4938
▁linkermamma	-11.4939
▁Chronisch	-11.4939
▁ophopingen	-11.4952
▁indruk	-11.4964
▁stapeling	-11.4967
igmoidresectie	-11.497
▁verdeling	-11.4971
▁kant	-11.4974
▁liep	-11.4975
▁reuscel	-11.4977
ler	-11.4981
ous	-11.4981
▁cutaan	-11.4981
▁glomerulair	-11.4986
gat	-11.499
▁weefsels	-11.4992
▁imp	-11.4997
geleid	-11.4998
laterale	-11.5001
▁afd	-11.5009
▁irritatie	-11.5012
mentum	-11.5012
lymforeticulaire	-11.5013
▁Aureus	-11.5013
▁Hartmann	-11.5013
▁basalioom	-11.5013
▁haemorragisch	-11.5013
▁vertex	-11.5013
▁vergelijking	-11.5013
safbreking	-11.5013
erruca	-11.5013
▁plasmocytose	-11.5013
▁Escherichia	-11.5014
▁mucoid	-11.5015
▁drietakslijden	-11.5015
▁thoraxhelft	-11.5015
proliferatief	-11.5019
segment	-11.5021
naad	-11.5021
▁uitgezette	-11.5022
▁scan	-11.5024
atuur	-11.5024
▁renaalcel	-11.5027
▁110	-11.5033
umoren	-11.5035
BL	-11.5048
ocale	-11.505
etreft	-11.5056
vene	-11.5061
▁radiatie	-11.5062
Immunohistochemi	-11.5062
▁cellulair	-11.5068
ocht	-11.5075
ym	-11.5083
midden	-11.5098
▁nodosum	-11.5099
▁aansluitend	-11.5099
▁ascenderende	-11.5099
▁schedelbasis	-11.5099
▁overeenkomstig	-11.5099
▁hartoren	-11.51
▁okseltop	-11.5101
▁peroperatief	-11.5104
ureter	-11.5105
trof	-11.5107
trans	-11.5108
▁maagmucosa	-11.5109
▁submucosale	-11.5111
▁fulminant	-11.5112
slag	-11.5112
nemen	-11.5113
okselkliertoilet	-11.5115
cht	-11.5118
▁voorgelegd	-11.5125
druk	-11.5128
lopend	-11.5129
▁veno	-11.5135
vol	-11.5143
▁gronden	-11.5148
▁ko	-11.515
fen	-11.5155
222	-11.5158
▁haemo	-11.5171
▁transfusie	-11.5173
zo	-11.5179
▁baby	-11.5186
▁beinvloed	-11.5186
▁bereikt	-11.5186
▁circulus	-11.5186
▁enterocolitis	-11.5186
▁geresulteerd	-11.5186
▁urticaria	-11.5186
▁species	-11.5186
110	-11.5186
▁orienterend	-11.5187
▁bewerking	-11.5187
▁preterminale	-11.5188
▁vindt	-11.5188
ted	-11.5188
▁denk	-11.519
▁hypertrophi	-11.5193
▁functionerend	-11.5194
licht	-11.5196
▁fibroma	-11.5198
▁opties	-11.521
ellicht	-11.522
▁overhechting	-11.5222
-11-200	-11.5236
▁Gele	-11.5239
stig	-11.5253
▁jonger	-11.5256
edemateuze	-11.5272
▁dilatatio	-11.5274
▁sondevoeding	-11.5274
▁corpora	-11.5274
▁prolifererend	-11.5274
▁secretoir	-11.5274
▁glioblastoom	-11.5274
▁adnexextirpatie	-11.5275
▁stevig	-11.5275
▁myocyten	-11.528
▁intraductal	-11.5281
▁extreem	-11.5281
▁ante	-11.5281
▁121	-11.5283
sarcoom	-11.5284
112	-11.5284
rmale	-11.5297
▁renales	-11.5299
spier	-11.5301
▁veld	-11.5315
synucleine	-11.5315
▁maakte	-11.5324
drietal	-11.5327
lic	-11.5329
▁high	-11.5329
▁oorspronkelijk	-11.5336
▁verzwaarde	-11.5337
tho	-11.5337
▁epitheliaal	-11.5337
acuut	-11.5346
▁fenomeen	-11.5349
pakket	-11.5352
00-1	-11.5355
▁genoemd	-11.5362
uhrman	-11.5362
▁getromboseerd	-11.5362
▁vertoont	-11.5362
▁Lokaal	-11.5362
▁dwarsgestreept	-11.5362
stuitlengte	-11.5362
▁subfrenisch	-11.5363
▁cornu	-11.5363
▁pleurabladen	-11.5363
▁mbv	-11.5366
ori	-11.5367
typeslijmvlies	-11.5368
mediadegeneratie	-11.5375
tegen	-11.5376
▁allel	-11.5393
▁occlusies	-11.5398
coronairsclerose	-11.5398
▁zelfs	-11.5403
▁tumortje	-11.5406
fibrillaire	-11.5419
▁uitend	-11.5424
prostaat	-11.5427
varices	-11.5432
ou	-11.5435
▁rec	-11.5446
▁cave	-11.5448
let	-11.545
pharynx	-11.5452
▁blank	-11.5452
▁gereseceerd	-11.5452
▁mengflora	-11.5452
▁mismatch	-11.5452
▁ossale	-11.5452
▁solutio	-11.5452
▁temperatuur	-11.5452
▁verpleeghuis	-11.5452
▁hemochromatose	-11.5452
▁omringend	-11.5452
▁Bilaterale	-11.5452
▁colorectaal	-11.5452
▁embryonal	-11.5452
▁verhouding	-11.5452
▁vaatstructuren	-11.5452
▁microthrombi	-11.5453
▁cutaneum	-11.5453
▁grijs	-11.5455
rans	-11.5455
▁bicuspide	-11.5458
zuur	-11.5467
▁klaagde	-11.5467
abdomen	-11.5471
▁verwachten	-11.5472
oog	-11.5476
zicht	-11.5478
zien	-11.5479
neus	-11.5484
▁decidua	-11.549
vrij	-11.5504
terminale	-11.5507
anale	-11.551
▁echt	-11.5511
side	-11.5514
catheter	-11.5514
hersenmetastasen	-11.5527
erdenking	-11.5529
▁drains	-11.5537
▁gegroeid	-11.5542
▁leptomeningeale	-11.5542
▁rheumatoid	-11.5542
▁haematomen	-11.5542
▁arteriopathie	-11.5542
▁intracerebraal	-11.5543
▁overplaatsing	-11.5545
▁hiernaast	-11.5547
iseerd	-11.5552
veelal	-11.5553
its	-11.5555
laparotomie	-11.5556
loop	-11.5556
▁longarterien	-11.5559
leg	-11.5568
▁bovenooglid	-11.5568
▁rechterbeen	-11.5571
-100	-11.5574
▁plooi	-11.5576
▁linkerbeen	-11.5578
▁Cyste	-11.5582
▁spoeling	-11.5585
ella	-11.5588
▁stabiele	-11.5593
ammanaaldbiopt	-11.5601
▁cells	-11.5601
anaal	-11.5607
▁ondersteunen	-11.5611
orm	-11.5611
▁water	-11.5613
2000	-11.5616
intestinaal	-11.5616
uebloeding	-11.5623
amenvatting	-11.563
▁Distaal	-11.5633
▁basocellulare	-11.5633
▁callosum	-11.5633
▁epilepticus	-11.5633
▁toezending	-11.5633
▁onopvallend	-11.5633
▁sommige	-11.5633
▁streptococcen	-11.5633
▁bouw	-11.5633
▁extrahepatisch	-11.5634
▁viscerale	-11.5634
bronchiaal	-11.5637
▁botmetastasen	-11.5639
▁ob	-11.564
▁weten	-11.5649
▁tenen	-11.5654
▁vervangen	-11.5656
▁voorgaande	-11.5657
empyeem	-11.5659
Lymfklierpunctie	-11.5661
▁microsatelliet	-11.5668
iaal	-11.5671
rechteronderbeen	-11.5676
▁bestralings	-11.5677
ink	-11.5678
▁autosomaal	-11.5681
▁maal	-11.5694
▁pneumonitis	-11.5695
▁uitgaand	-11.5696
mutatie	-11.5699
▁incisie	-11.5712
▁vinger	-11.5713
roximale	-11.572
▁insuline	-11.5724
▁monochoriale	-11.5724
▁onrijp	-11.5724
▁parasieten	-11.5724
▁teratoom	-11.5724
▁liposarcoom	-11.5724
▁frontoparietaal	-11.5724
▁hemiparese	-11.5724
▁uiterst	-11.5724
▁rustig	-11.5725
▁pat	-11.5725
▁bowenoid	-11.5725
▁macronodulair	-11.5725
bu	-11.5725
▁voornaam	-11.5726
▁altijd	-11.5727
▁residu	-11.5729
▁leken	-11.5732
ewustzijnsdaling	-11.5734
▁Ha	-11.574
ubectomie	-11.5751
ziekten	-11.5754
classificatie	-11.5759
tenminste	-11.5761
heen	-11.5762
stelsel	-11.577
bla	-11.5771
hoog	-11.5774
ical	-11.5779
oni	-11.5779
▁death	-11.5791
dag	-11.5792
▁varianten	-11.5793
▁centimeter	-11.5796
▁vegetatie	-11.5797
risk	-11.5798
▁eosinofiel	-11.58
uitstrijk	-11.58
▁opmerkelijk	-11.5805
▁Crista	-11.5809
lijmvliesexcisie	-11.581
▁iliacaal	-11.5815
ectasie	-11.5817
▁nicotine	-11.5817
▁gevraagd	-11.5817
▁reageerde	-11.5817
▁volvulus	-11.5817
▁haargrens	-11.5817
▁Buik	-11.5817
▁tongrand	-11.5818
▁arterietak	-11.5819
▁gebruikt	-11.5819
120	-11.582
▁Gen	-11.5822
lichaamsarterien	-11.5822
▁samenhangen	-11.5824
mische	-11.5827
▁plekken	-11.5828
bil	-11.5832
▁perfor	-11.5833
non	-11.5847
▁hiel	-11.5854
▁corpusbiopten	-11.5855
tig	-11.5855
ificeerd	-11.5855
▁circumflexa	-11.5857
▁defecten	-11.5857
▁linkszijdige	-11.5863
chondr	-11.5863
-02-200	-11.5866
AG	-11.5868
▁werk	-11.587
▁gist	-11.5875
▁ong	-11.5879
EHE	-11.5881
drie	-11.5882
▁hartkamers	-11.5884
apillair	-11.5892
▁hoofdbronchi	-11.5894
▁Darm	-11.5899
kin	-11.59
alk	-11.5901
ventrikelwand	-11.5903
▁as	-11.5905
duodenale	-11.5908
sinfiltraten	-11.591
▁ossaal	-11.591
▁voelde	-11.591
▁cirrotisch	-11.591
gezakt	-11.591
▁hematogeen	-11.591
▁droog	-11.5911
▁eiwitten	-11.5912
▁drievats	-11.5912
▁noo	-11.5915
HCA	-11.5919
▁interstitial	-11.592
waliteit	-11.5923
▁opmerkelijke	-11.5924
▁belangrijk	-11.5926
▁ontving	-11.5926
▁ogen	-11.5929
ning	-11.593
pal	-11.5938
ix	-11.5938
kleuringen	-11.5938
▁adhesie	-11.5939
▁hemi	-11.5942
▁begrensde	-11.5943
▁hyperkaliemie	-11.5949
pan	-11.5951
▁tov	-11.5951
pigment	-11.5961
plaveiselcel	-11.5962
▁leukemische	-11.5968
▁adenose	-11.5968
niveau	-11.597
▁bundel	-11.5971
▁omvang	-11.5974
▁vals	-11.5983
rap	-11.5987
▁ontslag	-11.5989
amine	-11.5995
▁blastaire	-11.5997
▁mitraal	-11.6001
▁von	-11.6002
▁breed	-11.6002
▁uitgezet	-11.6002
ekerheidshalve	-11.6003
ocyten	-11.6003
▁aanwijsba	-11.6003
▁plaatsvinden	-11.6005
kalenderleeftijd	-11.6005
▁Abdominaal	-11.6005
▁aberrant	-11.6005
▁bijmenging	-11.6005
▁funiculitis	-11.6005
▁ontregeling	-11.6005
▁sclerodermie	-11.6005
▁versterkt	-11.6005
▁forensisch	-11.6005
▁polyposis	-11.6005
tijd	-11.6005
mantelcellymfoom	-11.6005
▁arachnoidea	-11.6006
▁Atrofie	-11.6009
aneurysma	-11.6011
▁nootmuskaat	-11.6014
▁opstijgend	-11.6015
▁rechtermamma	-11.6015
ress	-11.6022
▁verbreding	-11.6023
itiele	-11.6027
▁anterieure	-11.6031
eptische	-11.6032
cus	-11.6035
org	-11.6044
CLL	-11.6065
▁maagcardia	-11.6068
nis	-11.6069
▁levermetastase	-11.607
bel	-11.6072
rimaire	-11.6077
trop	-11.6083
olide	-11.6084
bv	-11.6093
activatie	-11.6098
spir	-11.6099
▁Brush	-11.61
▁annulus	-11.61
▁beklemd	-11.61
▁excentrisch	-11.61
▁opgevraagd	-11.61
▁weegt	-11.61
itgesneden	-11.61
▁strengileus	-11.61
▁aangetast	-11.61
▁lumenvernauwing	-11.61
▁verscheiden	-11.6101
▁perianaal	-11.6101
▁wekedelen	-11.6102
heden	-11.6103
▁geleidelijk	-11.6109
▁gelijk	-11.6111
atum	-11.6116
lasse	-11.6118
▁tumormetastase	-11.6119
▁BCC	-11.6122
▁Corpus	-11.6125
villeus	-11.6131
▁hartritme	-11.6133
▁galgangen	-11.6135
inhoud	-11.6144
extraprostatisch	-11.6146
▁gezamenlijk	-11.6149
Braak	-11.6156
rw	-11.6168
ntractietoestand	-11.617
elaas	-11.6187
▁buikoperatie	-11.6189
epitheelcellen	-11.6195
▁acanthose	-11.6196
▁betekent	-11.6196
▁cardioloog	-11.6196
▁sporen	-11.6196
▁toegediend	-11.6196
▁mastopathie	-11.6196
▁bioprothese	-11.6196
▁hemisferen	-11.6196
▁gemengdcellig	-11.6196
▁femurfractuur	-11.6196
▁duodenitis	-11.6197
▁lymfomen	-11.6197
▁renis	-11.6198
cp	-11.62
▁georganiseerd	-11.62
stroom	-11.6203
▁linkeronderbeen	-11.6205
▁ratio	-11.6207
▁colonmucosa	-11.6208
▁fisteling	-11.6208
ving	-11.6211
▁littekengebied	-11.6215
ecto	-11.6216
▁Care	-11.6219
rib	-11.6221
pitheelcarcinoom	-11.6228
▁zit	-11.623
snede	-11.6243
radi	-11.6247
gezette	-11.6254
▁pancreatico	-11.6257
▁lager	-11.6261
wijze	-11.6262
▁Ig	-11.6262
IGD	-11.6265
▁bloedingsrest	-11.6271
▁dubieu	-11.6273
vraag	-11.6283
chien	-11.6284
▁BAL	-11.6284
hans	-11.6287
amnionitis	-11.6293
▁donor	-11.6293
erzorgingsgebied	-11.6293
▁afplatting	-11.6293
▁antracose	-11.6293
▁bovinum	-11.6293
▁gezorgd	-11.6293
▁oorzakelijk	-11.6293
▁radiculair	-11.6293
▁vertonen	-11.6293
▁plaatsvond	-11.6293
▁berichtgeving	-11.6294
▁side	-11.6295
▁tijdelijk	-11.6296
▁thans	-11.6298
▁mg	-11.6302
appa	-11.6304
▁adherent	-11.6305
▁ontslagen	-11.631
▁slanke	-11.6313
oesofagusvarices	-11.6317
▁effecten	-11.6333
▁sonde	-11.6344
▁overgangse	-11.6348
mis	-11.635
▁poliepjes	-11.635
buik	-11.6354
septaal	-11.6361
▁eosinofielen	-11.6362
omateuze	-11.637
aget	-11.6375
▁cervixpoliep	-11.6377
▁thromboemboli	-11.638
▁invloed	-11.6385
▁gere	-11.639
▁opgesneden	-11.6391
▁segmentkernig	-11.6391
afzetting	-11.6391
jogren	-11.6391
spondylodiscitis	-11.6391
▁bewerkt	-11.6391
▁circumscript	-11.6391
▁gepland	-11.6391
▁helicis	-11.6391
▁dalend	-11.6391
bank	-11.6391
▁hysterectomie	-11.6391
▁oplevert	-11.6391
▁soort	-11.6392
▁restlumina	-11.6393
▁cysticus	-11.6393
▁Haar	-11.6395
▁Rand	-11.6396
▁serie	-11.6398
-12-200	-11.6402
az	-11.6404
▁neuroom	-11.6404
▁meso	-11.6411
tien	-11.6417
▁gebouwd	-11.642
hartspiernecrose	-11.6422
▁loopt	-11.6423
deposities	-11.6428
corpus	-11.6429
ras	-11.6431
tomie	-11.6432
vaatproliferatie	-11.6434
▁recentelijk	-11.644
lijmvliesbiopt	-11.6447
bs	-11.6447
▁nachts	-11.6448
teuze	-11.6452
▁schatting	-11.6454
▁vas	-11.6454
▁negen	-11.646
vezel	-11.6463
medicamenteuze	-11.6465
▁scopie	-11.6467
eritonitis	-11.6475
donatie	-11.648
▁drukken	-11.6486
opening	-11.6486
▁hoorn	-11.6486
▁Bot	-11.6487
▁kortademig	-11.6489
▁dwars	-11.649
▁cellulitis	-11.649
▁hormonale	-11.649
▁palpabel	-11.649
▁restrictie	-11.649
▁Resectievlak	-11.6491
▁geacht	-11.6492
mid	-11.6521
▁lijnen	-11.6524
logisch	-11.6525
circumferentieel	-11.6529
▁schouderbladen	-11.6531
▁huidafwijkingen	-11.6532
▁pomp	-11.6536
pass	-11.6538
loze	-11.6539
▁Afstand	-11.6541
▁biliaire	-11.6543
kapsel	-11.6544
▁Littekens	-11.6547
▁overig	-11.6552
uitgebreid	-11.6556
▁wonden	-11.6558
▁rechtercoronair	-11.6559
ussen	-11.6563
▁huidbiopsie	-11.6569
mortem	-11.657
ooi	-11.6572
▁periporta	-11.6575
pleuraholte	-11.6579
isme	-11.6583
hersenen	-11.6583
▁doorgesneden	-11.659
rijgingstechniek	-11.659
▁Curettement	-11.659
▁Huntington	-11.659
▁gedraineerd	-11.659
▁gelaagd	-11.659
▁haematopoese	-11.659
▁rosacea	-11.659
▁frontotemporale	-11.659
▁lung	-11.659
▁begonnen	-11.659
▁vruchtholte	-11.659
▁endocardiale	-11.6591
▁biventriculair	-11.6591
▁lichenoAd	-11.6591
▁weefselverval	-11.6593
▁anamnestisch	-11.6593
▁tauopathie	-11.6593
▁recidiverend	-11.6597
▁abcesholte	-11.6597
▁paraaortaal	-11.6597
bruin	-11.6597
▁chronicus	-11.6602
▁septale	-11.6605
▁oren	-11.6608
lag	-11.6612
▁microangiopathi	-11.6619
infarceringen	-11.6626
▁Cor	-11.6628
▁tesamen	-11.6634
▁Hierme	-11.664
chimmelkleuring	-11.6642
mortale	-11.6646
scopisch	-11.6647
Dr	-11.6647
rogesteron	-11.6651
▁ileo	-11.6652
geringe	-11.6653
▁linkerbovenbeen	-11.6662
▁vlok	-11.6666
▁laceratie	-11.6671
▁puntje	-11.6672
lichaampjes	-11.6673
esultaat	-11.668
leppen	-11.6681
▁cellulariteit	-11.6682
hyper	-11.6683
uperficieel	-11.6689
▁embryo	-11.6691
▁fronto	-11.6691
▁pericolisch	-11.6691
▁haematurie	-11.6691
antitrypsine	-11.6691
▁hemodialyse	-11.6691
oesophageale	-11.6691
▁midline	-11.6691
▁diepreikend	-11.6692
spasme	-11.6692
▁pitting	-11.6692
▁stuit	-11.6693
▁partieel	-11.6693
▁onderkaak	-11.6695
loos	-11.6695
achter	-11.6696
ARGE	-11.6699
antrumslijmvlies	-11.67
fil	-11.6702
celpercentage	-11.6703
▁host	-11.6706
▁Lymfeklier	-11.6714
▁geinduceerde	-11.672
▁Bls	-11.672
Coronairarterien	-11.6721
old	-11.6725
lia	-11.6738
▁Endo	-11.6738
▁Hashimoto	-11.6739
tting	-11.674
▁cont	-11.6745
Appendixresectie	-11.6745
▁begrensd	-11.6758
anti	-11.676
▁Cardio	-11.6761
cardia	-11.6771
aden	-11.6776
dg	-11.678
buisprothese	-11.6785
▁haemorrhagie	-11.6788
▁vertoonde	-11.6788
▁geleverd	-11.679
▁obturatorius	-11.679
chirurgie	-11.6792
▁gevoed	-11.6793
▁ledematen	-11.6793
▁prostatica	-11.6793
▁axonal	-11.6793
cholesterolaemie	-11.6794
▁ongewoon	-11.6794
▁subacuut	-11.6794
▁toediening	-11.6794
▁reductie	-11.6795
▁immunofenotyp	-11.6795
▁arteriolen	-11.6795
orre	-11.6797
infarctlittekens	-11.6798
▁degeneratief	-11.6818
coronair	-11.6828
▁prominent	-11.6829
receptoren	-11.6832
▁proliferatief	-11.6839
▁episodes	-11.684
eratine	-11.6844
▁ochtends	-11.6846
peritoneale	-11.6853
▁colonresectie	-11.6864
▁larynxcarcinoom	-11.6867
▁smal	-11.6868
▁polymorfe	-11.6877
▁bijkomend	-11.6879
▁krabeffect	-11.688
▁bloedig	-11.6883
▁huidafwijking	-11.6886
2020	-11.6888
verval	-11.6891
trekk	-11.6892
infect	-11.6896
▁bursa	-11.6896
▁inoperabel	-11.6896
▁microkalk	-11.6896
▁lactaatacidose	-11.6896
▁voorhanden	-11.6896
▁blind	-11.6897
hemihepatectomie	-11.6897
▁kuur	-11.6899
▁caverneus	-11.6901
toename	-11.6901
▁Extra	-11.6904
naevus	-11.6905
orale	-11.6907
▁verlengde	-11.6908
▁gedissemineerde	-11.6909
▁ongoing	-11.691
▁gestuurd	-11.691
laat	-11.6911
▁krabeffecten	-11.6913
uid	-11.6917
nefrosclerose	-11.692
lair	-11.6924
▁centrilobulaire	-11.693
▁baso	-11.694
kamer	-11.6942
spoliep	-11.6942
rid	-11.6944
septumdefect	-11.6944
▁aspiraat	-11.6951
-10-200	-11.6958
euro	-11.6958
slecht	-11.6963
▁ben	-11.6963
yr	-11.6969
HA	-11.697
granul	-11.6971
unt	-11.6971
▁zenuw	-11.6997
ka	-11.6998
▁nasolabiaal	-11.6999
▁verward	-11.7
▁geconcludeerd	-11.7001
▁hybridisatie	-11.7001
▁major	-11.7001
▁rekanalisatie	-11.7001
▁shift	-11.7001
▁verbreed	-11.7001
▁Atherosclerosis	-11.7001
▁heftige	-11.7001
▁histiocytoom	-11.7001
▁ingedikt	-11.7001
▁epiglottis	-11.7001
▁Longemfyseem	-11.7001
mvg	-11.7001
ovarieel	-11.7004
▁Bekend	-11.7004
thromboembolieen	-11.7006
▁trap	-11.7009
▁steel	-11.7009
lier	-11.701
eleidingssysteem	-11.7011
basaloid	-11.7012
▁staart	-11.7018
▁longziekte	-11.7022
iz	-11.7023
ifi	-11.7024
volgens	-11.703
▁beiden	-11.7031
laesies	-11.7034
▁ventriculi	-11.7038
▁Ad	-11.7047
▁restlokalisatie	-11.7051
▁AC	-11.7051
Huid	-11.7065
gelijk	-11.7074
▁gastric	-11.7075
▁insula	-11.7085
ow	-11.7086
braak	-11.7089
aj	-11.709
roximaal	-11.709
▁adherente	-11.7093
▁Advies	-11.7096
eneration	-11.7099
efrectomie	-11.7103
▁Cachexie	-11.7106
▁aansluiting	-11.7106
▁ataxie	-11.7106
▁aangeboren	-11.7106
▁zichtbare	-11.7106
▁basaalmembraan	-11.7106
▁pulmonair	-11.7106
▁afgegeven	-11.7106
▁polypeus	-11.7107
▁getracht	-11.7107
▁kleplijden	-11.7108
▁knieprothese	-11.7108
▁mola	-11.7114
uevorming	-11.7115
fibroserende	-11.7115
▁pompfunctie	-11.7115
▁fibrosehaardjes	-11.7116
embolisatie	-11.7118
▁hoofdbronchien	-11.7124
▁opgelopen	-11.7126
▁histo	-11.7128
2100	-11.7128
▁alsnog	-11.7133
geb	-11.7146
▁conclusief	-11.7148
scheur	-11.7153
▁EEG	-11.7159
▁snijden	-11.7159
▁ano	-11.7159
▁miltinfarct	-11.7162
▁Extern	-11.7173
▁Ex	-11.7178
▁postero	-11.7179
lling	-11.7183
▁hilair	-11.7185
▁Bespreking	-11.7185
▁ablatie	-11.7194
▁gem	-11.7195
▁typeren	-11.7199
▁reiken	-11.72
▁Ischaemi	-11.7209
▁reperfusie	-11.7211
▁celgroepen	-11.7212
▁Distal	-11.7212
▁hematologische	-11.7212
▁herkennen	-11.7212
▁hypercalciemie	-11.7212
▁pancreaticus	-11.7212
▁avitaal	-11.7212
▁irradicaal	-11.7212
▁kaakhoek	-11.7212
▁target	-11.7212
▁novo	-11.7213
▁psychiatrisch	-11.7213
▁wigvormig	-11.7213
▁presternaal	-11.7213
▁massieve	-11.7214
iden	-11.7218
▁nie	-11.7224
▁darmlis	-11.7225
randen	-11.7227
▁darmlijden	-11.7227
implantatie	-11.7228
▁componenten	-11.7228
jaren	-11.7229
steen	-11.7229
▁blijvende	-11.7229
▁Blaasbiopten	-11.723
▁ruiter	-11.7231
▁Hypertrofi	-11.7231
▁obstruerend	-11.7234
our	-11.7234
▁fibrinoide	-11.7234
hand	-11.7236
▁vervolg	-11.7236
transplantaat	-11.7239
▁granulo	-11.7252
▁gein	-11.7253
▁levernecrose	-11.7256
RCA	-11.7257
▁buis	-11.726
▁leverfibrose	-11.726
ay	-11.7261
Hart	-11.7267
low	-11.7269
▁hevige	-11.7272
vormig	-11.7272
atief	-11.7285
▁hv	-11.729
▁adem	-11.7291
reid	-11.7302
▁Levernaaldbiopt	-11.7305
asci	-11.7306
ibrineuze	-11.7319
lichamen	-11.7319
assistent	-11.732
niversitair	-11.732
▁advies	-11.732
▁coprostase	-11.732
▁gemodificeerd	-11.732
▁limbisch	-11.732
▁ongebruikelijk	-11.732
leeftijdsconform	-11.732
▁merendeel	-11.732
▁nvt	-11.732
▁vaatstelsel	-11.732
▁dientengevolge	-11.732
▁straat	-11.7321
▁Eerder	-11.7324
▁tumornecrose	-11.7324
▁vrijgegeven	-11.7325
▁error	-11.7328
chouw	-11.7335
ingroei	-11.7337
▁karakteristiek	-11.7338
vacuolair	-11.734
▁cystic	-11.7341
hospital	-11.7341
▁Br	-11.7343
localisaties	-11.7349
▁peptisch	-11.735
▁mono	-11.7361
▁lytisch	-11.7362
icul	-11.7372
temporaal	-11.7375
HD	-11.7379
▁maagcorpustype	-11.738
gelijkend	-11.7382
▁compartiment	-11.7383
sclerotisch	-11.7389
▁nav	-11.7396
▁0,1	-11.7407
ins	-11.7426
DIGHEID	-11.7428
▁nodosa	-11.7428
▁ontwikkelt	-11.7428
▁purpura	-11.7428
▁rubriek	-11.7428
▁stigmata	-11.7428
▁verhaal	-11.7428
▁thrombopenie	-11.7428
▁voortgeschreden	-11.7428
▁geweld	-11.7429
▁schizofrenie	-11.7429
▁Diep	-11.7429
▁cardiologie	-11.743
▁placentabed	-11.7433
▁onderkwadrant	-11.7433
▁angioom	-11.7434
▁aanvragend	-11.7435
▁stasis	-11.7437
vet	-11.7437
post	-11.7439
▁longtop	-11.7449
▁acantholytische	-11.745
▁Lymfklierbiopt	-11.745
reanimatiepoging	-11.7452
plaatsing	-11.7452
wille	-11.7456
Definitieve	-11.7456
bacteriele	-11.746
▁hartafwijkingen	-11.7468
▁placentarest	-11.7469
▁Longembolie	-11.7485
▁loc	-11.75
▁cristabiopt	-11.7502
membraneuze	-11.7505
situ	-11.7509
renale	-11.7512
▁bied	-11.7513
zak	-11.7514
oorzaak	-11.7516
genomen	-11.7518
verschijnselen	-11.7518
▁band	-11.752
▁spina	-11.7526
aligniteit	-11.7531
ALL	-11.7535
teatose	-11.7536
▁geimplanteerd	-11.7538
▁gemiddeld	-11.7538
▁submandibulair	-11.7538
▁vaatspasmen	-11.7538
▁verloren	-11.7538
block	-11.7538
▁Aldaar	-11.7538
rineblaas	-11.7539
▁Bleke	-11.7539
▁celverval	-11.7539
▁zitten	-11.7539
▁hoornmateriaal	-11.754
▁2,2	-11.7544
▁gladde	-11.7546
▁canule	-11.7547
▁cervixcarcinoom	-11.7548
vari	-11.7553
▁coronairstenose	-11.756
▁intraductaal	-11.7568
thro	-11.758
glandulair	-11.7595
tieve	-11.7605
red	-11.7605
▁krappe	-11.7612
▁zelfde	-11.7613
▁micrografi	-11.762
▁fiets	-11.7621
poliepen	-11.7627
ijk	-11.7628
▁verschil	-11.7633
▁regeneratie	-11.7648
primair	-11.7649
▁rontgen	-11.7649
▁achterhaald	-11.7649
▁cocaine	-11.7649
▁diathese	-11.7649
▁hamartoom	-11.7649
▁interpreteren	-11.7649
▁obliterans	-11.7649
▁uitgelokt	-11.7649
▁optimal	-11.7649
▁rechteratrium	-11.7649
▁langzaam	-11.765
▁medebeoordeeld	-11.765
▁thoraxfoto	-11.765
▁behandelen	-11.7651
▁okselvet	-11.7651
ibrose	-11.7656
▁RCx	-11.766
ntsteking	-11.7661
schimmelkleuring	-11.7662
▁zon	-11.7662
duct	-11.7673
▁pancreasweefsel	-11.7689
lymfocyten	-11.769
aanwijzingen	-11.7691
jv	-11.7697
▁plek	-11.7699
have	-11.7706
raai	-11.7706
amil	-11.7708
atieve	-11.7709
ductie	-11.7713
▁verschijnsel	-11.7717
mateuze	-11.7719
▁point	-11.7724
▁kerato	-11.773
kenmerken	-11.7731
ons	-11.7733
snijvlakken	-11.7733
▁haemato	-11.7736
▁puspocket	-11.7742
ED	-11.7748
IRE	-11.7752
▁balkenblaas	-11.7758
ubcutis	-11.7759
▁delirant	-11.7762
▁hematemesis	-11.7762
depletie	-11.7762
▁monotypisch	-11.7762
▁bacteriologisch	-11.7762
▁dysmorfieen	-11.7762
▁kennelijk	-11.7762
▁halve	-11.7762
▁steatotisch	-11.7762
▁wigexcisie	-11.7762
▁mitotisch	-11.7763
▁intramurale	-11.7764
▁miss	-11.7764
lcus	-11.7765
ringen	-11.7771
▁darmmucosa	-11.7775
ondermeer	-11.7775
rof	-11.7776
▁overgaand	-11.7777
granuloomvorming	-11.7779
▁by	-11.7781
lex	-11.7783
▁essentie	-11.7784
▁Blijk	-11.7785
longgewicht	-11.7786
umb	-11.779
huis	-11.7792
lon	-11.7795
nu	-11.7804
strumenta	-11.7807
ach	-11.7809
behandeld	-11.7809
cardiaal	-11.7812
aaldbiopsie	-11.7813
failure	-11.7813
▁Linkerventrikel	-11.7824
▁epitheelcellen	-11.7825
▁Bl	-11.7835
rode	-11.7836
▁zijresectievlak	-11.7837
intra	-11.7846
bas	-11.7849
▁Localisatie	-11.7852
rin	-11.7856
son	-11.7856
▁parese	-11.7857
zone	-11.786
acemaker	-11.7871
llen	-11.7873
▁concentrisch	-11.7874
▁valvula	-11.7875
▁gebaseerd	-11.7875
▁hemorrhagie	-11.7875
▁braaksel	-11.7875
▁lineaire	-11.7875
▁angiolipoom	-11.7876
▁streptokokken	-11.7876
▁pGly	-11.7876
▁pericardzakje	-11.7876
▁massawerking	-11.7876
▁cytonucleair	-11.7877
▁serologisch	-11.7877
▁zijsnijvlakken	-11.788
agen	-11.7881
▁plus	-11.7882
sich	-11.7884
oed	-11.7886
▁reagerend	-11.7887
▁bloedrijk	-11.7888
▁cystewand	-11.7893
▁clonale	-11.7894
macroscopisch	-11.7899
echter	-11.7901
▁hechtingen	-11.7905
▁vermelden	-11.7906
▁schoon	-11.7913
embolietjes	-11.7917
▁beademings	-11.7918
▁hoek	-11.792
anatomisch	-11.7929
geassocieerd	-11.793
middenkwab	-11.793
▁oplopend	-11.7934
zover	-11.7936
▁vaster	-11.7943
middel	-11.7947
satypie	-11.795
▁traumatisch	-11.7954
naast	-11.7959
ype	-11.7963
▁ven	-11.7964
▁zwangerschaps	-11.7965
cerebellaire	-11.7969
2001	-11.7981
rijwel	-11.7985
darmkanaal	-11.7988
▁utero	-11.7989
▁Gedacht	-11.799
▁Gefragmenteerd	-11.799
▁formaline	-11.799
▁gebiopteerd	-11.799
▁zonbeschadigd	-11.799
mplise	-11.799
▁binnengebracht	-11.7991
▁zichzelf	-11.7992
femorale	-11.7993
▁Low	-11.7993
▁endometriosis	-11.7994
▁pap	-11.7994
spieren	-11.7994
▁zones	-11.7994
uamo	-11.7995
▁Infarct	-11.7996
oxi	-11.7997
ans	-11.8005
ilateraal	-11.8007
zing	-11.8012
▁aangeleverde	-11.8018
▁vloeistof	-11.8036
omatische	-11.8043
▁angiografie	-11.8043
▁longpathologie	-11.8046
▁CAG	-11.8047
Bethesda	-11.8051
focus	-11.8051
CABG	-11.8052
iliacale	-11.8052
card	-11.8063
urulente	-11.8066
▁gezond	-11.8067
kern	-11.8068
▁inclusie	-11.807
periventriculair	-11.8076
tukje	-11.8076
iets	-11.8078
▁Coli	-11.8079
lb	-11.8085
receptor	-11.8088
sstoornis	-11.8088
▁kuren	-11.8089
ood	-11.8094
▁follikel	-11.8102
elefonisch	-11.8102
grote	-11.8103
ransurethra	-11.8104
leuringen	-11.8105
▁centro	-11.8106
massa	-11.8106
▁methotrexaat	-11.8107
▁dikwandig	-11.8107
▁dorsum	-11.8107
▁incomplet	-11.8107
▁luidt	-11.8107
▁oedemen	-11.8107
▁respiratorius	-11.8107
▁separate	-11.8107
▁alpha	-11.8107
▁haematopoiese	-11.8107
▁ontbinding	-11.8107
▁loslating	-11.8107
▁mycotisch	-11.8107
▁mucocele	-11.8107
▁gesteeld	-11.8107
▁kaakrand	-11.8107
▁paravertebraal	-11.8107
▁verslechterend	-11.8112
▁risicofactoren	-11.8116
atio	-11.812
zins	-11.8121
▁waarde	-11.8125
erbloedingsshock	-11.8129
wur	-11.8131
embolisch	-11.8134
resistente	-11.8137
▁intake	-11.8137
zet	-11.8145
brengen	-11.8161
macrofagen	-11.8174
decompensatio	-11.8175
▁capsula	-11.8175
meta	-11.8177
maken	-11.8178
sh	-11.8183
neevlak	-11.8197
treffen	-11.8202
waarde	-11.8211
▁concentratie	-11.8214
lotseling	-11.822
▁atheromatose	-11.8224
▁eetlust	-11.8224
▁insectenbeet	-11.8224
▁locoregional	-11.8224
▁makkelijk	-11.8224
▁microsatellitos	-11.8224
▁ontkleurd	-11.8224
▁verondersteld	-11.8224
▁endotheel	-11.8224
▁tegenstelling	-11.8225
▁myelodysplasie	-11.8225
▁paratracheale	-11.8225
▁parahippocampal	-11.8226
▁ulcusbodem	-11.8226
pitz	-11.8228
onale	-11.8232
▁Echo	-11.8236
▁uitname	-11.824
-21	-11.8241
inder	-11.8242
▁gave	-11.8243
▁Darmen	-11.8245
ck	-11.8248
▁tumorembolieen	-11.8249
▁onderscheiden	-11.825
▁Helicobacters	-11.825
▁bovenstaand	-11.8257
tereotactische	-11.8259
▁parameters	-11.8266
▁liggend	-11.8272
spraak	-11.8273
tamponade	-11.828
▁catecholamine	-11.828
▁gewricht	-11.8289
har	-11.8296
holten	-11.8299
waarden	-11.8299
ERI	-11.8303
▁nagel	-11.8307
morf	-11.8308
fusie	-11.8309
uenties	-11.8311
ileus	-11.8312
duur	-11.8314
rivasculaire	-11.8314
▁zgn	-11.832
▁bestraald	-11.8326
kort	-11.8326
▁220	-11.8329
▁leta	-11.8338
▁zag	-11.834
ompleet	-11.8341
pocket	-11.8342
▁crusta	-11.8343
▁Diabetes	-11.8343
▁betrekkelijk	-11.8343
▁collageneuze	-11.8343
▁cyanose	-11.8343
▁discreet	-11.8343
▁geobstrueerd	-11.8343
▁gepresenteerd	-11.8343
▁ontdekt	-11.8343
▁neoadjuvant	-11.8343
▁hersensektie	-11.8343
▁Alhier	-11.8344
▁keel	-11.8344
▁daaropvolgend	-11.8344
▁beenvenen	-11.8345
▁gliale	-11.8347
▁LCx	-11.835
▁urotheelcellen	-11.8352
erineurale	-11.8353
▁Acht	-11.8354
lobulair	-11.8356
LICA	-11.8359
▁vera	-11.8362
▁porto	-11.8368
▁hartschade	-11.8377
▁groeide	-11.8384
▁Atelectase	-11.8386
▁trigonum	-11.8386
▁bekleding	-11.839
▁fenotype	-11.8393
▁brengen	-11.8397
rit	-11.8397
sgebied	-11.8403
ventriculair	-11.8403
eeft	-11.8409
positie	-11.8414
kun	-11.8419
tensieve	-11.8422
schoon	-11.8427
stens	-11.8431
▁liezen	-11.8432
beenmerg	-11.8432
▁left	-11.8439
-2002	-11.8442
▁ruimer	-11.8443
papillair	-11.8445
▁belast	-11.8445
infiltraat	-11.8446
▁stop	-11.846
eparaat	-11.8462
▁Augmentin	-11.8464
▁Borgstb	-11.8464
▁Cytologie	-11.8464
▁echtgenote	-11.8464
▁endometroid	-11.8464
▁fungoides	-11.8464
▁intracranial	-11.8464
▁lengtematen	-11.8464
▁luxerend	-11.8464
▁monoclonale	-11.8464
▁pneumokokken	-11.8464
▁polyneuropathie	-11.8464
▁pyelitis	-11.8464
▁rhabdomyolyse	-11.8464
▁tevoren	-11.8464
▁zeldzaam	-11.8464
▁eilandjes	-11.8464
▁mycosis	-11.8464
▁Huidreexcisie	-11.8464
▁bleven	-11.8464
▁verbloed	-11.8464
▁twaalf	-11.8465
tentoriele	-11.8466
▁kanaal	-11.8468
▁ruimtes	-11.8469
cerebrovasculair	-11.8475
evel	-11.8481
▁pa	-11.8485
lekkage	-11.8497
aneurysmavorming	-11.8497
▁positie	-11.85
▁infarctgebieden	-11.8502
▁longinfarcten	-11.8507
cardio	-11.8513
▁Diagnose	-11.8516
BD	-11.8517
▁pleksgewij	-11.8519
tam	-11.8522
ammapunctie	-11.8523
▁afm	-11.8524
▁medullair	-11.8533
▁Antrum	-11.8534
▁bijpassend	-11.8552
uli	-11.8552
2021	-11.8555
▁adrenaline	-11.8555
diffuse	-11.8555
merg	-11.8556
▁verslagen	-11.8559
lumina	-11.856
▁belemmering	-11.8565
▁reageren	-11.8573
icus	-11.8578
▁arteriitis	-11.8578
▁cre	-11.8581
iekenhuis	-11.8584
bacter	-11.8585
Dukes	-11.8586
▁complicerende	-11.8586
▁fataal	-11.8586
▁krijgt	-11.8586
▁leukocytose	-11.8586
▁sinusoiden	-11.8586
▁suggereert	-11.8586
▁vergevorderd	-11.8586
ommissie	-11.8586
▁galsteenlijden	-11.8586
rechterbovenbeen	-11.8586
▁eku	-11.8586
▁sternumfractuur	-11.8587
▁reusceltumor	-11.8587
▁hemibeeld	-11.8587
▁ziekelijk	-11.8588
▁rectumstomp	-11.8588
▁achterblijvend	-11.8589
▁bronchiale	-11.8589
▁bijbevindingen	-11.859
▁tumordoorgroei	-11.8591
▁gebiedje	-11.8593
▁voeren	-11.8595
umordiameter	-11.8597
▁niercyste	-11.8598
▁tibia	-11.8601
traventriculair	-11.8606
▁coll	-11.8609
▁blaastumor	-11.8612
▁membraan	-11.8617
ctomie	-11.8625
onderkwab	-11.8626
▁lyse	-11.863
afw	-11.863
▁*******).	-11.8631
istomorfologisch	-11.8634
abcesjes	-11.8637
▁inhechting	-11.8639
sparameters	-11.8643
idiopathisch	-11.8649
▁demyelinisatie	-11.8654
ih	-11.8655
▁Dat	-11.8656
itgenomen	-11.8662
oth	-11.8663
▁icterisch	-11.8666
▁dubbelzijdig	-11.8668
bronchopneumonie	-11.867
antal	-11.8673
hiel	-11.8673
fem	-11.8677
ull	-11.8679
expressie	-11.8681
placentaire	-11.8681
▁aneurysmatisch	-11.8681
▁neuron	-11.8684
remmers	-11.8687
ootmuskaataspect	-11.8689
▁vaatmalformatie	-11.8691
helder	-11.8692
▁bijwerking	-11.8692
bra	-11.8692
flr	-11.8692
▁uitslagen	-11.8695
▁wens	-11.8697
locatie	-11.8698
poliepje	-11.8698
▁consistent	-11.8698
aangedane	-11.8709
gehouden	-11.8709
oesofageale	-11.8709
▁Bodem	-11.8709
▁claudicatio	-11.8709
▁disarray	-11.8709
▁geschikt	-11.8709
▁gesuggereerd	-11.8709
▁myelopoese	-11.8709
▁onwelwording	-11.8709
▁precieze	-11.8709
▁vloeibaar	-11.8709
▁circum	-11.8709
▁distress	-11.8709
▁tongbasis	-11.8709
▁pneumonisch	-11.871
▁stoppen	-11.871
▁herhaaldelijk	-11.871
vdR	-11.8711
▁subserosale	-11.8712
▁euthanasie	-11.8713
▁aldus	-11.8714
▁ontwikkelende	-11.8716
▁veldjes	-11.8718
▁infarcthaardjes	-11.8725
▁reuma	-11.8727
▁cloacae	-11.873
2012)	-11.8736
eroperatief	-11.8737
▁gek	-11.8739
▁hartklep	-11.8743
lumen	-11.8747
ingsstoornissen	-11.8747
med	-11.8751
zig	-11.8751
▁houden	-11.8752
umortype	-11.8753
hang	-11.8754
▁zegelring	-11.8758
atus	-11.876
▁dehiscentie	-11.8767
▁naaldbiopsie	-11.8771
▁jong	-11.8784
cysten	-11.8786
▁ademhalings	-11.8789
▁relevant	-11.8795
voet	-11.8803
Angioinvasie	-11.8809
erminale	-11.8814
diverticulitis	-11.8816
▁verwikkeling	-11.8818
lots	-11.8819
lymf	-11.8821
fistel	-11.8825
direct	-11.8832
portale	-11.8834
▁gebleken	-11.8834
▁hobbelig	-11.8834
▁krijgen	-11.8834
▁panniculitis	-11.8834
▁trombocytopeni	-11.8834
▁weerhouden	-11.8834
▁Rectosigmoid	-11.8834
gehypertrofieerd	-11.8834
▁assay	-11.8834
▁molle	-11.8834
▁streptococ	-11.8834
▁prepylorisch	-11.8835
glottis	-11.8836
▁vermis	-11.8836
▁dikkedarm	-11.8837
infrarenale	-11.8837
▁fistelvorming	-11.8839
odra	-11.8842
▁nabijheid	-11.8843
▁stand	-11.8844
▁bloedstuwing	-11.8849
▁sepsismilt	-11.8861
dh	-11.8862
▁ductcarcinoom	-11.8877
onden	-11.8883
▁consolidaties	-11.8883
Li	-11.8886
▁splitsing	-11.8886
hoofd	-11.8888
▁zoek	-11.8896
▁groepen	-11.8897
ack	-11.8911
ocus	-11.8913
lithiasis	-11.8914
▁technisch	-11.8921
lymfklierexcisie	-11.8922
vloedbelemmering	-11.8927
ervel	-11.893
anteriorresectie	-11.8936
host	-11.8938
lysis	-11.8939
▁epitheloid	-11.8941
sklachten	-11.8944
iva	-11.8945
▁gedissemineerd	-11.8946
abusus	-11.8954
lent	-11.8957
vlakken	-11.8957
icrobiologie	-11.8959
kleur	-11.8959
▁omental	-11.8959
verhoging	-11.896
RADICAAL	-11.8961
▁bedreigd	-11.8961
▁contrast	-11.8961
▁diarrhee	-11.8961
▁geinjiceerd	-11.8961
▁psoriasiform	-11.8961
▁verstuurd	-11.8961
▁afgeplat	-11.8961
▁serologie	-11.8961
thoracaal	-11.8961
▁mesencefalon	-11.8961
jwng	-11.8962
▁perirenaal	-11.8962
▁voetrug	-11.8963
chrompelnieren	-11.8965
▁overgrijpend	-11.8966
sgerelateerde	-11.8979
▁leverkapsel	-11.898
sco	-11.8986
▁Laboratorium	-11.8993
▁cin	-11.8993
▁bovenop	-11.8994
▁tweetaks	-11.9001
▁onderling	-11.9002
▁malformaties	-11.901
▁afwachten	-11.9013
iculair	-11.9014
arteria	-11.9018
ral	-11.9023
▁du	-11.9028
▁medenem	-11.9056
▁clon	-11.9056
▁colli	-11.906
ticus	-11.9067
evenbevinding	-11.907
traepidermal	-11.9071
▁gl	-11.9073
▁lysis	-11.9079
esproken	-11.9081
▁clonaliteits	-11.9082
lichaamsgewicht	-11.9083
metaplasie	-11.9085
blasten	-11.9088
▁Gemetastaseerd	-11.9089
▁gemelli	-11.9089
▁infiltreert	-11.9089
▁kolonisatie	-11.9089
▁mislukt	-11.9089
▁recanalisatie	-11.9089
▁seminales	-11.9089
▁collagene	-11.9089
▁Icterus	-11.9089
▁respiratory	-11.9089
▁interstitium	-11.9089
▁rectus	-11.9089
▁correlaat	-11.9089
korrel	-11.9089
▁monoklonal	-11.9089
▁tracheitis	-11.909
▁schaal	-11.909
-2010	-11.909
Barr	-11.909
▁Aortaklep	-11.9091
▁bronchioli	-11.9091
ongeval	-11.9092
▁neurologie	-11.9093
▁colloides	-11.9093
toxisch	-11.9095
▁systemisch	-11.9097
▁rechterlies	-11.9099
▁patiA	-11.91
▁vetembolieen	-11.9101
stenen	-11.9103
▁lopend	-11.9108
▁draden	-11.9109
002	-11.9109
▁superficiA	-11.9114
shaardjes	-11.9115
kop	-11.9116
▁zijranden	-11.9119
gesloten	-11.9119
icum	-11.9131
otische	-11.9133
nale	-11.9135
postmortale	-11.9136
secundair	-11.9139
▁initieel	-11.9154
122	-11.9156
ocytose	-11.9161
▁gevoel	-11.9162
▁angiodysplasie	-11.9165
trium	-11.9172
▁Herzfehler	-11.9175
▁wanden	-11.9175
nephr	-11.9178
ated	-11.9178
CAR	-11.9178
mtrent	-11.9179
horax	-11.9181
▁behandel	-11.9183
▁thoraco	-11.9191
▁iatrogeen	-11.9193
opisch	-11.9193
degeneratie	-11.9194
▁levercel	-11.9194
inmiddels	-11.9195
▁ov	-11.92
▁subepithelia	-11.921
▁verbred	-11.9216
tolsel	-11.9216
oesofagusbiopten	-11.9216
▁elastine	-11.9219
▁fragiel	-11.9219
gehalte	-11.9219
▁Abdomen	-11.9219
▁Ablatio	-11.9219
▁Cerebellum	-11.9219
▁genherschikking	-11.9219
▁hypothermie	-11.9219
▁intrekkingen	-11.9219
▁nierbekken	-11.9219
▁solitus	-11.9219
▁speelt	-11.9219
▁submandibularis	-11.9219
streek	-11.9219
▁bedroeg	-11.9219
▁leptomeningen	-11.9219
▁elektronen	-11.922
▁hartezakje	-11.922
▁vaatbed	-11.922
▁gebloed	-11.9221
▁blow	-11.9221
▁regeneratieve	-11.9221
virale	-11.9222
▁Ischaemische	-11.9222
longoedeem	-11.9223
uitine	-11.9223
2010	-11.9223
lateraalsclerose	-11.923
▁doorgegeven	-11.9231
▁longembolisatie	-11.9231
defini	-11.9233
sclerosis	-11.9243
kans	-11.9249
oei	-11.925
wissel	-11.925
pjes	-11.9251
▁bijgevoegd	-11.9254
▁onstaan	-11.9255
▁wegen	-11.9259
020	-11.9263
▁exsudaat	-11.9265
▁ulcer	-11.9273
typering	-11.928
toon	-11.928
▁shockbeeld	-11.9288
tia	-11.9292
▁adnexa	-11.9292
▁nierweefsel	-11.9293
▁Hypo	-11.9297
acr	-11.9298
▁stenoses	-11.9302
deficientie	-11.9309
essentiele	-11.9324
oro	-11.9326
▁luchtweg	-11.9327
olum	-11.9327
▁incident	-11.9329
yo	-11.9331
staande	-11.9337
ulmonaal	-11.9337
peritoneum	-11.934
kanaal	-11.9348
costa	-11.9348
pmerkelijk	-11.9348
anoxische	-11.9349
fun	-11.935
▁minuscu	-11.935
plug	-11.935
▁humerus	-11.935
ificatie	-11.935
▁Balkenblaas	-11.935
▁Hypertrophi	-11.935
▁gelukt	-11.935
▁identiek	-11.935
▁immaturus	-11.935
▁intramucosaal	-11.935
▁pneumatosis	-11.935
▁remissie	-11.935
▁toegepast	-11.935
▁hemofagocytair	-11.935
▁coloscopie	-11.935
▁leversteatose	-11.9351
plasmacellulair	-11.9351
▁promotor	-11.9351
▁hypocellulair	-11.9351
▁keratocyste	-11.9352
▁intraanaal	-11.9356
▁poli	-11.9365
entr	-11.9377
▁mild	-11.938
▁atresie	-11.9383
▁afvloed	-11.9385
mul	-11.9393
▁ileumbiopten	-11.9395
microsatellieten	-11.9396
ilair	-11.94
▁insertie	-11.9404
olgt	-11.9405
▁gebrek	-11.9408
▁colonpoliep	-11.9411
isselend	-11.9417
▁hormoonreceptor	-11.9419
purulent	-11.942
xcochleaat	-11.9424
▁waterscheidings	-11.9425
Arg	-11.9431
▁EI	-11.9438
▁cystadeno	-11.9439
basis	-11.9441
lab	-11.9446
▁Hotspot	-11.945
hrombo	-11.945
▁huidexcisies	-11.9453
▁okselklier	-11.9456
rat	-11.9457
▁stroomgebieden	-11.9458
▁Ar	-11.9462
geschoten	-11.9467
Asp	-11.9471
bioklep	-11.9476
sterk	-11.9478
▁pleiten	-11.948
▁details	-11.9484
▁schwannoom	-11.9484
personeel	-11.9484
reitz	-11.9484
▁Atrofisch	-11.9484
▁alopecia	-11.9484
▁aspergilloom	-11.9484
▁conjunctiva	-11.9484
▁foveolair	-11.9484
▁gethromboseerd	-11.9484
▁glazig	-11.9484
▁glucose	-11.9484
▁hyperthyreoidie	-11.9484
▁mastocytose	-11.9484
▁ontregeld	-11.9484
▁onverklaard	-11.9484
▁seminoom	-11.9484
▁suicide	-11.9484
▁verdwenen	-11.9484
▁gehoorgang	-11.9484
▁dosering	-11.9484
bloedingsneiging	-11.9484
▁spelen	-11.9484
Eerste	-11.9484
▁binnenkomst	-11.9485
clip	-11.9486
▁screenen	-11.9487
▁hepatogeen	-11.949
ventrikelfalen	-11.9494
doorsnede	-11.9495
eckels	-11.9496
Rblaas	-11.9502
▁tumorlengte	-11.9504
waarbij	-11.9504
▁dosis	-11.9505
plastisch	-11.9506
slo	-11.9506
▁doorheen	-11.9508
▁therapiekeuze	-11.9509
kernen	-11.9521
▁Endocervica	-11.9526
▁lopen	-11.953
gedrag	-11.9532
▁hartgewicht	-11.9533
▁tracheo	-11.9536
▁IH	-11.954
wi	-11.9543
▁waarden	-11.9552
bron	-11.9553
▁risk	-11.957
arts	-11.9573
rol	-11.9575
▁Grocott	-11.9577
▁coiling	-11.9579
▁vlakke	-11.9583
ls	-11.96
functiestoornis	-11.9605
Glu	-11.9607
kselklier	-11.9609
wortel	-11.9609
▁homo	-11.961
-2012	-11.9614
ehandeling	-11.9614
ulatie	-11.9617
ediastinale	-11.9617
▁vervet	-11.9618
erwijdering	-11.9618
▁Roux	-11.9619
▁contagiosum	-11.9619
▁twijfel	-11.9619
▁afgekapseld	-11.9619
▁bekeken	-11.9619
▁cholestatisch	-11.9619
▁compound	-11.9619
▁doorgegroeid	-11.9619
▁omstandigheden	-11.9619
▁pallidum	-11.9619
bezoek	-11.9619
▁flowcytometrie	-11.9619
▁glomerulopathie	-11.9619
▁Hemorragisch	-11.9619
▁beland	-11.9619
▁hersenbasis	-11.9619
▁familieanamnese	-11.962
▁neurogene	-11.9621
▁pneumocystis	-11.9621
stollingsneiging	-11.9622
zol	-11.9622
amnioti	-11.9623
▁syn	-11.9623
▁amorf	-11.9624
▁steentjes	-11.9626
vloed	-11.9627
▁rectumamputatie	-11.963
reter	-11.9631
GRADE	-11.9631
bus	-11.9632
▁1,0	-11.9633
▁ubi	-11.9635
ulcus	-11.9637
▁pneumoniebeeld	-11.9638
verstoring	-11.9643
respectievelijk	-11.9644
ablatie	-11.9646
index	-11.9647
doende	-11.9648
bodem	-11.9648
itaal	-11.9653
lijst	-11.9659
EDE	-11.9666
▁dienen	-11.9666
▁synovium	-11.9676
sluiten	-11.9681
▁mag	-11.9683
icr	-11.9684
super	-11.9688
mn	-11.9691
keren	-11.9692
▁intestinalis	-11.9704
▁nos	-11.9704
Lymfklierexcisie	-11.9717
▁abortus	-11.9727
vooral	-11.9729
patient	-11.9729
destructie	-11.9729
zetten	-11.9731
ritis	-11.9741
tenzij	-11.9744
aagantrumbiopten	-11.9746
overgang	-11.9746
leurabiopten	-11.975
ius	-11.9752
leuritis	-11.9752
verwogen	-11.9754
▁acuminatum	-11.9756
▁aggregaten	-11.9756
▁architecture	-11.9756
▁gebraakt	-11.9756
▁gecomprimeerd	-11.9756
▁genoeg	-11.9756
▁moeizaam	-11.9756
▁verdient	-11.9756
▁uitgaat	-11.9756
▁anatomie	-11.9756
▁right	-11.9756
▁frontotemporaal	-11.9756
▁plaatepitheel	-11.9756
▁bedekt	-11.9756
▁nefrolithiasis	-11.9757
▁minuscuul	-11.9757
▁schuimig	-11.9757
▁cystisch	-11.9757
▁vnl	-11.9757
▁arterietakjes	-11.9758
▁cystectomie	-11.9758
▁agv	-11.976
▁minor	-11.9761
oesophagus	-11.9764
▁renaal	-11.9767
▁drugs	-11.9769
intoxicatie	-11.9769
proef	-11.9775
▁villi	-11.9782
nieuw	-11.9784
ruis	-11.9785
▁versie	-11.9786
▁Dd	-11.9786
encefalitis	-11.9788
▁crypten	-11.9788
stations	-11.9791
stijging	-11.9792
sectie	-11.9792
▁shocklever	-11.9793
wegen	-11.9796
▁ana	-11.9798
▁hersenmetastase	-11.9803
entero	-11.9814
▁Receptoren	-11.9817
▁darmnecrose	-11.9822
▁gastrisch	-11.9828
uaduct	-11.983
102	-11.984
breken	-11.9841
▁tube	-11.9844
▁inleiding	-11.9844
spect	-11.9845
▁alveolitis	-11.9846
truma	-11.9847
2022	-11.9848
childklierpunct	-11.985
▁bulla	-11.9851
▁blaasbiopten	-11.9852
corticosteroiden	-11.9856
volg	-11.9857
osclerose	-11.9869
myocard	-11.987
▁Langerhans	-11.987
gele	-11.987
▁extrauterien	-11.987
craniaal	-11.9871
groeiend	-11.9873
pakketten	-11.9875
elk	-11.989
pontaan	-11.9892
implant	-11.9893
onklusie	-11.9894
ystem	-11.9895
dedifferentieerd	-11.9895
dieringsvoorstel	-11.9895
▁diuretica	-11.9895
▁erythematosus	-11.9895
▁lavage	-11.9895
▁microglia	-11.9895
▁neuritische	-11.9895
▁suboptimale	-11.9895
▁trimester	-11.9895
▁vervaardigd	-11.9895
parenchymateus	-11.9895
▁soepel	-11.9895
▁mollusc	-11.9895
▁capitis	-11.9895
▁clostridium	-11.9895
▁Infiltratie	-11.9895
▁huidadnextumor	-11.9895
▁afgewerkt	-11.9895
▁drievatslijden	-11.9896
▁Ileumbiopten	-11.9896
vervanging	-11.9896
▁neuropathie	-11.9897
▁intrathoracale	-11.9897
▁puntvormig	-11.9898
▁darmkanker	-11.9898
▁intrathoracaal	-11.9899
▁amyloidosis	-11.9899
▁vervallen	-11.9899
▁myocardvezels	-11.9899
▁linkeronderarm	-11.9902
lt	-11.991
▁spoelcel	-11.9914
tachycardie	-11.9926
gemaakt	-11.9928
ich	-11.9928
bst	-11.9933
blokje	-11.9935
inclusief	-11.9936
geheel	-11.9936
ouderdom	-11.9937
▁tensies	-11.9949
▁clear	-11.9949
pleura	-11.9955
otter	-11.9956
velden	-11.9966
Ingroei	-11.9967
▁210	-11.9976
tumorale	-11.9982
▁ongeval	-11.9985
▁Ch	-11.9985
level	-12
▁fibrinoid	-12.0007
▁slank	-12.0008
gering	-12.001
▁word	-12.0012
groen	-12.0013
kleppen	-12.0014
ymmetrisch	-12.0033
veld	-12.0033
tenoserende	-12.0034
▁second	-12.0035
▁cylindrisch	-12.0036
▁dusdanig	-12.0036
▁gastrale	-12.0036
▁genereren	-12.0036
▁mechanisme	-12.0036
▁seminalis	-12.0036
▁sulci	-12.0036
▁voorkomt	-12.0036
▁rechtzijdig	-12.0036
▁oorlel	-12.0036
▁werkgroep	-12.0036
▁middermaal	-12.0036
▁subcorticale	-12.0036
▁inguinalis	-12.0036
▁vochtcollectie	-12.0036
▁vaginatop	-12.0037
ick	-12.0039
arthin	-12.0039
▁tubair	-12.004
▁linkerbovenarm	-12.0043
▁zwakte	-12.0043
eratosis	-12.0043
▁klin	-12.0044
▁vezel	-12.0047
pulmonaal	-12.0052
▁wv	-12.0053
▁graden	-12.0053
lymfklieren	-12.0057
▁etc	-12.0061
▁gedekte	-12.0063
aposi	-12.0064
ustom	-12.0066
▁neoplastisch	-12.0071
hersen	-12.0074
lceratie	-12.0077
point	-12.0083
▁retentie	-12.0083
laaggradig	-12.0085
maximaal	-12.0085
Resectie	-12.0093
▁avital	-12.0097
▁leukocytoclas	-12.0107
2012	-12.0113
aso	-12.0114
Door	-12.0119
02-1	-12.0132
childwachtklier	-12.0134
itus	-12.0134
▁pleuraal	-12.0137
cytologie	-12.0137
focaal	-12.0142
uctie	-12.0142
▁tumoraal	-12.015
▁nadien	-12.0153
▁bv	-12.0154
karakteristieken	-12.0154
▁neutrofiel	-12.0156
▁huidstansbiopt	-12.0159
pericard	-12.0161
run	-12.0166
rim	-12.0166
▁anaerobe	-12.0173
rednison	-12.0174
lytische	-12.0176
pmerking	-12.0176
ultinodulair	-12.0177
▁Geschat	-12.0179
▁Hyperplastisch	-12.0179
▁anthracose	-12.0179
▁aortitis	-12.0179
▁bejaarde	-12.0179
▁desmoplastisch	-12.0179
▁erytropoese	-12.0179
▁geslaagd	-12.0179
▁longvaatbed	-12.0179
▁omphalocele	-12.0179
▁siderofagen	-12.0179
▁triploidie	-12.0179
▁ventilatie	-12.0179
▁verergering	-12.0179
▁verknepen	-12.0179
▁verkrijgen	-12.0179
▁epiduraal	-12.0179
▁spermatozoa	-12.0179
▁hemolyse	-12.0179
▁dundarm	-12.0179
▁perihilair	-12.0179
▁sanguinolent	-12.0179
▁casu	-12.018
▁taai	-12.018
nasolabiaalplooi	-12.0181
▁DIRE	-12.0183
kinase	-12.0184
▁nierstenen	-12.0185
▁histiocyten	-12.0185
▁antero	-12.0193
▁ductaaltype	-12.0195
▁mammaparenchym	-12.0195
hock	-12.0196
oly	-12.0197
▁draad	-12.0201
ndien	-12.0204
trekken	-12.0207
room	-12.0207
off	-12.0208
ineuze	-12.0219
rectum	-12.0236
opname	-12.0237
▁polyp	-12.0245
Longen	-12.0252
centraal	-12.0254
exon	-12.0255
win	-12.0261
wanddikte	-12.0264
hier	-12.0267
kk	-12.0269
▁mening	-12.0283
cz	-12.0284
grade	-12.0289
takjes	-12.0291
enzym	-12.0294
▁bradycard	-12.0314
▁Amyloid	-12.0317
mc	-12.0321
▁muco	-12.0322
rectumslijmvlies	-12.0323
eyenburg	-12.0323
▁Laesie	-12.0323
▁bloedbraken	-12.0323
▁cinguli	-12.0323
▁elastosis	-12.0323
▁gesampled	-12.0323
▁impetiginisatie	-12.0323
▁ingrijpen	-12.0323
▁intramusculair	-12.0323
▁proficient	-12.0323
▁retardatie	-12.0323
▁tangentieel	-12.0323
accredit	-12.0323
▁leukocyten	-12.0323
▁verleend	-12.0323
introm	-12.0323
darmtractus	-12.0323
▁Enterobacter	-12.0323
▁flora	-12.0323
▁hypereosinofili	-12.0324
▁Reactief	-12.0324
▁groet	-12.0324
▁markerpatroon	-12.0324
aruke	-12.0324
▁artery	-12.0324
▁gebeld	-12.0324
▁slikstoornissen	-12.0325
▁thrombolyse	-12.0325
▁Gold	-12.0326
▁hangen	-12.033
▁hypovolaemische	-12.033
▁halscyste	-12.0332
▁pijnlijk	-12.0332
▁rechterkamer	-12.0334
▁scleroserend	-12.034
beide	-12.034
load	-12.0341
uitgang	-12.0344
▁bloedingsbron	-12.0344
▁ervan	-12.0347
▁uitgroei	-12.0353
▁pericardial	-12.0362
buikpijnklachten	-12.0374
▁transplantaat	-12.0377
▁operatiewond	-12.0383
foto	-12.039
stapeling	-12.0391
conclusie	-12.0391
Gezien	-12.0392
pomp	-12.0392
frontaal	-12.0392
adhesies	-12.0394
chedel	-12.0397
lymfoompanel	-12.0406
▁mit	-12.0417
stapelingsziekte	-12.0418
claviculair	-12.042
▁locaties	-12.0421
▁vergroting	-12.0432
spoliepen	-12.0452
▁erop	-12.0455
▁mitose	-12.0462
gaan	-12.0466
▁kleinst	-12.0467
cranio	-12.0467
plasie	-12.0468
lcererend	-12.0469
trofie	-12.047
▁Belangrijks	-12.047
▁astrocyten	-12.047
▁circumvallata	-12.047
▁gebleven	-12.047
▁gecalcificeerd	-12.047
▁grillig	-12.047
▁kritisch	-12.047
▁myocytolyse	-12.047
▁sacrum	-12.047
▁zeldzame	-12.047
▁show	-12.0471
▁serum	-12.0471
▁toepassing	-12.0471
▁Genetisch	-12.0471
hiellengte	-12.0471
▁oligo	-12.0471
▁lichtstijve	-12.0471
▁onverdacht	-12.0471
▁trabeculair	-12.0471
▁Ischemisch	-12.0471
▁outflow	-12.0472
▁heldergeel	-12.0472
▁enterobacter	-12.0472
▁sneeranden	-12.0473
▁hyperaemie	-12.0473
▁cysteinhoud	-12.0474
▁Actieve	-12.0475
-22	-12.0476
nest	-12.0485
vasculair	-12.0489
▁spinal	-12.049
tricuspidaalklep	-12.0498
▁Bentall	-12.0498
raal	-12.0502
▁0,2	-12.0505
▁polycysteu	-12.0507
▁occlusiev	-12.0517
▁levercyste	-12.052
hoest	-12.0528
oeder	-12.0529
▁leverlijden	-12.0534
▁duidelijkheid	-12.0536
rectale	-12.0536
iliacaal	-12.054
mammair	-12.0542
hypertensie	-12.0547
achtergrond	-12.0547
cerebrum	-12.0547
rotisch	-12.0548
▁overgevoelig	-12.0548
divertikel	-12.0555
▁Harthypertrofie	-12.0555
▁REC	-12.0559
familiair	-12.056
▁korter	-12.0564
cut	-12.0566
▁wil	-12.0571
heidsreactie	-12.0573
olaire	-12.0576
geinduceerd	-12.0577
wervelmetastasen	-12.0577
bet	-12.058
▁suf	-12.0583
olypectomie	-12.0584
lymfklierpunctie	-12.0585
▁biopsies	-12.0594
meest	-12.0595
▁solitair	-12.0596
Leu	-12.0601
maar	-12.0605
▁Cancer	-12.0607
▁hartoperatie	-12.0611
▁micrometastase	-12.0612
▁productie	-12.0615
teatosis	-12.0616
yositis	-12.0618
anomalie	-12.0619
thyroid	-12.0619
aldenstrom	-12.062
▁Concentrisch	-12.062
▁bifida	-12.062
▁chorda	-12.062
▁circulatorius	-12.062
▁direkt	-12.062
▁geevalueerd	-12.062
▁geneeskunde	-12.062
▁ingeklemd	-12.062
▁inguinaal	-12.062
▁myoclonieen	-12.062
▁scoliose	-12.062
▁sectum	-12.062
▁vacuolisatie	-12.062
▁verbakken	-12.062
▁versmald	-12.062
▁verwijzen	-12.062
▁subita	-12.062
▁afasie	-12.062
▁voren	-12.062
▁maxillaris	-12.062
▁wrsch	-12.062
▁hieromheen	-12.062
▁verstreken	-12.062
▁stromaceltumor	-12.062
▁wervellichamen	-12.062
▁saturatiedaling	-12.062
▁lichaamsmaten	-12.062
▁mentale	-12.0621
▁cholesterolosis	-12.0621
ekedelen	-12.0621
▁overgebracht	-12.0622
▁regionaal	-12.0622
▁genese	-12.0622
▁preterminaal	-12.0623
from	-12.0623
▁littekenbreuk	-12.0623
▁blaar	-12.0624
synucleinopathie	-12.0624
▁overexpressie	-12.0624
samenstelling	-12.0624
stroomgebied	-12.0626
▁cachectisch	-12.0629
additionele	-12.063
catheterisatie	-12.063
▁kwamen	-12.0631
▁erosief	-12.0632
Cys	-12.0641
basaal	-12.0643
AAL	-12.0651
▁types	-12.0651
01-1	-12.0661
11-1	-12.0666
▁naald	-12.0676
▁nierziekte	-12.0678
▁area	-12.0679
lopen	-12.0685
▁paars	-12.0687
borst	-12.069
▁glia	-12.0691
▁aanliggend	-12.0691
▁prog	-12.0692
aak	-12.0692
naar	-12.0695
darmstelsel	-12.0695
ovarie	-12.0698
compressie	-12.0703
factor	-12.0707
▁linkerkamer	-12.0714
adien	-12.072
goed	-12.0726
aagbiopt	-12.0728
bifemorale	-12.0738
spoeling	-12.0747
▁lokatie	-12.075
onen	-12.0751
▁slechter	-12.0754
▁concrement	-12.0755
athogene	-12.0756
▁chirurg	-12.0757
hechten	-12.0758
steek	-12.076
▁ontlast	-12.0767
koepel	-12.0769
reading	-12.0771
▁Lichaam	-12.0771
▁Congo	-12.0771
bronchiaalboom	-12.0771
producerend	-12.0771
▁astrogliose	-12.0771
▁cauterisatie	-12.0771
▁detecteert	-12.0771
▁etiologisch	-12.0771
▁expliciet	-12.0771
▁hypocampus	-12.0771
▁imponeert	-12.0771
▁leucocytose	-12.0771
▁meerlagig	-12.0771
▁mucositis	-12.0771
▁oncocytoom	-12.0771
▁perimusculair	-12.0771
▁symptomatisch	-12.0771
▁toelichting	-12.0771
▁uitgeblust	-12.0771
▁urticarie	-12.0771
▁opgave	-12.0771
▁breidde	-12.0771
▁puntbloedinkjes	-12.0771
▁mesocolon	-12.0771
▁uremie	-12.0771
▁borstkas	-12.0772
▁pompfalen	-12.0772
▁panischemie	-12.0772
▁afgelopen	-12.0772
▁polypeuze	-12.0772
▁lymfoAd	-12.0773
▁geruim	-12.0773
▁virusinfectie	-12.0773
▁myositis	-12.0773
▁leuco	-12.0774
retrograde	-12.0774
dus	-12.0775
arti	-12.0777
▁maagdarmkanaal	-12.0779
▁conse	-12.0779
▁daaraan	-12.078
▁elementen	-12.0783
ator	-12.0794
epelvocht	-12.0803
▁kristallen	-12.0804
tumoruitbreiding	-12.0805
▁onderzijde	-12.0812
▁recht	-12.0814
poliepexcisie	-12.0815
▁gehecht	-12.0823
raat	-12.0829
ruin	-12.0829
▁adenos	-12.083
▁starten	-12.084
▁schil	-12.0841
pancreatisch	-12.0841
▁adjuvant	-12.0842
lw	-12.0842
agere	-12.0844
▁Bacteri	-12.0847
▁artefacten	-12.0855
▁Am	-12.0855
fragmentjes	-12.0866
Definitief	-12.0867
▁excisies	-12.0877
▁Anus	-12.0885
▁index	-12.0896
put	-12.0901
▁Angio	-12.0902
▁inzending	-12.0909
klieren	-12.091
langs	-12.0911
elan	-12.0917
▁rheuma	-12.0922
▁Douglas	-12.0923
▁trichilemm	-12.0925
iatrogene	-12.0925
▁aanbevolen	-12.0925
▁behandeladvies	-12.0925
▁hersenvliezen	-12.0925
▁hippocampi	-12.0925
▁hyalinose	-12.0925
▁hyponatriemie	-12.0925
▁overvuld	-12.0925
▁periferie	-12.0925
▁uitzondering	-12.0925
▁myeline	-12.0925
▁reserve	-12.0925
▁uitblijven	-12.0925
adult	-12.0925
▁apical	-12.0925
▁daaromheen	-12.0925
▁beantwoord	-12.0925
▁onsuccesvol	-12.0925
▁heupkop	-12.0926
▁vriesmateriaal	-12.0926
▁jl	-12.0926
oldoende	-12.0927
▁zijdelings	-12.0927
▁nonHodgkin	-12.0929
▁gesproken	-12.0933
▁flardjes	-12.0933
▁ductectasieen	-12.0937
▁Hieruit	-12.0938
▁necrosehaarden	-12.0943
▁nierloge	-12.0944
▁sternotomie	-12.0946
bacterieel	-12.0954
▁BII	-12.0959
otheel	-12.0961
▁Eind	-12.0966
laten	-12.0968
varia	-12.0969
strekt	-12.097
12-0	-12.0981
▁invaginatie	-12.099
▁atheroomcyste	-12.099
oo	-12.0997
open	-12.0999
hormoon	-12.1001
▁1,1	-12.1001
▁artefact	-12.1004
aput	-12.1007
rimair	-12.1007
lymfklierweefsel	-12.1009
basaalcel	-12.1009
▁decidual	-12.101
▁grijswit	-12.1014
▁nogal	-12.1014
liter	-12.1015
ini	-12.1019
occlusi	-12.1028
Long	-12.1028
▁Delen	-12.1028
thrombi	-12.1031
▁behoefte	-12.1032
bls	-12.1038
langer	-12.1041
ostomie	-12.1044
▁comm	-12.1045
naden	-12.1048
laasspoeling	-12.1056
luchthoudendheid	-12.1058
▁asbest	-12.1063
▁Ao	-12.1064
tekenen	-12.1065
▁diabet	-12.1076
▁DLBCL	-12.1076
erifere	-12.1077
nverwacht	-12.1079
Leeftijdsconform	-12.1081
rkelcelcarcinoom	-12.1081
wavy	-12.1081
▁cilindrisch	-12.1081
▁continuitatem	-12.1081
▁exofytisch	-12.1081
▁gangreneuze	-12.1081
▁gepositioneerd	-12.1081
▁graciel	-12.1081
▁intramyocardial	-12.1081
▁mestcellen	-12.1081
▁oncocytair	-12.1081
▁secreet	-12.1081
▁grieperig	-12.1081
▁impressie	-12.1081
▁steriel	-12.1081
▁cytokeratine	-12.1081
ouble	-12.1081
▁mucostase	-12.1082
onsillectomie	-12.1082
▁sclera	-12.1082
▁melanocyten	-12.1082
placenta	-12.1082
▁wondbed	-12.1082
▁premature	-12.1082
▁amyotrofisch	-12.1083
▁special	-12.1083
▁zaad	-12.1084
▁tumornodi	-12.1087
▁manifest	-12.1087
▁bijnieradenoom	-12.1089
▁leed	-12.1091
▁abus	-12.1092
▁aanhechting	-12.1093
▁boog	-12.1094
▁satellieten	-12.1094
▁linkerbijnier	-12.1096
▁probe	-12.1097
ransuretra	-12.1102
▁vaginale	-12.1103
▁wenst	-12.1107
ocytaire	-12.1107
aakt	-12.1116
▁lymfkliertjes	-12.1121
▁cilindercel	-12.1121
itralisklep	-12.1124
▁cir	-12.1125
cept	-12.1125
bb	-12.1127
▁haarfollikels	-12.1134
staan	-12.1143
ity	-12.1145
▁halsklier	-12.1146
▁herseninfarcten	-12.1147
▁are	-12.1149
▁debulking	-12.115
▁ao	-12.1154
▁synovia	-12.1159
oraal	-12.1165
▁cytoplasmatisch	-12.1179
stof	-12.1179
2011	-12.1184
nderliggend	-12.1187
bekend	-12.12
▁organiserend	-12.1201
▁breedte	-12.1204
gedeelte	-12.1209
iteraard	-12.1209
nair	-12.1214
arachnoidale	-12.1215
urg	-12.1218
▁elektrolyt	-12.1224
tus	-12.1224
▁code	-12.1227
▁meerder	-12.1231
rchidectomie	-12.1238
▁voetzool	-12.124
anhydramnion	-12.124
▁Goedaardig	-12.124
▁bedlegerig	-12.124
▁exploratie	-12.124
▁hygroma	-12.124
▁leidt	-12.124
▁ovariectomie	-12.124
▁paracetamol	-12.124
▁stafylococc	-12.124
▁craniotomie	-12.124
▁mesangia	-12.124
▁noradrenaline	-12.124
▁gekeken	-12.124
▁clearcell	-12.124
▁inzender	-12.124
▁heropname	-12.124
▁gingiva	-12.1241
membraneus	-12.1241
▁cystoprostat	-12.1241
▁Raad	-12.1242
▁parkinsonisme	-12.1242
▁hoogstand	-12.1244
welling	-12.1245
▁temporaalkwab	-12.1245
▁aplastisch	-12.1246
erklevingen	-12.1246
cf	-12.1247
arteriele	-12.1247
▁naschrift	-12.1247
2201	-12.1248
▁bez	-12.1248
▁roodheid	-12.1248
arige	-12.1251
fractie	-12.1251
▁overmatig	-12.1251
trombusmateriaal	-12.1252
▁cake	-12.1253
rapst	-12.1253
ubcutane	-12.1259
fibro	-12.1261
lagen	-12.1263
▁longbiopt	-12.1263
wisseling	-12.1264
duc	-12.1269
wustzijnsverlies	-12.1279
inale	-12.1279
uni	-12.128
terventriculaire	-12.1284
groeiachterstand	-12.1288
umorgrootte	-12.1298
veel	-12.1299
etweefsel	-12.1301
aad	-12.1305
▁maagcorpusbiopt	-12.1307
▁recenter	-12.1312
myloiddeposities	-12.1317
carci	-12.1319
▁cast	-12.1332
▁toxiciteit	-12.1341
compensatoir	-12.1341
▁lesion	-12.1343
▁segmenten	-12.1358
▁group	-12.136
perfusie	-12.1365
▁verkleuringen	-12.1365
cobas	-12.1366
Linker	-12.1366
fracturen	-12.1368
clerose	-12.1368
gestuurd	-12.1373
defecten	-12.1373
angiogram	-12.1376
draad	-12.1377
verkalking	-12.1379
2011)	-12.138
assieve	-12.1382
▁zijventrikel	-12.1389
▁Duodenumbiopt	-12.1389
▁oppervlakte	-12.1391
prim	-12.1391
neeranden	-12.1398
tube	-12.14
▁gezet	-12.1401
▁bijmilt	-12.1401
▁uitputting	-12.1401
▁opheff	-12.1401
cephalie	-12.1401
▁Hippocampus	-12.1401
▁bewusteloos	-12.1401
▁bovenbenen	-12.1401
▁dunwandig	-12.1401
▁geindureerd	-12.1401
▁groeivertraging	-12.1401
▁involutie	-12.1401
▁lingula	-12.1401
▁marginaal	-12.1401
▁plantaardig	-12.1401
▁siliconen	-12.1401
▁vliezig	-12.1401
▁Arterie	-12.1401
fokaal	-12.1401
▁opinion	-12.1401
▁src	-12.1401
▁bacteriaemie	-12.1401
▁chemokuur	-12.1401
▁lamel	-12.1402
▁humerusfractuur	-12.1402
▁vermoeidheid	-12.1402
▁partijen	-12.1402
CBDCBD	-12.1402
▁onvolledig	-12.1402
gescheurd	-12.1402
▁psoasloge	-12.1402
▁haematogen	-12.1403
▁protocollair	-12.1404
▁spoedig	-12.1405
▁endovasculair	-12.1405
▁slik	-12.1406
pleuravocht	-12.1407
▁chronica	-12.1408
ubcutaan	-12.1409
▁opgevuld	-12.141
aspect	-12.1415
▁overliggend	-12.1417
▁overlap	-12.1417
▁langerbestaande	-12.1418
log	-12.1418
mh	-12.1421
▁polymorf	-12.1421
▁leverabces	-12.1421
hypo	-12.1422
isc	-12.143
▁Longembolieen	-12.1435
▁onderverdeling	-12.1435
his	-12.1441
▁ontwikkelings	-12.1449
▁lesies	-12.1455
▁Emfyseem	-12.146
arth	-12.1472
▁Haem	-12.1481
ract	-12.1492
▁Broncho	-12.1498
▁plekje	-12.1504
kwabben	-12.1505
ncologie	-12.1507
inus	-12.1516
draden	-12.1519
fysiologisch	-12.1522
thoracotomie	-12.1537
radiologisch	-12.1539
bijvoorbeeld	-12.1539
▁Cre	-12.154
worden	-12.1541
▁urineweg	-12.1543
cortex	-12.1546
ibr	-12.1547
▁duodenums	-12.1548
tenose	-12.155
▁verwezen	-12.1551
▁hepat	-12.1557
arotis	-12.1559
megalie	-12.1561
▁amnion	-12.1564
amengestelde	-12.1564
▁dermatoloog	-12.1565
skintag	-12.1565
▁Assay	-12.1565
▁Ruptuur	-12.1565
▁gezegd	-12.1565
▁lacunes	-12.1565
▁plasmocytoom	-12.1565
▁veralgemeend	-12.1565
vermindering	-12.1565
▁perineum	-12.1565
▁vertakkend	-12.1565
▁Celarm	-12.1565
▁Dergelijk	-12.1565
▁hechtdraad	-12.1565
▁insturen	-12.1565
sproduct	-12.1565
▁ilium	-12.1566
▁ileocoecaalhoek	-12.1566
dying	-12.1566
▁gallekkage	-12.1566
▁suprapubisch	-12.1566
▁mondhoek	-12.1566
▁uitermate	-12.1566
▁perifolliculair	-12.1566
▁onrustig	-12.1566
▁motorische	-12.1566
▁ectocervix	-12.1567
▁vettig	-12.1567
▁trombusmassa	-12.1567
▁preputium	-12.1568
▁ectocervicaal	-12.1568
▁portio	-12.1568
belasting	-12.1571
▁darmtype	-12.1571
▁microvesiculair	-12.1572
▁epididymis	-12.1574
▁wk	-12.1574
▁aankleurend	-12.1574
▁maagsonde	-12.1576
▁matur	-12.1578
oxin	-12.1578
▁wandruptuur	-12.1579
▁cystenieren	-12.1587
wat	-12.1589
toir	-12.1591
▁lege	-12.1592
▁stops	-12.1593
▁Archer	-12.1597
nden	-12.1603
▁knieholte	-12.1605
▁opgeleverd	-12.1607
soorzaak	-12.161
▁strengen	-12.1611
kende	-12.1621
▁inkt	-12.1621
▁mammatumor	-12.1622
▁verg	-12.1641
volgende	-12.1651
▁spr	-12.1655
weetal	-12.1666
▁diafragmakoepel	-12.1674
▁lichenoides	-12.1676
▁eczemateu	-12.168
▁omstrengeling	-12.168
▁vl	-12.1687
▁bloedingshaard	-12.1696
gemedieerde	-12.1703
▁maagantrumtype	-12.1707
▁Lu	-12.1712
▁ijzerdepositie	-12.1712
drainage	-12.1713
▁insufficienti	-12.1715
duodenum	-12.1715
▁ontbrak	-12.1716
linkszijdig	-12.1717
▁mL	-12.1718
boog	-12.1719
▁Lymf	-12.1724
geel	-12.1727
flo	-12.1727
diagnostiek	-12.1728
ultiple	-12.173
lijm	-12.1731
▁misselijk	-12.1731
cylinderepitheel	-12.1732
cylinders	-12.1732
erratia	-12.1732
▁bilirubin	-12.1732
▁bloedbijmenging	-12.1732
▁bloedvaatjes	-12.1732
▁contracturen	-12.1732
▁genitalis	-12.1732
▁gerangschikt	-12.1732
▁gevalideerd	-12.1732
▁mesenchymaal	-12.1732
▁pulmonum	-12.1732
▁ziektebeloop	-12.1732
leucocyten	-12.1732
▁Binnen	-12.1732
▁huidstukje	-12.1732
▁congenitaal	-12.1732
▁temporo	-12.1732
▁paratubaire	-12.1732
▁Graft	-12.1732
▁wig	-12.1732
cfng	-12.1732
▁bichoriale	-12.1732
thyreo	-12.1732
▁Lymfoom	-12.1732
iliteit	-12.1732
▁haematothorax	-12.1733
urkinjecellen	-12.1733
▁fibrino	-12.1733
▁posterolateral	-12.1733
▁mediaanlijn	-12.1734
▁Grawitztumor	-12.1734
▁vervette	-12.1735
▁coil	-12.1735
▁pool	-12.1737
011	-12.1737
generation	-12.1744
driemaal	-12.1744
▁hilusgebied	-12.1745
erbaar	-12.1746
▁incidentie	-12.1746
▁hypertrofi	-12.1747
▁ileumslijmvlies	-12.1749
▁tumoringroei	-12.1749
▁zoon	-12.1752
▁erfelijk	-12.1754
▁gallig	-12.1754
▁verklarend	-12.1757
less	-12.1757
▁thromboembolien	-12.1763
ctische	-12.1764
wervel	-12.177
▁infuus	-12.177
▁bacterieen	-12.1779
satie	-12.178
ool	-12.1782
leverafwijkingen	-12.1788
▁reeksen	-12.1792
smacelpopulatie	-12.1795
rich	-12.1805
▁car	-12.1815
▁ingezette	-12.1817
▁longbiopten	-12.1824
▁different	-12.1824
ontstekingshaard	-12.1832
lipid	-12.1835
gemerkt	-12.1836
GG	-12.1842
▁flexus	-12.1845
solid	-12.1861
▁erythro	-12.1863
tvb	-12.1868
2010)	-12.1876
clus	-12.1888
body	-12.1892
Doodsoorzaak	-12.1894
ablatio	-12.1894
elders	-12.1895
Beeld	-12.1896
edulla	-12.1899
bacteriekolonies	-12.1901
ernicke	-12.1901
▁Anderzijds	-12.1901
▁Coecum	-12.1901
▁Dissectie	-12.1901
▁adenomyose	-12.1901
▁cruris	-12.1901
▁fibers	-12.1901
▁gekozen	-12.1901
▁hallux	-12.1901
▁leukopenie	-12.1901
▁mycobacterien	-12.1901
▁ontslagbrief	-12.1901
▁pijnstilling	-12.1901
▁prematuur	-12.1901
▁Dubbelzijdige	-12.1901
▁metabool	-12.1901
▁blaasdak	-12.1901
▁uncus	-12.1902
▁nodule	-12.1902
▁durend	-12.1902
▁endoscopisch	-12.1902
▁intakt	-12.1902
▁bovenkaak	-12.1903
▁rethoracotomie	-12.1903
▁agens	-12.1903
▁ectopisch	-12.1904
▁Harttamponade	-12.1904
origine	-12.1904
▁straal	-12.1905
▁deviatie	-12.1906
foci	-12.1906
▁Relatie	-12.1907
illus	-12.1908
▁tumorpercentage	-12.1908
▁longafwijking	-12.1908
▁Hartspier	-12.1908
▁longembolen	-12.1908
▁hersentumor	-12.1909
▁gold	-12.1912
▁klepbladen	-12.1914
2200	-12.1917
▁meconium	-12.1917
▁liver	-12.1918
▁hypotensieve	-12.1918
BRA	-12.192
ject	-12.1921
ekend	-12.1925
▁huidstans	-12.1925
▁miltextirpatie	-12.1932
epel	-12.1934
▁passage	-12.1939
▁pati	-12.1942
▁stille	-12.1942
▁ondersteunend	-12.1943
▁ass	-12.1943
richoepithelioom	-12.1944
▁miltkweek	-12.1949
ergroot	-12.1951
▁restmateriaal	-12.1952
parietaal	-12.1957
bot	-12.1961
▁huidresectie	-12.1966
▁dof	-12.1968
vast	-12.1976
RG	-12.1978
▁mmol	-12.1982
tio	-12.1994
▁foeto	-12.2001
geleverd	-12.2016
hilus	-12.203
-12-12	-12.2034
▁therapieeffect	-12.2037
erve	-12.2041
kuur	-12.2048
▁genezen	-12.2054
▁winding	-12.2058
▁functioneren	-12.2058
ooral	-12.2058
▁Colonbiopt	-12.2066
▁zacht	-12.2068
apperig	-12.207
avelstreng	-12.2071
streng	-12.2072
Dysplasie	-12.2074
calcinosis	-12.2074
columnair	-12.2074
mobiel	-12.2074
▁Galwegen	-12.2074
▁Gewijzigd	-12.2074
▁Immature	-12.2074
▁aftakkend	-12.2074
▁dubbelloops	-12.2074
▁eccrien	-12.2074
▁echtgenoot	-12.2074
▁gedocumenteerd	-12.2074
▁groeiretardatie	-12.2074
▁legionella	-12.2074
▁orofarynx	-12.2074
▁peesschede	-12.2074
▁piriformis	-12.2074
▁praktisch	-12.2074
▁uitlokkend	-12.2074
▁waarneembaar	-12.2074
▁nierschors	-12.2074
▁proctitis	-12.2074
▁anoxie	-12.2074
▁aterosclerose	-12.2074
▁verzwakt	-12.2074
▁chondrosarcoom	-12.2074
▁staple	-12.2074
▁schedelgroeve	-12.2074
▁GGD	-12.2074
▁mononucleair	-12.2075
▁seborroisch	-12.2075
▁middag	-12.2075
▁satellitose	-12.2075
▁epicardiaal	-12.2075
▁gezicht	-12.2075
Conform	-12.2075
▁peribronchiaal	-12.2075
▁fistelgang	-12.2076
▁individuel	-12.2076
▁intradermaal	-12.2077
▁daalde	-12.2077
▁zoster	-12.2077
▁groenig	-12.2079
erwijs	-12.2079
msr	-12.208
▁betroffen	-12.2081
-11-10	-12.2081
mail	-12.2082
vlies	-12.2082
LG	-12.2083
homogen	-12.2085
houding	-12.2088
ouw	-12.2092
▁uitbreidt	-12.2093
▁galblaaswand	-12.2095
kwam	-12.2098
▁corona	-12.2099
scheuren	-12.2101
▁tumorrecidief	-12.2106
▁buikoperaties	-12.2111
morbus	-12.2111
was	-12.2112
AHA	-12.2113
▁zijden	-12.212
▁beperking	-12.2123
aliteit	-12.2137
Incisiebiopt	-12.2141
▁afsluitend	-12.2145
uele	-12.2145
baan	-12.2159
sion	-12.217
▁verlopend	-12.2171
oscopie	-12.2171
bloedtransfusies	-12.2174
▁lobu	-12.2183
want	-12.2186
pipelle	-12.2188
hoorn	-12.22
▁vis	-12.2209
▁wer	-12.2217
▁atheroom	-12.2222
▁gemethyleerd	-12.2224
able	-12.2225
uitbreiding	-12.2225
▁millimeter	-12.2229
erebrale	-12.2234
▁eten	-12.2234
male	-12.2245
steoporose	-12.2247
nduidelijk	-12.2247
▁suggestie	-12.2248
gewerkt	-12.2249
▁Radical	-12.2249
Differentiatie	-12.2249
▁Lichaamssectie	-12.2249
▁biopsy	-12.2249
▁echografie	-12.2249
▁gedateerd	-12.2249
▁gerapporteerd	-12.2249
▁hyalinisatie	-12.2249
▁hypokaliemie	-12.2249
▁hypothalamus	-12.2249
▁oligohydramnion	-12.2249
▁planopilaris	-12.2249
▁systematisch	-12.2249
▁vastzittend	-12.2249
▁verzonden	-12.2249
▁anafyla	-12.2249
▁glioom	-12.2249
▁indolent	-12.2249
▁lenskern	-12.2249
▁High	-12.2249
▁Helder	-12.2249
▁bijkomstig	-12.2249
▁afweer	-12.2249
▁endometrial	-12.2249
▁fibrinebeslag	-12.225
▁bronchoscopie	-12.225
▁venosus	-12.225
▁alcoholmisbruik	-12.225
▁ductulair	-12.225
▁hepatoduodenale	-12.225
▁longtoppen	-12.225
▁graderen	-12.225
▁mondholte	-12.225
▁standsafwijking	-12.225
▁uitzichtlo	-12.2251
Bronchusbrush	-12.2252
▁subtotaal	-12.2252
................	-12.2253
▁hepatisatie	-12.2254
Lymfklier	-12.2254
▁celgroepjes	-12.2255
▁zijkant	-12.2256
▁linkerhand	-12.226
Ernstige	-12.2261
▁placentadeel	-12.2264
▁kransslagaderen	-12.2264
▁lateralis	-12.2265
encefalopathie	-12.2265
▁cause	-12.2265
necrotiserende	-12.2265
▁clusters	-12.2268
▁leversegment	-12.228
mber	-12.2284
balans	-12.2288
▁Endocervix	-12.2288
twee	-12.2291
ocytoom	-12.2292
▁Hemato	-12.2301
▁aortaruptuur	-12.2303
▁tumorcel	-12.2304
▁resistent	-12.2309
▁ber	-12.2325
▁myodegenerati	-12.2328
▁rectumbiopten	-12.2335
▁mes	-12.2336
▁reepje	-12.2341
rombo	-12.235
reactieve	-12.235
drukken	-12.2354
sneevlak	-12.2357
▁macrometastase	-12.2357
▁insnijden	-12.2359
myocarditis	-12.2384
rus	-12.2388
▁sup	-12.2392
▁shavebiopt	-12.2397
-2011	-12.2398
murale	-12.2403
▁orbita	-12.2408
cytochemisch	-12.2413
▁grenzen	-12.2415
katheter	-12.2418
lencarcinoom	-12.2418
▁eenmalig	-12.2421
organisme	-12.2424
wang	-12.2424
abel	-12.2425
tevig	-12.2426
techniek	-12.2427
▁klierbuis	-12.2428
palatoschisis	-12.2428
▁Lobectomie	-12.2428
▁Recidief	-12.2428
▁afdalend	-12.2428
▁choriaalplaat	-12.2428
▁doormaakte	-12.2428
▁funisitis	-12.2428
▁gespecificeerd	-12.2428
▁lipomatose	-12.2428
▁mortus	-12.2428
▁nabestaanden	-12.2428
▁omslagplooi	-12.2428
▁overeenkomt	-12.2428
▁reversibel	-12.2428
▁ruber	-12.2428
▁senilis	-12.2428
▁verhoorning	-12.2428
▁sleeve	-12.2428
Analyse	-12.2428
prikkel	-12.2428
▁Genetica	-12.2428
▁incompleet	-12.2428
▁hepaticus	-12.2428
▁lymfomenpanel	-12.2428
▁spirocheten	-12.2428
verweging	-12.2428
▁Invasief	-12.2428
▁histotype	-12.2429
▁petechieen	-12.2429
▁kernhoudend	-12.2429
▁hemithorax	-12.2429
▁verruceus	-12.2429
▁troponine	-12.243
▁naevoid	-12.243
▁reactivatie	-12.2431
▁ontlastend	-12.2431
arvo	-12.2433
▁vaatprothese	-12.2433
Braakstadium	-12.2433
▁exc	-12.2434
kw	-12.2436
▁Reeds	-12.2439
▁grenzend	-12.2441
pn	-12.2442
tekend	-12.2445
helix	-12.2446
▁sclerosering	-12.2446
▁linkerflank	-12.2448
probleem	-12.2448
▁optredend	-12.2449
raken	-12.245
aanvullend	-12.245
▁infarcthaard	-12.2451
vasculitis	-12.2457
▁gemedieerd	-12.2459
alrijke	-12.2461
▁lymfklierpakket	-12.2463
▁hersengewicht	-12.2463
atypisch	-12.2467
Als	-12.2473
send	-12.2476
stroma	-12.2476
wal	-12.2477
▁dermoidcyste	-12.2479
anders	-12.2497
▁overhechten	-12.2498
belemmering	-12.2507
amyloiddepositie	-12.2511
▁voeding	-12.2513
histiocytair	-12.2514
▁ouders	-12.252
▁redenen	-12.2531
▁cervixbiopten	-12.2533
▁prostaatbiopt	-12.2535
mg	-12.2546
drukt	-12.2557
gedragen	-12.2566
mond	-12.2602
ubendocardiale	-12.2607
vertuigend	-12.2608
▁mucine	-12.2608
▁follow	-12.2609
capaciteit	-12.261
geprepareerd	-12.261
▁Adipeuze	-12.261
▁Geruptureerd	-12.261
▁beduidend	-12.261
▁belemmerd	-12.261
▁constrictiva	-12.261
▁gecauteriseerd	-12.261
▁gedestrueerd	-12.261
▁haemoptoe	-12.261
▁hematopoetisch	-12.261
▁mastoid	-12.261
▁moeizame	-12.261
▁neutropenie	-12.261
▁precies	-12.261
▁verkavelend	-12.261
▁beladen	-12.261
▁CERAD	-12.261
▁preexsistente	-12.261
▁cryptabcessen	-12.261
▁cutis	-12.261
▁daags	-12.261
▁Cardiovasculair	-12.261
▁dystrofische	-12.261
▁nasofarynx	-12.261
▁fibrinethrombi	-12.261
▁buisjes	-12.261
▁protein	-12.2612
▁overbelasting	-12.2613
▁wondinfectie	-12.2614
waarts	-12.2614
▁resttoestand	-12.2615
▁caput	-12.2617
▁basal	-12.2619
ariant	-12.2619
▁veneus	-12.262
▁premortaal	-12.2622
▁hieromtrent	-12.2624
▁Lab	-12.2627
▁tumorvolume	-12.2628
beoordeling	-12.2629
▁excuses	-12.2633
ICC	-12.2636
parese	-12.2639
doodsoorzaak	-12.2642
Geringe	-12.2644
thrombo	-12.2647
▁centimeters	-12.265
voornamelijk	-12.2651
-12-10	-12.2651
▁Epi	-12.2655
nodus	-12.2657
resp	-12.2658
thrombus	-12.2659
eiwit	-12.2662
▁verstoord	-12.2664
reeds	-12.2671
▁nierafwijkingen	-12.2674
band	-12.2676
▁huidshave	-12.2692
▁melan	-12.2704
nze	-12.2709
pathy	-12.2713
levergewicht	-12.2719
▁coecumcarcinoom	-12.2723
sonderzoek	-12.2728
centrilobulair	-12.2735
aliseerd	-12.2735
▁geheugen	-12.2744
▁waarom	-12.2754
▁cystes	-12.2755
▁epithelioid	-12.2772
▁aangeleverd	-12.2773
erforatie	-12.278
gebreide	-12.2782
auopathie	-12.2791
temband	-12.2792
itgesproken	-12.2794
▁streptokok	-12.2795
▁afsluit	-12.2795
▁rapport	-12.2795
▁discrepant	-12.2795
▁Hoofd	-12.2795
▁asymmetrie	-12.2795
▁bespreken	-12.2795
▁cardioversie	-12.2795
▁cataract	-12.2795
▁evenwicht	-12.2795
▁haematemesis	-12.2795
▁herbeoordeeld	-12.2795
▁hoefijzernier	-12.2795
▁neusbrug	-12.2795
▁objectiveren	-12.2795
▁pneumocyten	-12.2795
▁subcarinaal	-12.2795
▁tracheostomie	-12.2795
▁vloeibare	-12.2795
▁fibroxanthoom	-12.2795
▁omkapseld	-12.2795
▁malperfusie	-12.2795
▁gebeuren	-12.2795
▁monoclonaal	-12.2795
▁bolvormig	-12.2795
▁vreemd	-12.2795
diastase	-12.2795
▁thuissituatie	-12.2795
▁perisplenitis	-12.2795
▁babygram	-12.2795
▁bloeddrukdaling	-12.2796
trophi	-12.2796
▁koilocytose	-12.2796
▁Ascitesvocht	-12.2796
▁wervelfractuur	-12.2796
▁polypoid	-12.2796
rostaatbiopt	-12.2797
▁ganglioncellen	-12.2797
▁trombosebeen	-12.2797
rien	-12.2798
▁rechterbovenarm	-12.2802
▁niersteen	-12.2804
▁lymphklier	-12.2807
▁slot	-12.2815
▁ijzerdeposities	-12.2818
tosis	-12.2819
▁Adeno	-12.2822
coagula	-12.2822
rostatectomie	-12.2823
cerebrale	-12.2823
lf	-12.2826
glyc	-12.2826
emfyseem	-12.2828
2002)	-12.283
intraperitoneaal	-12.2835
complex	-12.2835
Lokalisatie	-12.2836
▁bijzijn	-12.2837
grootcellig	-12.2838
papilloom	-12.2839
voorhoofd	-12.2839
ouder	-12.2839
granuloom	-12.284
itale	-12.284
▁volgend	-12.2842
hematoom	-12.2842
▁uitbreidde	-12.2843
▁pos	-12.2845
stolling	-12.2848
▁verbindingen	-12.285
obacter	-12.285
mamma	-12.2861
medicamenteus	-12.2867
His	-12.2873
nig	-12.2877
ikte	-12.2885
dagen	-12.2888
-02-11	-12.2892
tracheale	-12.2894
ilson	-12.2896
rak	-12.2905
inflammatoire	-12.2907
-02-10	-12.2913
▁subepiderma	-12.2918
latie	-12.293
-01-10	-12.2946
thorac	-12.2959
ecrose	-12.2963
diepte	-12.2964
▁vermeldde	-12.2964
▁rechterhand	-12.297
sparend	-12.298
▁begeleid	-12.2981
dynamisch	-12.2983
discordant	-12.2984
▁mucus	-12.2984
Chiari	-12.2984
prepareren	-12.2984
▁Evident	-12.2984
▁GvHD	-12.2984
▁aangepast	-12.2984
▁distributie	-12.2984
▁doorwoekerd	-12.2984
▁habitus	-12.2984
▁hemangiomen	-12.2984
▁kernbasofilie	-12.2984
▁lijkschouwer	-12.2984
▁onmiddellijk	-12.2984
▁onscherp	-12.2984
▁overleefd	-12.2984
▁slijmvliezen	-12.2984
▁suggereren	-12.2984
▁tandenrij	-12.2984
allory	-12.2984
▁buurt	-12.2984
▁nevus	-12.2984
▁contralatera	-12.2984
▁moeheid	-12.2984
▁Invasieve	-12.2984
▁eenderde	-12.2984
duodenectomie	-12.2984
▁endocardiaal	-12.2984
▁unci	-12.2984
▁genitaal	-12.2984
▁opleveren	-12.2984
tox	-12.2985
▁spieratrofie	-12.2985
▁cryptitis	-12.2986
▁predisponerend	-12.2987
▁kinderen	-12.2987
▁zekerheidshalve	-12.2988
▁intrapulmonaal	-12.2988
▁skin	-12.2989
▁spoortje	-12.2991
▁infiltraatjes	-12.2993
beurt	-12.2995
▁hematoomvorming	-12.2998
▁metalen	-12.3004
▁vasculitisbeeld	-12.3005
▁banal	-12.3008
cutane	-12.3012
▁hieronder	-12.3015
evrouw	-12.3021
myelo	-12.3023
▁nierinfarct	-12.3025
▁duodenumbiopt	-12.3026
IHC	-12.3027
genoemde	-12.3035
structuur	-12.3035
gecompromiteerd	-12.3037
beperkt	-12.3038
Alzheimer	-12.3038
atherosclerose	-12.3038
▁droge	-12.304
▁antrumbiopten	-12.3051
▁duran	-12.3054
▁stembanden	-12.3069
▁overnam	-12.3082
▁vaatoperatie	-12.3083
carcino	-12.3085
itieve	-12.3097
▁chondro	-12.3101
oorgankelijkheid	-12.3108
doch	-12.3115
esloten	-12.3118
▁haemolytisch	-12.312
ILA	-12.312
gegeven	-12.3123
wast	-12.3131
▁spierwand	-12.3132
scopie	-12.3146
nel	-12.3152
gebonden	-12.3154
usion	-12.316
▁schi	-12.3162
vascul	-12.3171
auwelijks	-12.3173
▁mv	-12.3173
ediastinum	-12.3174
usculus	-12.3174
ericard	-12.3175
entorhinal	-12.3176
latskin	-12.3176
▁Demodex	-12.3176
▁alienum	-12.3176
▁gestorven	-12.3176
▁hoofdzakelijk	-12.3176
▁meldde	-12.3176
▁neutropene	-12.3176
▁occult	-12.3176
▁pemphigoid	-12.3176
▁pilonidalis	-12.3176
▁thymoom	-12.3176
▁vergeleken	-12.3176
▁handpalm	-12.3176
▁flink	-12.3176
▁thermisch	-12.3176
▁dysplasia	-12.3176
▁hartactie	-12.3176
▁foetalis	-12.3176
▁mirabilis	-12.3176
▁Adnexextirpatie	-12.3176
▁oproep	-12.3176
▁globu	-12.3176
thyreoid	-12.3176
▁Redelijk	-12.3176
▁donkerrood	-12.3176
▁Coronairvaten	-12.3177
onodig	-12.3177
▁galstase	-12.3177
▁spoelvormig	-12.3177
▁willen	-12.3177
▁subclaviculair	-12.3177
▁hepatogene	-12.3177
▁intracavitair	-12.3178
▁internist	-12.3179
▁passagere	-12.3179
▁differentieren	-12.3179
▁maagretentie	-12.318
▁Histologie	-12.3184
▁dyspnoeklachten	-12.3184
▁asymmetrisch	-12.3185
▁halsvaten	-12.3187
▁wegrakingen	-12.3187
acraal	-12.3191
aald	-12.3191
▁rugklachten	-12.3192
▁cystevorming	-12.3204
▁neusslijmvlies	-12.3207
depositie	-12.321
▁tumorhaardjes	-12.3212
auw	-12.3221
leuraholte	-12.3224
▁perivesica	-12.3233
adnex	-12.3236
omvang	-12.3237
gewricht	-12.3237
▁stenting	-12.3239
gemarkeerd	-12.3239
encephalopathie	-12.3241
prerenale	-12.3242
▁voorhoorn	-12.3242
richt	-12.3244
dorsaal	-12.3244
anastomose	-12.3245
respons	-12.3248
centrale	-12.3249
gekleurd	-12.3249
assaal	-12.325
auto	-12.325
mono	-12.3256
▁glomerulo	-12.3269
▁niertumor	-12.3275
▁superficial	-12.3276
▁middelen	-12.3288
oevalsbevinding	-12.329
gelegd	-12.3291
pecifiek	-12.3299
▁verwekkers	-12.33
europathologie	-12.3305
iteerd	-12.3322
ty	-12.3332
▁acti	-12.3341
tumorinfiltratie	-12.3342
morfologisch	-12.3345
▁chemotherapeuti	-12.335
hrombus	-12.335
10-2	-12.3351
▁cluster	-12.3352
▁voedings	-12.3353
▁knieen	-12.3354
▁lymfvat	-12.3356
laveiselcel	-12.3357
pathische	-12.3359
egatief	-12.3364
centrum	-12.3365
▁pulmona	-12.3366
hymus	-12.3368
infact	-12.3369
esenterium	-12.337
▁onrust	-12.3371
▁Infectie	-12.3372
ervelkolom	-12.3372
bladen	-12.3372
▁pseudodecidual	-12.3372
▁pseudomelanosis	-12.3372
endarteriectomie	-12.3372
energetisch	-12.3372
uadriceps	-12.3372
▁Brunners	-12.3372
▁Cerebraal	-12.3372
▁Genitali	-12.3372
▁cross	-12.3372
▁daadwerkelijk	-12.3372
▁electrolyt	-12.3372
▁gedenudeerd	-12.3372
▁getuige	-12.3372
▁gynaecomastie	-12.3372
▁hemosiderose	-12.3372
▁hypercapnie	-12.3372
▁leptomeninx	-12.3372
▁polikliniek	-12.3372
▁realti	-12.3372
▁stilstaand	-12.3372
▁versneld	-12.3372
spleten	-12.3372
▁dijbeen	-12.3372
▁neusbijholte	-12.3372
▁potentie	-12.3372
▁enteropathie	-12.3372
▁frontalis	-12.3372
▁heparine	-12.3372
▁Hulp	-12.3372
▁tracheotomie	-12.3372
▁gedaald	-12.3372
▁adenomateus	-12.3372
▁ventriculitis	-12.3372
▁passageklachten	-12.3372
▁vimentine	-12.3372
▁regel	-12.3372
▁ventro	-12.3372
▁desondanks	-12.3372
▁entiteit	-12.3373
▁klepslippen	-12.3373
▁verwijs	-12.3373
liniek	-12.3373
▁uitpuilend	-12.3373
▁order	-12.3373
▁papilloma	-12.3373
▁afstrijkbaar	-12.3373
inklemmingsbeeld	-12.3373
▁afspraak	-12.3373
▁wandverdikking	-12.3374
▁maagfundus	-12.3374
▁intraluminaal	-12.3374
▁recto	-12.3374
▁semirecent	-12.3375
▁grauw	-12.3377
▁cusp	-12.3377
rial	-12.3377
pulse	-12.3379
▁transurethra	-12.338
▁Brickers	-12.338
erologisch	-12.3381
terusresectie	-12.3383
katheterisatie	-12.3384
▁mogelijkerwijs	-12.3385
▁Lang	-12.3385
▁congestief	-12.3387
▁uitnemen	-12.3389
▁linkerlies	-12.3392
ECI	-12.3396
▁Alles	-12.3403
▁somatisch	-12.3403
▁vaatstuwing	-12.341
centra	-12.3411
▁besch	-12.3413
▁satelliet	-12.3414
▁systeemziekte	-12.3417
▁inzicht	-12.3423
nomen	-12.3428
toxiciteit	-12.3446
▁littekenachtig	-12.3448
teel	-12.3449
positiviteit	-12.345
restlumen	-12.345
reanimatie	-12.3451
logy	-12.3452
trombi	-12.3452
nodale	-12.3456
screen	-12.3459
▁not	-12.3462
trombo	-12.3464
▁AAAA	-12.3469
intestinalis	-12.347
vorm	-12.3474
▁metasta	-12.3483
▁mesenteri	-12.3496
ymfohistiocytair	-12.3506
▁lymfklierbiopt	-12.3512
▁collecti	-12.3528
getreden	-12.3528
wan	-12.3528
derdegraads	-12.3529
▁decompens	-12.3531
stelling	-12.3535
▁kransslagader	-12.3535
▁neven	-12.3536
otomie	-12.354
▁presenteer	-12.3544
pyelo	-12.3556
▁risicofactor	-12.3557
itbreiding	-12.3564
oxicologisch	-12.3568
oestemming	-12.3568
ylori	-12.3568
▁sign	-12.3571
morrhagisch	-12.3572
smaceldyscrasie	-12.3572
▁Interpretatie	-12.3572
▁biamniotisch	-12.3572
▁eindigend	-12.3572
▁ejectiefractie	-12.3572
▁epigastrio	-12.3572
▁extrinsiek	-12.3572
▁geArriteerd	-12.3572
▁geloosd	-12.3572
▁herschikking	-12.3572
▁hersendood	-12.3572
▁ingeblokt	-12.3572
▁omschreven	-12.3572
enterostomie	-12.3572
▁neemt	-12.3572
www	-12.3572
▁stadia	-12.3572
▁thyroiditis	-12.3572
proeflaparotomie	-12.3572
Groeiwijze	-12.3572
▁neuropil	-12.3572
▁Dunnedarm	-12.3573
▁macula	-12.3573
▁Cristabiopsie	-12.3573
▁weerstand	-12.3573
knop	-12.3574
▁peracuut	-12.3574
▁stadiering	-12.3574
Acta	-12.3574
▁mitochondrial	-12.3575
iehl	-12.3575
▁overgegaan	-12.3575
▁spiercellen	-12.3578
tentie	-12.3578
▁dichtbij	-12.3578
ragmenten	-12.3579
▁rechteronderarm	-12.3581
▁longcirculatie	-12.3581
▁ondervulling	-12.3581
▁EBER	-12.3581
▁paraaortale	-12.3584
▁pH	-12.3585
▁ondervelden	-12.3587
▁ketens	-12.3589
▁premalign	-12.359
peritonitis	-12.3593
Halsklier	-12.3595
tuba	-12.3599
db	-12.3602
▁mal	-12.3609
uebloedingen	-12.3612
spiegels	-12.3621
grafisch	-12.3625
leden	-12.3626
stu	-12.3633
sproblemen	-12.3646
trioventriculair	-12.3656
pierweefsel	-12.3658
Cytologisch	-12.3663
consult	-12.3663
waaronder	-12.3664
wangerschapsrest	-12.3665
maligne	-12.3667
tezamen	-12.3669
folliculair	-12.3669
▁spanningspneumo	-12.3676
▁gedrags	-12.3678
afdeling	-12.3683
illi	-12.3689
abcessen	-12.369
meerdere	-12.3692
▁Hartgewicht	-12.371
▁terme	-12.3711
medullair	-12.3713
▁rechtsfalen	-12.3716
insuffici	-12.3721
littekens	-12.3724
gegaan	-12.3727
fdeling	-12.3752
-1-201	-12.3755
▁uitsluit	-12.3757
▁chronic	-12.3758
-2001	-12.3758
hepa	-12.3759
neurale	-12.3759
asi	-12.376
adeno	-12.3766
prieterig	-12.3773
rangschikking	-12.3776
waviness	-12.3776
▁Carcinoma	-12.3776
▁aanbeveling	-12.3776
▁acantholyse	-12.3776
▁cerebelli	-12.3776
▁gladwandig	-12.3776
▁hypoglycaemie	-12.3776
▁immunoloog	-12.3776
▁locoregionaal	-12.3776
▁mengbeeld	-12.3776
▁ontkalking	-12.3776
▁sectio	-12.3776
▁subchoria	-12.3776
▁thrombocytopeni	-12.3776
ongeluk	-12.3776
▁stoel	-12.3776
▁pyela	-12.3776
▁woning	-12.3776
▁opheldering	-12.3776
▁slijmerig	-12.3776
▁romphuidtype	-12.3776
▁delay	-12.3776
▁leukostase	-12.3776
▁miniem	-12.3777
▁skeletdysplasie	-12.3777
▁ectocervica	-12.3777
▁commun	-12.3777
musculatuur	-12.3777
▁extend	-12.3777
effort	-12.3779
▁vaginawand	-12.378
▁apneu	-12.378
▁galblaasbed	-12.3781
reperfusieschade	-12.3781
effecten	-12.3782
▁aortakunstklep	-12.3783
▁uitzaaiingen	-12.3784
▁Buiten	-12.3784
▁meneer	-12.3784
▁lymfkliertje	-12.3785
tinib	-12.3785
▁Reden	-12.3785
mateus	-12.3786
thoracale	-12.3787
▁mitraliskleppen	-12.3788
▁littekentjes	-12.3791
caudaal	-12.3797
▁Infarcering	-12.3798
verleg	-12.3798
▁tip	-12.3804
ubtotale	-12.3806
uch	-12.3811
zegelringceltype	-12.3812
takslijden	-12.3813
▁kaar	-12.3816
kanker	-12.3834
hoofdstamstenose	-12.3843
sinushistiocytos	-12.3844
vervullingsbeeld	-12.3845
▁oogt	-12.3855
xcisie	-12.3857
verdeling	-12.3867
▁adenoma	-12.3869
▁tumornegatief	-12.3872
overgevoeligheid	-12.3875
iffer	-12.3876
Afstand	-12.3878
afhankelijk	-12.389
bloeduitstorting	-12.3895
-01-11	-12.3895
snijden	-12.3897
ish	-12.3909
deze	-12.3915
loid	-12.3915
cytair	-12.392
▁Ileum	-12.3933
trict	-12.3937
totale	-12.394
▁hyp	-12.3942
wit	-12.3943
▁tricuspidaal	-12.3946
▁parti	-12.395
▁colontype	-12.3951
▁digiti	-12.3952
▁case	-12.3963
perma	-12.3968
▁element	-12.3968
buiten	-12.3969
▁groepje	-12.3969
▁aanvragen	-12.3972
ezwollen	-12.3978
poplitea	-12.3981
uitloper	-12.3983
erzwaard	-12.3984
▁Bronchi	-12.3984
▁Cachectisch	-12.3984
▁coccoide	-12.3984
▁connecti	-12.3984
▁gecorrigeerd	-12.3984
▁glanzend	-12.3984
▁ileopsoas	-12.3984
▁ingesneden	-12.3984
▁pallidus	-12.3984
▁routine	-12.3984
▁verenigbaar	-12.3984
▁vergroenend	-12.3984
▁wakker	-12.3984
▁onderbouw	-12.3984
▁oropharynx	-12.3984
voudig	-12.3984
▁paroxysma	-12.3984
▁stemplooi	-12.3984
▁meningeale	-12.3984
urner	-12.3984
▁afsplitsing	-12.3984
▁somscore	-12.3985
▁radix	-12.3985
▁puntbloedingen	-12.3985
▁parasternaal	-12.3985
▁ribfractuur	-12.3986
occlusive	-12.3986
▁omentalis	-12.3987
▁subserosaal	-12.3987
▁slotte	-12.3987
jugulair	-12.3987
▁buikomvang	-12.3987
▁micropapillair	-12.3988
reaktie	-12.3988
▁vesiculair	-12.3988
genitale	-12.3989
▁bijzonderheid	-12.399
▁naevocellulares	-12.399
▁pral	-12.3991
▁vader	-12.3992
▁bypassoperatie	-12.3994
▁binnenste	-12.3997
▁longarts	-12.3999
▁rechterflank	-12.4003
DIG	-12.4004
buis	-12.4007
tracheaal	-12.4007
11-2	-12.4008
▁opmerking	-12.4008
▁neg	-12.4009
▁thoracolumba	-12.4011
▁linkercoronair	-12.4012
▁zenuwen	-12.4018
cardiaresectie	-12.4021
neerslagen	-12.4025
uff	-12.4026
oetlengte	-12.4032
aties	-12.4036
apsel	-12.4037
eneuze	-12.4038
▁fotos	-12.4048
▁plaatste	-12.4053
lp	-12.4062
ologiebespreking	-12.4073
uitstortingen	-12.4075
typisch	-12.4081
▁weefselstukje	-12.4082
eurologisch	-12.4082
circulatie	-12.4091
adjuvant	-12.4099
angiografie	-12.41
▁Gastro	-12.4101
Gaarne	-12.4102
revisie	-12.4102
ascites	-12.4103
aanvulling	-12.4103
ruiterembolus	-12.4103
ophoping	-12.4103
▁renal	-12.4104
minimaal	-12.4108
artefacten	-12.4114
xtraprostatisch	-12.4118
reden	-12.4119
media	-12.4125
stuk	-12.4125
▁zuurstofbehoeft	-12.4136
nische	-12.4136
sgewijze	-12.414
lichaam	-12.4145
kelet	-12.4147
nco	-12.415
▁schildwacht	-12.4154
richting	-12.4157
▁vd	-12.416
▁sneden	-12.4165
▁DIC	-12.4167
recht	-12.4169
ulva	-12.417
leuring	-12.4177
▁berustte	-12.4179
extra	-12.418
▁ductectasie	-12.4181
▁muscul	-12.4192
ubendocardiaal	-12.4195
ycobacterium	-12.4195
▁reticuline	-12.4197
groeve	-12.4197
Bronchusspoelsel	-12.4197
▁Betreffend	-12.4197
▁Geconcludeer	-12.4197
▁atroof	-12.4197
▁basillaris	-12.4197
▁bilobectomie	-12.4197
▁biometri	-12.4197
▁chorionvlokken	-12.4197
▁cyanotisch	-12.4197
▁expectatief	-12.4197
▁geobserveerd	-12.4197
▁indrukwekkend	-12.4197
▁rillingen	-12.4197
▁schrijven	-12.4197
▁seborrhoisch	-12.4197
▁sinusoidal	-12.4197
▁spierzwakte	-12.4197
▁vakantie	-12.4197
▁verstandelijk	-12.4197
▁verstikking	-12.4197
▁verwondingen	-12.4197
▁Beentumoren	-12.4197
▁carcinosarcoom	-12.4197
▁detubatie	-12.4197
▁hepatico	-12.4197
▁sebace	-12.4197
▁coronarius	-12.4197
overgangszone	-12.4197
▁grofdruppelig	-12.4197
▁staafvormige	-12.4197
▁kweekuitslagen	-12.4197
▁breukzak	-12.4198
▁comorbiditeit	-12.4198
▁colorectal	-12.4198
mithyroidectomie	-12.4198
▁blastentoename	-12.4198
▁scannen	-12.4198
▁Arteriosclerose	-12.4198
▁Doorgemaakt	-12.4198
▁akute	-12.4198
▁echogeleid	-12.4198
▁vaatziekten	-12.4198
▁trabekelblaas	-12.4199
▁overgangstype	-12.4199
▁abnormaal	-12.42
Receptorstatus	-12.42
▁semen	-12.4201
▁herstellen	-12.4201
ericardvocht	-12.4201
▁vaatpathologie	-12.4203
▁onmogelijk	-12.4208
▁laatst	-12.4209
▁heer	-12.421
▁drug	-12.4211
beenmergaspiraat	-12.4211
reikend	-12.4214
▁vaginaal	-12.4217
desobstructie	-12.4218
▁borstwand	-12.4218
▁littekenreactie	-12.4219
▁aangemerkt	-12.4224
hepatitis	-12.4226
▁Arteriolosclero	-12.4229
▁follikels	-12.4235
histiocytose	-12.4236
correctie	-12.4238
▁venosta	-12.4243
▁leverschade	-12.4247
nefritis	-12.4248
▁dystrofie	-12.4256
fagen	-12.4278
▁manifestatie	-12.4285
▁prof	-12.4286
pneumoniehaarden	-12.4291
▁optie	-12.4293
acteriele	-12.4299
▁tumorresten	-12.431
klepplastiek	-12.4315
▁representatie	-12.4319
insertie	-12.4327
agonaal	-12.4328
pseudo	-12.4329
lipoma	-12.4329
sporadische	-12.433
infectieuze	-12.4331
grens	-12.4332
▁bind	-12.4333
werken	-12.4337
inclusies	-12.4339
hartfalen	-12.434
mediaal	-12.4341
▁colonbiopt	-12.4343
eritoneum	-12.4354
▁diffus	-12.4355
icrosc	-12.4357
opy	-12.436
plenitis	-12.4379
erwijd	-12.438
middels	-12.4388
rigo	-12.4393
ezamen	-12.4404
▁Bronchusbiopt	-12.4405
▁cauda	-12.4406
terale	-12.4408
▁Blaasbiopt	-12.4409
roteus	-12.4411
▁stans	-12.4411
etechien	-12.4411
▁frontaalkwab	-12.4412
ubcapsulair	-12.4412
hippocampale	-12.4412
▁kilo	-12.4414
Abdominale	-12.4415
amfetamine	-12.4415
aterhouse	-12.4415
dissecteerde	-12.4415
rechterhemisfeer	-12.4415
stermijn	-12.4415
▁Anatomisch	-12.4415
▁Dilatatio	-12.4415
▁angulus	-12.4415
▁embolectomie	-12.4415
▁enterococcen	-12.4415
▁gefuseerd	-12.4415
▁gemeentelijk	-12.4415
▁hartmassage	-12.4415
▁hypofarynx	-12.4415
▁intermittens	-12.4415
▁longhili	-12.4415
▁multicentrisch	-12.4415
▁pemfigoid	-12.4415
▁sterfte	-12.4415
▁uitvoerig	-12.4415
▁verslijmend	-12.4415
▁falx	-12.4415
absces	-12.4415
▁eerstegraads	-12.4415
▁superinfectie	-12.4415
▁Alfa	-12.4415
▁Ewing	-12.4415
▁horizontale	-12.4415
▁Diverse	-12.4415
▁neurodegenerati	-12.4415
▁ulceroflegmoneu	-12.4415
▁three	-12.4415
centroblastair	-12.4415
▁bloedingsplaats	-12.4415
▁nucleoli	-12.4416
arthintumor	-12.4416
▁myomen	-12.4416
▁musculair	-12.4416
▁afvallen	-12.4417
▁schrompeling	-12.4417
▁vaatsysteem	-12.4417
▁sturen	-12.4418
▁paralyse	-12.4419
▁adenosis	-12.4419
vascular	-12.4419
▁report	-12.4419
▁subtypering	-12.4421
▁contusio	-12.4422
▁klepprothese	-12.4423
▁botvorming	-12.4424
plaatsen	-12.4427
eiss	-12.4432
▁ontbraken	-12.4436
ococcus	-12.4437
tubulointerstiti	-12.4439
▁reeel	-12.444
▁tumoremboli	-12.4441
▁Hage	-12.4445
ografie	-12.446
▁slokdarmbiopten	-12.4462
▁sluitend	-12.4472
cher	-12.4475
▁gemicro	-12.4477
▁meet	-12.4482
ature	-12.4488
▁ingevangen	-12.4491
▁circumferentie	-12.4492
chym	-12.4496
▁dystrof	-12.4502
uist	-12.4506
derdaad	-12.4508
▁IEL	-12.4509
▁linkerarm	-12.4512
▁leverhaarden	-12.4524
basale	-12.453
atypie	-12.4538
nex	-12.4539
transplant	-12.4543
prostat	-12.4548
kan	-12.4551
tangles	-12.4561
Richardson	-12.4562
fibroom	-12.4569
gastritis	-12.4571
natuurlijk	-12.4573
coronaria	-12.4573
Hoog	-12.4576
lipoom	-12.458
▁blijk	-12.458
dermaal	-12.4588
hepato	-12.4589
distal	-12.4593
din	-12.4596
vezels	-12.4597
▁Dezelfde	-12.4607
▁aanget	-12.4607
specifiek	-12.461
▁conc	-12.461
pace	-12.4613
eckel	-12.4619
mentaal	-12.4623
delijk	-12.4624
chron	-12.4624
embolen	-12.4628
ultifocaal	-12.4635
ubstanti	-12.4635
▁abstin	-12.4635
sample	-12.4636
leincellig	-12.4636
▁amenorrhoe	-12.4637
Diagnostisch	-12.4637
faillure	-12.4637
itsnijdatum	-12.4637
▁Infiltrerend	-12.4637
▁activity	-12.4637
▁apoptose	-12.4637
▁cerebrospinalis	-12.4637
▁crisis	-12.4637
▁electric	-12.4637
▁erythematodes	-12.4637
▁gehyaliniseerd	-12.4637
▁geprononceerd	-12.4637
▁geretourneerd	-12.4637
▁hernieuwd	-12.4637
▁hersenhemisfeer	-12.4637
▁klepvegetaties	-12.4637
▁krachtsverlies	-12.4637
▁linkerhemisfeer	-12.4637
▁losmazig	-12.4637
▁ossificatie	-12.4637
▁oxytoca	-12.4637
▁partner	-12.4637
▁prostaticus	-12.4637
▁pyogenes	-12.4637
▁schimmelsporen	-12.4637
▁sikkelcel	-12.4637
▁vitamine	-12.4637
▁volumineus	-12.4637
▁hemosiderine	-12.4637
▁pneumonectomie	-12.4637
promoter	-12.4637
▁erythropoiese	-12.4637
▁pouch	-12.4637
▁platform	-12.4637
▁secretiefase	-12.4637
▁keloid	-12.4637
vasculatuur	-12.4637
▁verkalkende	-12.4637
▁abruptio	-12.4637
▁ontstolling	-12.4637
▁tonsillair	-12.4637
▁navelbreuk	-12.4637
▁duizeligheid	-12.4637
sprong	-12.4637
▁coagulase	-12.4637
▁extranodaal	-12.4637
hvd	-12.4638
▁contusiehaarden	-12.4638
▁peritonei	-12.4638
▁jongeman	-12.4638
▁digniteit	-12.4638
▁tubahoeken	-12.4638
Beenmergaspiraat	-12.4638
retentie	-12.4639
injectie	-12.4639
morbiditeit	-12.4639
▁bronchio	-12.464
malig	-12.4642
▁achterliggend	-12.4643
Excisiepreparaat	-12.4644
▁Beta	-12.4646
▁blaasmucosa	-12.4649
elevatie	-12.4649
▁spoor	-12.4652
Retroperitoneaal	-12.4655
ward	-12.4656
gehecht	-12.4657
poly	-12.4659
▁tumorkenmerken	-12.4659
pliet	-12.4661
onsil	-12.4661
otters	-12.4662
lut	-12.467
▁nierlijden	-12.4671
▁tag	-12.4688
▁voorvoet	-12.4689
leggen	-12.4694
-11-12	-12.4698
peritoneaalholte	-12.4699
▁miltinfarcten	-12.47
maagovergang	-12.4707
▁tuber	-12.4709
▁system	-12.4712
merken	-12.4715
clinicopathologi	-12.4719
-02-12	-12.472
land	-12.4722
pons	-12.4723
terminaal	-12.4733
▁immunokleuring	-12.4747
flank	-12.4752
igmoidbiopten	-12.4769
infarctjes	-12.4772
oging	-12.4773
sinds	-12.4776
▁Leverbiopten	-12.4789
▁fi	-12.479
impel	-12.4792
methode	-12.4799
encephalitis	-12.4799
laboratorium	-12.48
schouderblad	-12.48
atelectase	-12.48
chemotherapie	-12.4801
hetgeen	-12.4806
medicatie	-12.4806
▁1020	-12.4807
station	-12.4807
uitval	-12.4807
gegevens	-12.4807
classific	-12.4812
ulum	-12.4817
▁immuunsuppressi	-12.4819
lings	-12.482
ctieve	-12.4823
papmilt	-12.4833
oronairangiogram	-12.4833
werk	-12.4834
aagcorpus	-12.4843
ulceratie	-12.4844
zijdigheid	-12.4851
▁strek	-12.4852
chronisch	-12.4853
▁wandstandig	-12.4855
edicatie	-12.4856
ecrotiserende	-12.4856
▁medio	-12.4857
aceratie	-12.4861
putum	-12.4863
▁lymfangiectasie	-12.4864
Lambda	-12.4864
nucleatie	-12.4864
▁Addison	-12.4864
▁diastolisch	-12.4864
▁doodsoorzaken	-12.4864
▁evalueren	-12.4864
▁excoriatie	-12.4864
▁extracapillair	-12.4864
▁fibroadipeu	-12.4864
▁gespaard	-12.4864
▁gliosis	-12.4864
▁hallucinaties	-12.4864
▁imbibitie	-12.4864
▁keratinocyten	-12.4864
▁leucaemie	-12.4864
▁megakaryopoese	-12.4864
▁uitgerijpt	-12.4864
▁verbonden	-12.4864
▁voortschrijdend	-12.4864
▁gescand	-12.4864
▁gewijzigd	-12.4864
▁rekening	-12.4864
▁vestibul	-12.4864
IEGRAAD	-12.4864
▁paracolisch	-12.4864
▁anteroseptale	-12.4864
▁parametria	-12.4864
▁Herpes	-12.4864
▁morfea	-12.4864
iessen	-12.4864
▁gestegen	-12.4864
CBDEHE	-12.4864
▁mononier	-12.4865
▁mucopurulent	-12.4865
▁arteritis	-12.4865
▁junctie	-12.4865
▁pectoralis	-12.4865
▁signaal	-12.4865
▁radiologie	-12.4865
▁tubulusatrofie	-12.4865
▁nefrotisch	-12.4866
▁coecumbodem	-12.4866
▁clips	-12.4866
▁aetiologie	-12.4866
▁pigmenthoudend	-12.4866
▁hersenhelft	-12.4866
▁verplaatsing	-12.4867
▁uitdrukbaar	-12.4867
▁huidadnex	-12.4868
▁sinussen	-12.4868
erminderd	-12.4869
ancreatitis	-12.487
▁dieptegroei	-12.487
▁aantallen	-12.487
▁gecon	-12.4871
▁sym	-12.4871
EERDE	-12.4874
▁aansnijding	-12.4875
▁huidfragment	-12.4876
onbehandelbare	-12.4876
▁nierkapsel	-12.4877
▁darmsegment	-12.4878
▁wangslijmvlies	-12.4882
▁infectiebron	-12.4886
▁lipo	-12.4889
hoeft	-12.489
Ala	-12.4891
▁maagklachten	-12.4897
▁portaal	-12.4899
iging	-12.4903
▁nierinfarcten	-12.4904
▁sept	-12.4906
▁nood	-12.4908
▁skeletspier	-12.4916
▁gevoeld	-12.4918
sdiagnose	-12.4921
uitstrijken	-12.4921
▁bar	-12.4922
▁ABC	-12.4923
▁maagoperatie	-12.4923
mming	-12.493
▁substantiel	-12.4935
vulling	-12.4943
premortale	-12.4948
halsgebied	-12.4952
▁stembandpoliep	-12.4968
peritonitisbeeld	-12.4978
▁emphysemateu	-12.4979
▁Blaasslijmvlies	-12.4983
▁kamers	-12.4988
uire	-12.499
▁granulatie	-12.4998
ilde	-12.5016
▁weker	-12.5016
anuit	-12.5018
▁intraalveolair	-12.5025
tadium	-12.504
Grawitz	-12.5043
alcoholische	-12.5044
sduur	-12.5044
verwijderd	-12.5045
pols	-12.5045
kristallen	-12.5046
aantasting	-12.5047
gevolg	-12.5048
keratose	-12.5055
alleen	-12.5055
lumpectomie	-12.5056
ldus	-12.5061
gelopen	-12.5065
mucosale	-12.5068
theliale	-12.5071
▁hetero	-12.5077
methylering	-12.508
kleuringspatroon	-12.5081
▁myocyt	-12.5082
ammabiopsie	-12.5083
poradisch	-12.5092
roscopisch	-12.5095
▁Hydro	-12.5096
nodaal	-12.5096
rinewegen	-12.5096
▁insnoering	-12.5097
elaatsdysmorfien	-12.5097
getrokken	-12.5097
rachiocephalicus	-12.5097
regulatie	-12.5097
stimulatie	-12.5097
tracranieel	-12.5097
ymfoplasmocytair	-12.5097
▁Enerzijds	-12.5097
▁Heupkop	-12.5097
▁Ribfracturen	-12.5097
▁aangesneden	-12.5097
▁brokkelig	-12.5097
▁cervicitis	-12.5097
▁dermatomycose	-12.5097
▁ecchymosen	-12.5097
▁exclusionem	-12.5097
▁losgelaten	-12.5097
▁obturatoria	-12.5097
▁resorberend	-12.5097
▁schedeldak	-12.5097
▁vacuum	-12.5097
▁verbleking	-12.5097
▁verzorgd	-12.5097
▁gangreen	-12.5097
▁voelen	-12.5097
schimmen	-12.5097
▁Hydronefrose	-12.5097
▁somber	-12.5097
▁vascularisatie	-12.5097
▁apnoe	-12.5097
spuiten	-12.5097
▁granulopoiese	-12.5097
▁hemofagocytose	-12.5097
▁rontgenfoto	-12.5097
▁Ruiterembolus	-12.5097
▁inmonding	-12.5097
▁chemie	-12.5097
▁funiculus	-12.5097
▁dyskeratose	-12.5097
▁microcytaire	-12.5097
zijds	-12.5097
▁kapseldoorgroei	-12.5097
▁roker	-12.5097
▁pustel	-12.5097
tichting	-12.5097
▁cryptogen	-12.5097
▁cardiologisch	-12.5097
▁parotidectomie	-12.5098
▁interval	-12.5098
ortons	-12.5098
▁motiliteit	-12.5098
▁Anti	-12.5098
▁afvoer	-12.5098
▁overgangsgebied	-12.5099
▁pockets	-12.5099
▁femorales	-12.5099
▁zegelringcellen	-12.5099
▁sudden	-12.5099
▁Random	-12.5099
▁nates	-12.51
▁orchidectomie	-12.51
▁Lauw	-12.51
▁unit	-12.5101
epidermaal	-12.5101
engere	-12.5103
▁perinatal	-12.5103
bronchoalveolair	-12.5103
▁large	-12.5105
▁sporten	-12.5109
▁necrosehaardjes	-12.511
▁bovenzijde	-12.5111
▁bekkenwand	-12.5112
clonaal	-12.5113
▁Atypisch	-12.5114
▁miltkapsel	-12.5115
▁ovariumcyste	-12.5115
▁lymfvaten	-12.5117
satelliethaarden	-12.5118
▁steunt	-12.5122
result	-12.5122
▁genezend	-12.5124
hrombose	-12.5126
witte	-12.5152
athol	-12.5153
lacta	-12.517
lesie	-12.5173
▁reinfarcering	-12.5177
▁borstholte	-12.5179
vesical	-12.519
▁linkerzijwand	-12.52
iber	-12.5207
bevinding	-12.5207
▁fundustype	-12.5213
▁Bi	-12.5213
axial	-12.5227
lezen	-12.5227
▁mons	-12.5255
ulcera	-12.5262
gemengd	-12.5268
▁electro	-12.5288
immuno	-12.529
cervix	-12.5293
nefropathie	-12.5294
haematoom	-12.5294
doorbraak	-12.5294
Helicobacter	-12.5294
benigne	-12.5295
radicaal	-12.5295
▁restlaesie	-12.5295
fatty	-12.5295
▁sero	-12.53
lucht	-12.53
diafragma	-12.53
Colon	-12.5305
markers	-12.5313
myocardinfarct	-12.5318
▁klepblad	-12.5318
osieve	-12.5321
oornamelijk	-12.5322
gangsepitheelcel	-12.5323
▁doorsnijding	-12.5328
ecompliceerd	-12.5328
▁Hernia	-12.5329
verwegend	-12.533
▁schuim	-12.533
▁femoro	-12.533
ntwikkeling	-12.5331
▁huiddefect	-12.5331
wangerschap	-12.5331
marker	-12.5332
generatieve	-12.5332
▁objectiveerba	-12.5333
▁afstrijkba	-12.5333
vatslijden	-12.5334
antwoord	-12.5334
associat	-12.5334
laparatomie	-12.5335
parathyreoidie	-12.5335
▁Doorsneden	-12.5335
▁Etiologie	-12.5335
▁Extirpatie	-12.5335
▁Hysteroscopisch	-12.5335
▁afgebroken	-12.5335
▁behandelopties	-12.5335
▁bridging	-12.5335
▁configuratie	-12.5335
▁detecteerbaar	-12.5335
▁discontinu	-12.5335
▁epidurale	-12.5335
▁extracapsulair	-12.5335
▁floride	-12.5335
▁fumigatus	-12.5335
▁gesitueerd	-12.5335
▁intermitterend	-12.5335
▁polycythaemi	-12.5335
Anderson	-12.5335
▁condyloom	-12.5335
▁miniscu	-12.5335
▁polydactylie	-12.5335
▁uitwijzen	-12.5335
▁voorstelbaar	-12.5335
ymfoplasmacytair	-12.5335
▁effusie	-12.5335
cflp	-12.5335
▁disseminatie	-12.5335
▁support	-12.5335
▁griep	-12.5335
▁ortho	-12.5335
ibreuze	-12.5335
▁Aangevuld	-12.5335
▁staafjes	-12.5335
▁perirectale	-12.5336
▁whi	-12.5337
▁slijmstase	-12.5337
estis	-12.5338
▁gebruikelijk	-12.534
udden	-12.5342
▁omheen	-12.5342
▁loopstoornissen	-12.5342
▁thromboembolus	-12.5343
▁periportaal	-12.5343
▁placentavolume	-12.5344
▁uitgegaan	-12.5344
kwabsbronchus	-12.5345
▁slijmvorming	-12.5346
▁lekkend	-12.5346
bronchiolo	-12.5346
▁botten	-12.5347
arianten	-12.5356
bovenkwab	-12.5357
11-10	-12.5358
▁tromboembolieen	-12.536
▁teveel	-12.5364
staart	-12.5367
athology	-12.5367
▁stijgende	-12.5371
caal	-12.5376
▁Ingesloten	-12.5377
2102	-12.5378
iseren	-12.538
▁dak	-12.5382
▁bip	-12.5383
oster	-12.5383
▁punten	-12.5386
ono	-12.5387
▁ws	-12.5387
Lys	-12.539
ammaweefsel	-12.539
▁blaasbiopt	-12.5396
proliferatiefase	-12.5405
▁vaatlaesie	-12.5405
sinus	-12.5407
▁verloopt	-12.5409
▁vochtig	-12.542
fibrinedepositie	-12.5429
cervixslijmvlies	-12.5432
slechts	-12.5432
cum	-12.5434
▁bloedtransfusie	-12.5439
risatie	-12.5439
ront	-12.5439
▁trial	-12.5442
liggende	-12.5457
septumruptuur	-12.547
gevallen	-12.5471
homonas	-12.5471
voorziening	-12.5479
angiomateuze	-12.5487
hing	-12.5488
control	-12.5497
ventrale	-12.5513
omato	-12.5542
rasmus	-12.5542
motor	-12.5543
patholoog	-12.5547
wijk	-12.5548
posterior	-12.555
bloedinkjes	-12.555
binnen	-12.5551
hypertrofisch	-12.5551
▁Abortus	-12.5551
organiserende	-12.5553
stant	-12.5556
▁keten	-12.5559
tamponnade	-12.556
kwadrant	-12.5565
▁correct	-12.5568
inimaal	-12.5571
ucosa	-12.5571
macro	-12.5572
yelum	-12.5572
traumatisch	-12.5573
reventie	-12.5575
▁roze	-12.5575
▁uitbreiden	-12.5576
▁plavei	-12.5577
aagcorpusbiopten	-12.5577
blastoom	-12.5578
ibreus	-12.5578
bundeltakblok	-12.5579
tanford	-12.5579
verkazende	-12.5579
▁Abstinerend	-12.5579
▁Controle	-12.5579
▁Galstenen	-12.5579
▁Legionella	-12.5579
▁aangezicht	-12.5579
▁diurese	-12.5579
▁doorgebeld	-12.5579
▁epidermidis	-12.5579
▁erytrocyturie	-12.5579
▁glabella	-12.5579
▁glabrata	-12.5579
▁glycogeen	-12.5579
▁hyperthermie	-12.5579
▁intervillositis	-12.5579
▁lethale	-12.5579
▁malleolus	-12.5579
▁neuroloog	-12.5579
▁planocellulair	-12.5579
▁strangulatie	-12.5579
▁stridor	-12.5579
▁verdrinking	-12.5579
▁vulnerabel	-12.5579
▁weigerde	-12.5579
▁endometritis	-12.5579
▁vitium	-12.5579
▁resulteerde	-12.5579
▁ballonpomp	-12.5579
▁bijtfibroom	-12.5579
▁aangeven	-12.5579
▁aanvoerend	-12.5579
▁tentamen	-12.5579
▁cystoscopie	-12.5579
▁Cardiomegalie	-12.5579
▁concha	-12.5579
▁beneden	-12.5579
▁opportunistisch	-12.5579
▁retina	-12.5579
▁wenselijk	-12.5579
▁sarcoid	-12.5579
▁lichaamshelft	-12.5579
▁hechtmateriaal	-12.5579
▁zinvol	-12.5579
▁toxic	-12.5579
▁spits	-12.5579
▁Levercirrose	-12.558
▁lymfoma	-12.558
globuli	-12.558
▁gecomp	-12.558
▁hersenschade	-12.558
▁1220	-12.5581
▁vaatrijk	-12.5581
▁medebeoordeling	-12.5582
▁hoofdstammen	-12.5582
▁erytroid	-12.5582
▁broer	-12.5582
▁longemphyseem	-12.5582
ected	-12.5582
▁duiding	-12.5583
▁hyperemie	-12.5583
RDIA	-12.5585
▁prerenaal	-12.5586
▁subklinisch	-12.5589
macrotest	-12.5593
▁exact	-12.5594
cla	-12.5596
eelsen	-12.5598
timahyperplasie	-12.56
ranulomateuze	-12.5604
▁atrial	-12.5604
▁samenhangt	-12.5605
▁wo	-12.5606
ureterectomie	-12.5607
aginale	-12.5613
▁darmdeel	-12.5613
▁levercysten	-12.5618
peratie	-12.5625
celtumor	-12.5631
▁microvasculair	-12.5633
oto	-12.5634
mol	-12.5636
▁mediagebied	-12.5637
emia	-12.5644
▁immun	-12.5645
stress	-12.5652
cilinders	-12.5656
▁apocrien	-12.5665
▁Dag	-12.5666
pidermale	-12.5667
-10-12	-12.5678
▁lek	-12.5683
fc	-12.5685
-01-12	-12.5698
▁pulmonalisklep	-12.5701
▁necro	-12.5706
▁gedi	-12.572
strijk	-12.572
▁cysto	-12.5721
reslowdikte	-12.5726
fragmentje	-12.5729
▁revalidatie	-12.573
▁Drietaks	-12.5735
ibro	-12.5742
ratio	-12.5744
-10-10	-12.575
▁normal	-12.576
gevoegd	-12.576
▁antistollings	-12.5765
erbloeding	-12.5773
ammaexcisie	-12.5778
enkel	-12.5784
welke	-12.5787
ertijd	-12.5789
cirrhose	-12.5796
pneumo	-12.5804
calcificatie	-12.5807
depressie	-12.5809
betreffende	-12.581
▁lithium	-12.5811
▁cardiomyocyt	-12.5812
prolaps	-12.5813
dysfunctie	-12.5813
maternal	-12.5813
agonale	-12.5814
Daarnaast	-12.5814
bestraling	-12.5817
stasis	-12.5817
chirurg	-12.5818
extravasatie	-12.5821
myopathie	-12.5823
schimmel	-12.5825
toediening	-12.5826
▁exostose	-12.5829
cadherine	-12.5829
coagulopathie	-12.5829
hodgkin	-12.5829
infestatie	-12.5829
▁Actinisch	-12.5829
▁Chirurgisch	-12.5829
▁Laaggradig	-12.5829
▁angiomyolipoom	-12.5829
▁astrocytair	-12.5829
▁brochopneumonie	-12.5829
▁getypeerd	-12.5829
▁homozygot	-12.5829
▁hypoglycemie	-12.5829
▁laryngectomie	-12.5829
▁oncologisch	-12.5829
▁subthalamicus	-12.5829
▁gynaecologische	-12.5829
▁polyclonale	-12.5829
▁trabeculatie	-12.5829
oesophageaal	-12.5829
▁bloedingsfoci	-12.5829
▁gazen	-12.5829
▁Bloederig	-12.5829
▁motiel	-12.5829
▁stafylokokken	-12.5829
▁periadnexa	-12.5829
▁tablet	-12.5829
▁afgrensba	-12.5829
▁papillomatose	-12.5829
▁enzymproef	-12.5829
▁fimbriae	-12.5829
▁kapjes	-12.5829
▁retrospect	-12.5829
▁triple	-12.5829
▁gedifferen	-12.5829
▁meegenomen	-12.5829
▁tuberculosis	-12.5829
olipectomie	-12.5829
▁staphylococcen	-12.5829
▁pacemakerdraad	-12.5829
▁Grootcellig	-12.5829
geduid	-12.583
▁cornair	-12.583
▁descenderend	-12.583
[...]
