<unk>	0
<s>	0
</s>	0
[PAD]	0
[UNK]	0
[CLS]	0
[MASK]	0
[C-SEP]	0
.	-2.6844
▁de	-3.44304
▁van	-3.603
▁een	-3.68564
,	-3.78598
▁met	-3.98447
▁en	-3.99094
▁in	-4.08913
▁het	-4.17998
:	-4.33491
▁geen	-4.45273
▁	-4.48173
▁bij	-4.55053
▁(	-4.6705
▁is	-4.96371
▁voor	-4.97802
-	-5.02718
e	-5.07834
▁er	-5.1434
▁op	-5.19855
▁werd	-5.2837
)	-5.32715
▁was	-5.58665
▁niet	-5.60324
▁beeld	-5.63082
▁obductie	-5.70744
▁rechts	-5.71098
▁links	-5.76225
▁-	-5.82094
▁na	-5.85487
▁linker	-5.85835
▁zijn	-5.90295
▁aan	-5.98107
).	-5.98229
▁afwijkingen	-5.98305
▁patient	-6.00338
▁oud	-6.00412
▁onderzoek	-6.00879
▁uitgebreide	-6.02032
▁ook	-6.02527
▁overlijden	-6.02568
▁gezien	-6.03263
▁of	-6.03898
carcinoom	-6.04799
▁maligniteit	-6.05704
▁rechter	-6.08524
▁hart	-6.10842
▁te	-6.11305
▁worden	-6.12907
▁als	-6.12978
▁tot	-6.13467
▁ontsteking	-6.1349
/	-6.13814
▁passend	-6.14434
▁deze	-6.14438
▁zonder	-6.16179
▁overleden	-6.16907
▁aanwijzingen	-6.17076
s	-6.17564
▁jaar	-6.18791
▁door	-6.21773
▁longen	-6.22039
▁aangetroffen	-6.2223
▁man	-6.23039
▁geworden	-6.26642
▁lever	-6.28174
▁kan	-6.31361
;	-6.33019
▁dit	-6.35151
▁tekenen	-6.37498
▁wordt	-6.40616
▁betreft	-6.40879
▁cm	-6.41412
▁gevonden	-6.43307
):	-6.43915
▁i	-6.45513
en	-6.4645
d	-6.46621
▁huidexcisie	-6.51296
▁geringe	-6.53717
▁mogelijk	-6.55864
▁die	-6.56781
▁vrouw	-6.57817
▁microscopisch	-6.58752
▁ventrikel	-6.60297
▁gram	-6.61177
▁t	-6.62014
▁tumor	-6.62343
▁tevens	-6.62953
▁*******	-6.64597
▁veranderingen	-6.65405
▁waarschijnlijk	-6.66495
▁basis	-6.68536
▁status	-6.6894
▁adenocarcinoom	-6.69044
▁waren	-6.69403
▁onder	-6.71821
▁zeer	-6.72671
▁basaalcel	-6.72908
▁werden	-6.74267
▁sprake	-6.75751
▁atherosclerose	-6.76325
▁acute	-6.76817
▁dysplasie	-6.77109
v	-6.77142
▁ernstige	-6.77228
▁chronische	-6.78731
▁zie	-6.79267
▁toonde	-6.82731
▁pneumonie	-6.83101
▁dat	-6.8333
▁long	-6.83589
▁goed	-6.83724
▁waarbij	-6.83906
▁vrij	-6.85053
▁huidbiopt	-6.85094
▁aorta	-6.85141
▁ter	-6.87491
▁patiente	-6.87623
▁bekend	-6.88201
▁epicrise	-6.88546
▁verder	-6.91594
▁sepsis	-6.91883
▁opgenomen	-6.92345
▁bevindingen	-6.92527
jarige	-6.92725
▁2	-6.93681
▁milt	-6.94295
▁d	-6.94492
▁1	-6.94502
▁toont	-6.95029
▁recente	-6.96506
a	-6.9717
▁beiderzijds	-6.97238
▁naar	-6.99068
▁enkele	-6.99382
t	-6.99784
▁bloeding	-7.01787
▁*	-7.01979
▁infarct	-7.02148
▁biopten	-7.02244
▁uit	-7.03551
▁beide	-7.04552
▁carcinoom	-7.04693
▁myocardinfarct	-7.04796
▁a	-7.04995
▁kunnen	-7.06848
▁passen	-7.07462
gedifferentieerd	-7.08503
▁3	-7.09149
▁ten	-7.09349
▁myocard	-7.09413
▁stuwing	-7.09757
▁nieren	-7.10077
▁klinisch	-7.12286
▁dagen	-7.12703
▁g	-7.12947
▁volgt	-7.13967
bronchopneumonie	-7.14785
▁hersenen	-7.15165
▁echter	-7.16757
▁huid	-7.1703
▁conclusie	-7.17506
▁name	-7.17836
▁nog	-7.17979
▁waarin	-7.18057
▁kleine	-7.1833
▁biopt	-7.19132
▁verricht	-7.19547
▁wel	-7.19731
voorgeschiedenis	-7.20326
▁deels	-7.20473
▁materiaal	-7.21027
▁excisie	-7.21148
▁heeft	-7.21605
▁ii	-7.22168
▁weken	-7.23537
▁aanwezig	-7.24961
▁gevolg	-7.27036
m	-7.27245
▁actieve	-7.27467
isch	-7.28485
▁waarvoor	-7.31447
▁infarcering	-7.32228
▁focaal	-7.32349
▁type	-7.32562
n	-7.32578
▁duidelijke	-7.3285
▁klinische	-7.33533
▁maar	-7.33883
ii	-7.34591
▁insufficientie	-7.35175
▁nier	-7.35811
▁colon	-7.36146
▁fibrose	-7.36353
▁prostaat	-7.36419
▁mm	-7.3645
▁ischemie	-7.36777
▁gevolge	-7.36877
▁wat	-7.38509
▁maag	-7.39342
▁dan	-7.39554
▁oorzaak	-7.39681
▁cordis	-7.40379
▁matige	-7.40707
▁verband	-7.40752
),	-7.41393
g	-7.4145
▁4	-7.41616
▁verwijderd	-7.41799
▁bloed	-7.42085
▁grote	-7.42154
▁definitieve	-7.42851
us	-7.44279
▁reactieve	-7.44292
▁metastase	-7.45166
▁forse	-7.45398
▁matig	-7.45457
▁lymfklier	-7.46018
b	-7.46081
▁darm	-7.46147
▁oude	-7.47119
▁aanvullend	-7.47695
▁meer	-7.47696
▁verklaren	-7.47854
▁enige	-7.47882
▁past	-7.48122
▁plaatse	-7.49116
▁uitgebreid	-7.49181
▁naevus	-7.49254
▁cardiale	-7.4967
▁lymfklieren	-7.49836
▁voorts	-7.50133
▁tonen	-7.50288
▁lokalisatie	-7.50288
▁sterk	-7.50676
▁b	-7.50954
▁groeiend	-7.51727
▁diagnose	-7.52319
▁zou	-7.53087
▁doodsoorzaak	-7.53494
▁groei	-7.53566
▁hypertrofie	-7.54128
▁hypertensie	-7.54186
▁organen	-7.54612
▁metastasen	-7.54686
▁hebben	-7.55488
▁normaal	-7.5623
▁diameter	-7.57078
▁plaveiselcel	-7.57563
▁gr	-7.57704
▁recent	-7.57959
▁daarnaast	-7.57972
▁decompensatio	-7.59014
▁negatief	-7.59138
▁dood	-7.5915
▁pleuravocht	-7.59621
▁uur	-7.59696
2	-7.60288
▁bleek	-7.60505
▁intra	-7.60748
▁shock	-7.61356
▁aanvulling	-7.61511
▁overleed	-7.61543
▁macroscopisch	-7.62069
▁reanimatie	-7.62503
▁zij	-7.62603
▁laesie	-7.62731
▁acuut	-7.63138
▁c	-7.6394
▁arteria	-7.64645
▁oedeem	-7.65197
▁hij	-7.6591
▁microscopie	-7.67802
▁andere	-7.68008
▁respiratoire	-7.68225
▁aneurysma	-7.68543
▁/	-7.68591
le	-7.6889
▁mamma	-7.69822
▁conform	-7.69861
coronairsclerose	-7.70559
▁overige	-7.70671
▁nodulair	-7.70738
▁achterwand	-7.71063
▁5	-7.71385
▁over	-7.71453
c	-7.71568
▁ischaemie	-7.71698
p	-7.72995
▁bericht	-7.73426
1	-7.73959
▁gewicht	-7.74518
de	-7.74582
▁dunne	-7.74986
▁pancreas	-7.75542
▁aanwezigheid	-7.77864
▁ontstaan	-7.779
▁groot	-7.77934
▁beenmerg	-7.78389
▁meerdere	-7.78405
▁aangetoond	-7.78416
▁multipele	-7.78691
▁kader	-7.79012
▁zich	-7.79506
▁sterke	-7.79707
▁hier	-7.80031
▁histologisch	-7.80094
▁alle	-7.80141
▁positief	-7.80248
▁p	-7.8045
▁maligne	-7.80587
▁necrose	-7.80757
▁coronair	-7.8104
?	-7.81077
▁dag	-7.81127
▁welke	-7.82407
▁opname	-7.82976
▁ca	-7.83182
gewicht	-7.83272
aanvulling	-7.84772
▁endometrium	-7.85336
▁6	-7.85358
in	-7.85704
▁resectie	-7.85761
▁jarige	-7.86072
▁zowel	-7.86576
▁toonden	-7.86594
▁verdenking	-7.87969
i	-7.88187
▁aspiratie	-7.89117
▁vermoedelijk	-7.89246
▁stenose	-7.89476
▁lad	-7.89705
▁placenta	-7.89933
▁diffuse	-7.89954
▁klein	-7.90009
▁atypie	-7.9007
▁wegens	-7.90115
▁verruca	-7.90557
▁metaplasie	-7.90603
▁infectie	-7.91138
▁afwijking	-7.91397
▁zien	-7.91964
▁geheel	-7.93031
▁combinatie	-7.93364
▁al	-7.9338
▁kenmerken	-7.93694
▁twee	-7.93708
▁hyperplasie	-7.9413
▁graad	-7.94183
▁veel	-7.94207
▁slijmvlies	-7.94232
▁lymfoom	-7.94957
▁meest	-7.95494
▁hierbij	-7.96875
▁onderkwab	-7.97001
▁had	-7.97228
▁longoedeem	-7.97287
▁foetus	-7.97336
▁naevocellularis	-7.98355
▁hetgeen	-7.98502
biopten	-7.98636
ische	-7.99251
▁vaten	-8.00366
▁peritonitis	-8.01141
▁linkerventrikel	-8.01779
▁uiteindelijk	-8.02599
▁1.	-8.02679
▁verklaard	-8.03133
▁beginnende	-8.0367
▁geweest	-8.03912
hypertrofie	-8.04384
zie	-8.04425
▁geleid	-8.04861
▁situ	-8.04879
▁bevestigd	-8.05002
▁doorgemaakte	-8.05386
▁onvoldoende	-8.05505
▁reeds	-8.06646
▁iii	-8.07005
▁weinig	-8.07264
▁seborrhoica	-8.07339
▁om	-8.07966
▁lijkt	-8.0808
▁dilatatie	-8.0883
▁cellen	-8.0943
▁schade	-8.09485
l	-8.09705
▁ischemische	-8.10095
▁bekende	-8.10238
▁uitslag	-8.10247
▁rug	-8.1056
▁pathologie	-8.10618
▁2.	-8.107
▁daarbij	-8.10831
▁we	-8.10845
▁s	-8.11251
er	-8.11408
▁tijdens	-8.11449
▁slecht	-8.11566
▁uitgesloten	-8.11634
▁specifieke	-8.11689
▁waarna	-8.1176
▁adenoom	-8.11848
▁gevolgen	-8.11881
▁weefsel	-8.1207
▁kon	-8.12254
▁oesophagus	-8.12646
▁morb	-8.12975
▁pa	-8.13058
▁uitbreiding	-8.13459
▁10	-8.1348
▁pulmonale	-8.13738
▁blaas	-8.13915
r	-8.1398
▁eerder	-8.14443
▁ascites	-8.14492
▁buik	-8.14661
h	-8.14805
▁ernstig	-8.14856
▁solide	-8.15362
▁helicobacter	-8.16058
▁m	-8.16169
▁chronisch	-8.16465
▁derhalve	-8.17225
▁wand	-8.17604
▁postmortaal	-8.17882
▁intestinale	-8.18031
▁duidelijk	-8.18171
▁behandeling	-8.18198
▁benigne	-8.18421
▁betrof	-8.18874
▁circa	-8.18994
▁dermale	-8.19413
▁boven	-8.19871
▁u	-8.19915
▁gebied	-8.20289
▁congenitale	-8.20577
3	-8.20881
▁n	-8.21079
▁aspect	-8.21198
▁neuropatholog	-8.21829
▁duodenum	-8.22742
▁perforatie	-8.22907
▁gering	-8.22941
▁primaire	-8.23432
▁superficieel	-8.23607
▁zoals	-8.23677
▁gemetastaseerd	-8.23942
▁evidente	-8.24109
▁hoogte	-8.24183
▁plaatselijk	-8.24278
▁bestaande	-8.24389
▁schildklier	-8.24763
▁verslag	-8.24801
▁3.	-8.24831
▁septum	-8.25243
▁atrofie	-8.25847
▁massale	-8.26032
▁litteken	-8.26452
▁ongeveer	-8.26798
▁hoog	-8.27327
▁verklaring	-8.27447
▁waarvan	-8.27528
▁vastgesteld	-8.27926
▁poliep	-8.28976
▁rest	-8.29017
o	-8.29225
excisie	-8.29294
▁12	-8.29327
▁cyste	-8.29542
▁atherosclerot	-8.29821
▁deel	-8.30208
'	-8.3031
▁hals	-8.30332
▁gelegen	-8.30567
▁micro	-8.30836
▁radicaal	-8.30837
▁cc	-8.31431
ie	-8.31772
insufficientie	-8.31825
▁minder	-8.3198
gegeneraliseerde	-8.32712
▁naast	-8.33282
▁copd	-8.33299
▁focus	-8.33522
▁hartfalen	-8.3356
▁gedilateerd	-8.3377
▁bovenkwab	-8.338
geen	-8.33855
▁tussen	-8.3409
▁diffuus	-8.3431
▁vocht	-8.34419
▁re	-8.34885
▁7	-8.35307
al	-8.35877
▁galblaas	-8.35985
▁atypische	-8.36572
▁overwogen	-8.36643
▁longembolieen	-8.36661
▁aanvullende	-8.37244
▁bijzonderheden	-8.37355
▁gedacht	-8.37734
▁reikend	-8.3793
▁sigmoid	-8.38357
▁licht	-8.3843
f	-8.38771
▁septische	-8.38823
▁bloedingen	-8.3895
▁fors	-8.38964
▁steatose	-8.39107
▁wij	-8.39182
▁syndroom	-8.39215
▁sinds	-8.39332
▁z	-8.39888
▁ontwikkelde	-8.40011
▁l	-8.40346
▁*******,	-8.40372
▁v	-8.40478
▁zal	-8.40538
▁consult	-8.40662
▁veroorzaakt	-8.40688
▁epitheel	-8.40936
▁8	-8.4115
▁pleura	-8.41494
▁cardiomyopathie	-8.41534
▁o	-8.41547
▁hiervan	-8.42448
cel	-8.42758
ve	-8.42906
▁rond	-8.42952
▁operatie	-8.43339
▁keratose	-8.43556
▁punctie	-8.43588
▁langer	-8.43645
▁pylori	-8.43939
▁multi	-8.44156
▁aortaklep	-8.44509
▁normale	-8.45067
▁diabetes	-8.4514
▁abdominale	-8.45207
▁sectie	-8.45483
▁falen	-8.45556
▁proces	-8.45999
▁4.	-8.46238
▁ischaemische	-8.46516
▁drie	-8.46696
preparaat	-8.46753
▁cabg	-8.46776
▁sclerose	-8.46909
▁delen	-8.47124
▁coupes	-8.47709
▁tractus	-8.48136
▁uterus	-8.48636
▁coronairarterie	-8.48691
▁voorwand	-8.48862
▁ruptuur	-8.48962
▁rectum	-8.48985
▁hypertrofisch	-8.49046
▁longembolie	-8.49226
▁primair	-8.49239
▁carcinomatosa	-8.49257
links	-8.49501
▁inwendig	-8.49881
▁definitief	-8.49914
▁beleid	-8.50043
▁alsmede	-8.50087
▁immuunhistochem	-8.50095
ste	-8.50136
▁thrombus	-8.50146
▁opgetreden	-8.50269
te	-8.50294
▁eerste	-8.50426
▁revisie	-8.50704
▁vetweefsel	-8.50825
▁samenvattend	-8.50889
▁slechts	-8.51172
▁week	-8.51661
▁lichte	-8.51666
▁ml	-8.51793
k	-8.51808
(	-8.51919
▁dissectie	-8.51933
▁differentiaal	-8.5196
stoornissen	-8.52203
▁eerdere	-8.52447
▁elders	-8.52463
▁gegevens	-8.52618
re	-8.52815
iii	-8.5315
▁kleuring	-8.53539
▁laaggradige	-8.53748
▁ascendens	-8.53934
▁verspreid	-8.54228
▁hpv	-8.54438
▁moet	-8.54507
▁pancreatitis	-8.54514
▁arterie	-8.5461
▁aantoonbaar	-8.54655
▁maanden	-8.54708
x	-8.54935
▁invasieve	-8.5515
▁component	-8.55234
▁cardiaal	-8.55555
▁eveneens	-8.5557
▁gehele	-8.5576
4	-8.55764
▁doorgankelijk	-8.5622
▁diagnostisch	-8.56921
▁vanwege	-8.56984
▁actinisch	-8.57236
▁gecompliceerd	-8.57485
▁e	-8.58181
▁mutatie	-8.58421
▁ge	-8.58492
▁snijvlakken	-8.58625
▁zijde	-8.58794
ing	-8.59046
▁distale	-8.59496
▁onderbeen	-8.59507
▁granulocyten	-8.5957
▁argumenten	-8.59572
▁haarden	-8.59752
▁colitis	-8.59801
▁interstitiele	-8.59865
▁melanoom	-8.59897
▁vergroot	-8.59946
▁abdominalis	-8.60328
▁ulcus	-8.60723
▁infarcten	-8.60729
▁concluderend	-8.608
▁emfyseem	-8.60819
▁pre	-8.61097
▁metastasering	-8.61575
▁urine	-8.62144
▁verdacht	-8.62217
▁ramus	-8.62251
▁her	-8.62708
▁slechte	-8.6291
▁cervix	-8.63065
▁ductaal	-8.63166
▁analyse	-8.63509
▁voorkeur	-8.63513
▁ondanks	-8.63614
▁corpus	-8.63988
▁grootcellig	-8.64431
▁voorlopige	-8.64448
▁liter	-8.64456
▁behouden	-8.64599
▁infiltrerend	-8.64646
▁recidief	-8.6475
▁+	-8.64802
▁weke	-8.64936
▁dd	-8.65001
▁descendens	-8.65052
▁kleincellig	-8.65138
▁toestemming	-8.6519
▁causa	-8.65381
▁lumen	-8.65392
▁mellitus	-8.65516
▁toename	-8.65911
wangerschapsduur	-8.65991
▁h	-8.6616
▁afkomstig	-8.66187
▁uitgesproken	-8.66188
▁iv	-8.66306
▁marge	-8.66333
▁basale	-8.66401
▁terminale	-8.66509
▁nummer	-8.66789
▁stent	-8.67476
▁urotheelcel	-8.6761
▁15	-8.6762
▁toch	-8.67682
▁5.	-8.67765
coronairarterien	-8.68069
▁beoordelen	-8.68226
biopt	-8.68299
▁vorm	-8.6835
▁behandeld	-8.68422
▁20	-8.68454
▁vrijwel	-8.6868
▁nodulaire	-8.68726
▁bijnieren	-8.68851
▁bilaterale	-8.68919
▁hersenobductie	-8.69204
▁hoeveelheid	-8.69435
▁digestivus	-8.69499
▁snijvlak	-8.6963
▁localisatie	-8.69681
▁diagnostiek	-8.69694
▁volledig	-8.6982
▁afsluiting	-8.70053
▁wang	-8.7009
▁mortis	-8.70191
▁nader	-8.7028
▁ct	-8.70485
▁samen	-8.7097
▁coronairen	-8.7108
diameter	-8.71096
▁doch	-8.71565
▁perineurale	-8.71805
▁alveolaire	-8.71852
▁9	-8.71958
▁secundair	-8.71984
▁dyspnoe	-8.72331
▁daar	-8.72462
▁x	-8.73172
▁leeftijd	-8.73473
▁ldh	-8.7356
▁opvallende	-8.73571
▁ziekte	-8.73637
▁para	-8.73709
▁11	-8.74086
▁mammacarcinoom	-8.74731
▁zekerheid	-8.74736
pre	-8.74809
0	-8.75293
▁rca	-8.75297
▁ver	-8.75501
▁later	-8.75593
▁non	-8.75909
▁microscopische	-8.7594
▁arterien	-8.76028
▁centraal	-8.76142
met	-8.76521
▁snede	-8.76623
▁bijnier	-8.76644
▁morfologisch	-8.7668
▁minimale	-8.76759
▁nieuwe	-8.76974
▁necrotiserende	-8.77068
▁positieve	-8.77357
▁pericard	-8.77453
▁pijn	-8.77526
▁afwijkend	-8.77607
▁sprieterig	-8.77663
▁blijkt	-8.77954
5	-8.78202
▁temporaal	-8.78518
▁lateraal	-8.78599
▁doorgroei	-8.78689
▁ovarium	-8.78927
▁bovenstaande	-8.79129
▁distaal	-8.79154
▁papillair	-8.79176
▁tubulair	-8.79188
▁schouwing	-8.79226
▁verhoogd	-8.79234
▁resectievlak	-8.79646
▁vena	-8.79808
▁gebieden	-8.80238
y	-8.80834
▁waardoor	-8.81031
▁volgens	-8.8105
▁zijwand	-8.81345
▁pulmonalis	-8.81485
▁samengestelde	-8.81486
▁myocarditis	-8.81509
▁post	-8.8152
▁mediastinum	-8.81634
▁mannelijke	-8.81773
▁macroscopische	-8.81845
20	-8.81877
.^	-8.81896
▁uitwendig	-8.82189
▁opvallend	-8.8222
▁gestuwd	-8.82478
▁oesofagus	-8.82616
▁ileum	-8.82702
▁reikt	-8.82999
▁trachea	-8.8304
▁anatomische	-8.83463
op	-8.83477
▁darmen	-8.83946
slijmvlies	-8.84131
▁buikholte	-8.84211
▁koorts	-8.8422
▁bovenbeen	-8.84229
▁neuro	-8.84289
neu	-8.84709
▁proximale	-8.84764
▁borst	-8.8491
▁bestond	-8.84989
▁kort	-8.85473
▁inklemming	-8.85686
cm	-8.86033
▁endocarditis	-8.8605
▁oudere	-8.8623
ritmestoornissen	-8.86233
lichaamsobductie	-8.86255
▁best	-8.86339
▁aanwijzing	-8.86423
bij	-8.86426
▁biopsie	-8.86528
▁pericarditis	-8.86543
▁therapie	-8.86703
▁oppervlakkige	-8.86747
▁purulente	-8.87077
▁beschreven	-8.8713
▁eventuele	-8.87337
uteriene	-8.87564
▁hierin	-8.87589
▁trombus	-8.87657
▁plaques	-8.87761
▁hiervoor	-8.87853
▁oppervlakkig	-8.87963
);	-8.87964
▁cerebellum	-8.8805
▁klachten	-8.88173
▁verse	-8.88228
rechts	-8.88383
▁ulceratie	-8.88526
ar	-8.88593
cholecystectomie	-8.88662
▁immunohistochem	-8.88671
▁significante	-8.88717
ca	-8.88723
▁rondom	-8.88742
pneumonie	-8.88912
▁13	-8.88931
▁6.	-8.88951
▁1,5	-8.89078
▁helder	-8.89106
▁uitwendige	-8.89189
▁autolyse	-8.89323
▁schedelobductie	-8.89651
▁cerebrale	-8.9005
▁voorhoofd	-8.90287
▁kweken	-8.90949
▁progressieve	-8.91015
na	-8.91219
resectie	-8.91323
▁zeker	-8.91444
▁decompensatie	-8.91508
▁totale	-8.91567
▁gemacereerde	-8.91649
▁gedilateerde	-8.91972
▁19	-8.91997
▁dikke	-8.92113
▁pt	-8.9233
z	-8.92405
▁enig	-8.92475
▁abdomen	-8.92555
▁mate	-8.92791
▁kweek	-8.92879
u	-8.93711
▁invasief	-8.93712
▁veneuze	-8.93756
▁plotseling	-8.94129
▁laterale	-8.94148
▁laatste	-8.94371
▁14	-8.94615
▁thorax	-8.94678
▁reactief	-8.94835
▁bodem	-8.94901
▁beloop	-8.9504
▁obstructie	-8.95116
▁abstinerend	-8.95283
▁hypoxie	-8.95366
▁totaal	-8.95389
▁ards	-8.95676
▁hoe	-8.9571
▁vaatlijden	-8.95965
▁antrum	-8.96004
▁longcarcinoom	-8.96028
▁proliferatie	-8.9613
▁iets	-8.96576
▁coronairlijden	-8.96801
▁moleculaire	-8.96811
▁vooral	-8.97144
▁resectievlakken	-8.97295
▁cd	-8.9734
▁vergrote	-8.97541
▁tenminste	-8.97583
▁nevenbevinding	-8.9764
wel	-8.97664
▁on	-8.97727
▁maximale	-8.98046
▁jaren	-8.98464
▁vrouwelijke	-8.98548
12	-8.98554
▁*******/	-8.98587
▁ileus	-8.98595
10	-8.98734
▁toto	-8.9898
▁coecum	-8.99092
▁overigens	-8.99434
▁overtuigende	-8.99519
▁schouder	-8.99584
▁hematoom	-8.99604
▁cerebrum	-8.99618
▁zwaar	-8.99629
▁frontaal	-8.99812
▁maagslijmvlies	-8.99864
rteriolosclerose	-8.99957
▁mede	-9.00033
▁organiserende	-9.00091
▁cva	-9.00147
▁occlusie	-9.00425
▁infiltratie	-9.00441
▁18	-9.0045
▁diepe	-9.00713
▁specifiek	-9.00913
ge	-9.0105
▁dermatitis	-9.0117
materiaal	-9.01405
▁geven	-9.0169
▁ritmestoornis	-9.01868
ze	-9.02086
se	-9.02648
▁bijkomende	-9.02775
▁bijgedragen	-9.02932
▁zekere	-9.03008
▁bowen	-9.03415
▁keratosis	-9.03548
▁st	-9.03652
of	-9.03718
▁chemotherapie	-9.03748
▁ik	-9.03753
▁ontvangt	-9.04203
▁toestand	-9.04382
beeld	-9.04388
▁infarceringen	-9.04419
invasieve	-9.04486
▁ruim	-9.04649
▁pathologisch	-9.04652
st	-9.04687
▁plaats	-9.05021
▁mogelijke	-9.05175
▁waar	-9.05276
▁diagnosen	-9.05288
▁colonslijmvlies	-9.05442
▁gestuwde	-9.05704
▁inderdaad	-9.05771
▁directe	-9.06073
▁perifeer	-9.06138
▁score	-9.06185
▁beoordeling	-9.06316
▁peri	-9.06397
▁proximaal	-9.0641
▁doorgemaakt	-9.06433
▁16	-9.06533
▁reactie	-9.06592
▁trivasculaire	-9.06842
▁neus	-9.07
▁algehele	-9.07112
▁gleason	-9.07179
▁overwegend	-9.07201
▁aanknopingspunt	-9.07281
▁hoge	-9.07289
▁vermeld	-9.07447
▁bespreking	-9.07626
▁geduid	-9.07658
▁ingroei	-9.07682
▁voornamelijk	-9.07846
▁iliaca	-9.08074
▁eventueel	-9.08247
▁cytologisch	-9.08272
▁verklaart	-9.08301
▁diverse	-9.08472
▁beperkte	-9.08549
▁overleg	-9.08666
▁abcederende	-9.08774
▁media	-9.08947
▁postoperatief	-9.08991
▁haar	-9.09089
▁schedelsectie	-9.09246
▁infiltraat	-9.09314
▁maagbiopten	-9.09403
▁oksel	-9.0968
▁kreeg	-9.09764
▁onderarm	-9.09865
▁24	-9.09941
▁overgang	-9.10233
▁anterior	-9.10393
▁amyloid	-9.10471
▁thoracale	-9.10502
▁hypertroof	-9.10558
▁bloedverlies	-9.1056
▁danwel	-9.10793
▁bronchus	-9.10884
▁gegeven	-9.10903
▁vooralsnog	-9.10925
▁haard	-9.10986
▁lengte	-9.11129
▁toenemend	-9.11249
▁gegeneraliseerd	-9.11266
▁arteriosclerose	-9.11341
▁separaat	-9.11955
▁bevinding	-9.12101
▁groeiwijze	-9.12158
▁actinica	-9.12399
▁antibiotica	-9.12399
metastasen	-9.12718
▁vanuit	-9.12833
▁onderging	-9.13048
w	-9.13156
▁substraat	-9.13204
▁ontbreken	-9.13204
▁haardvormige	-9.13295
▁hemorragische	-9.13401
▁achter	-9.13423
▁ontstond	-9.13498
▁vasculitis	-9.13612
6	-9.13888
▁vruchtdood	-9.13924
▁medisch	-9.14179
▁beoordeelbaar	-9.14293
▁lichaam	-9.14465
hyperplasie	-9.14669
▁littekenweefsel	-9.14673
▁afdeling	-9.1472
▁parenchym	-9.14781
▁tumorcellen	-9.14816
heid	-9.14818
tumor	-9.14891
▁plaatsen	-9.14892
▁pleuritis	-9.14937
▁harttamponade	-9.1494
▁dieper	-9.15027
▁hypertrofische	-9.15034
▁circulatie	-9.15152
▁trombo	-9.15173
▁hoofd	-9.15221
pa	-9.15356
▁snijranden	-9.15443
▁zichtbaar	-9.15473
invasie	-9.15512
▁superior	-9.15721
▁carcinoma	-9.15837
▁ontvangen	-9.16225
▁midden	-9.16356
▁stolsels	-9.16411
▁levercirrose	-9.16677
▁waarop	-9.16875
8	-9.16883
▁focale	-9.16988
▁ons	-9.17104
▁transversum	-9.17143
▁thrombo	-9.17148
▁ze	-9.17182
▁gecontraheerd	-9.17731
▁achteruitgang	-9.17795
▁mitralisklep	-9.17809
▁prothese	-9.1802
▁origine	-9.18038
▁laat	-9.18039
▁failure	-9.18095
▁macroscopie	-9.18454
▁afstand	-9.18483
organismen	-9.18527
▁thuis	-9.18556
7	-9.1856
▁longstuwing	-9.18667
infarcering	-9.18763
▁oppervlak	-9.18775
is	-9.18803
▁verleden	-9.18929
▁aantal	-9.19016
▁maturatie	-9.19023
linker	-9.19059
▁extra	-9.19324
▁appendectomie	-9.19513
▁nu	-9.19575
30	-9.19582
▁wervelkolom	-9.19619
naaldbiopten	-9.19747
▁hersenstam	-9.19989
▁sluiten	-9.20021
▁kleuringen	-9.20029
▁verminderde	-9.2003
▁asystolie	-9.20388
▁prostaatbiopten	-9.205
▁bovenarm	-9.20575
▁coronaire	-9.20672
▁diafragma	-9.20698
▁intact	-9.2072
on	-9.20736
▁gastritis	-9.20796
▁zware	-9.20871
embolieen	-9.2088
▁open	-9.21248
▁subendocardiale	-9.21252
▁gastro	-9.21292
tal	-9.21432
▁perifere	-9.21448
voor	-9.21496
▁diverticulitis	-9.21513
▁bekken	-9.21616
iv	-9.21693
18	-9.2186
14	-9.21981
▁granulomen	-9.22049
▁plaque	-9.22062
▁ad	-9.22081
▁af	-9.22463
▁21	-9.22494
▁longemfyseem	-9.22512
▁neutrofiele	-9.22675
▁uren	-9.22696
▁zagen	-9.22716
15	-9.22789
▁bypass	-9.22817
▁vonden	-9.22866
▁besloten	-9.23
▁ductus	-9.23108
orgaanfalen	-9.23231
▁thrombi	-9.23264
▁dient	-9.23317
▁fixatie	-9.23324
▁vast	-9.23423
▁lies	-9.23432
el	-9.23444
▁per	-9.23445
▁eosinofiele	-9.23544
▁hyperplastische	-9.23769
▁'	-9.23864
mw	-9.23939
▁abces	-9.24035
ter	-9.24259
▁stadium	-9.24508
▁gaarne	-9.24542
▁atrium	-9.24671
▁familie	-9.24712
▁hartinfarct	-9.24783
▁slap	-9.24938
▁vers	-9.24947
▁(*******	-9.25002
▁zover	-9.25006
▁*******.	-9.25036
bevindingen	-9.2528
▁dus	-9.25296
▁datum	-9.25356
▁17	-9.25409
▁leverstuwing	-9.25448
▁hepatitis	-9.25463
«	-9.25606
weefsel	-9.25609
▁sub	-9.25651
▁via	-9.25984
▁ivm	-9.26041
▁respiratoir	-9.2605
▁7.	-9.26065
▁vet	-9.2613
▁zwelling	-9.26159
▁foci	-9.26294
▁gekweekt	-9.26422
▁cortex	-9.26593
▁melanocytaire	-9.26645
▁been	-9.26714
▁hyper	-9.26761
▁blanco	-9.27039
▁mesenterica	-9.27058
▁shave	-9.27132
▁naaldbiopten	-9.2721
▁trombose	-9.27221
▁onderkwabben	-9.27254
▁mediastinale	-9.27369
▁tijd	-9.27472
▁witte	-9.27516
▁22	-9.27539
▁ontkleuring	-9.27572
deze	-9.27746
▁rol	-9.27761
>	-9.27851
▁middels	-9.27915
ale	-9.28019
▁mucosa	-9.28116
▁30	-9.28318
sinfiltraat	-9.28693
ook	-9.28835
▁grond	-9.28871
▁lijden	-9.29015
kleuring	-9.29217
▁hersensectie	-9.29332
▁ic	-9.2951
16	-9.29654
▁secundaire	-9.29702
▁kliniek	-9.29781
▁omentum	-9.29782
▁tweede	-9.29814
an	-9.29894
▁septisch	-9.30116
▁ziekenhuis	-9.30245
▁liet	-9.30451
▁=	-9.30461
lomerulosclerose	-9.30729
▁histologische	-9.30745
-1	-9.3075
▁pathologische	-9.31016
receptor	-9.31147
▁carotis	-9.31205
jaar	-9.31305
▁macrofagen	-9.31359
▁invasie	-9.31551
▁ulcererende	-9.31594
▁darmischemie	-9.31689
sche	-9.31796
▁coupe	-9.31807
▁thrombose	-9.31856
▁poliepectomie	-9.31969
rechter	-9.32169
▁laag	-9.32338
▁hartspier	-9.32459
▁cor	-9.32587
▁klep	-9.32848
▁daarna	-9.33015
23	-9.33067
▁enkel	-9.33207
▁zouden	-9.33245
▁relatief	-9.33246
▁70	-9.33337
▁toegenomen	-9.33421
▁arterio	-9.33531
"	-9.33557
ig	-9.33602
epitheliale	-9.3375
▁aanleiding	-9.33873
▁graft	-9.33933
▁geschat	-9.33972
▁rechterlong	-9.34147
het	-9.34189
▁oedemateus	-9.34636
▁waargenomen	-9.34637
laveiselepitheel	-9.34857
▁nierfunctie	-9.3488
▁fase	-9.34925
▁hodgkin	-9.34983
status	-9.35086
▁opgegeven	-9.35216
ten	-9.35277
▁bronchopneumoni	-9.3536
▁celbeeld	-9.35425
▁(2	-9.35639
▁indien	-9.35747
▁huidbiopsie	-9.35792
▁fragmenten	-9.35807
▁bevestigt	-9.35866
▁cerebri	-9.36024
▁snel	-9.36034
ed	-9.36145
▁80	-9.36153
▁suggestief	-9.36206
▁postmortale	-9.36266
▁be	-9.36369
▁granulomateuze	-9.36371
▁volgen	-9.36371
▁slokdarm	-9.36421
▁emfysemateuze	-9.36657
▁hemicolectomie	-9.36689
▁volledige	-9.36854
▁lymfocytaire	-9.36865
ul	-9.36879
▁gestart	-9.36885
▁cardio	-9.37007
at	-9.37144
▁hersenonderzoek	-9.37232
▁iuvd	-9.37271
▁abdominaal	-9.37273
▁vier	-9.37534
▁geruptureerd	-9.37676
▁levercirrhose	-9.37692
gen	-9.37765
▁eczeem	-9.37798
▁lichen	-9.3818
▁ingreep	-9.38217
j	-9.38289
▁bed	-9.38564
▁mitralis	-9.38812
▁zodat	-9.38841
▁vanaf	-9.38856
▁partiele	-9.39021
▁traject	-9.39039
▁egfr	-9.39072
▁kernen	-9.39089
▁bestaan	-9.3911
▁systeem	-9.39133
▁doorsnede	-9.39266
▁haemorrhagische	-9.39337
▁2,5	-9.39502
mm	-9.39622
▁bron	-9.39657
▁diep	-9.39661
▁pyelonefritis	-9.39675
▁val	-9.397
▁procedure	-9.39801
▁degeneratieve	-9.39834
▁berusten	-9.39856
▁noch	-9.40006
▁extern	-9.40024
necrose	-9.40139
▁k	-9.40161
▁instantie	-9.40237
fibrilleren	-9.40274
▁richting	-9.40305
▁ureter	-9.40396
06	-9.40482
rechterventrikel	-9.40499
▁embolieen	-9.40504
▁alleen	-9.40524
▁bronchitis	-9.4058
▁betreffende	-9.4061
▁bindweefsel	-9.40771
▁hartkamer	-9.40778
▁hooggradig	-9.40847
▁tur	-9.40883
ontstekingsbeeld	-9.41026
▁25	-9.41069
9	-9.4125
toevalsbevinding	-9.41319
onderzoek	-9.41455
▁colonbiopten	-9.41705
▁onduidelijk	-9.41778
▁retour	-9.41897
.*******	-9.41952
▁oedemateuze	-9.42017
▁respectievelijk	-9.42117
▁necrotisch	-9.42644
▁mesenterium	-9.42761
08	-9.42785
transplantatie	-9.42819
▁maand	-9.42824
▁conditie	-9.42902
▁coloncarcinoom	-9.43038
▁eosinofilie	-9.431
▁exon	-9.43131
▁ouderdom	-9.43193
▁lichenoide	-9.43281
▁aortae	-9.4332
▁moleculair	-9.43366
▁galwegen	-9.43369
▁r	-9.43408
▁oor	-9.4344
▁epidermale	-9.43445
▁dubbelzijdige	-9.43524
type	-9.43935
00	-9.44082
▁littekens	-9.44256
▁resten	-9.44327
▁lymfocyten	-9.44448
▁auto	-9.44469
lo	-9.44509
▁500	-9.4455
▁splenitis	-9.44598
▁onbekend	-9.44677
li	-9.44707
▁bepaling	-9.44709
▁gevuld	-9.44798
▁blijft	-9.45055
▁multifocaal	-9.45058
▁folliculair	-9.45255
oom	-9.45279
▁circumflexus	-9.45462
aanvullend	-9.45543
▁candida	-9.45632
▁coeur	-9.45898
▁net	-9.46048
itis	-9.4607
je	-9.46119
▁stroma	-9.46135
▁hierover	-9.46194
▁rand	-9.46255
retroperitoneaal	-9.46305
▁diverticulose	-9.46327
▁aanwezige	-9.46342
▁virale	-9.46405
▁dysplastische	-9.46439
es	-9.46572
▁tumorweefsel	-9.46585
▁degeneratie	-9.46603
▁opnieuw	-9.46603
▁haardjes	-9.46723
▁subendocardiaal	-9.46818
▁vaso	-9.46891
▁anastomose	-9.46941
▁geboren	-9.47049
triumfibrilleren	-9.4726
normaal	-9.47309
02	-9.47349
▁gebruik	-9.47498
▁peritoneum	-9.47559
▁huisarts	-9.4768
05	-9.47768
▁braken	-9.4781
▁angio	-9.4819
▁bot	-9.48285
▁cholelithiasis	-9.48338
▁contact	-9.48371
▁beperkt	-9.48552
▁uitgevoerd	-9.4859
▁lymfangitis	-9.48603
▁gedaan	-9.48698
▁superficiele	-9.48836
lokalisatie	-9.48868
▁pancreaskop	-9.49087
▁celrijk	-9.49166
infarct	-9.49313
cin	-9.49504
▁radiotherapie	-9.49539
nummer	-9.49722
▁75	-9.49726
▁23	-9.49793
04	-9.49825
▁bifurcatie	-9.49893
▁kras	-9.49943
▁slijm	-9.50057
▁doorbraak	-9.50072
▁defect	-9.5014
▁*******:	-9.50161
▁(3	-9.50208
▁uitgaande	-9.50336
▁onderliggende	-9.50369
▁dermatofibroom	-9.50397
or	-9.50471
▁bacteriele	-9.50502
▁talrijke	-9.50506
▁vernauwing	-9.50526
▁verschillende	-9.50526
uterusextirpatie	-9.50535
uit	-9.50595
▁systemische	-9.50618
▁verslechtering	-9.50636
▁onwel	-9.50659
▁teken	-9.50694
▁voornaam	-9.50898
▁naadlekkage	-9.50898
▁buikpijn	-9.51072
▁appendix	-9.51187
▁hippocampus	-9.51313
▁betekenis	-9.51422
▁gespeeld	-9.51422
▁ventrikels	-9.5153
cellymfoom	-9.51616
▁navelstreng	-9.51617
▁the	-9.5162
sch	-9.51692
09-	-9.519
▁"	-9.51974
am	-9.52099
atie	-9.52128
ine	-9.52149
▁0,5	-9.52222
▁afgenomen	-9.52481
▁splenomegalie	-9.52583
▁tamponade	-9.52603
▁73	-9.52687
▁tegen	-9.52725
▁oestrogeen	-9.52751
▁classificeren	-9.52828
▁74	-9.52896
▁linkerlong	-9.52994
▁aureus	-9.53013
▁dementie	-9.53048
▁duiden	-9.53166
▁dorsaal	-9.53371
?)	-9.53425
▁pr	-9.53505
▁binnen	-9.53608
▁lipoom	-9.53611
▁alzheimer	-9.53627
▁maagantrum	-9.53848
▁duodenumbiopten	-9.53885
▁mediale	-9.53888
▁direct	-9.53987
▁onderzocht	-9.54034
11	-9.54123
▁meningitis	-9.54137
▁vlokatrofie	-9.54223
um	-9.54388
▁buikwand	-9.54524
▁barrett	-9.54551
▁ingezet	-9.54608
▁50%	-9.54688
ma	-9.54907
▁regio	-9.54972
klinisch	-9.55067
een	-9.553
▁drietaks	-9.55399
▁moment	-9.55479
▁tubulusnecrose	-9.55597
▁communis	-9.55721
▁trombi	-9.55797
▁cysten	-9.55803
nt	-9.55896
▁vaat	-9.55976
▁pleuraholte	-9.5609
▁coli	-9.56244
ta	-9.56247
▁truncus	-9.56272
▁vervolgens	-9.56286
▁onderwand	-9.56328
▁portale	-9.56346
▁achtergrond	-9.56639
▁wisselende	-9.56655
▁uw	-9.56667
lever	-9.56728
▁72	-9.56769
▁beschouwd	-9.56825
aal	-9.56838
50	-9.56878
▁zelf	-9.56892
▁recidiverende	-9.56956
▁flank	-9.56961
▁nr	-9.57099
21	-9.57232
▁necrotische	-9.57269
den	-9.57318
▁schimmels	-9.57647
▁cholecystitis	-9.57802
▁nodus	-9.57932
▁beschadiging	-9.58029
▁lage	-9.58078
+	-9.5811
▁veranderd	-9.58303
▁invasiediepte	-9.5846
▁77	-9.58485
veranderingen	-9.58532
▁leukemie	-9.58559
▁atelectase	-9.58583
▁samengevat	-9.58646
▁69	-9.58682
▁geval	-9.58792
17	-9.58802
▁progesteron	-9.58863
▁(1	-9.58864
▁pipelle	-9.58872
▁terminaal	-9.58882
▁vi	-9.58994
▁f	-9.5905
▁occipitaal	-9.59131
▁65	-9.592
▁mediaal	-9.59237
▁stof	-9.59332
ad	-9.59348
▁50	-9.59434
▁arrest	-9.59498
▁gestaakt	-9.59498
▁vriescoupe	-9.59559
▁79	-9.59618
▁subtotale	-9.59641
ic	-9.59721
▁gereanimeerd	-9.59926
▁malaise	-9.59926
▁fistel	-9.6005
▁ontstoken	-9.6007
▁dermis	-9.60071
07	-9.60095
▁maceratie	-9.60213
▁pons	-9.6029
▁afwezig	-9.6032
03	-9.60321
cc	-9.60513
▁76	-9.6054
▁mogelijkheid	-9.6058
▁lokaal	-9.60648
▁plots	-9.60697
ver	-9.60697
▁ulcera	-9.60718
▁68	-9.60827
▁krap	-9.60842
▁hierna	-9.6098
▁bloedvaten	-9.60994
▁cirrhose	-9.60995
▁300	-9.61096
▁78	-9.61167
19	-9.61171
▁interna	-9.61185
▁gen	-9.61654
▁bloederig	-9.6171
▁risico	-9.61849
▁leverfalen	-9.61861
▁infectieuze	-9.6188
▁posterior	-9.61896
▁fibro	-9.61934
?).	-9.61945
▁casus	-9.62103
▁langdurige	-9.62171
▁verlies	-9.62207
▁maximaal	-9.62228
▁nadere	-9.62229
meer	-9.62259
▁coronairvaten	-9.62264
▁pacemaker	-9.62265
▁tumoren	-9.62278
uterien	-9.62303
▁organisatie	-9.62392
vorming	-9.62465
ch	-9.62476
▁hypotensie	-9.62664
▁gewichten	-9.62684
squameuze	-9.62766
▁geconstateerd	-9.62795
▁gehad	-9.62831
▁low	-9.62833
▁aspergillus	-9.63005
▁vele	-9.6301
▁icterus	-9.63165
▁classificatie	-9.63217
ectomie	-9.63287
hart	-9.63315
25	-9.63467
▁aspecifieke	-9.63516
▁ruiterembolus	-9.63654
▁waaronder	-9.63666
conclusie	-9.63715
▁braf	-9.63811
▁vasculaire	-9.63902
metastase	-9.63904
▁max	-9.63942
▁kleppen	-9.63998
▁amenorroeduur	-9.64046
tische	-9.64057
diagnosen	-9.64078
▁60	-9.64094
▁alcohol	-9.64232
▁pas	-9.64282
▁ging	-9.64308
▁massaal	-9.64334
▁concordant	-9.64338
graad	-9.64369
▁3-	-9.6438
53	-9.6449
▁uitspraak	-9.64627
▁67	-9.64657
▁adipeuze	-9.64766
to	-9.64819
▁anemie	-9.64917
aortaklepstenose	-9.64966
08-	-9.65056
gr	-9.65085
▁perivasculaire	-9.65163
▁zo	-9.65176
▁kwam	-9.65306
▁infiltratiev	-9.65333
▁ventrikelwand	-9.65356
▁71	-9.6538
03-	-9.65445
▁ander	-9.65491
▁spierweefsel	-9.6568
▁thoracaal	-9.65699
▁basaal	-9.65731
▁huidstukje	-9.65827
▁concentrische	-9.65903
▁liquor	-9.65971
01-	-9.66072
microscopisch	-9.66075
▁differentiatie	-9.6641
▁cardiac	-9.66458
ne	-9.66645
▁wijzen	-9.6681
▁centrale	-9.66843
▁komen	-9.67054
▁lymfeklier	-9.67151
▁voldoende	-9.672
▁tgv	-9.67201
09	-9.67206
▁82	-9.67266
▁problematiek	-9.67345
▁81	-9.67349
▁choledochus	-9.67357
▁fibrineuze	-9.67386
▁preparaat	-9.67413
▁blijken	-9.67508
▁amyloidose	-9.67558
▁bleken	-9.67726
sis	-9.67915
01	-9.68056
▁gepaard	-9.68128
nevenbevindingen	-9.6816
▁apex	-9.68199
▁100	-9.68256
▁vragen	-9.68283
▁transmurale	-9.68284
ol	-9.68294
be	-9.68295
parenchymateuze	-9.68439
ur	-9.6844
▁verkregen	-9.68595
wand	-9.68647
▁pulmonaal	-9.68671
dat	-9.68709
q	-9.68906
▁hulp	-9.69064
▁200	-9.6917
▁onderbuik	-9.69183
▁calcificaties	-9.69197
▁vliezen	-9.6926
▁parietaal	-9.69337
▁level	-9.69343
▁afwijkende	-9.69367
▁echo	-9.6943
▁neurologische	-9.69565
13	-9.69627
07-	-9.69653
▁voorlopig	-9.69655
▁origo	-9.69852
▁bovenbuik	-9.69993
achterwand	-9.69994
▁panel	-9.70028
▁grotendeels	-9.70042
▁hooggradige	-9.7008
eerd	-9.7025
▁resectieranden	-9.70432
▁kleinere	-9.70646
▁bestaand	-9.70712
▁sneevlak	-9.70753
ct	-9.71023
▁aankleuring	-9.71096
▁vitaal	-9.71127
▁plasmacellen	-9.71127
▁intreden	-9.71127
▁pus	-9.71195
▁cava	-9.7121
▁40	-9.71233
tumorlokalisatie	-9.71331
▁complicaties	-9.71332
▁bleke	-9.71381
▁cerebellaire	-9.71464
afwijkingen	-9.71468
▁haemorrhagisch	-9.71594
▁morfologische	-9.7161
eren	-9.71663
▁bacterien	-9.71797
▁66	-9.719
40	-9.71927
▁hypovolemische	-9.71949
▁cardiogene	-9.71978
gebied	-9.72065
▁mutaties	-9.7209
▁fibrine	-9.72107
▁hersen	-9.72144
▁vlak	-9.72154
cellen	-9.72227
▁vorming	-9.72244
▁presenteerde	-9.72257
▁leiomyoom	-9.72277
▁aangezien	-9.72348
▁struma	-9.72459
▁coronaria	-9.72485
▁oog	-9.72536
▁et	-9.72575
▁bloedingsfocus	-9.72739
▁levermetastasen	-9.7293
om	-9.72931
longen	-9.72931
80	-9.72994
▁moeilijk	-9.73101
▁mesothelioom	-9.73242
▁relatie	-9.73349
▁evenmin	-9.73392
retroperitoneale	-9.73407
▁mohs	-9.73531
▁aangegeven	-9.73596
▁infiltraten	-9.73608
▁transmuraal	-9.7372
▁etiologie	-9.73746
▁cho	-9.73988
rest	-9.74029
▁%	-9.74047
▁hemangioom	-9.74049
▁geplaatst	-9.74083
▁stenoserende	-9.74191
70	-9.74225
it	-9.74235
▁stolling	-9.74417
▁vraagstelling	-9.7458
▁pigment	-9.74594
▁progressief	-9.74723
▁laaggradig	-9.74728
▁disease	-9.74778
▁daarin	-9.74824
▁vastgestelde	-9.74929
▁druk	-9.7495
▁arm	-9.74978
▁hypoxische	-9.75216
▁trauma	-9.75297
▁verkalkingen	-9.75491
▁subarachnoidale	-9.75546
▁laparotomie	-9.75552
pt	-9.75566
mogelijk	-9.75579
04-	-9.75826
▁geopereerd	-9.7588
▁co	-9.76002
24	-9.76013
▁85	-9.76026
▁foetale	-9.76048
▁gevolgd	-9.76084
▁dna	-9.76105
▁sprieterige	-9.76203
▁hemisfeer	-9.76237
▁ischemisch	-9.76315
▁besproken	-9.76319
▁400	-9.76475
aortaal	-9.76485
▁w	-9.76668
▁hooguit	-9.76832
▁pericardvocht	-9.76897
▁middenkwab	-9.77051
▁komt	-9.77062
▁epitheliale	-9.77269
▁beste	-9.77306
▁laesies	-9.77323
▁genen	-9.77431
▁83	-9.77554
▁endocervicale	-9.77574
▁gaat	-9.77614
▁langs	-9.77708
▁appendicitis	-9.77736
▁verklevingen	-9.77888
▁zwangerschap	-9.77906
▁representatief	-9.77961
▁evident	-9.78092
▁bestaat	-9.78094
▁verlittekening	-9.78135
26	-9.78199
▁voet	-9.78223
▁oorzaken	-9.78259
▁maten	-9.7827
▁benen	-9.78303
▁ostium	-9.78485
pathologie	-9.78571
▁toe	-9.78577
▁gezichtspunten	-9.78603
▁8.	-9.78654
▁cmv	-9.78795
▁hierdoor	-9.78795
▁inferior	-9.78807
▁uitbreidend	-9.78822
pcl	-9.78893
▁microbiologisch	-9.78984
▁tumorproces	-9.78992
▁cysteuze	-9.79008
niercelcarcinoom	-9.79073
▁muscularis	-9.79122
▁verbloeding	-9.7914
▁hepato	-9.79157
▁gerelateerd	-9.79285
▁dcis	-9.79289
▁basocellulair	-9.79296
▁1:	-9.7934
existente	-9.79506
▁cel	-9.7964
▁overlijdt	-9.79649
▁gaan	-9.79657
▁evenals	-9.79819
▁maaginhoud	-9.79836
▁28	-9.7985
▁periode	-9.79984
▁aanvankelijk	-9.79993
06-	-9.80003
▁64	-9.80026
▁gelaat	-9.80055
▁grootste	-9.80077
▁buiten	-9.80103
▁haematoom	-9.80184
▁heup	-9.80334
▁duodeni	-9.80341
▁bovendien	-9.80351
▁longweefsel	-9.80353
▁ok	-9.80382
▁metastatisch	-9.80405
▁kapsel	-9.80539
onder	-9.80713
▁ovaria	-9.80723
▁cardiovasculair	-9.80781
end	-9.80844
▁stolsel	-9.80879
▁26	-9.80937
hpv	-9.80985
▁pathogene	-9.80985
▁sereus	-9.81108
ken	-9.81143
18-	-9.81311
▁care	-9.81338
▁lekkage	-9.81401
▁aanduiding	-9.81403
▁350	-9.81514
▁nek	-9.81566
▁fibroserende	-9.81589
▁negatieve	-9.81663
▁62	-9.81707
▁algemene	-9.81759
▁j	-9.81944
▁slaap	-9.8196
▁63	-9.82059
risico	-9.82061
▁onbekende	-9.82129
▁omdat	-9.82151
▁hand	-9.82177
▁aldaar	-9.82297
▁takken	-9.82452
ri	-9.82458
▁beoordeeld	-9.8255
▁cin	-9.82612
▁cystitis	-9.82728
▁spier	-9.82817
her	-9.82883
▁sinus	-9.82937
▁naad	-9.82998
▁kahler	-9.83053
▁bijvoorbeeld	-9.83181
▁uitgenomen	-9.83204
▁vetnecrose	-9.83208
▁grotere	-9.83233
▁opnemen	-9.83375
bloeding	-9.83409
▁collaps	-9.83409
▁naaldbiopt	-9.83432
▁circulatoire	-9.8345
thorax	-9.83503
▁ribfracturen	-9.83556
▁knie	-9.83576
▁anteroseptaal	-9.83584
▁anus	-9.8363
.^^	-9.83646
▁obv	-9.83755
▁adnex	-9.83854
▁nefrectomie	-9.83919
▁cervixbiopt	-9.84184
▁propria	-9.84466
▁lymfeklieren	-9.84468
▁circulair	-9.84475
orgaan	-9.84604
ende	-9.84607
▁aannemelijk	-9.8465
▁seh	-9.84651
▁bijna	-9.84793
▁afgesloten	-9.84834
▁thoraxwand	-9.84908
02-	-9.84933
▁medicatie	-9.84995
▁lymfadenopathie	-9.85017
▁84	-9.85026
▁bevond	-9.85045
▁beenmergbiopt	-9.85135
▁wond	-9.85168
35	-9.85172
▁urosepsis	-9.85201
▁pinpoint	-9.85261
▁longparenchym	-9.85262
▁regressie	-9.85286
▁prognose	-9.85386
▁bedraagt	-9.85386
id	-9.85474
▁rectosigmoid	-9.85656
▁gesteld	-9.85703
▁glomeruli	-9.85756
2-	-9.85808
▁verslechterde	-9.85808
▁interne	-9.85835
▁macro	-9.85966
▁sarcoidose	-9.85974
▁juist	-9.86016
▁tuba	-9.86086
co	-9.86155
▁ontwikkeling	-9.86161
biopsie	-9.86183
▁effect	-9.86325
▁stenosering	-9.86346
▁0	-9.86363
▁arteriele	-9.86428
▁optreden	-9.865
sub	-9.86525
▁adipositas	-9.86528
34	-9.86612
▁vinden	-9.86701
▁nabij	-9.86709
tweetal	-9.86725
▁(4	-9.86725
▁ventraal	-9.86782
▁dr	-9.86914
1,	-9.87487
▁output	-9.87653
▁plaatsing	-9.87662
▁niveau	-9.87676
▁rcx	-9.87681
▁cholestase	-9.87816
▁alcoholabusus	-9.87817
▁hb	-9.87831
▁<	-9.87864
▁nb	-9.87899
rug	-9.88007
sclerose	-9.88097
▁pyelum	-9.88385
▁teruggevonden	-9.88385
vi	-9.88491
▁lentigo	-9.88575
▁bevindt	-9.88575
▁bilateraal	-9.88577
▁micronodulaire	-9.88692
▁stress	-9.88701
▁vijf	-9.8871
gie	-9.88789
as	-9.88913
▁kunt	-9.88958
▁geassocieerd	-9.8896
▁weer	-9.89099
▁pcr	-9.8919
▁hierop	-9.89227
▁ontwikkeld	-9.89271
▁fibrosering	-9.89398
▁beslag	-9.89536
ide	-9.89571
▁instabiele	-9.89623
▁ruimte	-9.89748
jes	-9.89884
▁folliculitis	-9.89987
▁inhoud	-9.90061
▁arteriolosclero	-9.90079
▁aard	-9.90176
▁geruptureerde	-9.90199
▁korte	-9.90287
▁vrije	-9.90452
operatie	-9.90499
▁ibd	-9.90504
▁trad	-9.90508
45	-9.90567
mo	-9.90629
▁belangrijk	-9.90829
▁epidermis	-9.90854
▁nauwelijks	-9.9089
no	-9.90926
▁diarree	-9.91085
▁bdz	-9.91085
▁actief	-9.91085
intestinale	-9.91123
▁lobulair	-9.91154
▁;	-9.91261
ek	-9.91286
▁afsluitende	-9.91346
▁adhesies	-9.91468
▁laten	-9.91691
▁longembolien	-9.91726
ra	-9.91796
▁zone	-9.91809
▁intensive	-9.9187
▁informatie	-9.92059
▁zullen	-9.92067
▁dunnedarm	-9.92082
▁29	-9.92206
▁leven	-9.92269
▁58	-9.92275
▁centrum	-9.9239
17-	-9.92542
▁lymfoide	-9.9264
29	-9.92715
28	-9.92722
la	-9.9275
▁cirrose	-9.92907
▁uteri	-9.92946
▁minimaal	-9.9297
▁circumflex	-9.92977
▁150	-9.93044
▁persisterende	-9.93097
▁leverde	-9.931
▁ongewijzigd	-9.93114
▁onderzochte	-9.93139
▁passende	-9.93235
▁metabole	-9.93259
▁stoma	-9.93357
▁papilloom	-9.93374
ose	-9.93447
ir	-9.93588
▁stroomgebied	-9.93851
▁randen	-9.93869
dometriumpoliep	-9.93897
▁61	-9.94048
▁massa	-9.94053
▁compleet	-9.94063
▁coronairsysteem	-9.94083
▁omgevend	-9.94084
▁beademing	-9.94093
▁holte	-9.94156
▁structuren	-9.94274
▁profiel	-9.9438
▁ambulance	-9.94465
▁27	-9.9448
▁corticale	-9.94526
▁longbeeld	-9.94527
sverschijnselen	-9.94668
▁mid	-9.94792
▁uitsluitend	-9.94897
▁nigra	-9.95074
▁staat	-9.95352
▁bloedstolsels	-9.95363
▁achteruit	-9.95496
▁stenosen	-9.95589
ia	-9.95653
▁and	-9.95663
▁lymfocytose	-9.95711
ag	-9.95765
▁drain	-9.95804
▁nierfalen	-9.95918
▁hoofdstam	-9.96018
▁milde	-9.96192
▁fibreuze	-9.96302
▁staphylococcus	-9.96341
▁volgende	-9.96379
kleincellig	-9.96415
▁verzoek	-9.96508
▁volgde	-9.96509
▁aandoening	-9.96626
▁serosa	-9.96715
ro	-9.96734
▁bulleus	-9.96768
▁subcutis	-9.9678
▁fibrotische	-9.96803
▁papillairspier	-9.96813
▁lumpectomie	-9.96843
▁geeft	-9.96925
▁gedurende	-9.97132
▁consistentie	-9.97341
▁curettage	-9.97395
▁enigszins	-9.97546
stwaarschijnlijk	-9.97596
▁klier	-9.97617
▁functie	-9.97675
▁tubulovilleus	-9.97768
▁tezamen	-9.97867
▁out	-9.97947
▁fish	-9.97974
▁(5	-9.98014
▁lumina	-9.98125
90	-9.9816
reactie	-9.98167
▁crohn	-9.98203
99	-9.98264
▁diepte	-9.98368
▁secretariaat	-9.98383
▁gelokaliseerd	-9.98388
▁hemorragisch	-9.98391
▁huidstansbiopt	-9.98471
▁aangelegd	-9.98627
der	-9.9872
plaveiselcellige	-9.98753
lecystolithiasis	-9.98806
▁urineblaas	-9.98816
prothese	-9.9889
▁hernia	-9.99014
▁hydronefrose	-9.99016
▁leek	-9.9902
▁mucineus	-9.99089
po	-9.99159
▁renalis	-9.99229
▁varices	-9.99297
▁verkleuring	-9.99316
▁alk	-9.99367
endocriene	-9.99382
▁longafwijkingen	-9.9939
▁thoraxholte	-9.99395
▁soms	-9.9944
▁lokalisaties	-9.9946
▁59	-9.99651
▁daarvan	-9.99666
▁openen	-9.99681
▁radicaliteit	-9.99705
▁anti	-9.9973
▁deposities	-9.99804
▁palliatief	-9.99883
▁lymfangio	-9.9989
▁immuun	-9.99967
▁600	-9.99993
▁gemetastaseerde	-10.0007
▁stellen	-10.0008
▁erosieve	-10.0009
▁ontstekingsrest	-10.0011
22	-10.0029
▁situatie	-10.004
▁afwezigheid	-10.0052
epitheel	-10.0054
▁jejunum	-10.0058
▁cachectische	-10.0062
▁geboorte	-10.0072
▁melaena	-10.0072
▁hepatocellulair	-10.0074
▁sigmoidresectie	-10.0079
▁klasse	-10.0084
▁patroon	-10.0084
▁dikte	-10.0091
ele	-10.0094
▁intravasa	-10.0095
▁hierboven	-10.0096
▁grafts	-10.0113
▁maken	-10.0114
-2	-10.0114
▁minuten	-10.0116
▁waaraan	-10.0117
▁wervel	-10.0129
▁verloop	-10.0136
ring	-10.0139
ng	-10.0141
/*******/	-10.0149
16-	-10.016
▁reexcisie	-10.0171
▁*******)	-10.0179
hmh	-10.0182
▁thoracalis	-10.0202
▁lokale	-10.0203
▁fractuur	-10.0208
▁longfibrose	-10.0209
▁onderliggend	-10.021
▁verandering	-10.0238
respiratoire	-10.0245
▁expressie	-10.0261
▁schors	-10.0268
▁omgeving	-10.0268
▁fibreus	-10.027
▁activiteit	-10.0283
▁maagcorpus	-10.0285
▁segment	-10.0288
▁2:	-10.0295
▁scheur	-10.0297
▁̄d	-10.031
▁blokje	-10.031
▁aanleggen	-10.0313
infectie	-10.0314
▁>	-10.0331
revisie	-10.0331
▁bijbehorend	-10.0334
decompensatie	-10.0336
▁multiple	-10.0338
setting	-10.0354
klepvervanging	-10.0355
▁larynx	-10.0357
▁variant	-10.0363
60	-10.0367
▁neuropathologie	-10.0373
▁dank	-10.0378
scan	-10.0379
▁lastig	-10.0379
▁gesuperponeerd	-10.0381
2,	-10.0386
▁insufficient	-10.0391
▁hiermee	-10.0394
▁neusrug	-10.0395
pl	-10.04
niet	-10.0401
75	-10.0402
27	-10.0408
▁vulgaris	-10.0423
▁zes	-10.0424
▁chirurgie	-10.0425
▁troebel	-10.0427
▁telefonisch	-10.0429
▁aftakkingen	-10.0433
▁adnexen	-10.0442
▁lijken	-10.0446
▁trivasculair	-10.045
▁overeen	-10.0454
▁aantoonbare	-10.0468
▁neuronen	-10.0471
sreactie	-10.0481
▁infectieus	-10.0482
▁intracerebrale	-10.0491
▁node	-10.0495
▁verwerkt	-10.0512
▁wisselend	-10.0518
▁men	-10.0518
urineweginfectie	-10.0521
huidbiopt	-10.0524
%	-10.0548
▁compressie	-10.0551
▁lewy	-10.0557
▁bleef	-10.0558
▁spongiotische	-10.0558
▁hilus	-10.0562
score	-10.0583
lijmvliesbiopten	-10.0598
▁beginnend	-10.0616
▁gecollabeerd	-10.0626
▁hele	-10.0626
▁dominant	-10.0629
long	-10.0631
▁onverwacht	-10.0632
over	-10.0633
▁myeloide	-10.0649
▁musculus	-10.0653
▁gevallen	-10.0659
os	-10.0664
▁astma	-10.0671
▁toxisch	-10.068
▁classificerend	-10.068
▁nefropathie	-10.0681
▁huidstans	-10.0688
aortale	-10.069
▁duidend	-10.0692
▁hiernaast	-10.0695
▁mitraalklep	-10.0703
▁sp	-10.0704
▁3,5	-10.0709
▁86	-10.0712
▁verkalking	-10.0717
▁hepatomegalie	-10.0717
▁darmlissen	-10.0717
▁medulla	-10.0735
▁bil	-10.0739
lab	-10.074
▁neuropatholoog	-10.074
▁darmslijmvlies	-10.075
ritmestoornis	-10.0759
▁herkenbaar	-10.0764
05-	-10.0771
▁patholoog	-10.0785
▁hemodynamische	-10.0787
▁heldercellig	-10.0789
▁schimmel	-10.08
▁grensvlak	-10.0809
▁hieraan	-10.0813
▁rode	-10.0835
▁atypisch	-10.0841
▁he	-10.0844
▁bronchi	-10.0845
▁huidshave	-10.0848
1/	-10.0856
▁uiting	-10.0859
▁complicatie	-10.0861
ren	-10.0868
▁respons	-10.0874
▁giardia	-10.0878
▁aanvrager	-10.0879
▁luchtwegen	-10.0882
▁circulaire	-10.0889
85	-10.0908
punctie	-10.0909
▁verdachte	-10.0914
amputatie	-10.0917
existent	-10.0917
▁2000	-10.092
▁feit	-10.0924
behaarde	-10.0926
▁inclusief	-10.0934
▁bevatten	-10.0937
▁orgaan	-10.094
▁leverfunctie	-10.0942
eerde	-10.0946
▁staken	-10.095
2016	-10.0953
▁vitale	-10.0956
▁lucht	-10.096
▁externa	-10.0974
splenomegalie	-10.0978
▁succesvol	-10.0978
▁cerebraal	-10.0979
tie	-10.0995
ige	-10.1024
▁immuno	-10.1038
2017	-10.1041
▁belangrijke	-10.1051
*	-10.1064
▁terug	-10.1069
▁derden	-10.1074
▁craniaal	-10.1094
▁graag	-10.1096
▁granuloma	-10.1097
alis	-10.1108
▁geel	-10.1111
2/	-10.1116
maligniteit	-10.112
▁snelle	-10.1125
me	-10.1129
▁bevat	-10.1136
▁verbetering	-10.1139
▁hospital	-10.114
▁nefrosclerose	-10.1141
▁57	-10.1143
▁flow	-10.1162
▁papil	-10.1163
▁mesenteriale	-10.1163
▁cachexie	-10.1168
▁doorgankelijke	-10.117
▁operatiegebied	-10.1172
▁schedel	-10.1175
cy	-10.1176
▁ischaemisch	-10.1177
▁2-	-10.1181
▁noemenswaardig	-10.1187
▁dextra	-10.119
▁pseudomonas	-10.119
▁morfologie	-10.1198
▁punctaat	-10.12
pen	-10.12
auriculair	-10.1209
▁ruggenmerg	-10.1211
▁subcutaan	-10.1211
▁+/-	-10.1214
▁wellicht	-10.1238
▁alhier	-10.126
▁55	-10.1265
▁dermaal	-10.1267
▁papmilt	-10.1272
▁correlatie	-10.1284
stoornis	-10.1285
▁verhoornend	-10.1292
▁kruin	-10.1295
▁lab	-10.1297
▁genomen	-10.1302
▁coeliacus	-10.1308
▁ecg	-10.1308
▁aanleg	-10.1315
▁li	-10.1316
gecompromitteerd	-10.132
▁typisch	-10.132
▁leverparenchym	-10.1322
▁extirpatie	-10.1323
hyperkeratotisch	-10.1333
len	-10.1337
▁bijbevinding	-10.135
th	-10.1356
▁januari	-10.136
▁maart	-10.136
▁beeldvorming	-10.1368
▁structurele	-10.1382
▁antistolling	-10.1382
▁geleden	-10.1382
▁gedecompenseerd	-10.1383
skenmerken	-10.1392
ergens	-10.1412
▁multipel	-10.1419
▁nee	-10.1422
▁interstitieel	-10.1431
▁toegestaan	-10.1431
▁gekend	-10.1431
▁brein	-10.1439
ci	-10.1439
voorwand	-10.1443
=	-10.1444
▁naden	-10.1451
▁hyperkeratose	-10.1455
▁hydrothorax	-10.1456
aan	-10.1458
▁aml	-10.1467
▁35	-10.1469
▁vond	-10.147
▁receptor	-10.1472
▁stenen	-10.1476
▁ruime	-10.1478
▁opruimreactie	-10.148
▁steatosis	-10.148
▁gliose	-10.148
▁embolus	-10.1482
▁kleur	-10.1485
regio	-10.1492
▁tel	-10.15
ewel	-10.1503
▁embolie	-10.151
▁geslacht	-10.153
sc	-10.153
▁restlumen	-10.1544
▁poliepen	-10.1547
▁intradermale	-10.1555
▁buikklachten	-10.1557
▁epicard	-10.1561
▁reden	-10.157
proliferatie	-10.1584
▁tau	-10.1586
positieve	-10.1593
▁51	-10.1596
▁leverhilus	-10.1602
supraclaviculair	-10.1609
▁lv	-10.1609
▁aankomst	-10.1616
▁thalamus	-10.163
▁fragment	-10.1631
intracraniele	-10.1632
▁lange	-10.1633
chorioamnionitis	-10.1659
▁inflammatoire	-10.1675
▁ondergaan	-10.1683
il	-10.1686
diagnose	-10.1687
▁resultaat	-10.1694
coli	-10.1698
▁dehydratie	-10.1706
▁overwegingen	-10.1717
embolie	-10.1726
▁kg	-10.1727
▁vertakkingen	-10.1767
men	-10.1795
hodgkin	-10.1797
ranulatieweefsel	-10.1801
▁90	-10.1807
▁dissociatie	-10.1808
▁inspectie	-10.1808
▁ascitesvocht	-10.1809
▁atrofisch	-10.1822
▁mo	-10.1824
negatief	-10.1836
▁intacte	-10.1845
▁hersenoedeem	-10.1859
▁87	-10.1873
▁tepel	-10.1874
dr	-10.1877
▁globale	-10.1885
stenose	-10.1893
31	-10.1893
95	-10.1894
▁helft	-10.1898
▁overgeplaatst	-10.1911
97	-10.1912
▁45	-10.1915
▁lisexcisie	-10.1916
.(	-10.1926
▁(<	-10.1935
jw	-10.1941
▁geirriteerde	-10.1946
▁laboratorium	-10.195
▁architectuur	-10.1971
▁amplificatie	-10.1972
▁neoplasie	-10.1974
▁problemen	-10.198
▁acuta	-10.1989
▁epilepsie	-10.1989
▁testis	-10.1989
▁36	-10.199
sie	-10.1998
ui	-10.2004
▁thymus	-10.2015
▁aa	-10.2016
ecompromitteerde	-10.2028
▁herstel	-10.2031
▁onderlip	-10.2032
▁kond	-10.2038
▁enterococcus	-10.2041
curettage	-10.2043
▁56	-10.205
1;	-10.2063
▁literatuur	-10.2067
▁steatohepatitis	-10.2067
▁plaatsgevonden	-10.2067
▁fibroadenoom	-10.2068
▁letsel	-10.2083
▁800	-10.2084
▁gerelateerde	-10.2084
▁coeliakie	-10.2093
▁doorsnijdingen	-10.2095
▁cll	-10.2105
▁exacerbatie	-10.212
cbd	-10.212
▁ingenomen	-10.2122
▁ngs	-10.2122
▁diabetische	-10.2124
▁min	-10.2134
▁verkleefd	-10.2137
▁(6	-10.2146
immuun	-10.2146
▁staan	-10.2149
▁gemaakt	-10.2156
▁caudaal	-10.2169
▁station	-10.2172
coronairlijden	-10.2194
▁hartfunctie	-10.2196
▁spoedeisende	-10.2199
▁ulcerosa	-10.2199
rh	-10.2205
▁heb	-10.2207
▁verkalkte	-10.2208
▁tumorvrij	-10.222
ehalve	-10.2226
▁diverticulosis	-10.2227
▁overvulling	-10.2242
▁54	-10.2246
▁sinistra	-10.2253
▁adenomateuze	-10.2253
▁extranodale	-10.2253
▁rood	-10.2254
▁80%	-10.226
alveolaire	-10.2262
af	-10.2262
▁spreidend	-10.228
▁retroperitoneum	-10.228
▁myometrium	-10.2284
▁darmwand	-10.2289
▁stam	-10.2291
▁lang	-10.2294
▁vernauwd	-10.2298
mechanische	-10.2303
▁klieren	-10.2317
▁opgestuurd	-10.2318
▁betreffen	-10.2329
specifieke	-10.2332
▁zijdigheid	-10.2332
gediagnosticeerd	-10.2334
▁romp	-10.2346
▁trans	-10.2353
exon	-10.2357
▁bevestiging	-10.236
▁handrug	-10.238
▁stansbiopt	-10.2393
▁hartstilstand	-10.2399
▁middel	-10.2403
▁verzocht	-10.2415
▁parotis	-10.2421
▁stollings	-10.2421
▁rib	-10.2423
▁neusvleugel	-10.2427
▁bloederige	-10.244
ediagnosticeerde	-10.2441
▁creutzfeldt	-10.2443
▁kuit	-10.2459
▁sentinel	-10.246
coupes	-10.2467
pro	-10.2468
▁vegetaties	-10.2476
▁nefritis	-10.2483
▁diam	-10.2483
▁huidbiopten	-10.2486
he	-10.2486
▁250	-10.2493
▁genetisch	-10.2499
huidexcisie	-10.2505
van	-10.2508
waarschijnlijk	-10.2512
▁48	-10.2513
▁ribben	-10.2524
▁planus	-10.2525
▁cardiomyocyten	-10.2526
▁wijst	-10.2532
▁hemorrhagische	-10.2533
ap	-10.2533
embolus	-10.2537
io	-10.2545
10-	-10.2554
▁myocardischemie	-10.2556
▁atrofische	-10.2564
▁mammaweefsel	-10.2564
▁aanspreekbaar	-10.2573
▁amputatie	-10.2574
▁achterhalen	-10.2579
▁pneumothorax	-10.258
voedingstoestand	-10.2581
▁verval	-10.2583
▁parkinson	-10.2584
▁tak	-10.2585
▁path	-10.2589
▁pro	-10.2595
▁arts	-10.2597
▁valt	-10.2601
▁broncho	-10.2617
▁700	-10.2637
rt	-10.2638
▁hoofdbronchus	-10.2643
▁wenkbrauw	-10.2644
▁langdurig	-10.2658
lad	-10.2659
▁90%	-10.2659
▁forward	-10.2663
▁lobectomie	-10.2663
▁longkwabben	-10.2665
▁shocknieren	-10.2667
erende	-10.2679
si	-10.2681
mutatie	-10.269
▁correleren	-10.2691
▁divertikel	-10.2691
▁willis	-10.2691
▁postoperatieve	-10.2691
▁dorsale	-10.2702
▁purulent	-10.2704
▁dicht	-10.2708
▁49	-10.2711
▁kind	-10.2713
onwaarschijnlijk	-10.2721
va	-10.2725
▁vagina	-10.2733
▁hypo	-10.2734
▁ex	-10.2735
▁fraai	-10.274
▁verwijd	-10.2743
▁ulcererend	-10.2745
▁subduraal	-10.2747
▁geperforeerde	-10.2747
▁squameus	-10.2749
▁uiteinden	-10.2753
▁bloedinkjes	-10.276
▁atherosclerosis	-10.2775
▁pericardholte	-10.2776
▁variatie	-10.2776
▁complete	-10.2783
11-	-10.2787
▁verdikte	-10.2795
▁samenhangend	-10.2797
▁ernst	-10.2802
▁oblongata	-10.2803
rand	-10.2805
▁compact	-10.2811
▁longemboli	-10.2814
adequate	-10.2831
▁subcutane	-10.2832
▁stoornissen	-10.2834
ac	-10.2835
▁top	-10.2837
▁denken	-10.2838
▁aortadissectie	-10.2839
▁sarcoom	-10.2842
▁voorkomen	-10.2845
▁hr	-10.2845
▁lymfo	-10.2847
kt	-10.2851
▁ttf	-10.2856
▁gecombineerd	-10.2859
▁slijmvormend	-10.2861
zijdigheid	-10.2862
▁zogenaamd	-10.2867
ium	-10.2876
tr	-10.2883
▁cholangitis	-10.289
▁verwijde	-10.289
▁hepatis	-10.2892
▁plotselinge	-10.2897
▁wijzend	-10.2905
▁gedeelte	-10.2911
▁beelden	-10.2912
▁neurologisch	-10.2912
▁palliatie	-10.2915
▁sternum	-10.2924
▁10%	-10.2934
▁haardje	-10.2942
▁galstenen	-10.2946
▁evenwel	-10.2946
em	-10.2948
▁infiltratief	-10.2954
ktegeschiedenis	-10.2969
▁mei	-10.2972
▁basilaris	-10.2979
▁histologie	-10.2981
effect	-10.2985
▁discrete	-10.3003
▁nagenoeg	-10.3006
▁april	-10.3011
▁waarschijnlijke	-10.3016
tjes	-10.3021
▁th	-10.3027
▁levercelverval	-10.3032
maag	-10.3033
▁70-	-10.3034
▁zondermeer	-10.3045
96	-10.305
kweek	-10.3065
gediagnostiseerd	-10.307
▁24-	-10.3073
▁huidresectie	-10.3076
▁ingesloten	-10.309
▁cavum	-10.309
ce	-10.3091
▁veranderde	-10.3103
▁ho	-10.3108
▁celarm	-10.3115
▁ligt	-10.3119
▁grootte	-10.3126
▁uiteinde	-10.3128
▁afmeting	-10.3147
▁petechien	-10.3149
dikte	-10.3159
▁con	-10.3161
▁plaveisel	-10.3163
▁urotheel	-10.3169
syndroom	-10.3174
▁betrekking	-10.3178
▁oesofagitis	-10.3178
▁posteroseptaal	-10.3183
▁tpv	-10.3187
▁immature	-10.3207
▁ouder	-10.321
sepsis	-10.3212
▁papillaire	-10.323
uitslag	-10.3241
▁transplantatie	-10.3247
▁31	-10.3251
gebruik	-10.3262
▁merg	-10.3264
▁infect	-10.3268
▁plak	-10.3272
▁achterste	-10.3273
maal	-10.328
antrum	-10.3281
▁pols	-10.3284
▁resp	-10.3287
ingen	-10.3296
▁ooghoek	-10.3296
▁destructie	-10.3298
▁ureteren	-10.3306
▁dezelfde	-10.3307
anat	-10.331
▁cysteus	-10.3311
▁rechtszijdig	-10.332
▁76-	-10.332
21-	-10.3324
79	-10.3336
▁lumbaal	-10.3339
▁levert	-10.334
ruptuur	-10.3345
▁vaak	-10.3356
▁vulva	-10.3367
▁resterende	-10.3385
▁influx	-10.3386
▁substantia	-10.3386
▁rectumcarcinoom	-10.3386
oid	-10.3389
▁partus	-10.3389
taks	-10.3398
▁pseudo	-10.3403
▁myelo	-10.3411
verantwoordelijk	-10.3416
▁darmperforatie	-10.342
▁acidose	-10.3421
▁bovengenoemde	-10.3421
▁slijmvliesbiopt	-10.3439
▁beschouwen	-10.3446
isatie	-10.3446
▁organ	-10.3454
▁thv	-10.3464
▁infaust	-10.3476
▁lienalis	-10.3476
▁darmischaemie	-10.3478
▁2,	-10.348
▁februari	-10.348
lijn	-10.3481
▁derde	-10.3482
▁berust	-10.3485
▁oorschelp	-10.3487
▁kwabben	-10.3501
▁instabiel	-10.3502
▁hemodynamisch	-10.3505
tro	-10.3508
air	-10.3523
para	-10.3526
fragmenten	-10.3532
▁74-	-10.3537
▁pleuraholten	-10.3552
▁maagresectie	-10.3558
▁bewustzijn	-10.3561
▁sneevlakken	-10.3567
▁posterolateraal	-10.3567
▁(7	-10.3569
▁rechternier	-10.3577
hals	-10.3581
▁gleasonscore	-10.3583
helaas	-10.3598
ti	-10.3599
▁instabiliteit	-10.3602
oor	-10.3603
sp	-10.361
haarden	-10.3615
▁virus	-10.3619
▁hypoxisch	-10.3627
▁hepatica	-10.3628
▁anaplastisch	-10.3631
▁vaatwand	-10.3632
▁52	-10.3634
▁translocatie	-10.3635
▁voorwandinfarct	-10.3637
▁controle	-10.3638
▁wie	-10.3641
▁1000	-10.3645
▁(8	-10.3654
▁angiopathie	-10.3656
▁73-	-10.3659
▁angina	-10.3659
▁bevestigen	-10.3659
▁endocervicaal	-10.3659
ho	-10.3665
dit	-10.3671
▁agonale	-10.3673
▁eindstadium	-10.369
▁kin	-10.3691
cl	-10.3694
▁patia	-10.3695
▁verwijding	-10.3706
resectievlak	-10.3712
▁17-	-10.3718
13-	-10.3718
▁geobjectiveerd	-10.3721
▁geperforeerd	-10.3724
nieren	-10.3727
▁hersenbloeding	-10.373
▁pleurale	-10.3734
▁fatty	-10.3736
rwijl	-10.3742
▁2013	-10.3743
▁relevante	-10.3748
mortaal	-10.3749
▁vaatjes	-10.3755
eel	-10.3756
lu	-10.3757
nier	-10.3758
▁scapula	-10.3771
adenoom	-10.3772
filtratiediepte	-10.3773
▁blasten	-10.3778
▁abcessen	-10.378
ly	-10.3785
▁supra	-10.3785
analyse	-10.3792
▁anatomisch	-10.3794
▁atria	-10.3802
▁2003	-10.3812
▁frontale	-10.3814
▁psoriasis	-10.3814
▁simplex	-10.3814
▁progressie	-10.3823
▁lobaire	-10.3825
maximale	-10.3827
▁ruimten	-10.3828
▁doorsneden	-10.3832
▁obesitas	-10.3846
▁aortaboog	-10.3848
▁backward	-10.385
abdominale	-10.3859
▁zin	-10.3861
▁plotse	-10.3865
1.	-10.3868
▁9.	-10.387
▁locatie	-10.3876
acanthoom	-10.3877
▁oesophagitis	-10.3877
98	-10.3877
consult	-10.3879
▁dys	-10.3881
▁volume	-10.3887
2015	-10.3889
▁stemband	-10.3894
minder	-10.3899
▁verminderd	-10.39
12-	-10.3908
▁begin	-10.3909
▁ontstane	-10.3909
▁streaks	-10.3909
94	-10.391
▁factor	-10.3912
*******/	-10.3919
▁flexura	-10.3921
angio	-10.3929
▁verweking	-10.393
▁39	-10.3933
per	-10.394
▁tumorload	-10.394
▁stuwingsbeeld	-10.394
▁hersenarterien	-10.3941
▁setting	-10.3943
▁vol	-10.3944
▁subclavia	-10.3947
▁celrijke	-10.3965
▁subacute	-10.3973
ns	-10.3982
▁los	-10.3984
▁axilla	-10.3989
▁breslow	-10.3989
▁uitval	-10.3991
▁verwekker	-10.3993
▁alcoholische	-10.3995
▁hadden	-10.4012
dilatatie	-10.4019
sen	-10.402
▁erfelijke	-10.4025
▁groep	-10.403
▁hydrocephalus	-10.4036
incontinentie	-10.4037
▁with	-10.4038
▁mechanische	-10.4039
▁psoas	-10.4041
▁at	-10.4043
nb	-10.4054
▁av	-10.4055
ph	-10.4056
▁pneumoniae	-10.4061
tje	-10.4063
ip	-10.4065
▁dialyse	-10.4068
▁(19	-10.4069
▁consultatie	-10.4073
▁harthypertrofie	-10.408
▁prominente	-10.4086
▁der	-10.409
▁dysmorfe	-10.41
▁belang	-10.41
▁2012	-10.4104
▁lima	-10.4105
▁pan	-10.4113
▁porta	-10.4114
ak	-10.4115
▁context	-10.4133
▁mediaan	-10.4134
uur	-10.4134
48	-10.4134
▁2010	-10.4138
▁onderscheid	-10.4141
22-	-10.4142
▁posterieur	-10.4142
▁positiviteit	-10.415
6)	-10.4155
eeds	-10.4157
ering	-10.4159
▁abusus	-10.4164
▁detrusor	-10.4165
▁dubieus	-10.4173
▁tubulus	-10.4176
▁aantasting	-10.418
multiorgaanfalen	-10.4182
omtrent	-10.4193
▁parietalis	-10.4197
▁gefragmenteerd	-10.42
▁december	-10.4202
▁hypoplasie	-10.4205
▁67-	-10.4212
2018	-10.4219
▁behulp	-10.423
▁juni	-10.423
▁faecale	-10.423
▁900	-10.4236
▁longlijden	-10.4239
parenchym	-10.4239
▁urethra	-10.4241
▁gaande	-10.4242
ut	-10.4242
▁keratine	-10.4242
▁1,2	-10.4242
▁jonge	-10.4242
blaas	-10.4245
prostaat	-10.4248
▁10-	-10.4248
▁cristabiopt	-10.4251
▁mesenteriaal	-10.4255
1)	-10.4261
▁editie	-10.4262
▁gelocaliseerd	-10.4262
▁hematopoese	-10.4262
▁interpretatie	-10.4262
▁simpele	-10.4262
▁onderrug	-10.4264
embolien	-10.4266
▁75-	-10.4268
▁mc	-10.4271
▁hypofyse	-10.4271
klierdissectie	-10.4272
nen	-10.4273
▁cell	-10.4278
▁23-	-10.4279
▁typering	-10.4285
2).	-10.4304
56	-10.4318
▁suspect	-10.4319
▁30-	-10.4332
▁maagperforatie	-10.4333
▁seniele	-10.4341
▁peritoneale	-10.4342
▁vervetting	-10.4343
▁cardia	-10.4343
ni	-10.4343
▁bestraling	-10.4344
▁70%	-10.4346
abdominaal	-10.4348
circa	-10.4348
▁voorste	-10.4351
▁myeloom	-10.4362
▁mediastinaal	-10.4367
▁78-	-10.4381
▁53	-10.4385
▁vraag	-10.4395
▁maagcarcinoom	-10.4395
ab	-10.4396
▁verschijnselen	-10.4398
max	-10.4398
▁kern	-10.4408
86	-10.4408
▁georganiseerde	-10.4413
▁14-	-10.4423
▁hartdood	-10.4428
▁maligna	-10.4428
▁magere	-10.4428
endocrien	-10.443
▁bradycardie	-10.4432
▁geinfecteerde	-10.4434
positief	-10.4435
▁cholangio	-10.4436
▁waarme	-10.4444
▁bovenlip	-10.4447
▁divertikels	-10.4452
▁excisiebiopt	-10.4457
▁toen	-10.4459
▁collega	-10.4461
▁november	-10.4461
▁tenslotte	-10.4461
▁endo	-10.4461
▁speekselklier	-10.4465
test	-10.4471
▁09	-10.4485
▁restant	-10.4492
▁oktober	-10.4494
▁to	-10.4496
▁vasculopathie	-10.4498
▁redelijk	-10.4499
▁botbiopt	-10.4513
▁38	-10.4517
38	-10.4524
▁intern	-10.4528
aat	-10.4532
▁whipple	-10.4532
▁le	-10.4533
▁femoralis	-10.4533
▁externe	-10.4539
84	-10.4544
broekprothese	-10.4561
▁afgezien	-10.4562
▁88	-10.4563
▁vermoeden	-10.4571
43	-10.4572
▁bijschildklier	-10.458
▁tr	-10.4581
▁betrouwbaar	-10.4595
▁augustus	-10.46
▁alho	-10.4602
▁nucle	-10.4603
▁lok	-10.4605
88	-10.4621
lateraal	-10.4624
baar	-10.4625
▁sclerosus	-10.4629
▁opzichte	-10.463
▁art	-10.4633
▁maakt	-10.4637
sactiviteit	-10.4639
▁ros	-10.4641
▁81-	-10.4641
▁ck	-10.4641
▁intima	-10.4642
rechteronderkwab	-10.4644
▁who	-10.4646
▁leverbiopt	-10.4648
et	-10.4652
▁drainage	-10.4652
▁4,5	-10.4653
▁77-	-10.4654
▁13-	-10.4655
▁amenorrhoeduur	-10.4663
▁misselijkheid	-10.4663
operatief	-10.4667
▁corpustype	-10.468
val	-10.4681
▁1-2	-10.4682
▁overweging	-10.4682
▁perfusie	-10.4683
▁ritme	-10.4683
marge	-10.4687
procedure	-10.4695
▁tubuli	-10.4697
▁lymfogene	-10.4698
▁membranen	-10.4699
▁2016	-10.4701
▁juli	-10.4704
▁enzymkleuring	-10.4712
▁pin	-10.4719
▁22-	-10.4722
verschuiving	-10.4732
▁lichaamssectie	-10.4732
▁doen	-10.4732
▁histopatholog	-10.4737
▁bloedkweek	-10.4739
so	-10.4744
myocardischaemie	-10.4744
deels	-10.475
oud	-10.475
paraneoplastisch	-10.4751
▁glandulaire	-10.4753
▁ieder	-10.4766
▁gal	-10.4768
cu	-10.477
▁tumorhaarden	-10.4791
enkele	-10.4793
▁uitrijping	-10.4794
betrouwbare	-10.48
▁oorsprong	-10.4801
▁beta	-10.4807
coronairarterie	-10.4808
33	-10.4809
cs	-10.4812
▁80-	-10.4816
10)	-10.4817
▁mond	-10.4825
▁an	-10.4829
▁vermoedelijke	-10.4835
▁ptca	-10.4842
▁multinodulair	-10.4842
▁pectoris	-10.4849
▁encefalopathie	-10.4856
zijde	-10.4859
▁toxische	-10.4861
▁450	-10.4866
ang	-10.4869
▁herkend	-10.487
▁ebv	-10.487
stv	-10.4874
▁hartkleppen	-10.4876
euze	-10.4879
▁65-	-10.4879
▁69-	-10.4893
55	-10.49
▁retro	-10.4904
▁gisten	-10.4917
▁nacht	-10.4921
ontsteking	-10.4921
▁stents	-10.4927
ex	-10.4939
▁geadviseerd	-10.494
▁mammareductie	-10.494
3)	-10.4946
iteit	-10.4947
dd	-10.495
36	-10.4959
ot	-10.4959
▁mee	-10.496
▁trisomie	-10.4975
▁kerato	-10.4975
▁72-	-10.4976
▁granulerende	-10.4978
▁myocardiale	-10.4992
▁aortawand	-10.4998
▁bijnierschors	-10.501
68	-10.5012
▁dergelijke	-10.5014
lijk	-10.5017
▁2011	-10.5028
▁vulling	-10.5028
▁prostaatweefsel	-10.5032
▁rechterzijde	-10.5033
▁ablatio	-10.5034
tra	-10.5042
▁25-	-10.5044
▁hematomen	-10.5045
▁eind	-10.5047
▁vater	-10.5049
schimmelinfectie	-10.5053
▁71-	-10.5061
▁dm	-10.5068
im	-10.507
▁28-	-10.508
▁multifocale	-10.5081
ml	-10.5085
▁3)	-10.5089
▁tumorpositief	-10.5095
micro	-10.5109
ps	-10.5111
▁12-	-10.5115
▁elkaar	-10.5116
rs	-10.512
▁2001	-10.5122
▁empyeem	-10.5123
▁klebsiella	-10.5123
up	-10.5126
▁pretibiaal	-10.5127
▁82-	-10.5131
beensamputatie	-10.5134
cyste	-10.5141
▁spoed	-10.5141
▁tp	-10.5147
▁wervels	-10.515
▁papillomatosus	-10.5152
▁gaaf	-10.5152
▁anaemie	-10.5152
▁2014	-10.5156
▁geneesmiddelen	-10.5159
▁hyperplastisch	-10.5161
osis	-10.5162
erend	-10.5168
haard	-10.5177
ck	-10.5179
▁02	-10.5181
acute	-10.5182
9)	-10.5182
▁venen	-10.5184
▁zorg	-10.5188
▁depositie	-10.5215
▁2004	-10.5218
hr	-10.5219
verruceuze	-10.5224
▁dame	-10.5224
kel	-10.5225
39	-10.523
▁bepaald	-10.5233
▁68-	-10.5245
▁random	-10.525
▁5%	-10.5254
▁2009	-10.5256
▁linkernier	-10.5257
▁chromosomale	-10.526
▁epi	-10.5261
▁pijnklachten	-10.5261
▁windingen	-10.5263
chirurgische	-10.5286
mb	-10.5293
▁groeirestrictie	-10.5296
▁pulpa	-10.5296
▁lcx	-10.5296
▁granulocytair	-10.5296
▁gastropathie	-10.5297
▁gebarsten	-10.5299
-3	-10.5303
▁afname	-10.5308
▁carcinoid	-10.5311
▁encephalopathie	-10.5316
▁tong	-10.5333
▁0,3	-10.5344
tor	-10.536
we	-10.5364
▁07	-10.5367
▁0,8	-10.5374
▁papperig	-10.538
37	-10.5387
fe	-10.5387
▁bovenste	-10.539
▁tia	-10.5391
19-	-10.5393
▁solitaire	-10.5396
▁3:	-10.5397
ant	-10.5402
▁ulceraties	-10.5404
▁reflux	-10.5406
▁rejectie	-10.5406
▁doet	-10.5406
▁66-	-10.541
pr	-10.5411
▁(*******)	-10.5414
▁orgaanfalen	-10.5419
ru	-10.5421
67	-10.5424
▁vene	-10.5425
▁submucosa	-10.5436
▁algemeen	-10.5442
▁fasciitis	-10.5443
▁ondersteuning	-10.5446
mi	-10.5449
▁lieten	-10.5459
▁alles	-10.5469
▁lobulaire	-10.5473
▁bovenkwabben	-10.548
do	-10.5489
▁37	-10.5503
▁behoeve	-10.5516
▁streptococcus	-10.5521
▁resttumor	-10.5523
▁longvaten	-10.5525
▁minste	-10.5535
▁factoren	-10.5535
▁cervicale	-10.5538
▁transformatie	-10.5542
▁34	-10.5546
▁tumoreus	-10.5555
tnm	-10.5557
▁glad	-10.556
klachten	-10.5565
▁verdikt	-10.5566
78	-10.5572
lis	-10.5575
▁visceralis	-10.5591
▁leiomyomen	-10.5591
▁woog	-10.5591
▁intubatie	-10.5596
▁leidend	-10.5597
62	-10.5597
hodgkinlymfoom	-10.5602
door	-10.561
▁29-	-10.5611
▁verkleving	-10.5613
▁30%	-10.5613
▁flr	-10.5623
ke	-10.5625
▁eigenlijk	-10.5629
▁chirurgisch	-10.5634
lijden	-10.5636
▁kamer	-10.5637
pel	-10.564
▁bcl	-10.5663
1-	-10.5663
aanvullende	-10.5665
▁hypertrofe	-10.5666
▁cirkel	-10.5666
▁darmpakket	-10.5668
▁allen	-10.5671
▁1500	-10.5679
▁no	-10.5685
boven	-10.5687
▁galgang	-10.5688
ediagnostiseerde	-10.5692
▁spontaan	-10.57
▁aangevraagd	-10.5704
▁hydrops	-10.5704
carcinoma	-10.5704
▁compatibel	-10.5707
fibrose	-10.5707
▁lymfoid	-10.571
▁nierarterien	-10.5711
1).	-10.572
▁autolytische	-10.5721
▁hilaire	-10.5724
▁lip	-10.5729
▁linkerzijde	-10.5735
▁erytrocyten	-10.5741
▁stentplaatsing	-10.5742
▁21-	-10.5742
▁maagbloeding	-10.5762
▁aneurysmatische	-10.5771
oide	-10.5775
32	-10.5776
▁uitsluiting	-10.578
▁cardiopulmonale	-10.578
▁gestelde	-10.5786
con	-10.5788
▁reuscellen	-10.5791
74	-10.5795
▁pap	-10.5797
▁gevoerd	-10.5804
▁79-	-10.5804
▁bovenkwadrant	-10.5818
▁inter	-10.5818
▁aangenomen	-10.5824
▁tubae	-10.5831
▁41	-10.5846
vo	-10.5855
▁regionale	-10.5856
tis	-10.5862
▁vii	-10.5864
aa	-10.5867
▁genoemde	-10.588
2)	-10.5883
▁ronde	-10.5894
▁eenduidig	-10.5894
▁64-	-10.5899
▁blaaswand	-10.5902
▁perivasculair	-10.591
83	-10.5911
▁congestie	-10.5912
cor	-10.5926
▁staven	-10.5933
▁relaparotomie	-10.5934
▁os	-10.5942
peri	-10.5946
▁verdikking	-10.5949
▁2008	-10.5951
▁vlekkig	-10.5954
▁herseninfarct	-10.5964
tumorlocalisatie	-10.5972
▁dissecans	-10.5972
▁biologisch	-10.5972
▁longtumor	-10.5978
ocaal	-10.599
▁erosie	-10.6003
systeem	-10.6007
▁fatale	-10.6011
▁herpes	-10.6011
▁colectomie	-10.6011
▁heel	-10.6015
uitsluitend	-10.6015
▁vat	-10.6015
milt	-10.6016
deel	-10.6016
▁doorlopend	-10.6019
aspiratie	-10.6019
▁iga	-10.6022
▁digitus	-10.6023
achtige	-10.6027
▁anders	-10.6027
▁icterische	-10.6029
▁sluit	-10.6031
▁overwegen	-10.6031
▁ochtend	-10.6038
▁curettement	-10.6038
▁ap	-10.6046
▁velden	-10.605
▁bemoeilijkt	-10.605
▁emfysemateus	-10.605
▁renum	-10.605
▁meerkernige	-10.605
▁hypoperfusie	-10.605
▁pancreasstaart	-10.605
▁stamcel	-10.6053
▁2002	-10.6057
▁longbloeding	-10.6057
lomerulonefritis	-10.6066
▁micronodulair	-10.6067
▁neuspunt	-10.6071
63	-10.6081
sta	-10.6086
▁vroege	-10.6089
▁gewenst	-10.6089
▁implantatie	-10.6089
▁gezwollen	-10.6093
diagnostisch	-10.6099
▁bloom	-10.6102
▁tweemaal	-10.6107
▁richardson	-10.6107
▁gepigmenteerde	-10.6116
uw	-10.6127
▁elektro	-10.6128
▁succes	-10.6128
▁buismaag	-10.6129
▁nras	-10.6132
▁klierbuizen	-10.6133
differentiatie	-10.6134
sigmoid	-10.6134
oesofagusbiopten	-10.6139
istomorfologisch	-10.6141
▁verwijderde	-10.6148
ton	-10.6149
66	-10.6152
▁poly	-10.616
emboli	-10.6161
92	-10.6163
▁ab	-10.6164
▁tumormassa	-10.6172
gleason	-10.6174
vermoedelijk	-10.6174
*******	-10.6177
▁prednison	-10.6178
klepprothese	-10.6198
▁tien	-10.6201
▁kwab	-10.6206
entree	-10.6206
▁03	-10.6207
▁bulbus	-10.6208
bi	-10.6208
▁0,1	-10.6208
▁bowenoide	-10.6209
2021	-10.621
▁cholesterol	-10.6212
▁hypercellulair	-10.6213
definitief	-10.6214
pi	-10.6228
▁fibroom	-10.6238
▁stukje	-10.6242
▁15-	-10.6243
▁62-	-10.6245
▁fulminante	-10.6246
▁atheromateuze	-10.6247
▁onderooglid	-10.6257
▁overtuigend	-10.6265
▁(0	-10.6268
▁20%	-10.6275
▁me	-10.6278
rechterbovenkwab	-10.628
▁ijzerstapeling	-10.6286
▁extremiteiten	-10.6287
▁beschadigde	-10.6296
▁clark	-10.6298
▁aortastenose	-10.6304
▁histomorfologi	-10.6304
▁wil	-10.6306
▁myelodysplast	-10.6314
▁ont	-10.6323
▁crista	-10.6323
perforatie	-10.6324
▁kalk	-10.6328
▁toxicologisch	-10.6329
▁0,6	-10.6333
▁idiopathische	-10.6342
localisatie	-10.6347
gelet	-10.6353
dissectie	-10.6355
rie	-10.6356
▁46	-10.6357
▁06	-10.6366
▁mocht	-10.6368
▁igg	-10.6368
▁verwijdering	-10.6369
▁̄de	-10.6372
▁september	-10.6374
▁cave	-10.6378
uren	-10.6379
▁ret	-10.6379
▁ulceratieve	-10.6381
▁vlekkerig	-10.6386
huid	-10.6391
▁echogeleid	-10.6392
▁stoornis	-10.6393
▁bronchien	-10.6395
cholesterolemie	-10.6408
▁hp	-10.641
▁middelgro	-10.6419
▁33	-10.6423
▁alveoli	-10.6428
▁tijde	-10.6429
▁89	-10.6434
▁myomatosus	-10.6449
▁gemarkeerde	-10.6449
adenocarcinoom	-10.6456
▁thrombotische	-10.6461
▁beter	-10.6467
eld	-10.6469
▁2006	-10.6474
76	-10.6479
verlies	-10.6482
▁2015	-10.6488
▁geindiceerd	-10.649
▁locus	-10.649
▁bacteriemie	-10.649
2020	-10.6494
▁hypotensief	-10.6496
▁0,4	-10.6498
▁ziektebeeld	-10.6498
100	-10.65
▁scheenbeen	-10.6507
▁daling	-10.6514
onderwandinfarct	-10.652
▁geassocieerde	-10.6526
dysplasie	-10.6531
▁aangedaan	-10.6531
▁onzeker	-10.6531
▁groeit	-10.6532
▁01	-10.6535
▁glandula	-10.6538
▁luchthoudend	-10.6538
▁contractieband	-10.6539
beschadiging	-10.6542
veneuze	-10.6542
gram	-10.6546
▁jw	-10.6548
jarig	-10.6551
▁helix	-10.6562
▁sputum	-10.6572
▁collabeerde	-10.6572
▁gewichtsverlies	-10.6572
▁marginal	-10.6572
▁adeno	-10.658
2019	-10.6582
rb	-10.6582
▁recentere	-10.6586
voorlopig	-10.6604
▁63-	-10.6604
▁adenocarcinoma	-10.6614
▁resulterend	-10.6614
circumferentiele	-10.6617
▁(>	-10.663
▁08	-10.6634
aire	-10.6643
▁poliepje	-10.6643
▁hoeverre	-10.6655
▁matuur	-10.6655
mat	-10.6656
▁arterietakken	-10.6656
▁4:	-10.6659
ast	-10.6676
oa	-10.6686
ation	-10.6689
▁scherp	-10.6696
▁wederom	-10.6696
▁pericentrale	-10.6697
▁lymfatische	-10.67
▁brca	-10.67
curettement	-10.6701
▁pleiomorf	-10.6703
▁mogelijkheden	-10.6704
2014	-10.6707
▁47	-10.6712
eb	-10.6714
▁obductieverslag	-10.672
▁vervanging	-10.6731
▁calcificatie	-10.6736
▁radicale	-10.6738
▁tbc	-10.6738
▁neuroendocrien	-10.6746
gene	-10.6748
▁brush	-10.6753
▁ductale	-10.6763
▁troebele	-10.6772
▁situs	-10.6772
aritmogene	-10.678
▁onderbenen	-10.678
▁samenvatting	-10.678
▁duur	-10.6782
93	-10.6784
einde	-10.6789
▁rok	-10.6791
component	-10.6793
▁bovenrug	-10.6799
▁ventrale	-10.6803
▁26-	-10.6808
72	-10.6809
▁inclusies	-10.6809
▁verrichte	-10.6815
▁gradering	-10.682
▁schouderblad	-10.6834
therapie	-10.6838
▁100%	-10.6838
acht	-10.684
▁metaplastisch	-10.6845
▁40%	-10.6859
tri	-10.6864
▁artritis	-10.6865
▁geexcideerd	-10.6865
▁kraakbeen	-10.6865
ventrikelsysteem	-10.6865
cd	-10.6869
▁msi	-10.6872
▁endocervix	-10.6874
▁blaasslijmvlies	-10.6875
hypertensieve	-10.6885
alwaar	-10.6888
▁lymfocytair	-10.6888
▁gele	-10.6888
▁bethesda	-10.6895
▁preexistente	-10.6898
▁asfyxie	-10.6907
▁tuberculose	-10.6907
▁ijzer	-10.6908
▁bypasses	-10.6911
▁vermeldt	-10.6912
▁05	-10.6913
stuwing	-10.692
▁onderste	-10.6931
▁84-	-10.6935
▁dis	-10.6948
▁reanimeren	-10.6957
▁tri	-10.696
ive	-10.6962
▁intestinaal	-10.6967
▁maagwand	-10.6967
▁adenomen	-10.6968
▁pars	-10.6971
gezien	-10.6984
chi	-10.6984
▁pylorus	-10.6985
▁leiden	-10.6987
▁antibiotisch	-10.6987
▁83-	-10.699
extirpatie	-10.699
▁nodularis	-10.6993
▁inzichten	-10.6993
▁buikaorta	-10.6995
▁hersenweefsel	-10.6996
▁vaatafwijkingen	-10.6997
▁2017	-10.6999
▁thrombusvorming	-10.6999
▁urinewegen	-10.6999
ardiorespiratoir	-10.7008
classificatie	-10.701
▁kop	-10.7011
▁oorspronkelijke	-10.7013
colon	-10.7014
minstens	-10.703
▁alfa	-10.7036
▁extramedullair	-10.7037
▁doorsnijden	-10.704
▁striatum	-10.7042
▁tubulo	-10.7043
▁cq	-10.705
▁0,7	-10.705
ob	-10.7052
▁04	-10.7053
▁longembolus	-10.7053
mu	-10.7054
▁(12	-10.7059
▁autolytisch	-10.706
77	-10.7065
▁32	-10.7066
▁0.	-10.7067
litteken	-10.7076
▁2005	-10.7077
▁betrokken	-10.7078
▁gekregen	-10.7079
zijwand	-10.708
▁buitenzijde	-10.708
▁thrombosering	-10.7081
▁steen	-10.7085
ker	-10.7085
▁littekenvorming	-10.7087
44	-10.7092
daling	-10.7096
▁scalp	-10.7099
▁verspreide	-10.7101
bo	-10.7106
sgraad	-10.7111
lymf	-10.7115
▁icd	-10.7117
▁sclerotisch	-10.7118
58	-10.7121
▁specificiteit	-10.7123
▁inzage	-10.7123
▁zijsnijvlak	-10.7127
plastiek	-10.7131
vaten	-10.7137
▁jakob	-10.7144
▁kappa	-10.7145
▁gist	-10.7148
lymfoom	-10.7151
600	-10.7155
achtig	-10.7157
▁gekomen	-10.716
4)	-10.7162
▁ontstekings	-10.7162
▁osteoporose	-10.7167
▁myo	-10.7178
▁leverkwab	-10.718
proliferatieve	-10.7189
pd	-10.7191
▁kleiner	-10.7208
▁subpleuraal	-10.721
▁embolien	-10.7212
passend	-10.7212
82	-10.7219
▁lumbale	-10.7222
▁darmresectie	-10.7227
ha	-10.7229
▁stase	-10.7231
tur	-10.7233
▁circulatoir	-10.7236
▁catheter	-10.7245
patroon	-10.725
▁raakte	-10.7254
metastasering	-10.7255
▁vroeger	-10.7257
▁hyaliene	-10.7269
reticulaire	-10.7274
05,	-10.7279
diam	-10.728
▁papperige	-10.7286
holte	-10.7288
arm	-10.7296
73	-10.7298
▁pneumosepsis	-10.7299
▁voetlengte	-10.7299
kin	-10.7299
▁labium	-10.7299
oma	-10.73
▁verwikkelingen	-10.7304
▁blaascarcinoom	-10.7304
organ	-10.7315
▁adhaesies	-10.7316
▁16-	-10.7322
▁mannelijk	-10.7325
▁60-	-10.7326
ik	-10.7326
2022	-10.733
▁hartoor	-10.7331
▁endocard	-10.7342
▁vormen	-10.7342
2;	-10.7342
▁noodzakelijk	-10.7343
▁clostridium	-10.7347
▁lymfogeen	-10.7347
ok	-10.7349
▁serosale	-10.7353
▁compensatoire	-10.7357
sn	-10.7359
09:	-10.7363
▁episode	-10.7367
7)	-10.7374
▁2-3	-10.7382
▁exacte	-10.7384
samen	-10.7388
▁meningeoom	-10.7388
▁spontane	-10.7388
▁microbiologie	-10.7393
▁bloedkweken	-10.7393
tose	-10.7399
punctaat	-10.7405
65	-10.7406
▁vergroeid	-10.7415
▁sporadisch	-10.7415
▁clavicula	-10.7416
▁bi	-10.7424
helft	-10.7431
▁interventie	-10.7433
▁normocellulair	-10.7433
▁enerzijds	-10.7433
▁schimmeldraden	-10.7433
42	-10.7439
▁2007	-10.7439
3):	-10.7444
rij	-10.7467
▁paar	-10.7467
^	-10.7469
▁fibrotisch	-10.7471
▁proliferatieve	-10.7472
▁collumfractuur	-10.7478
▁nierbiopt	-10.7478
▁septaal	-10.7486
▁vaste	-10.7488
15:	-10.7488
▁lytische	-10.7488
▁2)	-10.7495
▁omliggend	-10.7509
6,	-10.7513
min	-10.7513
▁associatie	-10.7526
▁ileusbeeld	-10.753
▁braak	-10.7538
▁gea	-10.7538
▁asymmetrische	-10.7541
zen	-10.7546
snijvlak	-10.7548
who	-10.7548
!	-10.755
▁sclerotische	-10.7551
geschiedenis	-10.7553
▁geraakt	-10.7568
▁hypoplastisch	-10.7568
▁thyreoiditis	-10.7568
▁daarmee	-10.7568
▁abcesvorming	-10.7571
▁nieuw	-10.7578
▁61-	-10.7587
▁ja	-10.7593
▁avond	-10.7593
▁operatief	-10.7606
▁ra	-10.7609
▁annulare	-10.7614
▁bewijs	-10.7614
▁geinfarceerd	-10.7614
▁mevrouw	-10.7614
▁ijzerpigment	-10.7614
scomponent	-10.7615
klinische	-10.7617
▁breuk	-10.7621
▁kwaliteit	-10.7624
hy	-10.7625
▁ac	-10.7631
▁cytologie	-10.7638
▁sessiel	-10.7639
▁reeks	-10.7644
tisch	-10.7652
3,	-10.7659
▁lamelleren	-10.766
▁mogen	-10.7662
▁trombotische	-10.7663
▁prostatectomie	-10.7668
▁linkeronderkwab	-10.7671
▁katheter	-10.7673
▁percentage	-10.7674
▁elleboog	-10.7675
fluorescentie	-10.7677
▁bullae	-10.7678
▁nasi	-10.7682
ventrikelfunctie	-10.7684
nd	-10.7692
54	-10.7693
000	-10.7706
▁bepalen	-10.7706
▁dyspneu	-10.7706
▁hartzakje	-10.7706
▁lamblia	-10.7706
▁suboptimaal	-10.7706
▁desondanks	-10.7706
ria	-10.7708
▁tricuspidalis	-10.7709
mel	-10.771
▁59-	-10.7711
ero	-10.772
innemend	-10.7732
stase	-10.7747
▁complex	-10.7747
▁slappe	-10.7751
▁spongiose	-10.7752
▁patent	-10.7753
▁septa	-10.7759
sproces	-10.7762
▁varierend	-10.7766
▁hieruit	-10.7767
▁60%	-10.777
▁extravasatie	-10.7773
61	-10.7773
occipitaal	-10.7779
▁tumorrest	-10.7781
▁apicaal	-10.7782
▁snijrand	-10.7783
▁gesloten	-10.7783
versus	-10.7784
▁vreemdlichaams	-10.7798
▁dankzegging	-10.7799
▁gyrus	-10.7799
▁hoesten	-10.7799
07/	-10.7808
▁pulmonales	-10.781
▁verspreiding	-10.7816
▁sch	-10.7817
▁bijkomend	-10.783
▁heldere	-10.7839
▁bronchiolitis	-10.7855
▁zwak	-10.7856
▁550	-10.7857
▁radiologisch	-10.7859
▁broekprothese	-10.7862
▁gebouwde	-10.7872
-20	-10.7874
▁gestenoseerd	-10.7893
▁meisje	-10.7893
▁anderhal	-10.7897
▁hydropische	-10.7897
▁eci	-10.7897
▁lijn	-10.7912
mede	-10.7912
varices	-10.7916
js	-10.7923
segmentale	-10.7923
ding	-10.7933
▁650	-10.7938
▁parietale	-10.794
▁prostatitis	-10.794
▁vaker	-10.794
ica	-10.7945
▁gaf	-10.7954
▁750	-10.7954
▁as	-10.7959
corpus	-10.7963
alveolair	-10.7965
aantal	-10.7971
▁verkalkt	-10.7972
▁hemorrhagisch	-10.7972
▁27-	-10.7976
▁asthma	-10.7987
▁sedatie	-10.7987
▁anderzijds	-10.7987
▁echografisch	-10.7987
▁diafragmatica	-10.7988
▁contaminatie	-10.7992
▁vernauwingen	-10.7996
▁influenza	-10.7998
▁1400	-10.7998
cysteuze	-10.7998
16/	-10.8001
degeneratieve	-10.8006
embolische	-10.8009
als	-10.801
▁verstoorde	-10.8018
▁foto	-10.8019
▁zenuwstelsel	-10.8035
▁duidt	-10.8036
▁buisprothese	-10.8038
▁mediane	-10.8038
tot	-10.8047
ging	-10.8049
▁antrumtype	-10.805
▁schrompelnieren	-10.805
▁plasmacel	-10.8051
moleculair	-10.8052
▁grootcellige	-10.8052
▁erg	-10.8057
gang	-10.8059
▁schrompelnier	-10.8067
conform	-10.8067
▁overig	-10.8068
calcificaties	-10.807
▁(1)	-10.807
▁aspecifiek	-10.8071
▁krapst	-10.8076
▁coma	-10.808
89	-10.8082
▁aeruginosa	-10.8083
▁mastectomie	-10.8083
▁genetica	-10.8083
▁grensvlaknaevus	-10.8083
▁nerv	-10.8083
▁alcoholgebruik	-10.8084
▁1200	-10.809
▁nodi	-10.8094
▁infarcthaarden	-10.8101
▁wit	-10.8102
-6	-10.8104
▁diagnoses	-10.8106
▁tumormetastasen	-10.811
▁thoracotomie	-10.8114
falen	-10.8123
ef	-10.8125
64	-10.8127
form	-10.8127
▁zuurstof	-10.8128
▁chemo	-10.813
▁confluerende	-10.8131
▁getroffen	-10.8133
▁medicamenteuze	-10.8136
lokalisaties	-10.8161
▁44	-10.8166
erd	-10.8167
emie	-10.8167
▁carotiden	-10.8179
▁nbt	-10.8186
▁endometriose	-10.8187
2):	-10.8187
▁mds	-10.8189
intern	-10.819
▁neo	-10.8191
che	-10.8193
▁viraal	-10.8196
onderverdelingen	-10.8197
▁emboli	-10.8203
voorhoofd	-10.8213
▁plekke	-10.8221
▁test	-10.8226
moleculaire	-10.8226
▁bewezen	-10.8228
▁buikorganen	-10.8228
▁rbk	-10.8228
▁heupprothese	-10.8229
▁acht	-10.8232
▁placentaire	-10.8234
▁subcapsulaire	-10.8238
▁aneurysmata	-10.8244
▁58-	-10.8245
▁enteritis	-10.8256
com	-10.8256
▁fragmentje	-10.8257
oppervlak	-10.8261
▁verzwaard	-10.8263
▁dominante	-10.8264
md	-10.8267
lig	-10.8268
▁ileostoma	-10.8276
▁longhypoplasie	-10.8277
macrovesiculaire	-10.8282
▁daarvoor	-10.8284
anvraagformulier	-10.8293
▁bloeddruk	-10.8296
sclerosis	-10.8296
poliep	-10.83
tic	-10.8304
omen	-10.8304
▁verstoring	-10.8315
▁0,2	-10.8317
▁wijde	-10.8324
cp	-10.8324
congestieve	-10.8325
▁genitalia	-10.8325
▁lichamelijk	-10.8325
▁obliteratie	-10.8325
▁hun	-10.8325
▁fijn	-10.8326
▁verwardheid	-10.8326
▁subtiele	-10.8335
▁92	-10.8338
▁tubulaire	-10.834
▁inbrengen	-10.8342
2013	-10.8348
▁advies	-10.8355
ij	-10.8355
▁bevatte	-10.8358
▁11-	-10.8358
81	-10.8367
▁mesencephalon	-10.8375
▁buitenoppervlak	-10.8375
▁daarom	-10.8379
▁femur	-10.8381
▁fragmentjes	-10.8381
▁stenotisch	-10.8386
▁cytoplasma	-10.8386
▁1)	-10.839
▁begeleidend	-10.8391
king	-10.8394
▁bloedstolsel	-10.8405
eproportioneerde	-10.8409
▁necrotiserend	-10.8411
gly	-10.8416
fractuur	-10.8418
▁voeten	-10.842
▁lupus	-10.8424
▁archief	-10.8424
▁sufficient	-10.8424
▁fibrinopurulent	-10.8424
▁melanoma	-10.8425
mx	-10.8433
klier	-10.8435
▁graads	-10.8435
▁85-	-10.8444
▁ingebracht	-10.8452
▁aangetoonde	-10.8458
▁42	-10.8459
▁decubitus	-10.8463
▁serrated	-10.8474
▁infrarenaal	-10.8474
▁faeces	-10.8474
▁patchy	-10.8475
▁hersengewicht	-10.8486
▁achterzijde	-10.8489
oedeem	-10.85
go	-10.8503
▁uitgebreidheid	-10.8504
▁nm	-10.8505
▁vlekkige	-10.8505
▁fusie	-10.8523
▁colostoma	-10.8524
▁pupillen	-10.8524
▁langere	-10.8525
▁aortakleppen	-10.8532
▁vergroeiingen	-10.8538
▁vaatverandering	-10.8539
▁bevestigde	-10.8541
▁schildklierkwab	-10.8546
obductie	-10.8546
slijmvliesbiopt	-10.8554
▁linkszijdig	-10.8555
delen	-10.8559
panel	-10.856
▁(100%)	-10.856
ure	-10.8565
troffen	-10.8571
▁albicans	-10.8574
▁dilaterende	-10.8574
▁tonsil	-10.8574
▁half	-10.8574
▁baten	-10.8575
▁ha	-10.8581
▁ademhaling	-10.8583
▁opbouw	-10.8585
▁pleit	-10.8588
sclerotische	-10.8588
top	-10.8588
▁behorend	-10.8589
▁grove	-10.8589
▁mitosen	-10.859
lc	-10.859
▁operaties	-10.8607
ib	-10.8607
▁bacterie	-10.861
▁symmetrisch	-10.8613
91	-10.8616
▁leverweefsel	-10.8616
10:	-10.862
▁goedaardige	-10.8622
▁liggen	-10.8623
▁localis	-10.8624
klep	-10.8624
▁geinkte	-10.8625
▁gezocht	-10.8625
▁temporalis	-10.8625
▁termijn	-10.8625
▁talgklier	-10.8625
▁cystadenoom	-10.8625
▁aanwijsbaar	-10.8625
▁7,	-10.8626
▁trombosering	-10.8627
receptorbepaling	-10.8653
schade	-10.8655
▁infarctlitteken	-10.8656
mamma	-10.8658
definitieve	-10.8665
▁rectumbiopten	-10.8665
▁gebruikte	-10.8666
sa	-10.8666
pijn	-10.8669
▁lichaamsgewicht	-10.8671
▁rijping	-10.8674
▁erythema	-10.8675
▁lactaat	-10.8675
▁epileptisch	-10.8675
▁kortademigheid	-10.8676
▁regelmatig	-10.8676
shaarden	-10.8684
▁mri	-10.8684
▁nodig	-10.8684
refractaire	-10.8689
▁electro	-10.8691
lp	-10.8693
▁pd	-10.8694
▁event	-10.8695
sveranderingen	-10.8706
kweken	-10.8712
▁subcapsulair	-10.8715
▁lag	-10.8716
▁reuscelreactie	-10.8719
doorgemaakte	-10.8723
ster	-10.8724
name	-10.8724
▁artherosclerose	-10.8726
▁beschadigd	-10.8726
▁melena	-10.8726
▁fecale	-10.8726
▁endometrioid	-10.8732
▁longmetastasen	-10.8737
▁opgemerkt	-10.8739
▁aanvraag	-10.8746
▁anamnese	-10.8747
▁erbb	-10.8752
▁gegaan	-10.8754
▁consolidatie	-10.8757
/*******	-10.876
▁1.5	-10.8764
histologisch	-10.8768
zoals	-10.8768
▁klassieke	-10.8775
recidief	-10.8777
beginnende	-10.8777
▁emphyseem	-10.8778
▁onbegrepen	-10.8778
▁uiterlijk	-10.8778
▁presentatie	-10.8778
▁vruchtwater	-10.8781
▁megakaryocyten	-10.8782
zij	-10.8783
▁puntjes	-10.8788
▁(10	-10.8795
▁rectaal	-10.8796
▁activeren	-10.8796
▁arteriolo	-10.8803
▁bijzonder	-10.8809
▁afsluitingen	-10.8812
▁mi	-10.8812
▁localisaties	-10.8815
▁donatie	-10.8826
▁extreme	-10.8827
plaats	-10.8827
▁mesotheel	-10.8829
▁morfine	-10.8829
▁opgebouwd	-10.8829
▁cognitieve	-10.8829
▁malen	-10.883
▁delier	-10.883
cr	-10.8837
▁oxygenatie	-10.8837
▁hiv	-10.8839
lg	-10.884
▁em	-10.8848
▁voorafgaande	-10.8851
▁protocol	-10.8857
▁1).	-10.8861
▁tumorhaard	-10.8862
▁poging	-10.8866
▁*******):	-10.8877
13:	-10.8881
▁aspergillose	-10.8881
▁behoort	-10.8881
▁parakeratose	-10.8881
▁locale	-10.8881
▁tengevolge	-10.8881
▁hematogene	-10.8881
▁kapseldoorbraak	-10.8881
▁duodenums	-10.8881
▁neurofibroom	-10.8882
20-	-10.8882
▁peroperatief	-10.8883
▁kopie	-10.8884
naaldbiopt	-10.8888
racheobronchitis	-10.889
▁debris	-10.8895
▁scleroserende	-10.8902
▁natuurlijk	-10.8906
▁insult	-10.8918
nog	-10.8918
▁vasculair	-10.892
ccr	-10.8925
▁dig	-10.8928
▁blokjes	-10.893
▁myofibrosis	-10.8933
▁ooglid	-10.8933
▁toegeschreven	-10.8933
▁verrukeuze	-10.8933
▁lamina	-10.8933
▁levenloos	-10.8933
▁onze	-10.8941
zeer	-10.8942
bbl	-10.8946
ser	-10.8946
▁ingevroren	-10.8951
▁onregelmatig	-10.8957
▁eiwit	-10.8961
▁geisoleerd	-10.8975
▁geinfecteerd	-10.8975
▁malformatie	-10.8977
▁kans	-10.8979
▁tachycardie	-10.8983
▁dubbelbrekend	-10.8985
▁globaal	-10.8985
▁relatieve	-10.9003
▁heart	-10.9006
▁mij	-10.9012
▁120	-10.9027
▁vas	-10.903
▁longhilus	-10.9032
▁tpn	-10.9033
▁parieto	-10.9036
▁geldt	-10.9038
uiteraard	-10.9038
bloedingen	-10.9038
vangingsfibrose	-10.9042
ziekte	-10.905
▁populatie	-10.9055
proces	-10.9059
▁am	-10.9062
stadium	-10.9073
▁vermoed	-10.9075
▁persisterend	-10.9084
totaal	-10.9085
wang	-10.9088
tak	-10.9091
hyperpigmentatie	-10.9091
▁geabstineerd	-10.9091
necrologie	-10.9092
▁operatieve	-10.9095
therapeutische	-10.9097
▁myocardfibrose	-10.9103
▁namelijk	-10.9105
man	-10.9114
▁75%	-10.9118
fectieparameters	-10.912
▁uitstrijk	-10.9126
▁verkleurd	-10.9135
71	-10.9137
▁bruin	-10.9143
seudomembraneuze	-10.9144
▁comateus	-10.9144
▁poliepeus	-10.9145
▁hepatocyten	-10.9146
ud	-10.9146
▁daardoor	-10.9147
ts	-10.9149
last	-10.9159
anaal	-10.916
▁31-	-10.9171
▁lambda	-10.9171
coupe	-10.9173
▁dad	-10.9181
▁ziek	-10.9186
▁reumato	-10.9192
bls	-10.9192
▁contractie	-10.9196
▁electieve	-10.9198
▁hypoxemie	-10.9198
▁spreken	-10.9198
▁moeder	-10.9198
microscopie	-10.9198
▁5:	-10.9199
▁sepsisbeeld	-10.9209
▁wandstandige	-10.9212
11:	-10.9229
-8	-10.9233
zo	-10.9244
vormige	-10.9245
▁nos	-10.9251
▁lichaamsvreemd	-10.9251
▁rondkernig	-10.9252
▁verwijderen	-10.9253
▁hypovolemie	-10.9258
▁ostia	-10.9264
fu	-10.9266
▁fibrineus	-10.9271
oezemfibrilleren	-10.9273
▁43	-10.9275
▁grawitz	-10.9276
▁ingezonden	-10.9279
▁probleem	-10.9284
▁cf	-10.9289
▁sta	-10.9303
▁voorzijde	-10.9304
vasculaire	-10.9305
▁damage	-10.9305
▁subarachnoidaal	-10.9305
▁hoofdpijn	-10.9307
▁viel	-10.9312
▁prurigo	-10.9314
▁putamen	-10.9318
▁genetische	-10.9321
▁familiaire	-10.9322
mucosa	-10.9326
▁vezels	-10.9339
▁aftakking	-10.9342
▁ventriculaire	-10.9342
▁wanddikte	-10.9351
actieve	-10.9353
di	-10.9358
bare	-10.936
▁foramen	-10.936
▁ondersteunt	-10.936
▁ontstaat	-10.936
▁flegmoneuze	-10.936
▁cardiomegalie	-10.936
▁postanoxische	-10.936
wa	-10.9362
▁cea	-10.9364
87	-10.9367
res	-10.9368
▁br	-10.9373
▁solair	-10.9374
59	-10.9383
sm	-10.9399
vocht	-10.9399
murale	-10.9403
▁bijdrage	-10.9408
▁ontwikkelen	-10.941
structuren	-10.9411
bespreking	-10.9414
▁gehandhaafd	-10.9414
▁intimafibrose	-10.9415
▁dysplastisch	-10.9416
▁hetzelfde	-10.9422
▁ophoping	-10.9424
ub	-10.9425
▁betrokkenheid	-10.9426
xi	-10.9428
▁gallige	-10.9433
▁tensie	-10.9433
▁indicatie	-10.945
▁uip	-10.9456
%)	-10.9458
luchtweginfectie	-10.9461
▁sporadische	-10.9464
41	-10.9465
ongeveer	-10.9467
▁majus	-10.9469
▁aantonen	-10.9469
▁dragen	-10.947
excisiepreparaat	-10.9479
nte	-10.9486
▁1,3	-10.95
stilstand	-10.9503
ras	-10.9506
ngs	-10.9506
▁verbinding	-10.9509
51	-10.9511
▁bloedvat	-10.9513
▁dergelijk	-10.9518
▁semi	-10.9518
pik	-10.952
▁mediastinitis	-10.9525
▁oncogene	-10.9525
1):	-10.9525
▁toegezonden	-10.9525
0)	-10.9525
▁apart	-10.9528
▁bls	-10.9531
▁wigexcisie	-10.9537
▁pci	-10.9541
▁cervixbiopten	-10.9551
▁tangles	-10.9552
▁penis	-10.9553
▁carina	-10.9556
▁ziet	-10.9558
▁bevonden	-10.9572
▁omgeven	-10.9575
▁saturatie	-10.958
▁infarctjes	-10.9592
schimmelkleuring	-10.9595
▁infecties	-10.9599
08:	-10.9599
▁elastose	-10.9602
▁91	-10.9613
rijk	-10.9614
▁medicamenteus	-10.9614
-2-	-10.9622
mn	-10.9625
▁bijgaand	-10.963
lip	-10.963
▁gefragmenteerde	-10.9632
cre	-10.9634
geschat	-10.9636
▁geaspireerd	-10.9636
▁lynch	-10.9636
▁ruggemerg	-10.9636
▁mondbodem	-10.9636
▁hematothorax	-10.9636
▁fracturen	-10.964
▁patienten	-10.9641
▁mammae	-10.9642
▁mmr	-10.9648
ros	-10.965
zicht	-10.9652
▁maternal	-10.9654
▁lca	-10.9655
▁(2)	-10.9657
ris	-10.9657
celcarcinoom	-10.9664
▁obstruerende	-10.9666
nieuwe	-10.967
papillairspieren	-10.967
ga	-10.9682
eert	-10.9687
▁intoxicatie	-10.9688
▁aaa	-10.9691
▁gedetecteerd	-10.9692
▁pancytopenie	-10.9692
▁wanneer	-10.9692
▁haemodynamisch	-10.9692
▁inziens	-10.9693
▁calcificerend	-10.9696
▁daarop	-10.97
▁last	-10.9701
ernstige	-10.9702
▁(*******):	-10.9706
▁keer	-10.9706
▁caudale	-10.9707
elijk	-10.9707
ase	-10.9728
▁hepatische	-10.9734
▁kaliber	-10.974
ers	-10.9743
▁tijdstip	-10.9749
▁tensiedaling	-10.9749
▁pericentraal	-10.9749
▁optrad	-10.9749
tevens	-10.975
formatie	-10.9751
▁celmateriaal	-10.9753
▁lacunaire	-10.9754
▁nefro	-10.9755
▁groeipatroon	-10.9756
▁bo	-10.9757
dad	-10.976
nr	-10.9764
▁gewijzigd	-10.9765
▁rv	-10.9768
▁mai	-10.9772
leg	-10.9782
▁acinair	-10.9782
▁plm	-10.9785
▁vergroeiing	-10.979
su	-10.9801
aorta	-10.9804
▁86-	-10.9805
cilinderepitheel	-10.9806
▁gekenmerk	-10.9806
▁orgaansystemen	-10.9806
▁paramediaan	-10.9806
▁verwijzing	-10.9809
▁crp	-10.981
▁dun	-10.982
▁gold	-10.9824
▁1,8	-10.9829
zymhistochemisch	-10.9829
▁fibrilleren	-10.9841
neus	-10.9842
3:	-10.9846
▁afhankelijk	-10.9852
▁geoccludeerd	-10.9857
▁aangrenzend	-10.9857
10-20	-10.9862
▁pyogenicum	-10.9863
▁spectrum	-10.9863
▁multiforme	-10.9863
▁lacunair	-10.9863
3).	-10.9864
▁aangrenzende	-10.9868
▁inzendingen	-10.9868
▁tnm	-10.9871
therapeutisch	-10.9873
▁tumorgroei	-10.9873
▁huidcurettage	-10.988
▁0,9	-10.9881
▁wur	-10.9887
▁cyto	-10.9887
▁dysfunctie	-10.9888
▁ch	-10.9898
yl	-10.9905
▁histiocytaire	-10.9907
▁mammabiopten	-10.9909
▁180	-10.9914
▁cerebellair	-10.9915
▁bovenbeschreven	-10.992
▁vlokken	-10.9921
▁tonsillen	-10.9921
epitheliaal	-10.9923
▁epidermiscyste	-10.9931
▁overhecht	-10.9932
bloed	-10.9936
▁doorgroeiend	-10.9937
kwab	-10.994
problematiek	-10.9943
▁hoger	-10.9948
str	-10.9949
▁lis	-10.9964
functie	-10.9969
23-	-10.9971
▁blijven	-10.9974
▁fundus	-10.9974
▁armen	-10.9975
▁voedselresten	-10.9978
▁werkdiagnose	-10.9978
flow	-10.9983
▁stabiel	-10.9983
galblaasresectie	-10.9986
▁bal	-10.9992
oude	-10.9995
▁kenmerkend	-11.0006
▁pi	-11.0013
▁body	-11.0014
ary	-11.0015
sbaar	-11.0017
iaal	-11.0018
5)	-11.0021
lie	-11.0022
invasief	-11.0025
▁55-	-11.0025
taal	-11.0028
intra	-11.0032
tt	-11.0034
▁collegialiter	-11.0036
▁sequentie	-11.0036
▁brief	-11.0036
▁herkomst	-11.0038
▁amygdala	-11.0042
▁(0/	-11.0047
▁skelet	-11.006
▁prolaps	-11.0062
▁maagtype	-11.0073
buik	-11.0084
▁eerst	-11.0086
▁for	-11.0098
▁concrementen	-11.0101
▁04-	-11.0102
46	-11.0113
▁streng	-11.0115
▁zeven	-11.0116
▁4-	-11.0117
ehe	-11.012
darm	-11.0121
ratie	-11.0123
▁afmetingen	-11.0126
iale	-11.0126
▁56-	-11.0127
▁spieren	-11.014
▁mn	-11.014
%).	-11.0141
schildwachtklier	-11.0147
matig	-11.0153
▁achtergebleven	-11.0153
▁ganglia	-11.0154
▁splenectomie	-11.0154
▁liesbreuk	-11.0154
▁binnenzijde	-11.0155
▁lichaams	-11.0157
▁papel	-11.0166
cf	-11.0167
▁vermelde	-11.0169
▁imponerend	-11.0172
laterale	-11.0189
fac	-11.0189
1:	-11.019
▁doorbloeding	-11.0199
▁mijn	-11.0209
▁gedeeltelijk	-11.021
▁aangeboden	-11.0213
▁coeruleus	-11.0213
▁linkerhartkamer	-11.0213
keursdiagnose	-11.0214
▁nierparenchym	-11.0224
▁adequaat	-11.0224
▁puspockets	-11.0225
naad	-11.0226
▁linkerbovenkwab	-11.0226
69	-11.0228
▁loop	-11.0237
▁opge	-11.0249
▁perforaties	-11.0254
▁letsels	-11.026
mma	-11.0261
▁deficientie	-11.0263
15-1	-11.0265
obstructief	-11.0271
▁herhaling	-11.0272
▁curvatuur	-11.0272
▁halverwege	-11.0272
▁inactief	-11.0272
▁lbk	-11.0272
▁nabloeding	-11.0272
▁afgesproken	-11.0272
▁seder	-11.0273
04,	-11.0274
▁intrapulmonale	-11.0276
▁trombusvorming	-11.0278
▁ileocoecaal	-11.0278
▁idh	-11.0283
▁conclusiei	-11.0284
kd	-11.0285
▁naaldbiopsie	-11.0287
▁y	-11.0288
eling	-11.0292
neuro	-11.0294
▁tumoreuze	-11.0295
komst	-11.0304
verslag	-11.0308
lymfklier	-11.0308
▁haarfollikel	-11.0311
▁schouw	-11.0323
takken	-11.0327
▁beschikbaar	-11.0332
▁solaris	-11.0332
▁bovenpool	-11.0334
▁crypt	-11.0335
▁gland	-11.0339
▁zegelringcel	-11.0348
angiopathie	-11.0348
corpusslijmvlies	-11.0354
▁belaste	-11.0356
groei	-11.0356
▁agonaal	-11.0357
▁preexistent	-11.0357
▁ware	-11.0361
▁high	-11.0366
▁cutane	-11.0375
fragment	-11.0376
my	-11.0382
▁vertebralis	-11.0392
oc	-11.0395
ischemie	-11.0398
▁symptomen	-11.04
rectum	-11.0401
▁balkenblaas	-11.0404
▁ovale	-11.0409
▁slokdarmbiopten	-11.0414
▁opmerkelijk	-11.0415
▁borderline	-11.0417
▁voedsel	-11.043
▁late	-11.0436
▁punt	-11.0439
temporaal	-11.0448
▁gebroken	-11.0453
▁ebus	-11.0453
▁subpleurale	-11.0453
▁mycose	-11.0453
▁botweefsel	-11.0457
▁fibroblasten	-11.0458
reuscelreactie	-11.0462
▁sampling	-11.0462
▁sigmoa	-11.0463
▁ganglion	-11.0467
▁complexe	-11.0468
neren	-11.047
out	-11.0471
the	-11.0476
ventrikel	-11.0478
blokje	-11.0486
tomie	-11.0491
formulier	-11.0493
▁encefalitis	-11.0501
voet	-11.0503
▁3).	-11.0506
tica	-11.0508
▁faecium	-11.0514
▁spiervezels	-11.0514
▁paratracheaal	-11.0514
▁levercelnecrose	-11.0514
▁osteo	-11.0518
respectievelijk	-11.0524
gelegen	-11.0524
▁blaasbiopten	-11.0524
gekomen	-11.0531
▁verzwaarde	-11.0531
arterien	-11.0536
▁(500	-11.0537
▁plexus	-11.0537
▁cre	-11.054
▁stv	-11.0555
▁lesie	-11.0555
▁myelum	-11.057
jejunostomie	-11.0575
▁herhalen	-11.0575
▁versmalling	-11.0575
▁ligament	-11.0575
▁faecaal	-11.0575
▁cardiopulmonaal	-11.0576
▁thans	-11.0576
▁myoom	-11.0576
▁buikvocht	-11.0578
coronary	-11.058
snijvlakken	-11.0582
functieverlies	-11.0583
oli	-11.0584
treft	-11.0587
▁stomp	-11.0588
▁athero	-11.0589
▁adenoid	-11.0591
▁longfunctie	-11.0591
uc	-11.0592
stent	-11.0598
obstructie	-11.0598
▁depressie	-11.0601
▁traumatische	-11.0608
▁ms	-11.0626
▁57-	-11.0627
ry	-11.0628
br	-11.0628
lyse	-11.0629
▁syndrome	-11.0634
if	-11.0635
▁onsteking	-11.0637
▁zuurvaste	-11.0637
▁ontbreekt	-11.0637
▁bijgewoond	-11.0637
▁nemen	-11.0637
stand	-11.0638
ingroei	-11.0638
▁overgenomen	-11.0639
loge	-11.064
▁terecht	-11.0643
▁occluderende	-11.0645
beiderzijds	-11.0648
52	-11.0649
ijzerhoudende	-11.0649
ischemische	-11.0649
▁mucosale	-11.0652
scellen	-11.0654
▁alveolair	-11.0659
▁vierde	-11.0661
-19	-11.0664
▁lymf	-11.0669
▁stond	-11.0671
lymfklierpunctie	-11.0676
geringe	-11.0681
▁donker	-11.0695
▁benauwd	-11.0698
▁chroniciteit	-11.0699
▁percutane	-11.0699
▁fibrosis	-11.0702
onderbeen	-11.0708
antibiotische	-11.0708
▁25%	-11.0708
weg	-11.0711
coeur	-11.0711
dra	-11.0712
▁temporale	-11.0714
bu	-11.0716
0,	-11.0732
▁porte	-11.0733
4-	-11.0735
▁7:	-11.0736
▁dilatatio	-11.0762
▁karakter	-11.0762
▁geanalyseerd	-11.0762
▁berichten	-11.0762
▁papillomateuze	-11.0762
▁keratoacanthoom	-11.0762
▁aanhoudend	-11.0765
▁snoergroeven	-11.0767
▁blaashals	-11.0768
▁darmziekte	-11.0768
hoog	-11.0774
▁fibrosehaarden	-11.0778
ani	-11.0787
▁voorafgaand	-11.0798
▁heen	-11.0814
▁screening	-11.0824
▁anurie	-11.0825
est	-11.083
maanden	-11.0838
▁1300	-11.0838
fil	-11.0839
▁cerebro	-11.0841
septische	-11.0847
▁microsatelliet	-11.0871
infiltratie	-11.0888
▁hyaline	-11.0888
▁tamelijk	-11.0888
▁sigmoideum	-11.0888
▁bevinden	-11.0888
▁verweekt	-11.0889
▁gescleroseerd	-11.0889
▁coronarialijden	-11.0889
▁dik	-11.0889
inhoud	-11.089
▁postuur	-11.0891
▁arterieen	-11.0895
▁corticaal	-11.0898
▁hemi	-11.0906
▁obstructieve	-11.0907
▁innemend	-11.0915
▁mlh	-11.0926
▁belasting	-11.0931
▁ingehecht	-11.0932
▁groter	-11.0937
▁steun	-11.0942
▁ingevuld	-11.0951
▁interesse	-11.0951
▁verergerd	-11.0951
▁erythrocyten	-11.0951
▁orgaangewichten	-11.0951
▁abnormale	-11.0951
leeftijdsconform	-11.0952
▁onderpool	-11.096
:^	-11.0962
▁onregelmatige	-11.0963
▁geisoleerde	-11.0964
▁angiogram	-11.0964
▁nst	-11.0973
ment	-11.098
-7	-11.0983
▁vaatwanden	-11.0984
/10	-11.0986
resten	-11.0995
▁capillair	-11.1002
▁myc	-11.1011
▁gescleroseerde	-11.1015
getwijfeld	-11.1016
▁beschrijving	-11.1016
▁vessel	-11.1016
▁weefselfragment	-11.1016
▁duct	-11.1016
▁adnexextirpatie	-11.1016
▁benauwdheid	-11.1017
▁wegener	-11.1017
lok	-11.1018
mc	-11.102
▁chromosoom	-11.1025
▁niveaus	-11.1026
allergische	-11.103
▁nierarterie	-11.1032
traject	-11.1032
▁vrouwelijk	-11.1034
▁sereu	-11.1038
22:	-11.1039
tosis	-11.1053
ff	-11.1054
pan	-11.106
ain	-11.1064
▁hoogste	-11.1072
ldh	-11.1072
▁sequencing	-11.108
▁nogmaals	-11.108
laag	-11.108
▁endoprothese	-11.1081
ms	-11.1081
teerd	-11.1081
▁insufficiente	-11.1084
▁1999	-11.1084
▁toxicodermie	-11.1086
▁msh	-11.1086
▁2).	-11.1089
terminale	-11.1095
▁bolle	-11.1096
datum	-11.11
▁gebiedjes	-11.11
▁hechting	-11.1103
▁zwart	-11.1111
del	-11.1113
▁erosies	-11.1115
arterie	-11.1115
mal	-11.1119
rr	-11.1126
zonder	-11.1127
▁circumferente	-11.1131
pathie	-11.1131
▁uitsluiten	-11.1134
▁+4	-11.1139
▁blauw	-11.114
16:	-11.1141
az	-11.1144
▁geneticus	-11.1145
▁lentigineuze	-11.1145
▁necroticans	-11.1145
▁veroorzaken	-11.1145
▁villitis	-11.1145
▁anterolateraal	-11.1145
▁wekedelen	-11.1147
▁marfan	-11.1153
trof	-11.1157
level	-11.1163
atrofie	-11.1165
1/*******	-11.1167
▁preparaten	-11.1175
▁bronchusbiopten	-11.1179
▁ko	-11.1181
por	-11.1189
net	-11.1193
57	-11.1202
▁abcedering	-11.121
▁adenomyosis	-11.121
▁bekleed	-11.121
▁evaluatie	-11.121
▁inotropie	-11.121
▁neonaat	-11.121
▁pneumectomie	-11.121
▁sacculair	-11.121
▁verlaagd	-11.121
▁lekker	-11.121
▁controleren	-11.1211
▁5,5	-11.1211
▁lvad	-11.1212
▁oa	-11.1212
▁geinduceerd	-11.122
▁voorkomende	-11.1221
▁tvu	-11.1221
▁craniale	-11.1225
▁hartventrikel	-11.1228
virus	-11.1229
bethesda	-11.1229
12:	-11.1229
▁perioden	-11.1235
▁negen	-11.1236
ert	-11.1238
fi	-11.1239
▁behandelend	-11.1245
▁longbloedingen	-11.125
▁fascie	-11.1254
▁sh	-11.1262
▁ki	-11.1263
non	-11.1265
▁graviditeit	-11.1272
sh	-11.1272
ix	-11.1275
▁3+3=6	-11.1276
▁aanmerking	-11.1276
▁gestold	-11.1276
▁bovenvermeld	-11.1276
▁cholesterolose	-11.1277
▁la	-11.1277
▁grondslag	-11.1277
▁holtevorming	-11.1278
▁haemo	-11.128
▁communicans	-11.1281
▁(9	-11.1285
okselkliertoilet	-11.1288
resectievlakken	-11.129
▁insulten	-11.1296
▁overgangscel	-11.1306
bronchusspoeling	-11.1313
ion	-11.1318
▁(11	-11.1321
▁viii	-11.1323
nucleaire	-11.1329
▁intravasculaire	-11.1329
_	-11.1338
▁topografie	-11.1338
ksf	-11.1341
▁herkenba	-11.1342
generation	-11.1342
▁astrocytoom	-11.1342
▁brede	-11.1343
▁gericht	-11.1344
▁roken	-11.1344
▁fragmentatie	-11.1344
▁goedaardig	-11.1346
▁overgroei	-11.1347
▁scrotum	-11.1351
▁shunt	-11.1353
▁aansluitend	-11.1355
▁bewijzend	-11.1358
▁gevormd	-11.1358
▁opsnijden	-11.1358
▁bijdragend	-11.1362
▁weg	-11.1362
▁iliacae	-11.1364
▁klassiek	-11.1368
ron	-11.1368
ischaemische	-11.137
▁360	-11.1374
▁stukjes	-11.1377
opathie	-11.1383
▁maakte	-11.1393
problemen	-11.1395
▁handen	-11.1401
▁geidentificeerd	-11.1409
▁obese	-11.1409
▁tracheostoma	-11.1409
▁transfusie	-11.1409
next	-11.1409
▁myelofibrose	-11.141
▁53-	-11.1417
lb	-11.1424
omateuze	-11.1424
ling	-11.1428
▁deletie	-11.1434
iso	-11.1435
▁kortdurend	-11.1442
▁hartlijden	-11.1449
ans	-11.1449
▁start	-11.1452
▁dyspnoeisch	-11.1454
activiteit	-11.1464
ting	-11.1465
wi	-11.1467
mie	-11.1473
loy	-11.1476
▁hemopericard	-11.1476
▁geoblitereerd	-11.1476
▁ongecompliceerd	-11.1476
inverted	-11.1477
▁hoofdtakken	-11.1477
▁okseltop	-11.1478
▁hoofdhuid	-11.1478
▁verrichten	-11.1484
kenmerkende	-11.1487
▁arterieel	-11.149
▁kit	-11.1491
infarcten	-11.1494
4):	-11.1505
▁enzym	-11.1505
zak	-11.1508
ventriculaire	-11.1514
▁ne	-11.1515
▁markers	-11.1519
age	-11.1523
▁neutrofielen	-11.1528
bacter	-11.1532
▁(15	-11.1535
▁gefixeerd	-11.1544
▁knapte	-11.1544
▁faecalis	-11.1544
▁thrombusmassa	-11.1545
▁+3	-11.1546
▁apocriene	-11.1558
▁veroudering	-11.1563
hv	-11.1566
borst	-11.1569
▁52-	-11.1572
▁groen	-11.1576
cho	-11.1579
hartspierweefsel	-11.1583
cellulaire	-11.1584
cardiale	-11.1596
segment	-11.1608
▁hersensektie	-11.1612
▁kidney	-11.1612
▁optimaal	-11.1612
fibrillatie	-11.1612
▁mastopathisch	-11.1613
▁verdringing	-11.1625
▁zijsnijranden	-11.1627
shock	-11.1631
▁capillairen	-11.1632
carcinomen	-11.1635
▁gebracht	-11.1638
3-	-11.1642
▁linkszijdige	-11.1644
▁ileumbiopten	-11.1647
afwijking	-11.1648
ief	-11.1649
▁plastiek	-11.1652
▁1/	-11.1657
▁1,4	-11.1661
▁geb	-11.1662
▁hypertrophi	-11.1667
▁overlegd	-11.1668
iden	-11.1671
▁conservatief	-11.168
▁dentatus	-11.168
▁inspanning	-11.168
▁mucineuze	-11.168
▁navel	-11.168
▁ontlasting	-11.1681
▁peritoneaal	-11.1684
▁subtype	-11.1685
▁renale	-11.1685
▁preauriculair	-11.1685
▁meningen	-11.1689
▁gecompliceerde	-11.169
lengte	-11.1691
▁bestonden	-11.1701
pogingen	-11.1702
▁neiging	-11.1703
▁jongen	-11.1705
▁2,0	-11.1706
middels	-11.1711
▁vriescoupes	-11.1712
^^	-11.1725
0).	-11.1727
▁1,1	-11.1728
ord	-11.1734
paralytische	-11.1737
▁chorio	-11.174
▁cx	-11.1747
▁cornea	-11.1749
▁accident	-11.1749
▁geintubeerd	-11.1749
▁hematurie	-11.1749
▁isthmus	-11.1749
▁zekerheidshalve	-11.175
haardjes	-11.1762
▁ercp	-11.1764
▁04.	-11.1765
▁minus	-11.1765
▁mechanisch	-11.1765
▁hem	-11.1768
interstitiele	-11.1776
▁patch	-11.1776
▁hydro	-11.1778
0%	-11.1779
7-	-11.178
operatieve	-11.1782
▁harthelft	-11.1784
rond	-11.1785
▁kaak	-11.1788
▁coccen	-11.1788
12-20	-11.1793
▁spoeling	-11.1797
renaal	-11.18
▁huis	-11.18
▁water	-11.1802
8)	-11.1808
▁zwangerschaps	-11.1809
fic	-11.1814
▁onverwachts	-11.1816
▁jicht	-11.1819
▁ondersteund	-11.1819
▁orienterend	-11.1819
▁trilineair	-11.1819
▁idem	-11.1819
▁dermatose	-11.1821
▁adventitia	-11.1824
▁aanzien	-11.1824
▁aortawortel	-11.1825
ao	-11.1828
▁afwezige	-11.1831
myc	-11.1833
▁state	-11.1833
broncho	-11.1847
▁blauwe	-11.1854
/11	-11.1854
uterine	-11.1861
▁marges	-11.1867
loc	-11.187
▁50-	-11.1874
▁or	-11.1878
▁inductie	-11.1887
hangt	-11.1887
ll	-11.1888
▁vulvabiopt	-11.1888
▁destijds	-11.1889
▁gelijktijdig	-11.1889
▁verstrekte	-11.1889
▁embolisatie	-11.1889
▁chemoradiatie	-11.1889
▁familieleden	-11.1889
▁tekening	-11.189
▁beenvaten	-11.189
▁aortabifurcatie	-11.189
▁wijd	-11.1891
▁maal	-11.1893
▁myocardschade	-11.19
▁resterend	-11.1901
▁03.	-11.1902
▁paranasaal	-11.1904
dia	-11.1907
bil	-11.1908
▁2,2	-11.1909
iti	-11.1909
drain	-11.1912
advies	-11.1916
▁do	-11.1919
▁aortaprothese	-11.1924
▁87-	-11.1932
▁gang	-11.1932
nl	-11.1939
2018:	-11.1942
post	-11.1955
▁eigen	-11.1958
▁lagen	-11.1959
▁administratie	-11.1959
▁erysipelas	-11.1959
▁geconcludeerd	-11.1959
▁grijze	-11.1959
▁pigmentosus	-11.1959
▁anderszins	-11.1959
▁hartspiervezels	-11.1959
▁pubis	-11.196
▁850	-11.196
▁hersenparenchym	-11.196
synucleine	-11.1964
venen	-11.1964
▁haemangioom	-11.1965
▁verbeterde	-11.1973
▁arthritis	-11.1974
▁blue	-11.1974
-5	-11.1974
▁hartplak	-11.1978
▁verwacht	-11.1981
▁cervicaal	-11.1987
▁1/2	-11.1988
slag	-11.1989
zowel	-11.199
▁vacuolair	-11.1993
resistente	-11.2011
ret	-11.2014
▁ihc	-11.202
▁1100	-11.2024
▁prion	-11.2024
▁vroeg	-11.2026
▁deferens	-11.203
▁functionele	-11.203
▁invullen	-11.203
▁ligging	-11.203
▁verslaglegging	-11.203
▁gyri	-11.203
▁hartoren	-11.203
ity	-11.2031
▁herniatie	-11.2031
▁gevoelig	-11.2033
▁niercysten	-11.2037
kl	-11.2053
enteritis	-11.2053
▁1600	-11.2054
entie	-11.2055
▁ben	-11.2057
trans	-11.2064
▁iliacale	-11.2064
▁anastomosen	-11.2066
▁correctie	-11.2076
tel	-11.2085
▁rdp	-11.2086
▁huidlaesie	-11.2086
▁480	-11.2086
pje	-11.2086
-1-	-11.2092
trauma	-11.2097
▁assay	-11.2101
▁intramuraal	-11.2101
▁princip	-11.2101
▁slikklachten	-11.2101
▁qua	-11.2102
▁tauopathie	-11.2102
▁moest	-11.2102
▁achterhoofd	-11.2102
▁epicarditis	-11.2104
▁submucosaal	-11.2106
▁1998	-11.2107
ox	-11.2111
▁opening	-11.2115
▁laceratie	-11.2116
2011	-11.2117
▁bodies	-11.2117
▁dura	-11.2122
▁reconstructie	-11.2123
tenminste	-11.2133
waarvoor	-11.2133
dien	-11.2134
▁galweg	-11.2144
wond	-11.2146
▁granuloom	-11.2149
▁sn	-11.2155
bovenbeen	-11.2155
▁ogen	-11.2157
isme	-11.2167
▁grade	-11.2169
▁colloid	-11.2173
▁paraffine	-11.2173
▁collageen	-11.2173
▁fecaal	-11.2173
▁glioblastoma	-11.2173
▁hematopoiese	-11.2173
▁irreversibele	-11.2173
▁uitrijpend	-11.2173
▁hsv	-11.2174
▁afloop	-11.2174
▁infectiefocus	-11.2176
▁93	-11.2176
▁huidexcisies	-11.2177
▁plusminus	-11.2193
gb	-11.2194
▁bricker	-11.2198
▁va	-11.2204
▁verlopen	-11.2226
▁stijging	-11.223
naal	-11.2233
recente	-11.2234
▁170	-11.2235
villeus	-11.2237
▁longinfarct	-11.2242
▁kunstklep	-11.2245
▁beademd	-11.2246
▁beoordeelbare	-11.2246
▁gestopt	-11.2246
▁jugularis	-11.2246
▁mesenchymale	-11.2246
▁convexiteit	-11.2246
▁neocortex	-11.2246
▁rip	-11.2248
▁fe	-11.2252
▁gemeten	-11.226
▁occipitale	-11.2264
▁tweeling	-11.2272
5-	-11.2272
▁nadien	-11.2275
ba	-11.2293
▁vervolg	-11.2296
▁toeval	-11.2309
▁beeldvormend	-11.2313
▁alveolar	-11.2318
▁dichtstbijzijnd	-11.2319
▁enterobacter	-11.2319
▁1-	-11.2319
▁death	-11.232
▁hypertrofi	-11.2324
▁gecompromiteerd	-11.2325
▁groepjes	-11.2327
▁sarcomatoid	-11.233
▁psa	-11.2331
▁scan	-11.2335
▁extensie	-11.2336
▁01.	-11.2336
▁pet	-11.2339
lum	-11.234
▁hemolytisch	-11.2345
▁noduli	-11.2348
graft	-11.2353
▁ve	-11.2353
▁veld	-11.2362
mis	-11.2363
ko	-11.2373
alk	-11.2375
▁ges	-11.2378
art	-11.2387
myo	-11.2387
au	-11.239
▁escherichia	-11.2392
▁wogen	-11.2392
▁sirs	-11.2392
▁voorgrond	-11.2392
▁drukverhoging	-11.2393
▁hersenvaten	-11.2393
▁elk	-11.2393
▁wandlagen	-11.2394
ax	-11.2395
▁overal	-11.2395
▁kl	-11.24
braak	-11.2408
-*******	-11.2412
achter	-11.2412
▁encephalitis	-11.2427
klasse	-11.2428
ascendens	-11.2428
cytologie	-11.2428
▁vormt	-11.2437
21-1	-11.2444
▁(20	-11.2449
▁ziekten	-11.2452
cal	-11.2462
▁ingrepen	-11.2466
▁peg	-11.2468
▁trombolyse	-11.2468
▁zat	-11.2468
▁douglasi	-11.2468
▁eindstandig	-11.2478
▁axillair	-11.2479
▁mandibula	-11.2485
▁receptoren	-11.2486
▁ecmo	-11.2487
▁usual	-11.2488
▁02.	-11.2491
biopsiemateriaal	-11.2492
▁ingestuurd	-11.2497
volgens	-11.2501
let	-11.2502
▁vaatinvasie	-11.2504
weken	-11.2507
▁von	-11.2518
haardje	-11.2519
01/	-11.2526
▁uitge	-11.2528
7:	-11.2535
▁1,6	-11.2537
▁agenesie	-11.2541
▁resultaten	-11.2541
▁pneumococcen	-11.2541
▁doorgeschoten	-11.2544
▁vochtrijk	-11.2544
▁korrelig	-11.2544
vlak	-11.2546
▁ala	-11.2551
▁episoden	-11.2552
tussen	-11.2568
▁verlopende	-11.2569
▁motor	-11.2572
spatroon	-11.2574
midden	-11.2579
▁grens	-11.2584
ping	-11.2587
▁voorgaande	-11.2602
behandeling	-11.2602
laparoscopische	-11.2602
▁q	-11.2606
nos	-11.2609
▁caudatus	-11.2616
▁gereviseerd	-11.2616
▁haemorrhagie	-11.2616
▁hemorragie	-11.2616
▁peribronchiale	-11.2616
▁gastroscopie	-11.2617
▁darmbiopten	-11.2618
▁aorto	-11.2618
▁pigmentatie	-11.262
dermatitis	-11.2621
▁hotspot	-11.2622
8/	-11.2624
▁studie	-11.2627
▁05.	-11.263
▁vallen	-11.2631
▁bewaard	-11.2638
ards	-11.2639
▁slanke	-11.2646
▁thoraxdrain	-11.2646
▁mof	-11.2652
▁koa	-11.266
▁mammabiopt	-11.266
▁samenhang	-11.266
▁verslechterd	-11.267
▁ontstonden	-11.2671
▁stabiele	-11.2678
▁geclassificeerd	-11.2692
▁hemoptoe	-11.2692
▁serositis	-11.2692
▁subdurale	-11.2692
▁vergelijking	-11.2692
▁leidde	-11.2692
▁allogene	-11.2692
▁osteomyelitis	-11.2692
▁jongetje	-11.2695
aemie	-11.2696
ys	-11.27
▁06.	-11.2701
▁cervixpoliep	-11.2703
▁aanzienlijk	-11.2704
▁prikkeling	-11.2706
▁losliggend	-11.2707
▁aange	-11.2723
jakob	-11.2732
▁54-	-11.2735
jth	-11.2738
recent	-11.2756
▁un	-11.276
14:	-11.2761
stoma	-11.2762
text	-11.2763
▁(200	-11.2767
▁geinterpreteerd	-11.2768
▁immatuur	-11.2768
▁urticaria	-11.2768
bvdw	-11.2768
▁teen	-11.277
▁aangewezen	-11.2772
▁maagmucosa	-11.2777
▁bloedingsresten	-11.2782
▁stenoserend	-11.2783
staande	-11.2783
▁miltstuwing	-11.2786
▁radio	-11.28
▁intrahepatische	-11.2803
patient	-11.2813
▁norm	-11.2816
negatieve	-11.2819
7,	-11.282
▁paste	-11.2824
▁pneumo	-11.2827
chronische	-11.2828
▁zijsnijrand	-11.283
▁veno	-11.2843
▁galsteen	-11.2845
▁accreditatie	-11.2845
▁fundic	-11.2845
▁geinfiltreerd	-11.2845
▁hysterectomie	-11.2845
▁repair	-11.2845
▁celrijkdom	-11.2845
▁intestinaaltype	-11.2847
▁uitgesneden	-11.2849
▁pseudocyste	-11.2855
▁intermediair	-11.2855
▁rechterschouder	-11.2859
▁criteria	-11.2861
verk	-11.2871
▁car	-11.2871
▁stage	-11.2871
6):	-11.2872
▁lymfklierbiopt	-11.2873
▁contusie	-11.2874
▁leeg	-11.2874
endo	-11.2878
▁fibromusculair	-11.2879
▁infarctje	-11.288
125	-11.2884
oksel	-11.2889
▁gere	-11.289
preparaten	-11.2891
▁gesneden	-11.2899
fr	-11.2899
▁ventrikelseptum	-11.2902
morbide	-11.2903
-4	-11.2907
▁maagbiopt	-11.2912
▁prostaatbiopt	-11.2915
sel	-11.292
bepaling	-11.292
▁pta	-11.2922
▁basalioom	-11.2923
▁dyspnoisch	-11.2923
▁gestoord	-11.2923
▁transurethra	-11.2923
▁trombopenie	-11.2923
▁neoplasma	-11.2924
▁rugpijn	-11.2927
▁1+	-11.2938
▁overeenkomend	-11.2939
▁dreigende	-11.294
▁grof	-11.2942
▁microorganismen	-11.2943
▁longontsteking	-11.2947
▁infarctgebied	-11.295
▁restanten	-11.2959
▁di	-11.2959
▁hartgewicht	-11.2964
amyloid	-11.2965
▁570	-11.2968
bio	-11.2968
04-20	-11.2985
▁colonresectie	-11.2987
▁inpa	-11.3
▁hypothyreoidie	-11.3001
▁vaststellen	-11.3001
▁aldus	-11.3001
▁hepatorenaal	-11.3001
▁spierlaag	-11.3001
▁hartafwijking	-11.3011
/12/	-11.3013
17:	-11.3016
▁vingers	-11.3019
13-1	-11.302
tijd	-11.3026
ami	-11.3026
▁anamnestisch	-11.3034
fase	-11.3035
▁hy	-11.3036
▁linkerwang	-11.3043
niveau	-11.3046
▁vin	-11.3052
bed	-11.306
heden	-11.306
ecto	-11.3064
▁resectierand	-11.3075
▁colonpoliep	-11.3078
▁geluxeerd	-11.308
▁overeenkomstig	-11.308
▁tunica	-11.308
▁fgfr	-11.308
▁geopend	-11.308
▁vertoonde	-11.308
▁serologisch	-11.308
▁huidexcochleaat	-11.308
▁bronchustakken	-11.3081
▁vreemdlichaam	-11.3082
▁heupoperatie	-11.3082
▁maagulcus	-11.3083
dig	-11.3087
▁kant	-11.309
▁hartziekte	-11.3091
▁inflammatoir	-11.3096
▁pneumonia	-11.3096
ischaemie	-11.3097
▁ogend	-11.3102
tum	-11.3104
▁kleincellige	-11.3104
septum	-11.3111
▁1,7	-11.3112
15-0	-11.3115
pleuravocht	-11.3126
▁rechterwang	-11.3146
▁stapeling	-11.3146
hartgewicht	-11.3147
▁infra	-11.3148
ka	-11.3149
▁geneesmiddel	-11.3155
werking	-11.3156
▁losse	-11.3158
▁doorgebroken	-11.3159
▁miljoen	-11.3159
▁kolonies	-11.3159
▁evt	-11.3159
▁myofibrose	-11.3159
ki	-11.3161
▁angioinvasie	-11.3165
▁aangebracht	-11.3166
▁recentelijk	-11.3175
▁geconstateerde	-11.3178
▁bepalingen	-11.318
▁1,0	-11.3182
vaat	-11.3185
▁functioneel	-11.3186
▁^	-11.3195
ventrikelzijwand	-11.3196
▁leuko	-11.3196
▁circumferent	-11.3202
cti	-11.3202
anamnese	-11.3205
intestinaal	-11.3206
letsel	-11.3206
▁abstineren	-11.3218
adjuvante	-11.3221
▁2018	-11.3224
▁frequentie	-11.3225
avs	-11.3226
schouder	-11.3236
▁88-	-11.3238
▁nicotine	-11.3239
▁palatum	-11.3239
▁sneeranden	-11.3239
▁toilet	-11.3239
bulleuze	-11.3239
▁handelen	-11.3239
▁tekst	-11.3239
▁arcus	-11.3239
▁naevi	-11.324
▁pityriasis	-11.324
▁(17	-11.3245
▁longvelden	-11.3245
▁uitgezette	-11.3246
▁ma	-11.3247
spier	-11.3248
sonde	-11.3258
▁duodenumbiopt	-11.3261
kant	-11.3261
▁myopathie	-11.3263
▁significant	-11.3269
▁hemo	-11.327
▁small	-11.3279
avd	-11.3283
/05	-11.3283
defect	-11.3288
▁fa	-11.3296
▁stuk	-11.3297
breidt	-11.3311
▁snoergroeve	-11.3313
▁portae	-11.3315
▁zijrand	-11.3318
▁inotropica	-11.332
▁glioblastoom	-11.332
▁extreem	-11.332
▁dwarslaesie	-11.332
▁perirenale	-11.332
▁zwakke	-11.3324
▁lichaampjes	-11.3324
▁afgedekt	-11.3325
▁fossa	-11.3334
▁lichaamslengte	-11.3341
for	-11.3346
tekening	-11.3369
▁1/3	-11.3369
abdomen	-11.337
plaque	-11.337
onderwand	-11.3372
gebieden	-11.3381
▁structuur	-11.3384
▁gekleurd	-11.3388
vol	-11.3395
ricuspidalisklep	-11.3396
▁160	-11.3401
terventricularis	-11.3401
▁aritmie	-11.3401
▁overeenstemming	-11.3401
▁plasmocytose	-11.3401
▁sommige	-11.3401
▁subfrenisch	-11.3401
▁neuronale	-11.3401
▁angiosarcoom	-11.3402
▁epicardiale	-11.3402
▁bewerking	-11.3402
▁plaqueruptuur	-11.3404
▁conclusief	-11.3405
▁centrolobulair	-11.3407
▁antistoffen	-11.3413
4:	-11.3415
▁fraaie	-11.3419
llen	-11.3433
▁verdeling	-11.3438
▁ana	-11.3448
▁opmerkelijke	-11.3451
natieve	-11.3455
vii	-11.3458
3/	-11.3464
lia	-11.3467
▁marsh	-11.3472
▁240	-11.3476
▁(13	-11.3477
▁indruk	-11.3479
▁meso	-11.348
treffen	-11.3482
hoek	-11.3482
weefselversterf	-11.3483
▁bekledend	-11.3483
▁obstipatie	-11.3483
▁trofoblast	-11.3483
grote	-11.3483
ntractietoestand	-11.3485
▁processen	-11.3489
▁inclusiecyste	-11.3489
ges	-11.349
cll	-11.3491
▁submucosale	-11.3494
jsl	-11.3494
▁mono	-11.3502
▁emv	-11.3504
▁ophopingen	-11.3506
ransformatiezone	-11.351
los	-11.3525
▁vlekkerige	-11.3528
▁440	-11.3529
sarcoom	-11.3535
enzymkleuring	-11.3536
▁bloedend	-11.3538
▁anterieure	-11.3543
hersenen	-11.3547
▁steel	-11.3551
/6	-11.3552
▁col	-11.3553
11-0	-11.3556
▁multiorgaan	-11.3558
07-20	-11.3559
▁gespannen	-11.3565
▁inflammatie	-11.3565
▁procent	-11.3565
▁prolifererend	-11.3565
▁verliep	-11.3565
▁gemeld	-11.3566
▁urogenitalis	-11.3566
▁umbilicalis	-11.3566
▁cornu	-11.3566
▁celpopulatie	-11.3566
▁sufheid	-11.3566
▁afdoende	-11.3566
▁heupfractuur	-11.3566
▁drietakslijden	-11.3568
bron	-11.357
▁colorectaal	-11.3575
iswaar	-11.3578
zuur	-11.3589
▁referentie	-11.3598
hondrodermatitis	-11.3603
tine	-11.3603
ger	-11.3609
vl	-11.3618
▁aandoeningen	-11.3628
▁vu	-11.3633
nve	-11.3633
ving	-11.3641
▁irritatie	-11.3643
jr	-11.3644
kleuringen	-11.3644
▁ka	-11.3647
nf	-11.3647
▁cirrhotisch	-11.3649
▁hoeveelheden	-11.3649
▁kennelijk	-11.3649
▁circulus	-11.3649
▁forensisch	-11.3649
▁streptococcen	-11.3649
▁leiomyosarcoom	-11.3649
even	-11.3651
▁voorbij	-11.3653
12-0	-11.3653
▁darminhoud	-11.3656
▁vsd	-11.3658
▁excochleaat	-11.3659
▁140	-11.3659
infect	-11.366
▁dubbel	-11.3662
09-0	-11.3669
pulmonale	-11.3671
laesie	-11.3673
abces	-11.3675
.2:	-11.3678
3;	-11.3683
scheur	-11.3685
▁ruiter	-11.3687
▁mucoid	-11.3688
▁cutaan	-11.3692
extrahepatische	-11.3696
▁incisie	-11.3696
▁lichtmicroscopi	-11.3699
acuut	-11.3704
▁longbiopt	-11.3705
▁ante	-11.3706
fibrillaire	-11.371
plak	-11.3713
▁ong	-11.3716
2010	-11.3721
ureter	-11.3721
cytair	-11.3725
▁tumortje	-11.3728
▁epitheliaal	-11.3729
▁gelokaliseerde	-11.3731
▁purkinje	-11.3732
▁bicuspide	-11.3733
▁geinformeerd	-11.3733
▁sprietig	-11.3733
▁zodanig	-11.3733
▁blaarvorming	-11.3733
itiele	-11.3734
▁helicobacters	-11.374
▁botmetastasen	-11.374
▁plaquebloeding	-11.3745
sing	-11.3749
▁wijten	-11.375
▁verlittekend	-11.3755
vin	-11.3762
drietal	-11.3768
groep	-11.3769
▁spoelcellige	-11.3772
volume	-11.3774
eve	-11.3775
▁afge	-11.3775
4).	-11.3777
▁miltinfarct	-11.3781
▁allel	-11.3781
licht	-11.3783
▁renaalcel	-11.3784
lies	-11.3788
populatie	-11.379
aandoening	-11.379
donatie	-11.379
▁varianten	-11.3792
matige	-11.3817
▁buizen	-11.3818
▁zeggen	-11.3818
▁rheumatoid	-11.3818
▁syndromale	-11.3818
▁haematomen	-11.3818
▁schedelbasis	-11.3818
▁verkeerde	-11.3818
▁intracerebraal	-11.3819
▁po	-11.3819
▁1997	-11.3822
▁klepafwijkingen	-11.3822
▁partieel	-11.3831
▁nsaid	-11.3832
druk	-11.3836
▁380	-11.3836
▁6,5	-11.3843
▁liep	-11.3844
▁weefsels	-11.3847
▁radiatie	-11.3848
▁anterieur	-11.385
kken	-11.3851
▁huidig	-11.3855
▁begrensde	-11.3864
▁fi	-11.3867
▁geinduceerde	-11.3867
▁grijs	-11.3867
osa	-11.3869
lymforeticulaire	-11.387
ier	-11.3873
inclusief	-11.3876
▁dubieu	-11.388
+)	-11.3882
▁baby	-11.3903
▁condyloma	-11.3903
laire	-11.3903
safbreking	-11.3903
▁getromboseerd	-11.3903
▁hemochromatose	-11.3903
▁konklusie	-11.3903
▁warthin	-11.3903
▁alpha	-11.3903
▁hartmann	-11.3903
▁glomerulaire	-11.3903
▁synovium	-11.3903
▁uiterst	-11.3904
▁hrhpv	-11.3905
▁thoraxhelft	-11.3906
▁adenose	-11.3906
▁ascenderende	-11.3906
▁lipomateu	-11.3909
drie	-11.391
▁levermetastase	-11.3912
uurs	-11.3913
▁470	-11.3915
malig	-11.393
▁overhechting	-11.3943
tatie	-11.3946
bronchiectasieen	-11.3949
ard	-11.3953
▁spina	-11.3955
chien	-11.3959
codon	-11.3962
doodsoorzaak	-11.3963
oog	-11.3978
▁ondersteunen	-11.398
vene	-11.3986
▁bereikt	-11.3989
▁dwarsgestreept	-11.3989
▁geresulteerd	-11.3989
▁nodosum	-11.3989
▁sondevoeding	-11.3989
▁enterocolitis	-11.3989
▁duim	-11.3989
▁bar	-11.399
▁microthrombi	-11.399
▁drains	-11.3991
▁achterlip	-11.3991
eem	-11.3996
▁colonmucosa	-11.3999
▁species	-11.4001
▁celarme	-11.4002
▁(18	-11.4012
▁voorgelegd	-11.402
▁poli	-11.402
rib	-11.402
ler	-11.4024
▁arterioscleroti	-11.403
▁zelfs	-11.4032
▁reuscel	-11.4033
▁gronden	-11.4033
spoelvocht	-11.4047
reconstructie	-11.405
pigment	-11.405
afstand	-11.4051
▁ph	-11.4053
trombose	-11.4054
thrombose	-11.4055
▁welk	-11.4057
▁port	-11.4059
▁wonden	-11.4061
17/*******/	-11.4062
▁pat	-11.4075
▁beinvloed	-11.4076
▁corpora	-11.4076
▁interstitial	-11.4076
▁opties	-11.4077
▁plooi	-11.4077
▁preterminale	-11.4079
▁overplaatsing	-11.4079
▁denk	-11.408
▁vindt	-11.408
▁vervangen	-11.4082
500	-11.4088
▁gecombineerde	-11.4094
▁symmetrische	-11.4097
▁immunologisch	-11.4101
▁renales	-11.4103
perifolliculitis	-11.4104
▁intravasculair	-11.4105
4,	-11.4114
▁functionerend	-11.4116
▁voorlip	-11.4119
iel	-11.4131
cys	-11.4132
frontaal	-11.414
overige	-11.4141
waar	-11.4158
microscopische	-11.4159
uitgebreide	-11.416
▁bijdragende	-11.416
▁rontgen	-11.4164
▁blanke	-11.4164
▁volvulus	-11.4164
▁embryonal	-11.4164
▁pleurabladen	-11.4165
▁leukemische	-11.4166
▁myocyten	-11.417
dis	-11.4176
▁fenomeen	-11.418
▁jbz	-11.4181
▁lung	-11.4181
11-20	-11.4183
▁verhouding	-11.4185
▁histo	-11.4185
▁abortus	-11.4192
all	-11.4193
▁07.	-11.4193
cn	-11.42
▁werk	-11.42
▁galgangen	-11.42
▁geleidelijk	-11.4207
▁410	-11.421
▁buis	-11.4211
nis	-11.4213
▁linkermamma	-11.4214
▁adherente	-11.4217
pil	-11.4226
punt	-11.4226
mediadegeneratie	-11.4228
▁intraductal	-11.4244
▁zwarte	-11.425
toe	-11.425
▁mismatch	-11.4252
▁ossale	-11.4252
▁solutio	-11.4252
▁vertoont	-11.4252
▁jonger	-11.4252
▁klaagde	-11.4253
stuitlengte	-11.4253
▁viscerale	-11.4253
las	-11.4254
▁dikkedarm	-11.4254
▁vegetatie	-11.4257
▁95	-11.4273
▁temperatuur	-11.4274
son	-11.4277
▁cis	-11.4286
▁concentratie	-11.4287
pathologische	-11.4295
thy	-11.4301
▁nachts	-11.4305
▁mw	-11.4307
▁occlusies	-11.4308
antrumslijmvlies	-11.4318
catheter	-11.4318
▁adhesie	-11.4321
kleur	-11.4322
etale	-11.4325
anale	-11.4326
11;	-11.433
focaal	-11.4332
▁bloedingsrest	-11.4332
blok	-11.4332
▁5-	-11.4333
▁uitend	-11.4338
▁leptomeningeale	-11.4342
▁mengflora	-11.4342
▁parasieten	-11.4342
verscheidene	-11.4342
▁cutaneum	-11.4343
▁vaatstructuren	-11.4343
▁arteriopathie	-11.4343
▁drievats	-11.4343
▁altijd	-11.4346
▁bouw	-11.4346
▁scopie	-11.4352
red	-11.4352
▁verwachten	-11.4361
▁gezamenlijk	-11.4371
bot	-11.4372
▁iliacaal	-11.4379
5%	-11.4379
arg	-11.4382
▁nootmuskaat	-11.4384
pot	-11.4386
▁sonde	-11.4387
risk	-11.4391
▁ratio	-11.4392
▁cells	-11.4399
cell	-11.4405
▁580	-11.4408
dag	-11.441
▁gas	-11.4417
proliferatief	-11.4417
▁hiel	-11.4426
▁defecten	-11.4426
▁tenen	-11.443
▁2,3	-11.4431
▁getracht	-11.4432
▁insuline	-11.4432
▁monochoriale	-11.4432
▁gegroeid	-11.4432
▁cirrotisch	-11.4432
▁gevraagd	-11.4432
▁mitotisch	-11.4432
▁strengileus	-11.4432
▁rustig	-11.4432
▁onopvallend	-11.4432
▁periportale	-11.4432
▁breslowdikte	-11.4433
▁miss	-11.4433
vat	-11.4434
▁nauw	-11.4438
▁fl	-11.4438
▁460	-11.4439
▁autosomaal	-11.4442
2003:	-11.4442
▁longarterien	-11.4451
▁residu	-11.4453
▁staart	-11.4457
12-14	-11.4457
stage	-11.4458
aneurysma	-11.446
▁pneumonitis	-11.4463
▁bijpassend	-11.447
skh	-11.4476
▁omvang	-11.4476
▁tesamen	-11.4477
▁(14	-11.4477
hypo	-11.4491
▁mag	-11.4498
▁3-4	-11.4501
▁ablatie	-11.4505
peripancreatisch	-11.4506
kh	-11.4512
bs	-11.4516
▁donor	-11.4522
gemedieerde	-11.4523
▁basocellulare	-11.4523
▁callosum	-11.4523
▁epilepticus	-11.4523
▁hormonale	-11.4523
▁teratoom	-11.4523
▁toezending	-11.4523
▁caput	-11.4523
▁bacteriologisch	-11.4523
▁polypeus	-11.4523
▁frontoparietaal	-11.4523
▁liposarcoom	-11.4523
▁hemiparese	-11.4523
▁tongrand	-11.4524
▁stop	-11.4524
▁eiwitten	-11.4524
2004:	-11.4525
ila	-11.4525
mantelcellymfoom	-11.4528
▁zit	-11.4534
▁side	-11.4535
▁130	-11.4536
▁rechterbeen	-11.4538
▁linkerbeen	-11.4542
▁cti	-11.4544
▁(0/1).	-11.4545
zig	-11.4545
▁weten	-11.4548
▁pussig	-11.4552
▁tumorvrije	-11.4554
orme	-11.4559
leu	-11.4563
▁gedissemineerde	-11.4565
▁gepigmenteerd	-11.4565
▁verk	-11.4566
hand	-11.4572
ruim	-11.4574
asp	-11.4579
pas	-11.4581
▁blastaire	-11.4583
▁adem	-11.4587
duodenum	-11.459
02-20	-11.459
lopend	-11.4591
ft	-11.4592
rat	-11.46
05-0	-11.4606
▁ao	-11.4607
▁centro	-11.4607
▁verpleeghuis	-11.4608
▁89-	-11.4608
▁berichtgeving	-11.4614
▁bijmenging	-11.4614
▁gvhd	-11.4614
▁ossaal	-11.4614
▁bioprothese	-11.4615
▁lymfomen	-11.4616
▁arterietak	-11.4617
ewustzijnsdaling	-11.4617
▁190	-11.4617
▁leken	-11.4622
▁verbreding	-11.4626
▁host	-11.4626
lichaamsarterien	-11.4637
▁vinger	-11.4643
▁bundel	-11.4645
▁littekengebied	-11.4651
▁geulcereerd	-11.4652
▁tumormetastase	-11.4655
▁circumflexa	-11.4658
▁samenhangen	-11.4661
▁pomp	-11.4665
▁6:	-11.4667
▁mitraal	-11.4669
pool	-11.4672
▁serie	-11.4677
oesofagusvarices	-11.4679
typeslijmvlies	-11.4682
▁hartkamers	-11.4684
▁centimeter	-11.4686
▁stromal	-11.4688
▁ontslag	-11.4692
▁afd	-11.4693
rit	-11.4696
fo	-11.4698
14-0	-11.4702
iseerd	-11.4706
cribriforme	-11.4707
▁afplatting	-11.4707
▁funiculitis	-11.4707
▁reageerde	-11.4707
▁twaalf	-11.4707
▁mastopathie	-11.4707
▁voelde	-11.4707
▁polyposis	-11.4707
▁heupkop	-11.4707
▁droog	-11.4708
▁elektronen	-11.4708
▁mutatieanalyse	-11.4713
▁hyperkaliemie	-11.4715
▁94	-11.4717
dh	-11.4717
rsi	-11.4719
▁plekken	-11.472
250	-11.4724
aard	-11.4727
01-20	-11.4731
25-	-11.4734
▁gemacereerd	-11.4738
reid	-11.4743
▁proliferatief	-11.4743
lling	-11.4744
▁extraprostat	-11.4746
▁sle	-11.4747
rose	-11.4748
/19	-11.475
vers	-11.4751
hersenmetastasen	-11.4753
rende	-11.4759
▁effecten	-11.4761
<	-11.4763
▁47-	-11.477
stomp	-11.478
kwaliteit	-11.4781
failure	-11.4782
5).	-11.4783
knie	-11.4783
▁hoofdbronchi	-11.4785
ild	-11.4786
00-	-11.4795
ther	-11.4798
▁uitgezet	-11.4799
▁dwars	-11.48
▁antracose	-11.4801
▁ontregeling	-11.4801
▁opgevraagd	-11.4801
▁tubectomie	-11.4801
▁sclerodermie	-11.4801
▁arachnoidea	-11.4801
▁ontving	-11.4801
▁nsclc	-11.4802
▁hematogeen	-11.4802
/5	-11.4803
▁stevig	-11.4804
amnionitis	-11.4805
▁smalle	-11.4806
▁meningo	-11.4807
▁coronairstenose	-11.4815
20-1	-11.4818
▁rec	-11.4824
sinfiltraten	-11.4833
mid	-11.484
▁biliaire	-11.4844
ventrikelwand	-11.4847
vet	-11.4848
line	-11.4851
▁2.5	-11.4855
▁corpusbiopten	-11.4859
▁ba	-11.4863
▁wig	-11.4864
▁(22	-11.4867
bodem	-11.487
endometriumbiopt	-11.4871
behoeftig	-11.4874
empyeem	-11.4874
coronair	-11.4878
▁pal	-11.4886
▁karakteristiek	-11.4889
06-20	-11.4892
▁mg	-11.4893
▁aanwijsba	-11.4893
hemihepatectomie	-11.4895
kalenderleeftijd	-11.4895
▁dientengevolge	-11.4895
▁haematurie	-11.4895
▁irradicaal	-11.4895
▁plaatsvinden	-11.4895
▁pneumocystis	-11.4895
▁maagcardia	-11.4895
▁lumenvernauwing	-11.4895
▁restlumina	-11.4896
▁breed	-11.4898
▁geacht	-11.4899
lagen	-11.4904
oot	-11.4906
thoracaal	-11.491
ella	-11.4911
▁gemodificeerde	-11.4916
▁relevant	-11.4925
▁1250	-11.4925
▁biventriculair	-11.493
▁bcc	-11.4932
9/	-11.4939
▁hoorn	-11.4942
▁ochtends	-11.4945
▁pleksgewij	-11.4953
▁poliepjes	-11.4955
▁hartritme	-11.4965
ile	-11.4968
sich	-11.4969
oesophagus	-11.4972
▁eosinofielen	-11.4972
jv	-11.4973
angiogram	-11.4973
opening	-11.4974
▁acanthose	-11.499
▁annulus	-11.499
▁betekent	-11.499
▁bursa	-11.499
▁pitting	-11.499
▁rosacea	-11.499
▁toegediend	-11.499
▁weegt	-11.499
▁hemisferen	-11.499
▁borg	-11.499
▁cardioloog	-11.4991
▁vergelijkbaar	-11.4991
▁okselvet	-11.4991
▁trap	-11.4994
▁fulminant	-11.4994
rca	-11.4996
▁augmentin	-11.4998
▁(400	-11.5002
▁fisteling	-11.5003
▁typeren	-11.5005
▁mammapunctie	-11.5009
kra	-11.502
▁vernauwde	-11.5022
▁polymorfe	-11.5022
▁overgangse	-11.5024
derde	-11.5031
pitheelcarcinoom	-11.5034
▁leverfibrose	-11.5038
▁mor	-11.5039
lon	-11.5051
▁huidafwijkingen	-11.5051
/4	-11.5054
▁drukken	-11.5057
8).	-11.5057
fibro	-11.5058
toestand	-11.5058
verval	-11.5068
macroscopisch	-11.507
duodenale	-11.5075
▁buikoperatie	-11.508
▁colonbiopt	-11.5081
▁oorzakelijk	-11.5086
▁restrictie	-11.5086
▁aangetast	-11.5086
▁frontotemporale	-11.5086
▁massieve	-11.5086
▁femurfractuur	-11.5087
▁medebeoordeeld	-11.5087
▁cardiologie	-11.5087
▁duodenitis	-11.5088
▁lichenoa	-11.5088
▁renis	-11.5089
▁gemengdcellig	-11.5089
dic	-11.5092
laesies	-11.5092
▁gebruikt	-11.5094
wij	-11.5097
▁ontslagen	-11.5102
circumferentieel	-11.5103
cardia	-11.5104
▁centrilobulaire	-11.5115
▁540	-11.5119
▁280	-11.5126
2005:	-11.5128
▁rechtermamma	-11.513
▁2+	-11.516
tvu	-11.5168
▁obturatorius	-11.5169
ject	-11.517
pakket	-11.5171
▁pancreatico	-11.5175
ogene	-11.5181
thyroid	-11.5183
spondylodiscitis	-11.5183
▁bewerkt	-11.5183
▁bovinum	-11.5183
▁gezorgd	-11.5183
▁hemodialyse	-11.5183
▁orchidectomie	-11.5183
▁plaatsvond	-11.5183
▁vertonen	-11.5183
▁soort	-11.5183
antitrypsine	-11.5184
▁coagulatie	-11.5187
▁neuroom	-11.5192
▁pea	-11.5193
▁reuma	-11.5194
▁bijbevindingen	-11.5195
▁lymph	-11.5197
2006:	-11.5203
2000	-11.5208
▁risk	-11.5208
▁hotspots	-11.521
▁linkerschouder	-11.5213
▁vesicula	-11.5214
▁fibrinoide	-11.5222
▁0).	-11.5223
rood	-11.5224
▁520	-11.5235
▁band	-11.5249
▁vf	-11.5252
extra	-11.5258
thr	-11.5261
breuk	-11.5263
raal	-11.5264
hyper	-11.5266
vanwege	-11.5267
arteria	-11.5267
▁huidafwijking	-11.5277
▁fronto	-11.5281
axonale	-11.5281
▁helicis	-11.5281
▁ledematen	-11.5281
▁microkalk	-11.5281
▁verlengde	-11.5281
▁cellulitis	-11.5281
▁ongewoon	-11.5282
▁oplevert	-11.5282
▁endocardiale	-11.5282
▁cdkn	-11.5284
▁vlok	-11.5284
▁cysticus	-11.5287
opstijgende	-11.529
▁niercyste	-11.5292
13-2	-11.5294
▁bloedstuwing	-11.5295
▁schatting	-11.5295
▁sa	-11.5297
▁lob	-11.5298
▁sporen	-11.53
▁invloed	-11.5302
klein	-11.5304
▁capsula	-11.5307
▁meeste	-11.5312
▁septale	-11.5314
15-2	-11.5315
▁lijnen	-11.5315
bovenarm	-11.5315
▁opgesneden	-11.5315
bor	-11.5315
pcr	-11.5316
▁emd	-11.5317
localisaties	-11.5319
▁toediening	-11.5323
▁prominent	-11.5323
▁48-	-11.5325
erzorgingsgebied	-11.5325
▁loopt	-11.5339
▁gelijk	-11.5348
▁heftige	-11.5351
▁frequent	-11.5352
▁bijmilt	-11.5353
▁onverwachte	-11.5355
carci	-11.5361
▁abcesholte	-11.5363
▁rechtercoronair	-11.5364
slaap	-11.5368
iliacaal	-11.5368
▁ingehechte	-11.5379
▁kortademig	-11.5379
rmate	-11.538
▁coprostase	-11.538
▁haematopoese	-11.538
▁sjogren	-11.538
▁initieel	-11.538
▁aspiraat	-11.5381
richt	-11.5382
/06	-11.5385
stansbiopsie	-11.5388
houdende	-11.5394
▁bovenooglid	-11.5398
▁huidcurettement	-11.5399
▁vertex	-11.54
port	-11.5403
▁bas	-11.5404
▁okselklier	-11.5406
cep	-11.5408
loze	-11.5415
▁schouderbladen	-11.5418
▁110	-11.5426
vaatproliferatie	-11.543
mortale	-11.5432
▁opmerking	-11.5435
▁atelectatisch	-11.5436
▁reductie	-11.5437
prostatisch	-11.5438
▁eus	-11.5439
uitstrijk	-11.5439
▁420	-11.544
▁geleverd	-11.5445
deposities	-11.5448
veel	-11.5449
▁0.5	-11.5452
▁hormoonreceptor	-11.5452
▁nagel	-11.5459
▁gestuurd	-11.5466
doorsnede	-11.5469
▁gedraineerd	-11.548
▁huntington	-11.548
▁inoperabel	-11.548
excentrische	-11.548
▁begonnen	-11.548
▁vruchtholte	-11.548
kun	-11.5482
▁chronicus	-11.5482
▁weefselverval	-11.5483
▁arteriolen	-11.5484
▁1995	-11.5486
septaal	-11.5486
▁caverneus	-11.5486
toxisch	-11.5487
▁groeiende	-11.5493
▁doorgesneden	-11.5493
▁degeneratief	-11.5499
▁oren	-11.5514
naast	-11.5521
▁510	-11.5524
▁430	-11.5527
slecht	-11.5531
▁stuit	-11.5531
kapsel	-11.5535
▁md	-11.5541
▁melan	-11.5543
▁kuur	-11.5546
col	-11.5548
glu	-11.5549
gesteld	-11.5549
gaande	-11.5551
▁genoemd	-11.5559
ocytaire	-11.5561
bla	-11.5564
▁potje	-11.5565
papillair	-11.5568
14-2	-11.5568
▁smal	-11.5569
pleuraholte	-11.5571
▁08.	-11.5574
▁ingesteld	-11.558
▁atn	-11.5581
▁gepland	-11.5581
▁legionella	-11.5581
▁lengtematen	-11.5581
▁methotrexaat	-11.5581
▁zichtbare	-11.5581
oesophageale	-11.5581
▁serologie	-11.5581
08-20	-11.5583
scopie	-11.5589
lima	-11.5594
gecompromiteerde	-11.5596
▁zelfde	-11.5597
renale	-11.5598
▁map	-11.5598
▁uitname	-11.5598
▁cancer	-11.5599
▁ongoing	-11.5606
gelijk	-11.5607
rw	-11.561
epitheelcellen	-11.5613
▁verkleefde	-11.5619
▁episodes	-11.5629
▁gastric	-11.5633
▁(*******).	-11.5635
▁zenuw	-11.5646
▁(300	-11.5649
4;	-11.5656
▁(16	-11.5672
medicamenteuze	-11.5673
coecum	-11.5673
craniaal	-11.5674
▁beiden	-11.5674
rijgingstechniek	-11.5683
▁gevoed	-11.5683
▁hybridisatie	-11.5683
▁prostatica	-11.5683
▁verondersteld	-11.5683
▁lactaatacidose	-11.5683
▁histiocytoom	-11.5684
▁epiglottis	-11.5684
▁afgegeven	-11.5684
cholesterolaemie	-11.5684
▁gave	-11.5684
▁ingedikt	-11.5688
▁ruimer	-11.569
▁mv	-11.5691
▁larynxcarcinoom	-11.5691
▁blijvende	-11.5691
wille	-11.5693
▁hashimoto	-11.5695
▁huidfragment	-11.5695
▁gladde	-11.5696
▁haargrens	-11.5697
▁wigvormig	-11.5699
▁fuhrman	-11.5702
neoadjuvante	-11.5706
lang	-11.5708
▁tibia	-11.5709
▁even	-11.5711
▁vals	-11.5711
abc	-11.5717
hal	-11.5718
▁asd	-11.5721
▁placentarest	-11.5724
▁uitgaand	-11.5724
▁alsnog	-11.5727
▁pancreasweefsel	-11.5727
▁vats	-11.5728
▁lager	-11.5732
▁postero	-11.5733
▁snijden	-11.5734
his	-11.5744
16-0	-11.5757
▁puspocket	-11.5766
▁puntje	-11.5767
▁mat	-11.5768
▁longbiopten	-11.5782
▁aangelegde	-11.5784
ou	-11.5785
ovarieel	-11.5787
▁ataxie	-11.5787
▁avitaal	-11.5787
▁discreet	-11.5787
▁hamartoom	-11.5787
▁hypercalciemie	-11.5787
▁radiculaire	-11.5787
▁verbreed	-11.5787
▁hevige	-11.5787
▁blind	-11.5787
▁shift	-11.5787
▁transuretra	-11.5787
cranio	-11.5787
▁voorhanden	-11.5787
plug	-11.5787
▁vaatstelsel	-11.5787
▁midline	-11.5787
celpercentage	-11.5787
▁novo	-11.5788
▁angiodysplasie	-11.5788
host	-11.5792
▁onderkaak	-11.5793
logisch	-11.5801
▁1350	-11.5806
teerde	-11.5819
▁mola	-11.5828
▁schildwacht	-11.5834
bro	-11.5837
▁stasis	-11.5839
▁levernaaldbiopt	-11.5839
▁angiografie	-11.584
ning	-11.5846
nooit	-11.5851
mol	-11.5858
adeno	-11.5859
hartspiernecrose	-11.5862
ical	-11.5862
els	-11.5866
reden	-11.5874
▁maagcorpustype	-11.5881
chirurgie	-11.5884
tekenen	-11.5884
▁eosinofiel	-11.5889
▁verward	-11.589
▁aangeboren	-11.5891
▁basaalmembraan	-11.5891
▁rekanalisatie	-11.5891
▁separate	-11.5891
▁purpura	-11.5892
▁kleplijden	-11.5893
▁knieprothese	-11.5893
▁beademings	-11.5896
▁hip	-11.5896
mvg	-11.5897
eleidingssysteem	-11.5898
▁ventriculi	-11.5898
spasme	-11.59
▁zijsnijvlakken	-11.59
▁componenten	-11.5901
septumdefect	-11.5902
▁longziekte	-11.5905
pect	-11.5907
▁hoofdbronchien	-11.5908
▁hoek	-11.5912
▁med	-11.5914
▁rad	-11.5914
▁vo	-11.5915
▁cystic	-11.5919
soc	-11.592
fen	-11.5921
infarceringen	-11.5921
▁aanvoelend	-11.5933
▁adherent	-11.5933
2009	-11.5933
spoliep	-11.5941
16/*******/	-11.5948
microangiopathie	-11.5952
pathologisch	-11.5954
ih	-11.5959
toon	-11.5973
▁geplaatste	-11.5974
beide	-11.5978
▁krabeffect	-11.598
stb	-11.5982
darmkanaal	-11.5983
toename	-11.5988
cervix	-11.5989
nefrosclerose	-11.5989
fracturen	-11.5989
logie	-11.5992
]	-11.5996
▁betrekkelijk	-11.5996
▁hematologische	-11.5996
▁lichaamsmaten	-11.5996
▁major	-11.5996
▁ongebruikelijk	-11.5996
▁voortgeschreden	-11.5996
▁aansluiting	-11.5996
15189	-11.5996
▁cystectomie	-11.5996
▁eeg	-11.5997
▁subacuut	-11.5997
▁vrijgegeven	-11.6
▁1996	-11.6001
▁fibrosehaardjes	-11.6006
▁compartiment	-11.6006
mature	-11.6007
▁apc	-11.6009
▁pompfunctie	-11.6011
▁blok	-11.6012
▁darmlijden	-11.6012
▁opgelopen	-11.6018
▁aangevuld	-11.6019
▁longtop	-11.6019
doende	-11.602
▁epitheelcellen	-11.6022
wee	-11.6024
morbu	-11.6027
▁bestralings	-11.6037
▁recidiverend	-11.6042
ijn	-11.6043
7):	-11.6046
▁aanvoelende	-11.6059
▁restlokalisatie	-11.6062
bn	-11.6063
▁reiken	-11.6064
stens	-11.6079
200	-11.6081
scho	-11.6084
▁reperfusie	-11.6087
transversum	-11.6097
buisprothese	-11.6097
longoedeem	-11.6098
optimale	-11.6101
▁celgroepen	-11.6102
▁cocaine	-11.6102
▁herkennen	-11.6102
▁nodosa	-11.6102
▁schizofrenie	-11.6102
▁stigmata	-11.6102
▁langzaam	-11.6102
▁merendeel	-11.6103
▁portio	-11.6103
▁pancreaticus	-11.6103
▁angioom	-11.6107
▁placentabed	-11.6107
▁tumordoorgroei	-11.6108
vrij	-11.6113
▁nieman	-11.6114
▁regeneratie	-11.6114
5,	-11.6115
▁krabeffecten	-11.6118
▁darmlis	-11.6118
▁second	-11.6125
lichaampjes	-11.6126
▁ano	-11.6126
▁bijgevoegd	-11.6131
▁tumordiameter	-11.6132
▁±	-11.6135
400	-11.6136
▁mors	-11.6138
▁620	-11.6138
▁radiologische	-11.6139
▁sy	-11.6145
▁aanvragend	-11.6145
▁krappe	-11.6149
▁verschil	-11.6151
▁530	-11.6162
▁hartafwijkingen	-11.6166
▁levernecrose	-11.6166
▁nierweefsel	-11.617
laparotomie	-11.6176
zien	-11.6181
gerelateerde	-11.6183
300	-11.6184
▁multinodulaire	-11.6191
drs	-11.6198
▁micrografi	-11.6201
klierweefsel	-11.6203
oestrogeen	-11.6205
fish	-11.6209
appendixresectie	-11.621
▁clonale	-11.621
▁ontwikkelt	-11.621
▁universitair	-11.621
▁vaatspasmen	-11.621
▁liezen	-11.621
▁vaatmalformatie	-11.621
▁error	-11.621
▁thrombopenie	-11.621
▁straat	-11.621
▁thoraxfoto	-11.6211
▁hoornmateriaal	-11.6211
750	-11.6212
▁by	-11.6214
▁plaquevorming	-11.6217
▁tumornecrose	-11.6224
▁950	-11.6225
▁cystewand	-11.6227
mv	-11.6229
gew	-11.6229
▁hechtingen	-11.6236
▁(450	-11.6237
▁aangeleverde	-11.6241
hoofd	-11.6243
ntie	-11.6245
nodulair	-11.6247
▁retentie	-11.625
▁granulair	-11.6255
▁georganiseerd	-11.6256
▁tricho	-11.6259
lymfangioinvasie	-11.626
ref	-11.6264
cz	-11.6271
cus	-11.6275
▁point	-11.6276
▁mar	-11.628
inter	-11.6282
gal	-11.6284
andere	-11.6286
vraag	-11.629
grade	-11.6292
▁fiets	-11.6295
▁ov	-11.6295
ori	-11.6296
▁46-	-11.6298
▁bied	-11.6298
loop	-11.6298
▁mut	-11.6301
lymfklieren	-11.6301
▁uitslagen	-11.6303
▁1800	-11.6304
▁schoon	-11.6307
transplantaat	-11.6315
macrofagen	-11.6315
egfr	-11.6315
and	-11.6316
beenmergaspiraat	-11.6319
▁interpreteren	-11.6319
▁onderkwadrant	-11.6319
▁verhaal	-11.6319
▁mucocele	-11.6319
▁halve	-11.6319
▁geweld	-11.6319
▁myelodysplasie	-11.6319
▁transplantaat	-11.6319
tenzij	-11.632
▁plus	-11.6323
▁risicofactoren	-11.6327
kanaal	-11.6327
▁intramurale	-11.6329
cerebellaire	-11.6329
▁mdo	-11.633
▁adrenaline	-11.633
komen	-11.6336
jbe	-11.6341
▁rea	-11.6341
▁canule	-11.6342
9):	-11.6347
eku	-11.6351
▁colli	-11.636
latie	-11.636
▁essentie	-11.6361
poliepje	-11.638
ingsstoornissen	-11.6383
syn	-11.6393
icus	-11.6395
lijke	-11.6397
350	-11.6412
placenta	-11.6414
▁mil	-11.6415
pleura	-11.642
twee	-11.6421
lam	-11.6423
hospital	-11.6426
ampliseq	-11.6428
▁geimplanteerd	-11.6428
▁gemelli	-11.6428
▁preputium	-11.6428
▁verloren	-11.6428
▁tevoren	-11.6428
▁lineaire	-11.6428
▁kaakhoek	-11.6429
▁celverval	-11.6429
▁retroauriculair	-11.643
▁neurologie	-11.643
actie	-11.6434
▁pms	-11.6436
▁poliepeuze	-11.6436
▁ileo	-11.6438
▁dysmorfieen	-11.6438
▁rectumamputatie	-11.6438
kort	-11.6439
▁darmmucosa	-11.644
hier	-11.6441
▁junction	-11.6443
▁plek	-11.6457
aj	-11.6459
▁270	-11.6464
▁bronchiale	-11.6469
▁cervixcarcinoom	-11.647
▁tweetaks	-11.647
ologisch	-11.6476
▁herhaalde	-11.6477
▁gebouwd	-11.6477
situ	-11.6477
▁vera	-11.6486
▁parese	-11.6493
zet	-11.6495
▁behandelen	-11.6498
▁clonaliteits	-11.65
lus	-11.6502
ticus	-11.6506
6:	-11.6507
▁ih	-11.6509
focus	-11.6511
lms	-11.6519
oorzaak	-11.6527
hersen	-11.6529
▁bio	-11.6529
plooi	-11.6532
centraal	-11.6539
variant	-11.6539
jaren	-11.6539
lymfocyten	-11.6539
▁instrumenta	-11.6539
implantatie	-11.6539
▁achterhaald	-11.654
▁cloacae	-11.654
▁diathese	-11.654
▁endometriosis	-11.654
▁follow	-11.654
▁obliterans	-11.654
▁rubriek	-11.654
▁uitgelokt	-11.654
▁mycotisch	-11.654
▁rechteratrium	-11.654
▁cytokeratine	-11.654
▁src	-11.654
▁streptokokken	-11.654
▁parkinsonisme	-11.654
▁vaginatop	-11.654
multi	-11.6541
▁hyperaemie	-11.6541
lv	-11.6541
▁verschijnsel	-11.6541
▁intraductaal	-11.6542
▁rectumstomp	-11.6542
▁ontwikkelings	-11.6544
stat	-11.6546
loos	-11.6546
▁gevulde	-11.6549
▁insula	-11.6554
tumordiameter	-11.6558
ins	-11.6561
+6	-11.6565
▁bv	-11.6566
cop	-11.657
▁1%	-11.657
ouw	-11.6575
▁waarde	-11.6575
uro	-11.6581
▁blaasbiopt	-11.6581
rode	-11.6586
▁ion	-11.6588
05-20	-11.6596
▁fna	-11.6598
tion	-11.661
chemische	-11.6611
vallen	-11.6615
▁circum	-11.663
▁stand	-11.6631
▁ingestelde	-11.6633
embolisatie	-11.6642
▁utero	-11.6645
▁pyelitis	-11.6652
locoregionale	-11.6652
▁atheromatose	-11.6652
▁delirant	-11.6652
▁gebaseerd	-11.6652
▁hematemesis	-11.6652
▁hemorrhagie	-11.6652
▁millimeter	-11.6652
▁distress	-11.6652
▁binnengebracht	-11.6652
▁angiolipoom	-11.6652
▁1994	-11.6657
icum	-11.6658
▁target	-11.6668
▁560	-11.6668
lij	-11.6669
▁comp	-11.6669
low	-11.6669
▁490	-11.6673
▁zn	-11.6675
▁fibroma	-11.6682
▁parameters	-11.6684
ach	-11.6686
basis	-11.669
▁wilde	-11.6691
gaan	-11.6692
ted	-11.6694
tam	-11.6696
wk	-11.6697
2),	-11.6703
▁linkeronderbeen	-11.6704
▁(600	-11.6716
▁oplopend	-11.6722
▁lu	-11.6729
+4	-11.6729
0,5	-11.674
▁mammanaaldbiopt	-11.6747
arc	-11.6749
+3	-11.675
▁overgaand	-11.6753
19-1	-11.6759
▁klin	-11.676
▁crusta	-11.6765
▁conjunctiva	-11.6766
▁daags	-11.6766
▁hieromheen	-11.6766
▁mesencefalon	-11.6766
▁pericardzakje	-11.6766
▁nefrolithiasis	-11.6766
▁gebiopteerd	-11.6766
glottis	-11.6766
▁braaksel	-11.6766
▁massawerking	-11.6766
▁paratracheale	-11.6766
lekkage	-11.6766
diffuse	-11.6767
middenkwab	-11.6767
▁1992	-11.677
mediale	-11.677
▁2/3	-11.6771
▁hpf	-11.6772
▁zones	-11.6773
▁herhaaldelijk	-11.6774
derdegraads	-11.6777
▁synovia	-11.6784
▁vloeistof	-11.6786
okken	-11.6786
▁intrauterien	-11.6789
vats	-11.6792
▁3+3	-11.6793
myocard	-11.68
▁herstelde	-11.6803
▁superficia	-11.6804
▁cytonucleair	-11.6805
▁2,1	-11.6807
▁vaster	-11.6809
nx	-11.6809
▁kuren	-11.6812
▁680	-11.6813
▁irregulaire	-11.6814
▁begrensd	-11.6818
21-0	-11.6822
flank	-11.6831
satypie	-11.6831
▁longpathologie	-11.6837
▁tal	-11.6839
▁reagerend	-11.6844
▁45-	-11.6847
▁medullair	-11.6855
▁lyse	-11.6858
granuloomvorming	-11.6859
▁paget	-11.6862
▁brengen	-11.6868
homo	-11.687
▁follikel	-11.6872
▁valvula	-11.6877
patholoog	-11.688
▁streptococ	-11.688
▁ajcc	-11.688
▁endometroid	-11.688
▁luidt	-11.688
▁polyneuropathie	-11.688
▁submandibulair	-11.688
▁aangepast	-11.6881
▁zonbeschadigd	-11.6881
▁ontbinding	-11.6881
▁afgewerkt	-11.6881
▁zichzelf	-11.6882
▁beenvenen	-11.6882
▁subserosale	-11.6883
▁zon	-11.6883
overgang	-11.6883
behandeld	-11.6884
benigne	-11.6884
fibroserende	-11.6884
reanimatiepoging	-11.6884
secundair	-11.6884
femorale	-11.6884
▁sca	-11.6884
verschijnselen	-11.6886
▁leversteatose	-11.6887
▁+5	-11.6887
vezel	-11.6891
▁gemiddeld	-11.6898
▁1700	-11.6899
wonden	-11.6905
anatomische	-11.6905
▁ker	-11.6906
▁marker	-11.6907
▁fenotype	-11.6913
▁blaastumor	-11.6918
900	-11.6919
03-0	-11.6923
▁longinfarcten	-11.6924
▁excisiebiopsie	-11.6926
▁left	-11.693
▁voorstel	-11.6931
cellulair	-11.6934
ijk	-11.6938
▁gelig	-11.6944
▁inclusie	-11.6948
rechteronderbeen	-11.695
▁levercel	-11.6953
inflammatoire	-11.6956
▁capillaire	-11.6957
embolietjes	-11.6964
▁3+	-11.6964
og	-11.6977
▁herzfehler	-11.6979
▁redelijke	-11.6982
▁hilair	-11.6983
ieve	-11.6984
▁610	-11.6985
fusie	-11.6985
▁gemengd	-11.6986
▁nasolabiaal	-11.699
▁eetlust	-11.6997
▁echtgenote	-11.6997
▁formaline	-11.6997
▁haematopoiese	-11.6997
▁insectenbeet	-11.6997
▁makkelijk	-11.6997
▁oedemen	-11.6997
▁respiratorius	-11.6997
▁special	-11.6997
▁tracheitis	-11.6997
▁roux	-11.6997
▁zgn	-11.6997
▁donkere	-11.6997
▁ulcusbodem	-11.6999
▁intake	-11.6999
▁gliale	-11.7
peritoneum	-11.7001
▁hoogst	-11.7001
pseudo	-11.7001
erbloedingsshock	-11.7005
clone	-11.7011
radi	-11.7013
▁loslating	-11.7014
vervanging	-11.7016
▁medenem	-11.7019
▁zitten	-11.702
mming	-11.7021
tia	-11.7022
117	-11.7023
▁dehiscentie	-11.7031
▁myxoide	-11.7033
kk	-11.7034
▁kanaal	-11.7036
dna	-11.7036
vasculair	-11.7039
kamer	-11.7045
ala	-11.7046
▁ileumslijmvlies	-11.7053
inoom	-11.7057
16)	-11.7057
ish	-11.7062
▁positie	-11.7066
▁shockbeeld	-11.7068
▁prof	-11.707
hepatisch	-11.7073
▁zijresectievlak	-11.7086
cid	-11.7086
cardio	-11.7087
liggende	-11.7088
▁onderscheiden	-11.7089
▁lytisch	-11.7095
▁incisiebiopt	-11.7097
▁inhechting	-11.7102
▁1,9	-11.7107
▁keel	-11.7109
▁zag	-11.7112
▁consistent	-11.7112
techniek	-11.7114
▁euthanasie	-11.7114
▁geobstrueerd	-11.7114
▁gepresenteerd	-11.7114
▁langerhans	-11.7114
▁ontkleurd	-11.7114
▁respiratory	-11.7114
▁rhabdomyolyse	-11.7114
▁schwannoom	-11.7114
▁endotheel	-11.7115
▁birads	-11.7115
▁acantholytische	-11.7115
▁monoclonale	-11.7115
▁tegenstelling	-11.7115
▁mycosis	-11.7115
▁sternumfractuur	-11.7115
▁malt	-11.7115
gehypertrofieerd	-11.7116
▁(90%)	-11.7116
▁perirenaal	-11.7116
▁vermis	-11.7117
decompensatio	-11.712
tachycardie	-11.712
sneevlakken	-11.7121
mediaan	-11.7121
▁renaal	-11.7122
stig	-11.7124
▁1993	-11.7126
▁catecholamine	-11.7126
▁leuco	-11.7127
▁vriesmateriaal	-11.7128
▁daaropvolgend	-11.7128
▁linkerbovenbeen	-11.7131
▁320	-11.7135
appendicitis	-11.7135
▁bestraald	-11.7137
▁verslechterend	-11.7138
▁zijranden	-11.7141
onderkwab	-11.715
▁codon	-11.7151
▁infarctgebieden	-11.7151
90)	-11.7152
microsatellitose	-11.7157
▁tumorembolieen	-11.716
▁2-4	-11.7163
▁somatisch	-11.7167
▁nsip	-11.7168
▁230	-11.7169
▁geconsolideerd	-11.717
▁gedegenereerd	-11.717
▁obstruerend	-11.7171
▁ptag	-11.7177
▁luchthoudende	-11.7177
▁belemmering	-11.7184
immuunhistochem	-11.7194
03-2	-11.7204
▁pleurabiopten	-11.7207
▁overgevoelig	-11.7209
pto	-11.7214
massa	-11.7219
bovenkwab	-11.7219
ici	-11.7224
12-1	-11.7225
▁340	-11.7228
car	-11.7229
160	-11.7229
tentoriele	-11.7233
▁cyanose	-11.7233
▁fungoides	-11.7233
▁gesuggereerd	-11.7233
▁leukocytose	-11.7233
▁ontdekt	-11.7233
▁luxerend	-11.7233
▁afgeplat	-11.7234
▁evar	-11.7234
▁presternaal	-11.7235
▁reusceltumor	-11.7235
▁orale	-11.7235
2007:	-11.7239
thyreo	-11.724
topografie	-11.724
▁monoklonal	-11.7241
▁pdl	-11.7241
gradering	-11.7241
abusus	-11.7242
like	-11.7243
▁urotheelcellen	-11.7244
▁hemato	-11.7249
▁vaginale	-11.7254
1-2	-11.7258
▁verslagen	-11.7259
nodus	-11.726
ire	-11.7263
▁sepsismilt	-11.7264
▁uterusresectie	-11.7268
leden	-11.7269
▁spoelvocht	-11.7269
▁incident	-11.7273
proef	-11.7274
▁technisch	-11.7275
▁glomerulo	-11.7283
ty	-11.7285
▁hartschade	-11.7286
▁decidua	-11.7288
thromboembolieen	-11.7288
▁hetero	-11.7291
▁histochemisch	-11.7292
▁naschrift	-11.7297
▁(700	-11.7302
▁bekleding	-11.7303
raf	-11.7303
▁(30	-11.7314
erde	-11.7318
▁afm	-11.7319
gering	-11.7323
10-0	-11.7326
▁concentrisch	-11.7328
▁antero	-11.7336
tamponade	-11.734
▁lysis	-11.7342
spraak	-11.7344
wortel	-11.7347
▁vermelden	-11.7348
▁bleven	-11.7354
▁demyelinisatie	-11.7354
▁eilandjes	-11.7354
▁geneeskunde	-11.7354
▁hobbelig	-11.7354
▁pneumokokken	-11.7354
▁vloeibaar	-11.7354
▁zeldzaam	-11.7354
▁collageneuze	-11.7354
▁paravertebraal	-11.7354
▁galsteenlijden	-11.7354
▁verbloed	-11.7355
▁tumorpercentage	-11.7358
▁fistelvorming	-11.736
▁bronchusbiopt	-11.7362
naevus	-11.7362
bijvoorbeeld	-11.7363
cabg	-11.7363
▁ven	-11.7363
▁ruimtes	-11.7364
iliacale	-11.7365
▁220	-11.7366
infrarenale	-11.7367
zover	-11.7371
mpo	-11.7375
side	-11.7376
▁groeide	-11.7377
▁arteriitis	-11.7378
▁omringende	-11.7378
far	-11.738
▁390	-11.7383
▁houden	-11.7384
▁cag	-11.739
▁adnexa	-11.7392
▁reageren	-11.7393
▁shocklever	-11.7397
▁ductcarcinoom	-11.7399
elijke	-11.74
mbr	-11.7401
nm	-11.7404
▁bovenop	-11.7405
wegen	-11.7405
heidsreactie	-11.7412
▁44-	-11.7416
▁gedi	-11.7424
▁intracranial	-11.7426
▁shavebiopt	-11.7428
additionele	-11.7431
gist	-11.7431
▁wens	-11.7434
goed	-11.7434
▁super	-11.7435
▁nauwe	-11.7436
▁ademhalings	-11.7454
iz	-11.7466
="	-11.7468
wo	-11.7468
▁omental	-11.7475
▁genherschikking	-11.7476
▁squamo	-11.7476
oesofageale	-11.7476
▁bejaarde	-11.7476
▁complicerende	-11.7476
▁geschikt	-11.7476
▁krijgt	-11.7476
▁myelopoese	-11.7476
▁sinusoiden	-11.7476
▁suggereert	-11.7476
▁stereotactische	-11.7476
▁fataal	-11.7476
▁stoppen	-11.7476
▁prepylorisch	-11.7477
▁preterminaal	-11.7477
▁hemibeeld	-11.7478
pericardiale	-11.7479
▁bijnieradenoom	-11.7482
▁gebiedje	-11.7483
plaatsing	-11.7483
▁jak	-11.7483
dominant	-11.7485
intoxicatie	-11.7486
spontaan	-11.7486
▁zegelring	-11.7489
maken	-11.7491
▁ziekelijk	-11.7497
▁papilloma	-11.7499
anti	-11.7506
ous	-11.7507
oraal	-11.7512
▁haemorragische	-11.7514
vormende	-11.7515
▁bijwerking	-11.7517
▁gemaakte	-11.7521
▁43-	-11.7521
▁hartklep	-11.7527
▁neuron	-11.7532
▁("	-11.7533
maar	-11.7538
▁thoraco	-11.7541
▁gemengde	-11.7542
▁voeren	-11.7548
sparameters	-11.7551
263	-11.7559
spieren	-11.7567
▁achterblijvend	-11.7569
oo	-11.7576
▁sur	-11.7581
23-1	-11.7587
▁pati	-11.7589
fs	-11.7589
▁pogingen	-11.7593
▁lopend	-11.7597
▁verweekte	-11.7598
geven	-11.7599
aangedane	-11.7599
▁claudicatio	-11.7599
▁disarray	-11.7599
▁minuscule	-11.7599
▁onwelwording	-11.7599
▁panniculitis	-11.7599
▁splitsing	-11.7599
▁verbrede	-11.7599
▁verstuurd	-11.7599
▁congorood	-11.7599
▁group	-11.7599
▁(+/-	-11.7599
▁anatomie	-11.76
▁pneumonisch	-11.76
mvdr	-11.76
▁kaakrand	-11.76
▁screenen	-11.76
lijst	-11.7601
▁premature	-11.7602
beklemde	-11.7603
▁aspergilloom	-11.7606
tegen	-11.7608
▁veldjes	-11.7609
▁ontwikkelende	-11.7609
merg	-11.7611
pancreas	-11.7611
▁longembolisatie	-11.7611
distaal	-11.7611
waarden	-11.7612
▁infarcthaardjes	-11.7616
▁vetembolieen	-11.7618
▁2,8	-11.7618
ootmuskaataspect	-11.7623
▁grocott	-11.7623
98-	-11.7625
nde	-11.7626
▁370	-11.7628
zins	-11.7654
▁draden	-11.7655
▁dubbelzijdig	-11.7662
▁ring	-11.7664
▁pten	-11.7665
▁mu	-11.7665
hiel	-11.7669
1/2	-11.7669
▁plaveiselcellig	-11.767
pal	-11.7671
▁urineweg	-11.7673
infarctlittekens	-11.7675
vloedbelemmering	-11.7678
ema	-11.768
▁koude	-11.7685
nnb	-11.7688
sgebied	-11.7688
stabiel	-11.7694
tekend	-11.7698
vaf	-11.7699
ank	-11.7699
mg	-11.7699
cellig	-11.7701
tieve	-11.7703
eft	-11.7708
▁verwikkeling	-11.7709
▁epitheloid	-11.7719
▁elastine	-11.7724
▁cvvh	-11.7724
▁diarrhee	-11.7724
▁gebleken	-11.7724
▁gethromboseerd	-11.7724
▁kolonisatie	-11.7724
▁krijgen	-11.7724
▁mesotheliomen	-11.7724
▁weerhouden	-11.7724
▁rectus	-11.7724
▁molle	-11.7724
▁immuunprofiel	-11.7725
▁tongbasis	-11.7725
▁dundarm	-11.7725
▁cholesterolosis	-11.7725
▁dieptegroei	-11.7725
▁weefselstukje	-11.7726
abcesjes	-11.7731
▁nabijheid	-11.7732
▁maagdarmkanaal	-11.7732
sstoornis	-11.7732
▁zoon	-11.7733
▁doorgegeven	-11.7734
▁zoek	-11.7735
▁overgrijpend	-11.7736
beenmerg	-11.7736
▁contrast	-11.7737
maximaal	-11.7738
schoon	-11.7738
direct	-11.7739
mediaal	-11.7739
▁hypocellulair	-11.774
lysis	-11.7741
resp	-11.7741
▁trigonum	-11.7742
▁iatrogeen	-11.7747
▁harde	-11.7747
▁leverkapsel	-11.7748
▁tumorlengte	-11.7749
waarde	-11.775
2002:	-11.775
dcis	-11.7752
▁afwachten	-11.7759
slo	-11.7763
▁jong	-11.777
18-0	-11.7771
▁consolidaties	-11.7776
▁cellulariteit	-11.7779
epithelioom	-11.7781
▁groepen	-11.7786
▁cystadeno	-11.7793
laat	-11.7796
gezette	-11.7797
▁schil	-11.7798
tumortype	-11.7802
med	-11.7808
▁tracheo	-11.7812
embolisch	-11.7815
onderarm	-11.7815
▁su	-11.7818
vormig	-11.7823
brengen	-11.7824
coll	-11.7824
▁spitz	-11.7832
▁ix	-11.7834
▁gein	-11.7834
▁uitgevoerde	-11.7838
▁gede	-11.7841
▁wegen	-11.7841
▁660	-11.7844
▁lopen	-11.785
verhoging	-11.785
▁bedreigd	-11.7851
▁eortc	-11.7851
▁fragiel	-11.7851
▁geinjiceerd	-11.7851
▁identiek	-11.7851
▁minuscuul	-11.7851
▁nierbekken	-11.7851
▁recanalisatie	-11.7851
▁right	-11.7851
▁scoliose	-11.7851
▁stafylococc	-11.7851
▁suicide	-11.7851
▁vimentine	-11.7851
▁werkgroep	-11.7851
▁sperma	-11.7851
▁onvolledig	-11.7851
station	-11.7853
▁nhl	-11.7853
▁7,5	-11.7856
▁intrekkingen	-11.786
▁bloedrijk	-11.7864
naar	-11.7864
▁ppi	-11.7865
fistel	-11.7866
vriescoupe	-11.7866
schouw	-11.7868
▁onderling	-11.7873
pass	-11.7876
kop	-11.7878
▁behandel	-11.788
xcisie	-11.7883
▁ro	-11.7884
▁ni	-11.7885
sterke	-11.7895
myloiddeposities	-11.7895
▁ika	-11.7897
▁1-3	-11.7898
▁protocollair	-11.7901
▁malformaties	-11.7902
▁gevorderd	-11.7903
▁autoimmuun	-11.7904
kla	-11.7909
shaardjes	-11.7909
ement	-11.7914
▁insertie	-11.7915
▁bovenstaand	-11.7917
▁ber	-11.7929
▁draad	-11.7929
roe	-11.7934
▁not	-11.794
▁hersenmetastase	-11.7941
▁my	-11.7945
▁gevoel	-11.7945
▁ob	-11.7948
kleine	-11.795
▁640	-11.795
ulaire	-11.7954
▁versie	-11.7958
prim	-11.7965
placentaire	-11.7967
longgewicht	-11.7972
bruik	-11.7976
▁correlaat	-11.7979
▁hartezakje	-11.7979
▁hemofagocytair	-11.7979
▁hypothermie	-11.7979
▁infiltreert	-11.7979
▁leptomeningen	-11.7979
▁pneumatosis	-11.7979
▁seminales	-11.7979
▁speelt	-11.7979
▁proteus	-11.7979
▁membraneuze	-11.7979
▁interstitium	-11.7979
▁onverdacht	-11.798
▁traumatisch	-11.798
▁colloides	-11.7981
▁regeneratieve	-11.7982
▁sero	-11.7984
ulcus	-11.7985
▁waterscheidings	-11.7986
lymfklierexcisie	-11.7986
▁waarden	-11.7987
+1	-11.7992
cardiaal	-11.7994
bekend	-11.7995
tru	-11.7995
bacteriele	-11.7996
virale	-11.7996
casus	-11.7996
▁naald	-11.7997
▁drugs	-11.7998
scopisch	-11.8001
▁direkte	-11.8002
▁coiling	-11.8002
cli	-11.8004
▁bronchioli	-11.8007
▁huidre	-11.8007
▁contra	-11.8015
▁exsudaat	-11.8015
▁gebrek	-11.8028
138	-11.8031
aw	-11.8034
teuze	-11.8035
gestuurd	-11.8038
▁metaplastische	-11.8041
sgerelateerde	-11.8043
▁elastisch	-11.8046
▁wanden	-11.8047
▁hormoon	-11.8048
houdend	-11.8051
▁systemisch	-11.8052
sklachten	-11.8069
rust	-11.807
cerebrovasculair	-11.8076
abcessen	-11.8078
0(	-11.8085
▁mitose	-11.8088
▁90-	-11.809
11-1	-11.8095
anoxische	-11.8108
implant	-11.8108
+5	-11.8108
▁alopecia	-11.8109
▁lavage	-11.8109
▁omstandigheden	-11.8109
▁remissie	-11.8109
▁sanguinolent	-11.8109
▁solitus	-11.8109
▁submandibularis	-11.8109
▁twijfel	-11.8109
gehalte	-11.8109
▁coloscopie	-11.8109
▁bedroeg	-11.8109
▁nvt	-11.8109
▁dien	-11.811
▁vaatbed	-11.811
▁gebloed	-11.8113
▁vnl	-11.8113
▁blow	-11.8116
▁amorf	-11.8118
adnex	-11.8119
▁2):	-11.8126
▁95%	-11.8127
marsh	-11.8127
ongeval	-11.8127
olaire	-11.8127
diverticulitis	-11.8127
laaggradig	-11.8127
▁dorsum	-11.8128
▁dalende	-11.813
infiltraat	-11.8139
▁atresie	-11.8143
puntvormige	-11.8144
03-14	-11.8149
pn	-11.815
▁onstaan	-11.8152
▁tip	-11.8169
▁herhaald	-11.8174
010	-11.8177
12-13	-11.8179
▁icu	-11.8185
▁luchtweg	-11.8187
morf	-11.8187
3000	-11.8187
▁cont	-11.8197
▁onderverdeling	-11.8198
▁pussige	-11.8199
20-2	-11.8202
▁all	-11.8204
▁bloedingshaard	-11.8204
▁refractair	-11.8206
▁vezel	-11.8211
03-17	-11.8211
▁index	-11.8215
lair	-11.8223
2007	-11.8225
deficientie	-11.8227
▁stenoses	-11.823
ich	-11.823
▁thromboembolie	-11.8237
▁humerus	-11.824
▁clear	-11.8241
▁dikwandige	-11.8241
▁erytrocyturie	-11.8241
▁gelukt	-11.8241
▁glazig	-11.8241
▁hyperthyreoidie	-11.8241
▁immaturus	-11.8241
▁mastocytose	-11.8241
▁psoriasiforme	-11.8241
▁toegepast	-11.8241
▁afgekapseld	-11.8241
▁rmk	-11.8241
▁promotor	-11.8241
▁psychiatrische	-11.8241
13-3	-11.8241
▁artery	-11.8242
▁binnenkomst	-11.8242
▁blaasspoeling	-11.8243
▁biopsies	-11.8244
▁1991	-11.8246
sion	-11.8256
arachnoidale	-11.8258
▁seminoom	-11.826
lichaamsgewicht	-11.826
stapeling	-11.8261
mohs	-11.8261
dunne	-11.8262
waarbij	-11.8263
▁immunofenotype	-11.8265
ttf	-11.8266
ileus	-11.8268
pneumo	-11.8276
▁plasma	-11.8279
reerd	-11.8281
rok	-11.8287
▁afvloed	-11.829
▁bet	-11.8293
.........	-11.8296
▁96	-11.8296
780	-11.8298
akte	-11.83
▁ingezette	-11.8305
▁gastrisch	-11.8308
/09	-11.8309
rol	-11.8312
▁cystisch	-11.8314
▁intestinalis	-11.8316
▁myodegenerati	-11.8316
thal	-11.8323
▁15%	-11.8327
tien	-11.8328
▁villi	-11.8331
sma	-11.8331
nodulaire	-11.8333
▁pleiten	-11.8338
ral	-11.8338
▁cam	-11.834
▁stroomgebieden	-11.8344
ruimte	-11.8353
▁muco	-11.8358
▁anaerobe	-11.8367
▁genezen	-11.8369
personeel	-11.8374
▁bekeken	-11.8374
▁compound	-11.8374
▁contagiosum	-11.8374
▁debulking	-11.8374
▁dosering	-11.8374
▁duinen	-11.8374
▁glucose	-11.8374
▁leukocytoclas	-11.8374
▁molluscum	-11.8374
▁onverklaard	-11.8374
▁pallidum	-11.8374
▁seminalis	-11.8374
▁treitz	-11.8374
▁troponine	-11.8374
▁verdwenen	-11.8374
synucleinopathie	-11.8374
▁gehoorgang	-11.8374
▁vervet	-11.8374
▁spelen	-11.8374
▁glomerulopathie	-11.8374
▁doorheen	-11.8374
bloedingsneiging	-11.8375
▁medebeoordeling	-11.8375
▁atheroom	-11.8375
▁dvt	-11.8375
▁familieanamnese	-11.8376
wat	-11.8376
▁schaal	-11.8376
▁(0/1	-11.8377
▁neurogene	-11.8379
▁intrathoracaal	-11.8381
▁kweekuitslagen	-11.8385
▁avr	-11.8386
▁abus	-11.8392
▁hepatogeen	-11.8393
▁probe	-11.8394
boog	-11.8395
cale	-11.8396
flr	-11.8396
plaveiselcel	-11.8396
caudaal	-11.8396
kerato	-11.8399
pancreatische	-11.8408
▁rechterlies	-11.841
▁bentall	-11.8412
▁dosis	-11.8412
▁pneumoniebeeld	-11.8417
▁vergroting	-11.8422
mf	-11.8427
▁membraan	-11.8427
▁gefibroseerde	-11.8431
18-10	-11.844
▁ongeval	-11.844
vooral	-11.8445
▁icterisch	-11.8446
▁spoelcellig	-11.8446
▁therapiekeuze	-11.845
die	-11.8452
gu	-11.8457
▁spoelcel	-11.8459
▁aneurysmatisch	-11.846
▁gecontraheerde	-11.8464
▁wv	-11.8468
▁code	-11.8473
afw	-11.8479
▁conclusiehuid	-11.8479
hoe	-11.848
zelfde	-11.8485
▁boog	-11.8496
liter	-11.8499
ihc	-11.8502
▁collagene	-11.8509
▁aggregaten	-11.8509
cadherine	-11.8509
▁diuretica	-11.8509
▁doorgegroeid	-11.8509
▁gebraakt	-11.8509
▁intramucosaal	-11.8509
▁lymfomenpanel	-11.8509
ash	-11.851
▁plaatepitheel	-11.851
▁tangentieel	-11.851
▁beland	-11.851
▁diafragmakoepel	-11.851
▁regionaal	-11.851
▁drievatslijden	-11.8511
▁agv	-11.8511
▁voetrug	-11.8513
▁cystoprostat	-11.8513
▁oorspronkelijk	-11.8516
▁steentjes	-11.8517
▁erosief	-11.8517
▁ht	-11.8518
stollingsneiging	-11.8522
180	-11.8528
11-10	-11.8528
blasten	-11.8532
geheel	-11.8533
▁precieze	-11.8533
▁area	-11.8536
▁crypten	-11.8544
echter	-11.8555
▁630	-11.8556
kans	-11.8565
▁resistent	-11.8569
▁taks	-11.8579
▁alveolitis	-11.8581
▁(1,5	-11.8581
▁pleuraal	-11.8583
▁gedissemineerd	-11.8583
▁dienen	-11.8587
msa	-11.8588
zetten	-11.859
▁belast	-11.859
kwabben	-11.8591
▁pla	-11.8591
▁vlakke	-11.8591
essentiele	-11.8593
indweefselziekte	-11.8595
ventriculair	-11.8598
specifiek	-11.86
rads	-11.8601
▁secretoir	-11.8603
11-13	-11.8605
kleppen	-11.8609
bal	-11.8616
vloed	-11.8616
mia	-11.8618
want	-11.8619
▁tube	-11.8631
tumoruitbreiding	-11.8634
▁groene	-11.8636
▁tumoraal	-11.864
omie	-11.8641
")	-11.8645
▁toelichting	-11.8646
parenchymateus	-11.8646
treedt	-11.8646
▁acuminatum	-11.8646
▁desmoplastisch	-11.8646
▁epididymis	-11.8646
▁excuses	-11.8646
▁gecomprimeerd	-11.8646
▁genoeg	-11.8646
▁mechanisme	-11.8646
▁microglia	-11.8646
▁moeizaam	-11.8646
▁ovariectomie	-11.8646
▁soepel	-11.8646
▁ubiquitine	-11.8646
▁verdient	-11.8646
▁vochtcollectie	-11.8646
▁zeldzame	-11.8646
gevangen	-11.8646
▁geslaagd	-11.8646
▁incompleet	-11.8646
▁uitgaat	-11.8646
▁bedekt	-11.8646
▁middermaal	-11.8646
▁taai	-11.8646
▁mesocolon	-11.8646
▁haematothorax	-11.8647
▁cnv	-11.8647
▁cristabiopsie	-11.8648
▁arterietakjes	-11.8649
▁intrathoracale	-11.8649
▁neuropathie	-11.8649
▁rechtzijdig	-11.865
▁amyloidosis	-11.865
▁myocardvezels	-11.865
▁minor	-11.8651
▁hoogstand	-11.8652
▁nierstenen	-11.8652
wijze	-11.8656
▁vervallen	-11.8659
rectumslijmvlies	-11.8659
▁continue	-11.8661
▁markering	-11.8661
its	-11.8663
haematogene	-11.8664
▁1990	-11.8666
oxi	-11.8666
2003	-11.8669
▁gezond	-11.867
cerebrum	-11.8672
thrombus	-11.8672
stenen	-11.8676
▁asbest	-11.8678
pericard	-11.8679
▁schuimig	-11.868
meest	-11.868
peritoneaalholte	-11.8684
immunohistochem	-11.8685
revisiemateriaal	-11.8689
degeneratie	-11.87
▁incomplete	-11.8705
epidermale	-11.8706
▁darmnecrose	-11.8714
snede	-11.8719
14-3	-11.8721
gestelde	-11.8725
chondr	-11.8726
gevorderde	-11.8727
-06-15/	-11.8732
▁keratocyste	-11.8734
▁bruine	-11.8742
▁42-	-11.8745
▁inleiding	-11.8752
▁lam	-11.8755
▁670	-11.8763
iliteit	-11.8763
trekken	-11.8769
▁clip	-11.8778
arts	-11.8778
▁word	-11.8783
mes	-11.8783
▁erythro	-11.8784
dedifferentieerd	-11.8785
hypereosinofilie	-11.8785
▁anthracose	-11.8785
▁daaromheen	-11.8785
▁eczemateu	-11.8785
▁epiduraal	-11.8785
▁erythematosus	-11.8785
▁genereren	-11.8785
▁gesampled	-11.8785
▁neuritische	-11.8785
▁omphalocele	-11.8785
▁trimester	-11.8785
▁verknepen	-11.8785
▁vervaardigd	-11.8785
▁capitis	-11.8785
▁serum	-11.8785
▁hypovolaemische	-11.8785
▁flowcytometrie	-11.8785
▁merkelcel	-11.8785
▁gingiva	-11.8785
▁babygram	-11.8785
▁huidadnextumor	-11.8786
▁darmkanker	-11.8788
▁avitale	-11.8788
▁littekenbreuk	-11.8789
dieringsvoorstel	-11.8789
▁cr	-11.8801
▁gastrale	-11.8802
anteriorresectie	-11.8802
hu	-11.8803
▁fo	-11.8803
pakketten	-11.8804
▁gedekte	-11.8807
bol	-11.8809
orbitaal	-11.881
gedeelte	-11.8813
ascites	-11.8813
frequentie	-11.8813
▁nl	-11.8814
inale	-11.8815
destructie	-11.8817
gele	-11.8819
07-2	-11.882
mucosale	-11.8823
atieve	-11.8827
!)	-11.883
▁miltkweek	-11.8832
pulmonaire	-11.8836
traventriculaire	-11.8837
zing	-11.8839
tumorgrootte	-11.8841
eripancreatische	-11.8845
260	-11.8851
▁levercyste	-11.8852
ablatie	-11.8853
via	-11.8857
been	-11.8863
465	-11.8864
▁rechterkamer	-11.8871
duur	-11.8873
▁compacte	-11.8876
functiestoornis	-11.8882
▁oesophagusbiopt	-11.8888
▁einde	-11.889
▁suf	-11.8895
holten	-11.8895
?):	-11.8898
aak	-11.8899
▁plaat	-11.8904
▁eenzelfde	-11.8906
▁casu	-11.8913
▁rheuma	-11.8914
▁gevormde	-11.8918
▁tensies	-11.8925
▁cylindrisch	-11.8926
▁dusdanig	-11.8926
▁inguinalis	-11.8926
▁kaposi	-11.8926
▁sulci	-11.8926
▁triploidie	-11.8926
▁verkrijgen	-11.8926
▁voorkomt	-11.8926
©	-11.8926
▁adult	-11.8926
▁puntbloedinkjes	-11.8926
▁hemolyse	-11.8926
▁subcorticale	-11.8926
▁gebeld	-11.8926
▁apical	-11.8926
▁afgelopen	-11.8926
▁suboptimale	-11.8927
▁zijdelings	-11.8927
▁zoster	-11.8928
▁thrombolyse	-11.8928
▁igm	-11.8928
▁zwakte	-11.8932
▁graden	-11.8939
▁linkerkamer	-11.894
▁1150	-11.8942
▁neusslijmvlies	-11.8942
yr	-11.8945
▁mammaparenchym	-11.8946
▁ingeblokt	-11.8948
duct	-11.895
randen	-11.8953
▁260	-11.8954
knoop	-11.8955
respons	-11.8955
minimale	-11.8955
structuur	-11.8956
retrograde	-11.8957
lateraalsclerose	-11.8958
▁aberrante	-11.8963
▁intramusculair	-11.8971
▁operatiewond	-11.8972
immuunziekte	-11.8976
zw	-11.8988
cellige	-11.8989
▁kno	-11.8992
11)	-11.8998
flo	-11.8999
▁gedegenereerde	-11.9001
corticosteroiden	-11.9006
diep	-11.9006
▁etc	-11.9008
▁polycysteu	-11.9024
basale	-11.9031
▁echt	-11.9053
▁mening	-11.9055
insuffi	-11.9055
aliteit	-11.9057
cla	-11.9065
▁blaar	-11.9068
schrompel	-11.9069
▁ventilatie	-11.9069
▁aortitis	-11.9069
▁cilindrisch	-11.9069
▁detecteert	-11.9069
▁erytropoese	-11.9069
▁etiologisch	-11.9069
▁longvaatbed	-11.9069
▁siderofagen	-11.9069
▁suprapubisch	-11.9069
▁verergering	-11.9069
▁wrsch	-11.9069
▁bloedingsbron	-11.9069
▁trabeculair	-11.9069
-03-13/*******/	-11.9069
▁leukocyten	-11.9069
groeve	-11.9069
▁echografie	-11.9069
▁markerpatroon	-11.9069
▁lichtstijve	-11.9069
▁panischemie	-11.9069
▁heldergeel	-11.907
steato	-11.9075
▁histiocyten	-11.9076
▁mogelijkerwijs	-11.9076
nasolabiaalplooi	-11.9076
▁spermatozoa	-11.9078
▁cystenieren	-11.908
▁commissie	-11.9088
pet	-11.9091
15/*******/	-11.9093
▁verkleurde	-11.9094
darmstelsel	-11.9098
index	-11.91
encefalitis	-11.91
groen	-11.91
stijging	-11.91
verstoring	-11.91
rdp	-11.91
abortusmateriaal	-11.9102
langer	-11.9105
verder	-11.9105
mammair	-11.9106
velden	-11.9108
▁recht	-11.911
▁onrijpe	-11.9113
lw	-11.9117
que	-11.9128
▁productie	-11.9128
ulatie	-11.9132
▁jl	-11.9133
▁vt	-11.9135
475	-11.9136
▁dia	-11.9137
▁halsklier	-11.9138
▁gat	-11.9144
chop	-11.9148
▁chirurg	-11.9152
▁mdm	-11.9152
375	-11.9155
00-1	-11.9175
dura	-11.9178
▁uitgroei	-11.9184
plast	-11.9187
▁2,7	-11.9189
periappendicitis	-11.9195
puls	-11.9195
mond	-11.9198
zone	-11.9201
▁maagantrumtype	-11.9205
histiocytaire	-11.921
▁douglas	-11.921
▁bradycard	-11.9211
▁bloedbraken	-11.9214
▁cinguli	-11.9214
▁impetiginisatie	-11.9214
▁ingrijpen	-11.9214
▁myocytolyse	-11.9214
▁proficient	-11.9214
▁retardatie	-11.9214
▁veralgemeend	-11.9214
▁flora	-11.9214
▁invaginatie	-11.9214
▁verleend	-11.9214
▁hangen	-11.9214
▁groet	-11.9214
▁show	-11.9214
▁ectocervix	-11.9214
▁frontotemporaal	-11.9214
10-2	-11.9215
▁slikstoornissen	-11.9215
reerde	-11.9216
gruis	-11.9217
▁*******).	-11.9217
▁uitgebreidere	-11.922
ander	-11.9222
veelal	-11.9223
▁halscyste	-11.9224
15-4	-11.9227
darmtractus	-11.9228
12-15	-11.9236
polypectomie	-11.9241
▁breedte	-11.9241
▁1050	-11.9244
ouderdom	-11.9247
afdeling	-11.9247
helix	-11.9248
▁hieronder	-11.9248
angioinvasie	-11.9249
04-1	-11.9253
zijdige	-11.9258
▁restmateriaal	-11.926
lumen	-11.9264
▁ohca	-11.9265
veld	-11.9266
▁myositis	-11.9268
adipeus	-11.9272
▁latero	-11.9275
▁polyp	-11.9277
cis	-11.9279
▁gehecht	-11.9281
▁geconsolideerde	-11.9291
▁gedrag	-11.9294
▁geprikkeld	-11.9298
▁gefibroseerd	-11.9298
▁irregulair	-11.9298
lumina	-11.9298
▁locaties	-11.9311
▁4-6	-11.9317
kenmerken	-11.9319
710	-11.9319
▁mild	-11.9323
rum	-11.9338
band	-11.9339
endometrium	-11.9341
cir	-11.9343
15-3	-11.9343
▁concrement	-11.9345
▁stel	-11.9355
▁3+4=7	-11.9361
▁toepassing	-11.9361
▁aquaduct	-11.9361
▁astrocyten	-11.9361
▁bifida	-11.9361
▁circumvallata	-11.9361
▁elastosis	-11.9361
▁gebleven	-11.9361
▁imponeert	-11.9361
▁intensieve	-11.9361
▁leucocytose	-11.9361
▁oncocytoom	-11.9361
▁paracetamol	-11.9361
▁sacrum	-11.9361
▁verstreken	-11.9361
▁waldenstrom	-11.9361
fokaal	-11.9361
▁versmald	-11.9361
▁mycobacterium	-11.9361
▁polypeuze	-11.9361
▁oorlel	-11.9361
▁trombocytopenie	-11.9361
hiellengte	-11.9361
▁tepelvocht	-11.9362
▁outflow	-11.9362
▁ntrk	-11.9362
▁heropname	-11.9362
tbo	-11.9362
▁nogal	-11.9363
▁subtotaal	-11.9363
▁liver	-11.9365
▁(550	-11.9366
▁gedeeltelijke	-11.937
lys	-11.9371
▁embryonaal	-11.9372
▁rna	-11.9379
echo	-11.938
▁necrosehaarden	-11.938
mh	-11.9381
▁comm	-11.9381
▁ductaaltype	-11.9383
▁glia	-11.9383
▁ervan	-11.9386
samenstelling	-11.9386
thrombo	-11.9391
omtrek	-11.9392
beperkt	-11.9397
▁suspecte	-11.9401
17-10	-11.9402
blad	-11.9403
▁duidelijkheid	-11.9406
80%	-11.9418
stro	-11.9419
architecturele	-11.9427
▁basosquameu	-11.9428
▁kristallen	-11.943
▁720	-11.9434
▁leverlijden	-11.9435
▁nierziekte	-11.944
methylering	-11.9441
diepte	-11.9444
▁paars	-11.9445
▁artefacten	-11.9452
545	-11.9453
▁intrahepatisch	-11.9453
wisseling	-11.9454
▁ontlast	-11.946
▁3,0	-11.946
buikpijnklachten	-11.9469
▁bepaalde	-11.9471
urie	-11.9471
▁dubbele	-11.9472
voorlopige	-11.9472
▁lymfoa	-11.9473
illus	-11.9474
hl	-11.9475
▁korter	-11.9479
stuk	-11.9484
▁ingestuurde	-11.9488
nu	-11.9495
rien	-11.9497
▁haemato	-11.9499
8):	-11.9501
koepel	-11.9503
function	-11.9509
▁verheven	-11.951
cylinderepitheel	-11.951
iatrogene	-11.951
▁cauterisatie	-11.951
▁circulatorius	-11.951
▁ectocervicaal	-11.951
▁hippocampi	-11.951
▁impressie	-11.951
▁ingeklemd	-11.951
▁mucositis	-11.951
▁myoclonieen	-11.951
▁noradrenaline	-11.951
▁reserve	-11.951
▁stromaceltumor	-11.951
▁vacuolisatie	-11.951
▁verbakken	-11.951
▁verwijzen	-11.951
▁vliezig	-11.951
▁mentale	-11.951
kritische	-11.951
▁sectum	-11.951
▁maxillaris	-11.951
▁behandeladvies	-11.951
▁genese	-11.951
▁wervellichamen	-11.951
▁reading	-11.951
▁pompfalen	-11.951
▁onsuccesvol	-11.951
▁loh	-11.951
▁medio	-11.951
▁bronchusbrush	-11.951
▁saturatiedaling	-11.951
▁voren	-11.9511
▁afasie	-11.9511
▁subita	-11.9511
▁bijkomstig	-11.9511
from	-11.9511
▁overgebracht	-11.9512
▁raad	-11.9512
▁definit	-11.9512
stations	-11.9513
▁overexpressie	-11.9514
▁kwamen	-11.9515
screen	-11.9517
▁daaraan	-11.952
▁vorige	-11.9524
bronchusspoelsel	-11.9525
▁clin	-11.9529
▁hartoperatie	-11.9532
▁peptische	-11.9534
steel	-11.9537
▁diepreikende	-11.954
foci	-11.9544
▁sternotomie	-11.9545
capillaire	-11.9548
multipele	-11.9548
divertikel	-11.9549
boop	-11.955
ulair	-11.9553
▁macronodulaire	-11.9554
helder	-11.9561
▁afgeronde	-11.9562
tubaire	-11.9564
▁haem	-11.9566
▁diff	-11.9569
12-10	-11.9569
effecten	-11.957
basaal	-11.957
▁afzetting	-11.9571
catheterisatie	-11.9573
▁leiomyoma	-11.9578
wervelmetastasen	-11.9581
oxy	-11.9582
▁carcinomen	-11.9609
bifemorale	-11.9627
16-5	-11.9628
ustom	-11.9642
part	-11.9643
hechten	-11.9657
▁diabet	-11.9657
▁actinomyces	-11.9661
▁astrogliose	-11.9661
▁expliciet	-11.9661
▁funiculus	-11.9661
▁gangreneuze	-11.9661
▁geevalueerd	-11.9661
▁geindureerd	-11.9661
▁graciel	-11.9661
▁hyalinose	-11.9661
▁myeline	-11.9661
▁overvuld	-11.9661
▁pdgfra	-11.9661
▁sintrom	-11.9661
▁symptomatisch	-11.9661
▁uitzondering	-11.9661
▁trichilemm	-11.9661
▁linkerbijnier	-11.9661
bronchiaalboom	-11.9661
▁beentumoren	-11.9661
▁uremie	-11.9661
▁overlap	-11.9661
▁opgave	-11.9661
▁breidde	-11.9661
▁clearcell	-11.9662
▁hersenvliezen	-11.9662
▁mucostase	-11.9662
▁endoscopisch	-11.9662
▁beantwoord	-11.9662
▁kaaklijn	-11.9662
▁epicardiaal	-11.9663
/03/201	-11.9666
groeiend	-11.9666
elli	-11.9667
▁flardjes	-11.967
oorgankelijkheid	-11.967
▁hersentumor	-11.9672
▁elementen	-11.9672
▁thal	-11.9678
▁tumorvolume	-11.9679
gemaakt	-11.9682
fibroom	-11.9685
ow	-11.9685
epen	-11.9688
▁nierinfarct	-11.9688
▁behoeftig	-11.9692
sectie	-11.9695
05-1	-11.9696
enzym	-11.9696
parietaal	-11.9698
wanddikte	-11.9699
defecten	-11.97
▁cdx	-11.9701
▁artefact	-11.9701
02-0	-11.9701
cave	-11.9702
hypertrofisch	-11.9702
radicaal	-11.9702
metaplasie	-11.9702
▁[	-11.9711
▁behoefte	-11.9712
10%	-11.9715
tief	-11.9715
▁mammatumor	-11.9718
lopen	-11.9719
▁starten	-11.972
eind	-11.9721
atriale	-11.9722
▁versterkte	-11.9725
huis	-11.9733
▁geruim	-11.9744
nek	-11.976
▁superficial	-11.9764
pap	-11.9765
▁lege	-11.9766
▁lesion	-11.9771
pathische	-11.9772
stroomgebied	-11.9773
▁perimusculair	-11.9786
▁sigmoidbiopten	-11.9786
▁+2	-11.9786
20-3	-11.9788
chemisch	-11.9789
▁neur	-11.9797
spoliepen	-11.9797
▁ein	-11.9799
▁elektrolyt	-11.9799
▁2,4	-11.9801
▁310	-11.9813
myelitis	-11.9815
▁aanbevolen	-11.9815
▁bewusteloos	-11.9815
▁biopsy	-11.9815
▁cilindercel	-11.9815
▁demodex	-11.9815
▁hypocampus	-11.9815
▁hyponatriemie	-11.9815
▁inguinaal	-11.9815
▁meerlagig	-11.9815
▁mestcellen	-11.9815
▁periferie	-11.9815
▁uitblijven	-11.9815
double	-11.9815
▁steriel	-11.9815
strekt	-11.9815
cobas	-11.9815
▁melanocyten	-11.9815
▁uncus	-11.9815
▁intramyocardial	-11.9817
▁oncologie	-11.9817
▁hersteld	-11.9817
▁virusinfectie	-11.9817
195	-11.9818
▁micrometastase	-11.9819
17-5	-11.9821
▁overhechte	-11.9822
send	-11.9823
▁maagsonde	-11.9827
hil	-11.9828
aspect	-11.983
▁nierloge	-11.9832
▁granulo	-11.9832
▁aanhechting	-11.9836
braakstadium	-11.9848
▁gesproken	-11.985
protocol	-11.9855
▁&	-11.9855
cutane	-11.9856
adhesies	-11.9858
granuloom	-11.9858
hematoom	-11.9859
purulent	-11.9859
luchthoudendheid	-11.9861
plasmo	-11.9862
hypertensie	-11.9863
▁lymfkliertjes	-11.9864
450	-11.9865
periventriculair	-11.9865
▁210	-11.9868
▁antrumbiopten	-11.9886
-67	-11.989
▁grenzend	-11.9891
▁toxiciteit	-11.9902
uch	-11.9905
▁bulla	-11.9908
▁slank	-11.9909
meckels	-11.9913
▁micr	-11.9913
catie	-11.9918
▁leverabces	-11.9918
11-2	-11.9919
▁amyotrofisch	-11.9921
14-10	-11.9935
genomen	-11.9939
▁bol	-11.994
265	-11.9949
▁plat	-11.9957
▁(100	-11.9957
▁temporaalkwab	-11.9961
gat	-11.9969
▁manifest	-11.9971
wavy	-11.9971
▁continuitatem	-11.9971
▁contracturen	-11.9971
▁exofytisch	-11.9971
▁gepositioneerd	-11.9971
▁gesteelde	-11.9971
▁hygroma	-11.9971
▁nasofarynx	-11.9971
▁prematuur	-11.9971
erasmus	-11.9971
▁vacuum	-11.9971
▁grieperig	-11.9972
▁leucocyten	-11.9972
▁borstkas	-11.9972
▁sleeve	-11.9972
▁infuus	-11.9972
▁ileocoecaalhoek	-11.9972
fractie	-11.9972
▁wondbed	-11.9973
▁intracavitair	-11.9973
pjes	-11.9973
asie	-11.9976
▁leed	-11.9977
▁tumornodi	-11.9979
▁driemaal	-11.9983
▁paratubaire	-11.9984
▁(0%)	-11.9985
▁satellieten	-11.9986
tricuspidaalklep	-11.9988
▁exploratie	-11.9992
▁rapport	-11.9998
steek	-11.9999
▁sudden	-12
▁neven	-12.0002
▁pn	-12.0006
▁gelaagde	-12.0008
hemato	-12.0015
ood	-12.0016
sneevlak	-12.0017
▁prog	-12.0017
▁lokatie	-12.0018
▁liggend	-12.0018
grootcellig	-12.0019
▁micrometastasen	-12.0022
▁haarfollikels	-12.0026
▁onderzijde	-12.0027
▁herseninfarcten	-12.0037
▁depletie	-12.0038
takjes	-12.0038
linkszijdig	-12.0041
durende	-12.0046
▁cachectisch	-12.0048
stra	-12.0049
22-2	-12.0058
▁ptnm	-12.0062
lytische	-12.0063
▁fibrinoid	-12.0068
gesneden	-12.0071
▁8,5	-12.0073
▁cast	-12.0073
▁xii	-12.008
kernen	-12.0085
140	-12.009
▁verkleuringen	-12.0091
▁endovasculair	-12.0093
staan	-12.0096
▁waarom	-12.0115
▁oppervlakte	-12.0116
gemarkeerd	-12.0129
bakey	-12.013
▁bovenbenen	-12.013
▁craniotomie	-12.013
▁echtgenoot	-12.013
▁gekeken	-12.013
▁groeivertraging	-12.013
▁leidt	-12.013
▁normosome	-12.013
▁plantaardig	-12.013
▁bedlegerig	-12.013
▁marginaal	-12.013
▁clinico	-12.013
▁inzender	-12.013
▁potter	-12.013
▁uitermate	-12.013
▁bacteriaemie	-12.013
▁humerusfractuur	-12.013
▁staple	-12.0131
▁stadia	-12.0131
▁perisplenitis	-12.0131
membraneus	-12.0131
▁psoasloge	-12.0131
▁12-24	-12.0133
produc	-12.0133
laten	-12.0135
▁anca	-12.0137
▁mycobacterien	-12.0138
▁spoedig	-12.0139
gere	-12.0139
front	-12.0142
gescheurd	-12.0145
▁cytoplasmatisch	-12.0146
▁cake	-12.0148
▁secreet	-12.015
▁hieromtrent	-12.0151
hel	-12.0151
wustzijnsverlies	-12.0159
▁haemolytische	-12.0161
▁dichte	-12.0161
▁wal	-12.0161
compressie	-12.0163
5):	-12.0164
▁tumoringroei	-12.0165
▁system	-12.0165
▁afvoer	-12.0165
hepatische	-12.0165
spiegel	-12.0165
▁ffpe	-12.0168
terventriculaire	-12.0169
▁pericolische	-12.017
▁2500	-12.0175
▁leversegment	-12.0175
rechterbovenbeen	-12.0176
occlusie	-12.0178
voorkeur	-12.0178
chrom	-12.018
totale	-12.0181
uitbreiding	-12.0193
interstiti	-12.0193
▁solitair	-12.0195
tki	-12.0197
625	-12.0198
hb	-12.0198
▁geprikkelde	-12.0199
blastoom	-12.0199
▁meconium	-12.0201
22)	-12.0202
▁avonds	-12.0203
▁wenst	-12.0209
▁dof	-12.0212
nh	-12.0215
primaire	-12.0218
▁gereseceerd	-12.0228
▁scleroserend	-12.0229
▁like	-12.0237
expressie	-12.0238
laris	-12.0239
▁plekje	-12.0242
▁segmenten	-12.0244
myocarditis	-12.0247
05-2	-12.0249
▁overmatig	-12.0258
opname	-12.0261
▁spiegel	-12.0267
▁ijzerdepositie	-12.0271
vlakken	-12.0274
▁inzending	-12.0276
▁nen	-12.0279
▁lymfklierpakket	-12.028
▁gezet	-12.0286
▁corona	-12.0286
▁temporo	-12.0287
▁comedo	-12.0291
▁misselijk	-12.0291
▁amnion	-12.0291
▁uitputting	-12.0291
▁nierschors	-12.0291
ovariele	-12.0292
▁bloedbijmenging	-12.0292
▁ectopisch	-12.0292
▁excochleatie	-12.0292
▁gezegd	-12.0292
▁lingula	-12.0292
▁lithium	-12.0292
▁naruke	-12.0292
▁opgevuld	-12.0292
▁plasmocytoom	-12.0292
▁siliconen	-12.0292
▁opinion	-12.0292
▁chondrosarcoom	-12.0292
▁partijen	-12.0292
▁chemokuur	-12.0292
▁vermoeidheid	-12.0292
▁zijventrikel	-12.0292
vettige	-12.0292
▁bronchoscopie	-12.0292
▁perifolliculair	-12.0293
hsil	-12.0293
▁vervette	-12.0294
dying	-12.0295
▁bauhini	-12.0295
▁grawitztumor	-12.0295
▁gecon	-12.0295
▁slik	-12.0295
▁intakt	-12.0298
▁longembolen	-12.0299
▁onrustig	-12.03
▁ductectasieen	-12.0304
waarts	-12.0304
▁fibrino	-12.0305
▁langerbestaande	-12.0305
▁omstrengeling	-12.0315
▁cns	-12.0316
▁590	-12.032
sterk	-12.032
▁1450	-12.0321
aneurysmavorming	-12.0321
▁verwezen	-12.0322
▁vs	-12.0323
▁eten	-12.0325
cytoom	-12.0328
▁miltextirpatie	-12.0328
▁stops	-12.0329
22-4	-12.033
119.	-12.0331
breken	-12.0334
arahippocampalis	-12.0336
pomp	-12.0342
▁clo	-12.0344
ablatio	-12.0346
▁lesies	-12.0347
soorzaak	-12.0351
europathologisch	-12.0351
erig	-12.0356
arteriele	-12.036
morfologisch	-12.037
wal	-12.0371
▁neutrofiel	-12.0377
langs	-12.0382
07-11	-12.0383
groeiachterstand	-12.039
▁3.5	-12.0392
microsatellieten	-12.0396
card	-12.04
onderbuik	-12.0407
▁(=	-12.0419
▁grijswit	-12.0421
ziekten	-12.0435
▁lymfvat	-12.044
pulmonaal	-12.0441
▁11-12	-12.0448
▁leukem	-12.045
▁microvesiculair	-12.0451
▁darmtype	-12.0455
pharynx	-12.0455
▁voetzool	-12.0455
▁vervloei	-12.0455
cephalie	-12.0455
▁bichoriale	-12.0455
▁horizontale	-12.0455
▁immuuncytochemi	-12.0455
▁metabool	-12.0455
▁peesschede	-12.0455
accredit	-12.0455
▁systematisch	-12.0455
skintag	-12.0455
▁ilium	-12.0456
▁insturen	-12.0456
-02-13/*******/	-12.0456
▁12/13	-12.0456
▁gallekkage	-12.0456
▁akute	-12.0456
▁trombusmassa	-12.0457
▁fistelgang	-12.0458
fragmentjes	-12.0459
immuno	-12.046
▁roodheid	-12.0462
iculair	-12.0462
▁spoortje	-12.0463
▁motorische	-12.0463
▁lacunes	-12.0465
mul	-12.0469
">	-12.047
▁wandruptuur	-12.0471
4,5	-12.0472
naden	-12.0477
▁microsc	-12.0481
▁satelliet	-12.0492
▁linkeronderarm	-12.0493
▁passage	-12.0495
▁stadiering	-12.0499
▁strengen	-12.05
rp	-12.05
▁91-	-12.0501
gesloten	-12.0501
▁subepiderma	-12.0508
▁opgeleverd	-12.0509
dorsaal	-12.0509
buiten	-12.051
invasiediepte	-12.051
neusrug	-12.051
▁groenig	-12.0518
▁bloedig	-12.0519
posterolaterale	-12.052
9:	-12.0522
09-11	-12.053
▁duran	-12.0536
was	-12.0543
▁real	-12.0544
tube	-12.0559
handrug	-12.0561
▁poliepexcisie	-12.0564
225	-12.0564
uitgang	-12.0568
▁lichenoides	-12.0575
ita	-12.0577
▁verlittekende	-12.0579
▁acc	-12.0583
lende	-12.0591
▁junctione	-12.06
▁muscul	-12.0602
▁neg	-12.0606
▁ontbrak	-12.0606
▁partu	-12.061
aha	-12.0616
▁stevige	-12.0617
claviculair	-12.0618
▁tps	-12.0618
▁760	-12.0619
09-2	-12.0621
▁sikkel	-12.0622
▁spirocheten	-12.0622
columnair	-12.0622
cylinders	-12.0622
▁adenomyose	-12.0622
▁besluit	-12.0622
▁bloedvaatjes	-12.0622
▁dubbelloops	-12.0622
▁ehbo	-12.0622
▁flexus	-12.0622
▁gekozen	-12.0622
▁genitalis	-12.0622
▁gerangschikt	-12.0622
▁heparine	-12.0622
▁hoefijzernier	-12.0622
▁individuel	-12.0622
▁lenskern	-12.0622
▁peribronchiaal	-12.0622
▁pijnstilling	-12.0622
▁praktisch	-12.0622
▁predisponerend	-12.0622
▁pulmonum	-12.0622
▁tonsillectomie	-12.0622
▁trabekelblaas	-12.0622
▁tubahoeken	-12.0622
▁ziektebeloop	-12.0622
bacteriekolonies	-12.0622
▁nodule	-12.0622
▁dermatoloog	-12.0622
▁gevalideerd	-12.0622
▁congenitaal	-12.0622
swl	-12.0622
ificeerd	-12.0622
▁agens	-12.0622
▁glioom	-12.0622
▁middag	-12.0623
drainage	-12.0623
▁tdp	-12.0624
▁mediaanlijn	-12.0624
▁rethoracotomie	-12.0624
▁overliggend	-12.0626
▁coil	-12.0626
▁chronica	-12.0627
viii	-12.0628
▁prik	-12.0628
▁receptorstatus	-12.0628
rine	-12.063
▁sarcomateu	-12.0631
▁vastzittend	-12.0631
uip	-12.0635
▁hilusgebied	-12.0636
myelo	-12.0638
▁angioinvasieve	-12.0643
▁bvo	-12.065
off	-12.0652
09-13	-12.0655
▁satellitose	-12.0655
▁up	-12.0658
▁deviatie	-12.0658
50)	-12.0664
▁palpabele	-12.0664
▁tumorrecidief	-12.0666
▁circumscripte	-12.0667
▁bii	-12.0668
▁anaal	-12.0672
▁bacterieen	-12.0675
terminaal	-12.0676
▁2100	-12.0678
candida	-12.0678
verkalking	-12.0679
▁reeksen	-12.068
random	-12.0682
auto	-12.0682
▁730	-12.0687
cortex	-12.0688
▁aankleurend	-12.0691
▁rb	-12.0692
less	-12.0698
dering	-12.0706
▁functioneren	-12.0715
stapelingsziekte	-12.0716
_00	-12.0734
ctische	-12.0735
stof	-12.0737
146	-12.0744
erse	-12.0748
banale	-12.0748
▁schuim	-12.0749
▁anusbiopt	-12.0752
ift	-12.0752
ilic	-12.0753
▁knoop	-12.0758
14-4	-12.0761
▁loge	-12.0767
▁entero	-12.0776
▁recenter	-12.0787
obul	-12.0787
tetrazoliumproef	-12.0792
▁aterosclerose	-12.0792
▁cruris	-12.0792
▁eccrien	-12.0792
▁fibrinebeslag	-12.0792
▁gerapporteerd	-12.0792
▁mesenchymaal	-12.0792
▁ontslagbrief	-12.0792
▁uitlokkend	-12.0792
▁oligohydramnion	-12.0792
▁retrospect	-12.0792
▁hemithyreoid	-12.0792
▁lipomatose	-12.0792
▁leukopenie	-12.0792
-04-13/*******/	-12.0792
-09-13/*******/	-12.0792
▁aftakkend	-12.0792
▁mondhoek	-12.0792
drukken	-12.0792
▁mondholte	-12.0793
▁purkinjecellen	-12.0793
▁ribfractuur	-12.0793
▁ggd	-12.0793
▁wervelfractuur	-12.0793
▁straal	-12.0794
able	-12.0796
▁intrapulmonaal	-12.0797
▁fibers	-12.08
▁stille	-12.08
plasie	-12.0802
▁longafwijking	-12.0803
▁lymklier	-12.0803
▁klepbladen	-12.0804
▁hard	-12.0804
▁beschadigingen	-12.0812
▁myd	-12.0813
155	-12.0813
▁hypotensieve	-12.0818
▁gemethyleerd	-12.082
▁vreemd	-12.0822
▁atheroomcyste	-12.0828
▁pool	-12.083
▁colontype	-12.0832
▁beperking	-12.0838
emfyseem	-12.084
cytologisch	-12.0842
▁dukes	-12.0846
▁zacht	-12.0847
foto	-12.085
katheter	-12.0851
sentinel	-12.0851
achtergrond	-12.0851
anastomose	-12.0851
voornamelijk	-12.0851
proximaal	-12.0851
elders	-12.0851
360	-12.0863
belasting	-12.0864
12-2	-12.0865
▁mmol	-12.0865
▁290	-12.0867
15):	-12.0867
poliepen	-12.087
ductie	-12.0883
vorm	-12.0886
sonderzoek	-12.0891
▁activatie	-12.0895
▁stroom	-12.0897
▁idiopathisch	-12.0901
oth	-12.0903
5.2	-12.0904
ww	-12.091
geel	-12.0912
▁immunologische	-12.0915
700	-12.0916
08-2	-12.0922
spoeling	-12.0927
ocyten	-12.0933
pathy	-12.0936
▁3,2	-12.094
loog	-12.0944
geleverd	-12.0946
▁winding	-12.0948
membra	-12.0953
oei	-12.0955
solide	-12.0956
thorac	-12.096
acr	-12.0961
tvb	-12.0962
opheffen	-12.0964
▁afweer	-12.0964
▁anoxie	-12.0964
▁epithelioid	-12.0964
▁gedocumenteerd	-12.0964
▁getuige	-12.0964
▁groeiretardatie	-12.0964
▁hallux	-12.0964
▁hechtdraad	-12.0964
▁hyalinisatie	-12.0964
▁hypothalamus	-12.0964
▁lasix	-12.0964
▁mirabilis	-12.0964
▁moeizame	-12.0964
▁piriformis	-12.0964
▁sample	-12.0964
▁verzonden	-12.0964
▁waarneembaar	-12.0964
▁perineum	-12.0964
▁verzwakt	-12.0964
▁neusbijholte	-12.0964
-10-13/*******/	-12.0964
▁extend	-12.0964
▁adenomateus	-12.0964
vertakkende	-12.0964
▁niersteen	-12.0964
▁schedelgroeve	-12.0965
mobiel	-12.0965
▁elf	-12.0965
▁hepatoduodenale	-12.0965
▁daalde	-12.0965
▁vasectomie	-12.0966
chiari	-12.0968
volgende	-12.0968
▁hepatisatie	-12.0969
▁bronchiaal	-12.0969
▁celgroepjes	-12.097
▁adenoma	-12.097
▁betroffen	-12.0972
▁cause	-12.0974
karakteristieken	-12.0975
▁transit	-12.0977
▁kransslagaderen	-12.0978
▁dermoidcyste	-12.0979
▁metalen	-12.0979
▁placentadeel	-12.0981
▁clusters	-12.0982
▁mononucleair	-12.0982
▁ondersteunend	-12.0982
rwv	-12.0985
▁uitbreidt	-12.0987
itieve	-12.0988
▁thromboembolien	-12.0988
06-12	-12.099
▁galblaaswand	-12.099
▁insufficienti	-12.0992
▁ductulair	-12.0994
atief	-12.0994
▁buikoperaties	-12.1002
ologie	-12.1003
ontstekingshaard	-12.1003
▁lithiasis	-12.1005
kras	-12.1005
trium	-12.1006
neurale	-12.1011
790	-12.1015
gevoerd	-12.1018
▁ouders	-12.102
thoracotomie	-12.1024
maligne	-12.1026
indicatie	-12.1026
descendens	-12.1026
meerdere	-12.1026
vagina	-12.1027
sinus	-12.1029
voorts	-12.1031
▁nierafwijkingen	-12.1034
170	-12.1045
▁voeding	-12.1052
schouderblad	-12.1054
til	-12.1064
▁vv	-12.1075
▁zijden	-12.1077
qui	-12.108
cysten	-12.1084
zijdig	-12.1086
klieren	-12.1091
▁metasta	-12.1105
▁preventie	-12.1107
▁are	-12.1113
ulceratie	-12.1117
epidermaal	-12.1119
▁meyenburg	-12.1135
ieerd	-12.1136
iseren	-12.1136
heidshalve	-12.1138
▁suggestie	-12.1139
▁klierbuis	-12.1139
▁anafyla	-12.1139
▁alcoholmisbruik	-12.1139
▁endometrial	-12.1139
▁gynaecomastie	-12.1139
▁hypokaliemie	-12.1139
▁mesangiale	-12.1139
▁petechieen	-12.1139
▁planopilaris	-12.1139
▁proctitis	-12.1139
▁ruber	-12.1139
▁serratia	-12.1139
▁verhoorning	-12.1139
▁verkavelend	-12.1139
▁wernicke	-12.1139
▁gedateerd	-12.1139
▁nabestaanden	-12.1139
▁rekening	-12.1139
▁mortus	-12.1139
▁representatieve	-12.1139
▁venosus	-12.1139
▁(2012)	-12.114
▁slot	-12.114
-11-13/*******/	-12.114
▁semen	-12.114
▁perforerende	-12.114
▁basaloide	-12.114
▁longtoppen	-12.114
▁standsafwijking	-12.1141
▁ganglioncellen	-12.1141
▁intradermaal	-12.1142
▁bovenkaak	-12.1142
▁uitzichtlo	-12.1142
▁necro	-12.1145
▁gezicht	-12.1145
▁slechter	-12.1147
ance	-12.1149
▁lymfe	-12.1152
▁330	-12.1155
▁lateralis	-12.1158
02-11	-12.116
▁1550	-12.1161
pin	-12.1168
ularis	-12.1169
ovarium	-12.1183
cerebrale	-12.12
▁overhechten	-12.12
thrombi	-12.1202
perfusie	-12.1202
▁aortaruptuur	-12.1203
pta	-12.1203
apicaal	-12.1205
radiologisch	-12.1205
centrum	-12.1205
pathogene	-12.1205
binnen	-12.1205
locatie	-12.1207
lobulaire	-12.1209
▁(2,5	-12.1214
▁decomp	-12.1217
20-01	-12.1219
16-10	-12.1221
▁kernhoudend	-12.1222
▁grenzen	-12.1231
ostinflammatoire	-12.1232
atio	-12.1235
bra	-12.1237
▁boezem	-12.1247
▁organiserend	-12.1255
▁bijzijn	-12.1259
▁niertumor	-12.1265
23-2	-12.1266
▁insnijden	-12.1269
ology	-12.1279
▁orbita	-12.1286
▁chondro	-12.1287
▁mammabiopsie	-12.1289
▁mondslijmvlies	-12.1298
▁meerder	-12.1302
▁dysmorfie	-12.1302
mail	-12.1305
▁mucine	-12.1312
▁afsluit	-12.1315
lencarcinoom	-12.1317
organisme	-12.1317
embool	-12.1318
palatoschisis	-12.1318
▁anomalie	-12.1318
▁bespreken	-12.1318
▁choriaalplaat	-12.1318
▁discrepant	-12.1318
▁doormaakte	-12.1318
▁ectocervicale	-12.1318
▁geamplificeerd	-12.1318
▁gespecificeerd	-12.1318
▁indolent	-12.1318
▁instituut	-12.1318
▁overeenkomt	-12.1318
▁precies	-12.1318
▁preexsistente	-12.1318
▁senilis	-12.1318
▁theoretisch	-12.1318
▁thymoom	-12.1318
▁tracheostomie	-12.1318
▁cerad	-12.1318
▁blaasdak	-12.1318
▁cutis	-12.1318
▁enterococcen	-12.1318
▁afdalend	-12.1318
▁monoclonaal	-12.1318
▁hepaticus	-12.1318
▁omkapseld	-12.1318
-06-13/*******/	-12.1318
▁cryptabcessen	-12.1318
▁pulmonar	-12.1318
▁brain	-12.1319
▁fibrinethrombi	-12.1319
▁koilocytose	-12.1319
▁+++	-12.1319
▁buisjes	-12.1319
▁graderen	-12.1319
▁histotype	-12.1319
▁trombosebeen	-12.1319
▁hemithorax	-12.132
▁maagfundus	-12.1321
▁wondinfectie	-12.1322
▁resttoestand	-12.1323
▁vaatprothese	-12.1324
▁infectiebron	-12.1326
▁premortaal	-12.1329
▁capd	-12.1335
▁geoccludeerde	-12.1336
▁sclerosering	-12.1336
▁ijzerdeposities	-12.1342
▁geschoten	-12.1354
▁bezoek	-12.1356
kuur	-12.1361
time	-12.1361
▁infarcthaard	-12.1361
495	-12.1363
▁war	-12.1366
werken	-12.1372
▁ontlastend	-12.1376
▁sab	-12.1385
correctie	-12.1386
body	-12.1386
posterior	-12.1387
kwam	-12.1387
necrotiserende	-12.1387
lumpectomie	-12.1387
streng	-12.1387
▁regel	-12.1389
geinduceerde	-12.1396
indien	-12.1396
▁dip	-12.1398
adem	-12.1404
▁stelsel	-12.1413
▁lipo	-12.1413
▁ventrikelfalen	-12.1414
geassocieerde	-12.1415
reeds	-12.1417
positie	-12.142
▁redenen	-12.1432
▁fasci	-12.1435
▁afgerond	-12.1437
rich	-12.1439
receptoren	-12.1441
lings	-12.1442
▁aanliggend	-12.1443
1,5	-12.1452
▁exc	-12.1455
▁macrometastase	-12.1468
-11-14/	-12.1471
▁axillaire	-12.1472
▁myocardial	-12.1476
toir	-12.1479
stemi	-12.1488
lik	-12.149
▁geheugen	-12.1492
thi	-12.1493
▁reticuline	-12.1494
nodale	-12.1499
▁streptokok	-12.1499
coagula	-12.1499
amnioti	-12.15
▁farynx	-12.15
capaciteit	-12.15
geprepareerd	-12.15
▁beduidend	-12.15
▁belemmerd	-12.15
▁bilobectomie	-12.15
▁constrictiva	-12.15
▁daadwerkelijk	-12.15
▁funisitis	-12.15
▁gebeuren	-12.15
▁gecauteriseerd	-12.15
▁gedestrueerd	-12.15
▁haematemesis	-12.15
▁haemoptoe	-12.15
▁intraluminaal	-12.15
▁laatstgenoemde	-12.15
▁malperfusie	-12.15
▁neutropenie	-12.15
▁occult	-12.15
▁omslagplooi	-12.15
▁onmiddellijk	-12.15
▁orofarynx	-12.15
▁platzbauch	-12.15
▁routine	-12.15
▁uitsnijdatum	-12.15
▁verkalkende	-12.15
▁beladen	-12.15
▁glans	-12.15
▁thermisch	-12.15
▁uremisch	-12.15
▁adenosquameus	-12.15
▁globu	-12.15
▁mucopurulent	-12.15
▁oligo	-12.15
arvc	-12.15
▁mucus	-12.15
▁hematopoetisch	-12.15
▁meneer	-12.15
▁mastoid	-12.1501
▁sign	-12.1501
▁skeletdysplasie	-12.1501
▁endocardiaal	-12.1501
▁38-	-12.1502
▁reactivatie	-12.1502
▁porto	-12.1503
▁colorectal	-12.1503
▁dystrofische	-12.1503
▁maagretentie	-12.1504
▁vaginawand	-12.1504
▁overbelasting	-12.1505
▁sish	-12.1505
▁hras	-12.1509
▁congestief	-12.1511
▁mgus	-12.1512
sproduct	-12.1518
glandulaire	-12.1519
grafisch	-12.1529
▁knieholte	-12.1535
▁linkerhand	-12.1537
von	-12.154
▁centimeters	-12.1541
transplant	-12.155
▁verbindingen	-12.1552
▁gehouden	-12.1554
intraperitoneaal	-12.1555
factor	-12.1556
stroom	-12.1561
weke	-12.1563
▁tijdelijke	-12.1564
mortem	-12.1569
point	-12.1571
folliculair	-12.1571
besproken	-12.1572
encefalopathie	-12.1572
scapula	-12.1572
atypische	-12.1572
▁vergroeide	-12.1574
▁limbisch	-12.1576
draad	-12.1581
▁block	-12.159
-05-15/	-12.159
▁sep	-12.1592
▁tumornegatief	-12.1596
01-13	-12.1615
▁polymorf	-12.1616
▁tijdelijk	-12.1626
spinale	-12.1627
▁125	-12.1628
kan	-12.163
▁740	-12.163
▁tki	-12.1642
▁kaar	-12.1647
tpn	-12.1655
435	-12.1674
▁stans	-12.1677
▁segmentkernige	-12.1678
▁vrucht	-12.1685
uitgebluste	-12.1685
▁asymmetrie	-12.1685
▁evenwicht	-12.1685
▁fibroxanthoom	-12.1685
▁habitus	-12.1685
▁lijkschouwer	-12.1685
▁locoregionaal	-12.1685
▁objectiveren	-12.1685
▁urticariele	-12.1685
▁vergeleken	-12.1685
▁verruceus	-12.1685
▁vloeibare	-12.1685
▁grauw	-12.1685
ificatie	-12.1685
▁pneumocyten	-12.1685
▁waarschij	-12.1685
-07-13/*******/	-12.1685
-01-13/*******/	-12.1685
▁antilichamen	-12.1685
▁thuissituatie	-12.1685
▁torre	-12.1686
▁cardioversie	-12.1686
▁bloeddrukdaling	-12.1686
▁ulna	-12.1686
▁vader	-12.1686
▁herbeoordeeld	-12.1686
▁order	-12.1686
▁spieratrofie	-12.1687
granulocyt	-12.1687
▁hepatogene	-12.1688
triple	-12.1691
▁2,6	-12.1698
diastase	-12.17
▁fysiologisch	-12.1701
▁anhydramnion	-12.1703
jwo	-12.1705
▁cir	-12.1705
▁1650	-12.1708
▁manifestatie	-12.1708
kern	-12.1708
395	-12.1709
sll	-12.1709
07-17	-12.171
▁longarterie	-12.171
▁conus	-12.1711
sarcoma	-12.1712
wilson	-12.1713
▁polypoid	-12.1714
▁sup	-12.1716
pathol	-12.1719
▁vergevorderde	-12.172
uitstortingen	-12.1723
▁mesenteri	-12.1724
▁uitbreidde	-12.1728
▁app	-12.1729
megalie	-12.1732
▁*******/*******	-12.1734
▁3-6	-12.1734
▁semirecent	-12.1738
06-14	-12.1739
▁linkerbovenarm	-12.174
pipelle	-12.1747
nieuw	-12.1749
hechting	-12.175
ull	-12.1752
penie	-12.1758
plasma	-12.176
medicamenteus	-12.176
probleem	-12.176
origine	-12.1761
hooggradig	-12.1761
activatie	-12.1761
▁hepat	-12.1767
▁atelectatische	-12.1768
raken	-12.1773
poly	-12.178
860	-12.1792
potje	-12.1796
18-01	-12.18
bac	-12.1809
▁seborroisch	-12.181
▁erfelijk	-12.181
▁begeleid	-12.1811
▁afsluitend	-12.1812
▁gallig	-12.1812
▁bacteria	-12.1813
▁<1	-12.183
sproblemen	-12.1831
eerder	-12.1839
nten	-12.184
acinair	-12.1843
schildklier	-12.1845
▁gewricht	-12.1846
▁linkeroor	-12.1858
▁10-11	-12.1858
gebonden	-12.1862
▁vermeldde	-12.1863
07-12	-12.1865
▁korrel	-12.1865
▁verblijf	-12.1872
▁dysplasia	-12.1874
duodenectomie	-12.1874
endarteriectomie	-12.1874
prepareren	-12.1874
▁collectie	-12.1874
▁competent	-12.1874
▁distributie	-12.1874
▁doorwoekerd	-12.1874
▁dunwandige	-12.1874
▁gecorrigeerd	-12.1874
▁gestorven	-12.1874
▁hemangiomen	-12.1874
▁hersendood	-12.1874
▁hoofdzakelijk	-12.1874
▁kernbasofilie	-12.1874
▁mixed	-12.1874
▁onscherp	-12.1874
▁overleefd	-12.1874
▁parotidectomie	-12.1874
▁potentie	-12.1874
▁staphylococcen	-12.1874
▁suggereren	-12.1874
▁tandenrij	-12.1874
▁̄rriteerde	-12.1874
▁gladwandig	-12.1874
▁electrolyt	-12.1874
▁nevus	-12.1874
coverage	-12.1874
▁buurt	-12.1874
▁moeheid	-12.1874
▁cross	-12.1874
▁polikliniek	-12.1874
▁internist	-12.1874
proeflaparotomie	-12.1874
▁eber	-12.1874
▁donkerrood	-12.1874
▁slijmvliezen	-12.1874
▁droge	-12.1874
▁entiteit	-12.1875
▁slijmerig	-12.1875
▁subclaviculair	-12.1875
▁electronen	-12.1875
▁opleveren	-12.1875
▁cryptitis	-12.1876
▁passagere	-12.1877
trophi	-12.1877
▁kinderen	-12.1878
▁variaties	-12.1879
▁sectio	-12.188
▁gna	-12.1882
fibril	-12.1882
▁flink	-12.1883
▁lymfoompanel	-12.1883
▁amiodarone	-12.1884
▁infiltraatjes	-12.1885
▁zijkant	-12.1885
▁(520	-12.1887
▁hematoomvorming	-12.189
▁pcp	-12.189
▁ijzerkleuring	-12.189
▁pocket	-12.1891
▁klierweefsel	-12.1893
▁bolvormig	-12.1894
▁card	-12.1895
trofie	-12.1898
figo	-12.1898
▁vasculitisbeeld	-12.1899
17-3	-12.1902
▁veneus	-12.1905
▁cystevorming	-12.1906
▁genitaal	-12.1912
▁hartactie	-12.1912
▁tumorhaardjes	-12.1913
ventro	-12.1918
▁details	-12.1927
68)	-12.1931
▁stenting	-12.1937
uo	-12.1938
▁macr	-12.1941
▁dlbcl	-12.1941
▁huidshavebiopt	-12.1942
voorstel	-12.1946
complex	-12.1947
▁np	-12.1949
alzheimer	-12.1953
partiele	-12.1953
weinig	-12.1953
distale	-12.1953
pols	-12.1953
hepato	-12.1953
grootste	-12.1955
zeker	-12.1958
musculaire	-12.1959
ction	-12.1966
▁thoracolumba	-12.1967
▁gelige	-12.1968
▁stembanden	-12.1969
▁celtype	-12.1972
ness	-12.1975
▁mitochondrial	-12.1976
90%	-12.1991
▁mortem	-12.1991
▁immunokleuring	-12.1992
▁vesiculae	-12.1997
▁verwekkers	-12.1999
▁vaatoperatie	-12.2003
▁case	-12.2004
▁spierbiopt	-12.2007
▁spierwand	-12.2009
groot	-12.2011
chroma	-12.2017
▁circumferentie	-12.2022
belemmering	-12.2024
10-12	-12.2035
/08/2	-12.2037
lauw	-12.2039
▁continu	-12.2045
▁tricuspidaal	-12.2046
93)	-12.2056
▁onrust	-12.2058
▁kweekuitslag	-12.2059
▁spoor	-12.206
▁(350	-12.2063
peritonitis	-12.2065
▁aspir	-12.2065
▁alienum	-12.2066
▁brokkelig	-12.2066
▁discordant	-12.2066
▁indrukwekkend	-12.2066
▁leptomeninx	-12.2066
▁neutropene	-12.2066
▁pilonidalis	-12.2066
▁transsudaat	-12.2066
▁uitnemen	-12.2066
▁versneld	-12.2066
klatskin	-12.2066
▁coagulase	-12.2066
▁differentieren	-12.2066
▁meldde	-12.2066
▁neusbrug	-12.2066
▁spanningspneumo	-12.2066
▁schrompeling	-12.2066
▁(3+3)	-12.2066
pyelo	-12.2066
▁three	-12.2066
▁foetalis	-12.2066
▁oproep	-12.2067
beurt	-12.2067
▁afstrijkbaar	-12.2067
▁galstase	-12.2067
▁subserosaal	-12.2068
▁willen	-12.2068
▁wandverdikking	-12.2068
▁brunners	-12.2068
▁peracuut	-12.2068
▁buikomvang	-12.2069
▁perfor	-12.2069
▁vaatstuwing	-12.2069
▁perianaal	-12.207
predictie	-12.2073
▁dyspnoeklachten	-12.2075
88)	-12.2075
▁bacterieel	-12.2076
▁mitraliskleppen	-12.2076
▁wegrakingen	-12.2077
▁halsvaten	-12.2077
▁uitpuilend	-12.208
▁lymfkliertje	-12.208
▁skin	-12.208
hepatitis	-12.2081
▁feitelijk	-12.2082
▁rugklachten	-12.2082
▁790	-12.2084
▁littekenreactie	-12.209
cervicale	-12.2092
2012:	-12.2098
▁*******-*******	-12.2101
clusie	-12.2105
▁avl	-12.2106
oscopisch	-12.2111
retro	-12.2115
▁atm	-12.2121
▁175	-12.2122
▁voorhoorn	-12.2127
▁systeemziekte	-12.2133
▁gewrichts	-12.2135
uff	-12.2136
stroma	-12.2137
▁meckel	-12.2139
▁turp	-12.2139
▁gereseceerde	-12.2142
4-12	-12.2144
▁archer	-12.2147
profiel	-12.2148
parese	-12.2148
bekleding	-12.2148
papilloom	-12.2149
atherosclerose	-12.2149
waaronder	-12.215
prerenale	-12.2152
mber	-12.2153
zijn	-12.2153
02-14	-12.2163
▁perivesica	-12.2165
▁emc	-12.2169
urine	-12.217
levergewicht	-12.217
▁presenteer	-12.2177
▁middelen	-12.2181
gelegd	-12.2182
dagen	-12.2184
lijkbaar	-12.2186
depositie	-12.2188
▁ema	-12.2191
▁unci	-12.2201
plek	-12.221
▁cataract	-12.2214
▁omtrek	-12.2216
hilus	-12.2227
▁compensatoir	-12.2228
richting	-12.2228
later	-12.2233
▁knieen	-12.2236
nbt	-12.2239
▁verlopend	-12.2245
-09-15/	-12.2251
▁contralatera	-12.2251
▁leverbiopsie	-12.2257
-06-16/	-12.2258
antwoord	-12.2261
▁plasmaceldyscra	-12.2262
▁epigastrio	-12.2262
▁expectatief	-12.2262
▁extrinsiek	-12.2262
▁gedaald	-12.2262
▁gedenudeerd	-12.2262
▁hemosiderose	-12.2262
▁hypercapnie	-12.2262
▁insnoering	-12.2262
▁kwast	-12.2262
▁longemphyseem	-12.2262
▁omschreven	-12.2262
▁schedeldak	-12.2262
▁subcarinaal	-12.2262
▁uitvoerig	-12.2262
▁uitzaaiingen	-12.2262
▁frontalis	-12.2262
▁passieve	-12.2262
▁thyroiditis	-12.2262
▁vergroenend	-12.2262
spleten	-12.2262
▁neemt	-12.2262
▁pemphigoid	-12.2262
energetisch	-12.2262
▁miniem	-12.2262
▁enteropathie	-12.2262
▁tracheotomie	-12.2262
▁passageklachten	-12.2262
.1799	-12.2263
▁ventriculitis	-12.2263
▁klepslippen	-12.2263
▁notch	-12.2263
▁afspraak	-12.2264
▁verwijs	-12.2264
▁tavi	-12.2265
▁recto	-12.2265
▁stilstaand	-12.2265
▁cusp	-12.2266
▁(470	-12.2268
inklemmingsbeeld	-12.2268
2005	-12.2271
2001:	-12.2271
▁blaasmucosa	-12.2273
▁ondervulling	-12.2274
bladen	-12.228
cryptogene	-12.2287
▁heer	-12.229
▁acanthotisch	-12.2291
▁cholestatische	-12.2293
▁aaaa	-12.2298
naevoide	-12.2299
-08-16/	-12.2304
middelste	-12.2312
kinase	-12.2323
kuit	-12.2327
katheterisatie	-12.2336
ciduale	-12.2336
▁drug	-12.2337
kaak	-12.2337
sperm	-12.2339
_000	-12.234
▁arter	-12.2344
afhankelijk	-12.2346
gewricht	-12.2348
coccen	-12.2348
high	-12.2349
vasculitis	-12.2349
sinds	-12.2349
extern	-12.2349
trombus	-12.2349
bloedtransfusies	-12.235
intestinalis	-12.2351
▁cysto	-12.2352
forse	-12.2352
▁enorm	-12.2353
▁secretoire	-12.2353
ductale	-12.237
▁wissel	-12.2372
braf	-12.2374
▁oogt	-12.2376
▁aanvragen	-12.2382
16-8	-12.2387
wit	-12.2392
07-19	-12.2407
▁voedings	-12.241
xy	-12.2412
▁07-01-	-12.2418
▁immuung	-12.2425
▁kransslagader	-12.2425
amo	-12.2427
macro	-12.2428
trombusmateriaal	-12.2432
▁(420	-12.2433
▁cluster	-12.2441
zegelringceltype	-12.2443
▁risicofactor	-12.2447
uze	-12.2455
jun	-12.2459
▁xantho	-12.2462
▁parvo	-12.2462
enterostomie	-12.2462
flowcytometrisch	-12.2462
▁amfetamine	-12.2462
▁aortakunstklep	-12.2462
▁carcinosarcoom	-12.2462
▁chorionitis	-12.2462
▁ejectiefractie	-12.2462
▁gemeentelijk	-12.2462
▁herschikking	-12.2462
▁hypoglycaemie	-12.2462
▁mgmt	-12.2462
▁pseudomelanosis	-12.2462
▁strikt	-12.2462
▁vermindering	-12.2462
▁ewing	-12.2462
▁mengbeeld	-12.2462
▁eindigend	-12.2462
▁gezakt	-12.2462
▁paroxysma	-12.2462
▁pyela	-12.2462
▁kwadrant	-12.2462
▁geloosd	-12.2462
▁fibromatose	-12.2462
▁delay	-12.2463
▁puntbloedingen	-12.2463
split	-12.2463
▁overgangstype	-12.2464
▁weerstand	-12.2464
10-10	-12.2464
▁biamniotische	-12.2465
13-4	-12.2465
▁(80%)	-12.2466
▁overgegaan	-12.2466
▁galblaasbed	-12.2468
19-3	-12.2468
▁spiercellen	-12.2469
▁longcirculatie	-12.2472
▁dichtbij	-12.2472
▁lymfomato	-12.2475
▁echte	-12.2477
▁portaal	-12.2479
▁ondervelden	-12.2479
uctie	-12.248
▁ketens	-12.248
▁littekentjes	-12.2481
▁specimen	-12.2482
▁23-06-	-12.2486
▁ju	-12.2487
stelling	-12.2488
▁fem	-12.2488
▁grillige	-12.2489
▁monotypisch	-12.2491
▁foveolaire	-12.2496
▁165	-12.25
▁linkercoronair	-12.2504
▁pral	-12.2505
werk	-12.2506
565	-12.2514
03-10	-12.2516
▁(150	-12.2521
365	-12.2538
trombi	-12.255
▁820	-12.2551
▁motiliteit	-12.2552
reductie	-12.2552
toxiciteit	-12.2552
stolling	-12.2553
exacte	-12.2553
minimaal	-12.2553
atelectase	-12.2553
ruiterembolus	-12.2553
breslow	-12.2553
eiwit	-12.2554
centrale	-12.2555
asale	-12.2556
▁terme	-12.2559
medullair	-12.2562
ratio	-12.2563
235	-12.2564
geleide	-12.2565
245	-12.2567
sgewijze	-12.2568
buis	-12.2574
▁granulaire	-12.258
hoofdstamstenose	-12.2585
525	-12.2597
lastische	-12.2597
▁rechtsfalen	-12.2601
▁steatotisch	-12.2603
▁haemorragisch	-12.2603
▁myxoid	-12.2603
excisiebiopt	-12.2606
08-11	-12.2607
getreden	-12.2611
▁neuropil	-12.2616
▁turt	-12.2622
▁90%)	-12.2625
▁uitsluit	-12.2648
▁peritoneumbiopt	-12.265
cut	-12.2654
streek	-12.2663
specific	-12.2665
effort	-12.2666
methylation	-12.2666
musculatuur	-12.2666
occlusive	-12.2666
ongeluk	-12.2666
perinatale	-12.2666
waviness	-12.2666
▁aanbeveling	-12.2666
▁acantholyse	-12.2666
▁connecti	-12.2666
▁gecalcificeerde	-12.2666
▁ontkalking	-12.2666
▁pneumonectomie	-12.2666
▁seborrhoisch	-12.2666
▁stemplooi	-12.2666
▁subchoria	-12.2666
▁verwondingen	-12.2666
▁woning	-12.2666
▁zonodig	-12.2666
▁detubatie	-12.2666
▁opkomende	-12.2666
▁sclerae	-12.2666
▁eerstegraads	-12.2666
▁grofdruppelig	-12.2666
▁oropharynx	-12.2666
▁opheldering	-12.2666
▁radix	-12.2667
▁immunoloog	-12.2667
▁leukostase	-12.2667
▁schedelomtrek	-12.2667
▁neoplastische	-12.2667
▁multicentrisch	-12.2668
▁cerebelli	-12.2668
tinib	-12.2668
▁subtypering	-12.2668
marker	-12.2669
▁(3-6	-12.267
▁consequenties	-12.267
▁abnormaal	-12.267
▁(460	-12.2671
▁(480	-12.2673
▁bank	-12.2676
▁(2002)	-12.2676
thyreoid	-12.2678
-03-18/	-12.2681
▁ovariumcyste	-12.2691
bruin	-12.2697
reperfusieschade	-12.2698
lobulair	-12.2698
▁there	-12.2701
▁plaatste	-12.2704
onden	-12.2705
0):	-12.2714
4-6	-12.2719
▁apneu	-12.272
▁rectumbiopt	-12.2725
cerb	-12.2729
▁plan	-12.2732
-04-15/	-12.2735
▁verstoord	-12.2738
bronchus	-12.2746
vervullingsbeeld	-12.2751
trombo	-12.2756
opmerking	-12.2761
encephalopathie	-12.2761
resultaat	-12.2761
tezamen	-12.2761
radiotherapie	-12.2761
epicrise	-12.2761
reanimatie	-12.2762
restlumen	-12.2762
▁hypertrophie	-12.2763
doch	-12.2765
▁vg	-12.2765
▁assistent	-12.2775
▁tumorresten	-12.278
▁bloedtransfusie	-12.2782
vinger	-12.2786
alle	-12.2793
nia	-12.2794
axilla	-12.2796
▁brickers	-12.2803
ngi	-12.2804
slechts	-12.2804
15-8	-12.2808
2-3	-12.2808
▁asymmetrisch	-12.2812
drukt	-12.2812
cephalo	-12.2813
ontregelde	-12.2832
▁centrilobulair	-12.2832
poplitea	-12.2844
▁familiair	-12.2859
▁ductectasie	-12.2859
▁groepje	-12.2859
inke	-12.286
535	-12.2873
sternaal	-12.2874
▁contusio	-12.2874
inushistiocytose	-12.2875
▁afsplitsing	-12.2875
▁autopsie	-12.2875
▁autopsy	-12.2875
▁chorionvlokken	-12.2875
▁coccoide	-12.2875
▁cyanotisch	-12.2875
▁embolectomie	-12.2875
▁glanzend	-12.2875
▁hypofarynx	-12.2875
▁hysteroscopisch	-12.2875
▁oxytoca	-12.2875
▁pallidus	-12.2875
▁parametria	-12.2875
▁romphuidtype	-12.2875
▁selectieve	-12.2875
▁sterfte	-12.2875
▁ulceroflegmoneu	-12.2875
▁verenigbaar	-12.2875
▁verstikking	-12.2875
▁vitamine	-12.2875
▁wakker	-12.2875
▁atroof	-12.2875
▁meningeale	-12.2875
▁stoel	-12.2875
▁onderbouw	-12.2875
▁somscore	-12.2875
▁turner	-12.2875
▁ileopsoas	-12.2875
jugulair	-12.2875
▁support	-12.2875
▁staafvormige	-12.2875
overgangszone	-12.2875
▁standaard	-12.2875
▁large	-12.2875
▁radiologie	-12.2875
▁navelbreuk	-12.2875
▁aanwijzig	-12.2875
▁breukzak	-12.2875
▁hepatico	-12.2875
▁chemie	-12.2875
▁mononier	-12.2875
▁extranodaal	-12.2875
▁markeronderzoek	-12.2876
▁postmortem	-12.2876
▁omentalis	-12.2876
▁bind	-12.2877
fem	-12.2877
▁slotte	-12.2877
▁dystrofie	-12.2878
▁bijzonderheid	-12.2879
▁report	-12.288
▁naevocellulares	-12.288
▁bypassoperatie	-12.2885
▁rechterhand	-12.2886
onie	-12.2887
▁sneden	-12.2888
▁longarts	-12.2891
▁vaginaal	-12.2893
▁tumorkenmerken	-12.2894
▁3/4	-12.2895
98)	-12.2896
▁zenuwen	-12.2907
▁binnenste	-12.2907
▁770	-12.2908
gerelateerd	-12.2911
-08-15/	-12.2915
165	-12.292
▁mlpa	-12.2921
660	-12.2922
▁linkerflank	-12.2927
▁dystrof	-12.2928
vulling	-12.2931
07-15	-12.2931
beoordeling	-12.2932
▁steatotische	-12.2939
▁linkerlies	-12.2946
▁she	-12.2952
05-13	-12.2957
eerbaar	-12.2958
-01-15/	-12.2963
04-12	-12.2963
▁frequente	-12.2965
ypt	-12.2967
ondanks	-12.2973
positiviteit	-12.2974
ventrale	-12.2974
progesteron	-12.2974
overwegend	-12.2974
beleid	-12.2974
onvoldoende	-12.2974
neuspunt	-12.2974
postmortale	-12.2974
bovenlip	-12.2975
7-10	-12.2976
vrijwel	-12.2977
versie	-12.2979
▁fibroblast	-12.2979
19-02	-12.2985
fc	-12.2988
arteriosclerosis	-12.299
▁ypt	-12.2991
132	-12.2994
tubulaire	-12.2996
desobstructie	-12.2997
baan	-12.2999
02-03	-12.3003
▁tag	-12.3014
▁geulcereerde	-12.3019
13-10	-12.3023
cardiaresectie	-12.3045
jli	-12.3049
01-12	-12.305
▁eindstandige	-12.3054
raat	-12.3064
▁cyst	-12.3069
-09-14:	-12.3072
▁berustte	-12.3075
▁cauda	-12.308
▁stembandpoliep	-12.3081
-10-16/	-12.3084
▁mallory	-12.3087
▁basillaris	-12.3087
▁chromogranine	-12.3087
▁coronarius	-12.3087
▁digniteit	-12.3087
▁dijbeen	-12.3087
▁gefuseerd	-12.3087
▁geobserveerd	-12.3087
▁geprononceerd	-12.3087
▁klepvegetaties	-12.3087
▁partner	-12.3087
▁pyogenes	-12.3087
▁quadriceps	-12.3087
▁rillingen	-12.3087
▁schrijven	-12.3087
▁spierzwakte	-12.3087
▁uitgerijpt	-12.3087
▁vakantie	-12.3087
▁verslijmend	-12.3087
▁verstandelijk	-12.3087
▁addison	-12.3087
▁entorhina	-12.3087
▁handpalm	-12.3087
▁autonom	-12.3087
▁vervoer	-12.3087
▁homogen	-12.3088
sclc	-12.3088
▁comorbiditeit	-12.3088
▁prae	-12.3088
▁blastentoename	-12.3088
▁lvaw	-12.3088
▁gnaq	-12.3088
▁pacemakerdraad	-12.3088
▁scannen	-12.3088
▁vaatziekten	-12.3088
▁tubulusatrofie	-12.3088
▁nucleoli	-12.3088
▁lissen	-12.3089
▁cardiologisch	-12.3089
▁mbv	-12.3089
▁myomen	-12.309
▁hyp	-12.309
▁aetiologie	-12.309
▁huiddefect	-12.3092
▁micropapillair	-12.3093
▁paralyse	-12.3093
▁(800	-12.3093
▁sturen	-12.3094
▁vaatpathologie	-12.3096
▁reversibele	-12.3099
dometriumpipelle	-12.3102
▁onmogelijk	-12.3104
▁borstwand	-12.3107
▁overall	-12.3107
volumepercentage	-12.3107
▁aangemerkt	-12.3112
▁oncocytaire	-12.3113
▁blo	-12.3117
▁signaal	-12.3122
40%	-12.3124
▁follikels	-12.3126
hippocampale	-12.3128
▁overnam	-12.3129
▁gelijkende	-12.3133
▁oesofagusbiopt	-12.3137
plasmacellulaire	-12.3138
▁4,2	-12.3141
▁oro	-12.3143
▁differentiee	-12.3156
-07-15/	-12.3158
▁smo	-12.316
▁verwekingshaard	-12.3162
bran	-12.3163
conclusieconsult	-12.3163
575	-12.3164
▁leverschade	-12.3167
herzfehlercellen	-12.317
stant	-12.3175
stolsel	-12.3186
▁remmers	-12.319
assistent	-12.319
cutaan	-12.3191
wervel	-12.3191
laboratorium	-12.3191
gedilateerd	-12.3191
▁nash	-12.3192
01-18	-12.3193
22-01	-12.3193
ileum	-12.3193
klepplastiek	-12.3194
ulcera	-12.3195
schedel	-12.3195
▁disc	-12.3221
gemerkt	-12.3223
blastaire	-12.3225
▁emphysemateu	-12.3228
▁1900	-12.3237
▁onrijp	-12.3238
▁macronodulair	-12.3243
takslijden	-12.325
▁20-12-	-12.3252
▁allergisch	-12.3263
gegaan	-12.3265
mono	-12.3266
▁digiti	-12.3266
onco	-12.3272
▁aangeleverd	-12.3274
▁wangslijmvlies	-12.3275
ouder	-12.3281
▁hersenbasis	-12.3284
leiding	-12.3288
▁element	-12.3289
poliepectomie	-12.3292
▁toxic	-12.3292
858	-12.3296
▁frontaalkwab	-12.3299
▁achterliggend	-12.3303
08-06	-12.3304
sediment	-12.3305
stermijn	-12.3305
▁activity	-12.3305
▁cordarone	-12.3305
▁fenotypisch	-12.3305
▁gehyaliniseerd	-12.3305
▁hemosiderine	-12.3305
▁intermittens	-12.3305
▁pemfigoid	-12.3305
▁petechiale	-12.3305
▁revalidatie	-12.3305
waterhouse	-12.3305
▁auramine	-12.3305
▁hartmassage	-12.3305
▁longhili	-12.3305
▁pleurazwoerd	-12.3305
▁electric	-12.3305
▁falx	-12.3305
▁reepjes	-12.3305
▁lukte	-12.3305
▁bloedingsplaats	-12.3305
-01-14/*******/	-12.3305
▁schimmelsporen	-12.3305
▁palga	-12.3305
▁producerend	-12.3305
▁ascal	-12.3305
▁pees	-12.3305
▁superinfectie	-12.3305
▁infero	-12.3306
▁jongeman	-12.3306
▁extracapillair	-12.3306
12-3	-12.3306
▁keloid	-12.3306
▁interval	-12.3306
▁afvallen	-12.3307
▁(2008)	-12.3307
▁kilo	-12.3307
▁vetlaag	-12.3308
▁vaatsysteem	-12.3309
-01-17/	-12.3309
▁cystevocht	-12.3315
23-01	-12.3315
▁duodenummucosa	-12.3316
▁botvorming	-12.3316
▁hage	-12.3316
kernig	-12.3316
▁huidadnex	-12.3317
▁unit	-12.3317
▁(380	-12.3322
197	-12.3322
▁biometrie	-12.3324
▁ontbraken	-12.3325
▁paraaortaal	-12.3326
▁atrio	-12.3329
▁reeel	-12.333
▁ams	-12.3331
▁clips	-12.3338
17-4	-12.3339
hoorn	-12.3343
▁mib	-12.3343
▁immuunsuppressi	-12.3343
pneumoniehaarden	-12.3349
arthrose	-12.3349
890	-12.3351
960	-12.3361
stelsel	-12.3364
uele	-12.3365
▁rectumresectie	-12.3368
91)	-12.3369
006	-12.3372
▁laatst	-12.3372
23-3	-12.3374
▁fundustype	-12.3375
▁miltinfarcten	-12.3378
▁rectale	-12.3378
18-3	-12.3378
lage	-12.3387
10-15	-12.339
vast	-12.3399
circulatie	-12.34
shave	-12.3406
vormend	-12.3406
conclusierevisie	-12.3408
▁ccu	-12.3409
oorspronkelijk	-12.3413
angiografie	-12.3413
gastrisch	-12.3413
lambda	-12.3413
sporadische	-12.3413
bruine	-12.3414
ventraal	-12.3414
gastric	-12.3414
hartfalen	-12.3417
320	-12.3418
artefacten	-12.3424
▁bronchiectasie	-12.3425
▁(1/1	-12.3427
tuba	-12.3428
alleen	-12.3433
knop	-12.3437
▁leverhaarden	-12.3438
reactieve	-12.3446
nucle	-12.3446
▁690	-12.3448
tium	-12.3455
28)	-12.3459
▁huidweefsel	-12.3473
▁herstellen	-12.3481
05-17	-12.3489
path	-12.3501
spiegels	-12.3512
▁chron	-12.3518
▁ulcer	-12.3521
morbiditeit	-12.3526
sprong	-12.3526
knobbel	-12.3527
▁amenorrhoe	-12.3527
----------------	-12.3527
dehydrogenase	-12.3527
faillure	-12.3527
vasculatuur	-12.3527
▁apoptose	-12.3527
▁cerebrospinalis	-12.3527
▁crisis	-12.3527
▁discontinu	-12.3527
▁doodsoorzaken	-12.3527
▁erythematodes	-12.3527
▁erythropoiese	-12.3527
▁excoriatie	-12.3527
▁floride	-12.3527
▁geretourneerd	-12.3527
▁justitie	-12.3527
▁krachtsverlies	-12.3527
▁laryngectomie	-12.3527
▁losmazig	-12.3527
▁miniscu	-12.3527
▁ossificatie	-12.3527
▁prostaticus	-12.3527
▁verklaarbaar	-12.3527
▁volumineus	-12.3527
▁voortschrijdend	-12.3527
known	-12.3527
promoter	-12.3527
-08-13/*******/	-12.3527
elevatie	-12.3527
▁homogeen	-12.3527
▁hemofagocytose	-12.3527
▁geschrompeld	-12.3527
▁hersenhemisfeer	-12.3527
▁pouch	-12.3527
-02-14/*******/	-12.3527
▁abruptio	-12.3527
-06-14/*******/	-12.3527
▁gestegen	-12.3527
▁ontstolling	-12.3527
▁duizeligheid	-12.3527
▁pectoralis	-12.3527
▁collaterale	-12.3527
▁smad	-12.3527
▁kapseldoorgroei	-12.3527
▁arteritis	-12.3528
▁contusiehaarden	-12.3528
▁sputumkweek	-12.3529
▁peritonei	-12.3529
vascular	-12.3529
▁(1+)	-12.3529
▁borstholte	-12.3529
▁verplaatsing	-12.353
▁pijnlijke	-12.3531
cja	-12.3532
▁(2009)	-12.3533
▁linkerhemisfeer	-12.3534
▁(2011)	-12.3535
▁achteraf	-12.3536
▁biochemisch	-12.3539
▁nierkapsel	-12.3541
▁(2015)	-12.3544
485	-12.3546
▁hla	-12.3549
tweelingplacenta	-12.3551
▁3,8	-12.3552
▁aplastische	-12.3554
▁chordae	-12.356
▁levercysten	-12.3562
▁perihilaire	-12.3565
▁nierlijden	-12.3565
▁rechteronderarm	-12.3568
▁880	-12.3568
▁870	-12.3571
▁nierinfarcten	-12.3572
<<	-12.3572
15-10	-12.3577
-10-13:	-12.3577
▁tonsillair	-12.3578
hvd	-12.358
sduur	-12.3583
▁skeletspier	-12.3584
noo	-12.3586
berg	-12.3599
▁macula	-12.3604
▁sym	-12.3605
▁extracapsulair	-12.3608
▁foeto	-12.3614
media	-12.3632
typisch	-12.3632
-11-14:	-12.3633
omvang	-12.3638
▁+3)	-12.3638
diafragma	-12.3638
insertie	-12.364
inclusies	-12.3641
kappa	-12.3641
organiserende	-12.3641
(*******)	-12.3641
coronaria	-12.3641
infectieuze	-12.3641
uitval	-12.3646
volg	-12.3652
▁bioklep	-12.3656
▁interstit	-12.3663
rmatopathologie	-12.3688
▁rechteroor	-12.3693
▁uiteen	-12.3707
-11-2018	-12.3715
vor	-12.3724
▁wor	-12.3724
stasis	-12.3729
terale	-12.3733
neerslagen	-12.3735
▁intrekking	-12.3739
▁pigmenthoudend	-12.3742
scenderende	-12.3745
▁doorsnijding	-12.3748
traumatisch	-12.3748
▁result	-12.375
kleuringspatroon	-12.375
dissecteerde	-12.3754
opportunistische	-12.3754
schimmen	-12.3754
â	-12.3754
▁afgebroken	-12.3754
▁cassette	-12.3754
▁configuratie	-12.3754
▁dermatomycose	-12.3754
▁diastolisch	-12.3754
▁dyskeratose	-12.3754
▁ecchymosen	-12.3754
▁evalueren	-12.3754
▁exostose	-12.3754
▁fimbriae	-12.3754
▁fumigatus	-12.3754
▁gespaard	-12.3754
▁hallucinaties	-12.3754
▁imbibitie	-12.3754
▁junctie	-12.3754
▁keratinocyten	-12.3754
▁leucaemie	-12.3754
▁megakaryopoese	-12.3754
▁polycythaemi	-12.3754
▁secretiefase	-12.3754
▁uitdrukbaar	-12.3754
▁verbleking	-12.3754
▁verbonden	-12.3754
▁vulnerabel	-12.3754
peduncul	-12.3754
▁disseminatie	-12.3754
▁lymfangiectasie	-12.3754
leucocytoclas	-12.3754
▁dermatomyositis	-12.3754
▁anteroseptale	-12.3754
▁ortho	-12.3754
▁gescand	-12.3754
kloon	-12.3754
sanders	-12.3754
▁hematopericard	-12.3754
▁rontgenfoto	-12.3754
▁haemophil	-12.3754
▁paracolisch	-12.3754
▁diagnosis	-12.3754
▁platform	-12.3754
▁gliosis	-12.3755
▁broer	-12.3755
▁endstage	-12.3755
▁spits	-12.3755
▁diagn	-12.3755
▁anisocorie	-12.3755
▁vaatafsluiting	-12.3755
▁hersenhelft	-12.3757
▁nood	-12.3758
▁sinussen	-12.3759
▁(570	-12.3761
14-15	-12.3761
▁spongi	-12.3762
▁aantallen	-12.3763
▁nefrotisch	-12.3764
▁aansnijding	-12.3766
▁gemicro	-12.3768
ipf	-12.3769
▁immunocytochemi	-12.3771
▁darmsegment	-12.3774
nefritis	-12.3774
▁prionziekte	-12.3774
3);	-12.3781
▁maagklachten	-12.3793
18-00	-12.3794
▁diepste	-12.3798
orens	-12.38
▁zoom	-12.3806
▁840	-12.3806
19-03	-12.3807
incidentie	-12.3809
rechterhemisfeer	-12.3811
sgroep	-12.3811
rsc	-12.3814
▁punten	-12.3814
▁3-5	-12.3816
▁granulatie	-12.3817
onbehandelbare	-12.3822
▁maagoperatie	-12.3828
▁decubituswond	-12.3828
-02-16:	-12.383
▁gevoeld	-12.3834
▁bloedige	-12.3845
▁810	-12.3847
neoplastisch	-12.3853
snijden	-12.3861
▁elastische	-12.3869
iliaca	-12.3871
gastritis	-12.3873
worden	-12.3873
tangles	-12.3873
natuurlijk	-12.3873
progressie	-12.3873
medicatie	-12.3873
afmeting	-12.3873
grens	-12.3874
papmilt	-12.3874
verwijd	-12.3874
myocardinfarct	-12.3875
gleasonscore	-12.3876
▁intraepidermal	-12.388
▁thromb	-12.3881
▁different	-12.3882
massale	-12.3883
▁kamers	-12.3883
▁sec	-12.3884
-06-08	-12.3885
▁3,3	-12.3885
-06-17/	-12.3888
▁versterkt	-12.3889
▁bap	-12.3893
tracheale	-12.3902
copd	-12.3909
-08-2013	-12.3914
gangsepitheelcel	-12.3916
▁renal	-12.3923
▁circumscript	-12.3924
▁wandstandig	-12.3924
witte	-12.3925
-03-15/	-12.3928
▁29-06-	-12.3929
▁09-01-	-12.393
▁115	-12.3935
ated	-12.3935
erbb	-12.395
▁17-11-	-12.3951
bet	-12.3952
-10-2015	-12.3953
monotypische	-12.3953
▁substantie	-12.3957
rotisch	-12.3959
▁naevo	-12.3963
thoracale	-12.3966
middel	-12.3969
▁grover	-12.3969
oesophag	-12.397
▁myocyt	-12.3971
▁klepblad	-12.3972
▁restlaesie	-12.3973
▁plas	-12.3976
tracheaal	-12.3977
▁afstrijkba	-12.3985
▁roze	-12.3986
gewerkt	-12.3986
elaatsdysmorfien	-12.3987
jmroze	-12.3987
rachiocephalicus	-12.3987
resorptie	-12.3987
sleutelbeen	-12.3987
stimulatie	-12.3987
▁alcian	-12.3987
▁angiomyolipoom	-12.3987
▁array	-12.3987
▁behandelopties	-12.3987
▁bridging	-12.3987
▁cervicitis	-12.3987
▁cirrhosis	-12.3987
▁decursus	-12.3987
▁exclusionem	-12.3987
▁granulopoiese	-12.3987
▁imponeerde	-12.3987
▁losgelaten	-12.3987
▁spliet	-12.3987
▁strangulatie	-12.3987
▁submuceu	-12.3987
▁trabeculatie	-12.3987
▁tuberculosis	-12.3987
▁vascularisatie	-12.3987
▁veilig	-12.3987
▁verdrinking	-12.3987
consensus	-12.3987
getrokken	-12.3987
▁concha	-12.3987
▁gangreen	-12.3987
▁phyllodes	-12.3987
▁voelen	-12.3987
angiomateuze	-12.3987
▁somber	-12.3987
regulatie	-12.3987
▁microcytaire	-12.3987
▁inmonding	-12.3987
spuiten	-12.3987
▁sinusoidale	-12.3987
▁femorales	-12.3987
-03-10/*******/	-12.3987
▁ldt	-12.3988
▁perirectale	-12.3988
▁parasternaal	-12.3989
maagovergang	-12.3989
▁overgangsgebied	-12.3989
▁pustel	-12.3989
▁zegelringcellen	-12.3989
▁verzorgd	-12.399
▁coecumbodem	-12.399
▁mammasparend	-12.399
▁adenosis	-12.399
▁hyperemie	-12.3991
▁apnoe	-12.3993
▁(1500	-12.3993
▁buikspoelvocht	-12.3995
▁thromboembolus	-12.3996
▁uitgegaan	-12.3997
lezen	-12.3998
▁necrosehaardjes	-12.4001
▁sporten	-12.4001
▁bekkenwand	-12.4002
▁whi	-12.4006
respiratoir	-12.4007
▁miltkapsel	-12.4009
▁lymfvaten	-12.401
▁980	-12.401
▁pockets	-12.4013
▁serosaal	-12.4014
▁pica	-12.4014
▁spoelsel	-12.4016
13-14	-12.402
▁steunt	-12.4021
vertebral	-12.4023
▁aangesneden	-12.4024
vacuolair	-12.4024
histo	-12.4024
▁eo	-12.4025
romp	-12.4032
▁hypereosinofiel	-12.4037
carc	-12.4039
▁teveel	-12.404
▁0.3	-12.4041
▁rechterbovenarm	-12.4042
ococcus	-12.405
▁myocardruptuur	-12.4053
recht	-12.4066
satelliethaarden	-12.4078
hoeft	-12.408
▁vaatlaesie	-12.408
▁lek	-12.4083
chr	-12.4084
mentaal	-12.4089
diagnostiek	-12.409
19-01	-12.4092
premortale	-12.4097
455	-12.4098
173	-12.4101
▁reinfarcering	-12.4108
gemengd	-12.4111
carina	-12.4111
encephalitis	-12.4111
grawitz	-12.4111
fatty	-12.4111
chemotherapie	-12.4112
[...]
