<unk>	0
<s>	0
</s>	0
[PAD]	0
[UNK]	0
[CLS]	0
[MASK]	0
[c-sep]	0
e	-2.11886
.	-2.73503
▁	-3.20226
▁de	-3.56906
▁van	-3.72575
▁een	-3.80919
,	-3.83023
▁met	-4.1074
▁en	-4.1167
▁in	-4.21564
:	-4.27845
▁het	-4.30358
-	-4.40921
▁geen	-4.57849
▁bij	-4.67363
▁is	-5.0878
▁voor	-5.1064
▁er	-5.27039
▁op	-5.32589
cr	-5.35061
lf	-5.36477
▁werd	-5.40643
▁was	-5.70903
▁niet	-5.727
▁beeld	-5.75532
▁obductie	-5.82999
▁rechts	-5.83771
▁links	-5.88785
▁oud	-5.91955
▁na	-5.98372
▁linker	-5.99422
▁patient	-6.00588
▁zijn	-6.0282
▁afwijkingen	-6.10727
▁aan	-6.11213
cisie	-6.11264
▁-	-6.12701
▁onderzoek	-6.13659
▁overlijden	-6.14799
▁ook	-6.14918
carcinoom	-6.15418
▁gezien	-6.15652
▁of	-6.16393
▁uitgebreide	-6.1749
▁maligniteit	-6.18372
▁rechter	-6.21899
▁hart	-6.23208
▁passend	-6.24557
▁als	-6.25268
▁worden	-6.2528
▁tot	-6.25811
▁ontsteking	-6.2611
▁deze	-6.26841
▁zonder	-6.28524
▁overleden	-6.29143
▁aanwijzingen	-6.29672
▁jaar	-6.31156
▁te	-6.3369
d	-6.33943
▁door	-6.34328
▁longen	-6.34352
▁aangetroffen	-6.34534
▁man	-6.35452
s	-6.35596
▁geworden	-6.38873
▁lever	-6.4164
▁kan	-6.43626
▁dit	-6.47599
▁tekenen	-6.49766
▁wordt	-6.52982
▁betreft	-6.53151
▁cm	-6.54395
▁gevonden	-6.5567
▁*******	-6.58423
▁i	-6.59945
▁microscopisch	-6.60308
▁mogelijk	-6.60394
▁t	-6.6419
en	-6.66361
▁geringe	-6.6849
▁huide	-6.6858
▁die	-6.69011
▁vrouw	-6.70048
▁ventrikel	-6.73113
▁gram	-6.73464
▁tevens	-6.75422
▁waarschijnlijk	-6.76259
v	-6.76755
▁tumor	-6.78032
▁veranderingen	-6.7808
▁basis	-6.80811
▁status	-6.8141
▁waren	-6.8164
▁adenocarcinoom	-6.81739
▁zeer	-6.85016
▁onder	-6.85583
▁basaalcel	-6.85615
▁werden	-6.86427
▁sprake	-6.88013
▁bekend	-6.88276
▁atherosclerose	-6.88603
▁acute	-6.8914
▁dysplasie	-6.90166
▁aorta	-6.91554
▁vrij	-6.9278
▁zie	-6.92842
▁ernstige	-6.92853
t	-6.93399
▁chronische	-6.94523
▁toonde	-6.94982
▁dat	-6.95764
▁goed	-6.96075
▁waarbij	-6.96204
▁pneumonie	-6.96412
▁huidbiopt	-6.97636
▁ter	-7.00154
▁epicrise	-7.00811
▁long	-7.01252
jarige	-7.02241
▁d	-7.03072
▁verder	-7.03896
▁sepsis	-7.04218
▁opgenomen	-7.04575
▁bevindingen	-7.05119
▁milt	-7.0702
▁toont	-7.07406
a	-7.08311
▁beiderzijds	-7.09531
▁naar	-7.1146
▁klinisch	-7.12704
▁enkele	-7.12965
▁bloeding	-7.14443
▁*	-7.14546
▁infarct	-7.15174
▁biopten	-7.1594
▁recente	-7.16078
isch	-7.16496
▁huid	-7.16882
▁beide	-7.16932
▁myocardinfarct	-7.1703
▁bronchopneumoni	-7.17205
▁uit	-7.18074
▁kunnen	-7.19147
▁passen	-7.19784
gedifferentieerd	-7.20769
▁ten	-7.22134
▁stuwing	-7.22227
▁nieren	-7.22378
▁myocard	-7.23067
▁dagen	-7.24955
▁carcinoom	-7.25716
▁volgt	-7.26342
▁conclusie	-7.26593
▁aanwezig	-7.26935
▁gevolg	-7.27185
▁hersenen	-7.27465
m	-7.29023
▁echter	-7.29173
▁verricht	-7.29824
▁name	-7.30108
▁nog	-7.30328
▁waarin	-7.30353
▁a	-7.30672
voorgeschiedenis	-7.30817
▁biopt	-7.32655
▁wel	-7.3279
▁deels	-7.3291
▁heeft	-7.33836
▁materiaal	-7.3432
n	-7.35155
▁weken	-7.35815
ii	-7.36377
▁patiente	-7.36852
▁kleine	-7.36938
▁g	-7.39038
▁actieve	-7.40054
g	-7.42521
▁waarvoor	-7.4374
▁ii	-7.43863
us	-7.44303
*******	-7.44541
▁infarcering	-7.44664
▁focaal	-7.44834
▁matig	-7.45652
▁maar	-7.46195
▁type	-7.46652
▁insufficientie	-7.48695
▁colon	-7.488
▁aanvullend	-7.48918
▁ischemie	-7.49086
▁fibrose	-7.49109
▁mm	-7.49204
▁prostaat	-7.49479
▁uitgebreid	-7.49499
▁nier	-7.49945
▁verwijderd	-7.50559
▁duidelijke	-7.50742
▁wat	-7.50785
▁sterk	-7.51058
▁oorzaak	-7.51966
▁dan	-7.52078
▁maag	-7.52438
▁cordis	-7.52626
▁verband	-7.5303
▁grote	-7.54502
▁definitieve	-7.5527
b	-7.56054
▁bloed	-7.56425
▁reactieve	-7.56925
▁recent	-7.58102
▁past	-7.58215
▁metastase	-7.58386
▁lymfklier	-7.59382
▁meer	-7.60553
▁darm	-7.60615
▁verklaren	-7.61134
▁b	-7.61644
▁naevus	-7.6171
▁cardiale	-7.61984
▁macroscopisch	-7.62184
▁groeiend	-7.62274
▁lymfklieren	-7.62294
▁voorts	-7.62556
▁tonen	-7.62575
▁forse	-7.62889
▁enige	-7.63232
▁lokalisatie	-7.63753
▁klinische	-7.63877
▁plaatse	-7.64103
▁gevolge	-7.64511
▁diagnose	-7.65221
▁zou	-7.65356
▁doodsoorzaak	-7.65789
▁matige	-7.66215
▁groei	-7.66217
▁organen	-7.66862
▁metastasen	-7.67578
▁hebben	-7.67756
▁hypertrofie	-7.68576
▁hypertensie	-7.6869
▁normaal	-7.69189
▁gr	-7.7017
▁daarnaast	-7.70418
▁diameter	-7.70511
▁plaveiselcel	-7.70703
▁nodulair	-7.70948
▁decompensatio	-7.71295
▁dood	-7.71516
▁pleuravocht	-7.72045
▁negatief	-7.72061
▁histologisch	-7.7255
▁uur	-7.73118
▁bleek	-7.73353
▁c	-7.73641
▁shock	-7.73666
▁overleed	-7.73774
▁coronair	-7.74022
c	-7.74068
▁reanimatie	-7.74923
▁zij	-7.75384
▁laesie	-7.75422
▁acuut	-7.75442
▁arteria	-7.76939
▁hij	-7.78141
▁oedeem	-7.78169
▁mamma	-7.78766
▁aanvulling	-7.79074
▁microscopie	-7.8028
▁aneurysma	-7.81298
▁intra	-7.81791
in	-7.81873
i	-7.82552
▁andere	-7.82686
▁conform	-7.82873
▁coronairscleros	-7.83019
▁respiratoire	-7.83185
▁overige	-7.83648
▁achterwand	-7.83715
▁ischaemie	-7.84007
▁over	-7.85114
▁bericht	-7.8597
▁aangetoond	-7.8651
▁dunne	-7.87267
▁pancreas	-7.89227
▁gewicht	-7.89551
▁groot	-7.90211
▁ontstaan	-7.90246
▁aanwezigheid	-7.90716
aanvulling	-7.90796
▁meerdere	-7.90918
▁kader	-7.91266
▁zich	-7.91825
▁beenmerg	-7.92032
▁multipele	-7.92204
▁hier	-7.92232
▁klein	-7.9263
▁alle	-7.92752
▁positief	-7.93019
▁maligne	-7.93304
p	-7.93464
▁dag	-7.93709
▁necrose	-7.94239
▁vermoedelijk	-7.94476
▁welke	-7.95028
▁opname	-7.95241
gewicht	-7.95336
▁ca	-7.98211
▁endometrium	-7.98716
▁toonden	-7.9882
▁zowel	-7.98996
▁resectie	-7.9914
▁verdenking	-8.00334
▁s	-8.01422
▁aspiratie	-8.01552
▁stenose	-8.02018
▁diffuse	-8.02325
▁lad	-8.02403
▁wegens	-8.02456
▁atypie	-8.02603
▁verruca	-8.02855
▁metaplasie	-8.03355
▁afwijking	-8.03823
le	-8.03947
▁zien	-8.04301
▁placenta	-8.04663
▁meest	-8.05062
▁geheel	-8.05435
▁combinatie	-8.05607
▁infectie	-8.05618
▁jarige	-8.06415
▁twee	-8.06952
▁graad	-8.07166
▁hyperplasie	-8.0748
▁lymfoom	-8.07673
▁veel	-8.08147
▁slijmvlies	-8.08238
▁gegeneraliseerd	-8.083
▁hierbij	-8.09188
▁onderkwab	-8.09349
▁had	-8.09462
▁foetus	-8.09568
▁longoedeem	-8.09597
biopten	-8.09863
▁kenmerken	-8.09999
▁al	-8.10062
▁naevocellularis	-8.10793
▁hetgeen	-8.1084
▁pro	-8.11043
ie	-8.11116
ische	-8.11525
▁bevestigd	-8.11606
▁sterke	-8.11702
zie	-8.11978
▁slecht	-8.12032
▁vaten	-8.12799
▁linkerventrikel	-8.13336
hypertrofie	-8.1369
▁peritonitis	-8.14676
l	-8.14719
▁eerder	-8.14735
▁uiteindelijk	-8.14829
▁ernstig	-8.14952
▁verklaard	-8.15364
▁geweest	-8.16173
▁chronisch	-8.16772
▁p	-8.17072
▁geleid	-8.17257
▁situ	-8.17308
▁beginnende	-8.17836
▁onvoldoende	-8.18259
▁duidelijk	-8.18296
▁reeds	-8.18928
▁vastgesteld	-8.19539
r	-8.19631
▁weinig	-8.19641
▁seborrhoica	-8.19695
▁gemetastaseerd	-8.20336
▁lijkt	-8.20475
▁pla	-8.20866
▁dilatatie	-8.21329
imale	-8.21692
▁om	-8.21827
▁schade	-8.21947
▁doorgemaakte	-8.2267
▁cellen	-8.22724
▁daarbij	-8.23028
▁gering	-8.23061
▁rug	-8.23348
▁ma	-8.23376
▁uitslag	-8.2347
▁tijdens	-8.23709
▁pathologie	-8.23833
▁waarna	-8.23955
▁uitgesloten	-8.24027
▁gevolgen	-8.2408
▁oesophagus	-8.24267
▁adenoom	-8.24477
▁ischemische	-8.25024
▁kon	-8.25033
▁iii	-8.25853
▁pa	-8.25961
▁morb	-8.25969
▁uitbreiding	-8.26022
▁re	-8.26131
▁pulmonale	-8.26159
▁ascites	-8.277
▁solide	-8.27788
▁weefsel	-8.28017
▁helicobacter	-8.28919
▁we	-8.29064
▁buik	-8.29091
▁cervi	-8.29527
▁derhalve	-8.29853
▁specifieke	-8.29964
▁blaas	-8.30182
▁postmortaal	-8.30187
▁behandeling	-8.30628
▁benigne	-8.30816
▁intestinale	-8.31076
▁betrof	-8.31105
h	-8.31143
▁uterus	-8.31466
▁circa	-8.31587
▁dermale	-8.31973
▁wand	-8.32508
▁hypo	-8.32703
geen	-8.32709
▁congenitale	-8.32805
▁boven	-8.3321
▁gebied	-8.33391
▁aspect	-8.33493
▁gedilateerd	-8.33873
▁neuropatholog	-8.34024
▁perforatie	-8.35483
▁n	-8.35941
▁duodenum	-8.36012
▁superficieel	-8.36175
▁zoals	-8.36203
▁hoogte	-8.36477
▁plaatselijk	-8.36727
▁u	-8.37187
▁verslag	-8.37204
▁schildklier	-8.37231
▁septum	-8.37682
▁m	-8.37965
▁thora	-8.38279
▁massale	-8.3835
▁atrofie	-8.38379
▁fors	-8.3901
▁litteken	-8.39024
▁ongeveer	-8.39239
▁evidente	-8.39486
▁poliep	-8.39633
▁bestaande	-8.39755
▁waarvan	-8.39864
▁hoog	-8.40042
insufficientie	-8.41063
▁verklaring	-8.41341
▁atherosclerot	-8.42603
▁deel	-8.42605
▁gelegen	-8.42994
▁rest	-8.43105
▁z	-8.43117
▁radicaal	-8.44262
o	-8.44307
▁cc	-8.44402
▁cyste	-8.44554
▁minder	-8.44596
▁hals	-8.44736
▁rond	-8.45054
▁copd	-8.45583
▁naast	-8.45734
▁hartfalen	-8.45839
▁micro	-8.45923
▁primaire	-8.46185
▁bovenkwab	-8.46282
▁tussen	-8.46317
on	-8.46439
▁diffuus	-8.4667
▁o	-8.46949
▁focus	-8.46961
▁langer	-8.47509
▁vocht	-8.48127
▁longembolieen	-8.48866
▁overwogen	-8.49142
▁galblaas	-8.49151
▁hypertrofisch	-8.49176
▁doorgankelijk	-8.49383
▁bijzonderheden	-8.49712
▁primair	-8.49749
er	-8.49894
▁gedacht	-8.50149
▁bloedingen	-8.51297
▁atypische	-8.51384
▁steatose	-8.51419
▁sigmoid	-8.51527
▁sinds	-8.51628
▁reikend	-8.51651
▁syndroom	-8.51875
▁wij	-8.52332
▁zal	-8.52899
▁veroorzaakt	-8.52935
▁licht	-8.53034
al	-8.53149
f	-8.53573
▁cardiomyopathie	-8.53809
▁verdacht	-8.54021
▁l	-8.54617
▁hiervan	-8.5468
▁*******,	-8.54962
▁consult	-8.54989
▁ontwikkelde	-8.55191
iii	-8.55501
▁verspreid	-8.55689
▁keratose	-8.56325
▁operatie	-8.56346
▁pylori	-8.5646
▁septische	-8.56606
▁pleura	-8.56643
▁diabetes	-8.57396
▁normale	-8.57538
▁punctie	-8.57795
▁sectie	-8.57803
▁abdominale	-8.57877
▁pre	-8.58136
links	-8.58433
▁proces	-8.58494
▁multi	-8.58909
▁cabg	-8.59124
▁delen	-8.59315
▁sclerose	-8.59777
▁drie	-8.59851
cel	-8.59936
▁aortaklep	-8.5997
▁falen	-8.60009
▁epitheel	-8.60198
▁tractus	-8.60358
▁coupes	-8.6093
▁ischaemische	-8.61474
▁ruptuur	-8.61519
▁carcinomatosa	-8.61535
▁voorwand	-8.61819
▁inwendig	-8.62129
k	-8.62146
▁alsmede	-8.62317
▁beleid	-8.6232
▁gecompliceerd	-8.62506
▁opgetreden	-8.62546
▁definitief	-8.62612
▁thrombus	-8.6312
▁samenvattend	-8.63196
▁vetweefsel	-8.63271
▁rectum	-8.63276
▁slechts	-8.63556
▁longembolie	-8.63733
▁week	-8.64142
▁ml	-8.64394
▁eerste	-8.64757
▁revisie	-8.64923
▁dissectie	-8.64974
▁gegevens	-8.64994
▁differentiaal	-8.65202
imaal	-8.65796
▁coronairarterie	-8.6589
▁elders	-8.66052
stoornissen	-8.66139
▁grootcellig	-8.66284
▁ascendens	-8.6637
▁v	-8.6661
▁pancreatitis	-8.66768
▁moet	-8.66801
▁aantoonbaar	-8.66986
▁kleuring	-8.6714
▁maanden	-8.67173
▁cardiaal	-8.67915
▁eveneens	-8.67938
▁component	-8.68009
▁gehele	-8.68041
▁hpv	-8.68379
▁arterie	-8.68481
▁to	-8.68793
▁vanwege	-8.6936
▁invasieve	-8.69896
▁actinisch	-8.69914
▁diagnostisch	-8.69924
▁laaggradige	-8.70292
▁nader	-8.70685
▁zijde	-8.713
▁kleincellig	-8.71668
▁onderbeen	-8.71912
▁distale	-8.7192
▁snijvlakken	-8.72089
▁papillair	-8.72112
▁volledig	-8.72165
▁secundair	-8.72169
▁vergroot	-8.72178
▁argumenten	-8.72187
▁colitis	-8.72194
▁haarden	-8.72309
▁granulocyten	-8.72327
▁interstitiele	-8.72384
▁abdominalis	-8.72613
▁melanoom	-8.72708
▁mutatie	-8.7298
biopt	-8.7305
▁ulcus	-8.7308
▁concluderend	-8.73121
▁emfyseem	-8.73134
▁infarcten	-8.73148
▁metastasering	-8.74179
▁ramus	-8.74542
coronairarterien	-8.75033
▁urine	-8.75651
tra	-8.75916
▁voorkeur	-8.75961
▁ondanks	-8.76043
▁liter	-8.76813
▁behouden	-8.76898
▁morfologisch	-8.77278
atie	-8.77309
▁analyse	-8.77379
▁descendens	-8.77437
▁toestemming	-8.7744
▁lichte	-8.77454
▁infiltrerend	-8.77502
▁causa	-8.77525
▁recidief	-8.77543
▁mellitus	-8.77747
▁afwijkend	-8.77781
wangerschapsduur	-8.78158
▁sprieterig	-8.78212
▁toename	-8.78372
▁afkomstig	-8.78499
▁uitgesproken	-8.78699
▁h	-8.78713
▁basale	-8.78856
▁lumen	-8.7899
▁terminale	-8.79006
▁dd	-8.79476
▁weke	-8.79632
diameter	-8.79673
wel	-8.79766
▁stent	-8.79935
▁marge	-8.79973
▁toch	-8.80023
▁urotheelcel	-8.80359
▁nummer	-8.80651
▁bekende	-8.8068
▁behandeld	-8.80786
▁beoordelen	-8.80939
▁vrijwel	-8.81013
▁tubulair	-8.81015
▁bijnieren	-8.81072
▁bilaterale	-8.81146
▁hersenobductie	-8.8147
▁voorlopige	-8.81508
▁hoeveelheid	-8.81724
▁vorm	-8.818
▁digestivus	-8.81807
▁immuunhistochem	-8.81993
▁corpus	-8.82007
▁uitwendig	-8.82274
▁diagnostiek	-8.82298
▁opvallend	-8.82305
▁afsluiting	-8.82352
▁her	-8.82392
▁mortis	-8.82421
▁gestuwd	-8.82578
▁wang	-8.82583
▁localisatie	-8.82876
▁plotseling	-8.83261
▁coronairen	-8.83358
ste	-8.83587
▁snijvlak	-8.83654
▁doch	-8.83884
▁iv	-8.84312
▁dyspnoe	-8.84654
▁samen	-8.8475
▁ct	-8.84912
▁ductaal	-8.85331
▁alveolaire	-8.85716
▁leeftijd	-8.85742
▁kort	-8.8575
▁ldh	-8.86066
▁eerdere	-8.86112
▁perineurale	-8.8623
▁best	-8.86779
ma	-8.86946
▁post	-8.87086
▁zekerheid	-8.87088
▁mammacarcinoom	-8.87159
tirpatie	-8.87448
▁rca	-8.87748
▁later	-8.88023
▁ziekte	-8.88481
▁arterien	-8.8855
▁centraal	-8.88737
met	-8.89088
▁snede	-8.89122
▁oppervlakkig	-8.89239
▁non	-8.89333
▁aanvullende	-8.89359
pre	-8.89479
▁minimale	-8.90168
▁blijkt	-8.90185
▁bijnier	-8.90395
▁positieve	-8.90613
▁necrotiserende	-8.91119
▁doorgroei	-8.91268
▁helder	-8.91399
▁schouwing	-8.91456
▁verhoogd	-8.91491
y	-8.91594
▁distaal	-8.91609
▁lateraal	-8.91732
▁zeker	-8.91799
▁pijn	-8.9199
▁enig	-8.91999
▁vena	-8.92039
▁temporaal	-8.92202
▁bovenstaande	-8.92328
▁gebieden	-8.927
▁nieuwe	-8.92775
▁pericard	-8.92929
▁resectievlak	-8.93286
▁waardoor	-8.93326
▁volgens	-8.93714
▁myocarditis	-8.93829
▁pulmonalis	-8.93844
▁mediastinum	-8.93917
▁samengestelde	-8.94145
ues	-8.9443
bij	-8.94722
▁para	-8.94911
▁zijwand	-8.95477
▁reikt	-8.95562
▁trachea	-8.95897
▁mannelijke	-8.95931
ing	-8.96027
▁darmen	-8.96084
▁daar	-8.96096
slijmvlies	-8.9643
▁buikholte	-8.96451
▁koorts	-8.96504
▁bovenbeen	-8.96703
rechts	-8.96749
▁bestond	-8.9724
▁oesofagus	-8.97243
ritmestoornissen	-8.98115
▁endocarditis	-8.98332
cm	-8.98441
▁opvallende	-8.98513
▁inklemming	-8.98576
▁anatomische	-8.98669
▁lichaamsobducti	-8.98673
▁pericarditis	-8.98837
▁aanwijzing	-8.9895
pneumonie	-8.99275
▁beschreven	-8.99665
▁eventuele	-8.9985
▁therapie	-8.99894
▁borst	-9
▁hierin	-9.00103
▁hiervoor	-9.00153
▁slechte	-9.00176
arterioloscleros	-9.00204
▁cerebellum	-9.00327
▁ileum	-9.0069
▁trombus	-9.00791
thora	-9.00888
cholecystectomie	-9.00909
▁klachten	-9.0097
▁rondom	-9.01026
▁specifiek	-9.01165
▁circumfl	-9.01341
neu	-9.01364
▁ulceratie	-9.0144
▁oudere	-9.01546
▁autolyse	-9.01624
▁schedelobductie	-9.01881
▁significante	-9.02066
op	-9.02237
▁cerebrale	-9.02353
▁purulente	-9.02562
▁neuro	-9.02955
▁voorhoofd	-9.02974
▁progressieve	-9.03243
▁kweken	-9.03504
▁totale	-9.03888
resectie	-9.04198
▁biopsie	-9.044
▁hoe	-9.04677
▁ruim	-9.04836
▁decompensatie	-9.04837
▁pathologisch	-9.04918
▁gemacereerde	-9.04937
▁abdomen	-9.05064
▁plaats	-9.0542
▁cd	-9.06183
▁invasief	-9.06429
▁vermeld	-9.06433
▁doorgemaakt	-9.06538
ca	-9.06586
▁dikke	-9.06658
▁veneuze	-9.06849
▁laterale	-9.06893
▁laatste	-9.07094
▁beloop	-9.0727
▁kweek	-9.07271
▁reactief	-9.07315
▁abstinerend	-9.07511
▁bodem	-9.07803
▁mate	-9.07916
▁longcarcinoom	-9.08121
▁ards	-9.08179
▁vaatlijden	-9.08257
▁iliaca	-9.08328
▁iets	-9.0888
▁vooral	-9.09324
uteriene	-9.09334
▁verse	-9.09614
▁vergrote	-9.09848
▁coronairlijden	-9.09911
▁frontaal	-9.10311
▁tenminste	-9.10379
▁jaren	-9.10908
▁ileus	-9.10929
▁resectievlakken	-9.1093
▁toto	-9.11312
▁overigens	-9.11729
▁zwaar	-9.11863
▁pt	-9.11936
▁maagslijmvlies	-9.11978
▁schouder	-9.11987
▁hematoom	-9.11991
▁cerebrum	-9.12022
▁vrouwelijke	-9.12422
▁totaal	-9.12446
▁adne	-9.12457
▁cva	-9.12459
▁antrum	-9.12472
▁obstructie	-9.12939
▁oppervlakkige	-9.1305
▁organiserende	-9.13082
invasieve	-9.13124
▁mede	-9.13324
▁proliferatie	-9.13478
▁ovarium	-9.13494
is	-9.1386
▁dermatitis	-9.13972
▁geven	-9.14196
▁overtuigende	-9.14559
eerd	-9.14712
▁bijgedragen	-9.1516
na	-9.15219
▁ritmestoornis	-9.15351
▁keratosis	-9.15779
▁bowen	-9.15822
▁chemotherapie	-9.16084
▁uitwendige	-9.16378
▁ontvangt	-9.16677
▁infiltratie	-9.16686
▁infarceringen	-9.16774
▁toestand	-9.16946
of	-9.17167
iv	-9.17218
preparaat	-9.17296
▁bijkomende	-9.17317
▁ik	-9.17786
▁vast	-9.17813
▁colonslijmvlies	-9.17887
▁inderdaad	-9.18001
st	-9.18026
wand	-9.18059
▁waar	-9.18082
▁occlusie	-9.18212
▁ver	-9.18321
▁tijd	-9.18381
▁coecum	-9.18431
materiaal	-9.18437
▁perifeer	-9.18461
z	-9.18763
▁diagnosen	-9.19227
▁algehele	-9.19343
▁beoordeling	-9.19468
▁score	-9.19721
▁overwegend	-9.19724
▁geduid	-9.19907
▁immunohistochem	-9.20248
▁reactie	-9.20309
▁voornamelijk	-9.20317
ue	-9.20455
▁verklaart	-9.20532
▁gleason	-9.20599
▁diverse	-9.20703
▁aanknopingspunt	-9.20708
▁eventueel	-9.20739
▁bespreking	-9.2078
▁intact	-9.2079
▁overleg	-9.20941
▁oksel	-9.20999
▁fi	-9.21015
▁nevenbevinding	-9.21119
▁moleculaire	-9.21188
▁postoperatief	-9.21285
▁neus	-9.21306
▁hoge	-9.21357
beeld	-9.21379
▁schedelsectie	-9.21477
▁abcederende	-9.21512
▁cytologisch	-9.21543
▁ingroei	-9.21692
▁kreeg	-9.21995
▁infiltraat	-9.22021
▁maagbiopten	-9.2225
▁onderarm	-9.22297
▁on	-9.22557
metastasen	-9.22653
▁st	-9.22768
▁hypertroof	-9.22817
▁haar	-9.22865
▁bloedverlies	-9.22874
▁overgang	-9.22876
▁thoracale	-9.23027
▁danwel	-9.23125
▁gecontraheerd	-9.23216
▁anterior	-9.23302
▁nodulaire	-9.23345
▁gegeven	-9.23456
▁toenemend	-9.2348
▁media	-9.23531
voor	-9.23662
▁vooralsnog	-9.23686
▁arteriosclerose	-9.23747
▁lengte	-9.23792
▁trivasculaire	-9.24074
▁diepe	-9.24287
▁separaat	-9.24318
▁peri	-9.24416
▁bevinding	-9.2443
cisiepreparaat	-9.24615
▁antibiotica	-9.24651
▁vanuit	-9.24747
▁amyloid	-9.24865
▁actinica	-9.24898
▁onderging	-9.25278
▁substraat	-9.25435
▁ontbreken	-9.25525
re	-9.25531
▁lichaam	-9.25715
▁haardvormige	-9.25741
▁ontstond	-9.25749
hyperplasie	-9.25762
▁dieper	-9.26063
▁vruchtdood	-9.26155
▁respiratoir	-9.26212
▁vasculitis	-9.26275
▁groeiwijze	-9.26317
▁li	-9.26363
▁haard	-9.26528
▁medisch	-9.26627
▁directe	-9.26677
▁beoordeelbaar	-9.26921
▁harttamponade	-9.27169
▁pleuritis	-9.27207
▁plaatsen	-9.27217
▁afdeling	-9.27237
▁littekenweefsel	-9.27536
▁parenchym	-9.27676
▁zichtbaar	-9.27703
▁circulatie	-9.27735
▁tumorcellen	-9.2786
▁superior	-9.28187
▁hoofd	-9.28193
naaldbiopten	-9.28284
▁snijranden	-9.28345
▁achter	-9.28393
▁vers	-9.28642
▁stolsels	-9.28719
▁ontvangen	-9.28763
tumor	-9.288
▁levercirrose	-9.28907
tal	-9.29043
▁ons	-9.29158
▁waarop	-9.29196
tern	-9.29321
▁trombo	-9.29551
▁transversum	-9.29689
▁achteruitgang	-9.30026
▁focale	-9.30116
▁septisch	-9.30244
▁beperkte	-9.30249
▁laat	-9.30361
▁mitralisklep	-9.30443
▁failure	-9.30495
het	-9.30711
organismen	-9.30761
▁gedilateerde	-9.30769
▁macroscopie	-9.30826
▁longstuwing	-9.30893
▁verleden	-9.31159
▁zekere	-9.31204
▁hemorragische	-9.31294
▁carcinoma	-9.31298
embolieen	-9.31315
▁prothese	-9.31483
▁hersenstam	-9.31586
▁oppervlak	-9.31612
▁maturatie	-9.31686
infarcering	-9.31736
invasie	-9.31757
▁appendectomie	-9.3188
▁wervelkolom	-9.31917
▁midden	-9.32324
▁thuis	-9.32407
▁nu	-9.32611
▁asystolie	-9.32686
▁kleuringen	-9.3274
▁origine	-9.32756
mw	-9.33115
▁zware	-9.33168
▁ad	-9.33266
▁bovenarm	-9.33337
▁gastritis	-9.33396
▁diafragma	-9.33451
bevindingen	-9.3348
▁prostaatbiopten	-9.33483
▁subendocardiale	-9.33533
▁thrombo	-9.33659
▁perifere	-9.33732
w	-9.33904
orgaanfalen	-9.33918
▁diverticulitis	-9.33972
▁per	-9.34571
▁longemfyseem	-9.34742
▁zagen	-9.34946
▁aantal	-9.34952
▁granulomen	-9.34988
▁vonden	-9.35088
gen	-9.35204
▁besloten	-9.3533
▁atrium	-9.35335
▁ductus	-9.35337
nt	-9.35373
▁bronchus	-9.35385
▁uren	-9.35524
▁dient	-9.35569
▁thrombi	-9.35663
pa	-9.35769
▁gestuwde	-9.35779
▁neutrofiele	-9.35789
▁enkel	-9.3593
deze	-9.36076
▁bypass	-9.36108
▁verminderde	-9.36129
▁afstand	-9.3617
▁open	-9.36249
▁sluiten	-9.36985
▁familie	-9.36992
▁hartinfarct	-9.37007
▁af	-9.37254
▁slap	-9.37322
▁stadium	-9.37354
ze	-9.37398
aanvullend	-9.37629
▁leverstuwing	-9.37671
▁zover	-9.37701
▁dus	-9.37704
▁geruptureerd	-9.37818
linker	-9.37982
▁hepatitis	-9.38065
▁datum	-9.38119
ook	-9.38342
▁ivm	-9.38366
▁gaarne	-9.38378
▁via	-9.38401
▁bekken	-9.38435
u	-9.38582
▁foci	-9.38612
▁lies	-9.38617
▁gekweekt	-9.38694
▁zwelling	-9.38829
▁eosinofiele	-9.38894
▁corte	-9.38933
▁been	-9.3906
▁melanocytaire	-9.39243
▁blanco	-9.3927
▁mesenterica	-9.39338
▁onderkwabben	-9.39482
▁shave	-9.39612
▁mediastinale	-9.39656
▁trombose	-9.3981
▁ontkleuring	-9.39862
▁witte	-9.3988
▁hyperplastische	-9.39881
sche	-9.40031
▁diep	-9.40117
▁rol	-9.40158
▁hyper	-9.40191
glomeruloscleros	-9.4031
ter	-9.40333
jaar	-9.40521
sinfiltraat	-9.40901
▁mucosa	-9.41074
▁grond	-9.41117
▁hooggradig	-9.41333
▁abces	-9.41506
▁hersensectie	-9.41563
▁lijden	-9.41866
▁vet	-9.42077
▁omentum	-9.42087
▁kliniek	-9.42197
▁middels	-9.42244
▁liet	-9.4272
▁tweede	-9.42739
▁necrotisch	-9.42806
rechter	-9.42928
▁ziekenhuis	-9.43195
▁ic	-9.43288
▁naaldbiopten	-9.43354
kleuring	-9.43526
▁carotis	-9.43592
▁macrofagen	-9.43892
▁darmischemie	-9.43919
▁thrombose	-9.44522
▁poliepectomie	-9.44577
▁coupe	-9.44799
▁gastro	-9.44848
▁cor	-9.45051
▁daarna	-9.45247
▁onbekend	-9.45251
▁zouden	-9.45466
▁moleculair	-9.45592
▁relatief	-9.45669
▁toegenomen	-9.46049
▁aanleiding	-9.46092
▁rechterlong	-9.46395
▁gevuld	-9.4657
status	-9.46701
▁graft	-9.46728
▁oedemateus	-9.46912
▁geschat	-9.46925
▁waargenomen	-9.47202
▁invasie	-9.47225
▁nierfunctie	-9.47416
▁opgegeven	-9.47447
▁fase	-9.47532
fibrilleren	-9.47623
▁celbeeld	-9.47766
▁hartspier	-9.48159
▁sub	-9.48208
▁snel	-9.48307
▁bevestigt	-9.48323
heid	-9.48648
▁postmortale	-9.4866
▁suggestief	-9.48663
▁klep	-9.48766
▁emfysemateuze	-9.48888
▁hodgkin	-9.48929
▁beperkt	-9.48963
▁ulcererende	-9.49037
▁gestart	-9.49116
▁laag	-9.49121
▁hemicolectomie	-9.49125
j	-9.49375
▁fragmenten	-9.49414
▁granulomateuze	-9.49459
▁hersenonderzoek	-9.49542
▁iuvd	-9.49624
rechterventrikel	-9.49725
▁huidbiopsie	-9.49885
▁levercirrhose	-9.49922
▁vier	-9.49925
mm	-9.50206
▁eczeem	-9.50259
▁indien	-9.50301
▁macroscopische	-9.50314
▁celrijk	-9.50344
▁cerebri	-9.50418
▁abdominaal	-9.50453
sch	-9.5046
▁ingreep	-9.50553
▁lichen	-9.50665
▁vanaf	-9.50782
▁appendi	-9.50821
li	-9.50927
▁zodat	-9.51071
▁slokdarm	-9.51076
▁uitgevoerd	-9.51302
▁bestaan	-9.5136
▁partiele	-9.51437
type	-9.51463
oom	-9.51498
▁doorsnede	-9.51736
laveiselepitheel	-9.51742
▁bed	-9.51757
▁traject	-9.51946
▁pyelonefritis	-9.51969
▁berusten	-9.51984
transplantatie	-9.5203
▁noch	-9.52237
▁instantie	-9.52586
▁lymfocytaire	-9.527
epitheliale	-9.52804
▁bronchitis	-9.52925
▁degeneratieve	-9.52932
an	-9.52955
▁kernen	-9.52958
ontstekingsbeeld	-9.53013
▁hartkamer	-9.53042
▁richting	-9.53043
▁alleen	-9.53078
▁procedure	-9.53214
▁bron	-9.53637
klinisch	-9.53649
▁afwezig	-9.53821
▁tur	-9.53848
▁bindweefsel	-9.53964
▁colonbiopten	-9.54024
▁direct	-9.54064
▁onderzocht	-9.54108
▁volgen	-9.54113
▁retour	-9.54128
▁systeem	-9.54138
toevalsbevinding	-9.54167
onderzoek	-9.54223
▁oedemateuze	-9.54248
▁egfr	-9.54439
▁onduidelijk	-9.54488
normaal	-9.54752
▁coloncarcinoom	-9.55075
▁maand	-9.55077
▁conditie	-9.5525
▁mesenterium	-9.55305
ar	-9.55528
▁eosinofilie	-9.55581
▁galwegen	-9.55596
▁respectievelijk	-9.55707
▁lichenoide	-9.56029
▁hypertrofische	-9.56125
▁epidermale	-9.56196
▁ouderdom	-9.56282
▁embolieen	-9.56459
▁littekens	-9.56577
▁oor	-9.56729
▁pr	-9.56767
▁splenitis	-9.56926
▁lymfocyten	-9.57009
▁dubbelzijdige	-9.57023
▁blijft	-9.57409
▁resten	-9.57442
▁multifocaal	-9.57632
▁folliculair	-9.57824
▁ureter	-9.57825
▁mitralis	-9.57862
▁geconstateerd	-9.58029
▁bepaling	-9.58083
▁candida	-9.58218
▁betreffende	-9.58372
▁veranderd	-9.58477
retroperitoneaal	-9.5853
weefsel	-9.58531
▁diverticulose	-9.58641
▁coeur	-9.58743
▁hierover	-9.58795
▁tumorweefsel	-9.58891
▁opnieuw	-9.58933
▁virale	-9.58933
at	-9.58955
nummer	-9.5897
▁subendocardiaal	-9.59105
▁degeneratie	-9.59224
▁geboren	-9.59341
▁haardjes	-9.59393
gecompromitteerd	-9.59532
▁rand	-9.59716
▁huisarts	-9.59911
▁braken	-9.60041
▁peritoneum	-9.60097
to	-9.603
▁net	-9.60544
▁arterio	-9.60586
▁cholelithiasis	-9.6063
necrose	-9.60636
▁val	-9.60652
▁plots	-9.60792
▁gebruik	-9.6092
▁lymfangitis	-9.60923
▁gedaan	-9.60987
▁superficiele	-9.61057
nevenbevindingen	-9.61122
▁contact	-9.61315
▁pancreaskop	-9.61318
▁haemorrhagische	-9.61418
triumfibrilleren	-9.61493
▁dysplastische	-9.61679
lokalisatie	-9.61764
▁bloederig	-9.61833
uterien	-9.61925
▁radiotherapie	-9.62095
infarct	-9.62138
▁pathologische	-9.62172
▁bifurcatie	-9.62219
ten	-9.6247
▁slijm	-9.62483
▁doorbraak	-9.6259
▁talrijke	-9.62737
▁dermatofibroom	-9.62822
▁defect	-9.62845
▁verslechtering	-9.62867
▁onwel	-9.62892
▁vernauwing	-9.62901
veranderingen	-9.631
▁voornaam	-9.63129
▁ventrikels	-9.63134
▁verschillende	-9.63305
▁auto	-9.63314
▁bacteriele	-9.63318
▁buikpijn	-9.63471
▁hippocampus	-9.63602
▁gespeeld	-9.63653
▁betekenis	-9.63785
cellymfoom	-9.63841
▁anastomose	-9.64
▁navelstreng	-9.64137
▁systemische	-9.64285
▁uitgaande	-9.64477
▁kras	-9.64577
▁afgenomen	-9.64711
▁ze	-9.64856
▁tamponade	-9.65172
▁linkerlong	-9.652
▁tegen	-9.65255
▁aureus	-9.65326
▁dementie	-9.65379
▁duiden	-9.65469
cin	-9.65812
▁dorsaal	-9.66033
▁alzheimer	-9.66073
▁lipoom	-9.66138
▁duodenumbiopten	-9.66374
istente	-9.66443
▁meningitis	-9.66499
▁splenomegalie	-9.66559
▁mediale	-9.66605
gediagnosticeerd	-9.66724
▁ander	-9.66813
▁stroma	-9.66868
▁ingezet	-9.66984
▁vlokatrofie	-9.66996
▁oestrogeen	-9.67048
▁bot	-9.67054
▁barrett	-9.67082
▁angio	-9.67124
▁drietaks	-9.67712
▁moment	-9.67714
▁buikwand	-9.67763
▁tubulusnecrose	-9.67855
▁communis	-9.67952
ad	-9.68079
▁secundaire	-9.68319
▁naadlekkage	-9.68328
▁cysten	-9.68336
▁trombi	-9.68378
▁stof	-9.68384
▁truncus	-9.68503
▁vervolgens	-9.68514
▁*******:	-9.6854
▁portale	-9.68721
▁pleuraholte	-9.68751
▁vaso	-9.68781
▁beschouwd	-9.69199
▁regio	-9.69267
uit	-9.69447
▁flank	-9.69563
▁onderwand	-9.69763
▁schimmels	-9.69851
▁zelf	-9.6986
▁cholecystitis	-9.70033
▁achtergrond	-9.70135
▁the	-9.70184
tumorlokalisatie	-9.70232
▁nr	-9.70435
▁nodus	-9.7047
▁coli	-9.70488
▁fibro	-9.7079
▁recidiverende	-9.70846
▁samengevat	-9.70877
▁onderliggende	-9.70916
▁bestaand	-9.70926
▁geval	-9.71019
▁atelectase	-9.71026
▁binnen	-9.71043
▁leukemie	-9.71057
▁beschadiging	-9.71167
▁infiltratiev	-9.71218
▁voorlopig	-9.71287
▁terminaal	-9.7137
▁geplaatst	-9.71729
▁gestaakt	-9.71729
▁haemorrhagisch	-9.71737
▁subtotale	-9.71872
▁arrest	-9.71884
holte	-9.72024
conclusie	-9.72097
istent	-9.72098
▁mediaal	-9.72102
▁gereanimeerd	-9.72157
▁malaise	-9.72157
▁ontstoken	-9.7234
▁maceratie	-9.72444
▁dermis	-9.72682
▁mogelijkheid	-9.7276
▁classificeren	-9.72843
graad	-9.72877
▁lokaal	-9.72878
▁uw	-9.73033
▁ulcera	-9.73145
▁invasiediepte	-9.73188
diagnosen	-9.73322
▁bloedvaten	-9.7336
▁cirrhose	-9.73395
lever	-9.73419
▁vriescoupe	-9.73522
ur	-9.73796
▁r	-9.73853
▁hierna	-9.73948
▁leverfalen	-9.74067
▁interna	-9.74352
▁infectieuze	-9.74458
▁coronairvaten	-9.74494
▁pacemaker	-9.74558
▁tumoren	-9.74651
uameuze	-9.74768
▁gewichten	-9.7478
▁lage	-9.74854
▁organisatie	-9.74961
▁hypotensie	-9.74981
▁gehad	-9.75062
aal	-9.75088
lo	-9.75196
▁vele	-9.75228
▁pipelle	-9.75234
▁verlies	-9.75294
▁aspergillus	-9.75307
▁occipitaal	-9.75358
▁casus	-9.75445
▁low	-9.75463
▁icterus	-9.75499
▁pons	-9.75723
afwijkingen	-9.75802
▁maagantrum	-9.75811
▁ruiterembolus	-9.76108
▁waaronder	-9.76127
uor	-9.76242
▁ischemisch	-9.76346
▁kleppen	-9.76529
▁krap	-9.76594
▁fistel	-9.76649
▁amenorroeduur	-9.76821
▁massaal	-9.76829
ul	-9.76841
▁risico	-9.76928
▁aortaklepstenos	-9.76933
▁adipeuze	-9.76997
▁anemie	-9.77148
▁braf	-9.7719
▁wisselende	-9.77329
▁concordant	-9.7741
▁ging	-9.77411
▁uitspraak	-9.77459
▁posterior	-9.7754
▁volledige	-9.77663
▁kwam	-9.77723
▁vi	-9.77733
▁classificatie	-9.77761
▁ventrikelwand	-9.77975
▁huidstukje	-9.78058
▁spierweefsel	-9.78211
▁thoracaal	-9.78232
▁zo	-9.78295
▁basaal	-9.78563
▁evident	-9.78581
um	-9.78794
▁alcohol	-9.78795
▁cardiac	-9.78813
▁laaggradig	-9.78892
achterwand	-9.79208
▁pus	-9.79213
▁wijzen	-9.79259
▁pas	-9.79303
▁lymfeklier	-9.79431
▁voldoende	-9.79431
▁tgv	-9.79432
▁gerelateerd	-9.79571
▁fibrineuze	-9.79705
▁concentrische	-9.79782
▁centrale	-9.79805
▁blijken	-9.79821
▁amyloidose	-9.79898
▁bleken	-9.79953
▁problematiek	-9.80135
▁aspecifieke	-9.8028
▁gepaard	-9.80359
▁vragen	-9.80514
▁vasculaire	-9.80518
▁transmurale	-9.80564
▁komen	-9.80659
itis	-9.80662
parenchymateuze	-9.8067
gr	-9.80878
▁hulp	-9.81295
▁gen	-9.81333
or	-9.81341
ri	-9.8138
▁langdurige	-9.81395
▁choledochus	-9.81428
▁vliezen	-9.81596
▁onderbuik	-9.81771
▁parietaal	-9.81883
▁echo	-9.81931
longen	-9.81958
▁origo	-9.82083
dat	-9.82123
▁teken	-9.82245
▁bovenbuik	-9.82323
metastase	-9.82428
▁grotendeels	-9.82524
▁perivasculaire	-9.8275
▁calcificaties	-9.82757
▁level	-9.82821
▁resectieranden	-9.83015
▁f	-9.83081
▁sneevlak	-9.83196
cc	-9.83209
▁intreden	-9.83358
pressie	-9.83364
cellen	-9.83391
▁aankleuring	-9.83598
hart	-9.83609
▁vitaal	-9.83643
▁plasmacellen	-9.83677
▁complicaties	-9.83716
▁preparaat	-9.83849
▁hypovolemische	-9.84185
▁cava	-9.84401
▁presenteerde	-9.84486
den	-9.84537
▁circulair	-9.84584
▁cardiogene	-9.84601
▁verkregen	-9.84637
▁coronaria	-9.84836
cisiebiopt	-9.84848
meer	-9.84898
▁aangezien	-9.84901
▁bloedingsfocus	-9.8497
▁struma	-9.84997
▁levermetastasen	-9.85125
▁vlak	-9.85147
el	-9.85164
▁differentiatie	-9.85299
mogelijk	-9.85473
▁mesothelioom	-9.85511
▁relatie	-9.85588
▁moeilijk	-9.85608
▁ape	-9.85622
▁evenmin	-9.85623
gebied	-9.85666
▁mutaties	-9.8567
pt	-9.85712
ig	-9.85726
gediagnostiseerd	-9.85787
ro	-9.85896
▁k	-9.85901
▁necrotische	-9.85923
▁transmuraal	-9.85951
▁panel	-9.85961
▁infiltraten	-9.85981
▁aangegeven	-9.85994
▁stolling	-9.86144
▁etiologie	-9.86217
▁hemangioom	-9.8628
▁bacterien	-9.86363
▁gesteld	-9.86384
▁mohs	-9.86664
▁daarin	-9.87042
▁vorming	-9.87199
▁disease	-9.87366
hpv	-9.87377
vorming	-9.87394
▁gevolgd	-9.8749
▁kleinere	-9.87628
▁verkalkingen	-9.87706
▁vraagstelling	-9.87775
▁subarachnoidale	-9.87776
▁cerebellaire	-9.87792
▁bleke	-9.87918
▁arm	-9.87971
▁vaat	-9.88
aortaal	-9.88068
▁geopereerd	-9.88111
rest	-9.88146
▁leiomyoom	-9.88179
▁laparotomie	-9.88257
▁foetale	-9.88279
▁gelokaliseerd	-9.88325
▁trauma	-9.88357
▁hemisfeer	-9.88447
▁tuba	-9.8855
it	-9.88596
▁progressief	-9.88604
▁pulmonaal	-9.88672
▁retroperitoneal	-9.88746
pathologie	-9.88844
▁pericardvocht	-9.89128
▁neurologische	-9.89208
▁stenoserende	-9.89242
▁hooguit	-9.89265
▁komt	-9.89293
▁ontwikkeld	-9.89344
ic	-9.89489
▁middenkwab	-9.89736
▁laesies	-9.89815
▁gaat	-9.8984
▁geassocieerd	-9.89899
niercelcarcinoom	-9.89927
▁dna	-9.89962
▁besproken	-9.90072
▁hepato	-9.90179
▁verklevingen	-9.90217
▁bestaat	-9.90326
▁appendicitis	-9.90405
▁oorzaken	-9.9049
▁benen	-9.90515
▁endocervicale	-9.90603
▁langs	-9.90649
▁verlittekening	-9.90676
▁maten	-9.90694
sis	-9.90698
▁zwangerschap	-9.90743
▁gezichtspunten	-9.90834
▁ostium	-9.90863
pcl	-9.90909
risico	-9.90913
▁uitbreidend	-9.9102
▁hierdoor	-9.91025
▁representatief	-9.91035
▁belangrijk	-9.91094
▁inferior	-9.91121
▁pigment	-9.91161
▁tumorproces	-9.91213
▁voet	-9.91302
▁microbiologisch	-9.91308
▁muscularis	-9.91353
▁verbloeding	-9.91364
▁druk	-9.91402
▁basocellulair	-9.91527
▁cmv	-9.916
▁laryn	-9.9164
▁genen	-9.91694
▁overlijdt	-9.91881
▁lobulair	-9.91887
▁maaginhoud	-9.92065
tische	-9.92215
▁aanvankelijk	-9.92224
▁aangelegd	-9.92238
▁evenals	-9.92303
▁buiten	-9.92489
ver	-9.92518
▁longweefsel	-9.92525
▁grootste	-9.92552
▁heup	-9.92566
▁duodeni	-9.92573
▁bovendien	-9.92582
▁metastatisch	-9.92661
▁cysteuze	-9.92721
▁cardiovasculair	-9.92755
▁fibrine	-9.92784
eren	-9.92971
▁haematoom	-9.93019
▁ovaria	-9.9319
ardiorespiratoir	-9.93535
▁sereus	-9.93581
▁ok	-9.93627
orgaan	-9.93846
▁aanduiding	-9.93861
▁hersen	-9.9395
▁stolsel	-9.94071
▁epitheliale	-9.94098
▁lekkage	-9.94109
▁algemene	-9.94168
▁aldaar	-9.94528
▁omdat	-9.94556
tweetal	-9.94563
▁w	-9.94688
▁negatieve	-9.94717
▁gelaat	-9.9475
▁dcis	-9.94901
▁hand	-9.94951
▁beoordeeld	-9.94998
▁cystitis	-9.95071
▁takken	-9.95076
▁oog	-9.95315
ch	-9.95364
▁uitgenomen	-9.95433
▁care	-9.95538
▁kahler	-9.95582
▁vetnecrose	-9.95617
▁plaveiselcellig	-9.95623
▁opnemen	-9.95712
▁fibroserende	-9.95721
▁collaps	-9.95732
▁slaap	-9.95753
▁knie	-9.95803
▁bijvoorbeeld	-9.95869
▁anteroseptaal	-9.95891
▁ribfracturen	-9.95891
▁naad	-9.96022
▁obv	-9.96193
▁nefrectomie	-9.96216
▁rc	-9.96224
bloeding	-9.96274
▁lis	-9.96369
▁bijna	-9.96429
▁sinus	-9.966
rug	-9.96697
▁propria	-9.96697
▁naaldbiopt	-9.96757
▁lymfeklieren	-9.96858
▁kapsel	-9.96881
▁seh	-9.96906
▁aannemelijk	-9.97064
▁afgesloten	-9.97065
▁lymfadenopathie	-9.97248
▁bevond	-9.97297
▁urosepsis	-9.97432
▁longparenchym	-9.97476
▁nek	-9.97586
▁prognose	-9.97616
▁pinpoint	-9.97655
▁medicatie	-9.97698
▁macro	-9.977
▁onverwacht	-9.97813
▁cho	-9.9783
ta	-9.97844
▁beenmergbiopt	-9.97909
▁rectosigmoid	-9.9812
▁sarcoidose	-9.98294
▁ontwikkeling	-9.9844
▁juist	-9.98452
▁regressie	-9.98523
▁stenosering	-9.98637
▁adipositas	-9.98838
▁hemorragisch	-9.98862
▁nabij	-9.98876
▁vinden	-9.9893
▁arteriele	-9.98967
▁glomeruli	-9.98985
▁periode	-9.99092
▁grotere	-9.99129
ct	-9.9916
▁hydro	-9.99276
▁ventraal	-9.99441
her	-9.99458
th	-9.99461
▁cin	-9.99525
▁gaan	-9.99809
▁output	-9.99958
▁cholestase	-10.0005
▁alcoholabusus	-10.0005
▁plaatsing	-10.0035
revisie	-10.0054
▁teruggevonden	-10.0062
▁bedraagt	-10.0074
▁bevindt	-10.0081
▁bilateraal	-10.0081
▁pyelum	-10.0094
▁niveau	-10.0107
▁lentigo	-10.0107
▁stress	-10.011
▁circulatoire	-10.0116
▁kunt	-10.0119
▁verslechterde	-10.0125
▁hierop	-10.0148
▁pathogene	-10.0167
am	-10.0179
om	-10.0179
▁fibrosering	-10.0191
as	-10.0193
▁beslag	-10.0195
▁ruimte	-10.0224
▁anus	-10.0225
▁onderliggend	-10.0227
▁hooggradige	-10.0228
▁trad	-10.0281
▁aard	-10.0286
▁effect	-10.0286
▁ibd	-10.0293
▁folliculitis	-10.0301
ectomie	-10.0306
▁epidermis	-10.0309
▁inhoud	-10.0322
receptor	-10.0322
▁diarree	-10.0332
▁nauwelijks	-10.0332
▁bdz	-10.0332
▁actief	-10.0351
▁immuun	-10.0357
▁et	-10.0363
▁wond	-10.0384
▁longembolien	-10.0392
▁chirurgisch	-10.0394
▁insufficient	-10.0396
▁leverde	-10.0406
▁laten	-10.0408
▁intensive	-10.042
▁informatie	-10.0428
▁adhesies	-10.0428
▁troebel	-10.043
▁zullen	-10.043
ring	-10.0437
▁hb	-10.0449
▁trivasculair	-10.0455
epitheel	-10.0463
▁centrum	-10.0492
▁omgevend	-10.0496
▁afsluitende	-10.0497
kleincellig	-10.05
▁cirrose	-10.0526
▁massa	-10.0527
▁metabole	-10.0549
▁wisselend	-10.056
▁dunnedarm	-10.0561
▁ongewijzigd	-10.057
▁co	-10.0579
operatie	-10.0587
▁papilloom	-10.0592
▁minimaal	-10.0593
▁interne	-10.0604
▁uteri	-10.0604
▁stoma	-10.061
▁pcr	-10.0613
▁compleet	-10.063
▁coronairsysteem	-10.0631
▁beginnend	-10.0643
je	-10.0648
▁beademing	-10.065
▁stroomgebied	-10.065
▁dominant	-10.065
▁randen	-10.0651
▁zone	-10.0651
▁ambulance	-10.067
▁longbeeld	-10.0671
▁corticale	-10.0693
▁profiel	-10.0694
sverschijnselen	-10.07
niet	-10.0718
maligniteit	-10.0719
▁nigra	-10.073
▁vijf	-10.0735
▁micronodulaire	-10.0741
▁bloedstolsels	-10.0758
dometriumpoliep	-10.0763
▁structuren	-10.077
▁achteruit	-10.0772
il	-10.0773
▁staat	-10.0775
▁stenosen	-10.0781
▁nb	-10.0782
▁nierfalen	-10.0814
▁and	-10.0821
sub	-10.0821
▁hoofdstam	-10.0845
▁staphylococcus	-10.0868
sclerose	-10.087
▁volgde	-10.0874
▁uitsluitend	-10.0874
▁fibreuze	-10.0882
uameus	-10.0895
▁verzoek	-10.0895
ende	-10.0895
▁weer	-10.0895
microscopisch	-10.0907
▁bulleus	-10.0914
▁atypisch	-10.0915
huidbiopt	-10.0917
▁lymfocytose	-10.093
▁geeft	-10.0933
▁subcutis	-10.094
▁gedurende	-10.0942
▁drain	-10.0943
▁lumpectomie	-10.0949
▁consistentie	-10.0957
▁classificerend	-10.0962
▁enigszins	-10.0978
iteit	-10.0978
gie	-10.0979
▁optreden	-10.0981
▁aandoening	-10.0983
▁j	-10.0996
▁fraai	-10.1006
▁serosa	-10.102
urineweginfectie	-10.1024
▁milde	-10.1026
▁persisterende	-10.1033
▁vernauwd	-10.104
▁verkleefd	-10.104
▁tezamen	-10.1041
▁tubulovilleus	-10.1042
▁instabiele	-10.1047
stwaarschijnlijk	-10.1051
▁secretariaat	-10.1061
▁crohn	-10.1073
▁dr	-10.1075
▁lumina	-10.1078
▁tumorvrij	-10.1079
▁huidstansbiopt	-10.1092
▁functie	-10.1099
▁hydronefrose	-10.1125
▁leek	-10.1125
▁out	-10.1128
lecystolithiasis	-10.1135
▁klier	-10.1143
▁hernia	-10.1145
▁renalis	-10.1146
▁urineblaas	-10.1147
▁lymfoide	-10.1149
▁verkleuring	-10.1156
ag	-10.116
▁longafwijkingen	-10.116
▁soms	-10.1167
▁mucineus	-10.1172
▁curettage	-10.118
▁openen	-10.1189
▁daarvan	-10.119
▁ischaemisch	-10.1192
▁palliatief	-10.1211
▁diepte	-10.1213
▁stellen	-10.1231
lijmvliesbiopten	-10.1231
▁erosieve	-10.1232
decompensatie	-10.1233
▁ontstekingsrest	-10.1245
▁lokalisaties	-10.1247
▁gecombineerd	-10.1266
▁fish	-10.1273
setting	-10.1275
▁volgende	-10.1276
▁situatie	-10.1285
vi	-10.1292
▁geboorte	-10.1295
▁hepatocellulair	-10.1296
▁afwezigheid	-10.1297
scan	-10.1298
▁jejunum	-10.1301
▁sigmoidresectie	-10.1301
▁melaena	-10.1303
▁deposities	-10.1306
▁varices	-10.1309
▁radicaliteit	-10.1311
van	-10.1326
▁grafts	-10.1329
reactie	-10.1334
▁minuten	-10.1339
▁waaraan	-10.1339
ir	-10.1358
▁hierboven	-10.1362
▁intravasa	-10.1364
▁verloop	-10.1376
▁maken	-10.1393
hmh	-10.1404
▁activiteit	-10.1411
▁thoracalis	-10.1425
▁lokale	-10.1426
▁longfibrose	-10.1431
▁nadere	-10.1431
▁multipel	-10.144
▁cache	-10.1446
ol	-10.1446
▁patroon	-10.1448
mo	-10.145
terna	-10.1471
▁cachectische	-10.1484
▁verandering	-10.1484
▁gemaakt	-10.1486
▁celarm	-10.1491
sreactie	-10.1493
▁fibreus	-10.15
▁omgeving	-10.1513
prothese	-10.152
▁fractuur	-10.1527
klepvervanging	-10.1527
▁aanleggen	-10.1536
▁bijbehorend	-10.1557
▁onbekende	-10.156
▁spier	-10.1568
▁multiple	-10.1572
aortale	-10.1573
▁dikte	-10.1573
▁fibrotische	-10.158
▁maagcorpus	-10.1582
▁dank	-10.1592
▁mid	-10.1602
▁neuropathologie	-10.1602
ale	-10.161
▁kenmerkend	-10.163
▁gesuperponeerd	-10.1635
ng	-10.1635
▁hiermee	-10.1639
▁vulgaris	-10.1646
▁aftakkingen	-10.1663
ritmestoornis	-10.1675
▁variant	-10.168
▁neusrug	-10.1682
▁lastig	-10.1691
▁lijken	-10.1692
▁neuronen	-10.171
▁aantoonbare	-10.1713
▁chirurgie	-10.1714
▁telefonisch	-10.1716
▁intracerebrale	-10.1719
▁node	-10.1725
▁infectieus	-10.173
intestinale	-10.1741
ia	-10.1749
▁bleef	-10.1781
▁lewy	-10.1791
▁verwerkt	-10.1814
▁hilus	-10.1825
▁spongiotische	-10.1827
▁alk	-10.1829
▁blokje	-10.1833
▁atrofisch	-10.1839
▁compressie	-10.1841
▁gecollabeerd	-10.1849
▁myeloide	-10.1872
▁schors	-10.1894
▁astma	-10.1894
splenomegalie	-10.1899
▁duidend	-10.1902
▁hele	-10.1907
▁gevallen	-10.1908
infectie	-10.1916
end	-10.1921
▁lymfangio	-10.1932
▁darmlissen	-10.194
▁darmslijmvlies	-10.1949
▁hepatomegalie	-10.1952
▁musculus	-10.1957
▁hiernaast	-10.1964
onder	-10.1969
▁medulla	-10.1973
immuunhistochemi	-10.1977
▁nefropathie	-10.1979
▁neuropatholoog	-10.1979
▁uiting	-10.1981
▁herkenbaar	-10.1986
▁verkalking	-10.1999
▁papillairspier	-10.2003
jw	-10.2007
co	-10.2016
rt	-10.2019
▁leven	-10.2032
▁patholoog	-10.2035
gesteronreceptor	-10.2037
▁heldercellig	-10.2047
▁grensvlak	-10.2056
▁porta	-10.2056
▁hieraan	-10.2058
▁bronchi	-10.2067
▁huidshave	-10.2071
score	-10.2075
▁fle	-10.2075
ura	-10.2075
▁zes	-10.2085
▁complicatie	-10.2093
▁giardia	-10.2102
▁afwijkende	-10.2103
▁luchtwegen	-10.2105
▁scheur	-10.2107
▁holte	-10.2118
▁aanvrager	-10.2126
biopsie	-10.2134
▁comple	-10.2143
▁huidstans	-10.2146
▁feit	-10.2149
▁cardio	-10.2154
▁arteriolosclero	-10.2162
endocriene	-10.2162
▁leverfunctie	-10.2169
▁staken	-10.2173
no	-10.2175
negatief	-10.2178
▁rode	-10.2178
long	-10.218
flu	-10.2202
▁succesvol	-10.2216
▁cerebraal	-10.222
▁vitale	-10.2222
▁men	-10.2232
▁inclusief	-10.2241
▁compact	-10.2249
amputatie	-10.2267
illa	-10.2286
▁derden	-10.2296
▁respons	-10.2321
▁graag	-10.233
▁klasse	-10.2331
▁immuno	-10.2331
jes	-10.2334
▁snelle	-10.2341
▁lang	-10.2354
▁mitraalklep	-10.2357
▁bevat	-10.236
▁cel	-10.2362
▁verbetering	-10.2362
voorwand	-10.2366
▁geel	-10.2376
▁mesenteriale	-10.2386
pro	-10.2393
▁operatiegebied	-10.2394
▁orgaan	-10.2408
▁noemenswaardig	-10.241
▁pseudomonas	-10.2421
▁hospital	-10.2429
auriculair	-10.2432
▁ruggenmerg	-10.2434
▁craniaal	-10.2438
▁subcutaan	-10.2449
▁nefrosclerose	-10.2459
▁wellicht	-10.246
▁morfologische	-10.2465
▁alhier	-10.2484
positieve	-10.2489
▁flow	-10.2504
id	-10.2522
▁genetisch	-10.2524
lab	-10.2524
▁papmilt	-10.2527
▁coeliacus	-10.2531
▁ecg	-10.2532
mutatie	-10.2539
▁kruin	-10.2548
coli	-10.2551
hyperkeratotisch	-10.2556
ide	-10.2562
▁genomen	-10.2564
▁leverparenchym	-10.2566
▁bijbevinding	-10.2574
▁aanleg	-10.2577
▁morfologie	-10.2577
▁beeldvorming	-10.2578
▁wervel	-10.2585
▁typisch	-10.2585
▁januari	-10.259
▁maart	-10.2594
▁structurele	-10.2605
▁geleden	-10.2605
▁gedecompenseerd	-10.2611
skenmerken	-10.2617
▁lv	-10.262
▁tel	-10.2625
ergens	-10.2634
consult	-10.2641
▁toegestaan	-10.2654
▁verhoornend	-10.2665
▁punctaat	-10.2666
▁interstitieel	-10.2667
▁schimmel	-10.2669
▁brein	-10.2683
▁correlatie	-10.2686
hodgkin	-10.2693
▁langdurig	-10.2693
▁vond	-10.2696
▁steatosis	-10.2703
▁gliose	-10.2703
▁naden	-10.2708
emie	-10.2716
▁aml	-10.2717
▁geruptureerde	-10.2718
▁opruimreactie	-10.2728
▁hyperkeratose	-10.2728
▁stenen	-10.2732
proliferatie	-10.2733
▁ade	-10.2738
▁purulent	-10.2739
▁verwijd	-10.2752
▁geslacht	-10.2758
▁ulcererend	-10.276
▁onderzochte	-10.2764
▁dicht	-10.277
▁intradermale	-10.2778
▁buikklachten	-10.278
▁gekend	-10.278
tr	-10.2784
▁beste	-10.2786
lijk	-10.2797
▁epicard	-10.2798
▁restlumen	-10.2804
▁poliepen	-10.2806
▁longemboli	-10.2816
supraclaviculair	-10.2829
▁aankomst	-10.2832
▁kond	-10.2839
▁reden	-10.284
▁anti	-10.2841
▁tau	-10.2843
▁lab	-10.2847
ap	-10.2851
▁dermaal	-10.2851
▁intracraniel	-10.2855
▁thalamus	-10.2862
▁leverhilus	-10.2868
chorioamnionitis	-10.2879
▁ondergaan	-10.2907
immuun	-10.2916
▁granuloma	-10.2924
zijdigheid	-10.2928
▁neurologisch	-10.293
▁dehydratie	-10.2937
▁kg	-10.2946
▁receptor	-10.2958
▁embolus	-10.296
▁fragment	-10.2962
acerbatie	-10.2979
▁lucht	-10.2984
▁bevatten	-10.3002
▁schedel	-10.3003
ranulatieweefsel	-10.3007
▁vertakkingen	-10.3011
▁dissociatie	-10.3031
▁inspectie	-10.3031
▁ascitesvocht	-10.3032
▁hemodynamische	-10.3051
▁antibiotisch	-10.3056
▁overwegingen	-10.3066
▁segment	-10.3066
▁bil	-10.3069
▁stam	-10.3086
▁hersenoedeem	-10.3108
▁sprieterige	-10.311
▁tepel	-10.3115
coronairlijden	-10.3118
▁overgeplaatst	-10.3134
▁overeen	-10.3153
▁globale	-10.316
▁ouder	-10.3172
▁redelijk	-10.3186
▁acuta	-10.3212
▁epilepsie	-10.3212
tranodale	-10.3212
▁neoplasie	-10.3214
coupes	-10.3224
punctie	-10.3233
waarschijnlijk	-10.3236
▁geirriteerde	-10.324
▁herstel	-10.324
▁architectuur	-10.3244
▁thymus	-10.3249
▁enterococcus	-10.3264
▁multinodulair	-10.3265
specifieke	-10.3268
▁steatohepatitis	-10.329
▁plaatsgevonden	-10.329
▁literatuur	-10.329
▁terug	-10.3314
▁coeliakie	-10.3317
▁laboratorium	-10.3319
▁problemen	-10.3321
▁th	-10.3329
over	-10.3331
▁onderlip	-10.3338
cbd	-10.3343
▁doorsnijdingen	-10.3344
▁ingenomen	-10.3365
uentie	-10.3382
▁diabetische	-10.3385
ra	-10.3399
stenose	-10.3403
▁helft	-10.3405
▁letsel	-10.3409
▁spoedeisende	-10.3422
▁ulcerosa	-10.3422
▁fibroadenoom	-10.3423
poliep	-10.3425
▁heb	-10.3426
▁cll	-10.3427
▁hartfunctie	-10.3433
▁inflammatoire	-10.3438
▁resultaat	-10.3443
ehalve	-10.3449
▁diverticulosis	-10.3454
rh	-10.3465
▁aa	-10.3467
▁overvulling	-10.3468
▁sinistra	-10.3476
ktegeschiedenis	-10.3486
▁staan	-10.349
▁spreidend	-10.3503
▁retroperitoneum	-10.3503
os	-10.3503
▁hemodynamisch	-10.3508
▁instabiel	-10.3516
diagnose	-10.3539
▁darmwand	-10.3546
▁adenomateuze	-10.3549
▁betreffen	-10.3555
▁suspect	-10.3557
▁opgestuurd	-10.3562
▁klieren	-10.3569
▁myometrium	-10.3574
▁caudaal	-10.3592
▁path	-10.3597
uitslag	-10.361
▁hartstilstand	-10.362
▁papil	-10.3623
▁stansbiopt	-10.3625
stoornis	-10.3635
▁amplificatie	-10.3635
▁verzocht	-10.3638
▁antistolling	-10.3647
▁station	-10.365
▁handrug	-10.3652
▁parotis	-10.3658
▁lymfo	-10.3659
▁creutzfeldt	-10.367
▁bevestiging	-10.3673
▁huidbiopten	-10.3677
▁neusvleugel	-10.3684
▁vegetaties	-10.3698
▁nee	-10.3698
▁kuit	-10.3724
▁geperforeerd	-10.3724
▁embolie	-10.3737
▁rood	-10.3744
▁planus	-10.3747
▁cardiomyocyten	-10.3749
▁wijst	-10.3754
▁ribben	-10.3759
▁sentinel	-10.3761
▁plaveisel	-10.3762
▁nefritis	-10.3771
▁myocardischemie	-10.3778
▁middel	-10.3783
▁achterhalen	-10.3803
voedingstoestand	-10.3803
▁mammaweefsel	-10.3812
▁parkinson	-10.3822
▁valt	-10.3824
▁anatomisch	-10.3828
onwaarschijnlijk	-10.3858
▁aanspreekbaar	-10.3863
dit	-10.3869
▁longkwabben	-10.3887
▁hoofdbronchus	-10.3888
▁wenkbrauw	-10.389
▁diam	-10.3894
▁arts	-10.3901
▁verval	-10.3907
▁shocknieren	-10.3907
▁willis	-10.3914
▁postoperatieve	-10.3914
▁rib	-10.3917
regio	-10.3921
▁circulaire	-10.3923
▁beelden	-10.3934
▁lobectomie	-10.3943
▁divertikel	-10.395
▁dorsale	-10.3952
up	-10.3963
▁subduraal	-10.397
nb	-10.398
▁belangrijke	-10.3984
▁cholangitis	-10.3998
▁trans	-10.3998
uate	-10.3999
▁pericardholte	-10.4001
huide	-10.4003
▁samenhangend	-10.4004
effect	-10.4004
▁uiteinden	-10.4004
▁bloedinkjes	-10.4009
▁min	-10.4015
▁atherosclerosis	-10.4017
lad	-10.4021
▁oblongata	-10.4026
▁ernst	-10.4039
▁vagina	-10.4054
▁denken	-10.4061
▁aortadissectie	-10.4062
▁voorkomen	-10.4066
▁slijmvormend	-10.4083
▁subcutane	-10.4092
embolie	-10.4101
maal	-10.4101
▁zogenaamd	-10.411
▁mei	-10.4116
▁wijzend	-10.4116
▁complete	-10.4117
▁correleren	-10.4121
sepsis	-10.4133
oid	-10.4135
▁hepatis	-10.4135
▁palliatie	-10.4138
▁tak	-10.4139
embolus	-10.4149
▁rechtszijdig	-10.4149
▁lange	-10.4151
▁galstenen	-10.4169
▁evenwel	-10.4169
▁amputatie	-10.4173
▁infiltratief	-10.4176
▁verkalkte	-10.4188
▁sarcoom	-10.4191
▁gedeelte	-10.4197
ak	-10.4202
▁ttf	-10.4205
▁basilaris	-10.4215
▁romp	-10.4219
▁ngs	-10.4221
▁discrete	-10.4226
▁pneumothor	-10.423
▁kind	-10.4232
▁gefragmenteerd	-10.4247
▁april	-10.4254
▁levercelverval	-10.4255
▁zondermeer	-10.426
▁verminderd	-10.4265
▁nagenoeg	-10.4267
fragmenten	-10.4271
po	-10.4273
ontsteking	-10.4275
▁histologie	-10.4282
▁haardje	-10.4284
▁bepaald	-10.4292
▁hr	-10.4294
▁huidresectie	-10.4302
▁cavum	-10.4313
taks	-10.4315
mi	-10.4328
▁ligt	-10.4343
▁ingesloten	-10.436
▁grootte	-10.4364
▁petechien	-10.4386
▁betrekking	-10.4401
▁tpv	-10.441
▁urotheel	-10.4411
▁infect	-10.4418
▁posteroseptaal	-10.4421
▁immature	-10.443
endocrien	-10.4435
*	-10.4439
▁afmeting	-10.4443
▁behaard	-10.4475
▁uiteinde	-10.4476
▁oesofagitis	-10.4492
▁achterste	-10.4495
▁testis	-10.4497
▁forward	-10.4505
▁ureteren	-10.4522
▁dezelfde	-10.4524
dikte	-10.4524
▁ooghoek	-10.4534
▁hemorrhagische	-10.4539
cl	-10.4552
rand	-10.4556
▁pols	-10.4559
anat	-10.4572
▁vaak	-10.4579
▁influ	-10.458
▁merg	-10.459
▁rectumcarcinoom	-10.4592
▁levert	-10.4592
▁lumbaal	-10.4595
▁sternum	-10.4604
▁substantia	-10.4609
▁partus	-10.4611
para	-10.4625
▁lichtmicroscop	-10.4633
verantwoordelijk	-10.4639
▁maakt	-10.464
ano	-10.4642
antrum	-10.4642
▁darmperforatie	-10.4643
▁acidose	-10.4658
▁beschouwen	-10.4669
▁cysteus	-10.4672
▁thv	-10.4688
ken	-10.4696
▁lienalis	-10.4699
▁darmischaemie	-10.4701
resectievlak	-10.4715
▁infaust	-10.4729
helft	-10.473
analyse	-10.4741
▁derde	-10.4741
▁februari	-10.4745
▁bovengenoemde	-10.4757
erende	-10.4761
▁kwabben	-10.4765
▁pleuraholten	-10.4774
▁maagresectie	-10.4778
abdominale	-10.478
dr	-10.4781
▁berust	-10.4782
▁ap	-10.4788
▁posterolateraal	-10.479
▁zijdigheid	-10.4792
lijn	-10.4794
▁rechternier	-10.4795
ren	-10.4817
helaas	-10.4821
▁luchthoudend	-10.4833
▁anaplastisch	-10.4851
▁hepatica	-10.4851
▁voorwandinfarct	-10.4859
aat	-10.4864
▁destructie	-10.4865
▁instabiliteit	-10.4868
▁korte	-10.4869
▁simple	-10.4882
▁endocervicaal	-10.4882
▁wie	-10.4889
▁bewustzijn	-10.4902
voorlopig	-10.4908
▁bevestigen	-10.4913
▁verwijding	-10.4923
▁sneevlakken	-10.4933
▁agonale	-10.4934
▁eindstadium	-10.4935
multiorgaanfalen	-10.4935
▁virus	-10.4939
▁geobjectiveerd	-10.4944
▁hersenbloeding	-10.4952
▁vaatwand	-10.4954
erwijl	-10.4954
▁cardia	-10.4961
positief	-10.4962
▁vulva	-10.4965
mortaal	-10.4972
▁gleasonscore	-10.4976
▁vaatjes	-10.4977
▁pleurale	-10.4979
kweek	-10.498
filtratiediepte	-10.4996
▁fatty	-10.4999
▁toe	-10.5022
hypertensieve	-10.5023
▁abcessen	-10.5034
maag	-10.5036
▁angiopathie	-10.5037
▁variatie	-10.5037
▁frontale	-10.5037
▁verdikte	-10.5049
▁lobaire	-10.5049
▁ruimten	-10.5051
acanthoom	-10.5069
▁obesitas	-10.5069
▁progressie	-10.5074
tjes	-10.5082
▁backward	-10.5085
▁zin	-10.5097
▁plak	-10.5099
hals	-10.5105
▁stemband	-10.5106
▁psoriasis	-10.5109
▁angina	-10.5109
▁pseudo	-10.5117
▁doorsneden	-10.5119
▁patia	-10.5127
▁blasten	-10.513
syndroom	-10.5131
▁streaks	-10.5132
▁ontstane	-10.5132
▁vol	-10.5138
▁verweking	-10.5155
ut	-10.516
▁stuwingsbeeld	-10.5164
▁hersenarterien	-10.5164
▁tumorload	-10.5166
▁hyperplastisch	-10.5166
▁oesophagitis	-10.5171
▁resterende	-10.5177
▁subclavia	-10.519
▁subacute	-10.5196
▁slijmvliesbiopt	-10.5203
ovariumcarcinoom	-10.5204
▁kin	-10.522
▁geperforeerde	-10.5222
▁locatie	-10.5224
▁hadden	-10.5233
▁verwekker	-10.5234
circa	-10.5236
▁factor	-10.5238
rs	-10.5242
gebruik	-10.525
▁transplantatie	-10.5251
▁uitval	-10.5258
▁hydrocephalus	-10.5259
▁metaplastisch	-10.5259
incontinentie	-10.526
▁alcoholische	-10.526
▁with	-10.526
▁harthypertrofie	-10.5282
▁intern	-10.5285
▁dialyse	-10.5291
nier	-10.5292
▁atrofische	-10.5292
▁aortaboog	-10.5299
▁consultatie	-10.5302
un	-10.531
deels	-10.5318
▁dysmorfe	-10.5323
▁los	-10.5336
cyt	-10.5343
curettage	-10.5352
▁volume	-10.5359
▁oorschelp	-10.5365
▁myelo	-10.5373
▁papperig	-10.5382
omtrent	-10.5384
la	-10.5386
▁onderscheid	-10.5389
▁posterieur	-10.5392
▁dubieus	-10.5395
ly	-10.5398
▁tubulus	-10.5399
▁groep	-10.5408
eeds	-10.5408
▁top	-10.5418
▁parietalis	-10.542
▁relevante	-10.5422
▁cell	-10.5428
▁lima	-10.5429
▁december	-10.5436
▁breslow	-10.5441
▁mediaan	-10.5442
▁aantasting	-10.5444
▁abusus	-10.5446
▁voorste	-10.5448
▁hypoplasie	-10.545
▁behulp	-10.5453
▁faecale	-10.5453
ti	-10.5453
▁longlijden	-10.5459
▁atria	-10.546
▁detrusor	-10.5466
rechteronderkwab	-10.5474
broekprothese	-10.5475
▁juni	-10.5478
▁supra	-10.548
klierdissectie	-10.5482
▁editie	-10.5486
▁hematopoese	-10.5486
▁positiviteit	-10.5487
▁mesenteriaal	-10.5496
prostaat	-10.5502
▁cristabiopt	-10.5507
▁hypofyse	-10.5515
▁gelocaliseerd	-10.5518
▁interpretatie	-10.5518
▁simpele	-10.5518
▁belang	-10.5518
▁onderrug	-10.5521
▁urethra	-10.5531
▁keratine	-10.5534
▁verwijde	-10.5537
blaas	-10.5537
huid	-10.5545
▁maagperforatie	-10.5556
▁mc	-10.5561
▁my	-10.5563
▁vervetting	-10.5567
▁scapula	-10.5568
procedure	-10.5569
pr	-10.557
▁gerelateerde	-10.5582
▁myeloom	-10.5585
immunohistochemi	-10.5597
▁maagcarcinoom	-10.5598
▁peritoneale	-10.5598
▁mediastinaal	-10.5606
▁verdikt	-10.5607
cs	-10.5608
tnm	-10.5613
▁setting	-10.5615
▁bestraling	-10.562
istomorfologisch	-10.5621
▁resp	-10.5634
▁conte	-10.5634
▁radiologisch	-10.5635
▁typering	-10.5638
adenocarcinoom	-10.5639
minder	-10.5641
▁begin	-10.565
▁hartdood	-10.5651
▁maligna	-10.5651
▁bradycardie	-10.5651
▁der	-10.5654
▁seniele	-10.5661
▁divertikels	-10.5671
▁collega	-10.5684
▁tenslotte	-10.5684
▁speekselklier	-10.5689
pl	-10.5694
▁gaande	-10.5695
▁november	-10.5697
icatie	-10.5704
▁cholangio	-10.5704
▁verschijnselen	-10.571
▁bovenlip	-10.5717
▁erfelijke	-10.572
myocardischaemie	-10.5725
coronairarterie	-10.5728
▁broncho	-10.5731
▁vasculopathie	-10.5732
▁oktober	-10.5734
▁waarme	-10.5736
▁vraag	-10.5738
alveolaire	-10.5742
▁restant	-10.5744
▁toen	-10.575
stv	-10.5758
▁botbiopt	-10.5761
▁magere	-10.5763
enkele	-10.5783
▁afgezien	-10.5785
▁vermoeden	-10.5793
▁prominente	-10.5802
▁whipple	-10.5803
▁femoralis	-10.5807
dilatatie	-10.5817
differentiatie	-10.5818
▁pneumoniae	-10.5824
▁augustus	-10.5835
sactiviteit	-10.5837
▁opzichte	-10.5854
▁histopatholog	-10.5855
▁jonge	-10.5865
▁intima	-10.5877
▁psoas	-10.5883
▁sclerosus	-10.5886
▁amenorrhoeduur	-10.5886
▁misselijkheid	-10.5886
▁stoornissen	-10.589
cisies	-10.5902
tie	-10.5913
▁perivasculair	-10.5914
▁lymfogene	-10.5921
▁membranen	-10.5922
ac	-10.5936
▁drainage	-10.5941
▁juli	-10.5943
verschuiving	-10.5955
▁lichaamssectie	-10.5955
▁doen	-10.5959
▁bloedkweek	-10.596
dd	-10.5961
▁vlekkig	-10.5961
paraneoplastisch	-10.5964
▁corpustype	-10.5964
oesofagusbiopten	-10.5984
angio	-10.5984
▁ieder	-10.5991
▁perfusie	-10.5997
▁tumorhaarden	-10.6008
betrouwbare	-10.6024
▁oorsprong	-10.6024
▁ritme	-10.6027
tumorlocalisatie	-10.6029
door	-10.6037
▁georganiseerde	-10.6041
▁gal	-10.606
▁beta	-10.606
▁enzymkleuring	-10.6062
▁mechanische	-10.6064
▁ptca	-10.6064
▁kleur	-10.608
▁leverbiopt	-10.6082
▁pectoris	-10.6088
▁kern	-10.6089
▁organ	-10.6089
▁sp	-10.6095
▁hartkleppen	-10.6098
abdominaal	-10.61
▁translocatie	-10.6104
ci	-10.6109
▁mond	-10.6111
oide	-10.6112
▁pin	-10.6118
▁encefalopathie	-10.6124
▁fre	-10.6126
▁nucle	-10.6127
▁ck	-10.6127
▁herkend	-10.6128
▁glandulaire	-10.6128
▁stents	-10.613
▁uitrijping	-10.6149
▁micronodulair	-10.6157
▁mammareductie	-10.6163
▁gisten	-10.6173
▁retro	-10.6182
▁nacht	-10.619
marge	-10.6191
ui	-10.6209
▁trisomie	-10.6212
schimmelinfectie	-10.6218
ni	-10.6221
operatief	-10.6224
▁bijnierschors	-10.6233
▁geadviseerd	-10.6233
test	-10.6233
▁con	-10.6238
▁aortawand	-10.624
▁alho	-10.6243
ph	-10.6245
▁who	-10.6247
▁prostaatweefsel	-10.6249
▁ple	-10.6251
▁hematomen	-10.6269
▁controle	-10.6271
▁progesteron	-10.6272
aan	-10.6272
▁vater	-10.6272
▁endo	-10.6282
▁overtuigend	-10.6283
▁rechterzijde	-10.6285
▁ebv	-10.6286
▁kerato	-10.6292
▁vulling	-10.6304
▁multifocale	-10.6309
▁dm	-10.6313
▁ablatio	-10.6324
▁av	-10.6327
oud	-10.633
▁granulerende	-10.6349
beensamputatie	-10.6355
▁elkaar	-10.6357
▁wervels	-10.6365
▁klebsiella	-10.6366
▁spoed	-10.6372
▁gaaf	-10.6375
▁anaemie	-10.6375
▁pretibiaal	-10.638
▁papillomatosus	-10.6383
▁vlekkerig	-10.6385
▁tumorpositief	-10.6388
pen	-10.6393
erend	-10.6395
micro	-10.6438
▁bloederige	-10.6444
ml	-10.6444
▁vergroeid	-10.6447
verruceuze	-10.6447
cideerd	-10.6447
▁dame	-10.6449
▁geneesmiddelen	-10.6453
▁lc	-10.6461
▁empyeem	-10.6463
▁linkernier	-10.6475
▁venen	-10.6483
▁pijnklachten	-10.6484
▁myocardiale	-10.6504
▁windingen	-10.6511
▁geinfecteerde	-10.6517
▁groeirestrictie	-10.6519
▁pulpa	-10.6519
▁granulocytair	-10.6519
▁gastropathie	-10.652
ose	-10.6523
▁depositie	-10.6527
▁gebarsten	-10.6531
▁random	-10.6538
▁lymfoid	-10.6552
jarig	-10.6556
▁stollings	-10.6557
▁tong	-10.6559
▁afname	-10.656
▁chromosomale	-10.6567
klachten	-10.6572
▁carcinoid	-10.6576
▁overweging	-10.6591
▁zorg	-10.6593
▁bovenste	-10.6608
▁ulceraties	-10.6609
▁endocervi	-10.6614
▁tubuli	-10.6629
▁encephalopathie	-10.6631
len	-10.6645
nieren	-10.6656
▁submucosa	-10.666
▁algemeen	-10.6665
▁rejectie	-10.6665
▁fasciitis	-10.6666
▁doet	-10.6666
▁lieten	-10.6676
acute	-10.6686
▁betrouwbaar	-10.6702
▁bovenkwabben	-10.6703
king	-10.6709
▁ondersteuning	-10.6719
pi	-10.6721
▁tia	-10.6733
▁vene	-10.6736
boven	-10.6746
▁longvaten	-10.6746
▁alles	-10.675
▁factoren	-10.6755
▁streptococcus	-10.6756
▁tp	-10.676
men	-10.6771
▁behoeve	-10.6777
diagnostisch	-10.6781
▁cervicale	-10.6781
▁resttumor	-10.6783
di	-10.6787
tro	-10.6787
▁leidend	-10.6792
peri	-10.6802
▁hemato	-10.6807
▁transformatie	-10.6807
▁tumoreus	-10.6811
▁minste	-10.6813
▁intubatie	-10.6814
▁visceralis	-10.6814
▁woog	-10.6814
hodgkinlymfoom	-10.6817
lateraal	-10.683
▁bijschildklier	-10.6836
adenoom	-10.6837
▁leiomyomen	-10.6851
▁eigenlijk	-10.6852
fibrose	-10.6855
gleason	-10.6857
ck	-10.6868
▁allen	-10.6889
▁cirkel	-10.6889
▁hypertrofe	-10.6889
▁darmpakket	-10.6891
▁verkleving	-10.6892
▁ros	-10.6894
rb	-10.6904
milt	-10.6908
val	-10.6915
▁solitaire	-10.6919
▁epi	-10.6923
▁hydrops	-10.6927
▁nierarterien	-10.6934
uitsluitend	-10.6936
sigmoid	-10.6936
ruptuur	-10.6937
aspiratie	-10.6946
▁inter	-10.6947
ho	-10.6947
ik	-10.6952
▁aangevraagd	-10.6965
▁stentplaatsing	-10.6965
gelet	-10.6969
parenchym	-10.6969
▁maagbloeding	-10.6977
▁lymfocytair	-10.6978
▁linkerzijde	-10.6979
▁compatibel	-10.698
▁pan	-10.698
▁cardiopulmonale	-10.7003
▁uitsluiting	-10.7004
vermoedelijk	-10.7016
rechterbovenkwab	-10.7018
▁spontaan	-10.7018
▁reuscellen	-10.7044
▁aangenomen	-10.7046
af	-10.7046
▁gevoerd	-10.7047
▁glad	-10.7047
▁bovenkwadrant	-10.7053
▁eind	-10.7053
acte	-10.7055
definitief	-10.7056
osis	-10.7057
deel	-10.7058
▁autolytisch	-10.7063
▁kamer	-10.7077
so	-10.7087
▁flr	-10.709
alis	-10.7092
▁wig	-10.7103
gezien	-10.7112
ventrikelsysteem	-10.7113
▁eenduidig	-10.7118
achtige	-10.712
▁dergelijke	-10.7134
▁ingehecht	-10.7156
▁staven	-10.7156
▁relaparotomie	-10.7157
▁sclerotisch	-10.7178
▁regionale	-10.718
▁kleiner	-10.7182
▁pap	-10.7184
▁herseninfarct	-10.719
▁mo	-10.7193
cochleaat	-10.7195
▁verkleurd	-10.7195
▁dissecans	-10.7195
▁biologisch	-10.7195
travasatie	-10.7195
▁vat	-10.7204
▁verdikking	-10.721
▁bruin	-10.723
▁herpes	-10.7234
▁fatale	-10.7234
▁colectomie	-10.7234
ast	-10.7235
▁doorlopend	-10.7242
▁iga	-10.7244
perforatie	-10.7248
▁circulatoir	-10.7261
ps	-10.7265
embolien	-10.7272
▁emfysemateus	-10.7273
▁renum	-10.7273
▁pancreasstaart	-10.7273
▁digitus	-10.7274
▁longbloeding	-10.7279
▁erosie	-10.728
passend	-10.7282
▁ochtend	-10.7287
dissectie	-10.7292
▁stamcel	-10.7293
▁intacte	-10.7295
veneuze	-10.7298
▁bcl	-10.731
▁sluit	-10.7311
▁bemoeilijkt	-10.7312
▁meerkernige	-10.7312
▁hypoperfusie	-10.7313
▁gezwollen	-10.7328
▁gewenst	-10.7331
▁lok	-10.7334
▁overwegen	-10.7334
lomerulonefritis	-10.7335
▁heli	-10.734
▁mannelijk	-10.7346
▁refractair	-10.7348
▁neuspunt	-10.7351
▁succes	-10.7351
▁velden	-10.7355
▁aneurysmatische	-10.7363
▁tweemaal	-10.7364
uur	-10.7368
▁ac	-10.7374
▁hilaire	-10.7379
▁buismaag	-10.7391
▁tumormassa	-10.7393
▁longtumor	-10.7411
▁congestie	-10.742
▁implantatie	-10.7421
▁prednison	-10.7424
carcinoma	-10.7426
▁hypercellulair	-10.7431
▁bowenoide	-10.7432
entree	-10.7432
pla	-10.7455
▁blaaswand	-10.7459
moleculair	-10.7464
▁bulbus	-10.7465
▁vii	-10.7469
▁tien	-10.747
▁atheromateuze	-10.7471
▁erytrocyten	-10.7471
tremiteiten	-10.7471
▁veranderde	-10.7486
▁klierbuizen	-10.7493
▁richardson	-10.7504
▁onderooglid	-10.7505
▁sporadisch	-10.7507
▁stukje	-10.7508
icologisch	-10.7511
▁aortastenose	-10.7525
▁bloom	-10.7526
tri	-10.7528
▁pylorus	-10.7544
totaal	-10.7546
▁clark	-10.7549
▁ijzerstapeling	-10.755
▁fibrotisch	-10.7552
▁curettement	-10.7552
haarden	-10.7556
onderwandinfarct	-10.7564
tje	-10.7569
sc	-10.7572
io	-10.7588
classificatie	-10.7588
▁mocht	-10.7591
component	-10.7591
▁crista	-10.7596
▁nras	-10.7597
▁ulceratieve	-10.7599
▁genoemde	-10.761
▁myelodysplast	-10.7614
▁september	-10.7614
▁echogeleid	-10.7614
▁bronchien	-10.7615
▁kwab	-10.762
▁hp	-10.7621
curettement	-10.7622
▁verwijdering	-10.7622
cholesterolemie	-10.7632
tt	-10.7633
hr	-10.7634
▁icterische	-10.7634
br	-10.7636
ering	-10.7663
▁ont	-10.7669
tramedullair	-10.7674
▁beter	-10.7675
▁gemarkeerde	-10.7684
▁igg	-10.7685
▁no	-10.7696
▁geindiceerd	-10.7713
▁heel	-10.7714
▁locus	-10.7715
▁hypotensief	-10.7718
▁ziektebeeld	-10.772
▁neuroendocrien	-10.7725
▁nieuw	-10.7726
▁cave	-10.7728
▁bacteriemie	-10.773
varices	-10.7738
der	-10.7742
▁myomatosus	-10.7754
anaal	-10.7754
▁aangedaan	-10.7755
▁elleboog	-10.7763
▁groeit	-10.7768
circumferentiele	-10.7771
▁scheenbeen	-10.7777
▁collabeerde	-10.7795
▁gewichtsverlies	-10.7795
cyste	-10.7801
▁alveoli	-10.7805
▁orgaanfalen	-10.7823
▁capillair	-10.7832
▁bijkomend	-10.7835
▁elektro	-10.7836
▁resulterend	-10.7836
▁adenocarcinoma	-10.7837
▁marginal	-10.7837
cd	-10.7837
aantal	-10.7844
▁thrombotische	-10.7868
▁idiopathische	-10.7872
▁hoeverre	-10.7878
▁matuur	-10.7878
ocaal	-10.7902
▁arterietakken	-10.7911
▁gepigmenteerde	-10.7913
▁ruime	-10.7916
▁wederom	-10.792
▁scherp	-10.792
▁pericentrale	-10.792
gram	-10.7932
conform	-10.7933
ment	-10.7935
▁obductieverslag	-10.7938
▁pleiomorf	-10.7943
ling	-10.7947
▁situs	-10.7949
▁ontstekings	-10.795
proliferatieve	-10.7951
ging	-10.7958
▁verweekt	-10.7961
▁radicale	-10.7961
▁poliepje	-10.7962
▁mogelijkheden	-10.7962
▁overhecht	-10.7975
▁verkalkt	-10.7976
min	-10.7989
▁tbc	-10.7989
zijde	-10.7991
▁lymfatische	-10.7991
alwaar	-10.7992
▁cholesterol	-10.8
▁ret	-10.8003
aritmogene	-10.8003
▁onderbenen	-10.8003
▁samenvatting	-10.8003
▁hemorrhagisch	-10.8005
▁brca	-10.8006
▁calcificatie	-10.8011
▁art	-10.8013
▁daling	-10.8014
emboli	-10.8019
▁vervanging	-10.8022
▁fulminante	-10.8023
▁stoornis	-10.8044
▁kalk	-10.8046
▁arterioscleroti	-10.805
▁bovenrug	-10.8056
▁blaasslijmvlies	-10.806
▁brush	-10.806
▁inclusies	-10.8063
▁glandula	-10.8082
▁ventrale	-10.8082
lymfklier	-10.8082
▁poly	-10.8082
▁asfy	-10.8086
▁artritis	-10.8088
▁gedeeltelijk	-10.8088
▁kraakbeen	-10.81
illair	-10.8106
▁recentere	-10.811
colon	-10.811
▁overig	-10.8113
einde	-10.8121
▁aspecifiek	-10.8124
sp	-10.8124
▁duur	-10.8128
▁tuberculose	-10.8131
▁fibroom	-10.8131
samen	-10.8132
achtig	-10.8134
▁schouderblad	-10.8134
▁bypasses	-10.8139
mechanische	-10.8141
▁vermeldt	-10.8144
▁autolytische	-10.8148
fi	-10.8165
▁onderste	-10.8171
geproportioneerd	-10.8173
▁msi	-10.8177
▁os	-10.818
kin	-10.8182
▁rok	-10.8187
diam	-10.8191
punctaat	-10.8191
▁donker	-10.8192
systeem	-10.8194
adne	-10.8198
▁reanimeren	-10.82
▁buikaorta	-10.8218
▁hersenweefsel	-10.8218
▁vaatafwijkingen	-10.8219
▁urinewegen	-10.822
▁thrombusvorming	-10.8221
minstens	-10.8223
metastasering	-10.8224
▁adenomen	-10.8239
▁pars	-10.8242
baar	-10.8247
ria	-10.8249
for	-10.8255
lymf	-10.8256
▁striatum	-10.8259
▁nodularis	-10.8259
▁at	-10.8262
▁alfa	-10.8263
▁verzwaard	-10.8264
▁vroeger	-10.8269
▁longembolus	-10.8273
▁anders	-10.8278
who	-10.8286
▁maagwand	-10.8287
versus	-10.8295
▁betrokken	-10.8302
▁gekregen	-10.8303
▁geoccludeerd	-10.8303
▁buitenzijde	-10.8303
▁leiden	-10.8303
▁vroege	-10.8304
▁thrombosering	-10.8305
▁inzichten	-10.8306
▁doorsnijden	-10.8306
▁littekenvorming	-10.8308
plastiek	-10.8314
▁contractieband	-10.8321
sgraad	-10.8322
oa	-10.8345
▁inzage	-10.8346
▁specificiteit	-10.8346
▁icd	-10.8348
papillairspieren	-10.8374
▁scalp	-10.8376
cor	-10.8377
man	-10.8387
si	-10.8392
▁plotse	-10.8393
▁zijsnijvlak	-10.8394
▁osteoporose	-10.8398
▁leverkwab	-10.8401
mede	-10.8403
▁intestinaal	-10.8405
▁necrotiserend	-10.8416
lis	-10.8418
▁gekomen	-10.8427
▁kappa	-10.8427
sn	-10.8428
▁subpleuraal	-10.8434
erbb	-10.8441
daling	-10.8458
aa	-10.8467
▁ductale	-10.8471
ventrikelfunctie	-10.8472
▁lumbale	-10.8477
▁krapst	-10.8478
▁blaascarcinoom	-10.8485
▁tr	-10.8499
oor	-10.8513
▁emboli	-10.8514
▁pneumosepsis	-10.8522
▁verwikkelingen	-10.8527
▁ijzer	-10.8528
▁jakob	-10.8544
▁voetlengte	-10.855
▁endocard	-10.8566
▁noodzakelijk	-10.8566
▁labium	-10.8567
▁lymfogeen	-10.857
▁serosale	-10.8574
▁adhaesies	-10.8578
tur	-10.8578
▁clostridium	-10.8579
lymfoom	-10.8584
aortaklepprothes	-10.8585
▁mee	-10.859
▁beschadigde	-10.8594
erd	-10.8595
innemend	-10.8606
▁episode	-10.8611
▁symmetrisch	-10.8611
▁meningeoom	-10.8611
▁omliggend	-10.8612
▁bloedkweken	-10.8615
▁spontane	-10.8623
ab	-10.8628
▁gea	-10.8642
patroon	-10.8642
▁linkszijdig	-10.8642
▁vormen	-10.8647
▁stase	-10.8649
cysteuze	-10.8655
con	-10.8655
▁normocellulair	-10.8656
md	-10.8659
pd	-10.8664
▁raakte	-10.8669
snijvlak	-10.867
▁dis	-10.8673
▁hyaliene	-10.8675
beschadiging	-10.8687
▁bethesda	-10.8689
corpus	-10.8697
▁ja	-10.87
▁onzeker	-10.87
occipitaal	-10.87
▁enerzijds	-10.8701
▁collumfractuur	-10.8701
▁schimmeldraden	-10.8701
nen	-10.8702
▁oorspronkelijke	-10.8704
stuwing	-10.8707
▁gist	-10.8711
▁paar	-10.872
▁dys	-10.8721
▁clavicula	-10.8724
per	-10.8726
▁gevormd	-10.8731
▁subcapsulair	-10.8731
oma	-10.8738
▁embolien	-10.8745
▁mi	-10.8747
▁gee	-10.8748
▁tubulo	-10.875
▁ileusbeeld	-10.8752
▁beschadigd	-10.8755
▁microbiologie	-10.877
cho	-10.8777
im	-10.8778
lijden	-10.8782
▁geraakt	-10.8792
▁thyreoiditis	-10.8792
▁hypoplastisch	-10.8792
▁daarmee	-10.8792
moleculaire	-10.8793
▁abcesvorming	-10.8794
uren	-10.8815
▁avond	-10.882
▁hartoor	-10.8825
▁nierbiopt	-10.8834
scomponent	-10.8834
▁mevrouw	-10.8837
▁sessiel	-10.8837
▁bewijs	-10.8837
▁geinfarceerd	-10.8846
▁septaal	-10.8847
dysplasie	-10.8848
euze	-10.8852
▁associatie	-10.8857
▁lag	-10.8862
cal	-10.8864
▁nasi	-10.8865
ua	-10.8868
▁reeks	-10.8869
▁compensatoire	-10.8879
▁annulare	-10.8883
▁lamelleren	-10.8883
▁ijzerpigment	-10.8883
▁mogen	-10.8884
▁linkeronderkwab	-10.8892
calcificaties	-10.8894
fluorescentie	-10.8902
degeneratieve	-10.8911
▁prostatectomie	-10.8912
▁lamblia	-10.8929
▁dyspneu	-10.8929
▁hartzakje	-10.8929
bi	-10.893
tot	-10.8944
▁katheter	-10.895
▁slappe	-10.8965
ngs	-10.897
sproces	-10.8974
▁bepalen	-10.8975
▁spongiose	-10.8976
▁patent	-10.8976
▁pulmonales	-10.8986
▁hieruit	-10.8988
▁steen	-10.8988
▁galgang	-10.8988
vormige	-10.9001
▁vasculair	-10.9003
▁geinfecteerd	-10.9005
▁varierend	-10.9007
▁tumorrest	-10.901
onderverdelingen	-10.9019
▁dankzegging	-10.9022
▁gyrus	-10.9022
▁suboptimaal	-10.9022
▁hoesten	-10.9022
▁desondanks	-10.9022
localisatie	-10.9024
▁middelgro	-10.9024
▁septa	-10.9025
▁celrijke	-10.9028
▁verspreiding	-10.9035
cf	-10.904
▁gesloten	-10.9053
▁cytologie	-10.9053
aemie	-10.9054
▁trombotische	-10.9055
vaten	-10.9056
▁asymmetrische	-10.9062
▁snijrand	-10.9072
▁vreemdlichaams	-10.9075
act	-10.9078
▁wil	-10.9082
▁apicaal	-10.9085
▁onregelmatig	-10.9087
▁persisterend	-10.9088
▁bronchiolitis	-10.9102
▁gestenoseerd	-10.9116
▁meisje	-10.9116
iel	-10.9128
▁tricuspidalis	-10.913
voorhoofd	-10.9134
▁geisoleerd	-10.9136
ok	-10.9136
ger	-10.9146
▁segmental	-10.9152
▁erg	-10.9153
▁parietale	-10.9163
▁vaker	-10.9163
▁prostatitis	-10.9163
▁gaf	-10.9171
▁eci	-10.9183
▁gradering	-10.9184
form	-10.9191
▁anderhal	-10.9191
▁proliferatieve	-10.9205
▁operatief	-10.921
▁asthma	-10.921
▁sedatie	-10.921
▁echografisch	-10.921
▁diafragmatica	-10.9211
▁vernauwingen	-10.9212
▁hydropische	-10.9216
gly	-10.9217
intern	-10.9224
▁contaminatie	-10.9229
▁percentage	-10.9237
▁diagnoses	-10.9239
▁influenza	-10.9252
nd	-10.9255
oli	-10.9256
▁duidt	-10.9258
▁zenuwstelsel	-10.9258
▁anderzijds	-10.9258
▁mediane	-10.9262
▁schrompelnieren	-10.9271
▁gele	-10.9277
cu	-10.9279
▁lytische	-10.9284
▁catheter	-10.9291
▁bullae	-10.9291
▁zuurstof	-10.9292
▁schrompelnier	-10.9292
air	-10.9302
ygenatie	-10.9306
▁aeruginosa	-10.9306
▁grensvlaknaevus	-10.9306
▁alcoholgebruik	-10.9307
▁antrumtype	-10.9318
▁sputum	-10.932
lc	-10.9321
▁tumormetastasen	-10.9324
▁coma	-10.9326
histologisch	-10.9332
definitieve	-10.9332
mb	-10.9334
congestieve	-10.9346
actieve	-10.9352
eld	-10.9353
▁confluerende	-10.9354
▁macrovesiculair	-10.9354
▁mastectomie	-10.9354
▁infarcthaarden	-10.9367
▁nodi	-10.937
tevens	-10.9382
▁groen	-10.9392
▁genetica	-10.9392
va	-10.9394
▁buisprothese	-10.9399
▁carotiden	-10.9402
▁getroffen	-10.9403
pel	-10.9405
▁mds	-10.9408
ker	-10.9411
▁endometriose	-10.9419
vocht	-10.9421
▁thoracotomie	-10.9421
▁plekke	-10.9444
▁dysplastisch	-10.9444
zeer	-10.9446
loge	-10.9446
▁bewezen	-10.9451
▁rbk	-10.9451
▁buikorganen	-10.9451
▁heupprothese	-10.9452
▁aneurysmata	-10.9461
▁viraal	-10.9463
▁zwak	-10.9465
schildwachtklier	-10.947
recidief	-10.9474
▁myo	-10.9475
fa	-10.9481
▁nbt	-10.9481
▁lobulaire	-10.9484
▁ileostoma	-10.9499
▁longhypoplasie	-10.95
▁histomorfologi	-10.9504
▁medicamenteuze	-10.9504
▁daarvoor	-10.9507
▁acht	-10.951
▁ziek	-10.9517
anvraagformulier	-10.9521
▁broekprothese	-10.9522
▁foto	-10.9522
▁verstoorde	-10.9543
por	-10.9545
▁genitalia	-10.9548
▁lichamelijk	-10.9548
▁obliteratie	-10.9548
▁verwardheid	-10.9549
▁hun	-10.9551
▁inbrengen	-10.9559
lig	-10.9562
▁graads	-10.957
▁dergelijk	-10.9577
sen	-10.958
zoals	-10.9586
▁neo	-10.9588
ip	-10.9593
▁bevatte	-10.9593
▁mesencephalon	-10.9598
▁buitenoppervlak	-10.9598
▁begeleidend	-10.9598
▁daarom	-10.9601
peripancreatisch	-10.9605
▁fragmentje	-10.9615
▁vaatverandering	-10.9615
▁ingestuurd	-10.9629
▁bloedstolsel	-10.963
kt	-10.9634
▁voeten	-10.9636
▁stenotisch	-10.9639
▁archief	-10.9647
▁fibrinopurulent	-10.9647
drain	-10.9659
▁gebouwde	-10.966
uw	-10.9662
▁adeno	-10.9664
▁ingebracht	-10.9673
ica	-10.9688
▁cytoplasma	-10.9693
▁verstoring	-10.9695
▁fragmentjes	-10.9696
▁enteritis	-10.9696
▁lupus	-10.9697
▁serrated	-10.9697
▁faeces	-10.9697
▁decubitus	-10.97
▁sufficient	-10.9702
▁hersengewicht	-10.9707
▁infrarenaal	-10.9721
▁uitgebreidheid	-10.9721
matig	-10.973
▁bloeddruk	-10.973
doorgemaakte	-10.9731
▁colostoma	-10.9747
▁pupillen	-10.9747
▁patchy	-10.9748
▁achterzijde	-10.9748
▁behorend	-10.975
▁aortakleppen	-10.9753
▁subtiele	-10.9766
▁reticulair	-10.9786
▁operaties	-10.9792
isatie	-10.9792
▁melanoma	-10.9796
▁albicans	-10.9797
▁dilaterende	-10.9797
▁baten	-10.9798
nog	-10.9803
▁bi	-10.9804
ton	-10.9805
▁ademhaling	-10.9808
▁leverweefsel	-10.9812
naaldbiopt	-10.9813
aire	-10.9814
zij	-10.9815
▁vergroeiingen	-10.9815
▁pleit	-10.9821
▁schildklierkwab	-10.9827
▁tonsil	-10.9836
▁opbouw	-10.9837
▁grove	-10.9844
▁half	-10.9845
▁localis	-10.9846
lg	-10.9847
▁gezocht	-10.9848
▁temporalis	-10.9848
▁termijn	-10.9848
▁geinkte	-10.9848
▁aanwijsbaar	-10.9848
beginnende	-10.9848
▁aangrenzend	-10.9859
▁placentaire	-10.9862
▁trombosering	-10.9864
▁lacunair	-10.9877
alveolair	-10.9879
sa	-10.9879
▁rectumbiopten	-10.9883
▁test	-10.9897
▁darmresectie	-10.9898
▁rijping	-10.9898
▁lactaat	-10.9898
▁talgklier	-10.9898
▁regelmatig	-10.9899
treme	-10.9899
▁epileptisch	-10.9899
▁cystadenoom	-10.9899
▁fijn	-10.9899
▁kortademigheid	-10.9899
bls	-10.9901
▁nodig	-10.9905
formatie	-10.991
sm	-10.9911
elijk	-10.9919
▁cerebellair	-10.992
▁jw	-10.9932
▁mitosen	-10.9934
receptorbepaling	-10.9941
sveranderingen	-10.9945
▁artherosclerose	-10.9949
▁fecale	-10.9949
▁melena	-10.9949
▁longmetastasen	-10.9953
▁opgemerkt	-10.9961
oc	-10.997
▁liggen	-10.9983
▁consolidatie	-10.9983
lp	-10.9986
▁duodenums	-10.9992
als	-10.9993
nieuwe	-10.9995
▁aanvraag	-10.9995
▁onbegrepen	-11.0001
▁uiterlijk	-11.0001
▁activeren	-11.0001
lokalisaties	-11.0003
▁sh	-11.0006
▁puntjes	-11.001
▁mri	-11.001
▁lichaamsgewicht	-11.0012
▁emphyseem	-11.0013
▁vruchtwater	-11.0013
bespreking	-11.0017
▁afsluitingen	-11.0017
▁kans	-11.0017
▁endometrioid	-11.0024
mma	-11.0031
▁rectaal	-11.0032
▁bijzonder	-11.0035
▁femur	-11.0038
▁nerv	-11.0042
if	-11.0044
microscopie	-11.0044
galblaasresectie	-11.0046
ium	-11.0049
▁gegaan	-11.0049
▁lijn	-11.0052
▁cognitieve	-11.0052
▁presentatie	-11.0053
▁delier	-11.0053
▁malen	-11.0057
obductie	-11.0058
▁hiv	-11.0063
▁megakaryocyten	-11.0069
▁ha	-11.0076
▁gestelde	-11.0078
▁braak	-11.0083
▁tumorhaard	-11.0085
racheobronchitis	-11.0085
▁eerst	-11.0092
▁mesotheel	-11.0104
▁aspergillose	-11.0104
▁opgebouwd	-11.0104
▁hematogene	-11.0104
▁tengevolge	-11.0104
▁neurofibroom	-11.0104
▁interventie	-11.0105
▁peroperatief	-11.0105
▁hypertrophi	-11.0113
▁locale	-11.0113
▁sclerotische	-11.012
▁donatie	-11.0122
▁stabiel	-11.0126
▁nauw	-11.013
▁anamnese	-11.014
▁insult	-11.0143
▁hoger	-11.0149
▁localisaties	-11.015
▁debris	-11.0154
▁behoort	-11.0156
▁myofibrosis	-11.0156
▁toegeschreven	-11.0156
▁levenloos	-11.0156
▁onze	-11.0162
▁tubae	-11.0163
▁verrukeuze	-11.0164
▁ingevroren	-11.0172
tisch	-11.0178
▁fusie	-11.0179
▁natuurlijk	-11.0197
▁blokjes	-11.0197
segment	-11.02
▁reuscelreactie	-11.0204
▁lamina	-11.0207
▁kopie	-11.0212
▁gecompromiteerd	-11.0214
▁papperige	-11.0218
mal	-11.0222
▁advies	-11.0225
▁poging	-11.023
▁malformatie	-11.0241
ros	-11.025
▁relatieve	-11.025
▁longhilus	-11.0252
▁globaal	-11.0261
▁geldt	-11.0261
uiteraard	-11.0261
▁kapseldoorbraak	-11.0261
▁parakeratose	-11.0261
terne	-11.0262
corpusslijmvlies	-11.0263
▁tri	-11.0264
▁mij	-11.0268
coupe	-11.0274
aanvullende	-11.0275
rvangingsfibrose	-11.028
▁heart	-11.0282
▁parieto	-11.0295
▁morfine	-11.0297
▁vermoed	-11.03
▁tachycardie	-11.0308
js	-11.0309
▁geabstineerd	-11.0314
hyperpigmentatie	-11.0314
▁into	-11.032
oedeem	-11.0323
▁myocardfibrose	-11.0324
▁aanhoudend	-11.0331
▁populatie	-11.0333
▁dubbelbrekend	-11.0333
necrologie	-11.0337
▁tpn	-11.0338
fectieparameters	-11.0343
▁protocol	-11.0344
▁hepatocyten	-11.0367
▁comateus	-11.0367
schimmelkleuring	-11.0369
▁daardoor	-11.0369
▁contractie	-11.0371
obstructief	-11.0375
▁poliepeus	-11.0377
ongeveer	-11.0388
seudomembraneuze	-11.0414
▁reumato	-11.0415
▁ra	-11.0415
▁opmerkelijk	-11.0418
▁electieve	-11.0421
▁spreken	-11.0421
▁moeder	-11.0421
▁sepsisbeeld	-11.0422
bbl	-11.0422
uaat	-11.0423
litteken	-11.0425
▁wijde	-11.043
verlies	-11.0452
ts	-11.0457
▁pussig	-11.0475
▁ingezonden	-11.0475
▁ostia	-11.0475
▁solair	-11.0475
▁verwijderen	-11.0476
▁namelijk	-11.0489
▁fibrineus	-11.0493
oezemfibrilleren	-11.0496
oppervlak	-11.0498
▁hypovolemie	-11.0499
geschat	-11.05
alk	-11.0504
mamma	-11.0508
▁lambda	-11.0525
▁damage	-11.0529
▁subarachnoidaal	-11.0529
▁hoofdpijn	-11.0529
▁dig	-11.0532
▁voorzijde	-11.0541
str	-11.0545
▁operatieve	-11.0545
▁scleroserende	-11.0552
zymhistochemisch	-11.0553
▁prurigo	-11.0562
ant	-11.0565
▁grawitz	-11.0568
▁putamen	-11.0576
▁foramen	-11.0583
▁ondersteunt	-11.0583
▁lichaamsvreemd	-11.0583
▁cardiomegalie	-11.0583
▁ontstaat	-11.0583
▁rondkernig	-11.0583
▁flegmoneuze	-11.0591
embolische	-11.0592
▁gebruikte	-11.0593
ulair	-11.0594
▁probleem	-11.0595
ns	-11.0599
cp	-11.0616
▁nos	-11.0622
▁bijdrage	-11.0631
▁cea	-11.0633
▁ontwikkelen	-11.0635
ij	-11.0637
▁erythema	-11.0638
▁kaliber	-11.0638
▁hetzelfde	-11.0639
▁gehandhaafd	-11.0646
ernstige	-11.065
therapie	-11.065
luchtweginfectie	-11.0653
ingroei	-11.0662
bloed	-11.0668
ziekte	-11.0669
▁wanddikte	-11.0683
▁ventriculaire	-11.0686
▁un	-11.0687
troffen	-11.0691
▁majus	-11.0693
▁aantonen	-11.0693
dad	-11.0694
▁dad	-11.0699
▁rv	-11.0699
sta	-11.0699
▁bijgaand	-11.0703
teerd	-11.0705
▁ophoping	-11.0717
stilstand	-11.0728
▁vezels	-11.0728
▁dragen	-11.0731
vers	-11.0734
▁wandstandige	-11.0738
▁pd	-11.0741
▁infecties	-11.0743
▁mediastinitis	-11.0748
▁oncogene	-11.0748
▁toegezonden	-11.0748
sie	-11.0749
▁pci	-11.0762
▁indicatie	-11.077
▁uip	-11.0779
▁subcapsulaire	-11.0783
zijwand	-11.079
▁verbinding	-11.079
▁bloedvat	-11.079
▁betrokkenheid	-11.0792
▁an	-11.0793
▁eindstandig	-11.0803
▁troebele	-11.0804
▁voorafgaand	-11.0807
▁ziet	-11.0819
▁intimafibrose	-11.0829
zonder	-11.0829
eert	-11.084
epitheliaal	-11.0843
▁tangles	-11.0848
▁aftakking	-11.0851
▁carina	-11.0852
▁geaspireerd	-11.0859
▁ruggemerg	-11.0859
▁verlittekend	-11.0859
uent	-11.0861
ingen	-11.0864
▁breuk	-11.0875
del	-11.0875
▁infarctjes	-11.0878
▁goedaardige	-11.0878
▁elastose	-11.0885
▁familiaire	-11.0888
▁lca	-11.0888
stadium	-11.09
▁keer	-11.0904
kl	-11.0907
▁fracturen	-11.091
▁gescleroseerd	-11.0912
▁ooglid	-11.0915
▁lynch	-11.0915
▁pancytopenie	-11.0915
▁wanneer	-11.0915
▁haemodynamisch	-11.0915
▁aaa	-11.0916
▁groter	-11.0925
▁daarop	-11.0925
nr	-11.0926
slijmvliesbiopt	-11.0926
▁medicamenteus	-11.0928
▁calcificerend	-11.0931
ens	-11.0935
▁kwaliteit	-11.0936
▁chemo	-11.0945
▁mondbodem	-11.0948
tor	-11.0948
▁hepatische	-11.0956
mc	-11.096
▁inziens	-11.0972
▁pericentraal	-11.0972
▁optrad	-11.0975
▁tijdstip	-11.0988
shaarden	-11.1005
▁tensie	-11.1007
▁hemo	-11.1012
▁maternal	-11.1018
datum	-11.1023
▁geassocieerde	-11.1025
▁caudale	-11.1027
▁gekenmerk	-11.1029
cilinderepitheel	-11.1029
▁orgaansystemen	-11.1029
▁paramediaan	-11.1029
▁celmateriaal	-11.1032
▁groeipatroon	-11.1035
zo	-11.1037
▁di	-11.1038
▁vrouwelijk	-11.1039
▁gallige	-11.104
▁vergroeiing	-11.1041
▁conve	-11.1042
lymfklierpunctie	-11.1042
▁acinair	-11.1054
ga	-11.1068
bo	-11.1074
▁plm	-11.1077
▁last	-11.1079
respectievelijk	-11.108
▁pyogenicum	-11.1086
▁multiforme	-11.1086
▁crp	-11.1086
▁allergisch	-11.1088
▁apart	-11.1089
▁inzendingen	-11.1091
▁gewijzigd	-11.1093
▁tumorgroei	-11.1093
top	-11.1098
▁gold	-11.1098
blokje	-11.1099
▁huidcurettage	-11.11
ccr	-11.1112
ord	-11.1119
com	-11.1122
▁bevonden	-11.1128
out	-11.1141
▁bovenbeschreven	-11.1143
▁vlokken	-11.1143
▁tonsillen	-11.1144
▁verwijzing	-11.1144
▁epidermiscyste	-11.1153
▁for	-11.1154
▁doorgroeiend	-11.1154
▁spectrum	-11.1159
▁kop	-11.1164
go	-11.1165
▁eiwit	-11.1166
ser	-11.1168
▁wur	-11.117
▁ano	-11.1171
▁klassieke	-11.1171
▁dysfunctie	-11.1178
▁zwart	-11.118
▁bal	-11.1187
▁armen	-11.1191
▁blauw	-11.1191
▁voorafgaande	-11.1197
▁afhankelijk	-11.1201
▁voedselresten	-11.1201
▁werkdiagnose	-11.1201
ductaalcarcinoom	-11.121
▁lip	-11.1211
▁patienten	-11.1213
pik	-11.1229
▁mammabiopten	-11.1234
▁fundus	-11.1239
▁omgeven	-11.1241
iale	-11.1243
▁brief	-11.1259
▁collegialiter	-11.1259
▁herkomst	-11.126
▁dubbel	-11.1264
resectievlakken	-11.1275
mn	-11.1279
▁amygdala	-11.128
angiopathie	-11.1282
ob	-11.1288
tak	-11.1296
bare	-11.1305
▁maagtype	-11.1306
structuren	-11.1321
▁infarctlitteken	-11.1322
rectum	-11.1322
▁bls	-11.1322
▁concrementen	-11.1323
▁bacterie	-11.1328
ischemie	-11.1328
organ	-11.1336
▁viel	-11.1345
▁immunologisch	-11.1349
▁prolaps	-11.1355
ras	-11.1357
▁bijdragend	-11.1359
klier	-11.1361
▁hemi	-11.1365
▁geinduceerd	-11.1368
▁doorbloeding	-11.1376
treft	-11.1376
▁achtergebleven	-11.1377
▁ganglia	-11.1377
▁liesbreuk	-11.1377
▁splenectomie	-11.1377
▁imponerend	-11.1378
temporaal	-11.1381
▁papel	-11.1382
reuscelreactie	-11.1382
flow	-11.1384
tis	-11.1391
▁mijn	-11.1395
▁body	-11.1398
▁histiocytaire	-11.1399
▁skelet	-11.1401
▁afmetingen	-11.1404
▁perforaties	-11.1422
▁binnenzijde	-11.1424
▁klassiek	-11.1425
laterale	-11.1427
▁as	-11.1428
ain	-11.1431
▁nm	-11.1431
▁aangeboden	-11.1436
▁coeruleus	-11.1436
▁linkerhartkamer	-11.1436
▁mai	-11.1437
▁goedaardig	-11.1439
▁streng	-11.1443
▁lichaams	-11.1444
▁nierparenchym	-11.1444
gelegen	-11.1445
ischemische	-11.1446
▁puspockets	-11.1446
▁semi	-11.145
▁nabloeding	-11.145
bloedingen	-11.1451
▁mmr	-11.1472
▁letsels	-11.1475
ans	-11.1486
proces	-11.1487
functie	-11.1491
▁spieren	-11.1494
▁herhaling	-11.1495
▁curvatuur	-11.1495
▁halverwege	-11.1495
▁inactief	-11.1495
▁lbk	-11.1495
▁afgesproken	-11.1495
▁seder	-11.1496
mu	-11.1497
▁intrapulmonale	-11.1498
▁trombusvorming	-11.15
ot	-11.1501
▁linkerbovenkwab	-11.1503
geringe	-11.1506
beiderzijds	-11.1507
keursdiagnose	-11.1508
▁tumoreuze	-11.151
arm	-11.1527
▁obstruerende	-11.1536
kwab	-11.1536
▁wit	-11.1537
▁haarfollikel	-11.1538
▁schouw	-11.1554
▁beschikbaar	-11.1555
▁laparoscopisch	-11.1555
▁solaris	-11.1555
▁stevig	-11.1555
▁bovenpool	-11.1557
▁loop	-11.1557
sereuz	-11.1557
haard	-11.156
stase	-11.1573
▁vlekkige	-11.1578
▁gedetecteerd	-11.1579
▁ileocoecaal	-11.1582
▁naaldbiopsie	-11.1583
▁vertebralis	-11.1615
kweken	-11.1621
rij	-11.1625
▁deficientie	-11.1627
bethesda	-11.1632
coeur	-11.1633
▁dun	-11.1634
▁slokdarmbiopten	-11.1635
▁lu	-11.1636
tel	-11.1641
▁ho	-11.1642
▁symptomen	-11.1642
neus	-11.1648
▁balkenblaas	-11.166
▁agonaal	-11.1667
▁zegelringcel	-11.1668
▁gemengd	-11.1668
▁penis	-11.1669
do	-11.1672
▁subpleurale	-11.1676
▁mycose	-11.1676
▁ovale	-11.1676
▁botweefsel	-11.1679
▁high	-11.1683
▁voedsel	-11.169
klasse	-11.1695
▁ebus	-11.1697
▁gebroken	-11.1701
functieverlies	-11.1709
formulier	-11.171
zen	-11.1715
▁late	-11.1715
▁mn	-11.1715
▁faecium	-11.1737
▁spiervezels	-11.1737
▁levercelnecrose	-11.1737
▁paratracheaal	-11.1737
▁gefi	-11.1739
onale	-11.1759
maanden	-11.176
▁therapeutisch	-11.177
fractuur	-11.1771
▁sigmoa	-11.1772
▁sampling	-11.1775
▁mechanisch	-11.1788
▁myelum	-11.1797
icodermie	-11.1798
jejunostomie	-11.1798
▁ligament	-11.1798
▁versmalling	-11.1798
▁faecaal	-11.1798
▁cardiopulmonaal	-11.1798
▁blaasbiopten	-11.1799
▁thans	-11.1799
coronary	-11.1799
▁adenoid	-11.1799
▁myoom	-11.18
drs	-11.1811
inhoud	-11.1812
arterien	-11.1815
▁longfunctie	-11.1821
▁alveolair	-11.1826
resten	-11.1833
kken	-11.1834
▁ware	-11.1842
non	-11.1853
▁encefalitis	-11.1854
▁syndrome	-11.1858
▁bijgewoond	-11.186
▁ontbreekt	-11.186
▁herhalen	-11.186
▁overgenomen	-11.1861
▁buikvocht	-11.1863
▁uitstrijk	-11.1872
▁wijd	-11.1878
▁lesie	-11.1887
▁stond	-11.1888
traject	-11.1888
level	-11.1889
▁borderline	-11.1902
▁resterend	-11.1904
wang	-11.1905
invasief	-11.1917
▁benauwd	-11.1921
▁zuurvaste	-11.1922
▁fibrosis	-11.1924
▁bolle	-11.193
▁vierde	-11.1934
therapeutisch	-11.1955
septische	-11.1959
▁nefro	-11.1959
▁sta	-11.196
bel	-11.1962
▁stomp	-11.1967
▁temporale	-11.1977
▁dilatatio	-11.1985
▁papillomateuze	-11.1985
▁blaashals	-11.199
▁stromal	-11.199
mel	-11.1991
▁fibrosehaarden	-11.1996
▁snoergroeven	-11.2004
▁mucosale	-11.2006
▁huidig	-11.201
terminale	-11.2016
pijn	-11.2016
▁percutane	-11.2019
kd	-11.2038
▁occluderende	-11.2044
▁anurie	-11.2048
▁keratoacanthoom	-11.2048
▁berichten	-11.2053
ani	-11.207
all	-11.2071
snijvlakken	-11.2072
bil	-11.2074
▁ab	-11.2086
cardiale	-11.209
▁arterieen	-11.209
▁event	-11.2095
▁screening	-11.2095
▁cutane	-11.2102
▁hyaline	-11.2111
▁tamelijk	-11.2111
▁bevinden	-11.2111
▁sigmoideum	-11.2112
▁postuur	-11.2113
dien	-11.2115
▁vroeg	-11.2115
▁darmziekte	-11.2116
neren	-11.2117
▁lymf	-11.2124
uencing	-11.2127
klein	-11.214
sh	-11.2145
▁punt	-11.2145
foto	-11.2145
▁corticaal	-11.2148
▁coronarialijden	-11.2151
▁gland	-11.2156
mat	-11.2164
▁steun	-11.2165
▁nemen	-11.217
▁abnormale	-11.2175
▁erythrocyten	-11.2175
▁interesse	-11.2175
▁verergerd	-11.2175
▁orgaangewichten	-11.2175
▁chroniciteit	-11.2175
leeftijdsconform	-11.2175
chi	-11.2178
▁ingevuld	-11.2182
▁onderpool	-11.2182
activiteit	-11.2184
lb	-11.219
plaats	-11.2197
▁vaatwanden	-11.2202
aar	-11.2205
▁heen	-11.2207
gang	-11.2217
az	-11.2232
▁niveaus	-11.2237
▁beschrijving	-11.2239
getwijfeld	-11.2239
▁geulcereerd	-11.2239
▁benauwdheid	-11.2239
▁wegener	-11.224
▁grof	-11.2243
▁obstructieve	-11.2251
ldh	-11.2258
▁belasting	-11.2264
▁vessel	-11.2265
buik	-11.227
▁chromosoom	-11.2276
▁cyto	-11.2278
▁nierarterie	-11.2278
ff	-11.2282
advies	-11.2283
▁onsteking	-11.23
▁fibroblasten	-11.2303
▁vesicula	-11.2303
▁gedegenereerd	-11.2303
▁nogmaals	-11.2303
▁endoprothese	-11.2304
klep	-11.2317
▁gebiedjes	-11.2319
▁hypertrofi	-11.233
▁erosies	-11.2332
scellen	-11.2336
lu	-11.235
▁lacunaire	-11.2354
▁uitsluiten	-11.2355
▁atelectatisch	-11.2368
▁necroticans	-11.2368
▁veroorzaken	-11.2368
▁villitis	-11.2368
▁anterolateraal	-11.2368
▁wekedelen	-11.2369
▁belaste	-11.237
▁hechting	-11.2378
intra	-11.238
problemen	-11.2382
infarcten	-11.2392
▁angiogram	-11.2395
▁bronchusbiopten	-11.2395
▁marfan	-11.2397
▁zeven	-11.2398
hartspierweefsel	-11.2398
▁stv	-11.2401
ischaemische	-11.2411
aorta	-11.2431
▁nst	-11.2432
▁geanalyseerd	-11.2433
▁abcedering	-11.2433
▁adenomyosis	-11.2433
▁bekleed	-11.2433
▁geconsolideerd	-11.2433
▁lentigineuze	-11.2433
▁neonaat	-11.2433
▁pneumectomie	-11.2433
▁sacculair	-11.2433
▁verlaagd	-11.2433
▁geneticus	-11.2433
▁lekker	-11.2433
▁inotropie	-11.2434
▁controleren	-11.2434
▁lvad	-11.2435
▁evaluatie	-11.2436
afwijking	-11.2436
recente	-11.2438
▁msh	-11.2438
▁hartventrikel	-11.2443
▁behandelend	-11.2444
▁perioden	-11.2456
▁ki	-11.246
▁negen	-11.2462
▁longbloedingen	-11.2466
▁voorkomende	-11.2469
recent	-11.2471
▁traumatische	-11.2476
▁aangrenzende	-11.2485
▁craniale	-11.2485
chronische	-11.2486
▁graviditeit	-11.2498
▁aanmerking	-11.2499
▁bovenvermeld	-11.25
okselkliertoilet	-11.25
▁cholesterolose	-11.25
▁grondslag	-11.25
▁holtevorming	-11.2501
ksf	-11.2503
bronchusspoeling	-11.2504
▁sporadische	-11.2505
▁idh	-11.251
▁insulten	-11.2516
▁communicans	-11.2517
▁gestold	-11.2517
ige	-11.252
▁overgangscel	-11.2525
▁mlh	-11.2533
gb	-11.2547
panel	-11.2547
ion	-11.2551
carcinomen	-11.2554
midden	-11.2557
▁cerebro	-11.2558
zet	-11.2562
▁karakter	-11.2565
▁gericht	-11.2566
▁aansluitend	-11.2567
▁overgroei	-11.2569
▁bewijzend	-11.257
ation	-11.2587
▁roken	-11.2588
▁dyspnoeisch	-11.2593
▁stukjes	-11.2595
▁scrotum	-11.2598
sbaar	-11.2611
▁brede	-11.2613
infiltratie	-11.2616
▁handen	-11.2616
▁geb	-11.2622
interstitiele	-11.2627
▁herkenba	-11.2632
▁geidentificeerd	-11.2632
▁junction	-11.2632
▁kortdurend	-11.2632
▁tracheostoma	-11.2632
▁obese	-11.2632
▁myelofibrose	-11.2633
▁fragmentatie	-11.2636
▁innemend	-11.264
▁astrocytoom	-11.2655
▁tvu	-11.2658
▁hartlijden	-11.2661
▁verrichten	-11.2676
▁verslechterd	-11.2678
▁preparaten	-11.2686
zowel	-11.2699
operatieve	-11.2699
▁hemopericard	-11.2699
generation	-11.2699
▁geoblitereerd	-11.2699
▁gevorderd	-11.2699
▁mural	-11.2699
▁ongecompliceerd	-11.2699
inverted	-11.2699
▁hoofdtakken	-11.27
▁hoofdhuid	-11.2701
loy	-11.2706
▁arterieel	-11.2711
▁opsnijden	-11.2715
▁fibrilleren	-11.2728
▁pal	-11.2733
rijk	-11.2742
▁start	-11.2745
▁neutrofielen	-11.2749
▁dominante	-11.2753
▁fascie	-11.2754
broncho	-11.2767
▁knapte	-11.2767
▁faecalis	-11.2767
▁thrombusmassa	-11.2767
sterk	-11.2768
iso	-11.2773
▁topografie	-11.2775
verslag	-11.2783
▁stenoserend	-11.2787
▁pi	-11.2799
enteritis	-11.2807
fragment	-11.2815
▁markers	-11.2823
fibrillatie	-11.2835
▁apocriene	-11.2835
▁mastopathisch	-11.2835
▁hersensektie	-11.2835
▁optimaal	-11.2835
▁veroudering	-11.2841
▁terecht	-11.2841
ao	-11.2841
ogene	-11.2856
▁ileumbiopten	-11.2867
▁saturatie	-11.2886
▁verdringing	-11.2886
vol	-11.2888
▁tensiedaling	-11.289
biopsiemateriaal	-11.2894
obstructie	-11.2896
▁conservatief	-11.2903
▁inspanning	-11.2903
▁dentatus	-11.2903
▁navel	-11.2903
tensie	-11.2904
▁bestonden	-11.2904
▁ontlasting	-11.2904
nodulair	-11.2905
oude	-11.2905
▁subtype	-11.2907
▁overlegd	-11.2908
hoog	-11.2908
▁meningen	-11.2909
▁preauriculair	-11.2909
tenminste	-11.2909
▁vriescoupes	-11.2917
▁enorm	-11.292
▁capillairen	-11.2926
▁jongen	-11.2927
klierweefsel	-11.2929
▁gebracht	-11.2931
hepatisch	-11.2932
line	-11.2937
▁viii	-11.2951
mucosa	-11.2953
endometriumbiopt	-11.2966
▁ges	-11.2969
▁ercp	-11.2969
▁peritoneaal	-11.297
▁accident	-11.2972
▁geintubeerd	-11.2972
▁isthmus	-11.2972
▁mucineuze	-11.2972
grote	-11.2985
▁neiging	-11.2985
▁minus	-11.2987
lys	-11.2987
▁haemato	-11.2995
▁zwangerschaps	-11.2998
▁oa	-11.3
▁cornea	-11.303
▁onverwachts	-11.3037
▁hematurie	-11.3042
▁ondersteund	-11.3042
▁orienterend	-11.3042
▁trilineair	-11.3042
▁idem	-11.3043
▁dermatose	-11.3043
▁aortawortel	-11.3045
waarvoor	-11.3055
▁zijsnijranden	-11.3055
▁aanzien	-11.3056
▁weefselfragment	-11.3057
▁weg	-11.3059
▁adventitia	-11.3062
▁ijzerhoudend	-11.3066
▁spoeling	-11.3068
▁arteriolo	-11.3075
▁patch	-11.3076
▁state	-11.3077
lectromechanisch	-11.3078
▁zekerheidshalve	-11.3085
▁porte	-11.3096
▁pneumonia	-11.31
▁inflammatoir	-11.31
▁inductie	-11.3102
villeus	-11.3107
klinische	-11.3108
▁destijds	-11.3112
▁gefibroseerd	-11.3112
▁gelijktijdig	-11.3112
▁chemoradiatie	-11.3112
▁verstrekte	-11.3112
▁familieleden	-11.3112
▁coccen	-11.3112
▁beenvaten	-11.3113
▁ko	-11.3113
▁aortabifurcatie	-11.3113
hangt	-11.3115
▁myocardschade	-11.3117
▁kaak	-11.312
ster	-11.3125
▁aortaprothese	-11.3143
▁ruiter	-11.3144
▁jicht	-11.3161
ka	-11.3162
ventrikel	-11.3164
▁dura	-11.3168
▁paranasaal	-11.317
pan	-11.3171
▁br	-11.3178
▁ganglion	-11.318
▁geconcludeerd	-11.3182
▁granulair	-11.3182
▁eigen	-11.3182
▁anderszins	-11.3182
▁hartspiervezels	-11.3182
▁administratie	-11.3182
▁hersenparenchym	-11.3183
net	-11.3184
▁pubis	-11.3185
▁kit	-11.3195
▁erysipelas	-11.3196
arterie	-11.32
▁haemangioom	-11.3205
delen	-11.3207
pogingen	-11.3209
stand	-11.3211
▁tnm	-11.3214
tekens	-11.3214
nis	-11.3216
akt	-11.3216
▁lagen	-11.3221
▁ar	-11.3227
▁grijze	-11.3235
▁arthritis	-11.3236
ll	-11.3238
▁prion	-11.3248
▁hartplak	-11.3252
rr	-11.3252
▁gevoelig	-11.3253
▁deferens	-11.3253
▁functionele	-11.3253
▁gyri	-11.3253
▁invullen	-11.3253
▁verslaglegging	-11.3253
▁ligging	-11.3253
▁hartoren	-11.3253
▁herniatie	-11.3254
▁marges	-11.3258
▁niercysten	-11.326
atrofie	-11.3263
▁beeldvormend	-11.3272
patient	-11.3274
▁cervicaal	-11.3278
▁hem	-11.3283
▁tekening	-11.3284
▁anastomosen	-11.3287
ventrikelzijwand	-11.3289
▁embolisatie	-11.3304
▁blijven	-11.3307
cisiebiopsie	-11.3311
▁blue	-11.3313
laesie	-11.3321
▁pigmentosus	-11.3324
▁princip	-11.3324
▁slikklachten	-11.3325
▁moest	-11.3325
▁achterhoofd	-11.3325
▁intramuraal	-11.3325
▁epicarditis	-11.3326
dra	-11.3332
▁verwacht	-11.334
▁microsatelliet	-11.3342
natieve	-11.3343
ys	-11.3343
cytologie	-11.3348
▁small	-11.3349
ascendens	-11.3349
▁plastiek	-11.3351
▁tauopathie	-11.3363
ehe	-11.3365
▁paralytisch	-11.3375
▁gefragmenteerde	-11.3378
dermatitis	-11.338
▁galweg	-11.338
▁paraffine	-11.3383
▁bodies	-11.3384
▁circumferent	-11.3389
▁colloid	-11.3396
▁collageen	-11.3396
▁glioblastoma	-11.3396
▁irreversibele	-11.3396
▁uitrijpend	-11.3396
▁fecaal	-11.3396
▁hematopoiese	-11.3396
▁afloop	-11.3397
▁chorio	-11.3397
▁infectiefocus	-11.3399
▁correctie	-11.3403
braak	-11.3414
▁verbeterde	-11.3419
laag	-11.3427
▁aorto	-11.343
▁verlopen	-11.3451
▁vacuolair	-11.3452
▁circumferente	-11.3454
▁renale	-11.3458
▁rdp	-11.3463
▁iliacale	-11.3464
▁longinfarct	-11.3465
▁plusminus	-11.3469
▁beademd	-11.3469
▁gestopt	-11.3469
▁jugularis	-11.3469
▁neocort	-11.3469
▁hsv	-11.347
▁ihc	-11.3475
▁significant	-11.3475
▁bloedend	-11.3476
lar	-11.3477
▁occipitale	-11.348
ple	-11.3488
▁nadien	-11.3498
▁submucosaal	-11.3502
renaal	-11.3502
problematiek	-11.3507
dig	-11.3509
▁opening	-11.3514
▁genetische	-11.352
▁gelu	-11.3527
▁verzwaarde	-11.3535
▁kunstklep	-11.3535
▁alveolar	-11.3541
▁dichtstbijzijnd	-11.3542
▁mesenchymale	-11.3542
▁death	-11.3543
▁tweeling	-11.3551
▁enterobacter	-11.3552
▁psa	-11.3555
col	-11.3562
lengte	-11.3564
▁teen	-11.3567
▁grade	-11.3575
volgens	-11.3575
trauma	-11.3575
▁sarcomatoid	-11.3584
▁osteo	-11.3586
▁intravasculaire	-11.3587
bepaling	-11.3587
▁stijging	-11.3593
▁granuloom	-11.3595
▁bricker	-11.3598
▁uitge	-11.36
▁overal	-11.3605
▁hemolytisch	-11.3609
avs	-11.3614
▁escherichia	-11.3615
▁voorgrond	-11.3615
▁wogen	-11.3615
▁drukverhoging	-11.3616
▁elk	-11.3616
▁hersenvaten	-11.3616
▁wandlagen	-11.3616
▁rip	-11.3617
▁groepjes	-11.3622
▁beoordeelbare	-11.3636
▁assay	-11.3639
▁gekleurd	-11.365
▁noduli	-11.365
jakob	-11.3652
▁vormt	-11.3666
▁cf	-11.3674
▁gemeten	-11.3677
▁reconstructie	-11.368
▁sirs	-11.368
wi	-11.3688
▁mandibula	-11.3689
▁trombolyse	-11.369
▁zat	-11.3691
▁douglasi	-11.3691
rsi	-11.3696
▁hoogste	-11.3702
▁cdk	-11.3708
▁peg	-11.3708
▁von	-11.3714
▁ingrepen	-11.3715
shock	-11.3727
fu	-11.373
ami	-11.3731
llen	-11.3735
▁vaatinvasie	-11.3743
ntie	-11.3743
wond	-11.3745
▁encephalitis	-11.3746
ft	-11.375
▁ogen	-11.3757
▁pneumococcen	-11.3764
▁korrelig	-11.3764
▁vochtrijk	-11.3766
▁doorgeschoten	-11.3766
▁ecmo	-11.3767
▁usual	-11.377
▁ala	-11.3773
neuro	-11.3773
▁episoden	-11.3775
▁vas	-11.3777
▁resultaten	-11.3782
▁agenesie	-11.3791
wa	-11.3794
▁voorgaande	-11.3797
▁ziekten	-11.3802
nl	-11.3806
amyloid	-11.3808
pleuravocht	-11.3809
naal	-11.3816
▁veld	-11.3821
▁darmbiopten	-11.3822
iciteit	-11.3829
▁huis	-11.3834
tu	-11.3835
▁caudatus	-11.3839
▁gereviseerd	-11.3839
▁hemorragie	-11.3839
▁peribronchiale	-11.3839
▁gastroscopie	-11.384
groei	-11.3841
taal	-11.3843
▁pigmentatie	-11.3846
▁sn	-11.3857
▁gescleroseerde	-11.3874
▁ontstonden	-11.3877
▁studie	-11.3879
▁geisoleerde	-11.3883
▁onregelmatige	-11.3883
▁mammabiopt	-11.3885
intestinaal	-11.3887
niveau	-11.3888
▁samenhang	-11.3892
drietal	-11.3895
houdend	-11.3897
▁receptoren	-11.3905
ry	-11.3913
▁geclassificeerd	-11.3915
▁leidde	-11.3915
▁osteomyelitis	-11.3915
▁hemoptoe	-11.3915
▁subdurale	-11.3915
▁allogene	-11.3915
▁losliggend	-11.3915
▁aanzienlijk	-11.3915
myo	-11.3915
▁jongetje	-11.3918
vlak	-11.3925
jth	-11.393
▁ogend	-11.3933
leg	-11.3941
onen	-11.3943
nucleaire	-11.3943
▁anterieur	-11.3963
graft	-11.3967
▁prikkeling	-11.3969
my	-11.3974
▁mof	-11.3986
hy	-11.3987
bvdw	-11.3991
▁geinterpreteerd	-11.3991
▁geprikkeld	-11.3991
▁immatuur	-11.3991
▁serositis	-11.3991
▁maagmucosa	-11.3997
▁bloedingsresten	-11.4003
▁grens	-11.4004
▁miltstuwing	-11.4006
pje	-11.4015
septum	-11.4034
cus	-11.4036
▁shunt	-11.4037
▁welk	-11.4038
▁inpa	-11.4043
▁zijsnijrand	-11.4055
▁intrauterien	-11.4061
hartgewicht	-11.4063
▁galsteen	-11.4068
▁fibromusculair	-11.4068
▁geinfiltreerd	-11.4068
▁hysterectomie	-11.4068
▁repair	-11.4068
▁urticaria	-11.4068
▁accreditatie	-11.4068
▁celrijkdom	-11.4068
▁vallen	-11.4069
▁uitgesneden	-11.4069
▁leeg	-11.4071
behandeling	-11.4074
▁veno	-11.4074
antrumslijmvlies	-11.4082
▁infarctje	-11.4087
▁dik	-11.4089
▁myc	-11.4089
falen	-11.4091
hypo	-11.4092
ib	-11.4094
haardjes	-11.4102
▁intermediair	-11.4106
vl	-11.4106
▁gesneden	-11.4114
▁criteria	-11.4126
bu	-11.4129
▁rechterschouder	-11.4131
letsel	-11.4132
iseerd	-11.4134
▁prostaatbiopt	-11.4136
sonde	-11.4137
▁okseltop	-11.414
▁basalioom	-11.4146
▁dyspnoisch	-11.4146
▁gestoord	-11.4146
▁trombopenie	-11.4146
▁bewaard	-11.4147
▁neoplasma	-11.4147
▁rugpijn	-11.4149
▁aangewezen	-11.4149
▁overeenkomend	-11.4151
▁gang	-11.4151
darm	-11.4154
od	-11.4155
▁microorganismen	-11.4163
▁motor	-11.4165
▁infarctgebied	-11.417
▁longontsteking	-11.417
▁cribriform	-11.4171
▁ventrikelseptum	-11.4177
▁fundic	-11.4177
▁restanten	-11.4177
▁lymfklierbiopt	-11.418
▁intravasculair	-11.4187
▁colonresectie	-11.4202
▁koa	-11.4206
afstand	-11.4209
▁maagbiopt	-11.4212
▁hypothyreoidie	-11.4224
▁vaststellen	-11.4224
▁vergelijking	-11.4224
▁aldus	-11.4224
treem	-11.4224
▁spierlaag	-11.4224
▁hepatorenaal	-11.4224
▁intestinaaltype	-11.4225
▁hartafwijking	-11.4234
▁la	-11.4235
▁vingers	-11.4239
▁morbid	-11.425
spier	-11.4255
▁pta	-11.4257
▁port	-11.4271
▁plasmacel	-11.4275
bovenbeen	-11.4279
▁athero	-11.4291
abdomen	-11.4291
▁vreemdlichaam	-11.4292
onderwand	-11.4294
▁hartziekte	-11.4296
respiratoire	-11.4297
▁verlopende	-11.4297
hersenen	-11.4298
▁resectierand	-11.4298
▁dreigende	-11.4302
▁tunica	-11.4303
▁geopend	-11.4303
▁serologisch	-11.4303
▁overeenkomstig	-11.4303
ricuspidalisklep	-11.4303
▁bronchustakken	-11.4303
▁heupoperatie	-11.4305
weken	-11.4305
▁maagulcus	-11.4306
▁verte	-11.4313
stent	-11.4317
ha	-11.4327
onderbeen	-11.4337
▁recentelijk	-11.4337
synucleine	-11.4337
▁linkerwang	-11.4338
▁anamnestisch	-11.4347
bol	-11.4356
▁losse	-11.4358
sing	-11.4358
volume	-11.4358
▁geneesmiddel	-11.4368
▁stage	-11.4369
pharyn	-11.4382
▁miljoen	-11.4382
▁kolonies	-11.4382
▁myofibrose	-11.4382
▁doorgebroken	-11.4383
ms	-11.4383
▁evt	-11.4387
▁aangebracht	-11.4388
▁bepalingen	-11.439
hi	-11.4392
trahepatische	-11.4395
pathie	-11.4407
ards	-11.4409
▁hartgewicht	-11.4411
cll	-11.4423
last	-11.4428
celcarcinoom	-11.4433
groep	-11.4438
let	-11.4441
▁abstineren	-11.4444
pulmonale	-11.4446
▁rechterwang	-11.4448
negatieve	-11.4449
plaveiselcel	-11.4457
enzymkleuring	-11.4457
▁continu	-11.4462
bulleuze	-11.4462
▁sneeranden	-11.4462
▁handelen	-11.4462
▁arcus	-11.4462
▁pityriasis	-11.4463
ueruptuur	-11.4464
▁longvelden	-11.4467
▁uitgezette	-11.4468
▁naevi	-11.4474
avd	-11.4478
▁functioneel	-11.448
▁em	-11.4484
vii	-11.4497
▁palatum	-11.4512
▁slanke	-11.4519
▁lipomateu	-11.4521
▁vin	-11.4527
▁zwakke	-11.4534
breidt	-11.4535
▁snoergroeve	-11.4536
▁afgedekt	-11.4543
▁inotropica	-11.4543
▁dwarslaesie	-11.4543
▁perirenale	-11.4543
▁myopathie	-11.455
▁duodenumbiopt	-11.4565
▁hotspot	-11.457
▁toilet	-11.4582
▁stapeling	-11.4582
▁secretoir	-11.4586
ureter	-11.4588
▁blauwe	-11.4594
▁gepigmenteerd	-11.4598
▁stuk	-11.4601
ting	-11.4603
hv	-11.4613
ischaemie	-11.4615
▁tekst	-11.4615
ty	-11.4616
▁lichaamslengte	-11.4621
▁zijrand	-11.4622
terventricularis	-11.4624
▁aritmie	-11.4624
▁overeenstemming	-11.4624
▁sommige	-11.4624
▁subfrenisch	-11.4624
▁centrolobulair	-11.4624
▁neuronale	-11.4624
▁bewerking	-11.4624
▁angiosarcoom	-11.4625
▁epicardiale	-11.4625
acuut	-11.4625
ls	-11.4627
▁scan	-11.4628
aandoening	-11.4629
▁depressie	-11.4647
▁plasmocytose	-11.465
▁vu	-11.4656
▁colonpoliep	-11.466
▁antistoffen	-11.4671
ping	-11.468
▁fossa	-11.4681
ist	-11.4685
achter	-11.4687
tussen	-11.4696
jsl	-11.4705
weefselversterf	-11.4706
▁afgerond	-11.4706
▁bekledend	-11.4706
▁obstipatie	-11.4706
pil	-11.4712
▁submucosale	-11.4714
▁structuur	-11.4715
vene	-11.4717
ransformatiezone	-11.4721
▁ophopingen	-11.4726
▁verdeling	-11.4731
▁gemacereerd	-11.4743
▁vulvabiopt	-11.475
▁haemo	-11.4752
▁conclusief	-11.4755
hondrodermatitis	-11.4755
bronchiectasieen	-11.4758
uitgebreide	-11.4759
▁emv	-11.4761
▁lichaampjes	-11.4761
jr	-11.4762
pitheeldysplasie	-11.4768
▁cellulair	-11.4771
iswaar	-11.4772
name	-11.4772
nve	-11.4776
▁crypt	-11.4779
ntractietoestand	-11.4783
▁procent	-11.4789
▁verliep	-11.4789
▁urogenitalis	-11.4789
▁umbilicalis	-11.4789
▁sufheid	-11.4789
▁cornu	-11.4789
▁afdoende	-11.4789
▁heupfractuur	-11.4789
▁fgf	-11.479
▁drietakslijden	-11.479
▁processen	-11.4792
▁multiorgaan	-11.4795
▁inclusiecyste	-11.4795
inclusief	-11.4797
nemen	-11.4798
overige	-11.4798
▁voorbij	-11.4803
▁gespannen	-11.4808
▁linkszijdige	-11.4809
▁indruk	-11.4815
fr	-11.482
abl	-11.4821
▁elastisch	-11.4822
▁colorectaal	-11.4826
▁am	-11.483
▁trofoblast	-11.4833
▁aandoeningen	-11.4843
▁ged	-11.4844
veelal	-11.4853
▁intrahepatische	-11.4871
▁circulus	-11.4872
▁cirrhotisch	-11.4872
▁forensisch	-11.4872
▁kennelijk	-11.4872
▁streptococcen	-11.4872
▁hoeveelheden	-11.4872
▁inflammatie	-11.4872
▁prolifererend	-11.4872
▁mucoid	-11.4873
zak	-11.4878
▁helicobacters	-11.4878
▁darminhoud	-11.4879
▁fo	-11.4881
▁celpopulatie	-11.4882
▁vsd	-11.4882
reconstructie	-11.4883
virus	-11.4883
doodsoorzaak	-11.4884
▁marsh	-11.489
▁deletie	-11.489
▁glioblastoom	-11.4892
vasculaire	-11.4892
ori	-11.4898
bs	-11.4899
▁echt	-11.4907
hoofd	-11.491
▁referentie	-11.4911
ding	-11.4914
spatroon	-11.4914
▁relevant	-11.4927
▁steel	-11.4933
kleuringen	-11.4944
▁irritatie	-11.4955
▁purkinje	-11.4955
▁geinformeerd	-11.4956
▁sprietig	-11.4956
▁zodanig	-11.4956
▁gemeld	-11.4956
▁leiomyosarcoom	-11.4956
▁blaarvorming	-11.4956
▁gelig	-11.4957
▁bicuspide	-11.4962
▁botmetastasen	-11.4963
spoelvocht	-11.4967
▁wijten	-11.4969
codon	-11.497
▁infra	-11.497
uterine	-11.4972
thrombose	-11.4975
▁meso	-11.4981
▁weefsels	-11.4985
au	-11.499
cell	-11.4992
▁renaalcel	-11.4993
▁miltinfarct	-11.4998
▁fulminant	-11.5002
▁tumortje	-11.5002
jv	-11.5008
tion	-11.5012
andere	-11.5022
ub	-11.5023
▁pat	-11.5025
▁do	-11.5028
vet	-11.503
tic	-11.5032
side	-11.5036
drie	-11.5037
▁buizen	-11.5041
▁syndromale	-11.5041
▁zeggen	-11.5041
▁schedelbasis	-11.5041
▁haematomen	-11.5041
▁verkeerde	-11.5041
▁intracerebraal	-11.5042
▁klepafwijkingen	-11.5045
punt	-11.5059
sarcoom	-11.5059
lobulair	-11.5062
kh	-11.5064
nos	-11.507
▁cutaan	-11.507
▁liep	-11.5078
▁duct	-11.5087
▁vals	-11.5088
▁gebruikt	-11.5092
▁nsaid	-11.5093
▁levermetastase	-11.5108
▁kidney	-11.5109
▁y	-11.5116
▁paro	-11.512
▁grijs	-11.5126
▁baby	-11.5126
safbreking	-11.5126
▁ascenderende	-11.5126
▁getromboseerd	-11.5126
▁hemochromatose	-11.5126
▁rheumatoid	-11.5126
▁warthin	-11.5126
▁uiterst	-11.5126
traprostatisch	-11.5127
▁hrhpv	-11.5128
postinflammatoir	-11.5155
▁radiatie	-11.5156
▁overhechting	-11.5158
stage	-11.5162
▁longbiopt	-11.5173
▁uitgebreider	-11.5176
ud	-11.5185
bacter	-11.5189
proliferatief	-11.5192
▁dubieu	-11.5193
▁second	-11.5194
▁transfusie	-11.5195
▁huidlaesie	-11.5204
▁allel	-11.5212
▁nodosum	-11.5212
▁bereikt	-11.5212
▁geresulteerd	-11.5212
▁onrijp	-11.5212
▁synovium	-11.5212
▁dwarsgestreept	-11.5212
▁enterocolitis	-11.5212
▁sondevoeding	-11.5212
▁verscheiden	-11.5212
▁microthrombi	-11.5213
▁colonmucosa	-11.5219
▁functionerend	-11.5221
borst	-11.5227
anamnese	-11.5229
▁konklusie	-11.5229
▁voorgelegd	-11.5231
▁zelfs	-11.5234
syn	-11.5237
kwaliteit	-11.5239
▁gronden	-11.5239
pool	-11.524
▁enzym	-11.5253
▁species	-11.5255
hersenmetastasen	-11.526
▁achterlip	-11.5274
▁ata	-11.5275
▁vervolg	-11.5282
▁beinvloed	-11.5299
▁corpora	-11.5299
▁interstitial	-11.5299
los	-11.53
▁preterminale	-11.5302
▁overplaatsing	-11.5302
▁vindt	-11.5303
uurs	-11.5305
▁geleidelijk	-11.5305
perifolliculitis	-11.5306
▁opties	-11.5307
▁intraductal	-11.5315
centrische	-11.5318
wo	-11.532
▁renales	-11.5322
risk	-11.5322
▁drains	-11.5326
▁kl	-11.5342
▁angioinvasie	-11.5345
▁jonger	-11.5355
▁ch	-11.5357
▁voorlip	-11.5358
verk	-11.5366
▁water	-11.5372
▁reuscel	-11.5373
aneurysma	-11.5383
staande	-11.5384
▁rontgen	-11.5387
▁blanke	-11.5387
▁volvulus	-11.5387
▁pleurabladen	-11.5388
▁myocyten	-11.5392
▁maal	-11.5397
kra	-11.5401
mediadegeneratie	-11.5402
▁galgangen	-11.5413
▁epitheliaal	-11.5413
duodenum	-11.5419
egfr	-11.5423
oesophagus	-11.5423
▁linkermamma	-11.5428
▁harthelft	-11.5431
▁prominent	-11.5431
ratie	-11.5437
▁fenomeen	-11.5445
▁jbz	-11.5449
lopend	-11.5452
▁partieel	-11.5453
gaan	-11.5465
bio	-11.5467
▁aberrant	-11.5476
▁embryonal	-11.5476
▁ossale	-11.5476
▁solutio	-11.5476
stuitlengte	-11.5476
▁vertoont	-11.5476
▁macronodulair	-11.5476
▁dikkedarm	-11.5477
▁ong	-11.5482
▁occlusies	-11.5483
toir	-11.5483
dia	-11.5484
▁klaagde	-11.5488
lok	-11.5491
▁wonden	-11.5505
gebieden	-11.5505
pas	-11.5511
▁tenen	-11.5512
▁uitend	-11.5513
kant	-11.5515
primair	-11.5516
▁nachts	-11.552
zijdig	-11.5521
fibrillaire	-11.5523
▁abortus	-11.5525
▁fa	-11.5529
▁ingesteld	-11.5548
▁temperatuur	-11.5548
▁vegetatie	-11.5551
gal	-11.5551
▁verhouding	-11.5557
▁maakte	-11.5565
▁gereseceerd	-11.5565
▁mengflora	-11.5565
▁mismatch	-11.5565
▁leuko	-11.5565
▁arteriopathie	-11.5566
▁vaatstructuren	-11.5566
▁cutaneum	-11.5566
▁bouw	-11.5566
▁drievats	-11.5566
haardje	-11.557
▁glomerulaire	-11.5575
▁opge	-11.5578
▁verwachten	-11.5582
▁leptomeningeale	-11.5582
▁viscerale	-11.5587
▁adhesie	-11.5588
focaal	-11.56
▁radio	-11.5603
laaggradig	-11.5608
▁norm	-11.5632
▁genoemd	-11.5654
▁cirrotisch	-11.5655
▁gegroeid	-11.5655
▁insuline	-11.5655
▁mitotisch	-11.5655
▁monochoriale	-11.5655
▁rustig	-11.5655
▁strengileus	-11.5655
▁onopvallend	-11.5655
▁periportale	-11.5655
▁altijd	-11.5658
▁miss	-11.5659
bn	-11.5661
hoek	-11.5663
▁longarterien	-11.5671
skh	-11.5673
▁gezamenlijk	-11.5674
dis	-11.5675
trans	-11.5681
▁nootmuskaat	-11.5682
▁ms	-11.5686
▁vervangen	-11.5689
▁bijpassend	-11.5691
ris	-11.5691
▁autosomaal	-11.5692
▁tesamen	-11.5696
glu	-11.5699
▁cells	-11.5705
hier	-11.5714
▁scopie	-11.5715
▁breslowdikte	-11.5716
▁denk	-11.5719
oesofagusvarices	-11.5723
rectumslijmvlies	-11.5724
▁leukemische	-11.5726
▁ondersteunen	-11.5728
▁uitgaand	-11.5729
▁contusie	-11.5732
▁zit	-11.5732
uebloeding	-11.5738
▁bloedingsrest	-11.5739
ther	-11.574
▁basocellulare	-11.5746
▁callosum	-11.5746
▁caput	-11.5746
▁gevraagd	-11.5746
▁teratoom	-11.5746
▁toezending	-11.5746
▁epilepticus	-11.5746
▁liposarcoom	-11.5746
▁frontoparietaal	-11.5746
▁hemiparese	-11.5746
▁polypeus	-11.5746
▁tongrand	-11.5747
schade	-11.5747
mantelcellymfoom	-11.5747
▁parasieten	-11.5747
▁stabiele	-11.5748
mid	-11.575
▁ratio	-11.5753
▁omvang	-11.5755
▁rechterbeen	-11.5759
▁linkerbeen	-11.5762
▁weten	-11.5764
▁defecten	-11.5766
▁pneumonitis	-11.5773
▁bacteriologisch	-11.5779
slecht	-11.5782
▁blastaire	-11.5782
▁cis	-11.5786
plooi	-11.5795
empyeem	-11.5796
gradering	-11.5798
macroscopisch	-11.5798
▁zenuw	-11.5799
art	-11.5807
▁cti	-11.5811
toestand	-11.5818
uitstrijk	-11.5822
dh	-11.5825
naad	-11.5831
▁verpleeghuis	-11.5836
▁berichtgeving	-11.5838
▁getracht	-11.5838
▁hormonale	-11.5838
▁ossaal	-11.5838
▁versterkt	-11.5838
blok	-11.5838
▁bioprothese	-11.5838
ewustzijnsdaling	-11.584
▁tijdelijk	-11.584
kel	-11.5842
lichaamsarterien	-11.5843
▁leken	-11.5844
▁spoelcellige	-11.5846
▁opstijgend	-11.5847
omen	-11.5848
▁huidre	-11.5853
heden	-11.5871
▁gvhd	-11.5879
▁verbreding	-11.5879
▁hartkamers	-11.5881
▁iliacaal	-11.5887
slag	-11.5894
angiogram	-11.5894
oestrogeen	-11.5894
bacteriele	-11.5894
stansbiopsie	-11.5898
▁eosinofiel	-11.5901
opening	-11.5905
▁werk	-11.5906
typeslijmvlies	-11.5908
▁centimeter	-11.5913
▁ontslag	-11.5917
▁pseudocyste	-11.5923
▁serie	-11.5925
▁ablatie	-11.5929
▁samenhangen	-11.5929
▁nicotine	-11.593
▁funiculitis	-11.593
▁twaalf	-11.593
▁bijmenging	-11.593
▁mastopathie	-11.593
▁voelde	-11.593
▁droog	-11.593
▁polyposis	-11.593
▁heupkop	-11.5931
▁aanvoelend	-11.5931
▁lymfomen	-11.5931
▁adherent	-11.5932
▁reageerde	-11.5935
leu	-11.5936
▁hoogst	-11.5937
▁plekken	-11.5943
▁adenose	-11.5946
▁mitraal	-11.595
▁tumormetastase	-11.5951
▁vinger	-11.5952
▁sle	-11.5954
▁afplatting	-11.5956
▁hyperkaliemie	-11.596
tia	-11.596
resp	-11.5975
▁hartmann	-11.5978
▁sonde	-11.598
ila	-11.5986
▁duim	-11.5991
sudaat	-11.5999
▁hoofdbronchi	-11.601
▁pomp	-11.6018
tica	-11.602
▁uitgezet	-11.6023
▁antracose	-11.6024
▁beklemd	-11.6024
▁ontregeling	-11.6024
▁opgevraagd	-11.6024
▁sclerodermie	-11.6024
▁tubectomie	-11.6024
▁eiwitten	-11.6025
▁biliaire	-11.6026
▁mutatieanalyse	-11.6029
▁hematogeen	-11.603
rechteronderbeen	-11.6034
▁erfelijk	-11.6045
ypt	-11.6046
nm	-11.6046
sinfiltraten	-11.6057
beide	-11.6063
▁dwars	-11.6066
rca	-11.6067
▁arachnoidea	-11.6068
▁corpusbiopten	-11.6077
▁ao	-11.6082
licht	-11.6084
tijd	-11.6086
hyper	-11.6091
tvu	-11.6093
▁anterieure	-11.6104
▁begrensde	-11.6106
▁maagcardia	-11.6112
comp	-11.6113
▁nsclc	-11.6114
▁aanwijsba	-11.6118
▁haematurie	-11.6118
▁plaatsvinden	-11.6118
kalenderleeftijd	-11.6118
▁dientengevolge	-11.6118
▁irradicaal	-11.6118
▁pneumocystis	-11.6118
▁lumenvernauwing	-11.6118
hemihepatectomie	-11.6119
▁geacht	-11.6119
▁biventriculair	-11.6119
▁restlumina	-11.6119
lymfklieren	-11.6124
asp	-11.6126
▁host	-11.6126
sstoornissen	-11.6131
▁breed	-11.6132
pitheelcarcinoom	-11.6135
▁effecten	-11.6141
▁ochtends	-11.616
morbu	-11.6161
weg	-11.6165
▁pleksgewij	-11.6166
▁varianten	-11.6176
papillair	-11.6186
vanwege	-11.6189
arteria	-11.6189
▁recidiverend	-11.6189
▁toeval	-11.6197
itiele	-11.6212
▁acanthose	-11.6213
▁annulus	-11.6213
▁bursa	-11.6213
▁pitting	-11.6213
▁toegediend	-11.6213
▁hemisferen	-11.6213
▁weegt	-11.6213
▁cardioloog	-11.6213
▁elektronen	-11.6214
▁okselvet	-11.6214
▁borg	-11.6215
▁hartritme	-11.6215
▁stop	-11.6216
▁fisteling	-11.6221
circumferentieel	-11.6225
ces	-11.6227
▁adem	-11.6233
▁augmentin	-11.6244
▁bcc	-11.6244
▁overgangse	-11.6248
▁pneumo	-11.6253
▁leverfibrose	-11.6255
iaal	-11.6262
abces	-11.6263
▁poliepjes	-11.6266
▁ruimer	-11.6267
▁bloedig	-11.6271
lip	-11.6274
▁huidafwijkingen	-11.6277
▁trap	-11.6277
endo	-11.6282
▁afd	-11.6282
iliacaal	-11.6283
▁eosinofielen	-11.6288
▁mg	-11.6295
infarctlittekens	-11.6295
calci	-11.63
▁colonbiopt	-11.6301
▁buikoperatie	-11.6304
▁georganiseerd	-11.6306
▁transurethra	-11.6307
▁betekent	-11.6309
▁massieve	-11.6309
▁oorzakelijk	-11.6309
▁restrictie	-11.6309
▁rosacea	-11.6309
▁frontotemporale	-11.6309
▁aangetast	-11.6309
▁gemengdcellig	-11.6309
▁femurfractuur	-11.631
▁vergelijkbaar	-11.631
▁cardiologie	-11.631
▁duodenitis	-11.631
▁renis	-11.6313
omateuze	-11.6319
▁ontslagen	-11.6323
▁mammapunctie	-11.6325
▁bijbevindingen	-11.633
dic	-11.6341
defect	-11.6343
fen	-11.6344
▁rechtermamma	-11.6345
pathologisch	-11.6348
cys	-11.6358
voer	-11.636
▁verk	-11.6362
cir	-11.6363
▁laceratie	-11.6364
▁gelijk	-11.6369
▁lager	-11.6375
post	-11.6377
▁gemodificeerde	-11.6378
coronairsclerose	-11.6391
pakket	-11.6396
arg	-11.6398
septaal	-11.6402
tumordiameter	-11.6403
▁alpha	-11.6406
spondylodiscitis	-11.6406
▁bewerkt	-11.6406
▁bovinum	-11.6406
▁circumscript	-11.6406
▁gezorgd	-11.6406
▁hemodialyse	-11.6406
▁plaatsvond	-11.6406
▁vertonen	-11.6406
▁orchidectomie	-11.6406
antitrypsine	-11.6407
▁medebeoordeeld	-11.6407
epitheelcellen	-11.6412
▁side	-11.6418
fre	-11.6427
▁drukken	-11.6428
loze	-11.6432
hand	-11.6432
▁obturatorius	-11.6437
▁med	-11.6442
hotr	-11.6447
vaatproliferatie	-11.6456
rw	-11.6461
▁kant	-11.6462
dag	-11.6477
▁vf	-11.6478
▁gebouwd	-11.6479
ral	-11.648
sv	-11.6485
bodem	-11.6486
variant	-11.6491
trombose	-11.6493
pleuraholte	-11.6493
kort	-11.6494
▁invloed	-11.6497
▁proliferatief	-11.65
▁haemorrhagie	-11.6501
▁huidafwijking	-11.6503
▁hoorn	-11.6503
▁ledematen	-11.6504
▁ongewoon	-11.6504
▁sporen	-11.6504
▁cellulitis	-11.6505
▁helicis	-11.6505
▁oplevert	-11.6505
▁endocardiale	-11.6505
▁lichenoa	-11.6506
▁fronto	-11.6506
▁cysticus	-11.6509
▁linkerschouder	-11.6511
▁neuroom	-11.6511
▁niercyste	-11.6511
▁opgesneden	-11.6511
▁bloedstuwing	-11.6516
▁thromboemboli	-11.6518
yl	-11.6524
gesteld	-11.6531
▁lijnen	-11.6532
lima	-11.6544
tekening	-11.6545
inde	-11.6551
hartspiernecrose	-11.6551
naar	-11.6555
▁schatting	-11.6557
reerd	-11.6572
▁toediening	-11.658
▁pea	-11.6581
▁rechtercoronair	-11.6583
takken	-11.6584
coecum	-11.6594
medicamenteuze	-11.6595
bed	-11.6596
▁septale	-11.6597
rond	-11.6599
▁adherente	-11.6601
▁meningo	-11.6602
▁kortademig	-11.6603
▁sjogren	-11.6603
▁coprostase	-11.6603
▁haematopoese	-11.6603
▁initieel	-11.6603
▁pericolisch	-11.6603
▁vlok	-11.6606
▁loopt	-11.6607
▁opmerkelijke	-11.6608
▁abcesholte	-11.6609
amnionitis	-11.6612
▁verlengde	-11.662
▁huidcurettement	-11.6623
▁hotspots	-11.6625
vaat	-11.6626
▁pet	-11.663
▁schouderbladen	-11.6636
▁hormoonreceptor	-11.6637
▁emd	-11.6642
▁car	-11.6654
thromboembolieen	-11.6666
litis	-11.6666
histo	-11.6667
▁bovenooglid	-11.6669
stoma	-11.6685
ler	-11.6686
wal	-11.6699
▁gedissemineerde	-11.6699
▁gedraineerd	-11.6703
▁huntington	-11.6703
▁inoperabel	-11.6703
▁microkalk	-11.6703
▁palpabel	-11.6703
▁begonnen	-11.6704
▁chronicus	-11.6704
▁vruchtholte	-11.6704
▁arteriolen	-11.6705
▁weefselverval	-11.6706
▁doorgesneden	-11.6706
▁caverneus	-11.6708
cy	-11.671
host	-11.6713
▁reductie	-11.6714
▁littekengebied	-11.6727
erzorgingsgebied	-11.6727
▁oren	-11.6727
tenzij	-11.6729
▁polymorfe	-11.6733
▁lymforeticulair	-11.6737
ctie	-11.674
▁aspiraat	-11.6745
▁coagulatie	-11.6747
mortale	-11.6759
behoeftig	-11.6766
▁risk	-11.6771
kapsel	-11.6772
ih	-11.6778
▁ante	-11.6794
▁smal	-11.6797
▁atn	-11.6798
▁concentratie	-11.6798
pigment	-11.6803
nefrosclerose	-11.6804
▁condyloma	-11.6804
frontaal	-11.6804
▁gepland	-11.6804
▁legionella	-11.6804
▁lengtematen	-11.6804
▁zichtbare	-11.6804
▁serologie	-11.6805
oesophageale	-11.6805
▁diepreikend	-11.6805
chirurgie	-11.6806
holten	-11.6814
▁uitname	-11.6814
▁lichtmicroscopi	-11.6816
▁begrensd	-11.6817
dcis	-11.6821
comple	-11.6828
▁ba	-11.6832
▁microangiopathi	-11.6835
basaalcel	-11.6838
▁geleverd	-11.6844
▁episodes	-11.6844
▁even	-11.6846
rg	-11.6856
▁mono	-11.6863
port	-11.6863
▁stuit	-11.6868
logie	-11.688
▁gestuurd	-11.6882
▁beiden	-11.6883
pass	-11.6885
▁geinduceerde	-11.689
▁degeneratief	-11.6892
▁ongoing	-11.6898
ificeerd	-11.6899
gastrointestinal	-11.69
▁vertoonde	-11.69
og	-11.6902
▁gevoed	-11.6907
▁verondersteld	-11.6907
▁lactaatacidose	-11.6907
▁prostatica	-11.6907
▁ingedikt	-11.6907
▁epiglottis	-11.6907
cholesterolaemie	-11.6907
▁afgegeven	-11.6907
placenta	-11.6907
▁gave	-11.6908
▁neoadjuvant	-11.6908
▁wigvormig	-11.6909
▁gladde	-11.6912
tekenen	-11.6913
basaloid	-11.6914
vrij	-11.6917
pero	-11.6926
▁potje	-11.6934
▁pancreasweefsel	-11.6937
▁histiocytoom	-11.694
▁kuur	-11.6942
mv	-11.6944
▁asd	-11.6944
▁alsnog	-11.6946
▁hashimoto	-11.6948
▁baso	-11.6953
▁placentarest	-11.6953
deposities	-11.6956
▁haargrens	-11.6957
▁centrilobulaire	-11.696
gem	-11.6962
▁staart	-11.6962
ini	-11.6965
adeno	-11.6969
infarceringen	-11.697
▁fuhrman	-11.6974
stroom	-11.6978
▁heftige	-11.6989
▁puspocket	-11.6992
▁puntje	-11.6993
▁tibia	-11.7
ovarieel	-11.701
▁discreet	-11.701
▁hamartoom	-11.701
▁hypercalciemie	-11.701
▁verbreed	-11.701
▁blind	-11.701
▁steatotisch	-11.701
▁shift	-11.701
▁transuretra	-11.701
▁voorhanden	-11.701
▁vaatstelsel	-11.701
▁midline	-11.701
▁avitaal	-11.7011
▁radiculaire	-11.7014
▁onderkaak	-11.7015
▁insufficiente	-11.7015
bruin	-11.7016
buisprothese	-11.7017
longoedeem	-11.7019
fish	-11.7021
septumdefect	-11.7023
▁novo	-11.7025
nooit	-11.7026
▁zelfde	-11.7034
▁hevige	-11.7038
▁longbiopten	-11.7047
▁vera	-11.7051
▁lytisch	-11.7054
plak	-11.7059
mbr	-11.7067
waar	-11.7073
▁gna	-11.7075
▁componenten	-11.7082
▁levernaaldbiopt	-11.7086
rood	-11.7086
▁mola	-11.7094
▁hilair	-11.7098
▁karakteristiek	-11.7099
ary	-11.7099
▁maagcorpustype	-11.7104
▁beademings	-11.7104
chien	-11.7106
morf	-11.7108
stb	-11.7112
▁verward	-11.7113
▁rekanalisatie	-11.7114
▁separate	-11.7114
▁purpura	-11.7115
localisaties	-11.7115
▁kleplijden	-11.7116
▁knieprothese	-11.7116
▁aangeboren	-11.7117
spasme	-11.7117
▁valvula	-11.7118
fase	-11.7119
mvg	-11.712
eleidingssysteem	-11.7122
▁longziekte	-11.7124
pleura	-11.7125
rd	-11.7125
centraal	-11.7126
naevus	-11.7126
radicaal	-11.7127
aanwijzingen	-11.7127
darmkanaal	-11.7128
lymfangioinvasie	-11.7129
▁hoofdbronchien	-11.7129
matige	-11.714
▁ventriculi	-11.7143
tatie	-11.7155
▁postero	-11.7165
▁pati	-11.7167
▁obstruerend	-11.7172
▁stasis	-11.7182
gering	-11.7191
cis	-11.7201
send	-11.7208
▁angiografie	-11.7208
▁snijden	-11.7213
▁or	-11.7215
▁basaalmembraan	-11.7219
▁betrekkelijk	-11.7219
▁lichaamsmaten	-11.7219
▁major	-11.7219
▁ongebruikelijk	-11.7219
▁paget	-11.7219
reanimatiepoging	-11.722
▁subacuut	-11.722
▁vrijgegeven	-11.7223
▁gere	-11.7223
▁cystectomie	-11.7224
uevorming	-11.7226
▁fibrosehaardjes	-11.7227
▁zijsnijvlakken	-11.7227
▁aansluiting	-11.7228
▁vats	-11.723
verval	-11.7233
lap	-11.7233
transplantaat	-11.7234
▁voortgeschreden	-11.7235
▁longtop	-11.7236
fibroserende	-11.7236
macrofagen	-11.7236
▁opgelopen	-11.7239
▁krabeffect	-11.7244
tumortype	-11.7248
zuur	-11.7251
laparotomie	-11.726
fo	-11.7265
▁ana	-11.7267
▁bijdragende	-11.7276
▁fibrinoide	-11.7281
▁restlokalisatie	-11.7282
▁pompfunctie	-11.7286
▁by	-11.7305
trof	-11.7306
▁reiken	-11.7308
cop	-11.7323
▁reperfusie	-11.7325
▁cocaine	-11.7325
▁celgroepen	-11.7325
▁herkennen	-11.7325
▁langzaam	-11.7325
▁nieman	-11.7325
▁schizofrenie	-11.7325
▁stigmata	-11.7325
▁merendeel	-11.7326
▁portio	-11.7326
▁pancreaticus	-11.7326
▁placentabed	-11.7329
▁angioom	-11.7329
vezel	-11.7332
▁aanvragend	-11.7335
▁darmlijden	-11.7337
▁darmlis	-11.7337
focus	-11.7338
▁krabeffecten	-11.7339
▁mors	-11.7341
celpercentage	-11.7343
catheter	-11.7344
hospital	-11.7347
▁bijgevoegd	-11.735
▁opmerking	-11.7351
▁levernecrose	-11.7356
▁krappe	-11.7364
▁nierweefsel	-11.7373
▁blijvende	-11.7375
▁hematologische	-11.7378
lv	-11.7379
▁hartafwijkingen	-11.738
▁coronairstenose	-11.7395
rc	-11.7399
▁ben	-11.7411
▁aangevuld	-11.7412
▁concentrisch	-11.7413
cellulair	-11.7415
▁pulmonair	-11.742
▁tumornecrose	-11.7422
dna	-11.7424
▁regeneratie	-11.7432
rijgingstechniek	-11.7433
▁hybridisatie	-11.7433
▁nodosa	-11.7433
▁ontwikkelt	-11.7433
▁vaatspasmen	-11.7433
▁straat	-11.7433
▁thrombopenie	-11.7433
▁error	-11.7433
▁liezen	-11.7433
▁limbisch	-11.7433
▁hoornmateriaal	-11.7434
wille	-11.7435
bv	-11.7436
▁tumordoorgroei	-11.7439
▁uitslagen	-11.7455
▁hechtingen	-11.7456
spoliep	-11.7458
vacuolair	-11.7459
jaren	-11.746
lymfocyten	-11.746
implantatie	-11.7461
▁cystewand	-11.7461
▁plooi	-11.748
▁compartiment	-11.7481
cisiemateriaal	-11.7486
cz	-11.7488
▁verschil	-11.7501
▁insula	-11.7502
vallen	-11.7506
neoplastisch	-11.7513
jbe	-11.7517
▁colli	-11.7519
periventriculair	-11.7521
▁bied	-11.7533
eku	-11.7536
▁onderkwadrant	-11.7542
▁universitair	-11.7542
▁verhaal	-11.7542
▁clonale	-11.7542
▁halve	-11.7542
▁mucocele	-11.7542
▁geweld	-11.7542
▁plus	-11.7542
▁mdo	-11.7548
▁risicofactoren	-11.7549
beenmergaspiraat	-11.7551
▁zwarte	-11.7552
opathie	-11.7554
▁optimal	-11.7555
aj	-11.7565
embolisatie	-11.7568
▁bundel	-11.7569
stomp	-11.757
▁intramurale	-11.7571
benigne	-11.7574
▁zitten	-11.7574
mediale	-11.7575
geleid	-11.7578
▁ven	-11.7582
▁adrenaline	-11.7586
loos	-11.7587
stens	-11.7587
situ	-11.7588
vari	-11.759
lms	-11.7593
▁zon	-11.7594
behaarde	-11.7595
low	-11.7616
adjuvante	-11.7628
▁canule	-11.7628
venen	-11.7631
▁bestralings	-11.7636
▁band	-11.7641
mf	-11.7644
zicht	-11.765
▁geimplanteerd	-11.7652
▁interpreteren	-11.7652
▁verloren	-11.7652
▁tevoren	-11.7652
▁celverval	-11.7652
▁myelodysplasie	-11.7652
▁retroauriculair	-11.7653
▁neurologie	-11.7653
▁pms	-11.7656
▁dysmorfieen	-11.7657
▁poliepeuze	-11.7657
basis	-11.7659
▁darmmucosa	-11.766
▁rectumamputatie	-11.766
▁ubi	-11.7661
reid	-11.7661
▁eeg	-11.7662
▁dubbelzijdig	-11.7667
▁chemisch	-11.7668
▁capsula	-11.767
▁smalle	-11.7673
laire	-11.7674
▁preputium	-11.7682
▁point	-11.7682
▁pancreatico	-11.7683
vats	-11.7685
lekkage	-11.7688
vriescoupe	-11.7688
secundair	-11.7689
middenkwab	-11.7689
diffuse	-11.7689
heli	-11.7699
pathologische	-11.7704
▁tweetaks	-11.7704
cid	-11.7715
scheur	-11.7717
ieve	-11.7719
lichaampjes	-11.7719
positie	-11.7733
etale	-11.7735
tig	-11.7739
druk	-11.7742
overgang	-11.7743
verschijnselen	-11.7746
pot	-11.775
ijk	-11.775
▁behandelen	-11.7756
bovenarm	-11.7757
flank	-11.7757
▁rou	-11.7759
zien	-11.7761
duur	-11.7762
▁instrumenta	-11.7762
▁follow	-11.7763
▁achterhaald	-11.7763
▁cloacae	-11.7763
▁diathese	-11.7763
▁endometriosis	-11.7763
▁obliterans	-11.7763
▁parkinsonisme	-11.7763
▁rechteratrium	-11.7763
▁rubriek	-11.7763
▁uitgelokt	-11.7763
▁lineaire	-11.7763
▁mycotisch	-11.7763
▁cytokeratine	-11.7763
▁kaakhoek	-11.7763
▁streptokokken	-11.7763
▁vaginatop	-11.7763
▁rectumstomp	-11.7764
▁hyperaemie	-11.7765
▁jong	-11.7776
▁apc	-11.778
▁bronchiale	-11.7793
▁intraductaal	-11.7795
▁epitheelcellen	-11.7797
ekend	-11.7799
▁vaster	-11.78
▁schoon	-11.7801
▁blaasbiopt	-11.7802
▁liggend	-11.7802
pseudo	-11.7804
lam	-11.7804
sneevlakken	-11.7805
behandeld	-11.7805
▁ontwikkelings	-11.7806
mediaan	-11.7807
zw	-11.7808
▁hoek	-11.781
minimale	-11.7812
▁verschijnsel	-11.7814
nst	-11.7814
solid	-11.7826
▁tricho	-11.7827
wonden	-11.7827
urie	-11.7828
▁plek	-11.7838
▁vlekkerige	-11.7845
ish	-11.7851
▁waarde	-11.7853
cht	-11.7853
ild	-11.7855
aard	-11.787
▁utero	-11.7873
schouder	-11.7873
▁atheromatose	-11.7875
▁delirant	-11.7875
▁gebaseerd	-11.7875
▁hematemesis	-11.7875
▁pyelitis	-11.7875
▁hemorrhagie	-11.7875
▁distress	-11.7875
▁symmetrische	-11.7875
motiliteit	-11.7875
▁binnengebracht	-11.7875
▁angiolipoom	-11.7875
▁arterietak	-11.7877
▁overgaand	-11.7879
pn	-11.7884
▁transplantaat	-11.7892
▁parese	-11.7892
cellig	-11.7898
▁essentie	-11.7903
gerelateerde	-11.7905
▁kleinst	-11.7919
beenmerg	-11.7921
▁bovenstaand	-11.7922
mpo	-11.7925
peritoneum	-11.7926
tam	-11.7928
▁oplopend	-11.7938
ko	-11.7953
▁fna	-11.7954
▁lyse	-11.7968
▁residu	-11.797
ret	-11.7971
▁zones	-11.7976
kamer	-11.7978
▁ih	-11.798
▁conjunctiva	-11.7989
▁daags	-11.7989
▁hieromheen	-11.7989
▁mesencefalon	-11.7989
▁pericardzakje	-11.7989
▁locoregional	-11.7989
▁nefrolithiasis	-11.7989
▁braaksel	-11.7989
▁massawerking	-11.7989
▁herhaaldelijk	-11.7989
▁paratracheale	-11.7989
▁cytonucleair	-11.799
▁linkeronderbeen	-11.7991
derdegraads	-11.7991
▁src	-11.7993
▁parameters	-11.7993
▁hpf	-11.7994
ici	-11.7995
▁reagerend	-11.8005
tru	-11.8008
granuloomvorming	-11.8008
▁traumatisch	-11.8028
breuk	-11.8039
decompensatio	-11.8042
glandula	-11.8042
zover	-11.8047
mis	-11.8048
lang	-11.8049
▁target	-11.805
▁longpathologie	-11.805
▁systemisch	-11.8051
ocrien	-11.8054
embolisch	-11.8063
embolietjes	-11.8063
▁vloeistof	-11.8064
thr	-11.807
satypie	-11.8071
clusie	-11.8074
▁lung	-11.8087
▁comm	-11.8087
kenmerken	-11.8088
▁dermat	-11.8088
rk	-11.8089
cerebellaire	-11.8092
spraak	-11.8095
▁clonaliteits	-11.8098
▁streptococ	-11.8103
▁ajcc	-11.8104
▁gebiopteerd	-11.8104
▁polyneuropathie	-11.8104
▁submandibulair	-11.8104
▁zonbeschadigd	-11.8104
▁monotypisch	-11.8104
▁ontbinding	-11.8104
▁zichzelf	-11.8104
▁afgewerkt	-11.8104
▁beenvenen	-11.8104
myco	-11.8106
femorale	-11.8107
▁leversteatose	-11.8109
echter	-11.8116
lia	-11.8117
▁aangeleverde	-11.8133
fac	-11.8137
appendicitis	-11.8137
▁zn	-11.8141
▁longinfarcten	-11.8141
▁aangepast	-11.8146
▁kuren	-11.8154
grade	-11.8155
▁medullair	-11.816
topografie	-11.8161
pathogene	-11.8162
geassocieerd	-11.8162
▁mammanaaldbiopt	-11.8164
specifiek	-11.8164
anale	-11.8167
▁gemiddeld	-11.817
anti	-11.8176
▁sca	-11.8177
card	-11.8187
mode	-11.819
nh	-11.8197
maar	-11.8201
▁follikel	-11.8201
▁gas	-11.8206
▁marker	-11.8208
fil	-11.8211
aw	-11.8213
bet	-11.8215
cardia	-11.8219
uro	-11.8219
▁crusta	-11.8219
▁formaline	-11.822
▁insectenbeet	-11.822
▁echtgenote	-11.822
▁eetlust	-11.822
▁endometroid	-11.822
▁makkelijk	-11.822
▁oedemen	-11.822
▁respiratorius	-11.822
▁tracheitis	-11.822
▁haematopoiese	-11.822
mplise	-11.822
▁luidt	-11.822
▁subserosale	-11.8221
▁ulcusbodem	-11.8222
▁vermelden	-11.8224
▁verslechterend	-11.8224
flo	-11.8224
▁inclusie	-11.8225
erbloedingsshock	-11.8226
clone	-11.8229
▁ileumslijmvlies	-11.8244
zing	-11.8251
▁intake	-11.8256
tamponade	-11.8263
▁inhechting	-11.8278
▁shockbeeld	-11.828
▁left	-11.828
▁loslating	-11.8282
bijvoorbeeld	-11.8284
cervi	-11.8284
casus	-11.8284
cabg	-11.8284
metaplasie	-11.8284
iliacale	-11.8285
fusie	-11.8287
vormend	-11.8287
anatomische	-11.8291
▁zgn	-11.8293
kleur	-11.8295
▁nasolabiaal	-11.8296
wij	-11.8299
▁herhaald	-11.8308
▁stand	-11.831
▁herzfehler	-11.8311
▁gastric	-11.8315
acht	-11.8317
▁onderzoeken	-11.8317
▁mat	-11.8318
waarde	-11.832
gist	-11.8322
▁tracheo	-11.8323
▁keel	-11.8332
▁rec	-11.8332
▁consistent	-11.8334
▁onderscheiden	-11.8336
▁zag	-11.8337
▁euthanasie	-11.8338
▁gemelli	-11.8338
▁geobstrueerd	-11.8338
▁gepresenteerd	-11.8338
▁ontkleurd	-11.8338
▁rhabdomyolyse	-11.8338
gehypertrofieerd	-11.8338
▁endotheel	-11.8338
▁tegenstelling	-11.8338
▁daaropvolgend	-11.8338
▁sternumfractuur	-11.8338
▁vermis	-11.8339
▁parahippocampal	-11.8339
▁perirenaal	-11.8339
▁gliale	-11.834
▁malt	-11.8342
▁linkerbovenbeen	-11.8346
▁reuma	-11.8347
▁dehiscentie	-11.8348
▁ov	-11.8349
cerebrovasculair	-11.835
oorzaak	-11.8353
▁acantholytische	-11.8361
▁tumorembolieen	-11.8363
ard	-11.8364
▁respiratory	-11.8365
▁blaastumor	-11.8368
▁infarctgebieden	-11.8369
▁hartklep	-11.8373
▁brengen	-11.8374
▁catecholamine	-11.838
transversum	-11.8382
ondermeer	-11.839
cli	-11.8395
bb	-11.8396
plaatsing	-11.8403
coll	-11.8403
▁pu	-11.8404
▁birads	-11.8406
spontaan	-11.8407
into	-11.8407
pancreas	-11.8407
distaal	-11.8408
mediaal	-11.8411
maken	-11.8413
tum	-11.8416
laesies	-11.8418
▁pleurabiopten	-11.8418
▁bestraald	-11.8421
▁micrografi	-11.8425
▁groeide	-11.8441
▁icterisch	-11.8449
▁belast	-11.8451
▁gelaagd	-11.8456
tentoriele	-11.8456
▁afgeplat	-11.8457
▁cyanose	-11.8457
▁gesuggereerd	-11.8457
▁leukocytose	-11.8457
▁ontdekt	-11.8457
▁mycosis	-11.8457
▁presternaal	-11.8458
▁orale	-11.8458
▁aneurysmatisch	-11.8459
▁special	-11.8461
▁microsatellitos	-11.8461
▁gezond	-11.8463
kk	-11.8463
▁monoclonale	-11.8463
▁urotheelcellen	-11.8464
▁kanaal	-11.8464
▁intracranial	-11.8464
▁antero	-11.8467
▁vaginale	-11.8472
▁fenotype	-11.8472
▁bio	-11.8473
lon	-11.8474
abc	-11.8479
▁zijranden	-11.848
fibro	-11.8483
▁hartschade	-11.8483
▁sepsismilt	-11.8485
▁bo	-11.8495
▁wilde	-11.8496
▁uterusresectie	-11.8497
▁zijresectievlak	-11.8499
▁spoelcellig	-11.85
▁evar	-11.85
cardio	-11.8503
▁rheuma	-11.851
▁vriesmateriaal	-11.8511
▁reusceltumor	-11.8514
cn	-11.8518
▁hy	-11.8518
waarden	-11.8532
▁blok	-11.8533
merg	-11.8533
atypisch	-11.8535
▁verslagen	-11.8536
▁nsip	-11.8538
rang	-11.8538
▁afm	-11.8539
thyroid	-11.8554
treffen	-11.8554
▁fiets	-11.8558
▁belemmering	-11.8559
▁ruimtes	-11.8565
sel	-11.8569
twee	-11.8569
bla	-11.857
oot	-11.8572
wijze	-11.8574
spieren	-11.8574
aneurysmavorming	-11.8576
▁bleven	-11.8577
▁demyelinisatie	-11.8577
▁fungoides	-11.8577
▁geneeskunde	-11.8577
▁hobbelig	-11.8577
▁pneumokokken	-11.8577
▁vloeibaar	-11.8577
▁zeldzaam	-11.8577
▁collageneuze	-11.8577
▁eilandjes	-11.8577
▁paravertebraal	-11.8577
▁galsteenlijden	-11.8577
▁membraan	-11.8577
▁verbloed	-11.8578
infrarenale	-11.8579
▁fistelvorming	-11.8581
▁gedissemineerd	-11.8582
myocard	-11.8583
▁bronchusbiopt	-11.8583
revisiemateriaal	-11.8584
▁bekleding	-11.8592
ologisch	-11.8597
ventriculaire	-11.8602
▁schwannoom	-11.8606
▁map	-11.8606
▁cag	-11.8607
▁ductcarcinoom	-11.8608
▁technisch	-11.8613
▁shocklever	-11.8614
▁bovenop	-11.8619
pto	-11.862
▁histochemisch	-11.8639
▁shavebiopt	-11.8651
poly	-11.8654
▁somatisch	-11.8655
▁positie	-11.8656
ongeval	-11.8656
schoon	-11.8657
waarbij	-11.8661
caudaal	-11.8661
vaf	-11.8662
▁arteriitis	-11.8666
duodenale	-11.8668
▁naschrift	-11.8671
ki	-11.8675
▁reageren	-11.8681
tief	-11.8683
▁oorspronkelijk	-11.8684
uz	-11.8684
▁omental	-11.8698
▁aanvoelende	-11.8698
cytair	-11.8699
plug	-11.8699
oesofageale	-11.8699
▁bejaarde	-11.8699
▁geschikt	-11.8699
▁krijgt	-11.8699
▁myelopoese	-11.8699
▁sinusoiden	-11.8699
▁suggereert	-11.8699
▁vergevorderd	-11.8699
▁fataal	-11.8699
▁stoppen	-11.8699
▁gebiedje	-11.8699
▁ziekelijk	-11.87
▁prepylorisch	-11.87
▁preterminaal	-11.87
▁hemibeeld	-11.8701
▁achterblijvend	-11.8702
▁bijnieradenoom	-11.8703
▁voeren	-11.8709
▁ademhalings	-11.8711
▁stereotactische	-11.8713
▁ta	-11.8719
blastair	-11.8721
▁si	-11.874
hiel	-11.8741
onderarm	-11.8741
lag	-11.8744
▁mw	-11.8748
▁vaatmalformatie	-11.8753
▁bv	-11.8754
sparameters	-11.8756
brengen	-11.8759
▁lysis	-11.8765
lies	-11.8767
ctische	-11.8773
▁ptag	-11.878
uenties	-11.878
placentaire	-11.8783
▁circum	-11.8787
mohs	-11.8787
flr	-11.8788
poliepje	-11.8804
fistel	-11.8804
diep	-11.8808
▁complicerende	-11.8809
▁levercel	-11.8811
▁wens	-11.8813
▁lob	-11.8819
renale	-11.882
▁ileo	-11.882
aangedane	-11.8822
▁aspergilloom	-11.8822
▁claudicatio	-11.8822
▁disarray	-11.8822
▁minuscule	-11.8822
▁monoklonal	-11.8822
▁onwelwording	-11.8822
▁panniculitis	-11.8822
▁premature	-11.8822
▁screenen	-11.8822
▁splitsing	-11.8822
▁verstuurd	-11.8822
▁anatomie	-11.8823
▁verbrede	-11.8823
ootmuskaataspect	-11.8823
mvdr	-11.8823
▁kaakrand	-11.8823
▁zegelring	-11.8823
lijst	-11.8823
▁houden	-11.8825
kop	-11.8827
▁ontwikkelende	-11.8827
▁pneumonisch	-11.8828
▁veldjes	-11.883
▁longembolisatie	-11.8833
▁hiel	-11.8834
▁vetembolieen	-11.8834
▁all	-11.8836
werking	-11.8839
zins	-11.884
▁infarcthaardjes	-11.8841
vloedbelemmering	-11.8846
goed	-11.8846
▁sy	-11.8847
▁tumordiameter	-11.8849
ron	-11.8852
▁not	-11.8863
endometrium	-11.887
like	-11.8878
ventriculair	-11.8879
ruim	-11.888
▁herhaalde	-11.8887
ulcus	-11.8907
▁grocott	-11.891
chop	-11.8912
elders	-11.8917
respons	-11.8917
virale	-11.8917
geheel	-11.8917
ttf	-11.8923
▁codon	-11.8927
▁spoelvocht	-11.8927
msa	-11.893
▁superficia	-11.8931
rode	-11.8932
angioinvasie	-11.8932
ted	-11.8933
▁verwikkeling	-11.8934
▁besch	-11.8939
▁buis	-11.8941
▁centro	-11.8946
▁elastine	-11.8947
▁cvvh	-11.8947
▁diarrhee	-11.8947
▁gebleken	-11.8947
▁gethromboseerd	-11.8947
▁kolonisatie	-11.8947
▁krijgen	-11.8947
▁weerhouden	-11.8947
▁rectus	-11.8947
▁molle	-11.8948
▁dundarm	-11.8948
▁genherschikking	-11.8948
▁tongbasis	-11.8948
▁cholesterolosis	-11.8948
▁dieptegroei	-11.8948
▁contrast	-11.8949
▁sperma	-11.8949
▁hypocellulair	-11.895
▁nabijheid	-11.8953
▁typeren	-11.8954
▁maagdarmkanaal	-11.8954
▁overgrijpend	-11.8956
▁huidfragment	-11.8962
▁additionel	-11.8963
▁zoon	-11.8965
doende	-11.8965
▁renaal	-11.8965
gezette	-11.8966
▁leverkapsel	-11.8968
▁afwachten	-11.8971
▁thoraco	-11.8977
▁consolidaties	-11.899
▁groepen	-11.9001
▁trigonum	-11.9015
▁decidua	-11.9015
▁herstelde	-11.9019
epithelioom	-11.902
ologi	-11.9024
▁iatrogeen	-11.9031
▁spitz	-11.9036
▁draden	-11.9037
nk	-11.9039
▁lopend	-11.9042
marsh	-11.9047
diverticulitis	-11.9049
▁bas	-11.9052
dg	-11.9053
▁cystadeno	-11.9059
▁soort	-11.906
loog	-11.907
verhoging	-11.9074
▁fragiel	-11.9074
▁geinjiceerd	-11.9074
▁minuscuul	-11.9074
▁nierbekken	-11.9074
▁recanalisatie	-11.9074
▁right	-11.9074
▁scoliose	-11.9074
▁suicide	-11.9074
▁vimentine	-11.9074
▁mislukt	-11.9074
▁werkgroep	-11.9074
▁bedreigd	-11.9076
▁nhl	-11.9077
▁puntvormig	-11.9077
▁gelijkend	-11.9077
deficientie	-11.908
▁stafylococc	-11.9081
▁intrekkingen	-11.9082
▁bloedrijk	-11.9083
▁doorgegeven	-11.9083
▁ppi	-11.9084
rectale	-11.9085
▁tumorlengte	-11.9094
▁ika	-11.9102
▁cont	-11.9103
▁onderling	-11.9106
coronair	-11.9107
▁irregulaire	-11.911
illaris	-11.9115
anteriorresectie	-11.9115
▁malformaties	-11.9116
toename	-11.9117
▁angiodysplasie	-11.912
bor	-11.9123
▁autoimmuun	-11.9126
▁eortc	-11.9131
therosclerotisch	-11.9133
pal	-11.9135
ventrikelwand	-11.9138
shaardjes	-11.9138
sklachten	-11.914
▁radi	-11.9145
▁poli	-11.9156
heen	-11.9163
wat	-11.9168
slo	-11.9169
tumoruitbreiding	-11.9173
thoracaal	-11.9173
doorsnede	-11.9175
craniaal	-11.9177
▁wegen	-11.9179
rechterbovenbeen	-11.918
lichaamsgewicht	-11.9181
invasiediepte	-11.9183
▁wanden	-11.9189
▁ontving	-11.9189
gat	-11.919
▁hartezakje	-11.9202
▁correlaat	-11.9202
▁identiek	-11.9202
▁infiltreert	-11.9202
▁pneumatosis	-11.9202
▁seminales	-11.9202
▁speelt	-11.9202
▁hemofagocytair	-11.9202
▁proteus	-11.9202
▁interstitium	-11.9202
▁immuunprofiel	-11.9203
▁onverdacht	-11.9203
▁hypothermie	-11.9203
▁leptomeningen	-11.9203
▁regeneratieve	-11.9204
komende	-11.9206
▁colloides	-11.9206
▁naald	-11.9207
▁tumorpercentage	-11.9208
▁voorstel	-11.9208
▁blo	-11.9214
▁drugs	-11.9219
epidermale	-11.9222
refle	-11.9224
pin	-11.9232
tegen	-11.924
▁cancer	-11.9241
▁gevoel	-11.9243
▁omringende	-11.9245
middels	-11.9252
sgerelateerde	-11.9264
aakt	-11.9271
▁donor	-11.9275
▁coiling	-11.9283
▁cellulariteit	-11.9285
▁stenoses	-11.9289
mg	-11.929
komen	-11.9291
▁ingestelde	-11.9292
▁irregulair	-11.9295
▁protocollair	-11.9306
tomie	-11.9306
▁mild	-11.9306
onderkwab	-11.9312
▁insertie	-11.9313
verder	-11.9319
▁epitheloid	-11.933
gehalte	-11.9332
▁foveolair	-11.9332
▁lavage	-11.9332
▁omstandigheden	-11.9332
▁remissie	-11.9332
▁sanguinolent	-11.9332
▁solitus	-11.9332
▁submandibularis	-11.9332
▁twijfel	-11.9332
▁coloscopie	-11.9332
▁bedroeg	-11.9332
▁nvt	-11.9333
▁vaatbed	-11.9333
▁gebloed	-11.9334
▁vnl	-11.9336
uitine	-11.9337
▁pogingen	-11.9338
▁blow	-11.9339
rust	-11.9341
sarco	-11.9341
▁amorf	-11.9341
▁cystisch	-11.9345
▁gebrek	-11.9346
nnb	-11.9359
stig	-11.9362
vooral	-11.9364
▁versie	-11.9367
microsatellieten	-11.9369
▁icu	-11.938
▁waterscheidings	-11.938
▁membraneuze	-11.9385
▁biopsies	-11.9388
▁onstaan	-11.9389
snede	-11.9402
▁dorsum	-11.9402
inmiddels	-11.9407
lateraalsclerose	-11.9413
ihc	-11.9414
fs	-11.9415
▁bronchioli	-11.9416
loop	-11.9431
essentiele	-11.9431
▁luchtweg	-11.9441
▁cam	-11.9444
▁ob	-11.9448
tende	-11.9452
super	-11.9453
▁intrahepatisch	-11.9455
▁atresie	-11.9458
▁pten	-11.9464
cochleatie	-11.9464
▁afgekapseld	-11.9464
▁alopecia	-11.9464
▁cholestatisch	-11.9464
▁glazig	-11.9464
▁hyperthyreoidie	-11.9464
▁immaturus	-11.9464
▁ontregeld	-11.9464
▁toegepast	-11.9464
ploratie	-11.9464
▁binnenkomst	-11.9464
▁artery	-11.9465
▁gastrisch	-11.9465
▁blaasspoeling	-11.9465
▁promotor	-11.9465
liter	-11.9465
arachnoidale	-11.9466
plasmacellulair	-11.9467
cuses	-11.9467
▁ulcer	-11.9468
▁lymph	-11.9479
indweefselziekte	-11.9481
▁psychiatrische	-11.9481
zelfde	-11.9482
kans	-11.9485
▁ingezette	-11.9499
▁myodegenerati	-11.9501
▁medenem	-11.9501
▁pdl	-11.9505
▁code	-11.9508
▁waarden	-11.9532
▁seminoom	-11.9535
meest	-11.9535
▁lopen	-11.9536
functiestoornis	-11.9536
▁pleiten	-11.9536
▁psoriasiforme	-11.9546
lobair	-11.9549
▁plasma	-11.9552
▁haemorragische	-11.9553
▁stroomgebieden	-11.9554
▁clear	-11.9558
▁langerhans	-11.9558
▁draad	-11.956
▁afvloed	-11.9572
▁dien	-11.958
stations	-11.958
lum	-11.9582
boog	-11.9583
▁ht	-11.9588
▁hersenmetastase	-11.959
▁anaerobe	-11.9591
beperkt	-11.9593
cerebrum	-11.9593
perineurale	-11.9593
▁koude	-11.9594
gedeelte	-11.9597
▁humerus	-11.9597
▁contagiosum	-11.9597
personeel	-11.9597
▁bekeken	-11.9597
▁compound	-11.9597
▁erytrocyturie	-11.9597
▁glucose	-11.9597
▁mastocytose	-11.9597
▁molluscum	-11.9597
▁onverklaard	-11.9597
▁pallidum	-11.9597
▁seminalis	-11.9597
▁treitz	-11.9597
▁verdwenen	-11.9597
synucleinopathie	-11.9597
▁leukocytoclas	-11.9597
▁gehoorgang	-11.9597
▁glomerulopathie	-11.9597
▁duinen	-11.9597
bloedingsneiging	-11.9597
▁gelukt	-11.9597
▁vervet	-11.9597
▁rmk	-11.9598
▁schaal	-11.9598
▁familieanamnese	-11.9598
▁spelen	-11.9599
▁dvt	-11.9599
▁neurogene	-11.9599
▁intrathoracaal	-11.9601
indien	-11.9601
▁kweekuitslagen	-11.9606
trial	-11.9608
▁su	-11.9611
▁pneumoniebeeld	-11.9611
▁doorheen	-11.9616
▁hepatogeen	-11.9616
▁rechterlies	-11.9619
▁ion	-11.9623
▁dosis	-11.9631
▁debulking	-11.9634
▁dikwandige	-11.9638
▁overgevoelig	-11.9654
myloiddeposities	-11.9669
arts	-11.9673
▁group	-11.9675
▁intraepithelial	-11.9675
▁villi	-11.9676
vin	-11.9676
▁therapiekeuze	-11.9682
zi	-11.9684
▁cystoprostat	-11.9693
▁spina	-11.9693
▁direkte	-11.9703
kanaal	-11.9718
failure	-11.9729
▁avr	-11.973
cadherine	-11.9732
trinsiek	-11.9732
▁aggregaten	-11.9732
▁diuretica	-11.9732
▁doorgegroeid	-11.9732
▁gebraakt	-11.9732
▁intramucosaal	-11.9732
▁tangentieel	-11.9732
maligne	-11.9732
▁lymfomenpanel	-11.9732
▁onvolledig	-11.9733
▁regionaal	-11.9733
▁drievatslijden	-11.9733
▁retentie	-11.9733
cranio	-11.9734
ascites	-11.9734
stollingsneiging	-11.9734
▁im	-11.9735
▁voetrug	-11.9736
▁bentall	-11.9738
mucosale	-11.9739
▁erosief	-11.9739
conisatie	-11.9739
▁intestinalis	-11.9743
▁immunofenotype	-11.9745
son	-11.9748
ocyten	-11.9752
▁collagene	-11.9754
▁crypten	-11.9754
▁plaatepitheel	-11.9757
bronchopneumonie	-11.9761
▁vergroting	-11.9779
hl	-11.9785
▁dienen	-11.9786
kras	-11.9787
▁mv	-11.9792
▁pleuraal	-11.9792
ablatie	-11.9797
var	-11.9798
▁dalende	-11.9802
▁alveolitis	-11.9806
heidsreactie	-11.9807
randen	-11.9811
▁precieze	-11.9823
▁hersteld	-11.9823
▁steentjes	-11.9829
ari	-11.983
▁tumoraal	-11.9838
corticosteroiden	-11.9838
▁bijmilt	-11.9842
gaande	-11.9846
sgebied	-11.9847
ico	-11.9852
▁segmentkernig	-11.9856
▁va	-11.9862
soc	-11.9868
blasten	-11.9868
afzetting	-11.9869
▁acuminatum	-11.9869
▁epididymis	-11.9869
▁gecomprimeerd	-11.9869
▁genoeg	-11.9869
▁geslaagd	-11.9869
▁microglia	-11.9869
▁moeizaam	-11.9869
▁ovariectomie	-11.9869
▁soepel	-11.9869
▁verdient	-11.9869
parenchymateus	-11.9869
▁incompleet	-11.9869
▁uitgaat	-11.9869
▁taai	-11.9869
▁schuimig	-11.9869
▁rechtzijdig	-11.9869
▁mesocolon	-11.9869
▁bedekt	-11.987
imab	-11.987
▁medebeoordeling	-11.987
▁cristabiopsie	-11.987
▁neuropathie	-11.9871
▁intrathoracale	-11.9872
implant	-11.9872
▁agv	-11.9872
▁minor	-11.9872
▁amyloidosis	-11.9873
▁myocardvezels	-11.9873
▁nierstenen	-11.9873
veel	-11.9874
verstoring	-11.9876
▁arterietakjes	-11.9876
mh	-11.9877
via	-11.9878
bro	-11.9882
osa	-11.9885
▁vervallen	-11.9886
groeiend	-11.9891
peritoneaalholte	-11.9899
▁mechanisme	-11.9902
komst	-11.9909
▁slank	-11.9909
▁bulla	-11.9911
tumorgrootte	-11.9911
diepte	-11.9921
▁darmnecrose	-11.9923
▁behandel	-11.9936
▁inleiding	-11.9937
pakketten	-11.9947
▁vlakke	-11.9954
▁harde	-11.9955
naast	-11.996
▁incomplete	-11.9961
uaduct	-11.9971
▁hoogstand	-11.9977
▁ph	-11.998
adem	-11.9986
part	-11.999
▁mitose	-11.9995
emisch	-12.0001
▁keratocyste	-12.0002
▁du	-12.0002
dedifferentieerd	-12.0008
▁epiduraal	-12.0008
▁gesampled	-12.0008
▁intramusculair	-12.0008
▁neuritische	-12.0008
▁omphalocele	-12.0008
▁trimester	-12.0008
▁verknepen	-12.0008
▁vervaardigd	-12.0008
▁capitis	-12.0008
▁erythematosus	-12.0008
▁kritisch	-12.0008
▁gastrale	-12.0008
▁gedekte	-12.0008
▁serum	-12.0008
▁daaromheen	-12.0008
▁eczemateu	-12.0008
▁babygram	-12.0008
▁perihilair	-12.0009
▁gingiva	-12.0009
▁anthracose	-12.0009
▁matur	-12.001
▁avitale	-12.0011
▁littekenbreuk	-12.0011
▁darmkanker	-12.0011
dieringsvoorstel	-12.0013
▁hypovolaemische	-12.0013
rat	-12.0015
▁ongeval	-12.0016
his	-12.002
encefalitis	-12.0021
afdeling	-12.0022
rdp	-12.0025
veld	-12.0034
eerder	-12.0034
▁spoelcel	-12.0035
velden	-12.004
wk	-12.0044
▁miltkweek	-12.0047
▁nagel	-12.0047
▁flowcytometrie	-12.0053
▁cachectisch	-12.0056
▁levercyste	-12.0057
grootcellig	-12.0061
lw	-12.0062
▁fibrinoid	-12.0066
▁sur	-12.0072
▁tensies	-12.0075
mk	-12.0075
traventriculaire	-12.0079
▁gew	-12.0083
off	-12.0086
▁kr	-12.0098
▁eenzelfde	-12.0104
duct	-12.0104
▁tube	-12.0105
▁rechterkamer	-12.0108
carcino	-12.0108
▁neusslijmvlies	-12.0115
bronchoalveolair	-12.0116
keren	-12.0118
▁fibroma	-12.0119
meckels	-12.0119
▁cystic	-12.0141
▁halsklier	-12.0146
▁cylindrisch	-12.0149
▁dusdanig	-12.0149
▁grillig	-12.0149
▁kaposi	-12.0149
▁suboptimale	-12.0149
▁sulci	-12.0149
▁triploidie	-12.0149
▁hemolyse	-12.0149
▁voorkomt	-12.0149
▁verkrijgen	-12.0149
▁puntbloedinkjes	-12.0149
▁thrombolyse	-12.0149
▁apical	-12.0149
▁subcorticale	-12.0149
▁gebeld	-12.0149
▁inguinalis	-12.0149
▁afgelopen	-12.0149
▁merkelcel	-12.0149
▁zoster	-12.015
zone	-12.015
▁haematogen	-12.0151
▁tubair	-12.0152
▁zwakte	-12.0152
▁igm	-12.0153
ning	-12.0153
tachycardie	-12.0155
retrograde	-12.0156
lling	-12.0157
resistente	-12.0158
▁graden	-12.0162
▁mammaparenchym	-12.0164
ouderdom	-12.0169
▁oesophagusbiopt	-12.0177
▁linkerkamer	-12.0183
▁etc	-12.0184
longgewicht	-12.0187
abortusmateriaal	-12.0189
darmstelsel	-12.0194
▁operatiewond	-12.0196
lumina	-12.0207
ala	-12.022
cave	-12.022
▁polycysteu	-12.0227
▁scleroserend	-12.0231
▁ingeblokt	-12.0231
▁adult	-12.0231
▁suf	-12.0241
and	-12.0252
▁solitair	-12.0253
ous	-12.0263
band	-12.0264
ving	-12.0265
lymfklierweefsel	-12.0266
▁spinal	-12.0267
▁proef	-12.0269
gekomen	-12.0272
▁troponine	-12.0279
degeneratie	-12.0281
▁wv	-12.0283
groen	-12.0283
▁fal	-12.0285
oi	-12.0288
morfologisch	-12.0289
ella	-12.0289
▁trabeculair	-12.0292
▁erytropoese	-12.0292
▁etiologisch	-12.0292
▁siderofagen	-12.0292
▁suprapubisch	-12.0292
▁ventilatie	-12.0292
▁verergering	-12.0292
▁bloedingsbron	-12.0292
▁longvaatbed	-12.0292
wervelmetastasen	-12.0292
▁wrsch	-12.0292
▁echografie	-12.0292
▁markerpatroon	-12.0292
▁lichtstijve	-12.0292
▁panischemie	-12.0292
takjes	-12.0292
▁heldergeel	-12.0293
▁zijdelings	-12.0293
nasolabiaalplooi	-12.0294
gastr	-12.0296
▁histiocyten	-12.0297
kleppen	-12.0297
▁mogelijkerwijs	-12.0299
▁cystenieren	-12.03
ost	-12.0301
omtrek	-12.0311
rium	-12.0319
langer	-12.0321
periappendicitis	-12.0322
▁zeldzame	-12.0326
▁spermatozoa	-12.0326
▁aanliggend	-12.0326
ood	-12.0329
reactieve	-12.0331
▁pericardial	-12.0337
▁desmoplastisch	-12.0338
▁plaat	-12.0341
▁contra	-12.0355
▁jl	-12.0357
tbo	-12.0359
▁aortitis	-12.0363
stat	-12.0366
ien	-12.0368
▁vt	-12.037
basale	-12.0376
been	-12.038
▁prof	-12.0381
ba	-12.0382
▁neutrofiel	-12.0383
inale	-12.0388
vervanging	-12.0397
rok	-12.0398
bron	-12.0404
preparaten	-12.0407
res	-12.042
oksel	-12.0422
▁okselklier	-12.0429
▁bradycard	-12.0434
hang	-12.0435
uamo	-12.0435
darmtractus	-12.0437
▁bloedbraken	-12.0437
▁cilindrisch	-12.0437
▁cinguli	-12.0437
▁gehecht	-12.0437
▁ingrijpen	-12.0437
▁myocytolyse	-12.0437
▁retardatie	-12.0437
▁toelichting	-12.0437
▁veralgemeend	-12.0437
▁verleend	-12.0437
▁chorda	-12.0437
▁genereren	-12.0437
▁flora	-12.0437
▁blaar	-12.0437
▁hypereosinofili	-12.0437
▁frontotemporaal	-12.0437
▁groet	-12.0437
▁leuco	-12.0438
▁slikstoornissen	-12.0438
stapelingsziekte	-12.0441
polypectomie	-12.0441
▁halscyste	-12.0444
▁jak	-12.0445
richt	-12.0445
oidale	-12.0446
gemaakt	-12.0451
adipeus	-12.0456
▁hieronder	-12.046
tubulair	-12.0465
▁cnv	-12.0469
resultaat	-12.0469
cytologisch	-12.047
voorts	-12.0473
abusus	-12.0473
vasculair	-12.0475
factor	-12.0476
kerato	-12.0477
▁proficient	-12.0477
nu	-12.0478
▁loc	-12.0481
sclerosis	-12.0483
▁invaginatie	-12.0484
dose	-12.0495
▁uitgroei	-12.0496
▁neur	-12.0499
buikpijnklachten	-12.05
want	-12.0511
our	-12.0512
▁productie	-12.0515
▁locaties	-12.0517
▁nogal	-12.0523
tuba	-12.0524
kernen	-12.0525
oorgankelijkheid	-12.0526
nek	-12.0539
▁myositis	-12.0553
▁mdm	-12.0554
wissel	-12.0554
▁pn	-12.0555
▁maagantrumtype	-12.0568
▁concrement	-12.057
wanddikte	-12.0574
▁kno	-12.0574
▁incisiebiopt	-12.0579
▁douglas	-12.058
▁toepassing	-12.0584
▁astrocyten	-12.0584
▁gebleven	-12.0584
▁impetiginisatie	-12.0584
▁waldenstrom	-12.0584
fokaal	-12.0584
▁bifida	-12.0584
▁circumvallata	-12.0584
▁elastosis	-12.0584
▁imponeert	-12.0584
▁leucocytose	-12.0584
▁oncocytoom	-12.0584
▁paracetamol	-12.0584
▁perforerend	-12.0584
▁sacrum	-12.0584
▁versmald	-12.0584
▁verstreken	-12.0584
▁meyenburg	-12.0584
▁mycobacterium	-12.0584
▁show	-12.0584
▁polypeuze	-12.0584
hiellengte	-12.0584
▁middermaal	-12.0584
▁oorlel	-12.0584
▁trombocytopenie	-12.0584
▁tepelvocht	-12.0585
▁outflow	-12.0585
▁vettig	-12.0585
▁heropname	-12.0585
▁subtotaal	-12.0587
samenstelling	-12.0588
vis	-12.0588
▁pijnlijk	-12.0592
▁liver	-12.0592
myc	-12.0596
▁glia	-12.0597
ieel	-12.0597
architecturele	-12.0597
ibele	-12.0601
▁necrosehaarden	-12.0602
▁ductaaltype	-12.0602
▁occlusiev	-12.0605
voorkeur	-12.0607
boop	-12.0608
vcm	-12.0609
▁adenos	-12.0611
▁nl	-12.0616
enzym	-12.0618
▁duidelijkheid	-12.0621
parietaal	-12.0622
achtergrond	-12.0623
hypertrofisch	-12.0623
▁embryonaal	-12.0626
adhesies	-12.0626
▁ohca	-12.0629
europathologisch	-12.0633
oth	-12.0634
▁leverlijden	-12.0637
▁intensieve	-12.0638
▁recenter	-12.0639
▁paars	-12.0639
▁nierziekte	-12.0645
▁ervan	-12.0645
fibroblast	-12.0653
thy	-12.0656
▁korter	-12.0657
uitbreiding	-12.0659
▁faryn	-12.0659
basaal	-12.066
red	-12.0664
▁hetero	-12.0682
▁breedte	-12.0684
inter	-12.069
stroomgebied	-12.0693
▁ju	-12.0702
▁lymfoa	-12.0709
▁kwamen	-12.0718
▁congorood	-12.0719
▁gedrag	-12.0722
▁gat	-12.0723
koepel	-12.073
stijging	-12.073
▁hartoperatie	-12.0731
cylinderepitheel	-12.0733
iatrogene	-12.0733
▁afasie	-12.0733
▁circulatorius	-12.0733
▁hippocampi	-12.0733
▁ingeklemd	-12.0733
▁mucositis	-12.0733
▁myoclonieen	-12.0733
▁noradrenaline	-12.0733
▁peptische	-12.0733
▁sectum	-12.0733
▁stromaceltumor	-12.0733
▁vacuolisatie	-12.0733
▁verbakken	-12.0733
▁verwijzen	-12.0733
▁vliezig	-12.0733
▁subita	-12.0733
▁bijkomstig	-12.0733
▁ectocervicaal	-12.0733
▁reading	-12.0733
▁behandeladvies	-12.0733
▁pompfalen	-12.0733
▁wervellichamen	-12.0733
▁onsuccesvol	-12.0733
▁bronchusbrush	-12.0733
▁saturatiedaling	-12.0733
▁voren	-12.0734
▁impressie	-12.0734
▁mentale	-12.0734
▁raad	-12.0735
▁overgebracht	-12.0735
▁genese	-12.0736
bronchusspoelsel	-12.0737
▁daaraan	-12.0738
rom	-12.0742
pcr	-12.0742
▁conse	-12.0742
▁slechter	-12.0743
from	-12.0748
sectie	-12.0749
catheterisatie	-12.0751
geinduceerd	-12.0779
hematoom	-12.078
hypertensie	-12.078
▁ectocervi	-12.0788
▁hard	-12.0793
steel	-12.0795
iforme	-12.0798
▁res	-12.08
multipele	-12.0801
bifemorale	-12.0804
▁area	-12.0805
ier	-12.081
middelste	-12.0816
▁types	-12.0822
ysma	-12.0823
luchthoudendheid	-12.0825
prostatisch	-12.0827
tollingsstoornis	-12.0835
ustom	-12.0836
ulceratie	-12.0841
▁kristallen	-12.0843
car	-12.085
▁casu	-12.0865
▁sternotomie	-12.0865
▁maagantrumbiopt	-12.0873
▁hangen	-12.0875
▁erythro	-12.088
▁artefacten	-12.0882
ofytisch	-12.0884
▁trichilemm	-12.0884
pliciet	-12.0884
▁astrogliose	-12.0884
▁gangreneuze	-12.0884
▁geindureerd	-12.0884
▁graciel	-12.0884
▁nasofaryn	-12.0884
▁overvuld	-12.0884
▁perimusculair	-12.0884
▁symptomatisch	-12.0884
▁uitzondering	-12.0884
bronchiaalboom	-12.0884
▁funiculus	-12.0884
▁geevalueerd	-12.0884
▁sintrom	-12.0884
▁opgave	-12.0885
▁breidde	-12.0885
▁clearcell	-12.0885
▁mucostase	-12.0885
▁uremie	-12.0885
▁hersenvliezen	-12.0885
▁endoscopisch	-12.0885
▁kaaklijn	-12.0885
▁epicardiaal	-12.0885
producerend	-12.0885
▁loh	-12.0886
▁flardjes	-12.0891
▁elementen	-12.0894
▁linkerbijnier	-12.0895
▁tumorvolume	-12.0897
▁hersentumor	-12.0897
hechten	-12.0897
▁amyotrofisch	-12.0899
▁myeline	-12.0906
bus	-12.0909
▁nierinfarct	-12.091
viii	-12.091
▁chirurg	-12.0918
ngi	-12.0919
lopen	-12.0922
▁restmateriaal	-12.0925
▁detecteert	-12.0927
▁incident	-12.0928
▁starten	-12.093
compressie	-12.0936
▁geruim	-12.0938
linkszijdig	-12.0941
scopie	-12.0945
incidentie	-12.0952
▁mammatumor	-12.0954
▁metend	-12.096
langs	-12.0962
tricuspidaalklep	-12.0965
ars	-12.0966
▁ber	-12.0977
▁rea	-12.0982
pancreatisch	-12.0984
▁commissie	-12.0986
bac	-12.0988
▁sigmoidbiopten	-12.0995
tumorale	-12.1
leden	-12.1
nten	-12.1
▁polyp	-12.1006
spoliepen	-12.1024
▁elektrolyt	-12.1025
▁insufficienti	-12.1026
▁lesion	-12.1028
▁leukocyten	-12.1033
sich	-12.1033
▁micrometastase	-12.1036
glottis	-12.1036
▁vorige	-12.1038
strekt	-12.1038
double	-12.1038
▁aanbevolen	-12.1038
▁actinomyces	-12.1038
▁bewusteloos	-12.1038
▁cauterisatie	-12.1038
▁inguinaal	-12.1038
▁meerlagig	-12.1038
▁periferie	-12.1038
▁uitblijven	-12.1038
▁biopsy	-12.1038
▁hypocampus	-12.1038
▁hyponatriemie	-12.1038
▁steriel	-12.1038
▁melanocyten	-12.1038
▁uncus	-12.1039
cobas	-12.1039
▁intramyocardial	-12.104
▁virusinfectie	-12.104
abcesjes	-12.104
▁overlap	-12.1044
braakstadium	-12.1045
vraag	-12.1049
▁boog	-12.1049
▁maagsonde	-12.1049
▁aanhechting	-12.105
▁cilindercel	-12.1052
▁grenzend	-12.1054
▁nierloge	-12.1056
karakteristieken	-12.1061
▁conus	-12.1065
lij	-12.1071
▁leverbiopten	-12.1073
▁lymfkliertjes	-12.1077
▁artefact	-12.1078
▁idiopathisch	-12.1079
▁asbest	-12.1081
▁behoefte	-12.1084
▁stel	-12.1096
bal	-12.11
onvoldoende	-12.11
kan	-12.11
totale	-12.1102
▁antrumbiopten	-12.1105
tki	-12.1108
▁oncologie	-12.1123
fragmentjes	-12.1124
▁sero	-12.1125
drainage	-12.1129
tube	-12.1132
ow	-12.1134
▁lege	-12.1147
▁rna	-12.1155
voet	-12.1155
chondr	-12.1161
▁gemedieerd	-12.1169
las	-12.1181
▁probe	-12.1182
▁alv	-12.1193
wavy	-12.1195
▁continuitatem	-12.1195
▁contracturen	-12.1195
▁gepositioneerd	-12.1195
▁gesteelde	-12.1195
▁grieperig	-12.1195
▁hyalinose	-12.1195
▁hygroma	-12.1195
▁mestcellen	-12.1195
▁prematuur	-12.1195
erasmus	-12.1195
▁borstkas	-12.1195
▁infuus	-12.1195
▁ileocoecaalhoek	-12.1195
▁sleeve	-12.1195
▁wondbed	-12.1195
urant	-12.1196
▁temporaalkwab	-12.1198
▁endovasculair	-12.1198
onco	-12.1198
▁aplastisch	-12.1201
▁tumornodi	-12.1201
▁gesproken	-12.1202
▁overliggend	-12.1203
▁driemaal	-12.1205
ical	-12.1207
▁satellieten	-12.1208
▁leed	-12.1209
▁leverabces	-12.1211
vlakken	-12.1214
▁manifest	-12.1218
▁wenst	-12.122
▁ondersteunend	-12.1225
gew	-12.1227
▁cytoplasmatisch	-12.1234
▁onderzijde	-12.1234
▁ass	-12.1235
▁micrometastasen	-12.124
▁haarfollikels	-12.124
▁erop	-12.1241
opname	-12.1243
▁herseninfarcten	-12.1251
▁mar	-12.1252
▁vacuum	-12.1259
▁organiserend	-12.126
pomp	-12.1262
protocol	-12.1262
besproken	-12.1263
neusrug	-12.1264
▁resistent	-12.1265
vormig	-12.1266
ablatio	-12.1269
lysis	-12.1272
▁meerder	-12.1279
▁waarom	-12.1287
steek	-12.1288
▁cast	-12.1288
arteriele	-12.1289
▁recht	-12.129
zig	-12.129
iva	-12.1292
▁verkleuringen	-12.1298
afw	-12.1298
▁sudden	-12.1299
▁taks	-12.1301
▁mt	-12.1311
▁rapport	-12.1313
▁oppervlakte	-12.1315
methylering	-12.1338
▁pneumonieen	-12.1346
front	-12.1352
pulmonaal	-12.1353
▁bovenbenen	-12.1353
▁craniotomie	-12.1353
▁dunwandig	-12.1353
▁echtgenoot	-12.1353
▁leidt	-12.1353
▁mycobacterien	-12.1353
▁normosome	-12.1353
▁plantaardig	-12.1353
▁bilirubin	-12.1353
▁inzender	-12.1353
▁marginaal	-12.1353
▁gekeken	-12.1353
gescheurd	-12.1353
▁humerusfractuur	-12.1353
▁stadia	-12.1354
▁bacteriaemie	-12.1354
▁perisplenitis	-12.1354
▁uitermate	-12.1354
▁zijnde	-12.1354
▁beentumoren	-12.1354
▁psoasloge	-12.1354
▁intracavitair	-12.1354
membraneus	-12.1355
▁inkt	-12.1355
▁spoedig	-12.1356
poliepen	-12.1356
interstitia	-12.1356
▁anca	-12.1357
sstoornis	-12.1364
vloed	-12.1364
▁behoeftig	-12.1366
▁cake	-12.137
▁overmatig	-12.1371
hb	-12.1371
wustzijnsverlies	-12.1377
terventriculaire	-12.1378
salpin	-12.1379
ingsstoornissen	-12.1385
▁tumoringroei	-12.1387
msr	-12.1387
cla	-12.1396
load	-12.1398
effecten	-12.1398
▁meconium	-12.1405
stapeling	-12.1411
▁avonds	-12.1415
groeiachterstand	-12.1415
naden	-12.1417
▁rad	-12.1418
▁paratubaire	-12.1425
▁secreet	-12.1425
aspect	-12.1428
hersen	-12.143
radiologisch	-12.143
candida	-12.143
meerdere	-12.1431
▁segmenten	-12.144
▁depletie	-12.1441
trombusmateriaal	-12.1455
▁bloedingshaard	-12.1457
pjes	-12.146
its	-12.1463
▁haemolytische	-12.1467
▁plekje	-12.1467
▁acti	-12.1472
pta	-12.1482
handrug	-12.1483
▁muco	-12.1488
▁vs	-12.1494
▁ffpe	-12.1494
▁urineweg	-12.1495
uip	-12.1506
ou	-12.1507
▁temporo	-12.1513
▁leptomenin	-12.1514
▁misselijk	-12.1514
▁nierschors	-12.1514
▁uitputting	-12.1515
▁amiodaron	-12.1515
▁gezegd	-12.1515
▁groeivertraging	-12.1515
▁lingula	-12.1515
▁microvesiculair	-12.1515
▁plasmocytoom	-12.1515
▁siliconen	-12.1515
▁vertakkend	-12.1515
▁opinion	-12.1515
▁chemokuur	-12.1515
▁partijen	-12.1515
▁vermoeidheid	-12.1515
▁bronchoscopie	-12.1515
hsil	-12.1515
▁onrustig	-12.1515
dying	-12.1515
▁intakt	-12.1515
▁ectopisch	-12.1515
▁lasi	-12.1515
artrose	-12.1516
ovariele	-12.1516
▁vervette	-12.1516
▁longembolen	-12.1521
▁opgevuld	-12.1521
▁grawitztumor	-12.1521
▁hip	-12.1522
immuunhistochem	-12.1525
▁ductectasieen	-12.1525
▁slik	-12.1525
▁langerbestaande	-12.1528
▁lokatie	-12.1529
▁cns	-12.153
atus	-12.1532
▁hieromtrent	-12.1533
▁carcinomen	-12.1543
▁stops	-12.1544
rol	-12.1558
▁naruke	-12.156
▁lesies	-12.1561
pap	-12.1565
▁leversegment	-12.1566
▁bauhini	-12.1573
▁myocardial	-12.1577
ach	-12.158
geven	-12.1581
beoordeling	-12.1584
globu	-12.1592
▁lymfklierpakket	-12.1596
terminaal	-12.1597
sentinel	-12.1599
hooggradig	-12.16
voornamelijk	-12.16
random	-12.1601
▁omstrengeling	-12.1602
▁comedo	-12.1602
▁amnion	-12.1604
bot	-12.163
▁verwezen	-12.163
rads	-12.1637
auto	-12.1644
claviculair	-12.1647
▁ijzerdepositie	-12.1661
▁darmtype	-12.1663
reikend	-12.1675
▁voetzool	-12.1678
schrompel	-12.1678
▁systematisch	-12.1679
tracapsulair	-12.1679
▁bichoriale	-12.1679
▁bloedbijmenging	-12.1679
▁immuuncytochemi	-12.1679
▁metabool	-12.1679
▁peesschede	-12.1679
▁akute	-12.1679
▁horizontale	-12.1679
accredit	-12.1679
▁insturen	-12.1679
▁ntrk	-12.1679
▁ilium	-12.1679
▁gallekkage	-12.1679
skintag	-12.1679
▁perifolliculair	-12.1679
▁trombusmassa	-12.168
▁lacunes	-12.168
▁fistelgang	-12.168
oculair	-12.168
▁groenig	-12.1682
▁roodheid	-12.1683
▁spoortje	-12.1685
▁aankleurend	-12.1686
▁motorische	-12.1687
▁wandruptuur	-12.1689
▁linkeronderarm	-12.1712
▁strengen	-12.1717
lik	-12.172
▁grijswit	-12.1722
costa	-12.1725
▁opgeleverd	-12.1726
sistente	-12.1727
▁uitgeblust	-12.1732
▁inzending	-12.1739
ziekten	-12.174
▁diafragmakoepel	-12.1741
cardiaal	-12.1743
titis	-12.1747
▁lichenoides	-12.1751
station	-12.176
voorstel	-12.1764
donatie	-12.1766
perfusie	-12.1766
chrom	-12.1768
locatie	-12.1771
chirurg	-12.1771
anastomose	-12.1772
worden	-12.1772
descendens	-12.1772
destructie	-12.1775
stabiel	-12.1787
pericard	-12.1789
▁satelliet	-12.179
belasting	-12.179
lichaam	-12.18
scopisch	-12.1801
geschiedenis	-12.1802
geel	-12.1803
▁onderverdeling	-12.1804
▁gallig	-12.1814
▁afsluitend	-12.1816
bra	-12.182
▁diabet	-12.1823
▁genezen	-12.1828
middel	-12.183
▁mag	-12.1831
▁ontbrak	-12.1832
fle	-12.1835
▁passage	-12.1836
bacteriekolonies	-12.1845
columnair	-12.1845
cylinders	-12.1845
rriteerde	-12.1845
▁adenomyose	-12.1845
▁besluit	-12.1845
▁bloedvaatjes	-12.1845
▁dubbelloops	-12.1845
▁gekozen	-12.1845
▁genitalis	-12.1845
▁gerangschikt	-12.1845
▁gevalideerd	-12.1845
▁hoefijzernier	-12.1845
▁lenskern	-12.1845
▁pdgfra	-12.1845
▁pijnstilling	-12.1845
▁praktisch	-12.1845
▁pulmonum	-12.1845
▁tonsillectomie	-12.1845
▁vastzittend	-12.1845
▁ziektebeloop	-12.1845
▁dermatoloog	-12.1845
▁trabekelblaas	-12.1845
▁chondrosarcoom	-12.1845
▁ehbo	-12.1845
▁nodule	-12.1845
▁hallu	-12.1845
▁congenitaal	-12.1845
▁agens	-12.1845
▁peribronchiaal	-12.1845
▁biometri	-12.1846
▁chronica	-12.1846
▁middag	-12.1846
▁individuel	-12.1846
▁predisponerend	-12.1847
swl	-12.1848
▁rethoracotomie	-12.1848
▁coil	-12.1848
▁bvo	-12.1849
▁receptorstatus	-12.1851
▁heparine	-12.1856
▁hilusgebied	-12.1858
thyreo	-12.1869
tumoren	-12.1871
geleverd	-12.1878
▁verklarend	-12.1884
▁tumorrecidief	-12.1885
▁bacterieen	-12.1885
inflammatoire	-12.1888
▁reeksen	-12.1895
was	-12.1898
▁bii	-12.1898
▁reserve	-12.192
ontstekingshaard	-12.1922
corte	-12.193
weke	-12.1939
thoracotomie	-12.1944
indicatie	-12.1947
▁like	-12.1971
mond	-12.1972
▁anusbiopt	-12.1972
▁tdp	-12.1974
▁deviatie	-12.1979
schouderblad	-12.198
tractie	-12.1982
gt	-12.201
peni	-12.2012
smacelpopulatie	-12.2014
tetrazoliumproef	-12.2015
▁aftakkend	-12.2015
▁aterosclerose	-12.2015
▁cruris	-12.2015
▁mesenchymaal	-12.2015
▁oligohydramnion	-12.2015
▁ontslagbrief	-12.2015
▁tubahoeken	-12.2015
▁uitlokkend	-12.2015
▁leukopenie	-12.2015
▁stille	-12.2015
▁lipomatose	-12.2015
▁durend	-12.2015
▁fibrinebeslag	-12.2015
▁hemithyreoid	-12.2015
▁neuron	-12.2015
▁straal	-12.2016
▁ribfractuur	-12.2016
▁wervelfractuur	-12.2016
▁purkinjecellen	-12.2016
▁ggd	-12.2016
▁posterolateral	-12.2017
▁mondholte	-12.2018
erbaar	-12.2018
▁intrapulmonaal	-12.2019
▁fibers	-12.2022
▁longafwijking	-12.2025
▁klepbladen	-12.2025
▁tps	-12.2028
schildklier	-12.2028
▁angioinvasieve	-12.2031
▁stadiering	-12.2032
▁hypotensieve	-12.2032
toon	-12.2035
werken	-12.2036
▁real	-12.2051
▁foeto	-12.2052
latero	-12.2057
▁mmol	-12.2061
▁melan	-12.2061
▁spirocheten	-12.2062
▁colontype	-12.2066
▁zacht	-12.2073
stroma	-12.2079
▁overnam	-12.208
tvb	-12.2082
zijn	-12.2086
▁orofaryn	-12.2098
▁sd	-12.2116
infect	-12.2117
▁schildwacht	-12.212
▁hormoon	-12.2123
thrombi	-12.2125
folliculair	-12.2125
body	-12.2125
apicaal	-12.2125
necrotiserende	-12.2126
helder	-12.2126
immunohistochem	-12.2127
streng	-12.2128
aha	-12.2134
▁eten	-12.2136
gemarkeerd	-12.2137
▁beperking	-12.2151
▁vreemd	-12.2151
▁atheroomcyste	-12.2151
▁ouders	-12.2151
▁mesotheliomen	-12.2161
▁functioneren	-12.2169
infiltraat	-12.2171
ductie	-12.2171
▁winding	-12.2174
anthoom	-12.2186
opheffen	-12.2187
▁eccrien	-12.2187
▁gedocumenteerd	-12.2187
▁getuige	-12.2187
▁groeiretardatie	-12.2187
▁hyalinisatie	-12.2187
▁mirabilis	-12.2187
▁moeizame	-12.2187
▁piriformis	-12.2187
▁verzonden	-12.2187
▁verzwakt	-12.2187
▁waarneembaar	-12.2187
▁sample	-12.2187
mobiel	-12.2187
▁hechtdraad	-12.2187
▁neusbijholte	-12.2187
▁adenomateus	-12.2187
▁glioom	-12.2187
▁schedelgroeve	-12.2187
▁ductulair	-12.2187
homogen	-12.2188
▁mondhoek	-12.2188
▁mononucleair	-12.2188
ostose	-12.2188
▁daalde	-12.2188
▁vasectomie	-12.2188
▁hypothalamus	-12.2188
▁mediaanlijn	-12.2189
chiari	-12.219
fibrino	-12.2192
typering	-12.2192
▁betroffen	-12.2194
ringen	-12.2194
neurale	-12.2196
▁hepatisatie	-12.2197
▁metalen	-12.2198
▁kransslagaderen	-12.2199
▁placentadeel	-12.2202
tracapillair	-12.2203
▁uitbreidt	-12.2208
▁beschadigingen	-12.2211
▁thromboembolien	-12.2215
rwv	-12.2217
▁dukes	-12.2218
▁buikoperaties	-12.2219
▁dof	-12.2222
▁galblaaswand	-12.223
▁knoop	-12.2231
▁cause	-12.2237
▁dens	-12.2241
▁dermoidcyste	-12.2244
▁verlopend	-12.2245
ularis	-12.2246
▁nierafwijkingen	-12.2253
rich	-12.2258
▁md	-12.227
▁perineum	-12.2273
▁zijden	-12.228
scheuren	-12.2281
▁myd	-12.2283
genomen	-12.2288
rf	-12.229
mail	-12.2291
iculair	-12.2292
kuur	-12.2294
▁compensatoir	-12.2296
▁clo	-12.2297
▁gemethyleerd	-12.2303
wervel	-12.2307
▁spiegel	-12.2307
gaarne	-12.2308
▁nen	-12.2309
▁vezel	-12.2313
bloedtransfusies	-12.2316
ikel	-12.2316
▁bronchiaal	-12.2317
▁vv	-12.2321
cysten	-12.2325
▁lithiasis	-12.2334
baan	-12.2348
▁preventie	-12.2354
▁satellitose	-12.2356
▁voeding	-12.2361
techniek	-12.2362
schuim	-12.2362
discordant	-12.2363
▁anafyla	-12.2363
▁endometrial	-12.2363
▁gedateerd	-12.2363
▁hypokaliemie	-12.2363
▁mesangiale	-12.2363
▁nabestaanden	-12.2363
▁planopilaris	-12.2363
▁proctitis	-12.2363
▁serratia	-12.2363
▁verhoorning	-12.2363
▁verkavelend	-12.2363
▁wernicke	-12.2363
▁afweer	-12.2363
▁mortus	-12.2363
▁rekening	-12.2363
▁ruber	-12.2363
▁venosus	-12.2363
▁suggestie	-12.2363
▁alcoholmisbruik	-12.2363
▁longtoppen	-12.2363
▁kernhoudend	-12.2363
▁hepatoduodenale	-12.2363
less	-12.2364
rotatie	-12.2364
▁standsafwijking	-12.2364
▁gezicht	-12.2364
▁bovenkaak	-12.2365
▁medio	-12.2365
▁intradermaal	-12.2366
▁celgroepjes	-12.2367
▁clusters	-12.2372
signaal	-12.2373
receptoren	-12.2375
lende	-12.2377
▁gynaecomastie	-12.2382
▁abus	-12.2382
sonderzoek	-12.2383
hu	-12.2395
atief	-12.2399
hil	-12.2401
▁petechieen	-12.2405
▁activatie	-12.2406
▁aortaruptuur	-12.2409
▁overhechten	-12.2425
kern	-12.2429
tose	-12.2435
histiocytaire	-12.2453
uele	-12.2455
chr	-12.246
▁tumorcel	-12.2462
▁coecumcarcinoom	-12.2464
atieve	-12.2465
▁boezem	-12.2469
lencarcinoom	-12.247
myocarditis	-12.247
pipelle	-12.2471
▁mondslijmvlies	-12.2476
reeds	-12.2484
prim	-12.2485
thrombo	-12.2487
mortem	-12.2488
▁insnijden	-12.2489
point	-12.2491
weinig	-12.2493
distale	-12.2493
braf	-12.2502
▁mammabiopsie	-12.2511
▁optredend	-12.2515
inoom	-12.2516
trekken	-12.2516
▁word	-12.2516
▁grenzen	-12.2523
▁millimeter	-12.2524
levergewicht	-12.2525
▁eenmalig	-12.253
▁protein	-12.2534
organisme	-12.2535
▁mucine	-12.2535
▁afsluit	-12.2539
▁histotype	-12.2541
cephalie	-12.2541
▁afdalend	-12.2541
▁choriaalplaat	-12.2541
▁discrepant	-12.2541
▁gespecificeerd	-12.2541
▁indolent	-12.2541
▁instituut	-12.2541
▁klierbuis	-12.2541
▁overeenkomt	-12.2541
▁precies	-12.2541
▁theoretisch	-12.2541
▁thymoom	-12.2541
▁tracheostomie	-12.2541
▁senilis	-12.2541
▁blaasdak	-12.2541
▁cerad	-12.2541
▁enterococcen	-12.2541
▁cutis	-12.2541
▁monoclonaal	-12.2541
▁hepaticus	-12.2541
▁pulmonar	-12.2541
▁regel	-12.2541
▁fibrinethrombi	-12.2542
▁buisjes	-12.2542
▁brain	-12.2542
▁graderen	-12.2542
▁koilocytose	-12.2542
▁trombosebeen	-12.2542
ificatie	-12.2542
▁naevoid	-12.2543
fractie	-12.2543
▁maagfundus	-12.2544
▁wondinfectie	-12.2545
▁infectiebron	-12.2545
▁resttoestand	-12.2545
▁vaatprothese	-12.2545
antho	-12.2548
▁ptnm	-12.2549
▁granulo	-12.2549
▁cml	-12.255
▁ontlastend	-12.255
▁premortaal	-12.2553
▁kaar	-12.2553
▁capd	-12.2556
▁sclerosering	-12.2558
▁clinico	-12.2564
hal	-12.2567
▁sab	-12.2568
vu	-12.2568
vesic	-12.2572
intraperitoneaal	-12.2593
▁haemorragisch	-12.26
▁gek	-12.2602
▁anomalie	-12.2607
▁banal	-12.2607
hepatitis	-12.261
gerelateerd	-12.261
drukt	-12.2611
arc	-12.2612
▁mening	-12.2619
▁papilloma	-12.2622
▁ectocervicale	-12.263
▁pool	-12.2636
▁uurs	-12.2636
▁redenen	-12.264
wv	-12.2643
immuno	-12.2643
▁leucocyten	-12.2646
mpl	-12.2649
▁longgewicht	-12.265
▁glomerulo	-12.2656
system	-12.2657
▁mor	-12.2663
ww	-12.2664
time	-12.2665
▁bijwerking	-12.2665
emfyseem	-12.2666
bronchus	-12.2668
bekend	-12.2675
▁geschoten	-12.2677
knoop	-12.2678
opmerking	-12.268
profiel	-12.2681
probleem	-12.2681
medicamenteus	-12.2681
vasculitis	-12.2682
activatie	-12.2684
▁bezoek	-12.2685
▁macrometastase	-12.2689
▁geheugen	-12.2689
schijn	-12.269
▁gein	-12.2696
sproduct	-12.2697
potje	-12.2705
zwak	-12.2707
▁vo	-12.271
tumorinfiltratie	-12.271
▁sign	-12.2713
breken	-12.2717
uch	-12.272
▁streptokok	-12.2723
▁omslagplooi	-12.2723
geprepareerd	-12.2723
tranodaal	-12.2723
▁beduidend	-12.2723
▁belemmerd	-12.2723
▁bespreken	-12.2723
▁bilobectomie	-12.2723
▁funisitis	-12.2723
▁gecauteriseerd	-12.2723
▁gedestrueerd	-12.2723
▁haematemesis	-12.2723
▁intraluminaal	-12.2723
▁laatstgenoemde	-12.2723
▁maagretentie	-12.2723
▁neutropenie	-12.2723
▁occult	-12.2723
▁onmiddellijk	-12.2723
▁uitsnijdatum	-12.2723
▁verkalkende	-12.2723
▁beladen	-12.2723
▁constrictiva	-12.2723
▁omkapseld	-12.2723
▁haemoptoe	-12.2723
▁uremisch	-12.2723
▁mucopurulent	-12.2723
▁cryptabcessen	-12.2723
▁hematopoetisch	-12.2723
▁mastoid	-12.2723
arvc	-12.2723
▁skeletdysplasie	-12.2724
▁endocardiaal	-12.2724
▁ganglioncellen	-12.2724
ance	-12.2724
▁meneer	-12.2725
▁reactivatie	-12.2726
▁dystrofische	-12.2726
▁overbelasting	-12.2727
▁vaginawand	-12.273
▁sup	-12.2731
▁fra	-12.2731
▁congestief	-12.2732
▁infarcthaard	-12.2733
▁mgus	-12.2735
▁dia	-12.2737
▁ventrikelfalen	-12.2738
▁ijzerdeposities	-12.2743
▁verstoord	-12.2743
▁arter	-12.2745
▁linkerhand	-12.2749
▁centimeters	-12.2757
▁platzbauch	-12.2758
aam	-12.2761
▁verbindingen	-12.2768
▁orbita	-12.2771
▁porto	-12.2787
▁cystes	-12.2793
ash	-12.2808
▁mes	-12.281
onderbuik	-12.281
▁centrilobulair	-12.2811
▁familiair	-12.2814
▁asymmetrisch	-12.2814
sll	-12.282
omie	-12.2837
transplant	-12.2842
sproblemen	-12.2851
berg	-12.2852
massa	-12.2853
carci	-12.2855
kw	-12.2864
mia	-12.2869
▁neven	-12.2872
kwabben	-12.2874
thrombus	-12.2874
▁stelsel	-12.2874
alzheimer	-12.2874
partiele	-12.2874
atherosclerose	-12.2874
pols	-12.2874
grootste	-12.2875
lumen	-12.2883
▁knieholte	-12.2885
rotisch	-12.2887
ductale	-12.2891
raken	-12.2896
▁zoek	-12.2897
dagen	-12.29
▁stans	-12.2903
▁schil	-12.2906
amnioti	-12.2908
▁asymmetrie	-12.2908
▁daadwerkelijk	-12.2908
▁evenwicht	-12.2908
▁gerapporteerd	-12.2908
▁habitus	-12.2908
▁lijkschouwer	-12.2908
▁locoregionaal	-12.2908
▁pneumocyten	-12.2908
▁routine	-12.2908
▁thermisch	-12.2908
▁vergeleken	-12.2908
▁vloeibare	-12.2908
▁objectiveren	-12.2908
▁grauw	-12.2908
▁malperfusie	-12.2908
▁mucus	-12.2908
▁gebeuren	-12.2908
▁antilichamen	-12.2908
▁cardioversie	-12.2908
▁vader	-12.2908
▁thuissituatie	-12.2909
gruis	-12.2909
▁bloeddrukdaling	-12.2909
▁order	-12.2909
▁spieratrofie	-12.2909
▁herbeoordeeld	-12.2909
▁vesiculair	-12.2909
▁hepatogene	-12.2909
▁polypoid	-12.291
diastase	-12.2911
▁semirecent	-12.2911
wilson	-12.2912
pos	-12.2913
▁seborroisch	-12.2915
▁sish	-12.2916
collect	-12.2917
▁gehouden	-12.2925
plasie	-12.2927
jwo	-12.2927
nader	-12.2937
▁uitbreidde	-12.2944
▁urticariele	-12.2944
defecten	-12.2945
derde	-12.2946
▁bijzijn	-12.2947
mul	-12.295
peritonitis	-12.2955
▁verruceus	-12.296
▁fysiologisch	-12.2968
▁anhydramnion	-12.2976
uid	-12.2977
▁niertumor	-12.2979
▁uitzichtlo	-12.2985
drukken	-12.2992
▁tumornegatief	-12.3
▁block	-12.3014
▁linkeroor	-12.3015
▁slot	-12.3021
▁volgend	-12.3024
depositie	-12.3026
tpn	-12.3033
▁vermeldde	-12.3034
open	-12.3039
tosis	-12.3047
retro	-12.306
kaak	-12.3061
verkalking	-12.3062
afhankelijk	-12.3068
parese	-12.3068
granuloom	-12.3069
ondanks	-12.307
papilloom	-12.307
ileus	-12.3071
waaronder	-12.3071
patholoog	-12.3072
stenen	-12.3076
vagina	-12.3076
minimaal	-12.3078
▁weefselstukje	-12.3081
▁linkerbovenarm	-12.3084
gebonden	-12.3085
▁begeleid	-12.3095
▁beland	-12.3095
chemisch	-12.3097
duodenectomie	-12.3097
endarteriectomie	-12.3097
prepareren	-12.3097
▁distributie	-12.3097
▁doorwoekerd	-12.3097
▁flink	-12.3097
▁gecorrigeerd	-12.3097
▁gestorven	-12.3097
▁gladwandig	-12.3097
▁hemangiomen	-12.3097
▁hersendood	-12.3097
▁hoofdzakelijk	-12.3097
▁kernbasofilie	-12.3097
▁onscherp	-12.3097
▁overleefd	-12.3097
▁parotidectomie	-12.3097
▁slijmerig	-12.3097
▁staphylococcen	-12.3097
▁suggereren	-12.3097
▁tandenrij	-12.3097
▁electrolyt	-12.3097
▁polikliniek	-12.3097
▁buurt	-12.3097
▁sectio	-12.3097
▁competent	-12.3097
▁nevus	-12.3097
▁hartactie	-12.3097
▁bolvormig	-12.3097
▁electronen	-12.3097
▁slijmvliezen	-12.3097
▁colorectal	-12.3097
▁donkerrood	-12.3097
▁moeheid	-12.3097
rrent	-12.3098
▁internist	-12.3098
▁droge	-12.3098
▁opleveren	-12.3098
▁subclaviculair	-12.3098
▁cryptitis	-12.3098
▁passagere	-12.3099
proeflaparotomie	-12.31
▁kinderen	-12.31
▁infiltraatjes	-12.3105
▁hras	-12.3105
pathol	-12.3106
▁zijkant	-12.3106
ventro	-12.3106
▁pcp	-12.3107
triple	-12.3108
▁hematoomvorming	-12.3109
▁ijzerkleuring	-12.3112
▁spanningspneumo	-12.3113
▁vasculitisbeeld	-12.3118
centrum	-12.3122
▁cystevorming	-12.3122
▁tumorhaardjes	-12.3127
nbt	-12.3127
▁veneus	-12.313
▁niersteen	-12.3131
lauw	-12.3136
▁stenting	-12.314
icum	-12.3142
figo	-12.3147
▁verblijf	-12.3149
logisch	-12.3152
lings	-12.3159
prerenale	-12.3165
▁huidshavebiopt	-12.3167
myelo	-12.3171
mic	-12.3173
▁oligo	-12.3174
ich	-12.3178
▁stembanden	-12.3179
▁globu	-12.3198
▁verwekkers	-12.3202
▁celtype	-12.3204
nodus	-12.3205
hilus	-12.3214
▁schi	-12.3216
ln	-12.3219
▁tki	-12.322
▁pocket	-12.3223
▁np	-12.3224
▁spierwand	-12.3228
▁perivesica	-12.3235
▁genitaal	-12.324
ruimte	-12.3251
▁lymfoompanel	-12.3253
cisiebiopten	-12.3258
▁aangeleverd	-12.3265
▁case	-12.3265
gewricht	-12.3266
trombi	-12.3267
structuur	-12.3268
gecompromiteerd	-12.3269
laboratorium	-12.327
oesofagitis	-12.327
epicrise	-12.327
high	-12.3271
chronisch	-12.3277
▁korrel	-12.3277
sinds	-12.3281
▁spoor	-12.3282
▁kweekuitslag	-12.3284
▁entero	-12.3286
cycline	-12.3289
entorhinal	-12.3289
▁alienum	-12.3289
▁brokkelig	-12.3289
▁differentieren	-12.3289
▁indrukwekkend	-12.3289
▁pilonidalis	-12.3289
▁versneld	-12.3289
▁meldde	-12.3289
▁neusbrug	-12.3289
▁neutropene	-12.3289
pectatief	-12.3289
▁coagulase	-12.3289
▁schrompeling	-12.3289
▁dysplasia	-12.3289
▁oproep	-12.3289
▁afstrijkbaar	-12.329
▁transsudaat	-12.329
▁brunners	-12.329
▁uitpuilend	-12.329
▁galstase	-12.329
▁onrust	-12.329
▁buikomvang	-12.329
▁subserosaal	-12.3291
▁willen	-12.3291
predictie	-12.3291
▁foetalis	-12.3291
▁peracuut	-12.3291
▁vaatstuwing	-12.3291
▁semen	-12.3292
▁clip	-12.3292
▁perianaal	-12.3294
kuit	-12.3295
▁lymfkliertje	-12.3296
▁dyspnoeklachten	-12.3297
▁halsvaten	-12.3298
▁wegrakingen	-12.3299
▁daaren	-12.3299
▁klin	-12.3301
▁three	-12.3301
▁rugklachten	-12.3303
▁mitraliskleppen	-12.3305
▁uitnemen	-12.3307
slechts	-12.3307
▁skin	-12.331
▁littekenreactie	-12.331
▁*******-*******	-12.3312
▁gewrichts	-12.3313
granulocyt	-12.3314
▁acc	-12.332
gemedieerde	-12.3321
▁mitochondrial	-12.3322
▁avl	-12.3323
▁systeemziekte	-12.3326
▁eber	-12.3327
▁eenderde	-12.3328
▁thal	-12.3333
hel	-12.3336
bovenkwab	-12.3347
▁voorhoorn	-12.3348
▁dlbcl	-12.3349
▁turp	-12.3349
correctie	-12.3357
▁gewricht	-12.3361
▁spierbiopt	-12.3371
ratio	-12.3373
▁laatst	-12.3377
▁middelen	-12.3387
▁reticuline	-12.3389
▁presenteer	-12.3392
▁mesenteri	-12.3393
urine	-12.3398
▁variaties	-12.3399
▁pol	-12.3403
▁bacterieel	-12.3405
intestinalis	-12.3406
cut	-12.3409
▁immunokleuring	-12.3409
igh	-12.3421
▁leverbiopsie	-12.3421
ucc	-12.3422
des	-12.3425
▁wer	-12.3431
psp	-12.3433
▁knieen	-12.3436
staan	-12.3449
sion	-12.3453
▁epithelioid	-12.3468
▁dosering	-12.3471
encephalopathie	-12.3474
positiviteit	-12.3474
▁cataract	-12.3474
atelectase	-12.3474
radiotherapie	-12.3474
overwegend	-12.3474
ruiterembolus	-12.3474
oppervlakkig	-12.3474
bran	-12.3476
dunne	-12.3478
▁lateralis	-12.348
ocytaire	-12.3484
uadriceps	-12.3485
energetisch	-12.3485
▁epigastrio	-12.3485
▁gedaald	-12.3485
▁gedenudeerd	-12.3485
▁hemosiderose	-12.3485
▁hypercapnie	-12.3485
▁ileocaeca	-12.3485
▁omschreven	-12.3485
▁schedeldak	-12.3485
▁stilstaand	-12.3485
▁subcarinaal	-12.3485
▁thrombocytopeni	-12.3485
▁uitvoerig	-12.3485
▁uitzaaiingen	-12.3485
▁vergroenend	-12.3485
▁frontalis	-12.3485
▁passieve	-12.3485
▁thyroiditis	-12.3485
▁kwast	-12.3485
▁pemphigoid	-12.3485
iliteit	-12.3485
▁neemt	-12.3485
▁ammon	-12.3485
▁tracheotomie	-12.3485
▁enteropathie	-12.3485
▁passageklachten	-12.3485
▁ventriculitis	-12.3485
▁klepslippen	-12.3486
▁longemphyseem	-12.3486
inklemmingsbeeld	-12.3486
▁afspraak	-12.3487
▁entiteit	-12.3487
▁feitelijk	-12.3487
▁verwijs	-12.3487
▁synovia	-12.349
kinase	-12.349
▁blaasmucosa	-12.3492
▁cusp	-12.3493
▁ondervulling	-12.3496
▁heer	-12.3496
▁tavi	-12.3499
▁oropharyn	-12.3503
katheterisatie	-12.3507
trioventriculair	-12.3508
▁contralatera	-12.3516
▁aaaa	-12.3517
▁microsc	-12.3518
▁tip	-12.3522
zegelringceltype	-12.3531
▁brickers	-12.3532
▁geamplificeerd	-12.3532
hist	-12.3535
▁inzicht	-12.3541
▁mortem	-12.3543
▁representatieve	-12.3549
hoofdstamstenose	-12.3561
▁decidual	-12.3572
▁tricuspidaal	-12.358
▁sla	-12.3584
dan	-12.3589
▁acanthotisch	-12.3592
▁oogt	-12.3594
▁recto	-12.36
pect	-12.3618
▁voedings	-12.3622
uitstortingen	-12.3625
bladen	-12.363
▁bacteria	-12.3635
getreden	-12.3637
tracheale	-12.3639
pend	-12.364
vulling	-12.3643
uitgang	-12.3644
▁kransslagader	-12.3654
wortel	-12.3658
sneevlak	-12.3661
congenital	-12.3661
▁superficial	-12.3662
▁aanvragen	-12.3667
▁unci	-12.367
▁risicofactor	-12.3672
ouder	-12.3677
fibroom	-12.3677
specific	-12.3678
rib	-12.368
rv	-12.3681
purulent	-12.3682
tezamen	-12.3682
granulomateuze	-12.3683
differentiaal	-12.3683
gedilateerd	-12.3683
restlumen	-12.3683
reanimatie	-12.3683
coccen	-12.3684
doch	-12.3684
▁parvo	-12.3685
▁pilomatri	-12.3685
flowcytometrisch	-12.3685
smaceldyscrasie	-12.3685
▁geloosd	-12.3685
▁gemeentelijk	-12.3685
▁gezakt	-12.3685
▁hypoglycaemie	-12.3685
▁pseudomelanosis	-12.3685
angulus	-12.3685
enterostomie	-12.3685
▁carcinosarcoom	-12.3685
▁mengbeeld	-12.3685
▁delay	-12.3685
▁pyela	-12.3686
▁puntbloedingen	-12.3686
▁eindigend	-12.3686
▁miniem	-12.3686
▁weerstand	-12.3686
▁overgangstype	-12.3686
sinus	-12.3687
lijkbaar	-12.3687
epidermaal	-12.3687
▁biamniotische	-12.3687
▁neuropil	-12.3688
▁overgegaan	-12.3689
▁galblaasbed	-12.3689
▁aortakunstklep	-12.369
▁spiercellen	-12.369
▁ejectiefractie	-12.3693
▁longcirculatie	-12.3693
ineuze	-12.3693
▁dichtbij	-12.3696
▁ketens	-12.37
▁ondervelden	-12.3701
▁portaal	-12.3704
kom	-12.3706
vor	-12.3706
▁littekentjes	-12.3708
▁details	-12.3712
cisiepreparaten	-12.3716
uebloedingen	-12.3719
thal	-12.3721
▁amfetamine	-12.3724
▁pral	-12.3725
fc	-12.3725
buis	-12.3726
▁atm	-12.373
trofie	-12.3735
poliepectomie	-12.3755
▁rechtsfalen	-12.3762
▁drug	-12.3765
sinushistiocytos	-12.3769
illo	-12.3772
▁vermindering	-12.3776
▁indirect	-12.3777
enkel	-12.3781
▁mini	-12.3787
volgende	-12.3793
stic	-12.3798
▁amo	-12.38
stof	-12.3806
▁linkercoronair	-12.3813
hoorn	-12.3828
soorzaak	-12.3833
................	-12.3836
norm	-12.3848
▁ovariumcyste	-12.3858
▁omtrek	-12.3858
granul	-12.386
▁markering	-12.3865
▁terme	-12.3865
▁emc	-12.387
▁uitsluit	-12.3874
infact	-12.3882
lytische	-12.3883
▁plaatste	-12.3885
sparend	-12.3885
streek	-12.3887
▁ontkalking	-12.3889
occlusive	-12.3889
coverage	-12.3889
methylation	-12.3889
waviness	-12.3889
▁aanbeveling	-12.3889
▁acantholyse	-12.3889
▁chorionitis	-12.3889
▁connecti	-12.3889
▁stemplooi	-12.3889
▁strikt	-12.3889
▁zonodig	-12.3889
effort	-12.3889
ongeluk	-12.3889
▁detubatie	-12.3889
▁woning	-12.3889
▁cerebelli	-12.3889
▁eerstegraads	-12.3889
▁fibromatose	-12.3889
▁grofdruppelig	-12.3889
▁opheldering	-12.3889
▁verwondingen	-12.3889
▁leukostase	-12.389
musculatuur	-12.389
▁schedelomtrek	-12.389
▁immunoloog	-12.389
hemato	-12.3891
▁pneumonectomie	-12.3891
immuunziekte	-12.3892
▁abnormaal	-12.3892
▁seborrhoisch	-12.3892
reperfusieschade	-12.3894
▁subtypering	-12.3894
neuspunt	-12.3895
bovenlip	-12.3895
postmortale	-12.3895
ileum	-12.3896
gleasonscore	-12.3897
▁multicentrisch	-12.3898
vrijwel	-12.3898
zeker	-12.3898
orbitaal	-12.3901
alleen	-12.3901
amo	-12.3904
plastisch	-12.3906
▁peritoneumbiopt	-12.3906
▁sclerae	-12.3908
noo	-12.391
arteriosclerosis	-12.3912
ology	-12.3912
groot	-12.3913
thyreoid	-12.3915
▁macula	-12.392
atypie	-12.3922
▁renal	-12.3924
▁wandstandig	-12.3926
spiegels	-12.3935
tentie	-12.3938
vorm	-12.3943
▁adenoma	-12.3943
▁rectumbiopt	-12.3946
▁turt	-12.3947
vervullingsbeeld	-12.395
pulse	-12.3956
▁apneu	-12.3956
pathy	-12.3966
▁fem	-12.3975
oraal	-12.3979
ssen	-12.3986
▁tumorresten	-12.3989
uitgebreid	-12.3991
bas	-12.3997
▁circumferentie	-12.3999
▁vg	-12.4
▁optie	-12.4005
▁archer	-12.4016
ander	-12.4017
ctomie	-12.4019
gele	-12.4036
▁there	-12.4041
ticus	-12.4047
okken	-12.4049
▁hypofaryn	-12.407
lr	-12.408
▁groepje	-12.4084
▁ductectasie	-12.4084
rit	-12.4091
poplitea	-12.4096
uitloper	-12.4097
coriatie	-12.4098
jugulair	-12.4098
ytoca	-12.4098
▁afsplitsing	-12.4098
▁atroof	-12.4098
▁autopsie	-12.4098
▁autopsy	-12.4098
▁coccoide	-12.4098
▁contusio	-12.4098
▁cyanotisch	-12.4098
▁embolectomie	-12.4098
▁glanzend	-12.4098
▁hernieuwd	-12.4098
▁hysteroscopisch	-12.4098
▁onderbouw	-12.4098
▁pallidus	-12.4098
▁parasitair	-12.4098
▁selectieve	-12.4098
▁sterfte	-12.4098
▁verenigbaar	-12.4098
▁verstikking	-12.4098
▁vitamine	-12.4098
▁wakker	-12.4098
▁chorionvlokken	-12.4098
▁stoel	-12.4098
▁parametria	-12.4098
▁turner	-12.4098
▁ulceroflegmoneu	-12.4098
overgangszone	-12.4098
▁ileopsoas	-12.4098
▁meningeale	-12.4098
▁standaard	-12.4098
▁radiologie	-12.4098
▁navelbreuk	-12.4098
▁somscore	-12.4098
▁romphuidtype	-12.4098
▁breukzak	-12.4098
▁support	-12.4098
▁mononier	-12.4098
▁staple	-12.4098
▁notch	-12.4098
▁markeronderzoek	-12.4099
▁slotte	-12.4099
▁chemie	-12.4099
▁postmortem	-12.4099
▁omentalis	-12.4099
absces	-12.41
▁rechterhand	-12.41
huis	-12.41
▁large	-12.41
▁bijzonderheid	-12.4101
▁naevocellulares	-12.4103
gegaan	-12.4103
shave	-12.4105
nieuw	-12.4105
capaciteit	-12.4105
snijden	-12.4106
▁sneden	-12.4106
▁bypassoperatie	-12.4107
dekt	-12.4107
assistent	-12.4109
sternaal	-12.411
divertikel	-12.411
stolling	-12.411
oorspronkelijk	-12.411
concentratie	-12.4111
lambda	-12.4112
▁longarts	-12.4112
▁vaginaal	-12.4113
verwijderd	-12.4113
schedel	-12.4115
▁tumorkenmerken	-12.4119
knop	-12.4119
▁dystrofie	-12.412
▁subchoria	-12.412
desobstructie	-12.412
▁binnenste	-12.4121
▁zenuwen	-12.4129
ptnm	-12.4133
▁mlpa	-12.4136
ulcera	-12.4138
▁linkerlies	-12.4141
▁ingesneden	-12.4143
cardiaresectie	-12.4145
▁linkerflank	-12.4145
▁zuurstofbehoeft	-12.4159
mono	-12.4159
▁thoracolumba	-12.4163
▁clin	-12.4166
gelijk	-12.417
▁berustte	-12.4185
fagen	-12.4185
▁dystrof	-12.4193
rouw	-12.42
doorgroei	-12.4203
pneumoniehaarden	-12.4205
▁bank	-12.4209
derhalve	-12.4215
sclerotisch	-12.4218
▁mgmt	-12.422
tag	-12.4221
▁bind	-12.4227
radi	-12.423
mammair	-12.4232
voorbehandeling	-12.4242
dermaal	-12.4286
land	-12.4288
▁assistent	-12.4301
▁muscul	-12.4303
▁disc	-12.4304
▁cauda	-12.4305
▁lithium	-12.431
sessie	-12.431
▁mallory	-12.431
▁addison	-12.431
▁chromogranine	-12.431
▁coronarius	-12.431
▁dijbeen	-12.431
▁gefuseerd	-12.431
▁geobserveerd	-12.431
▁geprononceerd	-12.431
▁handpalm	-12.431
▁klepvegetaties	-12.431
▁perinatal	-12.431
▁pyogenes	-12.431
▁rillingen	-12.431
▁schrijven	-12.431
▁spierzwakte	-12.431
▁uitgerijpt	-12.431
▁vakantie	-12.431
▁verslijmend	-12.431
▁verstandelijk	-12.431
▁uigebreid	-12.431
▁autonom	-12.431
▁basillaris	-12.431
▁staafvormige	-12.4311
profyla	-12.4311
▁cardiologisch	-12.4311
▁comorbiditeit	-12.4311
▁blastentoename	-12.4311
▁paralyse	-12.4311
▁pacemakerdraad	-12.4311
▁scannen	-12.4311
▁lvaw	-12.4311
▁vaatziekten	-12.4311
pyelo	-12.4311
▁myomen	-12.4312
▁digniteit	-12.4312
▁aetiologie	-12.4313
▁achterliggend	-12.4313
▁huiddefect	-12.4314
▁report	-12.4316
▁vaatpathologie	-12.4317
blad	-12.4317
▁klepprothese	-12.4318
▁mbv	-12.432
jli	-12.4324
▁onmogelijk	-12.4325
dorsaal	-12.4326
fracturen	-12.4326
tweede	-12.4328
volumepercentage	-12.4328
▁micr	-12.4329
diagnostiek	-12.433
herzfehlercellen	-12.4331
▁prae	-12.4331
▁aangemerkt	-12.4332
angiografie	-12.4333
morfologie	-12.4333
encefalopathie	-12.4334
afmeting	-12.4335
amplificatie	-12.4335
cutane	-12.4335
regressie	-12.4335
multi	-12.4335
infectieuze	-12.4335
organiserende	-12.4335
dometriumpipelle	-12.4336
hartfalen	-12.4337
▁koud	-12.434
artefacten	-12.4342
▁borstwand	-12.4343
▁follikels	-12.4343
▁intraepidermal	-12.4345
▁leverschade	-12.4349
mol	-12.4349
abcessen	-12.435
▁manifestatie	-12.4359
▁specimen	-12.4389
▁stembandpoliep	-12.4393
▁emphysemateu	-12.4395
tium	-12.4398
control	-12.4402
mateuze	-12.4405
▁bronchuss	-12.4406
▁electro	-12.4406
richting	-12.4407
sgewijze	-12.4416
▁ams	-12.4424
▁hercep	-12.4426
▁verwekingshaard	-12.4426
celrijk	-12.443
takslijden	-12.4446
▁hersenbasis	-12.4448
versie	-12.4456
gemerkt	-12.4456
▁digiti	-12.4462
ios	-12.4464
▁wangslijmvlies	-12.4476
nefritis	-12.4488
▁inname	-12.4488
ventrale	-12.4492
▁sluitend	-12.4492
stelsel	-12.4498
uctie	-12.4508
▁vochtcollectie	-12.451
▁element	-12.4514
▁wandverdikking	-12.4516
▁frontaalkwab	-12.452
daar	-12.452
▁beantwoord	-12.4521
klepplastiek	-12.4521
plasma	-12.4522
hippocampale	-12.4526
▁electric	-12.4528
rechterhemisfeer	-12.4528
stermijn	-12.4528
▁auramine	-12.4528
▁cordarone	-12.4528
▁fenotypisch	-12.4528
▁gehyaliniseerd	-12.4528
▁hartmassage	-12.4528
▁intermittens	-12.4528
▁longhili	-12.4528
▁partner	-12.4528
▁pemfigoid	-12.4528
▁pleurazwoerd	-12.4528
waterhouse	-12.4528
▁activity	-12.4528
▁bloedingsplaats	-12.4528
▁lukte	-12.4528
▁ewing	-12.4528
▁petechiale	-12.4528
▁reepjes	-12.4528
▁palga	-12.4528
▁superinfectie	-12.4529
dominant	-12.4529
▁nucleoli	-12.4529
▁musculair	-12.4529
▁jongeman	-12.4529
▁interval	-12.4529
▁afvallen	-12.453
▁kilo	-12.453
▁ascal	-12.453
▁vetlaag	-12.453
▁vaatsysteem	-12.453
steato	-12.4532
▁micropapillair	-12.4533
▁sturen	-12.4533
▁hage	-12.4533
▁keloid	-12.4534
▁duodenummucosa	-12.4535
▁botvorming	-12.4536
amyloiddepositie	-12.4537
▁cystevocht	-12.4538
▁huma	-12.4539
cti	-12.454
reden	-12.4541
▁unit	-12.4544
▁reeel	-12.4544
▁paraaortaal	-12.4545
▁ontbraken	-12.4546
▁pees	-12.4547
arthrose	-12.4547
▁clips	-12.4548
spiegel	-12.4548
▁lissen	-12.455
▁overall	-12.455
centrale	-12.4552
▁helderen	-12.4558
insertie	-12.456
media	-12.456
agonaal	-12.4561
richardson	-12.4562
kappa	-12.4562
aanwezigheid	-12.4563
massale	-12.4567
thoracale	-12.4577
▁obstructies	-12.4577
tien	-12.4582
▁rectumresectie	-12.4583
maagbiopten	-12.4584
▁miltinfarcten	-12.4592
bloeduitstorting	-12.4594
▁ccu	-12.4596
cientie	-12.4597
belemmering	-12.4599
▁nash	-12.4605
▁ingevangen	-12.4616
▁dip	-12.4618
hetgeen	-12.462
▁immuunsuppressi	-12.4622
sw	-12.4623
▁leverhaarden	-12.4627
grens	-12.4628
▁atrial	-12.4635
nephr	-12.4636
▁remmers	-12.4641
▁vd	-12.4647
vast	-12.465
histiocytose	-12.466
▁huidweefsel	-12.4665
falan	-12.4666
▁tag	-12.4672
rp	-12.4673
asia	-12.4674
macro	-12.4676
methode	-12.4683
▁hepatico	-12.47
plasmo	-12.4704
membra	-12.4712
▁falend	-12.4716
▁leiomyoma	-12.4725
klieren	-12.4726
▁longarterie	-12.4728
witte	-12.4731
mss	-12.4732
nodale	-12.4745
ctasie	-12.4746
tracheaal	-12.4746
slaap	-12.4746
▁amenorrhoe	-12.475
▁afvoer	-12.475
dehydrogenase	-12.475
faillure	-12.475
iparine	-12.475
▁apoptose	-12.475
▁cerebrospinalis	-12.475
▁discontinu	-12.475
▁erythematodes	-12.475
▁geretourneerd	-12.475
▁geschrompeld	-12.475
▁hemosiderine	-12.475
▁hersenhemisfeer	-12.475
▁krachtsverlies	-12.475
▁linkerhemisfeer	-12.475
▁losmazig	-12.475
▁miniscu	-12.475
▁oncocytaire	-12.475
▁ossificatie	-12.475
▁prostaticus	-12.475
▁schimmelsporen	-12.475
▁verklaarbaar	-12.475
▁volumineus	-12.475
▁voortschrijdend	-12.475
known	-12.475
▁crisis	-12.475
▁justitie	-12.475
▁peritonei	-12.475
▁erythropoiese	-12.475
▁pouch	-12.475
promoter	-12.475
▁homogeen	-12.475
▁laryngectomie	-12.475
----------------	-12.475
▁hemofagocytose	-12.475
▁biochemisch	-12.475
▁abruptio	-12.475
vasculatuur	-12.475
▁gestegen	-12.475
▁duizeligheid	-12.475
▁ontstolling	-12.475
▁pectoralis	-12.475
▁arteritis	-12.4751
cja	-12.4751
▁sputumkweek	-12.4751
▁tonsillair	-12.4752
▁doodsoorzaken	-12.4752
▁verplaatsing	-12.4752
▁cryptogen	-12.4753
▁roze	-12.4753
▁achteraf	-12.4756
morbiditeit	-12.4756
▁contusiehaarden	-12.4756
tweelingplacenta	-12.4756
satelliethaarden	-12.4758
wit	-12.4758
▁nierkapsel	-12.4762
▁hla	-12.4765
gegevens	-12.4771
iliaire	-12.4776
▁substantiel	-12.4776
▁nierlijden	-12.4778
gemengd	-12.4779
▁levercysten	-12.4782
ator	-12.4784
▁mib	-12.4786
▁rechteronderarm	-12.4787
▁nierinfarcten	-12.4789
eosinofiele	-12.4791
iliaca	-12.4793
tangles	-12.4794
maternal	-12.4794
▁vetemboli	-12.4794
medicatie	-12.4795
papmilt	-12.4795
helicobacter	-12.4795
▁inwerking	-12.4795
myocardinfarct	-12.4796
carina	-12.4797
rine	-12.4797
▁meckel	-12.4798
schot	-12.48
hvd	-12.4801
natuurlijk	-12.4801
▁vochtig	-12.4802
▁skeletspier	-12.4808
▁barre	-12.4811
▁borstholte	-12.4815
▁fundustype	-12.4827
copd	-12.4835
uire	-12.4843
▁rechteroor	-12.4854
resistentie	-12.4863
maagovergang	-12.487
ventraal	-12.4875
▁corona	-12.4875
▁gaand	-12.4876
halsgebied	-12.4882
lagen	-12.4889
tieve	-12.4895
stk	-12.4895
▁polymorf	-12.4907
bos	-12.4917
pneumo	-12.4924
▁bar	-12.4932
▁lymfomato	-12.4933
definit	-12.494
▁herstellen	-12.4948
ipf	-12.4948
infarctjes	-12.4954
▁atheroom	-12.4954
▁doorsnijding	-12.4973
▁result	-12.4976
ydase	-12.4977
▁lymfangiectasie	-12.4977
leucocytoclas	-12.4977
▁diastolisch	-12.4977
▁evalueren	-12.4977
▁floride	-12.4977
▁fumigatus	-12.4977
▁gespaard	-12.4977
▁hallucinaties	-12.4977
▁imbibitie	-12.4977
▁junctie	-12.4977
▁keratinocyten	-12.4977
▁leucaemie	-12.4977
▁polycythaemi	-12.4977
▁verbleking	-12.4977
▁verbonden	-12.4977
▁vulnerabel	-12.4977
vitaliteit	-12.4977
▁cassette	-12.4977
▁dermatomycose	-12.4977
▁dermatomyositis	-12.4977
▁paracolisch	-12.4977
▁gescand	-12.4977
schimmen	-12.4977
▁megakaryopoese	-12.4977
▁anteroseptale	-12.4977
▁disseminatie	-12.4977
▁secretiefase	-12.4977
kloon	-12.4977
sanders	-12.4977
▁haemophil	-12.4977
▁dyskeratose	-12.4977
▁afgebroken	-12.4977
▁gliosis	-12.4978
▁hematopericard	-12.4978
▁rontgenfoto	-12.4978
▁broer	-12.4978
▁spits	-12.4978
▁ecchymosen	-12.4978
▁endstage	-12.4978
▁nefrotisch	-12.4978
▁anisocorie	-12.4979
▁pigmenthoudend	-12.4979
▁sinussen	-12.498
trophi	-12.498
▁uitdrukbaar	-12.4981
▁hersenhelft	-12.4981
▁diagnosis	-12.4981
▁aantallen	-12.4983
▁nood	-12.4983
kun	-12.4985
▁aansnijding	-12.4988
onbehandelbare	-12.4993
▁prionziekte	-12.4995
▁darmsegment	-12.4999
▁genezend	-12.5002
sdiagnose	-12.5005
wisseling	-12.5008
▁maagklachten	-12.5012
▁voorvoet	-12.5018
elli	-12.5022
▁tubulusatrofie	-12.5023
sgroep	-12.5028
▁punten	-12.5028
▁zoom	-12.5029
romp	-12.503
encephalitis	-12.5031
grawitz	-12.5032
proef	-12.5032
fatty	-12.5032
chemotherapie	-12.5033
gegeneraliseerd	-12.5033
galblaas	-12.5034
▁grover	-12.5034
alcoholische	-12.5036
▁gevoeld	-12.5036
arterio	-12.5037
groeiwijze	-12.5039
▁maagoperatie	-12.504
▁immunocytochemi	-12.5042
▁rechtsonder	-12.5043
rsc	-12.5043
▁decubituswond	-12.5055
▁intrekking	-12.5058
rmatopathologie	-12.5059
hoeft	-12.5061
gestuurd	-12.5067
premortale	-12.5078
terale	-12.5079
▁kamers	-12.5083
gedragen	-12.5083
▁chemotherapeuti	-12.5089
▁cyst	-12.5092
▁verklaringen	-12.5097
▁bap	-12.511
▁anal	-12.5114
wegen	-12.5122
gangsepitheelcel	-12.5128
▁smo	-12.5136
uitstrijken	-12.516
▁uiteen	-12.5164
kleuringspatroon	-12.517
▁restlaesie	-12.517
▁weker	-12.517
respiratoir	-12.5176
kanker	-12.5184
▁ontlast	-12.5193
▁klepblad	-12.5197
▁myocyt	-12.5198
alisatie	-12.5202
▁lipo	-12.5205
heidshalve	-12.5208
gewerkt	-12.5209
▁bedlegerig	-12.5209
▁afstrijkba	-12.5209
▁tricuspid	-12.5209
jmroze	-12.521
▁bridging	-12.521
clusionem	-12.521
elaatsdysmorfien	-12.521
getrokken	-12.521
rachiocephalicus	-12.521
resorptie	-12.521
sleutelbeen	-12.521
stimulatie	-12.521
▁alcian	-12.521
▁angiomyolipoom	-12.521
▁array	-12.521
▁cirrhosis	-12.521
▁concha	-12.521
▁configuratie	-12.521
▁decursus	-12.521
▁fimbriae	-12.521
▁losgelaten	-12.521
▁opportunistisch	-12.521
▁spliet	-12.521
▁strangulatie	-12.521
▁trabeculatie	-12.521
▁tuberculosis	-12.521
▁verdrinking	-12.521
regulatie	-12.521
▁gangreen	-12.521
▁somber	-12.521
▁vascularisatie	-12.521
consensus	-12.521
ymfoplasmocytair	-12.521
▁cervicitis	-12.521
▁imponeerde	-12.521
▁granulopoiese	-12.521
spuiten	-12.521
▁platform	-12.521
▁voelen	-12.521
▁inmonding	-12.521
▁apnoe	-12.521
▁verzorgd	-12.521
▁kapseldoorgroei	-12.521
▁microcytaire	-12.521
▁ldt	-12.5211
▁femorales	-12.5211
▁parasternaal	-12.5211
▁overgangsgebied	-12.5212
▁perirectale	-12.5212
▁zegelringcellen	-12.5212
▁pustel	-12.5212
▁coecumbodem	-12.5212
▁hypereosinofiel	-12.5214
▁adenosis	-12.5214
▁mammasparend	-12.5215
▁buikspoelvocht	-12.5217
▁thromboembolus	-12.5217
▁aangesneden	-12.5217
▁hyperemie	-12.5218
▁uitgegaan	-12.5219
▁sporten	-12.5219
▁dui	-12.522
▁necrosehaardjes	-12.5221
stuk	-12.5223
▁lymfvaten	-12.5224
volledigheid	-12.5228
▁pica	-12.5229
▁whi	-12.523
▁miltkapsel	-12.523
▁pockets	-12.5231
▁serosaal	-12.5232
▁bekkenwand	-12.5234
▁intraperitoneal	-12.5237
▁teveel	-12.5243
▁steunt	-12.5246
▁diepste	-12.5249
▁rechterbovenarm	-12.5252
▁roker	-12.5255
▁myocardruptuur	-12.5255
mentaal	-12.5256
▁microvasculair	-12.5261
laat	-12.5263
iteerd	-12.5267
dermale	-12.5267
proliferatiefase	-12.5271
septumruptuur	-12.5272
kristallen	-12.5274
ophoping	-12.5274
naschrift	-12.5275
schimmel	-12.5275
zwart	-12.5276
zwelling	-12.5276
aantasting	-12.5276
rectosigmoid	-12.5277
uterus	-12.5277
kwam	-12.5277
▁vaatlaesie	-12.5277
onderlip	-12.5277
draad	-12.5278
peritonitisbeeld	-12.5279
path	-12.5281
eerste	-12.5287
erosie	-12.53
lesie	-12.5312
lezen	-12.5314
▁differentiee	-12.5314
▁neg	-12.5318
angiomateuze	-12.5328
kig	-12.5335
raal	-12.5338
sduur	-12.534
overgevoeligheid	-12.5347
chronic	-12.5351
▁reinfarcering	-12.5352
▁vooraf	-12.5354
itieve	-12.5354
▁intraalveolair	-12.5362
malig	-12.5368
draden	-12.5381
▁vind	-12.5381
plek	-12.5381
lacta	-12.54
ham	-12.5405
gegeven	-12.5406
▁lymfvat	-12.5416
recht	-12.5417
▁granulatie	-12.5426
▁oesofagusbiopt	-12.5429
anderson	-12.543
▁keten	-12.5432
▁uitbreiden	-12.5438
embolen	-12.5439
▁additione	-12.5439
▁correct	-12.5441
▁bioklep	-12.5444
bevind	-12.5445
▁femoro	-12.5446
▁griep	-12.5447
▁objectiveerba	-12.5447
groeve	-12.5447
potters	-12.5448
▁insnoering	-12.5448
▁niessen	-12.5448
coagulopathie	-12.5448
jukbeen	-12.5448
laparatomie	-12.5448
parathyreoidie	-12.5448
▁aangezicht	-12.5448
▁behandelopties	-12.5448
▁condyloom	-12.5448
▁detecteerbaar	-12.5448
▁gesitueerd	-12.5448
▁glycogeen	-12.5448
▁hyperthermie	-12.5448
▁intermitterend	-12.5448
▁marcescens	-12.5448
▁oncologisch	-12.5448
▁perfringens	-12.5448
▁periportaal	-12.5448
▁volumineuze	-12.5448
▁generaliseerde	-12.5448
▁tachypnoe	-12.5448
▁uitwijzen	-12.5448
ymfoplasmacytair	-12.5448
▁aanvoerend	-12.5448
▁effusie	-12.5448
▁epidurale	-12.5448
▁polydactylie	-12.5448
▁tentamen	-12.5448
▁ballonpomp	-12.5448
▁impact	-12.5448
▁stafylokokken	-12.5448
▁femurkop	-12.5448
▁staafjes	-12.5448
▁voorstelbaar	-12.5448
▁mooi	-12.5448
▁strip	-12.5448
▁sick	-12.5448
injectie	-12.5448
mithyroidectomie	-12.5449
zijds	-12.545
epithel	-12.545
▁neuroloog	-12.545
vascular	-12.545
▁slijmstase	-12.5451
▁omheen	-12.5453
▁anore	-12.5454
▁lymfoma	-12.5455
onden	-12.5455
▁loopstoornissen	-12.5455
cilinders	-12.5457
▁slijmvorming	-12.5458
▁lekkend	-12.5458
▁placentavolume	-12.5458
▁botten	-12.546
▁rechterovarium	-12.5461
kwabsbronchus	-12.5463
▁old	-12.5466
▁matri	-12.5466
▁stijgende	-12.5474
otomie	-12.5475
opath	-12.5477
▁lek	-12.5477
▁aanhangend	-12.5481
▁chole	-12.5484
▁placentair	-12.5484
▁reele	-12.5486
▁miliaire	-12.5489
congofiele	-12.5496
▁topklier	-12.5496
▁aanvallen	-12.5498
▁dak	-12.5501
▁proliferaties	-12.5502
itus	-12.5503
▁centroblastair	-12.5505
▁bloedtransfusie	-12.5512
circulatie	-12.5515
hemi	-12.5518
▁gedi	-12.5518
▁longkweek	-12.5519
betreffende	-12.5523
ductaal	-12.5523
▁blaasresectie	-12.5525
snijranden	-12.5525
borderline	-12.5526
operatielitteken	-12.5526
scalp	-12.5526
scapula	-12.5526
kruin	-12.5526
neusvleugel	-12.5526
nefropathie	-12.5526
hepato	-12.5527
posterior	-12.5527
bevestigd	-12.5527
daarnaast	-12.5527
lucht	-12.5527
agonale	-12.5528
hooguit	-12.5529
▁remmer	-12.5529
▁mil	-12.5533
lipoom	-12.5534
▁retina	-12.5536
markers	-12.5537
▁longmetastase	-12.5542
▁tumoremboli	-12.5544
▁klatskin	-12.5547
▁verloopt	-12.5558
▁spoelsel	-12.5568
beta	-12.557
plm	-12.5576
nsip	-12.5576
▁melano	-12.558
fragmentje	-12.5581
▁bronchio	-12.5596
press	-12.56
rna	-12.5606
gesloten	-12.5616
resectieranden	-12.5616
produc	-12.5622
behouden	-12.5636
acantholytisch	-12.5643
cardiatype	-12.5644
timahyperplasie	-12.566
▁nf	-12.5669
tamponnade	-12.5672
▁bewijzen	-12.5674
▁emfysema	-12.5692
▁asphy	-12.5692
bundeltakblok	-12.5692
dissecteerde	-12.5692
onderbreking	-12.5692
stanford	-12.5692
verkazende	-12.5692
▁cornair	-12.5692
▁desalniettemin	-12.5692
▁diurese	-12.5692
▁doorgebeld	-12.5692
▁endometritis	-12.5692
▁epidermidis	-12.5692
▁glabrata	-12.5692
▁gynaecologische	-12.5692
▁intervillositis	-12.5692
▁intracranieel	-12.5692
▁malleolus	-12.5692
▁parametrium	-12.5692
▁pelvien	-12.5692
▁planocellulair	-12.5692
▁polycythemi	-12.5692
▁retrospect	-12.5692
▁stricturerend	-12.5692
▁stridor	-12.5692
neelsen	-12.5692
▁glans	-12.5692
▁obturatoria	-12.5692
▁down	-12.5692
▁melding	-12.5692
▁veertien	-12.5692
▁aktieve	-12.5692
▁cystoscopie	-12.5692
▁lethale	-12.5692
▁vaatanomalie	-12.5692
▁beneden	-12.5692
▁resulteerde	-12.5692
ndiceerd	-12.5692
▁wenselijk	-12.5692
▁cvp	-12.5692
▁duiding	-12.5692
▁vitium	-12.5692
▁rima	-12.5693
▁zinvol	-12.5693
pansie	-12.5693
▁lichaamshelft	-12.5693
▁hersenschade	-12.5693
▁pick	-12.5693
▁plavei	-12.5694
▁mbt	-12.5694
▁erytroid	-12.5695
▁hoofdstammen	-12.5695
clonaal	-12.5695
waarts	-12.5695
▁neusgang	-12.5696
▁gebruikelijk	-12.5696
nig	-12.5696
▁gemicro	-12.5697
▁weigerde	-12.5698
▁prerenaal	-12.5699
▁abceshaarden	-12.5705
monster	-12.5706
verdunning	-12.5709
▁ziehl	-12.571
littekens	-12.5711
macrotest	-12.5712
▁psoasbloeding	-12.5713
▁slokdarmbiopt	-12.5713
▁tkis	-12.5716
dako	-12.572
▁darmdeel	-12.5724
▁aangeven	-12.5725
▁homozygot	-12.5729
▁samenhangt	-12.5729
ndens	-12.5735
▁rechterflank	-12.5737
ureterectomie	-12.5738
cerebrale	-12.5739
ming	-12.5741
▁adjuvant	-12.5742
teuze	-12.5744
▁mediagebied	-12.5748
welke	-12.5752
▁normal	-12.5756
▁revalidatie	-12.5756
▁ulceratief	-12.5763
▁sep	-12.5766
▁ovariumtumor	-12.5773
▁placentagewicht	-12.5773
afs	-12.5774
mming	-12.5777
▁neurogeen	-12.5777
▁lues	-12.578
beoordeeld	-12.578
cellulariteit	-12.5781
somatisch	-12.5781
prolaps	-12.5782
breslow	-12.5782
barrett	-12.5783
afwijkend	-12.5783
stasis	-12.5783
doorbraak	-12.5783
uitval	-12.5787
nder	-12.5792
▁longinfarcering	-12.5792
▁linkerarm	-12.5797
cysteus	-12.5802
▁linkerzijwand	-12.5805
koa	-12.5812
voorziening	-12.5815
debakey	-12.5832
▁antistollings	-12.5853
▁verrichting	-12.587
▁resorberend	-12.5873
▁afstands	-12.5881
▁balk	-12.5884
toni	-12.5889
▁stug	-12.5901
▁waa	-12.5908
▁substantie	-12.5911
▁bacteri	-12.5922
▁gedrags	-12.5922
▁kapje	-12.5924
blastoom	-12.5927
▁pulmonalisklep	-12.5935
fna	-12.5936
▁ecto	-12.594
schijf	-12.5941
dynamisch	-12.5942
vertebral	-12.5942
▁jump	-12.5942
glaasje	-12.5942
▁astrocytair	-12.5942
▁brochopneumonie	-12.5942
▁descenderend	-12.5942
▁getypeerd	-12.5942
▁hypoglycemie	-12.5942
▁polyclonale	-12.5942
▁review	-12.5942
▁schatten	-12.5942
▁stichting	-12.5942
▁subthalamicus	-12.5942
▁supraglottisch	-12.5942
▁varicella	-12.5942
▁venostatische	-12.5942
▁verwaarlozing	-12.5942
bleomycine	-12.5942
infestatie	-12.5942
polipectomie	-12.5942
▁bloedingsfoci	-12.5942
▁motiel	-12.5942
▁rabdomyolyse	-12.5942
oesophageaal	-12.5942
▁iugr	-12.5942
▁giemsa	-12.5942
▁papillomatose	-12.5942
▁gazen	-12.5942
▁morfea	-12.5942
▁enzymproef	-12.5942
▁tablet	-12.5942
▁groeven	-12.5942
▁subcorticaal	-12.5942
giant	-12.5942
▁meegenomen	-12.5942
▁hechtmateriaal	-12.5943
▁uitlopers	-12.5943
▁gasvorming	-12.5943
▁nates	-12.5943
▁ongemarkeerd	-12.5943
▁retroplacentair	-12.5944
▁zenuwweefsel	-12.5944
vatslijden	-12.5944
▁ttp	-12.5944
▁corresponderend	-12.5944
▁premaligne	-12.5946
▁slokdarmvarices	-12.5946
▁tussenliggend	-12.5947
▁pericardiaal	-12.5947
▁acta	-12.5947
genome	-12.595
▁klompvoeten	-12.595
▁endoresectie	-12.5951
▁myocardinfact	-12.5951
▁partia	-12.5952
▁vasopressie	-12.5952
▁gestaa	-12.5953
▁zijtakken	-12.5953
▁significantie	-12.5954
lumpectomie	-12.5955
▁urinekweek	-12.5955
▁levens	-12.5955
▁uterina	-12.5955
▁rechterbijnier	-12.5956
▁bovenzijde	-12.5956
▁kapjes	-12.5959
▁abortusrest	-12.5965
▁tromboembolieen	-12.5967
▁subklinisch	-12.597
▁vergelijkba	-12.5975
▁vervolgen	-12.598
▁wild	-12.5981
▁fietsen	-12.5982
▁ducten	-12.5983
▁mucosaal	-12.599
past	-12.5991
nomen	-12.6
▁bronchiolo	-12.6002
▁uitte	-12.6005
▁lh	-12.6014
▁thrombotisch	-12.6017
calcificatie	-12.6028
cirrhose	-12.6029
▁pz	-12.6033
▁naam	-12.6034
foci	-12.6034
archer	-12.6043
dysfunctie	-12.6045
schildklierkwab	-12.6046
crista	-12.6046
hydro	-12.6046
bowen	-12.6046
infiltrerend	-12.6046
lichen	-12.6046
diffuus	-12.6046
verdenking	-12.6046
uiteinde	-12.605
cavaal	-12.605
hoop	-12.6052
scheenbeen	-12.6052
dieper	-12.6055
▁sept	-12.6065
behoud	-12.6084
▁subepiderma	-12.6085
▁ventrikeldrain	-12.6098
gren	-12.6099
infectieus	-12.6112
▁vaatafsluiting	-12.6117
progesteron	-12.6126
hevig	-12.6128
▁war	-12.6137
gastro	-12.6138
ertijd	-12.6145
dicht	-12.6151
orens	-12.6175
verschil	-12.618
▁bloedinkje	-12.6181
▁gezet	-12.6186
▁lym	-12.6196
lichamen	-12.6198
▁begon	-12.6198
icilline	-12.6198
friderichsen	-12.6198
megakaryocytaire	-12.6198
vaatverbindingen	-12.6198
▁alcoholabuses	-12.6198
▁benzodiazepine	-12.6198
▁botalli	-12.6198
▁dwangstand	-12.6198
▁elektrisch	-12.6198
▁insectensteek	-12.6198
▁intercostaal	-12.6198
▁lijkstijfheid	-12.6198
▁morfometrisch	-12.6198
▁nefrostomie	-12.6198
▁obducent	-12.6198
▁oligurie	-12.6198
▁perivenulair	-12.6198
▁rupturering	-12.6198
▁schock	-12.6198
▁tachypneu	-12.6198
▁variabel	-12.6198
▁verdrongen	-12.6198
▁carinii	-12.6198
▁diffuze	-12.6198
▁intraveneus	-12.6198
epitheliomateuze	-12.6198
▁olijfkernen	-12.6198
▁genummerd	-12.6198
▁granulomateus	-12.6198
▁ileitis	-12.6198
▁verbeteren	-12.6198
▁hnp	-12.6198
▁stoten	-12.6198
ultrastructureel	-12.6198
▁medium	-12.6199
▁staaf	-12.6199
differentiated	-12.6199
▁vaatrijk	-12.6199
▁pinpointlumen	-12.6199
▁steenlijden	-12.6199
▁wacht	-12.6199
▁vaattekening	-12.62
▁schorsatrofie	-12.62
▁thrombosebeen	-12.62
rupturen	-12.62
▁microcirculatie	-12.6201
▁chromosomen	-12.6201
dorsolateraal	-12.6201
gevallen	-12.6202
▁buitenaf	-12.6202
facial	-12.6202
immunoblastair	-12.6202
entry	-12.6205
▁blaasbodem	-12.6205
homonas	-12.6206
▁haematogeen	-12.6207
illus	-12.6208
▁hyp	-12.6209
▁organoid	-12.6209
wig	-12.621
▁bijdragen	-12.6211
▁vage	-12.6213
longproblematiek	-12.6216
▁bronchieen	-12.6217
▁spoelvormige	-12.6217
▁gewrichten	-12.6217
▁vlakbij	-12.6219
▁kransslagaders	-12.6221
▁elektrolyten	-12.6221
▁mega	-12.6226
▁klepring	-12.6229
▁nierdysplasie	-12.623
percentage	-12.6237
▁gediff	-12.6247
▁psychose	-12.6251
later	-12.6256
▁uitstroom	-12.6259
metrie	-12.6267
▁naadlekkages	-12.6269
inke	-12.627
ocytose	-12.6274
mof	-12.6278
pulmonalistakken	-12.6281
arotisbifurcatie	-12.6291
anamnestisch	-12.6294
this	-12.6304
stel	-12.6307
origine	-12.6307
▁ureters	-12.6307
thi	-12.6311
block	-12.6313
krap	-12.6314
aanvul	-12.6314
lumbaal	-12.6315
hotspot	-12.6315
buiten	-12.6315
hilair	-12.6316
depletie	-12.6316
disease	-12.6316
necrotisch	-12.6317
carcinoid	-12.6317
granulomen	-12.6317
postmortaal	-12.6317
oesofagus	-12.6318
▁linea	-12.632
nissen	-12.6323
bank	-12.6324
sluiting	-12.6328
bloedvoorziening	-12.633
stuit	-12.6334
▁oogde	-12.6339
mai	-12.634
▁beweging	-12.6348
lipid	-12.6348
vezels	-12.6348
depressie	-12.635
entero	-12.6368
▁miltweefsel	-12.6377
▁opruiming	-12.6383
▁raakt	-12.6384
▁hoofdwond	-12.6386
staart	-12.6404
ramus	-12.6418
gelopen	-12.643
▁verheven	-12.6445
▁overgrijpen	-12.645
olair	-12.6454
▁verzep	-12.6456
▁subserosa	-12.6456
misbruik	-12.6461
woekering	-12.6461
▁pupil	-12.6461
▁skipping	-12.6461
amethason	-12.6461
gehandeld	-12.6461
ploreerd	-12.6461
▁abscederend	-12.6461
▁beademen	-12.6461
▁changes	-12.6461
▁dodelijk	-12.6461
▁glabella	-12.6461
▁grijsroze	-12.6461
▁haemochromatose	-12.6461
▁iliopsoas	-12.6461
▁klepvitia	-12.6461
▁lymfadenitis	-12.6461
▁onveranderd	-12.6461
▁spermatogenese	-12.6461
▁synaptofysine	-12.6461
▁trombectomie	-12.6461
▁voelt	-12.6461
▁website	-12.6461
position	-12.6461
▁kalium	-12.6461
sudep	-12.6461
▁kauk	-12.6461
▁manipulatie	-12.6461
▁immobilisatie	-12.6461
▁omentectomie	-12.6461
▁calcium	-12.6461
▁adenomyomateuze	-12.6461
▁detectie	-12.6461
▁knik	-12.6462
pvod	-12.6462
▁schedelomvang	-12.6462
▁agressief	-12.6462
▁antilichaam	-12.6462
▁wervellichaam	-12.6462
▁anthracotisch	-12.6462
▁transpositie	-12.6462
▁poststenotisch	-12.6462
▁torsie	-12.6462
▁afgevallen	-12.6462
▁immunologie	-12.6462
▁bronchopneumie	-12.6464
▁herbeoordeling	-12.6464
▁stroge	-12.6464
▁microtrombi	-12.6464
▁strooihaarden	-12.6466
▁uittrede	-12.6467
myelomonocytaire	-12.6467
▁celproliferatie	-12.6468
▁wondgebied	-12.6469
▁mgl	-12.647
galwegobstructie	-12.6473
▁milthilus	-12.6473
▁testes	-12.6475
▁cathetereffect	-12.6475
▁slijmig	-12.6475
ontstekingsfocus	-12.6476
▁paraaortale	-12.6477
▁hereditaire	-12.6478
▁puscollecties	-12.6478
adenomen	-12.648
▁pleurapunctie	-12.6481
fibrinedepositie	-12.6482
multiresistent	-12.6489
▁huiddefecten	-12.649
▁tumordeposities	-12.6492
▁rechtervoet	-12.6496
grafisch	-12.6498
▁dochter	-12.6499
▁bieden	-12.6509
▁zaten	-12.6511
uff	-12.6512
mateus	-12.6528
▁opgezet	-12.6532
▁events	-12.6536
schildkliernodus	-12.6542
▁waarschijn	-12.6542
sperm	-12.655
▁pink	-12.6552
▁halslymfklier	-12.6554
isup	-12.6561
▁ru	-12.6563
▁kleuren	-12.6568
mening	-12.6583
ated	-12.6584
alcohol	-12.659
katheter	-12.659
recidiverend	-12.6593
patch	-12.6593
congestie	-12.6594
slokdarm	-12.6594
juist	-12.6594
perifeer	-12.6594
superficieel	-12.6594
gemetastaseerd	-12.6595
beleid	-12.6595
naaldbiopsie	-12.6596
rechterwang	-12.6596
complicaties	-12.6598
onderrug	-12.6599
toilet	-12.66
▁nephro	-12.6603
productie	-12.6607
ptag	-12.6614
left	-12.6619
azol	-12.662
▁oro	-12.6622
ogg	-12.6622
▁bloedbeeld	-12.6625
pars	-12.6637
oscopisch	-12.6639
histochemisch	-12.6645
idi	-12.6659
▁verrichtte	-12.666
laten	-12.6662
▁blijvend	-12.6673
▁toevals	-12.6693
▁sf	-12.6705
▁behoren	-12.6714
▁puscollectie	-12.6714
▁periodes	-12.6714
▁overeenkomen	-12.6715
▁kenmerk	-12.6715
▁sterker	-12.6716
nasal	-12.6717
▁vertakking	-12.6718
▁mitochondri	-12.6726
▁mr	-12.6728
▁vrucht	-12.6731
ptr	-12.6731
▁ortho	-12.6731
▁cross	-12.6731
spleten	-12.6732
bewaking	-12.6732
eclampsie	-12.6732
hyperchromatisch	-12.6732
pityrosporum	-12.6732
presentativiteit	-12.6732
▁abstinentie	-12.6732
▁afgewacht	-12.6732
▁evidence	-12.6732
▁feochromocytoom	-12.6732
▁geriatrie	-12.6732
▁geserreerd	-12.6732
▁graves	-12.6732
▁hyperventilatie	-12.6732
▁hypoventilatie	-12.6732
▁idiopatische	-12.6732
▁insteekopening	-12.6732
▁kiemceltumor	-12.6732
▁krabben	-12.6732
▁laminectomie	-12.6732
▁microbioloog	-12.6732
▁ongeschikt	-12.6732
▁pericardeffusie	-12.6732
▁tientallen	-12.6732
▁tongbeet	-12.6732
▁trigger	-12.6732
▁uitdroging	-12.6732
▁ventricular	-12.6732
▁verbening	-12.6732
▁vertrouwend	-12.6732
methylatie	-12.6732
▁concrete	-12.6732
▁uitmonding	-12.6732
▁collateraal	-12.6732
▁interface	-12.6732
▁bijtfibroom	-12.6732
▁nstemi	-12.6732
▁onderhuids	-12.6732
▁inhalatie	-12.6732
▁multifactorieel	-12.6732
▁abstinatie	-12.6732
oplasmose	-12.6732
▁donornier	-12.6732
▁bekkenorganen	-12.6732
▁objectiveerbaar	-12.6732
▁vaststelling	-12.6733
▁vaatsteel	-12.6733
▁brickerblaas	-12.6733
▁pigmentosa	-12.6733
▁losgelegen	-12.6733
▁hyperemisch	-12.6733
▁epitheelatypie	-12.6734
tinib	-12.6734
manchet	-12.6734
▁laagstand	-12.6735
▁arterialisatie	-12.6735
infraclaviculair	-12.6736
▁deciduaal	-12.6736
▁bipo	-12.6736
▁osas	-12.6736
zelb	-12.6737
▁bont	-12.6738
▁ischami	-12.6738
▁beck	-12.6738
▁zwaarder	-12.6739
▁rosea	-12.6739
gln	-12.6741
▁hiertussen	-12.6744
▁scha	-12.6753
▁macrometastasen	-12.6756
vier	-12.6759
▁weefselreactie	-12.6765
▁plaveiselcellen	-12.6766
▁rechtsdominant	-12.6769
fem	-12.6772
▁beenmergbiopsie	-12.6774
▁optreedt	-12.678
▁heftig	-12.6787
ull	-12.6788
▁cardiomyocyt	-12.6798
intramyocardiaal	-12.68
kracht	-12.6806
oog	-12.6807
cva	-12.6823
ail	-12.6827
vaatsclerose	-12.6828
▁epitheelcyste	-12.683
ban	-12.6843
colitis	-12.6854
clus	-12.6859
medullair	-12.6864
▁translocaties	-12.6871
▁spongi	-12.6875
genoemd	-12.6876
noduli	-12.6877
prostaatresectie	-12.6878
ruiter	-12.6878
referentie	-12.6879
elastose	-12.6879
gekleurd	-12.6879
keratine	-12.6879
bestraling	-12.688
binnen	-12.688
verhoornend	-12.688
iuvd	-12.688
bei	-12.6892
toont	-12.6895
nuc	-12.69
▁subtiel	-12.6901
onbekend	-12.6902
▁bauhin	-12.691
▁omringend	-12.6916
local	-12.6936
olithiasis	-12.6939
gradig	-12.694
drains	-12.6945
▁psycho	-12.6949
treedt	-12.696
osclerotisch	-12.6961
▁diaphragma	-12.6971
▁afwacht	-12.6973
stant	-12.6976
fibrileren	-12.6988
▁steroid	-12.6996
▁wegraking	-12.6996
▁orgaandonatie	-12.7
palatoschisis	-12.7004
erwijs	-12.7006
▁continuiteit	-12.7006
plantatie	-12.7009
associated	-12.7009
burkitt	-12.7009
conservatieve	-12.7009
strekzijde	-12.7009
vestibulum	-12.7009
▁candidiasis	-12.7009
▁chromofo	-12.7009
▁difficile	-12.7009
▁enucleatie	-12.7009
▁gedetubeerd	-12.7009
▁gelamelleerd	-12.7009
▁gepoogd	-12.7009
▁invalshoek	-12.7009
▁linkeratrium	-12.7009
▁livores	-12.7009
▁maltophilia	-12.7009
▁mortuus	-12.7009
▁opgesomd	-12.7009
▁ophoesten	-12.7009
▁parakeratotisch	-12.7009
▁pyoderma	-12.7009
▁stenotrop	-12.7009
▁urogenitaal	-12.7009
▁zweetklier	-12.7009
▁enzymatisch	-12.7009
▁splijting	-12.7009
ienfd	-12.7009
▁cholestasis	-12.7009
▁moeite	-12.7009
▁uitsluitsel	-12.701
▁vriendelijk	-12.701
▁reads	-12.701
▁feces	-12.701
ganz	-12.701
▁schouwarts	-12.701
▁artikel	-12.701
▁pathology	-12.701
▁nocardia	-12.701
▁woekeringen	-12.701
▁adenovirus	-12.701
▁distensie	-12.701
▁gelaten	-12.701
▁kerngebieden	-12.701
▁roodbruin	-12.701
▁acetabulum	-12.701
mandard	-12.701
▁hoofdcarina	-12.7011
tafel	-12.7011
▁kransarterien	-12.7012
▁verbrokkeld	-12.7012
▁muti	-12.7012
▁neusgat	-12.7012
▁unilatera	-12.7012
▁complement	-12.7012
▁mensen	-12.7012
▁afbraak	-12.7012
▁avsd	-12.7012
▁itp	-12.7013
▁klop	-12.7014
▁tengere	-12.7015
▁oorrand	-12.7016
▁buikwond	-12.7019
▁lymphklieren	-12.7019
▁vaatgerelateerd	-12.702
laesionaal	-12.7025
parietotemporaal	-12.7025
▁laagstaand	-12.7026
▁hypertensief	-12.7026
nodi	-12.7027
▁obdu	-12.7029
▁harttamponnade	-12.7032
▁brij	-12.7033
▁spiercel	-12.7033
▁bk	-12.7035
▁cardiogenetisch	-12.7037
▁mammapunctaat	-12.7037
▁restmaligniteit	-12.704
▁longziekten	-12.7042
aminati	-12.7045
halsprothese	-12.7049
▁linkeroksel	-12.7058
▁laceraties	-12.7061
▁aantreffen	-12.7062
acinair	-12.7075
sacral	-12.7079
▁acth	-12.7087
hoge	-12.7087
▁buikbeeld	-12.7093
▁app	-12.7099
▁anastomoses	-12.7103
jk	-12.7107
cvu	-12.7109
▁prostat	-12.711
blauw	-12.712
▁patientje	-12.7129
▁gecomp	-12.7132
peritoneale	-12.7137
▁pieken	-12.7137
ulitis	-12.7137
remmers	-12.7142
mark	-12.7146
folliculitis	-12.715
aangaande	-12.7152
anatomisch	-12.7157
ulatie	-12.716
beginnend	-12.7162
coagula	-12.7172
▁fibrosehaard	-12.7172
leiden	-12.7173
volledig	-12.7173
geruptureerd	-12.7174
eventueel	-12.7174
sprieterig	-12.7174
abdominalis	-12.7174
portale	-12.7174
deletie	-12.7175
ventrikelmyocard	-12.7176
vinger	-12.7181
kuren	-12.7183
eiwit	-12.7184
duodenumbiopten	-12.7184
wur	-12.7191
cisiemarge	-12.7191
ryptarchitectuur	-12.7198
plasmocellulaire	-12.7209
gelegd	-12.7212
▁dermatologie	-12.722
▁atr	-12.7225
litt	-12.723
trum	-12.724
▁abcederend	-12.7247
slippen	-12.725
▁lichenoid	-12.7254
▁sk	-12.7258
genetisch	-12.7259
mitralisklepring	-12.7262
pw	-12.7267
▁partu	-12.7271
▁tuber	-12.7283
▁choledoch	-12.7289
▁erytro	-12.729
gebracht	-12.7292
▁lacun	-12.7293
houding	-12.7293
▁follic	-12.7295
▁rhabdo	-12.7295
tegenwoordig	-12.7295
▁smarc	-12.7295
ejaculaat	-12.7295
osteochondroom	-12.7295
▁borrelia	-12.7295
gedraaid	-12.7295
megakaryopoiese	-12.7295
wetenschappelijk	-12.7295
▁bezocht	-12.7295
▁diapedese	-12.7295
▁elastica	-12.7295
▁fallot	-12.7295
▁fusiform	-12.7295
▁gebeurd	-12.7295
▁gemakkelijk	-12.7295
▁genaamd	-12.7295
▁gevlekt	-12.7295
▁heropgenomen	-12.7295
▁knappen	-12.7295
▁massief	-12.7295
▁negativiteit	-12.7295
▁opknapte	-12.7295
▁persisteerde	-12.7295
▁pijpbeenderen	-12.7295
▁sebaceus	-12.7295
▁sprieten	-12.7295
▁tentorium	-12.7295
▁urineretentie	-12.7295
schonlein	-12.7295
▁circulerend	-12.7295
▁leucopenie	-12.7295
longonderkwabben	-12.7295
stokes	-12.7295
▁gynaecoloog	-12.7295
▁ojb	-12.7295
herhalingsrisico	-12.7295
▁erythemateuze	-12.7295
decollete	-12.7295
▁arteriosus	-12.7295
▁mesothelial	-12.7295
▁toegevoegd	-12.7295
▁venster	-12.7295
allergie	-12.7296
▁smad	-12.7296
▁immunoprofiel	-12.7296
▁politie	-12.7296
▁orgaanschade	-12.7296
jn	-12.7297
▁zaken	-12.7297
▁stagering	-12.7297
▁hyperacuut	-12.7298
▁temporaalpool	-12.73
▁retrograad	-12.73
▁kindje	-12.73
▁benige	-12.7301
▁huidpons	-12.7302
▁darmlumen	-12.7303
▁daarboven	-12.7305
▁aplasie	-12.7306
hemo	-12.7307
lymfoblastair	-12.7308
▁steroiden	-12.7309
▁vetcellen	-12.731
▁klierstation	-12.731
▁lcis	-12.731
▁littekenfibrose	-12.7313
reaktie	-12.7313
▁buikhuid	-12.7317
laris	-12.7319
▁involutieve	-12.7323
▁mammaria	-12.7324
▁naevo	-12.7333
▁cps	-12.7334
▁thp	-12.7338
▁restafwijkingen	-12.7339
▁longkweken	-12.7339
cisieranden	-12.7343
▁gnas	-12.7345
uo	-12.7348
▁ducti	-12.7355
▁postobstructie	-12.7359
▁longhaarden	-12.7361
classific	-12.7371
iar	-12.7377
▁duodenumwand	-12.7378
crypthyperplasie	-12.7379
cerebri	-12.738
▁linkerborst	-12.738
racheobronchiale	-12.7381
centra	-12.7387
▁colo	-12.7393
bronchussnijvlak	-12.7397
antia	-12.7398
werk	-12.7421
▁teleangiectasie	-12.7423
▁bloedonderzoek	-12.7424
▁posterosepta	-12.7435
thor	-12.744
tensive	-12.744
enige	-12.7444
mber	-12.7455
bloedingshaarden	-12.7459
tek	-12.7459
verdikking	-12.7463
mmuundeficientie	-12.7473
dorsale	-12.7474
gevolg	-12.7476
urethra	-12.7476
bloom	-12.7477
verminderd	-12.7477
heart	-12.7477
autolyse	-12.7477
small	-12.7478
cardiomyopathie	-12.7478
trombo	-12.7478
▁ventriculo	-12.748
▁aanlegstoornis	-12.7488
contusie	-12.7488
reactief	-12.7504
▁levend	-12.7507
▁ponsbloeding	-12.7511
▁verzorging	-12.7519
[...]
