<unk>	0
<s>	0
</s>	0
[PAD]	0
[UNK]	0
[CLS]	0
[MASK]	0
[C-SEP]	0
en	-0
er	-1
in	-2
ie	-3
an	-4
▁m	-5
el	-6
is	-7
al	-8
▁v	-9
et	-10
ch	-11
een	-12
on	-13
it	-14
▁b	-15
ij	-16
▁d	-17
la	-18
or	-19
at	-20
re	-21
▁g	-22
st	-23
ing	-24
op	-25
▁a	-26
▁p	-27
ar	-28
om	-29
CR	-30
id	-31
ig	-32
LF	-33
CRLF	-34
▁l	-35
▁c	-36
▁h	-37
▁met	-38
▁n	-39
iop	-40
der	-41
ct	-42
▁s	-43
▁t	-44
▁re	-45
iopt	-46
as	-47
ol	-48
end	-49
aal	-50
▁H	-51
ro	-52
▁in	-53
uid	-54
oor	-55
▁G	-56
▁van	-57
cht	-58
us	-59
▁een	-60
ek	-61
oom	-62
▁on	-63
isch	-64
▁en	-65
▁Geen	-66
um	-67
ic	-68
eel	-69
ex	-70
▁k	-71
sie	-72
biopt	-73
▁w	-74
isie	-75
▁z	-76
▁Huid	-77
ign	-78
▁o	-79
▁de	-80
▁voor	-81
▁aan	-82
ag	-83
ctie	-84
ite	-85
den	-86
cisie	-87
wij	-88
ingen	-89
ve	-90
se	-91
arc	-92
cel	-93
ent	-94
align	-95
atie	-96
▁I	-97
ev	-98
▁ver	-99
arcin	-100
iteit	-101
▁malign	-102
ink	-103
▁recht	-104
▁link	-105
arcinoom	-106
▁geen	-107
ul	-108
ale	-109
pla	-110
excisie	-111
og	-112
ische	-113
▁maligniteit	-114
ula	-115
le	-116
yp	-117
ra	-118
carcinoom	-119
▁het	-120
aar	-121
plasie	-122
▁[	-123
▁bij	-124
▁rechts	-125
▁links	-126
▁ont	-127
▁u	-128
eeld	-129
▁B	-130
ed	-131
▁ontst	-132
eking	-133
▁ontsteking	-134
ur	-135
ir	-136
es	-137
if	-138
▁f	-139
em	-140
▁na	-141
un	-142
iet	-143
ot	-144
oc	-145
ep	-146
ier	-147
▁is	-148
▁beeld	-149
II	-150
ys	-151
celcarcinoom	-152
▁E	-153
▁C	-154
am	-155
ende	-156
▁onder	-157
de	-158
▁dys	-159
▁D	-160
ec	-161
os	-162
ron	-163
ass	-164
▁Huidexcisie	-165
ym	-166
wijz	-167
▁1	-168
ijk	-169
▁op	-170
▁dysplasie	-171
▁bas	-172
we	-173
ru	-174
▁af	-175
onder	-176
▁T	-177
eri	-178
▁of	-179
▁pass	-180
il	-181
ver	-182
ymf	-183
te	-184
▁M	-185
biopten	-186
ige	-187
▁ch	-188
▁P	-189
ctieve	-190
▁la	-191
▁uit	-192
ies	-193
▁aanwijz	-194
▁zonder	-195
▁niet	-196
ast	-197
ok	-198
▁biopt	-199
eer	-200
im	-201
lak	-202
erm	-203
ose	-204
▁basaal	-205
ire	-206
▁gro	-207
▁naev	-208
ei	-209
▁be	-210
▁aanwijzingen	-211
ge	-212
ran	-213
▁lymf	-214
▁waar	-215
wijk	-216
vlak	-217
▁ge	-218
lij	-219
iep	-220
ulair	-221
cell	-222
▁afwijk	-223
▁Huidbiopt	-224
sel	-225
od	-226
ull	-227
lier	-228
vull	-229
▁mat	-230
▁sp	-231
▁chron	-232
▁con	-233
▁at	-234
ef	-235
ken	-236
ri	-237
lies	-238
lijm	-239
▁2	-240
itis	-241
ze	-242
aat	-243
lijmv	-244
ering	-245
yt	-246
▁groei	-247
lijmvlies	-248
▁aden	-249
ide	-250
ist	-251
▁pla	-252
▁wor	-253
▁di	-254
elijk	-255
▁vr	-256
ste	-257
of	-258
klier	-259
▁zij	-260
umor	-261
▁huid	-262
▁afwijkingen	-263
▁ne	-264
▁A	-265
olog	-266
ang	-267
ander	-268
▁passend	-269
ant	-270
eriaal	-271
▁gering	-272
mer	-273
heel	-274
ke	-275
▁rea	-276
sectie	-277
▁chronische	-278
orm	-279
ov	-280
rof	-281
▁over	-282
up	-283
▁derm	-284
vas	-285
anvull	-286
▁S	-287
ine	-288
yper	-289
aag	-290
▁vrij	-291
ter	-292
ho	-293
nij	-294
ens	-295
▁R	-296
ap	-297
ris	-298
ub	-299
▁atyp	-300
▁te	-301
ib	-302
rad	-303
▁3	-304
▁st	-305
efsel	-306
▁tot	-307
▁tumor	-308
▁naevus	-309
anderingen	-310
sp	-311
agn	-312
▁col	-313
cl	-314
epit	-315
erat	-316
▁geringe	-317
zo	-318
▁Biopt	-319
oven	-320
▁vol	-321
ut	-322
▁rechter	-323
vasie	-324
▁kan	-325
▁linker	-326
ik	-327
▁hyper	-328
ype	-329
act	-330
▁veranderingen	-331
oliep	-332
omet	-333
▁materiaal	-334
Aanvull	-335
and	-336
ma	-337
▁actieve	-338
▁cel	-339
als	-340
▁biopten	-341
▁waarin	-342
alis	-343
▁nod	-344
eken	-345
oed	-346
arm	-347
▁N	-348
ometri	-349
▁boven	-350
▁reactieve	-351
zoek	-352
▁dd	-353
ica	-354
ocarcinoom	-355
ele	-356
▁end	-357
sc	-358
▁zijn	-359
itie	-360
atief	-361
▁V	-362
slijmvlies	-363
ulaire	-364
erd	-365
▁De	-366
iff	-367
ad	-368
usie	-369
ico	-370
▁mm	-371
▁adenocarcinoom	-372
veis	-373
rug	-374
veisel	-375
esie	-376
ca	-377
oog	-378
ometrium	-379
he	-380
▁lymfklier	-381
ment	-382
▁verru	-383
orr	-384
▁onderzoek	-385
▁plaveisel	-386
Aanvulling	-387
▁volg	-388
ect	-389
▁L	-390
clusie	-391
▁O	-392
ocell	-393
erent	-394
amma	-395
ocyt	-396
ne	-397
▁ged	-398
▁In	-399
eb	-400
▁aang	-401
imm	-402
uze	-403
alisatie	-404
▁worden	-405
ibro	-406
▁passen	-407
ularis	-408
oon	-409
▁maag	-410
▁diagn	-411
ifferent	-412
lin	-413
▁pro	-414
▁laesie	-415
erv	-416
▁meta	-417
▁dit	-418
▁li	-419
wez	-420
▁kle	-421
ecif	-422
▁er	-423
xcisie	-424
wijder	-425
▁cm	-426
▁sch	-427
▁kerat	-428
weefsel	-429
▁verruca	-430
nijvlak	-431
▁verwijder	-432
wezig	-433
▁colon	-434
inale	-435
iek	-436
heid	-437
▁metaplasie	-438
ret	-439
ost	-440
▁aanget	-441
▁ex	-442
▁II	-443
epitheel	-444
▁Excisie	-445
▁excisie	-446
▁atypie	-447
omie	-448
grad	-449
yste	-450
ath	-451
ix	-452
▁verwijderd	-453
gen	-454
ak	-455
▁naevocell	-456
been	-457
▁Het	-458
▁foc	-459
okalisatie	-460
bre	-461
▁nodulair	-462
▁naevocellularis	-463
olec	-464
ase	-465
▁mic	-466
▁deel	-467
▁seb	-468
▁poliep	-469
▁inf	-470
ori	-471
▁Biopten	-472
▁4	-473
ien	-474
sch	-475
rum	-476
▁groeiend	-477
orrho	-478
test	-479
▁act	-480
▁seborrho	-481
▁carcinoom	-482
och	-483
gatief	-484
erf	-485
▁seborrhoica	-486
ou	-487
▁sup	-488
▁klin	-489
dt	-490
aire	-491
▁we	-492
do	-493
▁mamma	-494
▁type	-495
acter	-496
staat	-497
▁0	-498
▁invasie	-499
▁goed	-500
▁intest	-501
tra	-502
ogelijk	-503
icob	-504
▁lokalisatie	-505
▁Er	-506
▁metast	-507
elicob	-508
elicobacter	-509
lag	-510
▁deels	-511
▁micro	-512
▁volgt	-513
▁wordt	-514
yl	-515
del	-516
ositie	-517
ip	-518
oid	-519
▁resectie	-520
ult	-521
form	-522
▁aanwezig	-523
▁endometrium	-524
ologisch	-525
IN	-526
▁gran	-527
▁hoog	-528
vol	-529
rofie	-530
▁specif	-531
erfic	-532
rag	-533
▁rug	-534
▁actin	-535
▁pr	-536
utatie	-537
PV	-538
slag	-539
▁door	-540
eratie	-541
▁per	-542
▁du	-543
▁superfic	-544
▁ar	-545
doende	-546
▁negatief	-547
▁intestinale	-548
euze	-549
unctie	-550
▁pre	-551
▁e	-552
▁Helicobacter	-553
per	-554
aald	-555
▁imm	-556
▁mogelijk	-557
▁superficie	-558
▁dermale	-559
▁5	-560
▁focaal	-561
orp	-562
pre	-563
ia	-564
ific	-565
ieke	-566
▁conclusie	-567
omp	-568
▁co	-569
antrum	-570
oden	-571
elan	-572
ervix	-573
len	-574
▁fibro	-575
▁granul	-576
ragment	-577
▁tub	-578
▁metastase	-579
ong	-580
▁laag	-581
▁par	-582
voldoende	-583
▁bet	-584
RA	-585
▁hyperplasie	-586
merken	-587
mat	-588
chter	-589
▁maligne	-590
je	-591
las	-592
iopsie	-593
gest	-594
gradige	-595
▁melan	-596
▁ook	-597
eli	-598
20	-599
▁past	-600
▁U	-601
▁beoor	-602
ologie	-603
ieerd	-604
▁dermat	-605
gebre	-606
pervlak	-607
ositief	-608
enign	-609
▁gra	-610
lok	-611
hist	-612
itt	-613
erk	-614
ochem	-615
odenum	-616
enigne	-617
▁K	-618
zien	-619
ogen	-620
▁uitgebre	-621
▁gedifferent	-622
▁reik	-623
▁min	-624
▁ken	-625
▁mutatie	-626
iaal	-627
▁diep	-628
fen	-629
omat	-630
omen	-631
▁pyl	-632
▁aanvull	-633
eerd	-634
▁med	-635
III	-636
▁an	-637
▁benigne	-638
▁keratose	-639
apil	-640
histochem	-641
▁ac	-642
orpus	-643
bij	-644
▁pylori	-645
itteken	-646
acht	-647
▁slijmvlies	-648
ER	-649
agus	-650
▁adenoom	-651
uit	-652
00	-653
▁mor	-654
▁oppervlak	-655
▁kenmerken	-656
▁eer	-657
▁HPV	-658
▁diagnose	-659
ow	-660
ofd	-661
unt	-662
ari	-663
oma	-664
▁al	-665
▁lich	-666
▁ev	-667
plast	-668
qu	-669
icaal	-670
▁conform	-671
▁cyste	-672
▁teken	-673
scop	-674
uc	-675
uun	-676
▁Re	-677
▁gen	-678
tr	-679
aan	-680
▁cellen	-681
oide	-682
evens	-683
▁gev	-684
heli	-685
▁neus	-686
▁superficieel	-687
▁sub	-688
roffen	-689
ummer	-690
erende	-691
cent	-692
▁tekenen	-693
baar	-694
ulc	-695
▁als	-696
▁dan	-697
▁Z	-698
par	-699
nen	-700
sult	-701
▁W	-702
▁lichen	-703
▁prostaat	-704
beeld	-705
eter	-706
ac	-707
▁epitheel	-708
io	-709
▁bek	-710
▁aangetroffen	-711
▁uitgebreide	-712
ectomie	-713
nijvlakken	-714
ges	-715
▁positief	-716
▁oes	-717
▁oppervlakk	-718
ab	-719
yse	-720
▁ulc	-721
De	-722
ave	-723
▁litteken	-724
▁enk	-725
▁hist	-726
▁laaggradige	-727
▁atypische	-728
IE	-729
oll	-730
bus	-731
▁uitslag	-732
▁ontstekings	-733
nd	-734
▁hals	-735
▁rad	-736
▁papil	-737
ameter	-738
ere	-739
▁bes	-740
osis	-741
riet	-742
▁F	-743
laas	-744
▁gezien	-745
▁Maag	-746
▁antrum	-747
zij	-748
▁comp	-749
age	-750
▁specifieke	-751
olif	-752
amen	-753
▁path	-754
21	-755
eerde	-756
▁rest	-757
dig	-758
▁uur	-759
ion	-760
▁th	-761
elde	-762
▁actinische	-763
ref	-764
▁6	-765
rot	-766
▁ter	-767
▁spriet	-768
epitheli	-769
▁sol	-770
▁diagnost	-771
▁mar	-772
epid	-773
keur	-774
▁infil	-775
▁weefsel	-776
dere	-777
stig	-778
king	-779
▁aangetoon	-780
invasie	-781
pp	-782
▁Con	-783
alyse	-784
▁graad	-785
rans	-786
▁huidexcisie	-787
elen	-788
erde	-789
▁microscop	-790
▁matig	-791
▁betref	-792
▁aangetoond	-793
epiderm	-794
▁hier	-795
IS	-796
have	-797
EN	-798
imale	-799
ocytaire	-800
▁mid	-801
▁intra	-802
ocht	-803
16	-804
▁solide	-805
gestelde	-806
▁sprieter	-807
ouder	-808
▁dat	-809
▁samen	-810
cellen	-811
▁later	-812
uret	-813
aaldbiopten	-814
resectie	-815
ctomie	-816
▁zie	-817
ijn	-818
uring	-819
osin	-820
▁7	-821
▁wang	-822
▁to	-823
urale	-824
osinof	-825
▁corpus	-826
ectie	-827
▁huidbiopt	-828
rine	-829
▁aanvullend	-830
▁voorkeur	-831
enten	-832
ericht	-833
leu	-834
▁eosinof	-835
evisie	-836
ans	-837
cor	-838
iagn	-839
merg	-840
▁enkele	-841
lass	-842
cellig	-843
ctief	-844
▁On	-845
eenmerg	-846
jes	-847
▁klein	-848
lijk	-849
▁zek	-850
▁my	-851
iele	-852
▁samengestelde	-853
▁morbus	-854
ard	-855
ind	-856
15	-857
lassific	-858
▁plaat	-859
▁atrofie	-860
▁immuun	-861
▁duid	-862
▁best	-863
unnen	-864
▁Voor	-865
plastische	-866
▁inter	-867
▁ten	-868
gum	-869
▁kunnen	-870
▁ka	-871
oliferatie	-872
onden	-873
vocht	-874
▁epiderm	-875
▁fragment	-876
▁afwijking	-877
endens	-878
▁trans	-879
▁naar	-880
18	-881
ell	-882
▁III	-883
scendens	-884
uur	-885
▁klinische	-886
▁cervix	-887
▁duodenum	-888
eld	-889
igm	-890
▁nog	-891
urett	-892
13	-893
gumenten	-894
Geen	-895
▁chronisch	-896
▁infiltr	-897
▁argumenten	-898
osa	-899
entr	-900
rand	-901
elijke	-902
▁delen	-903
▁PA	-904
ineurale	-905
uw	-906
▁uitges	-907
▁bericht	-908
paraat	-909
▁resectievlak	-910
▁diameter	-911
▁klinisch	-912
yst	-913
oph	-914
▁ca	-915
histochemisch	-916
▁onderbeen	-917
▁onvoldoende	-918
est	-919
iv	-920
oleculaire	-921
▁bl	-922
na	-923
▁ho	-924
▁beoordel	-925
▁lev	-926
17	-927
schijn	-928
rijk	-929
▁geheel	-930
▁classific	-931
14	-932
19	-933
▁Resectie	-934
kw	-935
emp	-936
▁perineurale	-937
▁gl	-938
epitheliale	-939
▁deze	-940
▁meer	-941
▁verm	-942
biopsie	-943
lot	-944
▁rect	-945
▁invasieve	-946
hoofd	-947
ollic	-948
▁schouder	-949
ame	-950
air	-951
▁oor	-952
olon	-953
ologische	-954
ulitis	-955
▁toon	-956
randen	-957
▁marge	-958
▁tubulair	-959
▁waarbij	-960
▁el	-961
▁reikend	-962
▁hem	-963
▁bep	-964
▁long	-965
▁End	-966
▁enige	-967
ute	-968
▁Zie	-969
van	-970
▁dermatitis	-971
▁peri	-972
oel	-973
schijnlijk	-974
odem	-975
▁ing	-976
eren	-977
▁maar	-978
loten	-979
▁toont	-980
hal	-981
▁nummer	-982
▁Huidst	-983
▁lymfoom	-984
▁darm	-985
▁daar	-986
leura	-987
risico	-988
▁voorhoofd	-989
▁zeer	-990
owen	-991
▁verd	-992
omateuze	-993
▁achter	-994
▁lymfklieren	-995
iagnost	-996
uk	-997
▁Colon	-998
▁bovenbeen	-999
▁radicaal	-1000
▁basis	-1001
materiaal	-1002
▁20	-1003
inig	-1004
▁norm	-1005
RAS	-1006
ax	-1007
gev	-1008
empor	-1009
▁beh	-1010
▁overwe	-1011
lan	-1012
igmoid	-1013
CL	-1014
itu	-1015
▁kader	-1016
ocyten	-1017
▁8	-1018
omy	-1019
GF	-1020
ob	-1021
▁colitis	-1022
AN	-1023
upes	-1024
▁gast	-1025
aak	-1026
▁pat	-1027
pl	-1028
asis	-1029
▁melanoom	-1030
ud	-1031
▁asp	-1032
ente	-1033
▁analyse	-1034
▁tempor	-1035
▁gevonden	-1036
▁uitgesloten	-1037
23	-1038
ile	-1039
▁exon	-1040
▁sprieterig	-1041
▁wel	-1042
opath	-1043
▁bloed	-1044
▁vas	-1045
entraal	-1046
entu	-1047
▁situ	-1048
lair	-1049
igment	-1050
▁weinig	-1051
▁duct	-1052
▁aanwezigheid	-1053
▁punctie	-1054
▁werd	-1055
kle	-1056
wogen	-1057
▁Onvoldoende	-1058
iepte	-1059
type	-1060
▁immun	-1061
uik	-1062
onent	-1063
ronch	-1064
▁Endometrium	-1065
▁ret	-1066
▁waarschijnlijk	-1067
ild	-1068
▁beoord	-1069
sen	-1070
▁rectum	-1071
leas	-1072
▁overwogen	-1073
▁pathologie	-1074
raag	-1075
GFR	-1076
ofagus	-1077
▁Bowen	-1078
▁om	-1079
▁beide	-1080
▁Revisie	-1081
gradig	-1082
▁papill	-1083
▁der	-1084
▁cont	-1085
▁Tevens	-1086
ibroom	-1087
ext	-1088
10	-1089
leason	-1090
▁betreft	-1091
▁proliferatie	-1092
ophagus	-1093
eke	-1094
▁acute	-1095
▁fibrose	-1096
▁follic	-1097
Con	-1098
▁aant	-1099
diepte	-1100
▁r	-1101
▁zw	-1102
cler	-1103
▁duidelijke	-1104
▁different	-1105
mm	-1106
res	-1107
rea	-1108
▁urot	-1109
▁matige	-1110
▁verdacht	-1111
rond	-1112
nijranden	-1113
me	-1114
▁ec	-1115
richt	-1116
▁cyt	-1117
icht	-1118
ET	-1119
min	-1120
▁eventu	-1121
▁onderarm	-1122
rostaat	-1123
▁microscopie	-1124
▁9	-1125
▁12	-1126
angi	-1127
kwab	-1128
kom	-1129
tie	-1130
preparaat	-1131
▁kra	-1132
▁Gleason	-1133
▁Punctie	-1134
▁ile	-1135
ppend	-1136
▁vet	-1137
▁Urine	-1138
▁urotheel	-1139
▁reactief	-1140
▁stat	-1141
▁kleine	-1142
▁muc	-1143
▁gastr	-1144
▁snijvlak	-1145
▁keratosis	-1146
▁besch	-1147
reactie	-1148
▁overweg	-1149
▁pan	-1150
Huid	-1151
ept	-1152
▁melanocytaire	-1153
▁temporaal	-1154
▁pati	-1155
▁ab	-1156
In	-1157
▁beenmerg	-1158
▁bodem	-1159
▁CIN	-1160
▁10	-1161
▁echter	-1162
fragment	-1163
terus	-1164
▁oppervlakkig	-1165
entie	-1166
ocerv	-1167
▁schimm	-1168
leuravocht	-1169
eg	-1170
initie	-1171
▁Aanvull	-1172
ort	-1173
Deze	-1174
luit	-1175
wand	-1176
cid	-1177
▁reikt	-1178
urettage	-1179
▁actinica	-1180
▁bovenarm	-1181
12	-1182
oleculair	-1183
▁wat	-1184
lip	-1185
NA	-1186
kerat	-1187
ipel	-1188
ors	-1189
▁celbeeld	-1190
▁sec	-1191
▁zou	-1192
eur	-1193
one	-1194
▁ascendens	-1195
▁resp	-1196
▁lip	-1197
▁reg	-1198
▁prim	-1199
rij	-1200
▁oppervlakkige	-1201
otische	-1202
unct	-1203
▁j	-1204
halve	-1205
uodenum	-1206
blaas	-1207
▁component	-1208
ioinvasie	-1209
emen	-1210
zeem	-1211
ronchus	-1212
af	-1213
▁specifiek	-1214
haveexcisie	-1215
oet	-1216
snij	-1217
▁15	-1218
ildklier	-1219
▁bekende	-1220
tu	-1221
▁vlok	-1222
▁sle	-1223
▁squ	-1224
▁ileum	-1225
▁zeker	-1226
IT	-1227
centa	-1228
wijze	-1229
anth	-1230
▁midden	-1231
▁snijvlakken	-1232
co	-1233
▁histologisch	-1234
erap	-1235
aden	-1236
▁eczeem	-1237
ymfklier	-1238
▁beoordelen	-1239
▁lateraal	-1240
▁minimale	-1241
▁diagnostiek	-1242
gang	-1243
pres	-1244
▁Beeld	-1245
gro	-1246
▁coeur	-1247
▁Duodenum	-1248
▁beoordeel	-1249
▁lichenoide	-1250
▁Cervix	-1251
▁Een	-1252
BD	-1253
▁gr	-1254
▁Maagbiopten	-1255
▁her	-1256
ola	-1257
ogene	-1258
ust	-1259
ief	-1260
orst	-1261
▁medi	-1262
iculair	-1263
rom	-1264
last	-1265
▁eerder	-1266
▁kleuring	-1267
▁zo	-1268
be	-1269
osus	-1270
ificatie	-1271
▁schimmel	-1272
komstig	-1273
pro	-1274
unten	-1275
angioinvasie	-1276
ern	-1277
▁waarvan	-1278
UL	-1279
aarne	-1280
ipelle	-1281
22	-1282
icale	-1283
rest	-1284
▁groeiwijze	-1285
▁mult	-1286
aliteit	-1287
▁EGFR	-1288
erend	-1289
cut	-1290
inf	-1291
vers	-1292
ont	-1293
Voor	-1294
ofibroom	-1295
IV	-1296
▁ad	-1297
▁nec	-1298
▁afkomstig	-1299
▁slecht	-1300
▁aanwijzing	-1301
erkt	-1302
derm	-1303
atrofie	-1304
▁sigmoid	-1305
AL	-1306
▁Prostaat	-1307
▁epidermale	-1308
ium	-1309
agen	-1310
ders	-1311
spunten	-1312
elling	-1313
▁consult	-1314
kn	-1315
▁Snijvlakken	-1316
nex	-1317
▁hyperkerat	-1318
▁vermeld	-1319
▁am	-1320
ces	-1321
imaal	-1322
▁colonslijmvlies	-1323
▁pT	-1324
culaire	-1325
ede	-1326
ilie	-1327
oh	-1328
ond	-1329
RAF	-1330
core	-1331
ds	-1332
▁name	-1333
▁vari	-1334
oA	-1335
▁CD	-1336
ansbiopt	-1337
▁fragmenten	-1338
org	-1339
▁toto	-1340
oe	-1341
▁Moleculaire	-1342
▁ander	-1343
▁eosinofiele	-1344
▁dist	-1345
▁groot	-1346
▁hoofd	-1347
▁hyperplastische	-1348
orrel	-1349
▁beoordeelbaar	-1350
upe	-1351
▁score	-1352
▁TU	-1353
ocytose	-1354
▁minder	-1355
▁ulceratie	-1356
poliep	-1357
▁KRAS	-1358
cyt	-1359
ename	-1360
ledig	-1361
rose	-1362
▁dermatofibroom	-1363
▁invasief	-1364
▁vul	-1365
▁append	-1366
US	-1367
▁ok	-1368
cellige	-1369
▁oesofagus	-1370
▁granulomen	-1371
ecifieke	-1372
alblaas	-1373
▁thor	-1374
▁sc	-1375
▁loc	-1376
▁endocerv	-1377
▁vlokatrofie	-1378
▁dors	-1379
ider	-1380
orf	-1381
aande	-1382
▁zijde	-1383
CA	-1384
cre	-1385
▁bev	-1386
▁biopsie	-1387
▁alle	-1388
▁borst	-1389
ruim	-1390
▁ulcer	-1391
are	-1392
art	-1393
igo	-1394
▁snijranden	-1395
▁Poliep	-1396
HPV	-1397
▁littekenweefsel	-1398
▁twe	-1399
anden	-1400
▁lever	-1401
▁aantoon	-1402
all	-1403
yn	-1404
▁rand	-1405
▁oksel	-1406
versum	-1407
emb	-1408
▁bekend	-1409
gem	-1410
▁eventuele	-1411
uwe	-1412
▁ern	-1413
zijds	-1414
AAN	-1415
ohs	-1416
initieve	-1417
▁contact	-1418
eptor	-1419
▁mes	-1420
▁klier	-1421
▁immuno	-1422
▁eryt	-1423
iviteit	-1424
▁maagslijmvlies	-1425
cord	-1426
ocaal	-1427
▁neu	-1428
▁buik	-1429
ulatie	-1430
▁infectie	-1431
▁gem	-1432
iesco	-1433
▁BRAF	-1434
Het	-1435
bek	-1436
▁correl	-1437
53	-1438
▁Op	-1439
▁tm	-1440
▁opn	-1441
cyste	-1442
opathie	-1443
▁oog	-1444
▁verricht	-1445
▁oesophagus	-1446
▁dun	-1447
▁centraal	-1448
▁Lymfklier	-1449
▁Mamma	-1450
arret	-1451
GS	-1452
wel	-1453
▁superficiele	-1454
ith	-1455
sect	-1456
▁diagnostisch	-1457
▁Mohs	-1458
▁blaas	-1459
cordant	-1460
▁fib	-1461
▁transversum	-1462
▁overige	-1463
▁eosinofilie	-1464
eus	-1465
OR	-1466
▁ov	-1467
und	-1468
▁elders	-1469
▁afwezig	-1470
du	-1471
ts	-1472
vorm	-1473
zijde	-1474
▁ductaal	-1475
▁normaal	-1476
stige	-1477
▁licht	-1478
▁secret	-1479
▁cr	-1480
selijk	-1481
▁hand	-1482
▁IV	-1483
lank	-1484
▁geb	-1485
▁pol	-1486
oping	-1487
icitis	-1488
▁Ch	-1489
▁Barret	-1490
▁infiltratie	-1491
muc	-1492
▁grens	-1493
iderzijds	-1494
▁hel	-1495
▁toename	-1496
▁Pleuravocht	-1497
iagnostiek	-1498
▁sterk	-1499
iding	-1500
▁nodulaire	-1501
▁evid	-1502
eth	-1503
▁chol	-1504
▁eerdere	-1505
men	-1506
darm	-1507
bv	-1508
vang	-1509
▁lab	-1510
▁subcut	-1511
Zie	-1512
hyper	-1513
unctaat	-1514
▁bepal	-1515
▁status	-1516
▁die	-1517
▁beiderzijds	-1518
eiomy	-1519
▁Oes	-1520
knoping	-1521
minste	-1522
▁coupes	-1523
angioom	-1524
▁spong	-1525
denking	-1526
mw	-1527
eklier	-1528
ukje	-1529
elegen	-1530
▁exter	-1531
ceptor	-1532
▁celrijk	-1533
▁aanknoping	-1534
▁ser	-1535
▁lipoom	-1536
▁grensvlak	-1537
▁Consult	-1538
Conclusie	-1539
patie	-1540
preking	-1541
▁therap	-1542
▁weke	-1543
▁vetweefsel	-1544
irpatie	-1545
lokdarm	-1546
▁pigment	-1547
▁Barrett	-1548
▁diepe	-1549
▁spongi	-1550
▁volgens	-1551
nummer	-1552
▁haar	-1553
▁perivas	-1554
▁Aanvullend	-1555
▁overwegend	-1556
aten	-1557
organ	-1558
▁onbek	-1559
▁verdenking	-1560
▁tenminste	-1561
▁morf	-1562
▁gedacht	-1563
▁reexcisie	-1564
tuig	-1565
▁leiomy	-1566
▁ontvang	-1567
▁laterale	-1568
kleuring	-1569
▁verk	-1570
▁11	-1571
▁risico	-1572
▁Diagnostiek	-1573
ene	-1574
neu	-1575
ardia	-1576
ectiev	-1577
lam	-1578
geen	-1579
teri	-1580
▁zekere	-1581
ISH	-1582
▁concordant	-1583
da	-1584
rus	-1585
▁genen	-1586
▁overtuig	-1587
▁ER	-1588
oorn	-1589
digheid	-1590
ectievelijk	-1591
entatief	-1592
aaldbiopt	-1593
▁aantoonbaar	-1594
plastisch	-1595
An	-1596
▁gel	-1597
▁hooggradig	-1598
irr	-1599
usc	-1600
▁ernstige	-1601
ieuwe	-1602
naaldbiopten	-1603
▁resectievlakken	-1604
▁opnemen	-1605
▁scler	-1606
▁respectievelijk	-1607
▁or	-1608
▁lent	-1609
Aanvullend	-1610
▁lijk	-1611
▁patient	-1612
▁volledig	-1613
▁me	-1614
▁for	-1615
naast	-1616
hyperplasie	-1617
▁hoogrisico	-1618
▁maagantrum	-1619
▁moleculair	-1620
▁dysplastische	-1621
AS	-1622
VUL	-1623
emat	-1624
ocellulair	-1625
lu	-1626
▁Ver	-1627
▁beg	-1628
ich	-1629
▁plas	-1630
OS	-1631
VULL	-1632
▁def	-1633
traat	-1634
▁verw	-1635
roma	-1636
▁HER	-1637
▁dermis	-1638
▁ger	-1639
▁epidermis	-1640
ront	-1641
ymfoom	-1642
▁flank	-1643
lammat	-1644
▁Colonbiopten	-1645
▁TUR	-1646
▁zijdigheid	-1647
ench	-1648
▁kunt	-1649
▁maagc	-1650
▁Conclusie	-1651
▁he	-1652
organis	-1653
▁mutaties	-1654
leg	-1655
ductie	-1656
▁plaatse	-1657
arium	-1658
fende	-1659
▁overgang	-1660
▁cytologisch	-1661
11	-1662
▁ges	-1663
▁krap	-1664
▁Huidbiopsie	-1665
▁gelegen	-1666
▁inz	-1667
iasis	-1668
▁kleincellig	-1669
▁overtuigende	-1670
▁cholec	-1671
▁evidente	-1672
▁hooggradige	-1673
▁Ge	-1674
▁plaatselijk	-1675
▁derhalve	-1676
ystectomie	-1677
malign	-1678
▁squam	-1679
lammato	-1680
▁eerste	-1681
bare	-1682
▁zwelling	-1683
▁gastritis	-1684
▁mediaal	-1685
igine	-1686
visie	-1687
▁nier	-1688
▁lymfeklier	-1689
▁max	-1690
iescoupe	-1691
lasse	-1692
▁dient	-1693
aur	-1694
adenoom	-1695
▁Pipelle	-1696
histochemie	-1697
▁13	-1698
enchym	-1699
▁tumorcellen	-1700
inn	-1701
nog	-1702
eling	-1703
▁differentiaal	-1704
▁zekerheid	-1705
▁bespreking	-1706
▁schildklier	-1707
igg	-1708
▁diff	-1709
▁forse	-1710
▁Poliepectomie	-1711
▁ap	-1712
▁100	-1713
▁andere	-1714
eft	-1715
room	-1716
▁Dit	-1717
ussen	-1718
▁uitbre	-1719
▁shaveexcisie	-1720
▁myel	-1721
▁placenta	-1722
rouw	-1723
▁gland	-1724
▁revisie	-1725
▁Duodenumbiopten	-1726
25	-1727
ren	-1728
▁tra	-1729
▁front	-1730
ON	-1731
ecum	-1732
voor	-1733
▁Gaarne	-1734
▁uterus	-1735
ocri	-1736
tumor	-1737
▁25	-1738
▁tel	-1739
▁extra	-1740
ez	-1741
▁microscopische	-1742
▁IBD	-1743
▁doorsnij	-1744
auriculair	-1745
▁gew	-1746
proken	-1747
uringen	-1748
▁aspecifieke	-1749
ppende	-1750
▁vragen	-1751
kin	-1752
▁tuba	-1753
▁Def	-1754
▁level	-1755
▁behand	-1756
iaan	-1757
▁Her	-1758
ariaat	-1759
▁folliculitis	-1760
▁secretariaat	-1761
▁lijkt	-1762
alsnog	-1763
▁adnex	-1764
analyse	-1765
▁Bronchus	-1766
▁descendens	-1767
uis	-1768
▁Cholec	-1769
▁cholecyst	-1770
uren	-1771
ressie	-1772
▁betreffende	-1773
▁ant	-1774
▁primaire	-1775
AANVULL	-1776
ithiasis	-1777
▁granulomateuze	-1778
gel	-1779
ouw	-1780
▁Huidstukje	-1781
geb	-1782
▁14	-1783
ING	-1784
▁vaat	-1785
vestig	-1786
ons	-1787
▁beginn	-1788
▁plasma	-1789
▁papillair	-1790
▁Slijmvlies	-1791
lav	-1792
our	-1793
inaal	-1794
▁lies	-1795
▁tubul	-1796
indingen	-1797
▁mediale	-1798
Er	-1799
deling	-1800
ug	-1801
ikel	-1802
▁repres	-1803
ement	-1804
iatie	-1805
NB	-1806
Biopt	-1807
▁Hoog	-1808
▁dorsaal	-1809
iteerde	-1810
▁tussen	-1811
ten	-1812
mucosa	-1813
NM	-1814
▁AL	-1815
ligg	-1816
▁dunne	-1817
▁Appende	-1818
fect	-1819
luiten	-1820
▁coecum	-1821
▁volgen	-1822
va	-1823
adig	-1824
▁aanvullende	-1825
curettage	-1826
▁squameuze	-1827
▁perivasculaire	-1828
ane	-1829
▁stroma	-1830
▁classificeren	-1831
beh	-1832
▁hemat	-1833
▁Beenmerg	-1834
▁papilloom	-1835
dien	-1836
itein	-1837
▁hr	-1838
▁plan	-1839
▁prox	-1840
▁hrHPV	-1841
maligniteit	-1842
ille	-1843
▁recid	-1844
vorming	-1845
▁appendicitis	-1846
▁St	-1847
aris	-1848
▁ovarium	-1849
▁ster	-1850
omorf	-1851
▁Huids	-1852
aam	-1853
▁panel	-1854
▁verder	-1855
positief	-1856
▁beoordeling	-1857
boven	-1858
ITIE	-1859
▁mil	-1860
effect	-1861
alc	-1862
lop	-1863
▁tevens	-1864
oinvasie	-1865
▁hemangioom	-1866
▁endocervicale	-1867
sectier	-1868
▁infiltrerend	-1869
▁invasiediepte	-1870
eveel	-1871
geven	-1872
anthoom	-1873
▁Naaldbiopten	-1874
lid	-1875
▁tbv	-1876
▁perif	-1877
▁thorax	-1878
▁sprieterige	-1879
▁sterke	-1880
▁bepaling	-1881
▁spongiotische	-1882
epat	-1883
▁frontaal	-1884
itslag	-1885
ustype	-1886
Huidbiopt	-1887
ista	-1888
orende	-1889
▁hoeveel	-1890
▁uitbreiding	-1891
▁bevestig	-1892
▁endometri	-1893
ure	-1894
stat	-1895
▁Cyt	-1896
organismen	-1897
▁spier	-1898
arcinoma	-1899
▁lymfocytose	-1900
arcoom	-1901
▁multif	-1902
▁hoeveelheid	-1903
▁granulocyten	-1904
▁dank	-1905
▁inst	-1906
▁uitein	-1907
▁schimmels	-1908
▁epitheliale	-1909
agitis	-1910
receptor	-1911
▁Galblaas	-1912
▁vulg	-1913
▁extern	-1914
▁Appendectomie	-1915
ore	-1916
▁Sp	-1917
ging	-1918
▁term	-1919
Revisie	-1920
▁Voorts	-1921
grond	-1922
▁retour	-1923
▁lentigo	-1924
▁onbekend	-1925
▁vulgaris	-1926
BB	-1927
▁dr	-1928
atell	-1929
▁twee	-1930
▁ax	-1931
▁onge	-1932
▁verwerkt	-1933
EF	-1934
▁nas	-1935
▁bot	-1936
illa	-1937
▁Bij	-1938
▁blok	-1939
▁vasc	-1940
extirpatie	-1941
▁FISH	-1942
urettement	-1943
▁moleculaire	-1944
zen	-1945
▁ALK	-1946
▁Pla	-1947
odulair	-1948
lammatoire	-1949
▁post	-1950
▁mac	-1951
isexcisie	-1952
iardia	-1953
26	-1954
▁le	-1955
reid	-1956
ruct	-1957
▁int	-1958
▁typ	-1959
▁vasoinvasie	-1960
DL	-1961
omer	-1962
▁NGS	-1963
▁det	-1964
▁cyst	-1965
CIS	-1966
▁bevindingen	-1967
▁grootcellig	-1968
SI	-1969
▁cran	-1970
gemaak	-1971
oAd	-1972
EFIN	-1973
▁hypert	-1974
▁pathogene	-1975
▁representatief	-1976
03	-1977
neden	-1978
▁Bcel	-1979
▁ruim	-1980
▁naast	-1981
▁derden	-1982
ft	-1983
steking	-1984
irriteerde	-1985
▁kleuringen	-1986
anger	-1987
onale	-1988
EFINITIE	-1989
▁bloeding	-1990
▁no	-1991
▁Uterus	-1992
indweefsel	-1993
▁intraderm	-1994
▁DD	-1995
genomen	-1996
▁poliepectomie	-1997
▁Prostaatbiopten	-1998
lad	-1999
▁uits	-2000
▁laaggradig	-2001
▁Giardia	-2002
▁doorgemaak	-2003
onen	-2004
▁dig	-2005
▁urine	-2006
lab	-2007
over	-2008
rake	-2009
aarde	-2010
▁classificerende	-2011
low	-2012
▁spoel	-2013
generatie	-2014
▁classificatie	-2015
▁cir	-2016
ethes	-2017
epel	-2018
▁beho	-2019
▁sprake	-2020
iculaire	-2021
▁geirriteerde	-2022
oedelijk	-2023
mb	-2024
ied	-2025
iameter	-2026
ositieve	-2027
▁Ig	-2028
▁eryth	-2029
agin	-2030
vert	-2031
▁kap	-2032
ethesda	-2033
▁30	-2034
▁gep	-2035
spoel	-2036
▁veel	-2037
▁vorm	-2038
▁bijbeh	-2039
▁geh	-2040
▁neuro	-2041
clerose	-2042
▁necrot	-2043
plificatie	-2044
▁maagcorpus	-2045
veranderingen	-2046
vall	-2047
▁DNA	-2048
▁nader	-2049
▁sluiten	-2050
▁bijbehorende	-2051
CH	-2052
▁PR	-2053
sori	-2054
▁dis	-2055
oken	-2056
▁ventraal	-2057
sectieranden	-2058
▁Daar	-2059
▁glomer	-2060
▁doorgemaakte	-2061
▁microorganismen	-2062
score	-2063
▁angioinvasie	-2064
▁zijs	-2065
negatief	-2066
▁neusrug	-2067
▁TP	-2068
aard	-2069
▁variant	-2070
alp	-2071
odg	-2072
▁proces	-2073
▁slokdarm	-2074
▁bindweefsel	-2075
antie	-2076
amm	-2077
laire	-2078
odgkin	-2079
▁verander	-2080
bra	-2081
erkte	-2082
▁therapie	-2083
roliferatie	-2084
▁kn	-2085
▁regio	-2086
RE	-2087
hoek	-2088
▁Niet	-2089
▁distale	-2090
50	-2091
LE	-2092
evlak	-2093
punctie	-2094
▁mucosa	-2095
▁hyperkeratose	-2096
osie	-2097
▁pancre	-2098
▁ontstoken	-2099
]2	-2100
▁16	-2101
▁lob	-2102
▁dermaal	-2103
▁localisatie	-2104
40	-2105
zicht	-2106
▁rond	-2107
▁mesot	-2108
▁betrouw	-2109
▁primair	-2110
▁recidief	-2111
alcificatie	-2112
▁neop	-2113
GIE	-2114
her	-2115
iseerd	-2116
rofiel	-2117
▁Biopsie	-2118
orpustype	-2119
▁terminale	-2120
laap	-2121
inder	-2122
ischem	-2123
▁erosie	-2124
▁opvall	-2125
▁diepere	-2126
▁granuloma	-2127
▁MET	-2128
ameus	-2129
kenmerken	-2130
▁Cervixbiopt	-2131
END	-2132
▁nek	-2133
▁diepte	-2134
▁vasculitis	-2135
▁uw	-2136
▁ext	-2137
roscop	-2138
centage	-2139
▁dieper	-2140
lasie	-2141
Huidexcisie	-2142
LO	-2143
▁Mar	-2144
▁intern	-2145
iekte	-2146
itaal	-2147
neevlak	-2148
▁hypertrof	-2149
▁19	-2150
▁caud	-2151
ocriene	-2152
▁Conform	-2153
▁sy	-2154
asus	-2155
otisch	-2156
▁beschadig	-2157
▁arch	-2158
▁zover	-2159
ST	-2160
met	-2161
isatie	-2162
▁reactie	-2163
▁gefragment	-2164
▁uitgebreid	-2165
▁geg	-2166
▁blij	-2167
▁psori	-2168
▁ulcus	-2169
▁origine	-2170
itone	-2171
uscel	-2172
▁Weke	-2173
ieerde	-2174
▁zoals	-2175
▁hoogte	-2176
▁ischem	-2177
▁planus	-2178
▁behaarde	-2179
▁vermoedelijk	-2180
▁prostaatbiopten	-2181
loc	-2182
otis	-2183
▁cryp	-2184
46	-2185
▁nr	-2186
▁fibroadenoom	-2187
▁18	-2188
▁cl	-2189
▁Imm	-2190
atori	-2191
groei	-2192
▁Mat	-2193
▁beginnende	-2194
TIE	-2195
▁variatie	-2196
▁vooralsnog	-2197
1[	-2198
oac	-2199
evus	-2200
iciteit	-2201
▁positieve	-2202
▁intradermale	-2203
▁com	-2204
▁papillomat	-2205
HO	-2206
roon	-2207
iddel	-2208
▁gediagnost	-2209
▁maagbiopten	-2210
▁lum	-2211
▁non	-2212
rocyt	-2213
▁knie	-2214
▁voet	-2215
olaire	-2216
▁Huidstansbiopt	-2217
vies	-2218
▁Hier	-2219
▁kliniek	-2220
▁Huidstans	-2221
▁wen	-2222
pressie	-2223
▁fibros	-2224
▁regressie	-2225
▁pse	-2226
ollikel	-2227
▁leiomyoom	-2228
▁Definitieve	-2229
▁Colonslijmvlies	-2230
PCL	-2231
▁bla	-2232
eliak	-2233
scite	-2234
▁all	-2235
▁handrug	-2236
▁station	-2237
▁achtergrond	-2238
▁nieuwe	-2239
ructuren	-2240
icaliteit	-2241
ce	-2242
▁vir	-2243
▁onderzo	-2244
▁correlatie	-2245
▁amplificatie	-2246
erg	-2247
▁50	-2248
illeus	-2249
▁enkel	-2250
▁meest	-2251
▁necrose	-2252
▁gegevens	-2253
oacanthoom	-2254
▁carcinoma	-2255
rush	-2256
infil	-2257
▁onderlip	-2258
Na	-2259
ndroom	-2260
▁hepat	-2261
▁HPVnegatief	-2262
▁multifocaal	-2263
AR	-2264
CC	-2265
▁Lev	-2266
eliakie	-2267
▁beschouw	-2268
▁mammacarcinoom	-2269
33	-2270
uus	-2271
scites	-2272
▁focus	-2273
vlakken	-2274
▁middel	-2275
br	-2276
ulus	-2277
▁DCIS	-2278
▁distaal	-2279
▁et	-2280
▁cil	-2281
▁nodus	-2282
▁blokje	-2283
▁beperkte	-2284
▁neuroend	-2285
▁vriescoupe	-2286
▁IN	-2287
amelijk	-2288
▁micron	-2289
▁Snijvlak	-2290
▁lymfocyten	-2291
▁Invasie	-2292
▁bovenkwab	-2293
opoe	-2294
▁dik	-2295
▁rel	-2296
▁verslag	-2297
ees	-2298
pret	-2299
▁Rad	-2300
wijzig	-2301
▁morfologisch	-2302
MOR	-2303
▁PAlab	-2304
atelliet	-2305
▁squameus	-2306
▁uitsluit	-2307
▁coeliakie	-2308
▁keratoacanthoom	-2309
flu	-2310
▁CM	-2311
osit	-2312
VE	-2313
buik	-2314
▁bed	-2315
▁bul	-2316
▁ingez	-2317
▁verdere	-2318
cellymfoom	-2319
▁Cytologische	-2320
GE	-2321
▁40	-2322
activiteit	-2323
▁Oesophagus	-2324
▁premaligniteit	-2325
▁axilla	-2326
▁parotis	-2327
TNM	-2328
▁05	-2329
raak	-2330
▁arm	-2331
assoc	-2332
▁Daarnaast	-2333
▁J	-2334
wege	-2335
eleide	-2336
▁slaap	-2337
▁PAnummer	-2338
AANVULLEND	-2339
St	-2340
ooglid	-2341
opoese	-2342
▁doorsnijd	-2343
lex	-2344
urg	-2345
▁Sch	-2346
▁seg	-2347
▁toe	-2348
▁klasse	-2349
▁glomerul	-2350
▁Different	-2351
▁bestaande	-2352
▁onderzocht	-2353
▁vasoinvasieve	-2354
70	-2355
raf	-2356
kbra	-2357
kbrauw	-2358
▁Tumor	-2359
locatie	-2360
▁subcutis	-2361
fragmenten	-2362
34	-2363
ila	-2364
▁bil	-2365
heden	-2366
oupes	-2367
namelijk	-2368
▁slechts	-2369
30	-2370
▁EB	-2371
reerde	-2372
▁diffuus	-2373
▁onderrug	-2374
▁ontstekingsrest	-2375
zaak	-2376
klein	-2377
gegeven	-2378
iagnose	-2379
▁Gezien	-2380
▁Bethesda	-2381
HM	-2382
alk	-2383
roh	-2384
▁acanth	-2385
▁DEFINITIE	-2386
alcificaties	-2387
iver	-2388
roei	-2389
rohn	-2390
▁romp	-2391
24	-2392
AI	-2393
▁lamb	-2394
atieve	-2395
▁uteri	-2396
▁hierin	-2397
▁eventueel	-2398
28	-2399
rat	-2400
ven	-2401
anel	-2402
rt	-2403
elp	-2404
▁GE	-2405
▁ple	-2406
▁anus	-2407
▁wenkbrauw	-2408
CBD	-2409
▁35	-2410
innen	-2411
stand	-2412
▁even	-2413
▁lichte	-2414
▁segment	-2415
▁instantie	-2416
▁degeneratie	-2417
35	-2418
OM	-2419
rac	-2420
▁pG	-2421
▁beste	-2422
▁pancreas	-2423
▁syndroom	-2424
▁lymfocytaire	-2425
▁naaldbiopten	-2426
duid	-2427
icus	-2428
schap	-2429
spraak	-2430
▁Crohn	-2431
▁celarm	-2432
▁ontvangen	-2433
gte	-2434
lar	-2435
▁Tub	-2436
asaal	-2437
irurg	-2438
itect	-2439
▁crypt	-2440
▁tonen	-2441
▁Huidshave	-2442
▁ob	-2443
▁Oesofagus	-2444
▁neoplasie	-2445
HMH	-2446
imp	-2447
▁kin	-2448
erden	-2449
▁verruc	-2450
▁meerdere	-2451
▁preauriculair	-2452
ade	-2453
iale	-2454
quor	-2455
apula	-2456
iform	-2457
formatie	-2458
▁Mogelijk	-2459
eu	-2460
▁cut	-2461
leugel	-2462
Biopten	-2463
▁focale	-2464
ovilleus	-2465
selklier	-2466
▁musc	-2467
schelp	-2468
▁werden	-2469
79	-2470
▁pret	-2471
vleugel	-2472
▁22	-2473
▁ed	-2474
asen	-2475
olifer	-2476
rogeen	-2477
stitie	-2478
▁gevol	-2479
Mutatie	-2480
▁Indien	-2481
▁hooguit	-2482
▁atypisch	-2483
▁craniaal	-2484
lokalisatie	-2485
▁opvallende	-2486
▁cholecystitis	-2487
Bij	-2488
ikte	-2489
rijp	-2490
▁WHO	-2491
▁cell	-2492
strijk	-2493
▁voornamelijk	-2494
eron	-2495
▁Placenta	-2496
▁oorschelp	-2497
ill	-2498
▁BR	-2499
punt	-2500
▁top	-2501
▁Focaal	-2502
iologisch	-2503
▁onderkwab	-2504
kleincellig	-2505
▁Gleasonscore	-2506
▁histologische	-2507
▁23	-2508
rant	-2509
urie	-2510
▁Over	-2511
▁digit	-2512
▁Maagslijmvlies	-2513
iA	-2514
eek	-2515
▁Na	-2516
wang	-2517
▁nee	-2518
▁weken	-2519
▁gewicht	-2520
▁bovenlip	-2521
▁ontvangt	-2522
▁ulcerosa	-2523
raagt	-2524
zonder	-2525
derende	-2526
▁gebied	-2527
▁mucine	-2528
▁maximale	-2529
▁Met	-2530
adrant	-2531
▁shave	-2532
▁Uitslag	-2533
▁translocatie	-2534
▁doorsnijdingen	-2535
chog	-2536
proliferatie	-2537
ui	-2538
emd	-2539
hol	-2540
leet	-2541
▁kaak	-2542
ibiaal	-2543
iverende	-2544
▁bronchus	-2545
ulatieweefsel	-2546
▁py	-2547
uizen	-2548
Consult	-2549
▁definitieve	-2550
eve	-2551
lat	-2552
▁nav	-2553
▁inclusie	-2554
▁onderligg	-2555
▁sclerosus	-2556
▁Cr	-2557
owel	-2558
vrij	-2559
▁ROS	-2560
▁tepel	-2561
▁binnen	-2562
▁correleren	-2563
▁infiltraat	-2564
ker	-2565
▁MD	-2566
regen	-2567
▁caudaal	-2568
▁chirurg	-2569
▁locatie	-2570
▁normale	-2571
▁ulcererende	-2572
▁inflammatoire	-2573
gevo	-2574
ings	-2575
laviculair	-2576
ruik	-2577
▁casus	-2578
wijzigd	-2579
▁blijft	-2580
▁gelaat	-2581
estrogeen	-2582
▁preparaat	-2583
▁pretibiaal	-2584
coch	-2585
▁sug	-2586
groep	-2587
▁editie	-2588
▁totaal	-2589
gesteron	-2590
schouder	-2591
▁resectieranden	-2592
49	-2593
efr	-2594
▁HP	-2595
huid	-2596
▁Cel	-2597
▁aanv	-2598
middel	-2599
▁atrof	-2600
▁random	-2601
waliteit	-2602
▁scapula	-2603
▁tubulovilleus	-2604
blad	-2605
▁para	-2606
cochle	-2607
▁actief	-2608
▁psoriasis	-2609
▁Aanvullende	-2610
▁neusvleugel	-2611
▁gediagnostic	-2612
▁darmslijmvlies	-2613
led	-2614
USIE	-2615
cont	-2616
▁mon	-2617
▁via	-2618
kwadrant	-2619
▁profiel	-2620
eekselklier	-2621
▁nietkleincellig	-2622
▁tox	-2623
ereus	-2624
itale	-2625
CLUSIE	-2626
infiltraat	-2627
▁gastropathie	-2628
▁papillomatosus	-2629
IJ	-2630
spot	-2631
▁enof	-2632
▁mast	-2633
▁mediaan	-2634
▁behandeling	-2635
▁basocellulair	-2636
eid	-2637
▁17	-2638
▁gec	-2639
▁sin	-2640
ecrose	-2641
▁lymfoide	-2642
▁corpustype	-2643
▁tr	-2644
▁abce	-2645
naevus	-2646
otspot	-2647
▁galblaas	-2648
▁plasmacellen	-2649
▁Beenmergbiopt	-2650
ici	-2651
reductie	-2652
▁uitspraak	-2653
29	-2654
edarm	-2655
lagen	-2656
reslow	-2657
▁thorac	-2658
220	-2659
equ	-2660
tal	-2661
▁Li	-2662
reemd	-2663
▁NRAS	-2664
contin	-2665
▁bedraagt	-2666
DI	-2667
][	-2668
▁Ook	-2669
lijden	-2670
▁histi	-2671
▁scalp	-2672
▁sereus	-2673
▁suggest	-2674
▁differentiatie	-2675
ben	-2676
dis	-2677
emie	-2678
▁opruim	-2679
ONCLUSIE	-2680
onderzoek	-2681
mon	-2682
eels	-2683
reep	-2684
▁gal	-2685
▁hyp	-2686
▁myc	-2687
▁zal	-2688
Tumor	-2689
▁Hist	-2690
▁drie	-2691
▁Diameter	-2692
▁folliculaire	-2693
MR	-2694
▁hy	-2695
impl	-2696
▁CMV	-2697
▁onc	-2698
▁geassoc	-2699
angerschap	-2700
ude	-2701
oAde	-2702
uptu	-2703
▁punt	-2704
▁param	-2705
▁aspect	-2706
ysplasie	-2707
▁duodenumbiopten	-2708
▁reuscel	-2709
▁curettage	-2710
▁spierweefsel	-2711
▁ste	-2712
lopig	-2713
ocervix	-2714
VI	-2715
sa	-2716
▁33	-2717
▁vulva	-2718
▁zowel	-2719
pretatie	-2720
▁geruptu	-2721
▁proximaal	-2722
LA	-2723
ERI	-2724
▁uret	-2725
▁appendix	-2726
▁suggestief	-2727
▁gefragmenteerd	-2728
MA	-2729
TAL	-2730
aria	-2731
lijn	-2732
▁fund	-2733
▁Crista	-2734
▁Verder	-2735
▁arteri	-2736
▁architect	-2737
bin	-2738
▁pl	-2739
issel	-2740
▁BRCA	-2741
ofagitis	-2742
▁mediast	-2743
▁verruceuze	-2744
▁PAS	-2745
▁Gering	-2746
▁micros	-2747
athologie	-2748
▁fibroserende	-2749
▁plaveiselcel	-2750
histochemische	-2751
▁Differentiaal	-2752
▁endocervicaal	-2753
27	-2754
2[	-2755
ple	-2756
▁An	-2757
▁gest	-2758
dermat	-2759
▁cholel	-2760
▁lastig	-2761
▁verkregen	-2762
▁abcederende	-2763
▁mammaweefsel	-2764
47	-2765
opt	-2766
▁Ad	-2767
ynov	-2768
rusor	-2769
ulare	-2770
▁kuit	-2771
▁tong	-2772
▁aantal	-2773
▁uitrijp	-2774
parenchym	-2775
chogeleide	-2776
▁helicobacter	-2777
▁zwangerschap	-2778
▁infiltratieve	-2779
typ	-2780
▁PCR	-2781
▁PDL	-2782
▁krab	-2783
initief	-2784
▁Append	-2785
▁bijzonder	-2786
80	-2787
ume	-2788
▁il	-2789
▁Klin	-2790
▁been	-2791
▁vagin	-2792
itoneum	-2793
▁pleuravocht	-2794
▁dub	-2795
▁intestinaal	-2796
▁uitgesproken	-2797
▁cholelithiasis	-2798
67	-2799
▁01	-2800
▁Al	-2801
laesie	-2802
▁fibre	-2803
▁retro	-2804
▁tegen	-2805
▁dep	-2806
akerat	-2807
▁blast	-2808
eenbeen	-2809
▁bovenrug	-2810
▁prolifer	-2811
ark	-2812
ocol	-2813
▁cor	-2814
▁sep	-2815
▁tri	-2816
stitiele	-2817
eesmiddel	-2818
▁onderver	-2819
▁expressie	-2820
▁betrouwbare	-2821
HE	-2822
ann	-2823
boog	-2824
▁schade	-2825
▁Invasiediepte	-2826
▁opruimreactie	-2827
rik	-2828
▁mit	-2829
▁Deze	-2830
▁helix	-2831
▁preex	-2832
▁inzend	-2833
follikel	-2834
iserende	-2835
▁ooghoek	-2836
▁tumorvrij	-2837
ziekte	-2838
▁gaarne	-2839
▁radicaliteit	-2840
Ad	-2841
▁test	-2842
▁herhal	-2843
▁klierb	-2844
▁virale	-2845
▁sneevlak	-2846
▁geneesmiddel	-2847
▁geruptureerde	-2848
ive	-2849
▁verh	-2850
99	-2851
Op	-2852
▁tal	-2853
▁sarc	-2854
astase	-2855
▁ingreep	-2856
▁cilinder	-2857
dermatitis	-2858
andib	-2859
entrum	-2860
▁slijm	-2861
gevoerd	-2862
▁Ascites	-2863
▁metastasen	-2864
▁speekselklier	-2865
45	-2866
PI	-2867
icum	-2868
ermat	-2869
▁verb	-2870
iratie	-2871
▁welke	-2872
osclerose	-2873
▁neuspunt	-2874
skenmerken	-2875
▁bijzonderheden	-2876
rop	-2877
▁Ex	-2878
▁leuk	-2879
▁danwel	-2880
▁detrusor	-2881
▁HPVpositief	-2882
▁adenomateuze	-2883
▁schouderblad	-2884
▁Bronchusspoel	-2885
aardige	-2886
▁Immuun	-2887
▁CONCLUSIE	-2888
60	-2889
enc	-2890
oratori	-2891
▁basale	-2892
▁Huidresectie	-2893
▁colonbiopten	-2894
85	-2895
dens	-2896
romb	-2897
ylin	-2898
pigment	-2899
atum	-2900
raad	-2901
oloog	-2902
ediaan	-2903
richting	-2904
▁Appendix	-2905
CHT	-2906
ria	-2907
▁1[	-2908
erfor	-2909
▁ingroei	-2910
oratorium	-2911
▁oesofagitis	-2912
▁PI	-2913
aams	-2914
acte	-2915
continentie	-2916
▁neuroendocriene	-2917
lia	-2918
▁Gen	-2919
▁ann	-2920
emband	-2921
▁elast	-2922
▁digitus	-2923
▁punctaat	-2924
MF	-2925
PE	-2926
oo	-2927
OLE	-2928
ity	-2929
reg	-2930
osen	-2931
icula	-2932
▁angi	-2933
▁sign	-2934
▁divert	-2935
▁nodularis	-2936
▁onderzochte	-2937
▁zijsnijvlak	-2938
▁Resectievlakken	-2939
DH	-2940
DER	-2941
▁len	-2942
▁was	-2943
acteri	-2944
▁spreid	-2945
▁parakerat	-2946
▁uiteinden	-2947
▁beoordeeld	-2948
▁folliculair	-2949
▁paramediaan	-2950
Neu	-2951
▁Ac	-2952
door	-2953
▁sinus	-2954
necrose	-2955
▁Liquor	-2956
▁Geringe	-2957
▁context	-2958
▁preexist	-2959
▁structuren	-2960
TU	-2961
▁Dun	-2962
dikte	-2963
iaald	-2964
▁thoracaal	-2965
▁transformatie	-2966
dyl	-2967
▁03	-2968
eker	-2969
▁sequ	-2970
atroon	-2971
▁oorzaak	-2972
▁gepigment	-2973
▁stansbiopt	-2974
Stv	-2975
iel	-2976
ura	-2977
▁Is	-2978
cidu	-2979
ammap	-2980
edeem	-2981
▁Rect	-2982
▁kapsel	-2983
▁lobulair	-2984
▁poliepen	-2985
▁uitgevoerd	-2986
▁En	-2987
▁BCL	-2988
▁secund	-2989
opulatie	-2990
cochleaat	-2991
▁uiteinde	-2992
▁Bcellymfoom	-2993
_00	-2994
▁los	-2995
tiele	-2996
▁verl	-2997
▁gehele	-2998
▁wissel	-2999
▁spreidend	-3000
▁haarfollikel	-3001
▁net	-3002
erior	-3003
heids	-3004
▁patiAn	-3005
▁behoeve	-3006
▁toegenomen	-3007
88	-3008
ced	-3009
use	-3010
▁ect	-3011
oelig	-3012
ograf	-3013
afwijk	-3014
▁lengte	-3015
▁ontbre	-3016
▁suprac	-3017
olithiasis	-3018
▁scheenbeen	-3019
▁necrotiserende	-3020
OE	-3021
TF	-3022
▁90	-3023
inel	-3024
holte	-3025
▁lumb	-3026
▁oedeem	-3027
▁annulare	-3028
▁hypertrofische	-3029
ros	-3030
▁MS	-3031
▁ERBB	-3032
implex	-3033
▁lamblia	-3034
▁simplex	-3035
▁aangegeven	-3036
37	-3037
Imm	-3038
spl	-3039
▁CT	-3040
▁VI	-3041
▁We	-3042
ctus	-3043
iAle	-3044
▁pap	-3045
ester	-3046
raden	-3047
actief	-3048
entinel	-3049
umbiopten	-3050
resectievlak	-3051
▁ru	-3052
▁ses	-3053
▁prot	-3054
igmoAd	-3055
scheid	-3056
▁groep	-3057
osarcoom	-3058
▁onderste	-3059
Moleculair	-3060
▁Echogeleide	-3061
au	-3062
sd	-3063
▁ma	-3064
ante	-3065
houd	-3066
veer	-3067
▁BERI	-3068
▁BERICHT	-3069
▁adenomy	-3070
▁hiervan	-3071
▁bre	-3072
ontaan	-3073
▁maligna	-3074
▁proximale	-3075
▁aankleuring	-3076
▁onderooglid	-3077
▁ongewijzigd	-3078
sh	-3079
adv	-3080
actieve	-3081
▁result	-3082
▁Breslow	-3083
▁lumbaal	-3084
▁chirurgie	-3085
curettement	-3086
gesteronreceptor	-3087
▁grensvlaknaevus	-3088
ores	-3089
rijke	-3090
oidose	-3091
▁heeft	-3092
▁separ	-3093
delingen	-3094
▁Radicaal	-3095
▁aanvulling	-3096
▁onderscheid	-3097
incontinentie	-3098
gd	-3099
ooi	-3100
gens	-3101
▁prom	-3102
▁Lever	-3103
▁hoorn	-3104
ografie	-3105
▁matuur	-3106
▁sessie	-3107
▁beperkt	-3108
adviseerd	-3109
▁besproken	-3110
▁DEFINITIEF	-3111
▁interpretatie	-3112
▁micronodulair	-3113
ivm	-3114
oth	-3115
cred	-3116
keuze	-3117
▁foet	-3118
▁labium	-3119
▁pipelle	-3120
▁antrumtype	-3121
ins	-3122
▁ivm	-3123
anaal	-3124
leboog	-3125
▁grote	-3126
pervlakk	-3127
▁Hodgkin	-3128
▁duidelijk	-3129
▁bovenkwadrant	-3130
▁21	-3131
▁70	-3132
rale	-3133
▁RET	-3134
ipele	-3135
ocard	-3136
rated	-3137
▁amyl	-3138
▁cysteuze	-3139
specifieke	-3140
YMF	-3141
oen	-3142
lich	-3143
raagd	-3144
ranod	-3145
▁gang	-3146
dermie	-3147
▁Slokdarm	-3148
▁topografie	-3149
▁overwegingen	-3150
ea	-3151
ank	-3152
ijz	-3153
ynx	-3154
▁06	-3155
uurd	-3156
▁mass	-3157
▁snij	-3158
atisch	-3159
cedure	-3160
▁tubae	-3161
staande	-3162
▁condyl	-3163
▁oesoph	-3164
▁pariet	-3165
▁stemband	-3166
▁Reexcisie	-3167
▁Shaveexcisie	-3168
▁metaplastisch	-3169
▁tumorpositief	-3170
cc	-3171
ary	-3172
comp	-3173
osale	-3174
Coupes	-3175
oblast	-3176
Invasie	-3177
oornend	-3178
▁rectos	-3179
orescent	-3180
▁erosieve	-3181
▁serrated	-3182
▁activerende	-3183
▁NM	-3184
elat	-3185
merk	-3186
▁ilia	-3187
iforme	-3188
nedarm	-3189
▁plaats	-3190
tsteking	-3191
riescoupe	-3192
▁Materiaal	-3193
▁ontstekingsp	-3194
▁80	-3195
▁aut	-3196
▁ron	-3197
▁mond	-3198
▁nasi	-3199
▁dicht	-3200
▁diffuse	-3201
▁ongeveer	-3202
▁bevestigd	-3203
schildklier	-3204
▁Maagantrum	-3205
▁granulerende	-3206
48	-3207
bes	-3208
▁Med	-3209
urigo	-3210
▁fibr	-3211
▁perfor	-3212
▁recent	-3213
▁granuloom	-3214
▁degeneratieve	-3215
▁interstitiele	-3216
pt	-3217
asie	-3218
▁TTF	-3219
iologie	-3220
osities	-3221
▁endometriose	-3222
KI	-3223
ema	-3224
▁ha	-3225
▁zone	-3226
ranspl	-3227
▁geval	-3228
ineaire	-3229
arkeerde	-3230
▁Centrum	-3231
▁lymfoid	-3232
▁tractus	-3233
ransplant	-3234
orescentie	-3235
▁Pathologie	-3236
rtic	-3237
▁abd	-3238
▁GEEN	-3239
▁Lisexcisie	-3240
05	-3241
udo	-3242
▁04	-3243
▁24	-3244
aakt	-3245
bodem	-3246
iomorf	-3247
▁hetgeen	-3248
▁verband	-3249
▁glandula	-3250
▁Snijranden	-3251
▁activiteit	-3252
▁biologisch	-3253
▁perifollic	-3254
▁Sub	-3255
blast	-3256
ieden	-3257
▁enig	-3258
▁krabeffect	-3259
▁verrukeuze	-3260
▁microsatelliet	-3261
▁retroauriculair	-3262
hip	-3263
▁compleet	-3264
▁verrichte	-3265
▁beschouwen	-3266
BBL	-3267
CUL	-3268
cop	-3269
▁MY	-3270
inum	-3271
panel	-3272
▁apex	-3273
legmon	-3274
spreid	-3275
▁waarop	-3276
dissectie	-3277
▁richting	-3278
▁mesotheel	-3279
▁mesotheli	-3280
▁doorsnijden	-3281
▁geadviseerd	-3282
GA	-3283
ls	-3284
oge	-3285
▁60	-3286
eens	-3287
▁aort	-3288
▁duiden	-3289
punctaat	-3290
▁adnexen	-3291
▁extranod	-3292
▁Naaldbiopt	-3293
OK	-3294
▁45	-3295
ring	-3296
ening	-3297
matig	-3298
▁heup	-3299
▁oude	-3300
hipple	-3301
▁ather	-3302
apillair	-3303
cellulair	-3304
▁behandel	-3305
75	-3306
BK	-3307
let	-3308
elet	-3309
kenh	-3310
orro	-3311
wacht	-3312
▁circ	-3313
▁chond	-3314
▁urtic	-3315
pigmentatie	-3316
▁Oppervlakk	-3317
angioinvasieve	-3318
ate	-3319
elf	-3320
igh	-3321
kop	-3322
▁PT	-3323
▁NST	-3324
▁ronde	-3325
▁crista	-3326
▁vreemd	-3327
▁ingezet	-3328
▁ziekenh	-3329
▁ischemie	-3330
▁pleiomorf	-3331
▁oesophagitis	-3332
▁parakeratose	-3333
TA	-3334
OOM	-3335
ruin	-3336
gklier	-3337
gesneden	-3338
icroscop	-3339
prostaat	-3340
▁overleg	-3341
▁elleboog	-3342
▁node	-3343
Nieuwe	-3344
▁behou	-3345
▁chori	-3346
▁cutane	-3347
▁fibroom	-3348
▁verzoek	-3349
▁minimaal	-3350
▁lisexcisie	-3351
▁normocellulair	-3352
gl	-3353
▁0[	-3354
AANTAL	-3355
▁Marsh	-3356
▁cylin	-3357
iculitis	-3358
▁veranderd	-3359
▁klierbuizen	-3360
▁angioinvasieve	-3361
On	-3362
app	-3363
▁ml	-3364
atyp	-3365
erie	-3366
upus	-3367
▁Bot	-3368
▁Kan	-3369
▁ven	-3370
oscop	-3371
iceerd	-3372
itatie	-3373
▁genet	-3374
Excisie	-3375
snijden	-3376
▁pseudo	-3377
infectie	-3378
▁eveneens	-3379
▁separaat	-3380
▁perforatie	-3381
▁gepigmenteerde	-3382
90	-3383
▁Vol	-3384
▁Long	-3385
erapie	-3386
immuun	-3387
teerde	-3388
▁microc	-3389
▁randen	-3390
▁Whipple	-3391
▁afstand	-3392
▁onderbuik	-3393
▁talgklier	-3394
▁linkerboven	-3395
▁celmateriaal	-3396
43	-3397
SF	-3398
ha	-3399
ly	-3400
ng	-3401
waar	-3402
▁MMR	-3403
▁heb	-3404
▁EBUS	-3405
ferent	-3406
▁navel	-3407
▁nadere	-3408
▁sessiel	-3409
▁spermat	-3410
▁ontbreken	-3411
Aanvullende	-3412
▁beschadigde	-3413
▁architectuur	-3414
ue	-3415
210	-3416
VIN	-3417
AIRE	-3418
ieuw	-3419
▁laat	-3420
legmoneuze	-3421
▁naaldbiopt	-3422
▁rechterboven	-3423
jw	-3424
neum	-3425
oord	-3426
tend	-3427
▁imp	-3428
▁gesch	-3429
▁pyogen	-3430
▁prurigo	-3431
▁ontstaan	-3432
▁receptor	-3433
percentage	-3434
▁voldoende	-3435
▁pyogenicum	-3436
▁Cristabiopt	-3437
th	-3438
flux	-3439
srest	-3440
▁acin	-3441
▁trich	-3442
▁reflux	-3443
▁testis	-3444
▁compact	-3445
▁opzicht	-3446
AANVULLING	-3447
▁erytrocyt	-3448
▁vreemdlich	-3449
▁rechteronder	-3450
uta	-3451
▁Te	-3452
requ	-3453
▁IgA	-3454
▁Per	-3455
▁lok	-3456
▁Door	-3457
olaris	-3458
▁Dunne	-3459
▁kruin	-3460
Hodgkin	-3461
atische	-3462
▁gelijk	-3463
▁hebben	-3464
▁mucineus	-3465
▁myometrium	-3466
▁peritoneum	-3467
▁linkeronder	-3468
▁verhoornend	-3469
omorfologisch	-3470
▁2[	-3471
▁HR	-3472
▁clav	-3473
▁acuta	-3474
▁oment	-3475
▁polyp	-3476
▁vanwege	-3477
▁typering	-3478
ontsteking	-3479
▁mediastinum	-3480
86	-3481
600	-3482
▁ML	-3483
▁Aan	-3484
▁drs	-3485
▁gek	-3486
oplas	-3487
▁gram	-3488
CULAIRE	-3489
eration	-3490
unction	-3491
▁indien	-3492
▁gezicht	-3493
▁verlies	-3494
▁opzichte	-3495
▁papillaire	-3496
EP	-3497
NV	-3498
ijd	-3499
▁AD	-3500
reng	-3501
epres	-3502
▁doch	-3503
paraten	-3504
▁aangev	-3505
▁resten	-3506
▁totale	-3507
▁interes	-3508
▁Klinisch	-3509
▁Huidbiopten	-3510
DS	-3511
cf	-3512
▁id	-3513
hand	-3514
kern	-3515
otyp	-3516
stel	-3517
▁MSI	-3518
▁gist	-3519
▁pols	-3520
encing	-3521
▁neurof	-3522
▁vrijwel	-3523
▁aanvraag	-3524
▁poliepje	-3525
epitheliaal	-3526
eslijmvlies	-3527
▁nonHodgkin	-3528
HC	-3529
dequ	-3530
oren	-3531
zone	-3532
oring	-3533
▁auto	-3534
▁prop	-3535
▁TUMOR	-3536
▁geven	-3537
entrale	-3538
▁multipele	-3539
▁specificiteit	-3540
▁07	-3541
▁Be	-3542
ding	-3543
▁Ile	-3544
GIEGIE	-3545
▁dubie	-3546
▁synov	-3547
patroon	-3548
▁Curettage	-3549
▁interesse	-3550
▁uitsluitend	-3551
MET	-3552
chn	-3553
arak	-3554
etect	-3555
▁circa	-3556
▁haard	-3557
arakter	-3558
▁combin	-3559
Mutaties	-3560
pectomie	-3561
stelling	-3562
▁Punctaat	-3563
▁hierover	-3564
▁onbekende	-3565
▁overwegen	-3566
▁rectosigmoid	-3567
js	-3568
▁08	-3569
olip	-3570
raat	-3571
▁get	-3572
akary	-3573
▁vast	-3574
ekenis	-3575
▁lupus	-3576
▁pseud	-3577
▁verst	-3578
Uitslag	-3579
▁fibreus	-3580
▁middels	-3581
▁afdeling	-3582
▁perifeer	-3583
▁hematopoese	-3584
schik	-3585
▁subm	-3586
▁papel	-3587
ecifiek	-3588
esterol	-3589
▁laesies	-3590
icodermie	-3591
▁labnummer	-3592
▁verspreid	-3593
▁extranodale	-3594
63	-3595
ry	-3596
PDL	-3597
▁34	-3598
eked	-3599
loom	-3600
▁cav	-3601
▁ijz	-3602
lymfoom	-3603
▁gebruik	-3604
▁krapste	-3605
▁sigmoAd	-3606
▁kwaliteit	-3607
▁ziekenhuis	-3608
▁fragmentjes	-3609
▁inzendingen	-3610
▁beenmergbiopt	-3611
▁calcificaties	-3612
▁onderliggende	-3613
acu	-3614
▁02	-3615
uiten	-3616
▁Nier	-3617
▁mede	-3618
illair	-3619
▁adequ	-3620
▁grond	-3621
▁blasten	-3622
▁collagen	-3623
▁erythema	-3624
▁macroscop	-3625
▁verlitteken	-3626
▁Histologisch	-3627
▁differentiaald	-3628
▁nietspecifieke	-3629
sn	-3630
▁IgG	-3631
▁neg	-3632
▁milde	-3633
▁hierbij	-3634
▁propria	-3635
requentie	-3636
▁neurofibroom	-3637
95	-3638
AP	-3639
cret	-3640
ereb	-3641
▁IDH	-3642
ranul	-3643
▁hart	-3644
▁subopt	-3645
▁poliepeus	-3646
▁prostaatweefsel	-3647
KL	-3648
HER	-3649
hin	-3650
▁Uit	-3651
▁traum	-3652
▁grader	-3653
▁pleura	-3654
▁karakter	-3655
▁oncogene	-3656
OLECULAIRE	-3657
▁betekenis	-3658
▁clavicula	-3659
▁cholesterol	-3660
▁bijschildklier	-3661
ged	-3662
uct	-3663
ulva	-3664
▁vert	-3665
ibrose	-3666
ortale	-3667
erhalve	-3668
▁geduid	-3669
▁voorlopig	-3670
rh	-3671
eds	-3672
▁Blaas	-3673
ocytair	-3674
tstekings	-3675
▁ischemische	-3676
▁reticulaire	-3677
adenocarcinoom	-3678
▁hypercellulair	-3679
▁hyperplastisch	-3680
EL	-3681
MS	-3682
OT	-3683
1518	-3684
EREN	-3685
aand	-3686
ular	-3687
gener	-3688
▁nefr	-3689
gaande	-3690
▁paras	-3691
▁prostat	-3692
etecteerd	-3693
▁acanthol	-3694
▁musculus	-3695
▁tumorcel	-3696
▁aspiratie	-3697
▁endocervix	-3698
▁overweging	-3699
▁papillomateuze	-3700
PR	-3701
omt	-3702
▁ja	-3703
odon	-3704
▁Kle	-3705
uteri	-3706
oornis	-3707
▁steat	-3708
▁alleen	-3709
▁duoden	-3710
▁hotspot	-3711
▁respons	-3712
▁maagtype	-3713
▁signific	-3714
▁afwijkend	-3715
▁subcutaan	-3716
▁extirpatie	-3717
▁infectieuze	-3718
gr	-3719
Bls	-3720
icol	-3721
▁zon	-3722
▁gaat	-3723
▁toch	-3724
▁Marge	-3725
ekedelen	-3726
▁gerelat	-3727
▁sentinel	-3728
▁uitstrijk	-3729
▁combinatie	-3730
epresentatief	-3731
▁chroniciteit	-3732
AF	-3733
221	-3734
Her	-3735
uno	-3736
nier	-3737
▁meg	-3738
▁Malign	-3739
▁iliaca	-3740
▁vagina	-3741
▁acinair	-3742
▁restant	-3743
▁celgroep	-3744
▁vasculaire	-3745
▁lymfeklieren	-3746
Ar	-3747
CT	-3748
200	-3749
dat	-3750
▁Hem	-3751
▁PIK	-3752
▁emb	-3753
▁wij	-3754
arynx	-3755
▁milj	-3756
▁oste	-3757
▁cavum	-3758
▁decidu	-3759
▁dubieus	-3760
▁sarcoom	-3761
▁subcutane	-3762
▁darmziekte	-3763
▁glandulaire	-3764
▁gezichtspunten	-3765
▁proliferatieve	-3766
65	-3767
Mw	-3768
rie	-3769
ampl	-3770
isol	-3771
▁MLH	-3772
▁man	-3773
Advies	-3774
▁cereb	-3775
▁vraag	-3776
ytische	-3777
▁foetale	-3778
▁tumoren	-3779
▁dunnedarm	-3780
▁cervixbiopt	-3781
▁consultatie	-3782
▁Huidcurettage	-3783
con	-3784
eut	-3785
▁MC	-3786
ieel	-3787
▁pen	-3788
reven	-3789
▁komt	-3790
▁vier	-3791
chting	-3792
▁coupe	-3793
▁dikke	-3794
▁massa	-3795
▁vaten	-3796
▁bulbus	-3797
▁rondom	-3798
ildwacht	-3799
▁kenmerk	-3800
idectomie	-3801
▁sarcoidose	-3802
▁Breslowdikte	-3803
▁laboratorium	-3804
▁geneesmiddelen	-3805
83	-3806
NGS	-3807
aad	-3808
▁37	-3809
RADS	-3810
osum	-3811
verted	-3812
▁geisol	-3813
▁patiAnt	-3814
▁inclusief	-3815
▁Definitief	-3816
▁Mammareductie	-3817
▁verlittekening	-3818
TR	-3819
VU	-3820
aff	-3821
▁200	-3822
▁CDK	-3823
▁oud	-3824
onaal	-3825
▁Diep	-3826
▁pity	-3827
neumon	-3828
tendeels	-3829
▁bacteri	-3830
▁Derhalve	-3831
▁Nodulair	-3832
▁inactief	-3833
▁glomeruli	-3834
▁morfologie	-3835
▁grotendeels	-3836
▁suboptimaal	-3837
inflammatoire	-3838
▁mogelijkheid	-3839
▁diagnostische	-3840
180	-3841
▁pot	-3842
PCLPCL	-3843
append	-3844
gelijk	-3845
▁paran	-3846
ermamma	-3847
▁Sigmoid	-3848
▁solaris	-3849
▁autoimmuun	-3850
▁TURprostaat	-3851
▁Excisiebiopt	-3852
▁infiltratief	-3853
▁GNA	-3854
▁ins	-3855
▁Lymf	-3856
▁wand	-3857
▁Adnex	-3858
▁chrom	-3859
▁geeft	-3860
▁partiele	-3861
▁patiente	-3862
▁uitsluiting	-3863
▁toxicodermie	-3864
GT	-3865
SL	-3866
ekt	-3867
enen	-3868
lion	-3869
ynch	-3870
▁Echter	-3871
▁buiten	-3872
▁aanduid	-3873
▁abdomen	-3874
▁overeen	-3875
▁herhalen	-3876
▁megakary	-3877
▁relatief	-3878
▁spontaan	-3879
▁parietaal	-3880
▁fragmentje	-3881
▁gedetecteerd	-3882
cm	-3883
eiw	-3884
▁as	-3885
▁cs	-3886
icro	-3887
atypie	-3888
culair	-3889
▁gedila	-3890
▁mycose	-3891
▁wegens	-3892
▁inverted	-3893
▁Vriescoupe	-3894
▁leiomyomen	-3895
▁mesothelioom	-3896
▁Representatief	-3897
73	-3898
alt	-3899
say	-3900
▁ir	-3901
▁Pro	-3902
▁irr	-3903
icatie	-3904
ocrien	-3905
▁fusie	-3906
prostat	-3907
▁hersen	-3908
▁paraff	-3909
▁solaire	-3910
▁elastose	-3911
▁beschouwd	-3912
Moleculaire	-3913
▁paranasaal	-3914
▁rechterwang	-3915
▁proliferatief	-3916
AD	-3917
ID	-3918
▁x	-3919
230	-3920
oeil	-3921
gging	-3922
iraat	-3923
▁stern	-3924
▁tromb	-3925
leiding	-3926
oeilijk	-3927
▁anders	-3928
▁typisch	-3929
▁aanduiding	-3930
4[	-3931
89	-3932
ps	-3933
Een	-3934
iva	-3935
vat	-3936
stiv	-3937
▁Twe	-3938
olair	-3939
▁tril	-3940
iopath	-3941
igestiv	-3942
icientie	-3943
▁omentum	-3944
▁puntjes	-3945
▁recente	-3946
▁verwijz	-3947
oordeling	-3948
▁ingezonden	-3949
▁linkerwang	-3950
▁Schildklier	-3951
▁curettement	-3952
▁epidermiscyste	-3953
cer	-3954
els	-3955
rek	-3956
▁09	-3957
sist	-3958
lassie	-3959
secten	-3960
▁Trans	-3961
▁exacte	-3962
igineuze	-3963
▁dermatose	-3964
tstekingsbeeld	-3965
▁mutatieanalyse	-3966
]3	-3967
Met	-3968
▁AP	-3969
▁ep	-3970
▁Ter	-3971
TUMOR	-3972
crete	-3973
emaal	-3974
▁Vulva	-3975
▁basal	-3976
▁gisten	-3977
▁ureter	-3978
▁capillair	-3979
▁aanleiding	-3980
▁periappend	-3981
]1	-3982
KLI	-3983
son	-3984
risk	-3985
▁fun	-3986
▁Lynch	-3987
▁dorsale	-3988
onaliteit	-3989
otherapie	-3990
▁digestiv	-3991
▁snijrand	-3992
▁doorgroei	-3993
▁opsnijden	-3994
▁spongiose	-3995
▁afwijkende	-3996
IA	-3997
pv	-3998
160	-3999
TER	-4000
icul	-4001
ioom	-4002
kaak	-4003
▁Inf	-4004
▁MSH	-4005
▁pur	-4006
oides	-4007
orect	-4008
▁LYMF	-4009
▁Tuba	-4010
lexura	-4011
tensie	-4012
tratie	-4013
▁inzage	-4014
uteriene	-4015
▁LYMFKLI	-4016
▁miljoen	-4017
▁Vooralsnog	-4018
▁gesclerose	-4019
▁huidbiopten	-4020
opathologische	-4021
KSF	-4022
▁os	-4023
▁sn	-4024
atus	-4025
eert	-4026
oort	-4027
stru	-4028
▁Tcel	-4029
▁neut	-4030
▁brush	-4031
▁strom	-4032
ocytoom	-4033
odulaire	-4034
▁chondro	-4035
▁erythemat	-4036
▁negatieve	-4037
▁betrouwbaar	-4038
▁longcarcinoom	-4039
▁rechterschouder	-4040
FI	-4041
OEI	-4042
ASIE	-4043
ROEI	-4044
anks	-4045
arct	-4046
adium	-4047
regel	-4048
riasis	-4049
▁embry	-4050
zegging	-4051
▁insecten	-4052
▁digestivus	-4053
▁dankzegging	-4054
▁verandering	-4055
▁bovenstaande	-4056
170	-4057
190	-4058
dom	-4059
▁36	-4060
Over	-4061
▁bew	-4062
▁prep	-4063
▁tons	-4064
▁zich	-4065
itaire	-4066
▁Celrijke	-4067
▁volgende	-4068
▁gemarkeerde	-4069
▁lentigineuze	-4070
ger	-4071
ida	-4072
mee	-4073
yre	-4074
▁NS	-4075
lete	-4076
▁ind	-4077
gesch	-4078
▁horm	-4079
▁nabij	-4080
▁Accred	-4081
▁ductus	-4082
▁helder	-4083
▁intrad	-4084
▁Weefsel	-4085
▁zijwand	-4086
▁apocriene	-4087
▁verdachte	-4088
iagnostisch	-4089
▁percentage	-4090
▁sequencing	-4091
▁temporalis	-4092
▁wisselende	-4093
prostatische	-4094
▁geassocieerde	-4095
▁histiocytaire	-4096
MB	-4097
▁27	-4098
▁Ar	-4099
VASIE	-4100
▁fase	-4101
▁staat	-4102
snijvlak	-4103
veolaire	-4104
iescoupes	-4105
lastische	-4106
▁discrete	-4107
▁melanoma	-4108
▁plasmacel	-4109
▁Moleculair	-4110
▁Q	-4111
ALE	-4112
ARD	-4113
▁3[	-4114
iese	-4115
olab	-4116
▁MYC	-4117
▁mis	-4118
▁reeds	-4119
ipitaal	-4120
▁daarin	-4121
▁fundic	-4122
▁ziekte	-4123
▁daarbij	-4124
▁beginnend	-4125
▁procedure	-4126
▁variaties	-4127
▁deposities	-4128
▁geassocieerd	-4129
ina	-4130
tur	-4131
▁38	-4132
▁vl	-4133
istr	-4134
zijn	-4135
▁ala	-4136
▁tpv	-4137
osaal	-4138
zeker	-4139
▁zwak	-4140
HMHHMH	-4141
streng	-4142
kernige	-4143
ministr	-4144
neumonie	-4145
▁chromos	-4146
▁buikwand	-4147
▁resultaat	-4148
▁beschreven	-4149
▁achterzijde	-4150
▁verwijderde	-4151
fluorescentie	-4152
76	-4153
tij	-4154
2015	-4155
ewel	-4156
fact	-4157
mede	-4158
raal	-4159
astom	-4160
etsel	-4161
▁card	-4162
lopige	-4163
▁aorta	-4164
▁codon	-4165
▁effect	-4166
▁nasolab	-4167
▁onregel	-4168
▁voorlip	-4169
igexcisie	-4170
▁Voorkeur	-4171
▁junction	-4172
▁pityriasis	-4173
kh	-4174
amn	-4175
get	-4176
▁28	-4177
ethy	-4178
▁iet	-4179
▁myx	-4180
▁pal	-4181
graad	-4182
oiese	-4183
▁lang	-4184
▁sept	-4185
jectie	-4186
iseerde	-4187
▁Geheel	-4188
▁ooglid	-4189
▁flexura	-4190
sdiagnose	-4191
▁ganglion	-4192
▁hiervoor	-4193
▁submandib	-4194
ransplantatie	-4195
▁linkerschouder	-4196
TY	-4197
AST	-4198
eten	-4199
pect	-4200
▁Pap	-4201
epith	-4202
latio	-4203
uiste	-4204
▁nive	-4205
andida	-4206
▁bulle	-4207
▁geind	-4208
▁alsmede	-4209
▁gevolge	-4210
▁bovenbuik	-4211
▁daarnaast	-4212
▁therapeut	-4213
▁binnenzijde	-4214
▁Oppervlakkige	-4215
▁reuscelreactie	-4216
MD	-4217
sm	-4218
lev	-4219
enuw	-4220
reik	-4221
▁Hoe	-4222
▁ald	-4223
▁rep	-4224
aling	-4225
grens	-4226
histi	-4227
▁FGFR	-4228
▁iets	-4229
▁zien	-4230
chniek	-4231
gemeen	-4232
▁inges	-4233
omateus	-4234
▁amyloid	-4235
ocervicale	-4236
▁behoudens	-4237
▁frequentie	-4238
ifferentiatie	-4239
▁gedilateerde	-4240
▁perivasculair	-4241
ole	-4242
igin	-4243
▁IHC	-4244
▁den	-4245
▁occ	-4246
elfde	-4247
ortus	-4248
▁kapp	-4249
▁vill	-4250
ernaal	-4251
ledige	-4252
▁blijk	-4253
▁dikte	-4254
▁klassie	-4255
▁algemeen	-4256
▁celrijke	-4257
▁vetnecrose	-4258
JSL	-4259
▁Am	-4260
elev	-4261
▁chem	-4262
▁fist	-4263
▁marg	-4264
▁vlak	-4265
▁delet	-4266
▁geink	-4267
▁Subcut	-4268
▁herken	-4269
▁juiste	-4270
turatori	-4271
▁cysteus	-4272
▁Botbiopt	-4273
icolectomie	-4274
▁muscularis	-4275
asc	-4276
asp	-4277
ozo	-4278
mmer	-4279
▁PIN	-4280
antal	-4281
▁kraak	-4282
▁zenuw	-4283
▁immunof	-4284
▁sternum	-4285
schikking	-4286
▁adequate	-4287
epidermale	-4288
heidshalve	-4289
▁secundaire	-4290
rok	-4291
chts	-4292
▁TVU	-4293
ecaal	-4294
inter	-4295
▁kalk	-4296
sneden	-4297
wezige	-4298
rofagen	-4299
▁congen	-4300
▁vertex	-4301
Snijvlak	-4302
astomose	-4303
ienummer	-4304
▁patroon	-4305
▁leukemie	-4306
▁rejectie	-4307
structuren	-4308
▁Bowenoide	-4309
▁intraduct	-4310
▁neutrofie	-4311
▁oestrogeen	-4312
▁aangevraagd	-4313
▁flegmoneuze	-4314
▁nasolabiaal	-4315
▁vreemdlichaams	-4316
3[	-4317
96	-4318
EU	-4319
LOY	-4320
ert	-4321
▁pil	-4322
▁blue	-4323
▁geex	-4324
▁moet	-4325
Immuun	-4326
aardig	-4327
rument	-4328
▁omgev	-4329
▁penis	-4330
▁langer	-4331
▁Medisch	-4332
microscop	-4333
▁actinisch	-4334
▁volledige	-4335
▁adenomyosis	-4336
▁onderliggend	-4337
▁preexistente	-4338
▁mammareductie	-4339
77	-4340
▁inp	-4341
allen	-4342
besch	-4343
itose	-4344
▁radi	-4345
ionale	-4346
tefact	-4347
▁HRHPV	-4348
▁gastro	-4349
omponent	-4350
▁Benigne	-4351
▁geinkte	-4352
▁myocard	-4353
▁achterlip	-4354
▁atrofisch	-4355
▁hoofdhuid	-4356
▁schimmeld	-4357
▁metastatisch	-4358
▁tumorweefsel	-4359
▁therapeutisch	-4360
▁Slokdarmbiopten	-4361
OOR	-4362
ijp	-4363
ise	-4364
▁mn	-4365
aren	-4366
line	-4367
umin	-4368
▁poly	-4369
tijdig	-4370
▁perit	-4371
gressie	-4372
▁hemorr	-4373
ficientie	-4374
oornissen	-4375
▁cytologie	-4376
▁lobulaire	-4377
▁geisoleerd	-4378
▁histologie	-4379
▁occipitaal	-4380
IP	-4381
TC	-4382
Skh	-4383
ebe	-4384
emf	-4385
oir	-4386
maal	-4387
▁AAN	-4388
▁Dik	-4389
▁cru	-4390
▁eiw	-4391
▁pTa	-4392
INGEN	-4393
ament	-4394
▁merg	-4395
▁syst	-4396
Tevens	-4397
asbaar	-4398
klasse	-4399
▁Graag	-4400
▁kappa	-4401
cideerd	-4402
▁cardia	-4403
▁mammap	-4404
diameter	-4405
gestuurd	-4406
afwijking	-4407
opathische	-4408
▁geanalyse	-4409
▁kraakbeen	-4410
▁bevestiging	-4411
▁meerkernige	-4412
▁Mammabiopten	-4413
Re	-4414
kt	-4415
▁X	-4416
MMA	-4417
Pro	-4418
bel	-4419
vid	-4420
ving	-4421
▁KIT	-4422
▁maj	-4423
amman	-4424
ogeen	-4425
▁Norm	-4426
▁Wart	-4427
▁foci	-4428
anneer	-4429
▁bevat	-4430
▁epith	-4431
▁Huidex	-4432
▁letsel	-4433
▁tweede	-4434
linische	-4435
ronische	-4436
▁Maligne	-4437
▁idiopath	-4438
▁stromale	-4439
▁inpasbaar	-4440
▁mogelijke	-4441
▁spermatozo	-4442
▁gelijktijdig	-4443
55	-4444
kd	-4445
119	-4446
121	-4447
GRE	-4448
bev	-4449
ers	-4450
▁26	-4451
▁Af	-4452
▁ro	-4453
icis	-4454
ribr	-4455
ieten	-4456
olsel	-4457
spron	-4458
eftijd	-4459
rische	-4460
▁gemen	-4461
▁lamin	-4462
▁huidad	-4463
▁infarc	-4464
▁urticaria	-4465
▁afwezigheid	-4466
▁trilineaire	-4467
▁groeipatroon	-4468
typeslijmvlies	-4469
PS	-4470
hy	-4471
EHE	-4472
▁BE	-4473
enst	-4474
ibel	-4475
roch	-4476
▁EUS	-4477
▁Pre	-4478
▁glad	-4479
ardson	-4480
▁ijzer	-4481
▁circum	-4482
liggende	-4483
snijrand	-4484
▁gegeven	-4485
▁placent	-4486
ichardson	-4487
populatie	-4488
▁waardoor	-4489
▁anastomose	-4490
▁atrofische	-4491
▁karakterist	-4492
ox	-4493
afd	-4494
▁JB	-4495
name	-4496
uurs	-4497
▁VIN	-4498
ibros	-4499
trole	-4500
▁mate	-4501
▁noem	-4502
▁bowen	-4503
▁breuk	-4504
▁marges	-4505
▁submuc	-4506
▁hematop	-4507
▁wanneer	-4508
▁satelliet	-4509
▁obturatori	-4510
▁congenitale	-4511
▁vriescoupes	-4512
130	-4513
Dit	-4514
ikt	-4515
▁BI	-4516
DERE	-4517
EGFR	-4518
FICA	-4519
orad	-4520
ting	-4521
ucle	-4522
zins	-4523
▁JBZ	-4524
▁Wel	-4525
▁fam	-4526
haafd	-4527
igens	-4528
▁jaar	-4529
entrik	-4530
ositis	-4531
uspect	-4532
▁Infil	-4533
FICATIE	-4534
rijging	-4535
▁bekled	-4536
▁verkla	-4537
▁volume	-4538
▁bestaat	-4539
▁bijnier	-4540
▁axillair	-4541
▁moeilijk	-4542
▁obductie	-4543
▁aanwezige	-4544
▁etiologie	-4545
▁uitrijping	-4546
▁heldercellig	-4547
▁vraagstelling	-4548
84	-4549
VII	-4550
hra	-4551
tot	-4552
ulp	-4553
acea	-4554
kend	-4555
▁sem	-4556
▁hoge	-4557
zijnde	-4558
▁Brush	-4559
▁vrouw	-4560
▁detect	-4561
▁fistel	-4562
viditeit	-4563
waardige	-4564
▁Warthin	-4565
▁genomen	-4566
▁noemens	-4567
uitstrijk	-4568
▁gevoelig	-4569
▁leeftijd	-4570
▁oorspron	-4571
▁paraffine	-4572
▁varianten	-4573
▁necrotisch	-4574
▁aantoonbare	-4575
▁goedaardige	-4576
▁neutrofiele	-4577
▁zijsnijrand	-4578
▁beschadiging	-4579
▁microscopisch	-4580
▁gefragmenteerde	-4581
8[	-4582
AT	-4583
nu	-4584
chan	-4585
▁erf	-4586
itair	-4587
▁herk	-4588
atibel	-4589
lonale	-4590
ocyste	-4591
olipoom	-4592
▁aldaar	-4593
▁huidst	-4594
▁complex	-4595
▁suspect	-4596
lammatoir	-4597
▁populatie	-4598
aaldbiopsie	-4599
▁achterwand	-4600
▁darmbiopten	-4601
▁pigmentosus	-4602
oes	-4603
tje	-4604
2016	-4605
ject	-4606
▁tar	-4607
▁cerv	-4608
onitis	-4609
▁stase	-4610
dermaal	-4611
▁gehand	-4612
▁haemat	-4613
gevoelig	-4614
oordeeld	-4615
▁archief	-4616
▁externa	-4617
metastase	-4618
atellitose	-4619
▁Stansbiopt	-4620
▁LYMFKLIEREN	-4621
▁noemenswaardige	-4622
IG	-4623
iem	-4624
2014	-4625
etal	-4626
laag	-4627
▁121	-4628
abiel	-4629
▁lage	-4630
asieen	-4631
corpus	-4632
volume	-4633
▁Inter	-4634
▁blaar	-4635
▁potje	-4636
gebruik	-4637
vormige	-4638
▁Coupes	-4639
▁blijkt	-4640
▁onduid	-4641
▁promot	-4642
DEFINITIE	-4643
bijzijnde	-4644
▁hotspots	-4645
▁administr	-4646
▁lichenoAde	-4647
▁macrofagen	-4648
▁overlijden	-4649
▁gehandhaafd	-4650
▁graviditeit	-4651
▁preexistent	-4652
▁cholesterolose	-4653
66	-4654
hoog	-4655
▁APC	-4656
▁vro	-4657
▁CDKN	-4658
▁flow	-4659
▁verv	-4660
gebied	-4661
zelfde	-4662
▁Matig	-4663
▁Vagin	-4664
iliteit	-4665
▁carcin	-4666
andibula	-4667
emateuze	-4668
▁behoort	-4669
beschadig	-4670
dysplasie	-4671
testinale	-4672
▁cutaneum	-4673
▁grootste	-4674
▁hepatica	-4675
▁aspecifiek	-4676
▁compatibel	-4677
▁DEFINITIEVE	-4678
▁kenmerkende	-4679
▁Cervixbiopten	-4680
97	-4681
CM	-4682
MP	-4683
JCC	-4684
▁32	-4685
▁Ev	-4686
▁PD	-4687
▁fem	-4688
GREEP	-4689
immel	-4690
leden	-4691
▁Part	-4692
▁comm	-4693
▁crust	-4694
▁goede	-4695
ampling	-4696
▁Levern	-4697
▁gedaan	-4698
▁lamina	-4699
▁marker	-4700
▁myelod	-4701
entrikel	-4702
uscellen	-4703
▁INGREEP	-4704
▁geschat	-4705
Klinische	-4706
▁protocol	-4707
▁Transuret	-4708
▁parasieten	-4709
▁navelstreng	-4710
▁ulceratieve	-4711
ildwachtklier	-4712
▁schimmeldraden	-4713
▁intestinaaltype	-4714
DE	-4715
osp	-4716
▁nu	-4717
VIND	-4718
arge	-4719
kele	-4720
leed	-4721
▁TKI	-4722
▁som	-4723
▁ves	-4724
▁AJCC	-4725
ectrum	-4726
oeling	-4727
onisch	-4728
▁Bloom	-4729
▁cribr	-4730
menging	-4731
▁BEVIND	-4732
▁Rectum	-4733
▁haargrens	-4734
▁irritatie	-4735
▁oorspronk	-4736
▁BEVINDINGEN	-4737
▁cytologische	-4738
▁inclusiecyste	-4739
▁neuroendocrien	-4740
AK	-4741
Lev	-4742
uut	-4743
▁LE	-4744
▁hv	-4745
▁CIS	-4746
▁Min	-4747
▁dec	-4748
▁dus	-4749
edoch	-4750
iaire	-4751
▁tang	-4752
▁vers	-4753
ichten	-4754
▁prola	-4755
edochus	-4756
efritis	-4757
rosacea	-4758
▁BIRADS	-4759
▁Mammap	-4760
▁minste	-4761
▁vitale	-4762
▁vooral	-4763
▁hersenen	-4764
▁spectrum	-4765
▁steatose	-4766
▁ventrale	-4767
ocervicaal	-4768
▁bacterien	-4769
▁chronicus	-4770
▁vergelijk	-4771
▁Richardson	-4772
▁bepalingen	-4773
▁opgestuurd	-4774
▁significante	-4775
uf	-4776
hyl	-4777
emde	-4778
hals	-4779
opec	-4780
ermie	-4781
risch	-4782
▁Derm	-4783
▁Inst	-4784
erieur	-4785
inding	-4786
murale	-4787
▁Hyper	-4788
▁Zlijn	-4789
▁allel	-4790
▁cornu	-4791
cytomet	-4792
reuscel	-4793
▁gevolg	-4794
▁promin	-4795
▁dichtst	-4796
Kwaliteit	-4797
omatische	-4798
wijzingen	-4799
▁acanthose	-4800
▁inzichten	-4801
▁geanalyseerd	-4802
epitheelcellen	-4803
▁corpusbiopten	-4804
PA	-4805
ial	-4806
▁39	-4807
kalk	-4808
▁NOS	-4809
▁mbv	-4810
▁tij	-4811
15189	-4812
order	-4813
▁glob	-4814
▁subc	-4815
anwege	-4816
etigin	-4817
zijdig	-4818
▁Panel	-4819
▁alopec	-4820
▁mechan	-4821
▁rosacea	-4822
▁zijrand	-4823
onefritis	-4824
▁follikel	-4825
▁bevestigt	-4826
▁mandibula	-4827
▁marginale	-4828
▁secundair	-4829
▁pigmentatie	-4830
▁Rectumbiopten	-4831
▁beoordeelbare	-4832
▁atherosclerose	-4833
▁micronodulaire	-4834
44	-4835
OH	-4836
140	-4837
▁95	-4838
▁ek	-4839
iect	-4840
▁zeg	-4841
ancer	-4842
ellen	-4843
orbus	-4844
ronen	-4845
▁flar	-4846
▁kern	-4847
▁vacu	-4848
▁omdat	-4849
▁reden	-4850
epaling	-4851
▁acumin	-4852
▁Tumoren	-4853
▁arteria	-4854
▁blokjes	-4855
▁ductale	-4856
▁helicis	-4857
▁neuroom	-4858
stechniek	-4859
ulariteit	-4860
▁lichaams	-4861
▁referent	-4862
▁lymfoplas	-4863
▁mesenchym	-4864
▁Generation	-4865
rijgingstechniek	-4866
▁Huidexcochleaat	-4867
9[	-4868
TRK	-4869
ess	-4870
ijf	-4871
zak	-4872
▁ko	-4873
ASSI	-4874
Blok	-4875
cher	-4876
rist	-4877
wijs	-4878
▁tov	-4879
ASTAS	-4880
igoid	-4881
orden	-4882
▁Ampl	-4883
▁Cave	-4884
ANDERE	-4885
icient	-4886
ulente	-4887
▁vanaf	-4888
ionitis	-4889
▁behulp	-4890
▁denken	-4891
atselijk	-4892
radicaal	-4893
▁Diepere	-4894
▁Hierbij	-4895
▁abortus	-4896
▁scleros	-4897
▁urethra	-4898
ingenomen	-4899
▁perianaal	-4900
ASSIFICATIE	-4901
▁Leverbiopt	-4902
▁middenkwab	-4903
▁verwijzing	-4904
▁bovenooglid	-4905
▁choledochus	-4906
▁krabeffecten	-4907
▁zonbeschadig	-4908
▁Resectieranden	-4909
▁administratief	-4910
6[	-4911
EC	-4912
PON	-4913
SIL	-4914
▁kw	-4915
LOPI	-4916
cele	-4917
ilic	-4918
oamn	-4919
▁EBV	-4920
▁FNA	-4921
▁TPS	-4922
ongen	-4923
yster	-4924
▁Borg	-4925
▁VOOR	-4926
▁pars	-4927
▁prof	-4928
▁Verru	-4929
▁Corpus	-4930
▁ovaria	-4931
▁target	-4932
arenchym	-4933
▁bekleed	-4934
▁myeloom	-4935
Lymfklier	-4936
rumentaal	-4937
▁cylinder	-4938
▁hemorrag	-4939
▁ingenomen	-4940
▁reuscellen	-4941
▁ontstekingsc	-4942
▁Instrumentaal	-4943
87	-4944
OL	-4945
eit	-4946
iat	-4947
isc	-4948
▁BV	-4949
edel	-4950
oire	-4951
rikk	-4952
ulum	-4953
▁BCC	-4954
▁VII	-4955
▁opt	-4956
erens	-4957
ieken	-4958
▁pGly	-4959
▁abces	-4960
▁arter	-4961
▁galwe	-4962
angiect	-4963
efonisch	-4964
▁ablatio	-4965
▁kleiner	-4966
▁portale	-4967
▁vlokken	-4968
▁Voorlopig	-4969
oamnionitis	-4970
▁doorsneden	-4971
▁behandelend	-4972
ifferentieerd	-4973
reuscelreactie	-4974
Mat	-4975
▁EM	-4976
▁TB	-4977
TYPE	-4978
Verk	-4979
aste	-4980
▁MDS	-4981
▁geA	-4982
itten	-4983
▁kans	-4984
ariant	-4985
ortaal	-4986
eratoom	-4987
leuring	-4988
merking	-4989
▁Enkele	-4990
▁tonsil	-4991
▁verbre	-4992
▁ductect	-4993
▁gewenst	-4994
▁vorming	-4995
▁deferens	-4996
▁Nierbiopt	-4997
▁gradering	-4998
▁pneumonie	-4999
AANVULLENDE	-5000
▁verstoring	-5001
▁erytrocyten	-5002
▁geindiceerd	-5003
▁cervixpoliep	-5004
▁fragmentatie	-5005
▁placentarest	-5006
klierdissectie	-5007
56	-5008
TH	-5009
▁29	-5010
▁My	-5011
ATIE	-5012
beet	-5013
tere	-5014
▁Gro	-5015
▁LBK	-5016
▁hid	-5017
adier	-5018
apsel	-5019
ation	-5020
brush	-5021
eduur	-5022
▁amen	-5023
oename	-5024
▁impon	-5025
emische	-5026
iedenis	-5027
▁vitaal	-5028
blastoom	-5029
▁fibrine	-5030
▁gemaakt	-5031
lymfklier	-5032
ochemisch	-5033
▁VOORLOPI	-5034
▁spoeling	-5035
▁condyloma	-5036
Snijvlakken	-5037
▁Infiltratie	-5038
CLASSIFICATIE	-5039
▁endometrioid	-5040
▁gescleroseerd	-5041
▁coloncarcinoom	-5042
gv	-5043
ood	-5044
▁31	-5045
▁IS	-5046
▁pV	-5047
ater	-5048
raan	-5049
rosp	-5050
▁CNV	-5051
▁RBK	-5052
▁ROK	-5053
eleid	-5054
esult	-5055
flank	-5056
oemde	-5057
plooi	-5058
ragen	-5059
▁gede	-5060
embran	-5061
▁grade	-5062
komende	-5063
▁Eventu	-5064
▁crusta	-5065
▁lambda	-5066
▁adenose	-5067
▁deletie	-5068
▁interne	-5069
▁Partiele	-5070
▁sampling	-5071
▁depositie	-5072
▁geneticus	-5073
▁hepatitis	-5074
▁nierbiopt	-5075
▁submucosa	-5076
▁nefropathie	-5077
ekerheidshalve	-5078
▁bloedingsrest	-5079
▁diverticulitis	-5080
GRA	-5081
rap	-5082
stb	-5083
ule	-5084
iseq	-5085
▁CTI	-5086
abces	-5087
match	-5088
selen	-5089
▁Next	-5090
▁Past	-5091
▁Zeer	-5092
▁buis	-5093
INVASIE	-5094
embraan	-5095
omatose	-5096
uitslag	-5097
▁Mutatie	-5098
▁ernstig	-5099
▁infarct	-5100
▁onzeker	-5101
▁tijdens	-5102
aliseerde	-5103
▁Ampliseq	-5104
▁Schimmel	-5105
▁colorect	-5106
▁gebieden	-5107
neevlakken	-5108
onaliteits	-5109
umpectomie	-5110
▁diagnosen	-5111
MOLECULAIRE	-5112
schijnselen	-5113
▁Vulvabiopt	-5114
▁leverbiopt	-5115
geschiedenis	-5116
▁cystadenoom	-5117
▁onduidelijk	-5118
▁doorgesneden	-5119
150	-5120
maag	-5121
▁sta	-5122
ocele	-5123
otype	-5124
utium	-5125
▁cave	-5126
▁high	-5127
▁ware	-5128
▁microg	-5129
▁repair	-5130
▁Borgstb	-5131
▁gemengd	-5132
▁schedel	-5133
▁therapieke	-5134
▁Plaatselijk	-5135
▁geexcideerd	-5136
▁radiculaire	-5137
▁regressieve	-5138
▁pathologisch	-5139
▁maagcorpustype	-5140
▁zonbeschadigde	-5141
38	-5142
lc	-5143
FPE	-5144
mus	-5145
ORTC	-5146
trum	-5147
▁AIN	-5148
▁eku	-5149
▁lig	-5150
▁mal	-5151
gment	-5152
istof	-5153
▁AARD	-5154
▁FFPE	-5155
impele	-5156
▁EORTC	-5157
▁Onder	-5158
Overige	-5159
▁lokaal	-5160
▁mening	-5161
▁myelop	-5162
▁Dermale	-5163
▁bulleus	-5164
reexcisie	-5165
rofoblast	-5166
▁aangelev	-5167
▁complete	-5168
▁mismatch	-5169
DEFINITIEVE	-5170
▁hypertrofe	-5171
▁opgesneden	-5172
▁peritonitis	-5173
roliferatieve	-5174
▁obturatorius	-5175
▁acantholytische	-5176
LAG	-5177
LAK	-5178
uli	-5179
yna	-5180
VLAK	-5181
vlok	-5182
esion	-5183
onair	-5184
▁Alle	-5185
laring	-5186
oorzaak	-5187
segment	-5188
station	-5189
▁bekken	-5190
▁fibrin	-5191
▁interf	-5192
Bethesda	-5193
ospermie	-5194
▁Qnummer	-5195
▁prolaps	-5196
Materiaal	-5197
expressie	-5198
orroeduur	-5199
▁lymfomen	-5200
▁tongrand	-5201
▁Oestrogeen	-5202
▁embryonale	-5203
▁achterhoofd	-5204
▁colonpoliep	-5205
▁Radicaliteit	-5206
waarschijnlijk	-5207
▁hoornmateriaal	-5208
61	-5209
pT	-5210
AID	-5211
▁ag	-5212
▁oa	-5213
Path	-5214
▁Gra	-5215
▁Tot	-5216
▁UIT	-5217
▁thv	-5218
icard	-5219
ynaec	-5220
▁coll	-5221
▁fors	-5222
ereren	-5223
▁Dikke	-5224
▁acuut	-5225
▁galst	-5226
aximale	-5227
▁Klasse	-5228
bepaling	-5229
▁ascites	-5230
▁mitosen	-5231
apillaire	-5232
▁sclerose	-5233
oscopische	-5234
▁gedegener	-5235
▁overleden	-5236
▁wekedelen	-5237
intestinale	-5238
▁celgroepen	-5239
▁chromosoom	-5240
▁verklaring	-5241
▁gerelateerde	-5242
▁insectenbeet	-5243
▁mastopathische	-5244
0[	-5245
Af	-5246
jr	-5247
lp	-5248
WIJ	-5249
aps	-5250
▁Ab	-5251
SLAG	-5252
bris	-5253
jwng	-5254
▁bel	-5255
▁kop	-5256
▁nag	-5257
▁ost	-5258
etref	-5259
▁PTEN	-5260
▁vijf	-5261
▁zuur	-5262
achter	-5263
ernale	-5264
▁graag	-5265
▁ruime	-5266
▁blauwe	-5267
▁polype	-5268
reparaat	-5269
structie	-5270
▁Overige	-5271
▁bijvoor	-5272
efragment	-5273
wezigheid	-5274
▁perifere	-5275
naaldbiopt	-5276
▁verminder	-5277
afwijkingen	-5278
ositiviteit	-5279
ysplastisch	-5280
▁colonmucosa	-5281
▁infarcering	-5282
▁keratocyste	-5283
▁inflammatoir	-5284
▁overgevoelig	-5285
resectievlakken	-5286
▁urotheelcellen	-5287
▁littekenvorming	-5288
98	-5289
NNB	-5290
ace	-5291
ual	-5292
▁55	-5293
blok	-5294
even	-5295
verd	-5296
▁MDO	-5297
▁VAF	-5298
▁ecz	-5299
▁pul	-5300
ombin	-5301
▁haem	-5302
▁NSAID	-5303
▁huids	-5304
▁immat	-5305
▁langs	-5306
▁Mamman	-5307
rectomie	-5308
▁adenomen	-5309
▁maximaal	-5310
▁basaalcel	-5311
▁tubulaire	-5312
▁voorzijde	-5313
eeldysplasie	-5314
▁cribriforme	-5315
54	-5316
93	-5317
yro	-5318
▁av	-5319
▁fo	-5320
ient	-5321
▁Bla	-5322
▁LOK	-5323
▁PPI	-5324
▁ons	-5325
▁spi	-5326
verte	-5327
▁Morf	-5328
▁desm	-5329
▁plek	-5330
ending	-5331
uratie	-5332
▁Shave	-5333
▁aando	-5334
ASTASEN	-5335
mutatie	-5336
rekking	-5337
▁cylind	-5338
▁genher	-5339
▁ostium	-5340
gebreide	-5341
sternaal	-5342
▁laatste	-5343
▁relatie	-5344
▁simpele	-5345
orderline	-5346
▁botbiopt	-5347
▁passende	-5348
▁herhaling	-5349
▁Tubectomie	-5350
▁waargenomen	-5351
▁excisiebiopt	-5352
▁spoelcellige	-5353
verschijnselen	-5354
▁amenorroeduur	-5355
▁huidafwijking	-5356
▁idiopathische	-5357
▁transplantatie	-5358
▁Slijmvliesbiopt	-5359
IO	-5360
▁SN	-5361
emph	-5362
▁NIE	-5363
▁ess	-5364
▁lar	-5365
latie	-5366
ritis	-5367
▁skin	-5368
▁maakt	-5369
▁Morbus	-5370
▁bronch	-5371
▁cysten	-5372
▁vanuit	-5373
▁angioom	-5374
▁stadium	-5375
▁myeloide	-5376
▁cystewand	-5377
▁micrograf	-5378
▁microkalk	-5379
▁opvallend	-5380
▁purulente	-5381
stoornissen	-5382
▁Mammabiopt	-5383
▁herkenbaar	-5384
▁intraanaal	-5385
klierweefsel	-5386
▁flowcytomet	-5387
▁vaatinvasie	-5388
▁Helicobacters	-5389
TE	-5390
aj	-5391
itz	-5392
assp	-5393
iden	-5394
iops	-5395
stit	-5396
▁EIN	-5397
▁MAR	-5398
▁TNM	-5399
▁and	-5400
▁fus	-5401
ition	-5402
▁reek	-5403
ariele	-5404
gezien	-5405
vreemd	-5406
▁clone	-5407
liggend	-5408
▁mesent	-5409
asiforme	-5410
ektronen	-5411
tefacten	-5412
▁evident	-5413
▁palatum	-5414
▁subtype	-5415
▁tweetal	-5416
▁diepreik	-5417
▁bowenoide	-5418
▁erfelijke	-5419
▁polyposis	-5420
▁uitrijpend	-5421
aanwijzingen	-5422
▁lymfocytair	-5423
TNMCLASSIFICATIE	-5424
▁Huidcurettement	-5425
▁linkeronderbeen	-5426
74	-5427
IM	-5428
LL	-5429
di	-5430
rw	-5431
yg	-5432
100	-5433
▁Ep	-5434
▁cq	-5435
▁kl	-5436
oret	-5437
▁MAP	-5438
vaten	-5439
▁Aden	-5440
▁Zijn	-5441
▁arts	-5442
elring	-5443
ointer	-5444
rombus	-5445
▁assay	-5446
▁lesie	-5447
▁regel	-5448
▁vrije	-5449
▁Antrum	-5450
▁bewijs	-5451
▁cutaan	-5452
▁dorsum	-5453
▁retrop	-5454
aspiraat	-5455
▁plaatsen	-5456
▁parenchym	-5457
▁zegelring	-5458
opathologie	-5459
▁trofoblast	-5460
▁bijvoorbeeld	-5461
▁cellulariteit	-5462
AB	-5463
cav	-5464
hel	-5465
ook	-5466
ric	-5467
▁Th	-5468
HEID	-5469
lymf	-5470
next	-5471
wann	-5472
▁Des	-5473
▁PMS	-5474
▁hal	-5475
▁hyd	-5476
▁mot	-5477
▁tek	-5478
ervel	-5479
ptuur	-5480
ratie	-5481
▁Goed	-5482
▁pust	-5483
▁tele	-5484
granul	-5485
inalis	-5486
inhoud	-5487
iteerd	-5488
ytisch	-5489
▁parat	-5490
ormatie	-5491
▁fundus	-5492
▁minusc	-5493
nextumor	-5494
▁Hotspot	-5495
▁caudale	-5496
▁familie	-5497
▁veneuze	-5498
cytologie	-5499
plaveisel	-5500
▁eiwitten	-5501
▁fibreuze	-5502
▁mucosale	-5503
▁wisselend	-5504
iepreparaat	-5505
ufficientie	-5506
▁Gefragment	-5507
▁betrekking	-5508
▁huidlaesie	-5509
▁collageneuze	-5510
▁positiviteit	-5511
▁superficiAle	-5512
Vw	-5513
000	-5514
DIG	-5515
ber	-5516
duct	-5517
ubis	-5518
volg	-5519
irect	-5520
regio	-5521
urele	-5522
lengte	-5523
▁flard	-5524
▁krist	-5525
▁medic	-5526
vasatie	-5527
vertebr	-5528
▁afname	-5529
▁gynaec	-5530
▁UITSLAG	-5531
▁adenoid	-5532
▁toxisch	-5533
▁anterior	-5534
▁geworden	-5535
preparaten	-5536
▁uitgaande	-5537
▁VOORLOPIGE	-5538
▁angiolipoom	-5539
▁telefonisch	-5540
▁ileumbiopten	-5541
▁micrografische	-5542
▁linkerbovenbeen	-5543
223	-5544
GIO	-5545
ZIG	-5546
amp	-5547
man	-5548
vez	-5549
▁SP	-5550
ALIS	-5551
alen	-5552
▁336	-5553
▁Lab	-5554
▁cle	-5555
METER	-5556
▁Anus	-5557
▁mola	-5558
▁reum	-5559
ilaris	-5560
▁Acute	-5561
▁minus	-5562
▁plasm	-5563
▁sluit	-5564
▁types	-5565
DIGHEID	-5566
ofarynx	-5567
▁longen	-5568
▁trauma	-5569
esultaat	-5570
▁Verruca	-5571
component	-5572
▁antistof	-5573
▁controle	-5574
▁craniale	-5575
▁extensie	-5576
▁promotor	-5577
efrectomie	-5578
▁Reactieve	-5579
▁maternale	-5580
epithelioom	-5581
▁borderline	-5582
▁resultaten	-5583
lassificatie	-5584
▁lumpectomie	-5585
▁grootcellige	-5586
▁lokalisaties	-5587
▁therapiekeuze	-5588
▁lichaamsvreemd	-5589
▁Zekerheidshalve	-5590
▁genherschikking	-5591
▁slijmvliesbiopt	-5592
AG	-5593
UV	-5594
vt	-5595
kan	-5596
▁SM	-5597
▁ST	-5598
caal	-5599
hese	-5600
olle	-5601
▁Asp	-5602
▁fot	-5603
szins	-5604
▁2016	-5605
▁milt	-5606
▁toez	-5607
▁valt	-5608
▁geldt	-5609
▁lymfo	-5610
▁majus	-5611
▁Hemith	-5612
▁Immuno	-5613
▁medebe	-5614
▁bepalen	-5615
▁medisch	-5616
acteriele	-5617
▁bestaand	-5618
▁coronair	-5619
▁klassiek	-5620
gioinvasie	-5621
▁onderkaak	-5622
▁acuminatum	-5623
▁prominente	-5624
heidsreactie	-5625
oreticulaire	-5626
▁linkerzijde	-5627
▁presternaal	-5628
omiepreparaat	-5629
▁Huidreexcisie	-5630
▁extrauteriene	-5631
64	-5632
MT	-5633
ALK	-5634
Def	-5635
Ook	-5636
ZIJ	-5637
ata	-5638
aus	-5639
ange	-5640
kans	-5641
▁01[	-5642
▁2014	-5643
▁stud	-5644
advies	-5645
rokken	-5646
▁CTNNB	-5647
▁Deels	-5648
▁Tepel	-5649
▁beter	-5650
▁pubis	-5651
gesteld	-5652
rijving	-5653
wannoom	-5654
▁Vagina	-5655
▁dubbel	-5656
▁tenzij	-5657
eeranden	-5658
▁clonale	-5659
▁TURblaas	-5660
▁complexe	-5661
▁multipel	-5662
▁teratoom	-5663
▁hematurie	-5664
▁ventrikel	-5665
▁beschadigd	-5666
▁cryptabces	-5667
▁definitief	-5668
▁middermaal	-5669
▁toezending	-5670
▁histiocytoom	-5671
▁infiltrerende	-5672
▁morfologische	-5673
▁zijsnijranden	-5674
▁zijsnijvlakken	-5675
51	-5676
68	-5677
7[	-5678
po	-5679
atio	-5680
ctin	-5681
loed	-5682
▁Par	-5683
▁cin	-5684
▁zod	-5685
inger	-5686
iteri	-5687
▁fasc	-5688
▁koil	-5689
WIJZIG	-5690
ageren	-5691
▁biops	-5692
▁hecht	-5693
▁naevi	-5694
▁pylor	-5695
▁levert	-5696
▁lijken	-5697
▁puntje	-5698
▁wervel	-5699
aliseerd	-5700
itoneale	-5701
▁externe	-5702
▁monotyp	-5703
amenteuze	-5704
▁synovium	-5705
▁genereren	-5706
▁celrijkdom	-5707
▁infectieus	-5708
asslijmvlies	-5709
▁paravertebr	-5710
▁transmurale	-5711
▁scleroserende	-5712
94	-5713
BE	-5714
Ge	-5715
rab	-5716
▁48	-5717
2013	-5718
arch	-5719
ella	-5720
▁ang	-5721
groot	-5722
ustom	-5723
uwing	-5724
▁2013	-5725
▁Buik	-5726
▁doet	-5727
▁glio	-5728
imeter	-5729
ocytoc	-5730
proces	-5731
▁gerev	-5732
▁ingeb	-5733
▁paraa	-5734
▁voorg	-5735
Variant	-5736
aplasie	-5737
erfusie	-5738
gelegen	-5739
vlokken	-5740
▁allerg	-5741
invasief	-5742
omatosus	-5743
▁gesteld	-5744
▁opnieuw	-5745
▁organis	-5746
▁verkalk	-5747
▁alopecia	-5748
▁Eventueel	-5749
▁posterior	-5750
▁ondersteun	-5751
▁proficient	-5752
▁segmentale	-5753
▁antistoffen	-5754
▁cysteinhoud	-5755
▁Ileumbiopten	-5756
▁Mammapunctie	-5757
▁onregelmatig	-5758
▁reusceltumor	-5759
▁huidadnextumor	-5760
▁zijresectievlak	-5761
IC	-5762
JBE	-5763
ege	-5764
imb	-5765
med	-5766
ode	-5767
run	-5768
▁MP	-5769
▁sr	-5770
amne	-5771
lamm	-5772
neus	-5773
renz	-5774
▁KIN	-5775
▁exc	-5776
ANGIO	-5777
acute	-5778
leerd	-5779
uraal	-5780
▁isch	-5781
▁uurs	-5782
▁inder	-5783
▁maken	-5784
profiel	-5785
▁Hyster	-5786
▁direct	-5787
▁hoewel	-5788
verdacht	-5789
▁basaalm	-5790
▁duodeni	-5791
▁gekende	-5792
▁niveaus	-5793
▁reading	-5794
▁seborro	-5795
▁Minimale	-5796
▁reageren	-5797
▁reductie	-5798
▁waarvoor	-5799
ocalisatie	-5800
▁blaashals	-5801
▁aandoening	-5802
▁Lumpectomie	-5803
▁macroscopie	-5804
▁psoriasiforme	-5805
db	-5806
si	-5807
ISO	-5808
▁75	-5809
▁He	-5810
▁La	-5811
▁NA	-5812
2017	-5813
Next	-5814
hier	-5815
obas	-5816
rach	-5817
uter	-5818
▁Pol	-5819
▁Rec	-5820
▁TER	-5821
▁Vas	-5822
adnex	-5823
emend	-5824
ielen	-5825
▁hybr	-5826
▁pTaG	-5827
▁femur	-5828
▁reeks	-5829
▁steun	-5830
Blokjes	-5831
rotocol	-5832
▁Pleura	-5833
▁advies	-5834
▁debris	-5835
▁fibrot	-5836
▁remmer	-5837
ificeerd	-5838
▁candida	-5839
▁hormoon	-5840
▁ruptuur	-5841
▁spiroch	-5842
▁stolsel	-5843
▁Volledig	-5844
▁lineaire	-5845
Oestrogeen	-5846
ZIJDIGHEID	-5847
▁tangentie	-5848
▁tumorrest	-5849
▁Chronische	-5850
▁Maagcorpus	-5851
▁haematurie	-5852
▁irradicaal	-5853
▁Lokalisatie	-5854
▁gereviseerd	-5855
▁sneevlakken	-5856
▁erythematosus	-5857
▁behandeladvies	-5858
▁epitheelcellen	-5859
▁megakaryocyten	-5860
Ontstekingsbeeld	-5861
hr	-5862
165	-5863
lel	-5864
▁Ov	-5865
▁ju	-5866
bouw	-5867
cyst	-5868
daad	-5869
scri	-5870
▁ast	-5871
▁rsi	-5872
Mamma	-5873
etica	-5874
otact	-5875
racht	-5876
vaste	-5877
▁PASD	-5878
▁intr	-5879
▁klep	-5880
▁pemf	-5881
decidu	-5882
▁nieuw	-5883
▁silic	-5884
achtige	-5885
maligne	-5886
▁alsook	-5887
▁daarom	-5888
▁gedeel	-5889
▁verwij	-5890
lammatie	-5891
spoeling	-5892
▁verhoog	-5893
▁kaakrand	-5894
▁mucocele	-5895
▁subtiele	-5896
▁Cytologie	-5897
▁betreffen	-5898
▁enigszins	-5899
▁waaronder	-5900
▁detecteert	-5901
▁informatie	-5902
▁beschrijving	-5903
▁circumferent	-5904
▁mesenchymale	-5905
69	-5906
CB	-5907
Ex	-5908
ML	-5909
WE	-5910
hl	-5911
263	-5912
agi	-5913
oco	-5914
▁MG	-5915
GFRA	-5916
lark	-5917
lokt	-5918
vage	-5919
▁MDM	-5920
▁cur	-5921
▁lis	-5922
▁NTRK	-5923
▁mark	-5924
▁pept	-5925
▁rijp	-5926
▁spec	-5927
▁sten	-5928
▁text	-5929
kedarm	-5930
teraal	-5931
▁Kerat	-5932
▁datum	-5933
▁ischa	-5934
▁nagel	-5935
▁opgev	-5936
aanvull	-5937
ondanks	-5938
tumoren	-5939
▁buizen	-5940
▁liquor	-5941
Resectie	-5942
keratose	-5943
oidcyste	-5944
oomcyste	-5945
▁klieren	-5946
elichting	-5947
▁Litteken	-5948
▁immunofen	-5949
▁mucineuze	-5950
▁zuurvaste	-5951
▁diverticul	-5952
▁duodenitis	-5953
▁preparaten	-5954
▁voorlopige	-5955
ANGIOINVASIE	-5956
▁Curettement	-5957
▁Tcellymfoom	-5958
▁inflammatie	-5959
▁tubulointer	-5960
Tumordiameter	-5961
▁eosinofielen	-5962
▁leverweefsel	-5963
▁mammaparenchym	-5964
gedifferentieerd	-5965
175	-5966
Arg	-5967
LOK	-5968
▁Ec	-5969
▁NB	-5970
ENEN	-5971
LYMF	-5972
itat	-5973
obul	-5974
odex	-5975
voet	-5976
▁LOH	-5977
▁vez	-5978
elegd	-5979
eloid	-5980
lagig	-5981
stens	-5982
uscum	-5983
▁Krap	-5984
▁fung	-5985
▁gein	-5986
▁herp	-5987
CBDCBD	-5988
basaal	-5989
bitaal	-5990
enalis	-5991
erings	-5992
matige	-5993
▁Intra	-5994
▁pemph	-5995
▁waren	-5996
agiosum	-5997
uperfic	-5998
▁Archer	-5999
▁vroege	-6000
olluscum	-6001
▁AANVULL	-6002
▁Blaassp	-6003
▁apicaal	-6004
▁galgang	-6005
▁maxilla	-6006
▁membran	-6007
Tumortype	-6008
▁Maximale	-6009
▁kaaklijn	-6010
uterisatie	-6011
▁halscyste	-6012
▁inderdaad	-6013
▁mesenteri	-6014
achtergrond	-6015
▁botweefsel	-6016
▁ingesloten	-6017
▁veroorzaak	-6018
luorescentie	-6019
▁MOLECULAIRE	-6020
▁PASkleuring	-6021
▁Uitgebreide	-6022
▁contagiosum	-6023
▁gerelateerd	-6024
▁mastopathie	-6025
▁teleangiect	-6026
▁clonaliteits	-6027
▁huidexcisies	-6028
AH	-6029
HL	-6030
bed	-6031
bla	-6032
dep	-6033
ime	-6034
▁43	-6035
▁As	-6036
▁IK	-6037
▁Sj	-6038
▁pL	-6039
119[	-6040
tjes	-6041
▁hom	-6042
junct	-6043
oksel	-6044
verst	-6045
▁Raad	-6046
▁anti	-6047
▁date	-6048
▁geac	-6049
amnese	-6050
assing	-6051
terale	-6052
▁Actin	-6053
▁NENEN	-6054
▁Nader	-6055
▁monoc	-6056
1518912	-6057
▁cilind	-6058
▁hybrid	-6059
▁incomp	-6060
▁serosa	-6061
▁studie	-6062
▁zouden	-6063
ALISATIE	-6064
celtumor	-6065
omatoide	-6066
▁bepaald	-6067
▁voetrug	-6068
▁NENENISO	-6069
▁geaccred	-6070
▁sprietig	-6071
▁impetigin	-6072
▁overgangs	-6073
▁Accreditat	-6074
▁Lymfeklier	-6075
▁darmlijden	-6076
▁erythrocyt	-6077
▁huidbiopsie	-6078
▁lichenoides	-6079
▁ondersteunt	-6080
▁responskans	-6081
▁veroorzaakt	-6082
▁Accreditatie	-6083
▁dysplastisch	-6084
▁rechtermamma	-6085
▁onderkwadrant	-6086
▁geaccrediteerd	-6087
▁paravertebraal	-6088
CD	-6089
TP	-6090
yc	-6091
IST	-6092
TKI	-6093
ail	-6094
aru	-6095
het	-6096
idu	-6097
ikk	-6098
ppe	-6099
ror	-6100
tag	-6101
▁Om	-6102
KRAS	-6103
Maag	-6104
cfng	-6105
epen	-6106
plas	-6107
▁ISO	-6108
▁nos	-6109
aruke	-6110
ember	-6111
▁Aard	-6112
▁TERT	-6113
▁ingu	-6114
▁Clark	-6115
▁Spitz	-6116
▁error	-6117
▁voorh	-6118
▁fibrom	-6119
bronchus	-6120
▁EGFRTKI	-6121
▁Stadier	-6122
carcinoma	-6123
centratie	-6124
ethyleerd	-6125
ificeerde	-6126
▁bovenste	-6127
▁epitheli	-6128
▁radicale	-6129
spoelvocht	-6130
▁Wekedelen	-6131
▁collagene	-6132
▁getroffen	-6133
ibroserende	-6134
▁circulatie	-6135
▁opgevraagd	-6136
▁spoelvocht	-6137
▁ulcererend	-6138
▁voorgelegd	-6139
ransplantaat	-6140
▁Excochleaat	-6141
▁junctionele	-6142
▁linkermamma	-6143
▁spermatozoa	-6144
▁cauterisatie	-6145
▁cylindrische	-6146
▁extravasatie	-6147
▁intraductaal	-6148
▁rechterzijde	-6149
▁hypertrofisch	-6150
▁mogelijkheden	-6151
▁pathologische	-6152
▁recidiverende	-6153
slijmvliesbiopt	-6154
▁Lymfklierbiopt	-6155
▁flowcytometrie	-6156
▁insufficientie	-6157
▁leiomyosarcoom	-6158
▁impetiginisatie	-6159
LB	-6160
]0	-6161
▁i	-6162
125	-6163
DIA	-6164
Ver	-6165
oos	-6166
▁44	-6167
▁Dd	-6168
▁LD	-6169
1799	-6170
2018	-6171
ENVE	-6172
eoom	-6173
igen	-6174
omst	-6175
text	-6176
unis	-6177
▁Ion	-6178
▁por	-6179
iezen	-6180
ulcer	-6181
▁Waar	-6182
▁afge	-6183
▁werk	-6184
NVENVE	-6185
OOMOOM	-6186
kanker	-6187
▁gelok	-6188
▁helft	-6189
▁losse	-6190
▁vocht	-6191
▁Aantal	-6192
▁Cancer	-6193
▁oorlel	-6194
▁stukje	-6195
▁tricho	-6196
DIAMETER	-6197
edieerde	-6198
ocoecaal	-6199
▁traject	-6200
▁gecombin	-6201
▁lymfaden	-6202
▁retroper	-6203
verstoring	-6204
▁molluscum	-6205
▁verklaren	-6206
▁schwannoom	-6207
Angioinvasie	-6208
fibroserende	-6209
▁colorectaal	-6210
▁Resectievlak	-6211
▁hybridisatie	-6212
▁basaalmembraan	-6213
▁linkerbovenarm	-6214
MN	-6215
TG	-6216
ZH	-6217
]4	-6218
117	-6219
TRA	-6220
mel	-6221
ease	-6222
lott	-6223
tern	-6224
▁afd	-6225
▁ana	-6226
▁kon	-6227
gland	-6228
ocale	-6229
stype	-6230
teerd	-6231
▁Comp	-6232
▁hyal	-6233
▁ling	-6234
▁pees	-6235
▁srcc	-6236
IJVLAK	-6237
Immuno	-6238
ventie	-6239
▁Assay	-6240
▁Ileum	-6241
▁Micro	-6242
▁intim	-6243
▁irreg	-6244
▁zodat	-6245
oliepen	-6246
verlies	-6247
▁Basaal	-6248
▁Hoewel	-6249
▁PDGFRA	-6250
stitiAle	-6251
volledig	-6252
▁Normaal	-6253
▁beschik	-6254
▁gevalid	-6255
▁persist	-6256
▁snijden	-6257
▁essentie	-6258
▁gastrale	-6259
▁insturen	-6260
▁kaakhoek	-6261
▁pancreat	-6262
▁srccobas	-6263
▁betrokken	-6264
▁mondbodem	-6265
▁overigens	-6266
▁peptische	-6267
▁secretoir	-6268
chidectomie	-6269
▁divertikel	-6270
▁thoraxwand	-6271
▁veranderde	-6272
▁regeneratie	-6273
▁toelichting	-6274
▁Morfologisch	-6275
▁endometriosis	-6276
▁hemicolectomie	-6277
▁linkeronderarm	-6278
▁oorspronkelijk	-6279
▁intraepidermale	-6280
ES	-6281
Per	-6282
hib	-6283
ous	-6284
ser	-6285
▁ON	-6286
▁Pr	-6287
ails	-6288
atop	-6289
exon	-6290
ilus	-6291
▁BAL	-6292
▁BVO	-6293
▁Pan	-6294
arina	-6295
oeder	-6296
trent	-6297
▁kiem	-6298
aanden	-6299
ingiva	-6300
▁Beide	-6301
▁group	-6302
▁molle	-6303
▁terug	-6304
iformis	-6305
oscopie	-6306
▁Randen	-6307
▁aangeb	-6308
▁krappe	-6309
▁perine	-6310
▁versch	-6311
ematisch	-6312
epatitis	-6313
zakelijk	-6314
▁gebiopt	-6315
▁geulcer	-6316
oppervlak	-6317
▁communis	-6318
▁hechting	-6319
▁herkomst	-6320
illectomie	-6321
▁dubbelbre	-6322
▁meerlagig	-6323
▁poliepjes	-6324
LOKALISATIE	-6325
▁Desondanks	-6326
▁generation	-6327
▁cilindercel	-6328
▁lipomateuze	-6329
▁Oppervlakkig	-6330
▁celpopulatie	-6331
▁Duodenumbiopt	-6332
ctomiepreparaat	-6333
ocytoclastische	-6334
▁submandibulair	-6335
▁Bronchusbiopten	-6336
▁Gefragmenteerde	-6337
▁submandibularis	-6338
UWE	-6339
oli	-6340
gend	-6341
morf	-6342
odes	-6343
spro	-6344
ylor	-6345
▁fra	-6346
▁gez	-6347
▁hun	-6348
grote	-6349
maals	-6350
sduur	-6351
ulose	-6352
usual	-6353
vende	-6354
▁Tons	-6355
▁coli	-6356
▁part	-6357
asting	-6358
ilaire	-6359
oidale	-6360
script	-6361
▁gemod	-6362
▁relev	-6363
▁Bronch	-6364
▁Naruke	-6365
▁Polype	-6366
▁compon	-6367
▁curvat	-6368
▁planop	-6369
delingse	-6370
▁criteri	-6371
▁globaal	-6372
▁interna	-6373
▁maanden	-6374
▁tubulus	-6375
arcinomen	-6376
▁subacute	-6377
bespreking	-6378
metaplasie	-6379
oidectomie	-6380
sectierand	-6381
▁Voldoende	-6382
▁zijranden	-6383
▁Wigexcisie	-6384
▁goedaardig	-6385
▁progressie	-6386
▁planopilaris	-6387
▁macroscopisch	-6388
▁huidstansbiopt	-6389
▁prolifererende	-6390
▁ileumslijmvlies	-6391
▁weefselfragment	-6392
78	-6393
ux	-6394
AHA	-6395
DNA	-6396
oeg	-6397
ome	-6398
rix	-6399
▁5[	-6400
FISH	-6401
VIII	-6402
aget	-6403
hang	-6404
omyc	-6405
orme	-6406
pool	-6407
▁RNA	-6408
▁Ser	-6409
issie	-6410
wezen	-6411
▁acht	-6412
▁neur	-6413
▁pann	-6414
LOYLOY	-6415
knepen	-6416
okerat	-6417
▁GROEI	-6418
▁derde	-6419
▁herbe	-6420
▁lange	-6421
INGROEI	-6422
▁colleg	-6423
▁lavage	-6424
▁mitose	-6425
overgang	-6426
poliepen	-6427
▁details	-6428
▁hoogste	-6429
▁mycosis	-6430
Pathogene	-6431
eenlijden	-6432
wijdering	-6433
▁behouden	-6434
▁biopsies	-6435
▁geschikt	-6436
▁gestelde	-6437
▁helemaal	-6438
▁tweemaal	-6439
cisiebiopt	-6440
otactische	-6441
▁Maagbiopt	-6442
▁acanthoom	-6443
▁groeiende	-6444
▁sequentie	-6445
▁verknepen	-6446
microscopie	-6447
▁Tepelvocht	-6448
▁meningeoom	-6449
▁dermatoloog	-6450
▁panniculitis	-6451
▁atheroomcyste	-6452
▁hemorragische	-6453
▁plaatepitheel	-6454
▁Waarschijnlijk	-6455
▁blaasslijmvlies	-6456
▁schildklierkwab	-6457
Arr	-6458
MBR	-6459
val	-6460
rise	-6461
wikk	-6462
▁LDT	-6463
▁MYD	-6464
▁Sle	-6465
▁obv	-6466
▁oed	-6467
ilemm	-6468
linic	-6469
▁HRAS	-6470
▁isth	-6471
▁noch	-6472
evocht	-6473
icrise	-6474
▁Bodem	-6475
▁compo	-6476
▁heter	-6477
▁incid	-6478
▁usual	-6479
erieure	-6480
oplasie	-6481
▁Celarm	-6482
▁defect	-6483
▁doorsn	-6484
▁intram	-6485
▁viraal	-6486
cysteuze	-6487
eratieve	-6488
voorstel	-6489
▁stellen	-6490
▁trombus	-6491
▁voorste	-6492
▁Hierover	-6493
▁aspiraat	-6494
▁darmtype	-6495
▁immature	-6496
▁anterieur	-6497
▁fungoides	-6498
▁maturatie	-6499
▁preputium	-6500
▁aangeboden	-6501
▁eczemateuze	-6502
▁paraaortaal	-6503
▁tumorlengte	-6504
▁aangeleverde	-6505
▁pseudodecidu	-6506
▁diverticulose	-6507
▁ductectasieen	-6508
▁maagantrumtype	-6509
LYMFANGIOINVASIE	-6510
kedarmslijmvlies	-6511
za	-6512
Cys	-6513
Cyt	-6514
VCM	-6515
cus	-6516
def	-6517
ibr	-6518
iss	-6519
▁56	-6520
▁AB	-6521
▁HE	-6522
▁Le	-6523
Type	-6524
reen	-6525
▁RIP	-6526
▁fen	-6527
▁the	-6528
▁val	-6529
▁zes	-6530
basis	-6531
idden	-6532
iging	-6533
slaap	-6534
▁Torr	-6535
▁duim	-6536
▁uitg	-6537
behand	-6538
monale	-6539
onucle	-6540
schede	-6541
▁caver	-6542
▁comed	-6543
Axcisie	-6544
apeling	-6545
▁Nieuwe	-6546
▁adenoc	-6547
▁slijmv	-6548
▁staven	-6549
erminale	-6550
oradisch	-6551
orbitaal	-6552
▁Celrijk	-6553
▁Torrent	-6554
▁collega	-6555
▁decidua	-6556
▁ontwikk	-6557
▁tubaire	-6558
▁GEWIJZIG	-6559
▁compound	-6560
▁genoemde	-6561
▁keratine	-6562
▁omgeving	-6563
▁verwijde	-6564
Arriteerde	-6565
▁Klinische	-6566
▁immuuncyt	-6567
▁inzending	-6568
▁klierbuis	-6569
▁represent	-6570
▁multiforme	-6571
▁regelmatig	-6572
ingsvoorstel	-6573
▁epitheliaal	-6574
▁pancreaskop	-6575
▁mediastinale	-6576
▁Bronchusbrush	-6577
▁chemotherapie	-6578
▁haarfollikels	-6579
▁immuunprofiel	-6580
▁therapieeffect	-6581
5[	-6582
146	-6583
163	-6584
183	-6585
195	-6586
JTH	-6587
ift	-6588
rib	-6589
war	-6590
▁65	-6591
▁CK	-6592
▁Co	-6593
▁Ki	-6594
▁Or	-6595
▁sk	-6596
olen	-6597
▁CLL	-6598
▁neo	-6599
IMALE	-6600
asale	-6601
▁100[	-6602
▁Twee	-6603
▁bijt	-6604
hoewel	-6605
▁Synov	-6606
▁eerst	-6607
▁tekst	-6608
▁thyre	-6609
Conform	-6610
eerbaar	-6611
▁alhier	-6612
▁gehoor	-6613
▁methyl	-6614
▁voorts	-6615
▁HPVtest	-6616
▁disease	-6617
▁gericht	-6618
▁isthmus	-6619
Resultaat	-6620
▁bevatten	-6621
▁flardjes	-6622
▁hematoom	-6623
▁nogmaals	-6624
▁villitis	-6625
▁blijvende	-6626
uperficieel	-6627
▁poliepeuze	-6628
▁shavebiopt	-6629
▁uitsluiten	-6630
▁beschikbaar	-6631
▁cristabiopt	-6632
▁hypertensie	-6633
▁necrotische	-6634
histiocytaire	-6635
▁Huidexcisies	-6636
▁restmateriaal	-6637
▁vreemdlichaam	-6638
RC	-6639
UP	-6640
bi	-6641
gn	-6642
ni	-6643
224	-6644
CLC	-6645
oub	-6646
2019	-6647
GEEN	-6648
ISCH	-6649
irat	-6650
itus	-6651
sten	-6652
ulat	-6653
▁Dem	-6654
▁nvt	-6655
▁wil	-6656
Beeld	-6657
borst	-6658
braak	-6659
ekent	-6660
hrale	-6661
ipeus	-6662
ouble	-6663
vraag	-6664
▁stri	-6665
Aantal	-6666
ervorm	-6667
▁Samen	-6668
Vanwege	-6669
pipelle	-6670
▁ingest	-6671
▁inhoud	-6672
▁tanden	-6673
▁vinger	-6674
obacteri	-6675
▁Demodex	-6676
▁huidige	-6677
▁skintag	-6678
usculaire	-6679
▁centrale	-6680
▁gevolgen	-6681
▁hidraden	-6682
▁lienalis	-6683
▁polypeus	-6684
▁basaloide	-6685
▁curvatuur	-6686
▁regionale	-6687
▁siliconen	-6688
▁Aanvulling	-6689
▁gastrische	-6690
▁gehoorgang	-6691
▁incidentie	-6692
▁referentie	-6693
▁trichilemm	-6694
▁rechterhand	-6695
▁submucosaal	-6696
▁Verwijdering	-6697
▁diepreikende	-6698
▁onregelmatige	-6699
MC	-6700
NF	-6701
TM	-6702
ko	-6703
203	-6704
209	-6705
ICC	-6706
PCR	-6707
Pre	-6708
irc	-6709
oop	-6710
▁ME	-6711
alan	-6712
clus	-6713
moid	-6714
rium	-6715
roep	-6716
▁JAK	-6717
▁Ten	-6718
▁ker	-6719
afrag	-6720
arige	-6721
idend	-6722
naire	-6723
weest	-6724
▁Atyp	-6725
▁HSIL	-6726
▁calc	-6727
▁diab	-6728
▁dwar	-6729
▁reep	-6730
▁risk	-6731
▁rode	-6732
CBDMMA	-6733
dering	-6734
idalis	-6735
ochond	-6736
▁dagen	-6737
▁order	-6738
▁plooi	-6739
▁vries	-6740
▁zwart	-6741
Punctie	-6742
▁Diepte	-6743
▁Laesie	-6744
▁custom	-6745
▁niveau	-6746
▁diafrag	-6747
▁aangrenz	-6748
▁dezelfde	-6749
▁excisies	-6750
▁nefritis	-6751
alperfusie	-6752
ocellulaire	-6753
ovenstaande	-6754
▁adenomyose	-6755
▁elektronen	-6756
▁onverdacht	-6757
▁urineblaas	-6758
▁voorhanden	-6759
▁wigexcisie	-6760
yroidectomie	-6761
▁componenten	-6762
▁intraductale	-6763
▁systematisch	-6764
▁verwijdering	-6765
▁ectocervicaal	-6766
▁gemodificeerde	-6767
▁leverparenchym	-6768
▁rechterbovenarm	-6769
EM	-6770
RG	-6771
SN	-6772
OEK	-6773
alu	-6774
ogl	-6775
ora	-6776
ord	-6777
uld	-6778
▁61	-6779
▁ao	-6780
2300	-6781
CAAL	-6782
haar	-6783
odus	-6784
ossa	-6785
ouwd	-6786
▁Bep	-6787
▁Dep	-6788
embol	-6789
marge	-6790
reerd	-6791
▁2015	-6792
▁Neus	-6793
▁TKIs	-6794
▁cort	-6795
▁inkt	-6796
Poliep	-6797
entrif	-6798
lageen	-6799
plasia	-6800
▁MARGE	-6801
▁cardi	-6802
▁nevus	-6803
▁scrot	-6804
apulair	-6805
astasen	-6806
omycose	-6807
▁Advies	-6808
▁diabet	-6809
▁stenen	-6810
▁toonde	-6811
Voorstel	-6812
▁endomet	-6813
▁gangren	-6814
▁geweest	-6815
▁vliezen	-6816
▁collageen	-6817
▁linkeroor	-6818
▁tandenrij	-6819
▁Colonbiopt	-6820
▁darmkanker	-6821
Naaldbiopten	-6822
▁geulcereerd	-6823
▁lymfoplasma	-6824
▁malperfusie	-6825
▁melanocyten	-6826
▁tangentieel	-6827
▁chirurgische	-6828
▁geArriteerde	-6829
▁naaldbiopsie	-6830
Differentiatie	-6831
▁Blaasspoeling	-6832
205	-6833
Ale	-6834
Asp	-6835
Zij	-6836
aas	-6837
ipp	-6838
BRAF	-6839
ZOEK	-6840
hank	-6841
iken	-6842
inks	-6843
knie	-6844
zool	-6845
▁Bes	-6846
▁HPF	-6847
▁Lip	-6848
▁low	-6849
▁vru	-6850
▁zin	-6851
Level	-6852
briek	-6853
sgest	-6854
▁Aang	-6855
▁High	-6856
▁diam	-6857
▁plat	-6858
Gezien	-6859
coupes	-6860
erking	-6861
▁ONDER	-6862
▁clust	-6863
▁steel	-6864
grootte	-6865
ytrocyt	-6866
▁Hierin	-6867
▁Weinig	-6868
▁aanbev	-6869
▁antrac	-6870
▁clinic	-6871
▁exonen	-6872
▁lesion	-6873
▁stasis	-6874
▁vrucht	-6875
dictieve	-6876
gevonden	-6877
sproduct	-6878
▁arterie	-6879
▁chorion	-6880
▁eenduid	-6881
▁geprikk	-6882
▁keratin	-6883
▁mesangi	-6884
▁pylorus	-6885
▁rijping	-6886
▁rubriek	-6887
▁Spontaan	-6888
▁bevonden	-6889
▁galwegen	-6890
▁spoelcel	-6891
bijmenging	-6892
cochleatie	-6893
etreffende	-6894
▁behorende	-6895
▁dissectie	-6896
▁serositis	-6897
Definitieve	-6898
Sneevlakken	-6899
behandeling	-6900
▁bloedvaten	-6901
▁conclusief	-6902
▁immunoloog	-6903
▁imponerend	-6904
▁kristallen	-6905
▁maagmucosa	-6906
▁infiltraten	-6907
▁longweefsel	-6908
▁lymfatische	-6909
▁voorkomende	-6910
▁anaplastisch	-6911
▁glioblastoom	-6912
▁huidresectie	-6913
▁resectierand	-6914
▁betrokkenheid	-6915
▁dubbelbrekend	-6916
▁trichilemmale	-6917
▁hepatocellulair	-6918
41	-6919
EB	-6920
465	-6921
RES	-6922
ROS	-6923
ana	-6924
uul	-6925
▁58	-6926
▁ZN	-6927
▁qu	-6928
▁sm	-6929
Door	-6930
oris	-6931
orum	-6932
reek	-6933
▁ANA	-6934
▁ATM	-6935
▁DIA	-6936
▁Low	-6937
▁men	-6938
astas	-6939
haard	-6940
hibit	-6941
romet	-6942
steek	-6943
tieel	-6944
▁SISH	-6945
▁aard	-6946
▁doen	-6947
▁heel	-6948
▁kwab	-6949
▁pyel	-6950
▁soms	-6951
▁zaad	-6952
altime	-6953
ammair	-6954
eikend	-6955
lation	-6956
otheli	-6957
yperen	-6958
▁Delen	-6959
▁Paget	-6960
▁juist	-6961
▁myoom	-6962
▁semen	-6963
▁strum	-6964
ropoese	-6965
▁fibrox	-6966
▁geloos	-6967
▁kernen	-6968
▁oproep	-6969
▁uitgeb	-6970
ofibrose	-6971
ventieve	-6972
wijzigde	-6973
▁Bericht	-6974
▁pilomat	-6975
▁vaatjes	-6976
ilaterale	-6977
otypering	-6978
▁chronica	-6979
▁gesneden	-6980
▁groepjes	-6981
▁realtime	-6982
▁vesicula	-6983
▁voetzool	-6984
ronodulair	-6985
▁ONDERZOEK	-6986
▁afgenomen	-6987
▁bevinding	-6988
▁dwarsgest	-6989
▁inguinaal	-6990
▁knieholte	-6991
▁resttumor	-6992
▁slijmvorm	-6993
▁solitaire	-6994
▁amyloidose	-6995
▁artefacten	-6996
▁bijmenging	-6997
▁pemphigoid	-6998
▁fibromatose	-6999
▁mechanische	-7000
▁Blaasbiopten	-7001
▁verkalkingen	-7002
▁Endocervicale	-7003
▁fibroxanthoom	-7004
▁Differentiaald	-7005
▁Adnexextirpatie	-7006
82	-7007
133	-7008
206	-7009
TOR	-7010
VEN	-7011
bil	-7012
kel	-7013
pal	-7014
ras	-7015
cand	-7016
klep	-7017
long	-7018
pTNM	-7019
riae	-7020
▁510	-7021
▁STK	-7022
▁tgv	-7023
Marge	-7024
▁GNAQ	-7025
▁gesp	-7026
▁nauw	-7027
allerg	-7028
iddels	-7029
udeerd	-7030
▁Cyste	-7031
▁media	-7032
▁organ	-7033
Afstand	-7034
▁belang	-7035
▁foetus	-7036
▁reiken	-7037
apilloom	-7038
litteken	-7039
ubulaire	-7040
▁cerebri	-7041
▁daarmee	-7042
ativiteit	-7043
procedure	-7044
▁Reactief	-7045
▁Subcutis	-7046
▁conjunct	-7047
▁geloosde	-7048
▁reikende	-7049
▁voorwand	-7050
carcinomen	-7051
▁werkgroep	-7052
Lokalisatie	-7053
Pleuravocht	-7054
▁bacteriele	-7055
▁koilocytose	-7056
▁overtuigend	-7057
▁vastgesteld	-7058
▁Polypectomie	-7059
▁Warthintumor	-7060
▁blaarvorming	-7061
▁glomerulaire	-7062
▁intradermaal	-7063
differentiatie	-7064
▁Transuretrale	-7065
▁persisterende	-7066
▁Huidshavebiopt	-7067
▁metaplastische	-7068
▁Sigmoidresectie	-7069
GC	-7070
SE	-7071
185	-7072
UVD	-7073
Vol	-7074
cri	-7075
omm	-7076
pur	-7077
▁PS	-7078
looi	-7079
weet	-7080
wend	-7081
▁IEL	-7082
▁LMS	-7083
▁Wat	-7084
▁rib	-7085
annen	-7086
auter	-7087
elden	-7088
ermed	-7089
komen	-7090
ogren	-7091
orood	-7092
▁IUVD	-7093
▁MGMT	-7094
▁Uret	-7095
▁hele	-7096
▁teen	-7097
▁thym	-7098
▁toep	-7099
▁veld	-7100
DERING	-7101
omelan	-7102
▁Melan	-7103
▁abdom	-7104
▁fotos	-7105
▁monok	-7106
▁pilon	-7107
▁plaqu	-7108
▁semin	-7109
▁uiter	-7110
ructuur	-7111
▁Nadere	-7112
▁bewijz	-7113
▁septum	-7114
▁waarde	-7115
stitieel	-7116
▁avitaal	-7117
▁colloid	-7118
▁crypten	-7119
▁gingiva	-7120
▁stenose	-7121
GRADERING	-7122
▁astrocyt	-7123
▁betekent	-7124
▁pericard	-7125
▁platform	-7126
▁respirat	-7127
▁verwacht	-7128
ohepatitis	-7129
▁basalioom	-7130
▁caverneus	-7131
▁cryptitis	-7132
▁cytonucle	-7133
▁diafragma	-7134
▁linkerhand	-7135
▁excochleaat	-7136
▁liposarcoom	-7137
▁prostatitis	-7138
▁sclerotisch	-7139
▁spirocheten	-7140
▁uitbreidend	-7141
▁urticariele	-7142
▁endometriale	-7143
▁gemethyleerd	-7144
▁Interpretatie	-7145
▁duodenumbiopt	-7146
▁intrauteriene	-7147
▁ondersteuning	-7148
▁Adenocarcinoom	-7149
▁architecturele	-7150
▁onderverdeling	-7151
59	-7152
LY	-7153
103	-7154
154	-7155
233	-7156
gew	-7157
its	-7158
kas	-7159
ner	-7160
pje	-7161
▁MI	-7162
▁ul	-7163
CROM	-7164
OTCH	-7165
antw	-7166
greg	-7167
ijns	-7168
norm	-7169
ster	-7170
auhin	-7171
kleur	-7172
ofyse	-7173
ylori	-7174
▁with	-7175
CBDEHE	-7176
CROMET	-7177
blokje	-7178
groeid	-7179
ijkant	-7180
ronden	-7181
▁Immun	-7182
▁Spoel	-7183
▁Stere	-7184
▁apopt	-7185
▁blauw	-7186
▁perip	-7187
▁proct	-7188
fibroom	-7189
opoiese	-7190
quameus	-7191
stabiel	-7192
▁Totale	-7193
▁extrac	-7194
▁struma	-7195
ierbiopt	-7196
typering	-7197
▁Broncho	-7198
▁Krapste	-7199
▁Ovarium	-7200
▁Sjogren	-7201
▁haardje	-7202
▁scrotum	-7203
▁sereuze	-7204
invasieve	-7205
secteerde	-7206
▁Sentinel	-7207
▁Tubulair	-7208
▁optimaal	-7209
▁Dunnedarm	-7210
▁doorsnede	-7211
▁hierboven	-7212
▁klassieke	-7213
▁samenhang	-7214
▁ectocervix	-7215
▁mitotische	-7216
▁premaligne	-7217
▁toepassing	-7218
▁ulcusbodem	-7219
▁vacuolaire	-7220
Tumorgrootte	-7221
▁cilindrisch	-7222
▁mesenterium	-7223
▁pilonidalis	-7224
CROMETASTASEN	-7225
▁monotypische	-7226
▁seborroische	-7227
▁vergelijking	-7228
▁cryptabcessen	-7229
▁gedegenereerd	-7230
▁Hemicolectomie	-7231
▁medebeoordeeld	-7232
▁fibromusculaire	-7233
62	-7234
AA	-7235
GN	-7236
IF	-7237
173	-7238
208	-7239
STR	-7240
cha	-7241
cur	-7242
zet	-7243
▁47	-7244
▁AN	-7245
▁ie	-7246
▁je	-7247
2021	-7248
Hoog	-7249
ieen	-7250
palm	-7251
▁BAP	-7252
▁MSS	-7253
▁ano	-7254
▁gef	-7255
▁inv	-7256
andom	-7257
erkel	-7258
ethyl	-7259
inose	-7260
ndien	-7261
ustyp	-7262
▁1213	-7263
▁Mede	-7264
▁Onge	-7265
▁Verm	-7266
▁stuk	-7267
▁zoek	-7268
Gaarne	-7269
atoide	-7270
elijks	-7271
etisch	-7272
iatype	-7273
istale	-7274
lonaal	-7275
nivers	-7276
tritis	-7277
▁NOTCH	-7278
▁dilat	-7279
▁fossa	-7280
▁maart	-7281
▁pleit	-7282
▁serie	-7283
agenoeg	-7284
aginale	-7285
angitis	-7286
entiele	-7287
imbriae	-7288
veolair	-7289
verwege	-7290
▁Tweede	-7291
▁graadA	-7292
▁larynx	-7293
▁thromb	-7294
▁vlakke	-7295
▁bloeder	-7296
▁fibroma	-7297
▁gronden	-7298
▁neiging	-7299
▁stuwing	-7300
▁uitgaat	-7301
▁zijkant	-7302
architect	-7303
▁Fragment	-7304
▁Receptor	-7305
▁criteria	-7306
▁endocard	-7307
▁epicrise	-7308
▁gecauter	-7309
▁gegroeid	-7310
▁graderen	-7311
cellulaire	-7312
operatieve	-7313
▁Aspiratie	-7314
▁aanvragen	-7315
▁bekleding	-7316
▁bewijzend	-7317
▁bovenkaak	-7318
▁pemfigoid	-7319
▁proctitis	-7320
▁squamocol	-7321
▁AANVULLEND	-7322
▁halverwege	-7323
▁myomatosus	-7324
▁allergische	-7325
▁systemische	-7326
▁calcificatie	-7327
▁gevalideerde	-7328
▁huidfragment	-7329
▁myelofibrose	-7330
▁lymfomenpanel	-7331
▁bloedbijmenging	-7332
▁bloedingsresten	-7333
HP	-7334
IX	-7335
110	-7336
228	-7337
End	-7338
MAD	-7339
ves	-7340
▁41	-7341
▁AK	-7342
▁OP	-7343
TALE	-7344
akle	-7345
amin	-7346
cflp	-7347
erma	-7348
glas	-7349
idym	-7350
▁bur	-7351
▁dij	-7352
▁erg	-7353
▁tib	-7354
Casus	-7355
defin	-7356
ollow	-7357
ortio	-7358
▁VIII	-7359
▁cent	-7360
▁gren	-7361
▁ligg	-7362
▁nood	-7363
▁vena	-7364
Indien	-7365
Voorts	-7366
dition	-7367
jarige	-7368
shalve	-7369
totaal	-7370
▁aange	-7371
▁eccri	-7372
▁enter	-7373
▁stemp	-7374
▁therm	-7375
legging	-7376
ofibros	-7377
umnaire	-7378
▁PIRADS	-7379
▁aggreg	-7380
▁biopsy	-7381
▁vooraf	-7382
afibrose	-7383
astritis	-7384
bijholte	-7385
▁celarme	-7386
▁evenmin	-7387
▁haarden	-7388
▁herkend	-7389
▁markers	-7390
▁myxoide	-7391
▁typeren	-7392
▁naevoide	-7393
▁talrijke	-7394
▁vergrote	-7395
▁Papklasse	-7396
▁correlaat	-7397
▁onsteking	-7398
▁opgegeven	-7399
▁papilloma	-7400
▁serologie	-7401
▁stemplooi	-7402
▁zoekvraag	-7403
glandulaire	-7404
▁lymfoplasm	-7405
▁haemangioom	-7406
▁hypertrofie	-7407
▁hematopoiese	-7408
▁kleincellige	-7409
▁leversegment	-7410
▁antrumbiopten	-7411
▁dermatomycose	-7412
▁organiserende	-7413
▁subepidermale	-7414
▁Uterusresectie	-7415
▁verslaglegging	-7416
▁rechteronderarm	-7417
▁slokdarmbiopten	-7418
▁zekerheidshalve	-7419
PM	-7420
ZE	-7421
aN	-7422
ju	-7423
li	-7424
ln	-7425
193	-7426
Bes	-7427
UIT	-7428
erc	-7429
erp	-7430
onp	-7431
▁RB	-7432
▁pR	-7433
DCIS	-7434
LYSE	-7435
sent	-7436
▁Als	-7437
▁are	-7438
▁sen	-7439
Extra	-7440
antel	-7441
iitis	-7442
immun	-7443
reept	-7444
▁2017	-7445
▁2020	-7446
▁GIST	-7447
▁impl	-7448
▁mest	-7449
bronch	-7450
emfyse	-7451
omyces	-7452
vezels	-7453
▁Klein	-7454
▁Klier	-7455
▁bulla	-7456
▁nodig	-7457
▁ratio	-7458
icrodis	-7459
itatief	-7460
▁Kleine	-7461
▁NIEUWE	-7462
▁mantel	-7463
▁retrom	-7464
snijding	-7465
usculair	-7466
▁ANALYSE	-7467
▁Vanwege	-7468
▁gedeelt	-7469
▁indefin	-7470
▁reepjes	-7471
▁ulcerof	-7472
hankelijk	-7473
ingsgroep	-7474
osquameus	-7475
▁artritis	-7476
▁intracav	-7477
▁prepylor	-7478
alveolaire	-7479
vasculaire	-7480
▁bekledend	-7481
▁cervicaal	-7482
▁condyloom	-7483
▁periadnex	-7484
Onvoldoende	-7485
niversitair	-7486
▁aantasting	-7487
▁gemicrodis	-7488
amplificeerd	-7489
▁tumorvolume	-7490
▁uitrijpende	-7491
▁Naaldbiopsie	-7492
▁radiologisch	-7493
▁erytrocyturie	-7494
▁rectumbiopten	-7495
▁neusslijmvlies	-7496
▁buitenoppervlak	-7497
▁steatohepatitis	-7498
08	-7499
91	-7500
Vb	-7501
cr	-7502
213	-7503
Glu	-7504
TUR	-7505
Val	-7506
ala	-7507
ati	-7508
can	-7509
jun	-7510
▁Cp	-7511
▁Sn	-7512
▁tw	-7513
RADI	-7514
inus	-7515
oriz	-7516
▁10[	-7517
▁Zij	-7518
▁inn	-7519
▁mut	-7520
ctuur	-7521
derma	-7522
ollet	-7523
rache	-7524
▁2018	-7525
▁Brun	-7526
▁IIII	-7527
▁Mort	-7528
▁endo	-7529
▁gaan	-7530
▁gere	-7531
▁trim	-7532
TERTER	-7533
amente	-7534
idymis	-7535
italis	-7536
ouglas	-7537
totale	-7538
▁NSCLC	-7539
▁Perif	-7540
▁Vater	-7541
▁anaal	-7542
▁gelet	-7543
▁graft	-7544
▁ieder	-7545
▁ilium	-7546
▁ingev	-7547
▁virus	-7548
▁zogen	-7549
illeuze	-7550
omatoid	-7551
orizont	-7552
toename	-7553
▁desmop	-7554
▁galweg	-7555
▁groeit	-7556
▁lokale	-7557
amenteus	-7558
igniteit	-7559
▁aanvrag	-7560
▁fibroad	-7561
▁geleide	-7562
▁inhibit	-7563
▁neoplas	-7564
▁paratub	-7565
▁protonp	-7566
▁scannen	-7567
papilloom	-7568
rikkeling	-7569
roeiwijze	-7570
▁Compleet	-7571
▁borstkas	-7572
▁handpalm	-7573
▁perineum	-7574
▁zogenaam	-7575
Somatische	-7576
aanvulling	-7577
emateriaal	-7578
▁Longbiopt	-7579
▁bewerking	-7580
▁colontype	-7581
▁genetisch	-7582
▁hormonale	-7583
▁huidshave	-7584
▁trimester	-7585
▁Voorlopige	-7586
▁arteriitis	-7587
▁maxillaris	-7588
▁peesschede	-7589
▁sporadisch	-7590
▁tumorvrije	-7591
architectuur	-7592
▁Cytologisch	-7593
▁aangetoonde	-7594
▁acantholyse	-7595
▁bijtfibroom	-7596
▁ileocoecaal	-7597
▁linkszijdig	-7598
▁multifocale	-7599
▁zijdelingse	-7600
▁Laboratorium	-7601
▁Superficieel	-7602
▁blaasbiopten	-7603
▁klierweefsel	-7604
▁slijmvormend	-7605
▁Orchidectomie	-7606
▁Pleurabiopten	-7607
▁cytonucleaire	-7608
▁prolifererend	-7609
▁dwarsgestreept	-7610
▁gescleroseerde	-7611
▁prostatectomie	-7612
ustypeslijmvlies	-7613
▁Stereotactische	-7614
72	-7615
AM	-7616
FF	-7617
OC	-7618
RI	-7619
138	-7620
153	-7621
ENT	-7622
emm	-7623
fig	-7624
hen	-7625
int	-7626
oss	-7627
uim	-7628
ypT	-7629
▁EX	-7630
▁FS	-7631
▁IA	-7632
Long	-7633
best	-7634
eper	-7635
heen	-7636
hyll	-7637
iens	-7638
igon	-7639
oAse	-7640
opie	-7641
rain	-7642
▁WEL	-7643
▁ber	-7644
▁evt	-7645
▁hol	-7646
▁nat	-7647
▁sac	-7648
LOGIE	-7649
juvan	-7650
luste	-7651
rogen	-7652
zaken	-7653
▁Heup	-7654
▁Musc	-7655
▁Sequ	-7656
▁epid	-7657
▁onze	-7658
assend	-7659
ipping	-7660
versch	-7661
▁clear	-7662
▁hypox	-7663
▁strek	-7664
▁villi	-7665
dermale	-7666
haarden	-7667
illende	-7668
juvante	-7669
rolifer	-7670
▁keloid	-7671
▁sleeve	-7672
▁tubuli	-7673
▁vascul	-7674
RADICAAL	-7675
houdende	-7676
lastisch	-7677
ommissie	-7678
ylinders	-7679
▁Afstand	-7680
▁Daarbij	-7681
▁evenals	-7682
▁grotere	-7683
▁intacte	-7684
▁omtrent	-7685
▁stabiel	-7686
positieve	-7687
▁adequaat	-7688
▁gesteeld	-7689
▁Overigens	-7690
▁interpret	-7691
▁verruceus	-7692
▁Endocervix	-7693
▁darmmucosa	-7694
Helicobacter	-7695
▁Preventieve	-7696
▁celgroepjes	-7697
▁satellieten	-7698
▁fibrocysteuze	-7699
▁herbeoordeeld	-7700
▁interstitieel	-7701
▁microinvasief	-7702
▁overgangstype	-7703
▁prostaatbiopt	-7704
▁radiotherapie	-7705
▁medicamenteuze	-7706
▁restlokalisatie	-7707
▁tumorpercentage	-7708
YC	-7709
143	-7710
ETZ	-7711
OLD	-7712
Ser	-7713
ray	-7714
sol	-7715
uiv	-7716
▁42	-7717
▁Fu	-7718
▁kh	-7719
ECEP	-7720
Lymf	-7721
ilis	-7722
indt	-7723
omin	-7724
omon	-7725
taal	-7726
vula	-7727
▁DLB	-7728
▁enA	-7729
▁lym	-7730
▁res	-7731
▁sca	-7732
breuk	-7733
ekere	-7734
▁sial	-7735
▁wond	-7736
igonum	-7737
ivatie	-7738
uiving	-7739
▁RECEP	-7740
▁naald	-7741
▁phyll	-7742
▁xanth	-7743
Gleason	-7744
etastas	-7745
infarct	-7746
▁Random	-7747
▁morfea	-7748
amenlijk	-7749
anamnese	-7750
antwoord	-7751
volgende	-7752
▁Heupkop	-7753
▁Mortons	-7754
▁aanzien	-7755
▁angulus	-7756
▁bestaan	-7757
▁centrum	-7758
▁gepaard	-7759
▁groepen	-7760
▁lingula	-7761
▁remmers	-7762
▁reticul	-7763
entoename	-7764
▁RECEPTOR	-7765
▁skipping	-7766
Vriescoupe	-7767
sonderzoek	-7768
▁Hemithyre	-7769
▁Metastase	-7770
▁eenduidig	-7771
▁galstenen	-7772
▁huidadnex	-7773
▁pulmonale	-7774
▁voorkomen	-7775
▁weefselst	-7776
associeerde	-7777
betreffende	-7778
rometastase	-7779
▁Peritoneum	-7780
▁bloedingen	-7781
▁cellulaire	-7782
▁hematopoet	-7783
▁mestcellen	-7784
▁secretoire	-7785
▁verminderd	-7786
lassificeerd	-7787
▁dyskeratose	-7788
▁gezamenlijk	-7789
opathologisch	-7790
▁Ascitesvocht	-7791
▁Vermoedelijk	-7792
▁beeldvorming	-7793
▁fibroadipeus	-7794
omorfologische	-7795
▁Samengestelde	-7796
▁acanthotische	-7797
▁gepigmenteerd	-7798
▁immunologisch	-7799
▁intimafibrose	-7800
▁keratinocyten	-7801
▁Tonsillectomie	-7802
NO	-7803
SV	-7804
fs	-7805
vo	-7806
235	-7807
Nav	-7808
Rad	-7809
ain	-7810
oca	-7811
sec	-7812
zyg	-7813
▁4[	-7814
▁IX	-7815
▁MU	-7816
▁bi	-7817
▁ou	-7818
▁pE	-7819
▁sh	-7820
1800	-7821
band	-7822
deel	-7823
dont	-7824
igus	-7825
niet	-7826
open	-7827
path	-7828
ppen	-7829
reig	-7830
▁AML	-7831
▁wit	-7832
OMPON	-7833
adher	-7834
aklep	-7835
datum	-7836
draad	-7837
inker	-7838
leven	-7839
omast	-7840
oment	-7841
roces	-7842
▁2019	-7843
▁eind	-7844
▁feit	-7845
▁scab	-7846
▁uter	-7847
Double	-7848
ageale	-7849
alking	-7850
enties	-7851
ibulum	-7852
ysteem	-7853
▁diver	-7854
▁geloc	-7855
▁opgeb	-7856
▁overg	-7857
▁pariA	-7858
handeld	-7859
▁pulmon	-7860
▁ruimte	-7861
▁wijzen	-7862
OMPONENT	-7863
adherine	-7864
gebleven	-7865
▁Candida	-7866
▁Douglas	-7867
▁INVASIE	-7868
▁Slechts	-7869
▁nodosum	-7870
Opmerking	-7871
▁Diagnose	-7872
▁gespecif	-7873
▁horizont	-7874
▁hypofyse	-7875
▁iliacaal	-7876
▁innemend	-7877
▁ligament	-7878
▁lymfoAde	-7879
▁mondhoek	-7880
▁partieel	-7881
▁trigonum	-7882
▁Invasieve	-7883
▁Plaveisel	-7884
▁minuscule	-7885
▁vaginatop	-7886
encylinders	-7887
reslowdikte	-7888
▁Ontsteking	-7889
▁aanbevolen	-7890
▁foveolaire	-7891
▁fundustype	-7892
▁gemetastas	-7893
▁pilomatrix	-7894
▁prikkeling	-7895
▁prostatica	-7896
▁aangrenzend	-7897
▁malformatie	-7898
▁peritoneale	-7899
▁satellitose	-7900
▁uitgebluste	-7901
▁prepylorisch	-7902
▁erythematodes	-7903
▁hoofdbronchus	-7904
▁regeneratieve	-7905
▁verschillende	-7906
▁chorionvlokken	-7907
▁wangslijmvlies	-7908
▁Levernaaldbiopt	-7909
▁adnexextirpatie	-7910
▁oorspronkelijke	-7911
FD	-7912
GG	-7913
OX	-7914
Sp	-7915
]5	-7916
135	-7917
147	-7918
FNA	-7919
]20	-7920
afw	-7921
ekk	-7922
sis	-7923
wab	-7924
▁46	-7925
▁52	-7926
▁AS	-7927
▁un	-7928
1821	-7929
2020	-7930
DIFF	-7931
Diep	-7932
ENFD	-7933
EUZE	-7934
aart	-7935
dood	-7936
ilia	-7937
oont	-7938
terk	-7939
▁347	-7940
▁Gem	-7941
▁POS	-7942
▁TOT	-7943
▁aug	-7944
▁elk	-7945
▁hum	-7946
▁ond	-7947
GRAAD	-7948
anale	-7949
dtype	-7950
terne	-7951
undel	-7952
▁Fuhr	-7953
▁GNAS	-7954
▁Prim	-7955
▁SMAR	-7956
▁dVIN	-7957
▁mill	-7958
▁rood	-7959
▁rose	-7960
arieel	-7961
oderma	-7962
rechts	-7963
rocyst	-7964
screen	-7965
umeper	-7966
zekere	-7967
▁DLBCL	-7968
▁Enige	-7969
▁IENFD	-7970
▁bijna	-7971
▁ident	-7972
▁jicht	-7973
▁lamel	-7974
▁laten	-7975
▁odont	-7976
▁reads	-7977
▁tibia	-7978
▁trach	-7979
gerelat	-7980
wijderd	-7981
▁microb	-7982
▁polycl	-7983
▁waarna	-7984
Beenmerg	-7985
DIFFEREN	-7986
TIEGRAAD	-7987
gressief	-7988
▁daarvan	-7989
▁dijbeen	-7990
▁grootte	-7991
adjuvante	-7992
omenpanel	-7993
ratervorm	-7994
specifiek	-7995
▁Synovium	-7996
▁cystitis	-7997
▁fimbriae	-7998
▁intermed	-7999
▁prothese	-8000
▁romphuid	-8001
Groeiwijze	-8002
▁bloederig	-8003
▁ischaemie	-8004
▁minuscuul	-8005
infiltratie	-8006
▁Sneeranden	-8007
▁kenmerkend	-8008
▁millimeter	-8009
▁posterieur	-8010
▁rechteroor	-8011
histiocytose	-8012
▁Maligniteit	-8013
▁afgehandeld	-8014
▁astrocytoom	-8015
▁ductaaltype	-8016
▁erytropoese	-8017
▁gemedieerde	-8018
▁nietactieve	-8019
▁orderproces	-8020
▁paratubaire	-8021
▁verminderde	-8022
▁Aanwezigheid	-8023
▁endocarditis	-8024
▁erythrocyten	-8025
▁ectocervicale	-8026
▁macronodulair	-8027
▁Transurethrale	-8028
▁blastentoename	-8029
▁geamplificeerd	-8030
▁gedegenereerde	-8031
▁gespecificeerd	-8032
▁Mammanaaldbiopt	-8033
▁familieanamnese	-8034
▁geclassificeerd	-8035
31	-8036
116	-8037
168	-8038
225	-8039
ALT	-8040
Gra	-8041
ITE	-8042
PER	-8043
Pla	-8044
RET	-8045
bul	-8046
chr	-8047
hag	-8048
ril	-8049
tub	-8050
▁6[	-8051
▁Ob	-8052
GNOS	-8053
ebru	-8054
erig	-8055
ordt	-8056
part	-8057
vent	-8058
▁AKT	-8059
▁CPS	-8060
▁Fib	-8061
▁Mil	-8062
▁RAD	-8063
▁RAS	-8064
▁VAN	-8065
ITIEF	-8066
derde	-8067
okele	-8068
ulaat	-8069
▁Pity	-8070
▁Rest	-8071
▁Vent	-8072
▁nerv	-8073
bladen	-8074
kingen	-8075
raagde	-8076
▁breed	-8077
▁evalu	-8078
▁glans	-8079
▁hilus	-8080
▁polym	-8081
▁probe	-8082
ebruari	-8083
oriatie	-8084
▁Pylori	-8085
▁Sperma	-8086
▁aanleg	-8087
▁follow	-8088
▁groter	-8089
▁infect	-8090
▁straal	-8091
breiding	-8092
itoneaal	-8093
lceratie	-8094
racheaal	-8095
▁DIAGNOS	-8096
▁KRASgen	-8097
▁Ventana	-8098
▁bewerkt	-8099
▁cirrose	-8100
▁diverse	-8101
▁krabben	-8102
abiliteit	-8103
rocystoom	-8104
▁POSITIEF	-8105
▁trombose	-8106
▁tumortje	-8107
chronische	-8108
eentumoren	-8109
omelanosis	-8110
▁Subcutane	-8111
▁blaaswand	-8112
▁cervicale	-8113
▁dilatatie	-8114
▁genitalis	-8115
▁markering	-8116
▁thoracale	-8117
▁tongbasis	-8118
ytrocyturie	-8119
▁geprikkeld	-8120
▁indefinite	-8121
roliferatief	-8122
▁adenomateus	-8123
▁fibrosering	-8124
▁mycobacteri	-8125
▁submucosale	-8126
▁traumatisch	-8127
umepercentage	-8128
▁Universitair	-8129
▁neoadjuvante	-8130
▁plasmocytose	-8131
▁zegelringcel	-8132
▁cervixbiopten	-8133
▁gelokaliseerd	-8134
▁insectensteek	-8135
▁overexpressie	-8136
▁translocaties	-8137
▁vergelijkbaar	-8138
Voorbehandeling	-8139
▁achtergebleven	-8140
▁subepitheliale	-8141
07	-8142
NI	-8143
112	-8144
123	-8145
158	-8146
215	-8147
610	-8148
Ala	-8149
elv	-8150
jac	-8151
wak	-8152
▁67	-8153
▁85	-8154
▁El	-8155
▁NE	-8156
▁ol	-8157
brug	-8158
este	-8159
inec	-8160
kant	-8161
utel	-8162
▁NET	-8163
▁QIA	-8164
▁Sec	-8165
▁Sol	-8166
▁exp	-8167
ITEIT	-8168
erdep	-8169
extra	-8170
helix	-8171
hepat	-8172
iment	-8173
olyse	-8174
reken	-8175
spier	-8176
ullen	-8177
wicht	-8178
▁Mond	-8179
▁Mult	-8180
▁UICC	-8181
▁herh	-8182
▁juli	-8183
derend	-8184
erkwab	-8185
ietran	-8186
ijpjes	-8187
kapsel	-8188
lottis	-8189
ortusc	-8190
otheel	-8191
ukbeen	-8192
▁eiwit	-8193
▁geser	-8194
▁holte	-8195
▁rosea	-8196
VENEUZE	-8197
eerdere	-8198
odermie	-8199
▁emfyse	-8200
▁fascie	-8201
▁levern	-8202
▁mature	-8203
▁nervus	-8204
▁parast	-8205
▁pyelum	-8206
▁resist	-8207
▁syring	-8208
▁vervet	-8209
▁zullen	-8210
Prostaat	-8211
SNIJVLAK	-8212
aginatie	-8213
jaculaat	-8214
utelbeen	-8215
▁centrif	-8216
▁dysmorf	-8217
▁heupkop	-8218
▁hiermee	-8219
▁ligging	-8220
▁melanof	-8221
▁villeus	-8222
▁compacte	-8223
▁minstens	-8224
▁neusbrug	-8225
receptoren	-8226
▁Microscop	-8227
▁QIAscreen	-8228
▁carcinoid	-8229
▁digniteit	-8230
▁goedmatig	-8231
▁hetzelfde	-8232
▁interface	-8233
deficientie	-8234
snijvlakken	-8235
▁GEWIJZIGDE	-8236
▁Receptoren	-8237
▁embryonaal	-8238
▁epididymis	-8239
▁mechanisch	-8240
▁mesangiale	-8241
▁nauwelijks	-8242
▁Nefrectomie	-8243
▁fibrotische	-8244
▁linkerflank	-8245
▁serologisch	-8246
Poliepectomie	-8247
classificatie	-8248
microscopisch	-8249
▁dermoidcyste	-8250
▁maagresectie	-8251
▁neusbijholte	-8252
▁noodzakelijk	-8253
transplantatie	-8254
▁Erytrocyturie	-8255
▁metastatische	-8256
▁Buikspoelvocht	-8257
▁adenocarcinoma	-8258
▁duodenummucosa	-8259
▁tumorkenmerken	-8260
▁vriesmateriaal	-8261
▁HPVnegatieftext	-8262
92	-8263
EA	-8264
to	-8265
204	-8266
22[	-8267
858	-8268
Reg	-8269
ahl	-8270
dak	-8271
isk	-8272
▁IG	-8273
▁RM	-8274
▁lu	-8275
▁pH	-8276
2000	-8277
RALE	-8278
atte	-8279
fund	-8280
heem	-8281
imer	-8282
iren	-8283
jwlp	-8284
loge	-8285
ouch	-8286
ozyg	-8287
raum	-8288
▁EMR	-8289
▁amp	-8290
▁ham	-8291
▁nam	-8292
▁okt	-8293
▁vor	-8294
Colon	-8295
ECTIE	-8296
]2015	-8297
ahler	-8298
allux	-8299
corne	-8300
delen	-8301
inden	-8302
isier	-8303
junum	-8304
▁Kras	-8305
▁NIET	-8306
▁SMAD	-8307
▁Zoom	-8308
▁corp	-8309
▁dyst	-8310
▁glab	-8311
▁prec	-8312
▁vest	-8313
delins	-8314
elitis	-8315
inales	-8316
kernig	-8317
▁Tubae	-8318
▁alien	-8319
▁amorf	-8320
▁glaas	-8321
▁intro	-8322
▁necro	-8323
▁parap	-8324
▁ruber	-8325
▁subst	-8326
reikend	-8327
zijwand	-8328
▁Bauhin	-8329
▁Overwe	-8330
▁adnexa	-8331
▁discre	-8332
▁fusies	-8333
▁hallux	-8334
▁opbouw	-8335
▁sepsis	-8336
Protocol	-8337
emporaal	-8338
lateraal	-8339
obductie	-8340
radenoom	-8341
spatroon	-8342
▁bevindt	-8343
▁globale	-8344
▁hilaire	-8345
▁ondanks	-8346
▁verwant	-8347
▁adenosis	-8348
▁antiEGFR	-8349
▁cholangi	-8350
▁februari	-8351
▁gewricht	-8352
▁kleinste	-8353
▁locaties	-8354
▁mucokele	-8355
▁oorzaken	-8356
▁patiAnte	-8357
▁serosale	-8358
Zijdigheid	-8359
pathologie	-8360
verwijderd	-8361
▁antracose	-8362
▁deciduale	-8363
▁discontin	-8364
▁dysplasia	-8365
▁immunocyt	-8366
▁infarcten	-8367
▁omgevende	-8368
▁opgebouwd	-8369
▁reAxcisie	-8370
▁restanten	-8371
▁seminales	-8372
▁verhoogde	-8373
localisatie	-8374
▁Kleuringen	-8375
▁alveolaire	-8376
▁excoriatie	-8377
▁hechtdraad	-8378
▁maagcardia	-8379
▁motiliteit	-8380
▁overeenkom	-8381
▁strekzijde	-8382
▁vruchtdood	-8383
laboratorium	-8384
▁Sneevlakken	-8385
▁Verrichting	-8386
▁abortusrest	-8387
▁cholangitis	-8388
▁nefrectomie	-8389
▁oedemateuze	-8390
▁rechterlies	-8391
▁subtypering	-8392
▁periorbitaal	-8393
▁spermatozoon	-8394
▁voorafgaande	-8395
▁Speekselklier	-8396
▁contactallerg	-8397
▁hypocellulair	-8398
▁nietspecifiek	-8399
▁significantie	-8400
▁stembandpoliep	-8401
▁pseudomelanosis	-8402
BX	-8403
CN	-8404
fl	-8405
118	-8406
207	-8407
21[	-8408
BXW	-8409
Cel	-8410
Lys	-8411
Oes	-8412
▁LV	-8413
▁Pe	-8414
▁Vr	-8415
▁cy	-8416
▁pQ	-8417
1215	-8418
INEU	-8419
aang	-8420
eers	-8421
iast	-8422
inea	-8423
inib	-8424
oard	-8425
omed	-8426
roph	-8427
▁Muc	-8428
▁TBC	-8429
▁XII	-8430
▁ben	-8431
▁don	-8432
▁dur	-8433
▁hog	-8434
▁vit	-8435
▁wig	-8436
chond	-8437
erapp	-8438
oging	-8439
▁MALT	-8440
▁beel	-8441
▁data	-8442
▁form	-8443
▁naad	-8444
▁sigm	-8445
▁wein	-8446
▁zelf	-8447
BBLBBL	-8448
KSFJSL	-8449
arcell	-8450
orient	-8451
staart	-8452
vinger	-8453
▁allen	-8454
▁alles	-8455
▁bestr	-8456
▁bursa	-8457
▁infra	-8458
▁methy	-8459
▁ongem	-8460
▁plana	-8461
▁vroeg	-8462
Ingroei	-8463
PERINEU	-8464
emateus	-8465
ogranul	-8466
osering	-8467
▁Kahler	-8468
▁concha	-8469
▁multin	-8470
▁suppur	-8471
vormende	-8472
▁cytogen	-8473
▁eccrien	-8474
▁element	-8475
▁jukbeen	-8476
▁senilis	-8477
▁uiterst	-8478
bevinding	-8479
gastritis	-8480
neoplasie	-8481
rosarcoom	-8482
▁Spoeling	-8483
▁apocrien	-8484
▁begeleid	-8485
▁centrifu	-8486
▁cytoplas	-8487
▁glabella	-8488
▁ijzerdep	-8489
▁intramuc	-8490
▁onzekere	-8491
▁polymorf	-8492
▁verbreed	-8493
deposities	-8494
ethylation	-8495
ethylering	-8496
rospinalis	-8497
▁Onderzoek	-8498
▁elastosis	-8499
▁fusietran	-8500
▁ingeblokt	-8501
▁onderpool	-8502
PERINEURALE	-8503
▁Sequencing	-8504
▁Somatische	-8505
▁bevestigen	-8506
▁discordant	-8507
▁incomplete	-8508
▁vaatlaesie	-8509
iagnostische	-8510
▁Beentumoren	-8511
▁claviculair	-8512
▁conjunctiva	-8513
▁cystoscopie	-8514
▁dieptegroei	-8515
▁mastocytose	-8516
▁monoklonale	-8517
▁sleutelbeen	-8518
TUMORDIAMETER	-8519
antwoordelijk	-8520
▁gecombineerd	-8521
▁gedeeltelijk	-8522
▁lymfoompanel	-8523
▁mammabiopten	-8524
▁seborrhoische	-8525
▁vasculopathie	-8526
▁galsteenlijden	-8527
▁cerebrospinalis	-8528
▁linkerbovenkwab	-8529
▁rectumcarcinoom	-8530
PD	-8531
Sw	-8532
UC	-8533
214	-8534
23[	-8535
790	-8536
AND	-8537
ITU	-8538
Leu	-8539
TIA	-8540
eps	-8541
gek	-8542
ish	-8543
pen	-8544
soc	-8545
▁DE	-8546
▁MK	-8547
▁PZ	-8548
▁pN	-8549
AFST	-8550
ISUP	-8551
ober	-8552
orta	-8553
sens	-8554
▁HSV	-8555
▁fix	-8556
▁pgv	-8557
ISCHE	-8558
Lever	-8559
_0005	-8560
aceus	-8561
colon	-8562
fusie	-8563
ittek	-8564
komst	-8565
menop	-8566
oorde	-8567
oraal	-8568
plaat	-8569
reden	-8570
▁ANCA	-8571
▁Hart	-8572
▁SITU	-8573
Cervix	-8574
atient	-8575
etreft	-8576
iculus	-8577
oideum	-8578
ollete	-8579
ostose	-8580
reigde	-8581
streek	-8582
trofie	-8583
ulares	-8584
▁afmet	-8585
▁domin	-8586
▁geAnd	-8587
▁inact	-8588
▁kopie	-8589
▁lumen	-8590
▁meden	-8591
▁plant	-8592
▁supra	-8593
▁wijst	-8594
AFSTAND	-8595
eptorst	-8596
erappor	-8597
geblokt	-8598
inische	-8599
obuline	-8600
ochemie	-8601
ogenese	-8602
yndroom	-8603
▁Coecum	-8604
▁contra	-8605
▁erytro	-8606
▁glioom	-8607
▁herpes	-8608
▁hydrop	-8609
▁residu	-8610
▁subser	-8611
▁tuberc	-8612
▁vezels	-8613
Duodenum	-8614
esionaal	-8615
omatosis	-8616
▁Fuhrman	-8617
▁Lowrisk	-8618
▁beelden	-8619
▁oktober	-8620
▁scabies	-8621
amputatie	-8622
apsulaire	-8623
okleuring	-8624
scapulair	-8625
▁Abortusc	-8626
▁Highrisk	-8627
▁Musculus	-8628
▁blaasdak	-8629
▁bulleuze	-8630
▁december	-8631
▁gevallen	-8632
▁metastas	-8633
▁namelijk	-8634
▁neusgang	-8635
▁verdikte	-8636
▁verhoogd	-8637
lymfocyten	-8638
▁Commissie	-8639
▁Genetisch	-8640
▁Hiernaast	-8641
▁anusbiopt	-8642
▁bedreigde	-8643
▁blastaire	-8644
▁deciduaal	-8645
▁decollete	-8646
▁endometro	-8647
▁lichenoid	-8648
▁opmerking	-8649
▁patiAnten	-8650
▁plasmacyt	-8651
▁terminaal	-8652
▁transuret	-8653
DIFFERENTIA	-8654
Localisatie	-8655
eptorstatus	-8656
▁Spoelvocht	-8657
▁bijkomende	-8658
▁centimeter	-8659
▁fibrotisch	-8660
▁ingestuurd	-8661
▁onvolledig	-8662
▁osteochond	-8663
▁submammair	-8664
▁vestibulum	-8665
gerelateerde	-8666
▁centrifugum	-8667
▁schildwacht	-8668
▁hidrocystoom	-8669
▁parasternaal	-8670
▁romphuidtype	-8671
▁Slokdarmbiopt	-8672
▁interstitiAle	-8673
▁maagcarcinoom	-8674
▁papillomatose	-8675
▁poliepexcisie	-8676
▁gemetastaseerd	-8677
▁hematopoetisch	-8678
▁macrometastase	-8679
▁schouderbladen	-8680
epitheliomateuze	-8681
04	-8682
06	-8683
AC	-8684
BM	-8685
DR	-8686
IL	-8687
PT	-8688
WZ	-8689
ii	-8690
003	-8691
113	-8692
145	-8693
Aan	-8694
KEN	-8695
MMR	-8696
ian	-8697
ody	-8698
ott	-8699
▁BA	-8700
▁CO	-8701
▁FL	-8702
▁Gl	-8703
▁Me	-8704
▁WE	-8705
domy	-8706
eikt	-8707
iene	-8708
inds	-8709
omuc	-8710
omyx	-8711
prom	-8712
rect	-8713
verk	-8714
zaam	-8715
▁CDH	-8716
▁CWZ	-8717
▁Ext	-8718
▁HLA	-8719
▁IgM	-8720
▁MPN	-8721
▁SMO	-8722
▁eth	-8723
▁kor	-8724
▁plm	-8725
▁spl	-8726
▁vat	-8727
breng	-8728
icans	-8729
oesof	-8730
olent	-8731
omale	-8732
umber	-8733
ustus	-8734
▁EBER	-8735
▁Prep	-8736
▁Vacu	-8737
▁ecto	-8738
▁luid	-8739
▁spit	-8740
▁tijd	-8741
KSFMMA	-8742
chrift	-8743
schors	-8744
stroma	-8745
▁Fibro	-8746
▁Oment	-8747
▁geimp	-8748
▁nates	-8749
▁parac	-8750
brengst	-8751
ellicht	-8752
eringen	-8753
omastie	-8754
rothese	-8755
stadium	-8756
stolsel	-8757
▁Aangev	-8758
▁Status	-8759
▁anemie	-8760
▁herpet	-8761
▁intact	-8762
▁lymfop	-8763
▁velden	-8764
▁zwakke	-8765
corneale	-8766
ervicale	-8767
genoemde	-8768
iotische	-8769
olymfoom	-8770
onecrose	-8771
ongorood	-8772
otypisch	-8773
rosporum	-8774
▁Brunner	-8775
▁alienum	-8776
▁avitale	-8777
▁gescand	-8778
▁weinige	-8779
oscopisch	-8780
stapeling	-8781
▁alhoewel	-8782
▁augustus	-8783
▁cardiomy	-8784
▁fenotype	-8785
▁inferior	-8786
▁nagenoeg	-8787
▁toxische	-8788
▁verbrede	-8789
generatief	-8790
▁Terminale	-8791
▁aortaklep	-8792
▁clearcell	-8793
▁middelste	-8794
▁pariAtaal	-8795
▁patholoog	-8796
▁waarnaast	-8797
Endometrium	-8798
▁Actinische	-8799
▁aangewezen	-8800
▁anterieure	-8801
▁irritatief	-8802
▁kapseldoor	-8803
▁kratervorm	-8804
▁lobectomie	-8805
▁myelopoese	-8806
▁odontogene	-8807
▁zogenaamde	-8808
verschuiving	-8809
▁Serologisch	-8810
▁geAndiceerd	-8811
▁gebiopteerd	-8812
▁geisoleerde	-8813
▁irregulaire	-8814
▁myocarditis	-8815
▁basosquameus	-8816
▁doorsnijding	-8817
▁rechterflank	-8818
▁rechteroksel	-8819
▁sclerodermie	-8820
▁Histologische	-8821
▁herpetiformis	-8822
▁instabiliteit	-8823
▁radiologische	-8824
▁fusietranscript	-8825
▁littekenreactie	-8826
▁lymfadenopathie	-8827
BR	-8828
Be	-8829
my	-8830
nl	-8831
105	-8832
136	-8833
137	-8834
13[	-8835
155	-8836
495	-8837
GEP	-8838
NEU	-8839
PIE	-8840
Rec	-8841
THO	-8842
VEL	-8843
auz	-8844
eil	-8845
flr	-8846
gde	-8847
koa	-8848
odu	-8849
opy	-8850
▁7[	-8851
▁89	-8852
▁IP	-8853
▁LP	-8854
▁MF	-8855
2573	-8856
Daar	-8857
ERDE	-8858
HERA	-8859
Hist	-8860
Weke	-8861
emia	-8862
iard	-8863
oper	-8864
orac	-8865
orse	-8866
trof	-8867
ulde	-8868
utum	-8869
vill	-8870
▁EZH	-8871
▁HMC	-8872
▁Ond	-8873
▁car	-8874
▁nef	-8875
▁oss	-8876
▁tag	-8877
ender	-8878
hemat	-8879
hesie	-8880
ilich	-8881
medic	-8882
nodus	-8883
volve	-8884
▁FSGS	-8885
▁POLE	-8886
▁TBNA	-8887
▁gall	-8888
aanget	-8889
andard	-8890
arcoma	-8891
artoom	-8892
carina	-8893
eelsen	-8894
ergens	-8895
kernen	-8896
▁Extra	-8897
▁LEVEL	-8898
▁PATHO	-8899
▁THERA	-8900
▁april	-8901
▁geret	-8902
▁index	-8903
▁kloon	-8904
▁pouch	-8905
▁sinon	-8906
iceerde	-8907
▁Merkel	-8908
▁SMARCB	-8909
▁Ureter	-8910
▁beiden	-8911
▁plaque	-8912
▁ruimer	-8913
▁solair	-8914
▁subcar	-8915
▁trombi	-8916
▁uitlop	-8917
adenitis	-8918
soriasis	-8919
▁geduide	-8920
▁groepje	-8921
▁jejunum	-8922
▁lichaam	-8923
▁mediane	-8924
▁organen	-8925
▁uterina	-8926
▁valvula	-8927
Varianten	-8928
iardiasis	-8929
oblastoom	-8930
okeratose	-8931
▁contamin	-8932
▁exostose	-8933
▁fractuur	-8934
▁gestuurd	-8935
▁operatie	-8936
▁Ingeblokt	-8937
▁Keratosis	-8938
▁amputatie	-8939
▁gesteelde	-8940
▁maagbiopt	-8941
▁myopathie	-8942
▁neoplasma	-8943
▁ontbreekt	-8944
otidectomie	-8945
▁cardiatype	-8946
▁herkenbare	-8947
▁organismen	-8948
▁reumatoide	-8949
▁verrichten	-8950
▁verwachten	-8951
histologisch	-8952
▁Actinomyces	-8953
▁aansnijding	-8954
▁oncocytaire	-8955
▁parasitaire	-8956
▁periportale	-8957
▁spoelcellig	-8958
▁urotheelcel	-8959
Invasiediepte	-8960
▁hidradenitis	-8961
▁xanthogranul	-8962
▁Sigmoidbiopten	-8963
▁gelocaliseerde	-8964
▁lymfklierbiopt	-8965
▁macroscopische	-8966
▁celproliferatie	-8967
▁cholesterolosis	-8968
▁littekenachtige	-8969
▁naevocellulares	-8970
42	-8971
AX	-8972
TO	-8973
WK	-8974
lo	-8975
15[	-8976
219	-8977
AKO	-8978
MBP	-8979
TYH	-8980
occ	-8981
ruk	-8982
sbe	-8983
2010	-8984
2100	-8985
Scan	-8986
TUMP	-8987
able	-8988
kers	-8989
ourn	-8990
rikt	-8991
▁FLT	-8992
▁NPM	-8993
▁PAR	-8994
▁RMK	-8995
▁VHL	-8996
▁mig	-8997
▁ypT	-8998
▁zsm	-8999
▁zyg	-9000
17025	-9001
aries	-9002
index	-9003
otica	-9004
▁1214	-9005
▁DAKO	-9006
▁Epid	-9007
▁Hals	-9008
▁Laag	-9009
▁alve	-9010
▁ligt	-9011
▁naam	-9012
▁snel	-9013
CBDJSL	-9014
KSFEHE	-9015
MBPver	-9016
auzaal	-9017
iefase	-9018
opisch	-9019
promot	-9020
sbewak	-9021
▁INTER	-9022
▁MUTYH	-9023
▁Ziehl	-9024
▁geden	-9025
▁groen	-9026
▁nemen	-9027
▁snede	-9028
▁staan	-9029
▁stoma	-9030
eratuur	-9031
esneden	-9032
estatie	-9033
icaties	-9034
oduoden	-9035
omeScan	-9036
welling	-9037
▁Dermat	-9038
▁Grover	-9039
▁fecaal	-9040
▁gladde	-9041
▁helaas	-9042
▁mammae	-9043
▁opmerk	-9044
▁rondes	-9045
▁schaam	-9046
_0005465	-9047
ibraries	-9048
ourneerd	-9049
▁Bcellen	-9050
▁gallige	-9051
▁inziens	-9052
▁midline	-9053
▁necrobi	-9054
▁special	-9055
▁stukjes	-9056
▁transit	-9057
CONCLUSIE	-9058
Daarnaast	-9059
ditionele	-9060
sbewaking	-9061
▁THERAPIE	-9062
▁arteriol	-9063
▁chemorad	-9064
▁inzender	-9065
▁partiAle	-9066
▁sebaceus	-9067
▁verloren	-9068
opatholoog	-9069
▁Multipele	-9070
▁Preputium	-9071
▁ejaculaat	-9072
▁evaluatie	-9073
▁introitus	-9074
▁relevante	-9075
▁september	-9076
▁sprietige	-9077
beoordeling	-9078
olipectomie	-9079
▁Blaasbiopt	-9080
▁aggregaten	-9081
▁colonbiopt	-9082
▁obstructie	-9083
▁pigmentosa	-9084
▁sigmoideum	-9085
▁sneeranden	-9086
▁vulvabiopt	-9087
aanwezigheid	-9088
▁Beoordeling	-9089
▁aangeleverd	-9090
▁membraneuze	-9091
▁methylering	-9092
▁monoclonale	-9093
▁placentaire	-9094
▁predictieve	-9095
▁resistentie	-9096
▁Bovenstaande	-9097
▁Incisiebiopt	-9098
▁Leverbiopten	-9099
▁Mammaexcisie	-9100
▁NSAIDgebruik	-9101
▁contaminatie	-9102
▁darmresectie	-9103
▁haardvormige	-9104
▁huidsnijvlak	-9105
▁idiopathisch	-9106
▁rectosigmoAd	-9107
▁secretiefase	-9108
▁Endocervicaal	-9109
▁detecteerbaar	-9110
▁geretourneerd	-9111
▁gynaecomastie	-9112
▁pilomatrixoom	-9113
▁karakteristiek	-9114
▁spermatogenese	-9115
ingslaboratorium	-9116
▁incidentiedatum	-9117
81	-9118
Cw	-9119
Th	-9120
VA	-9121
134	-9122
157	-9123
167	-9124
174	-9125
216	-9126
ELL	-9127
FTA	-9128
GGP	-9129
PEC	-9130
ULT	-9131
bet	-9132
dys	-9133
eem	-9134
ius	-9135
ung	-9136
▁AF	-9137
▁AZ	-9138
▁Ca	-9139
▁cM	-9140
▁ra	-9141
erus	-9142
gist	-9143
ling	-9144
pjes	-9145
rens	-9146
stij	-9147
umab	-9148
ynge	-9149
▁90[	-9150
▁CSF	-9151
▁JTH	-9152
▁MRI	-9153
▁SRC	-9154
▁TCR	-9155
▁Wig	-9156
▁ent	-9157
▁jug	-9158
▁var	-9159
▁weg	-9160
Onder	-9161
creas	-9162
domin	-9163
falen	-9164
hyfen	-9165
ichen	-9166
iling	-9167
ipoom	-9168
ircum	-9169
melan	-9170
micro	-9171
sluit	-9172
▁IFTA	-9173
▁LSIL	-9174
▁LVSI	-9175
▁OGGP	-9176
▁Tran	-9177
▁like	-9178
▁myof	-9179
▁pGln	-9180
▁quad	-9181
▁wijz	-9182
Status	-9183
status	-9184
tussen	-9185
verage	-9186
ximale	-9187
▁Casus	-9188
▁anale	-9189
▁angio	-9190
▁class	-9191
▁crani	-9192
▁famil	-9193
▁macro	-9194
▁sperm	-9195
conform	-9196
ingroei	-9197
▁Arteri	-9198
▁benign	-9199
▁gemeld	-9200
▁hemith	-9201
▁oudere	-9202
▁sporen	-9203
▁versus	-9204
areolair	-9205
▁Beperkt	-9206
▁Interne	-9207
▁amyloAd	-9208
▁directe	-9209
▁ethmoid	-9210
▁lymfoAd	-9211
▁oorrand	-9212
▁signaal	-9213
▁systeem	-9214
cellipoom	-9215
indicatie	-9216
iteratuur	-9217
obectomie	-9218
ogeniteit	-9219
ventrikel	-9220
volvement	-9221
▁bloedvat	-9222
▁gerappor	-9223
▁herhaald	-9224
▁promoter	-9225
▁seminoom	-9226
▁solitair	-9227
▁sprieten	-9228
▁tekening	-9229
▁typische	-9230
▁verheven	-9231
metastasen	-9232
▁Aangezien	-9233
▁COMPONENT	-9234
▁LYMFKLIER	-9235
▁bacteriAn	-9236
▁huidstans	-9237
▁leverkwab	-9238
▁libraries	-9239
▁naevuscel	-9240
▁uitslagen	-9241
▁verklaard	-9242
fragmentjes	-9243
menopauzaal	-9244
schikkingen	-9245
▁anderszins	-9246
▁bilaterale	-9247
▁restlaesie	-9248
▁rondkernig	-9249
Cytologische	-9250
▁Progesteron	-9251
▁ductectasie	-9252
▁echogeleide	-9253
▁horizontale	-9254
▁linkerslaap	-9255
▁losliggende	-9256
▁sarcomatoid	-9257
transplantaat	-9258
▁bloedverlies	-9259
▁dermatologie	-9260
▁gebiopteerde	-9261
▁ijzerpigment	-9262
▁klierstation	-9263
▁overliggende	-9264
▁periadnexale	-9265
▁Poliepexcisie	-9266
▁gecombineerde	-9267
▁gemengdcellig	-9268
▁longparenchym	-9269
▁peroperatieve	-9270
▁pseudolymfoom	-9271
▁chondrosarcoom	-9272
▁immunofenotype	-9273
▁klierparenchym	-9274
▁lymfoplasmacyt	-9275
▁mesotheelcellen	-9276
09	-9277
CE	-9278
DP	-9279
PN	-9280
SS	-9281
114	-9282
196	-9283
234	-9284
Twe	-9285
Uit	-9286
mal	-9287
pol	-9288
rem	-9289
urt	-9290
▁59	-9291
▁ic	-9292
▁ty	-9293
2022	-9294
Naar	-9295
ONCH	-9296
PONS	-9297
icat	-9298
irus	-9299
olom	-9300
oupe	-9301
pura	-9302
roof	-9303
▁50[	-9304
▁CEA	-9305
▁CIC	-9306
▁Col	-9307
▁KDR	-9308
▁MZH	-9309
▁NEO	-9310
▁PAP	-9311
▁PSA	-9312
▁myo	-9313
▁tun	-9314
UITEN	-9315
arran	-9316
erans	-9317
estis	-9318
gende	-9319
gnost	-9320
lacht	-9321
ocyst	-9322
oduli	-9323
okaal	-9324
ulent	-9325
werkt	-9326
zover	-9327
▁Disc	-9328
▁drug	-9329
▁geAx	-9330
▁prog	-9331
▁wild	-9332
ergill	-9333
eringe	-9334
gement	-9335
infarc	-9336
laimer	-9337
osider	-9338
preken	-9339
▁Grade	-9340
▁Sterk	-9341
▁antib	-9342
▁driet	-9343
▁eigen	-9344
▁korte	-9345
▁luidt	-9346
▁ogend	-9347
▁peric	-9348
▁techn	-9349
▁tyros	-9350
▁vezel	-9351
RESPONS	-9352
eosinof	-9353
heliale	-9354
omatosa	-9355
orrelia	-9356
ovarium	-9357
ringing	-9358
urettag	-9359
wendige	-9360
▁AANTAL	-9361
▁BUITEN	-9362
▁Granul	-9363
▁microp	-9364
▁motiel	-9365
▁portio	-9366
▁schuim	-9367
▁vastus	-9368
▁zygoma	-9369
Placenta	-9370
omenteel	-9371
placenta	-9372
▁Mandard	-9373
▁Onzeker	-9374
▁Reikend	-9375
▁clonaal	-9376
▁massaal	-9377
▁overall	-9378
▁vesikel	-9379
Besproken	-9380
eresectie	-9381
reactieve	-9382
▁Douglasi	-9383
▁Kleuring	-9384
▁antilich	-9385
▁bronchop	-9386
▁deleties	-9387
▁genetica	-9388
▁patholog	-9389
▁spoelsel	-9390
▁superior	-9391
▁wildtype	-9392
Naaldbiopt	-9393
bronchiale	-9394
oinvasieve	-9395
otemporaal	-9396
scheenbeen	-9397
▁Anusbiopt	-9398
▁hoornlaag	-9399
▁imponeert	-9400
▁longbiopt	-9401
▁medicatie	-9402
▁relatieve	-9403
arrangement	-9404
hypertrofie	-9405
▁Aangevulde	-9406
▁PATHOLOGIE	-9407
▁cystevocht	-9408
▁inhibitors	-9409
▁nasofarynx	-9410
deringsgroep	-9411
ifferentiaal	-9412
ppendectomie	-9413
▁Longbiopten	-9414
▁Lymfklieren	-9415
▁Lymfocytose	-9416
▁aangesneden	-9417
▁afhankelijk	-9418
▁diabetische	-9419
▁invaginatie	-9420
▁linkeroksel	-9421
▁mastectomie	-9422
▁monoclonaal	-9423
▁oppervlakte	-9424
▁respiratoir	-9425
▁tangentiele	-9426
▁Mohsresectie	-9427
▁bloedstolsel	-9428
▁mammapunctie	-9429
▁mesenchymaal	-9430
▁toxischmedic	-9431
▁vastgestelde	-9432
▁colocalisatie	-9433
▁infarceringen	-9434
▁interpreteren	-9435
▁neoplastische	-9436
▁sneevlakmarge	-9437
▁Weefselexcisie	-9438
▁mondslijmvlies	-9439
▁osteochondroom	-9440
▁contraindicatie	-9441
▁medebeoordeling	-9442
▁pseudodeciduale	-9443
1⁄	-9444
Al	-9445
Am	-9446
Sl	-9447
ph	-9448
144	-9449
194	-9450
1⁄4	-9451
ADJ	-9452
IJE	-9453
MIN	-9454
MIS	-9455
Tel	-9456
Tot	-9457
amb	-9458
anu	-9459
aut	-9460
eck	-9461
emt	-9462
sub	-9463
upu	-9464
▁54	-9465
▁72	-9466
▁TS	-9467
2023	-9468
ANTE	-9469
RIJE	-9470
_005	-9471
abed	-9472
cian	-9473
ight	-9474
ocus	-9475
olus	-9476
tief	-9477
uaal	-9478
udio	-9479
verh	-9480
▁448	-9481
▁70[	-9482
▁AAn	-9483
▁Bet	-9484
▁HNF	-9485
▁Hir	-9486
▁NRG	-9487
▁art	-9488
▁cas	-9489
▁red	-9490
▁ren	-9491
2014[	-9492
ADJUV	-9493
Cover	-9494
angio	-9495
codon	-9496
ecrot	-9497
ertie	-9498
iated	-9499
mmers	-9500
oneus	-9501
udaal	-9502
ulier	-9503
upuyt	-9504
usion	-9505
▁LCIS	-9506
▁TURT	-9507
▁band	-9508
▁dent	-9509
▁exof	-9510
▁extr	-9511
▁geAn	-9512
▁glom	-9513
▁meso	-9514
▁morp	-9515
achtig	-9516
bekled	-9517
chatte	-9518
ekenen	-9519
itheel	-9520
ocatie	-9521
riceps	-9522
rictie	-9523
ullair	-9524
▁Board	-9525
▁Ecoli	-9526
▁Links	-9527
▁durum	-9528
▁kapje	-9529
▁komen	-9530
▁labia	-9531
▁recur	-9532
▁schat	-9533
▁staaf	-9534
▁stans	-9535
apicaal	-9536
estudio	-9537
origine	-9538
rombose	-9539
▁Dupuyt	-9540
▁Hirsch	-9541
▁Lichen	-9542
▁Totaal	-9543
▁atroph	-9544
▁beslag	-9545
▁contin	-9546
▁digiti	-9547
▁ducten	-9548
▁hierop	-9549
▁hyperm	-9550
▁kapjes	-9551
▁kinase	-9552
▁nieren	-9553
▁overla	-9554
▁sturen	-9555
▁vorige	-9556
Coverage	-9557
MINIMALE	-9558
Radicaal	-9559
abiopsie	-9560
blastoma	-9561
cideerde	-9562
diagnose	-9563
esionale	-9564
oblasten	-9565
preteerd	-9566
rieterig	-9567
ropoiese	-9568
sociatie	-9569
spoelsel	-9570
stoornis	-9571
▁Celarme	-9572
▁Distale	-9573
▁desmoid	-9574
▁dystrof	-9575
▁hypoxie	-9576
▁ileitis	-9577
▁lokatie	-9578
▁mindere	-9579
▁ongesch	-9580
▁osteomy	-9581
▁wervelk	-9582
ADJUVANTE	-9583
Microscop	-9584
oadenitis	-9585
▁Perifeer	-9586
▁Primaire	-9587
▁biologie	-9588
▁coverage	-9589
▁erfelijk	-9590
▁maagfund	-9591
▁pyoderma	-9592
▁separate	-9593
▁thyreoid	-9594
▁tongpunt	-9595
▁vaatwand	-9596
▁voetrand	-9597
▁wellicht	-9598
Frequentie	-9599
Slijmvlies	-9600
aparenchym	-9601
artefacten	-9602
epidermaal	-9603
evindingen	-9604
isieranden	-9605
kleuringen	-9606
▁Dupuytren	-9607
▁Subcutaan	-9608
▁bespreken	-9609
▁foveolair	-9610
▁hoogstens	-9611
▁insnijden	-9612
▁interfase	-9613
▁lateralis	-9614
▁melanosis	-9615
▁parietale	-9616
▁verslagen	-9617
▁vervallen	-9618
Lymfklieren	-9619
Perineurale	-9620
▁Genestudio	-9621
▁Gewijzigde	-9622
▁Shavebiopt	-9623
▁colectomie	-9624
▁focusscore	-9625
▁ligamentum	-9626
▁linkerlies	-9627
▁quadriceps	-9628
▁receptoren	-9629
▁sequenties	-9630
▁verbreding	-9631
▁verkalking	-9632
amplificatie	-9633
▁Dieptegroei	-9634
▁discontinue	-9635
▁gedenudeerd	-9636
▁hydropische	-9637
▁polyclonale	-9638
▁rechterknie	-9639
▁stoornissen	-9640
▁verdringing	-9641
▁Cervixpoliep	-9642
▁Huidfragment	-9643
▁NEOADJUVANTE	-9644
▁degeneratief	-9645
▁ontwikkeling	-9646
▁comedonecrose	-9647
▁intramucosaal	-9648
▁osteomyelitis	-9649
edifferentieerd	-9650
▁hechtmateriaal	-9651
▁immunokleuring	-9652
▁interscapulair	-9653
▁microinvasieve	-9654
▁spoelcellipoom	-9655
▁stromaceltumor	-9656
▁vaatstructuren	-9657
▁adenomyomateuze	-9658
▁plaveiselcellig	-9659
▁representatieve	-9660
iz	-9661
mv	-9662
pG	-9663
vd	-9664
005	-9665
126	-9666
179	-9667
433	-9668
746	-9669
Sch	-9670
Ter	-9671
cep	-9672
ilf	-9673
jsm	-9674
ldb	-9675
raa	-9676
▁00	-9677
▁AR	-9678
▁CR	-9679
▁EN	-9680
▁Ha	-9681
▁MM	-9682
▁Ne	-9683
▁OS	-9684
▁PL	-9685
▁ih	-9686
▁se	-9687
▁um	-9688
NRAS	-9689
Niet	-9690
cess	-9691
mber	-9692
opii	-9693
rung	-9694
sner	-9695
werk	-9696
▁Gly	-9697
▁Nog	-9698
▁bem	-9699
▁kou	-9700
▁mam	-9701
▁mei	-9702
▁syn	-9703
▁web	-9704
2016[	-9705
erken	-9706
evorm	-9707
ichte	-9708
iciAn	-9709
roren	-9710
terie	-9711
▁2012	-9712
▁2021	-9713
▁Cyst	-9714
▁FBXW	-9715
▁Giem	-9716
▁PTPN	-9717
▁ante	-9718
▁casu	-9719
▁dood	-9720
▁epig	-9721
▁glyc	-9722
▁kort	-9723
▁neot	-9724
▁nove	-9725
▁vele	-9726
arteri	-9727
iteind	-9728
overwe	-9729
sporen	-9730
▁2000[	-9731
▁cheil	-9732
▁lepid	-9733
▁witte	-9734
▁zicht	-9735
aterale	-9736
geleide	-9737
klieren	-9738
opcodon	-9739
wachten	-9740
▁Afwijk	-9741
▁Fusion	-9742
▁Kapsel	-9743
▁beloop	-9744
▁macula	-9745
▁nodule	-9746
▁pustel	-9747
▁thymus	-9748
Mogelijk	-9749
gevoerde	-9750
keratine	-9751
orectaal	-9752
ucocyten	-9753
▁Arteria	-9754
▁Incisie	-9755
▁KMBPver	-9756
▁Ondanks	-9757
▁blijven	-9758
▁cholest	-9759
▁erosief	-9760
▁gegener	-9761
▁humerus	-9762
▁purpura	-9763
bekleding	-9764
blastaire	-9765
verteerde	-9766
▁Borrelia	-9767
▁Hirschsp	-9768
▁SNIJVLAK	-9769
▁alopecie	-9770
▁cardiale	-9771
▁entiteit	-9772
▁haardjes	-9773
▁homogeen	-9774
▁indolent	-9775
▁november	-9776
▁omgevend	-9777
iologische	-9778
▁Atypische	-9779
▁cheilitis	-9780
▁fibroaden	-9781
▁hamartoom	-9782
▁hyalinose	-9783
▁lithiasis	-9784
▁transitie	-9785
degeneratie	-9786
huidexcisie	-9787
istabiopsie	-9788
laviculaire	-9789
ocellularis	-9790
olliculaire	-9791
▁Disclaimer	-9792
▁Extirpatie	-9793
▁FFPEblokje	-9794
▁GenomeScan	-9795
▁incompleet	-9796
▁literatuur	-9797
▁losliggend	-9798
▁verstoorde	-9799
▁voorgaande	-9800
▁zaadcellen	-9801
▁Perineurale	-9802
▁colorectale	-9803
▁diepreikend	-9804
▁gangreneuze	-9805
▁geAxcideerd	-9806
▁geimpetigin	-9807
▁melanofagen	-9808
▁subcarinaal	-9809
▁wervelkolom	-9810
▁apoptotische	-9811
▁excochleatie	-9812
▁rechterslaap	-9813
▁Hysterectomie	-9814
▁Mammapunctaat	-9815
▁eerstvolgende	-9816
▁schimmelhyfen	-9817
▁sialoadenitis	-9818
▁teruggevonden	-9819
Graderingsgroep	-9820
▁gelokaliseerde	-9821
▁intracavitaire	-9822
▁megakaryopoese	-9823
▁subepitheliaal	-9824
ranulatieweefsel	-9825
▁HPVpositieftext	-9826
▁plaveiselcellen	-9827
36	-9828
CP	-9829
Vm	-9830
bN	-9831
lb	-9832
pr	-9833
129	-9834
169	-9835
182	-9836
227	-9837
229	-9838
240	-9839
ABL	-9840
MAX	-9841
Med	-9842
ONS	-9843
Ten	-9844
clu	-9845
esp	-9846
hom	-9847
lux	-9848
mar	-9849
uni	-9850
▁66	-9851
▁99	-9852
▁MA	-9853
▁MB	-9854
▁RE	-9855
▁bp	-9856
▁bv	-9857
▁lo	-9858
▁mo	-9859
▁ox	-9860
▁ww	-9861
alib	-9862
chte	-9863
dige	-9864
erve	-9865
ices	-9866
imab	-9867
kuit	-9868
like	-9869
mine	-9870
odig	-9871
sequ	-9872
zion	-9873
▁30[	-9874
▁437	-9875
▁525	-9876
▁Bcl	-9877
▁Bur	-9878
▁CVU	-9879
▁Ect	-9880
▁Ged	-9881
▁TMB	-9882
▁Thy	-9883
▁VER	-9884
▁WDP	-9885
▁bif	-9886
▁pas	-9887
eurys	-9888
omata	-9889
uptie	-9890
▁Bijn	-9891
▁Gast	-9892
▁aber	-9893
▁derg	-9894
▁juni	-9895
▁nest	-9896
▁pect	-9897
▁uVIN	-9898
TRATIE	-9899
Verder	-9900
ekkage	-9901
eletie	-9902
essner	-9903
etting	-9904
inosis	-9905
opulat	-9906
ormoon	-9907
oscler	-9908
sensus	-9909
undels	-9910
zonden	-9911
▁Bench	-9912
▁Forse	-9913
▁Level	-9914
▁Spier	-9915
▁Vocht	-9916
▁array	-9917
▁ddPCR	-9918
▁lager	-9919
▁strip	-9920
▁wenst	-9921
Middels	-9922
allopii	-9923
arkeerd	-9924
complex	-9925
oracaal	-9926
passend	-9927
ustumor	-9928
vention	-9929
▁Circum	-9930
▁Matige	-9931
▁abnorm	-9932
▁bijeen	-9933
▁chemie	-9934
▁gestuw	-9935
▁mamman	-9936
▁multip	-9937
▁orient	-9938
▁second	-9939
▁tunica	-9940
ucleatie	-9941
▁Abortus	-9942
▁BRAFgen	-9943
▁Middels	-9944
▁Normale	-9945
▁achtige	-9946
▁aneurys	-9947
▁commiss	-9948
▁migrans	-9949
▁paramet	-9950
▁polycyt	-9951
▁present	-9952
▁vervolg	-9953
annelijke	-9954
leuringen	-9955
opulaties	-9956
▁Centraal	-9957
▁Invasief	-9958
▁Keratine	-9959
▁Obductie	-9960
▁Stemband	-9961
▁anamnese	-9962
▁fibroset	-9963
▁gedeelte	-9964
▁myofibro	-9965
▁somscore	-9966
▁tyrosine	-9967
METASTASEN	-9968
lisexcisie	-9969
oesophagus	-9970
▁Brunnerse	-9971
▁Congorood	-9972
▁dergelijk	-9973
▁diameters	-9974
▁dysmorfie	-9975
▁emfysemat	-9976
▁funiculus	-9977
▁indicatie	-9978
▁structuur	-9979
▁voorgrond	-9980
Maagbiopten	-9981
bevindingen	-9982
gemedieerde	-9983
oesofageale	-9984
verhoornend	-9985
▁Goedaardig	-9986
▁bemoeilijk	-9987
▁dergelijke	-9988
▁onderzijde	-9989
▁ongeschikt	-9990
domyosarcoom	-9991
▁Methylation	-9992
▁Ongewijzigd	-9993
▁coecumbodem	-9994
▁endometroid	-9995
▁gangrenosum	-9996
▁linkerborst	-9997
▁onderzoeken	-9998
▁posterieure	-9999
▁steenlijden	-10000
▁Hirschsprung	-10001
▁Pityrosporum	-10002
▁chromosomale	-10003
▁endometriaal	-10004
▁geexcideerde	-10005
▁ischaemische	-10006
▁mesotheliale	-10007
▁methylerings	-10008
▁thyreoiditis	-10009
▁Bronchusbiopt	-10010
▁carcinomatosa	-10011
▁chemoradiatie	-10012
▁dermatofibros	-10013
▁epitheelcyste	-10014
▁hoofdzakelijk	-10015
▁kratervormige	-10016
▁papillomateus	-10017
▁protocollaire	-10018
▁rearrangement	-10019
▁Excisiebiopsie	-10020
▁IgAdeficientie	-10021
▁anusslijmvlies	-10022
▁intramusculair	-10023
▁myocardinfarct	-10024
▁Ileumslijmvlies	-10025
▁epidermoidcyste	-10026
▁huidsnijvlakken	-10027
▁postmenopauzaal	-10028
Cl	-10029
aG	-10030
dm	-10031
nt	-10032
wM	-10033
11[	-10034
178	-10035
189	-10036
199	-10037
217	-10038
BRE	-10039
akk	-10040
gra	-10041
hof	-10042
hvd	-10043
itm	-10044
tes	-10045
▁51	-10046
▁53	-10047
▁Ok	-10048
▁Ul	-10049
▁mb	-10050
ALKI	-10051
CELL	-10052
ERBB	-10053
Onco	-10054
TAAL	-10055
TIEK	-10056
ages	-10057
cott	-10058
etab	-10059
hans	-10060
ieze	-10061
mark	-10062
meer	-10063
nair	-10064
orie	-10065
rang	-10066
rokk	-10067
vaat	-10068
wMol	-10069
▁04[	-10070
▁AIS	-10071
▁Bre	-10072
▁CDX	-10073
▁Myc	-10074
▁PLE	-10075
▁Van	-10076
▁cry	-10077
▁orb	-10078
2015[	-10079
BREID	-10080
ISOLE	-10081
angen	-10082
ctive	-10083
ermin	-10084
lijke	-10085
olemm	-10086
ompre	-10087
space	-10088
uncus	-10089
▁PeIN	-10090
▁Sert	-10091
▁Vrij	-10092
▁janu	-10093
▁meeg	-10094
▁mons	-10095
▁pVal	-10096
▁stim	-10097
▁vera	-10098
151821	-10099
ALKIHC	-10100
Archer	-10101
CELLEN	-10102
Pathnl	-10103
alping	-10104
ineuze	-10105
openie	-10106
oriale	-10107
otomie	-10108
schade	-10109
▁Diepe	-10110
▁Omdat	-10111
▁chala	-10112
▁drain	-10113
▁endof	-10114
▁lymph	-10115
▁penet	-10116
▁pleur	-10117
▁splij	-10118
▁zware	-10119
Neelsen	-10120
ariatie	-10121
astumor	-10122
geleken	-10123
rontaal	-10124
scapula	-10125
traject	-10126
uberans	-10127
verslag	-10128
▁Intern	-10129
▁Larynx	-10130
▁Linker	-10131
▁RETgen	-10132
▁Sputum	-10133
▁acrale	-10134
▁gecomp	-10135
▁hogere	-10136
▁hyster	-10137
▁merend	-10138
▁plekje	-10139
▁wwwMol	-10140
amillair	-10141
apsulair	-10142
etabulum	-10143
itioneel	-10144
osigmoid	-10145
▁Actieve	-10146
▁Betreft	-10147
▁Epiderm	-10148
▁GEISOLE	-10149
▁Jessner	-10150
▁Mediast	-10151
▁Nergens	-10152
▁adenoma	-10153
▁buisjes	-10154
▁evenwel	-10155
▁gemeten	-10156
▁januari	-10157
▁omgeven	-10158
▁progest	-10159
▁pseudop	-10160
▁trachea	-10161
▁traumat	-10162
▁truncus	-10163
▁verdwij	-10164
▁waarden	-10165
ECTIEVLAK	-10166
huidbiopt	-10167
iradenoom	-10168
opathisch	-10169
▁Beperkte	-10170
▁Celbeeld	-10171
▁Pancreas	-10172
▁clusters	-10173
▁diabetes	-10174
▁geperfor	-10175
▁membraan	-10176
▁nagelbed	-10177
▁papulose	-10178
▁tepelhof	-10179
▁webspace	-10180
OncoPathnl	-10181
laaggradig	-10182
▁aangevuld	-10183
▁aanvrager	-10184
▁afwachten	-10185
▁chalazion	-10186
▁fasciitis	-10187
▁gewijzigd	-10188
▁linkeroog	-10189
▁mondholte	-10190
▁patienten	-10191
▁stapeling	-10192
▁syringoom	-10193
▁zichtbaar	-10194
amniotische	-10195
uitbreiding	-10196
▁Fragmenten	-10197
▁abdominale	-10198
▁arterioven	-10199
▁associatie	-10200
▁convention	-10201
▁irregulair	-10202
▁markerings	-10203
▁paraffinec	-10204
Bovenstaande	-10205
Mammabiopten	-10206
▁DIAGNOSTIEK	-10207
▁GEISOLEERDE	-10208
▁Gemarkeerde	-10209
▁TUMORCELLEN	-10210
▁antrumbiopt	-10211
▁bijeenkomst	-10212
▁gynaecoloog	-10213
▁longbiopten	-10214
▁lymfangiect	-10215
▁micronoduli	-10216
▁periapicaal	-10217
▁progesteron	-10218
▁talgklieren	-10219
▁zenuwvezels	-10220
raclaviculair	-10221
▁Leverbiopsie	-10222
▁Longspoeling	-10223
▁Mammaweefsel	-10224
▁angiosarcoom	-10225
▁ascitesvocht	-10226
▁begeleidende	-10227
▁breslowdikte	-10228
▁circumscript	-10229
▁lymfomatoide	-10230
▁neoterminale	-10231
▁protocollair	-10232
▁samenhangend	-10233
▁tumorexcisie	-10234
▁zenuwweefsel	-10235
▁Vasoinvasieve	-10236
▁bodemsnijvlak	-10237
▁crustavorming	-10238
▁helicobacters	-10239
▁intermediaire	-10240
▁ongemarkeerde	-10241
▁tumordiameter	-10242
ingsstoornissen	-10243
▁Hodgkinlymfoom	-10244
▁desmoplastisch	-10245
▁erythrocyturie	-10246
▁tumorcelkernen	-10247
lymfklierexcisie	-10248
receptorbepaling	-10249
▁MACROMETASTASEN	-10250
▁MICROMETASTASEN	-10251
▁gecauteriseerde	-10252
▁kapseldoorbraak	-10253
▁linkeronderkwab	-10254
▁linkerventrikel	-10255
Vl	-10256
]7	-10257
av	-10258
cd	-10259
ml	-10260
yr	-10261
108	-10262
148	-10263
188	-10264
201	-10265
20[	-10266
253	-10267
His	-10268
IEP	-10269
NOD	-10270
_22	-10271
cho	-10272
dup	-10273
fel	-10274
gat	-10275
ips	-10276
lit	-10277
tak	-10278
toe	-10279
top	-10280
yla	-10281
▁62	-10282
▁74	-10283
▁AM	-10284
▁CA	-10285
▁No	-10286
▁fl	-10287
▁oc	-10288
1618	-10289
1633	-10290
1900	-10291
1910	-10292
LETZ	-10293
PRET	-10294
anim	-10295
atel	-10296
edep	-10297
hout	-10298
iair	-10299
ical	-10300
naad	-10301
pols	-10302
▁170	-10303
▁40[	-10304
▁80[	-10305
▁CTC	-10306
▁Nab	-10307
▁PET	-10308
▁SWK	-10309
▁cod	-10310
▁dmv	-10311
▁ped	-10312
▁tru	-10313
IEPTE	-10314
Immun	-10315
Prova	-10316
atiAn	-10317
coupe	-10318
eiwit	-10319
ilair	-10320
iligo	-10321
ineus	-10322
level	-10323
stein	-10324
tegen	-10325
vloed	-10326
▁2022	-10327
▁BCLL	-10328
▁CARD	-10329
▁Copy	-10330
▁Risk	-10331
▁Tong	-10332
▁bind	-10333
▁dens	-10334
▁gene	-10335
▁immu	-10336
▁meen	-10337
▁vulv	-10338
BRONCH	-10339
Blokje	-10340
Intern	-10341
NODALE	-10342
TOTAAL	-10343
Totaal	-10344
_00433	-10345
emisch	-10346
koepel	-10347
necrot	-10348
oedeem	-10349
oralis	-10350
osynov	-10351
resten	-10352
search	-10353
waarde	-10354
▁VRIJE	-10355
▁cicat	-10356
▁contr	-10357
▁gecon	-10358
▁grenz	-10359
▁grove	-10360
▁major	-10361
▁ongew	-10362
▁parag	-10363
▁sinds	-10364
▁zweet	-10365
Celrijk	-10366
apillar	-10367
crement	-10368
derheid	-10369
lachten	-10370
oleiomy	-10371
uramine	-10372
uriteit	-10373
ypering	-10374
▁Hersen	-10375
▁Number	-10376
▁PARPre	-10377
▁Rechts	-10378
▁Solide	-10379
▁carina	-10380
▁etmoid	-10381
▁gaande	-10382
▁gerang	-10383
▁iProva	-10384
▁osteop	-10385
▁overal	-10386
▁poroom	-10387
▁scopie	-10388
▁spitzo	-10389
▁steeds	-10390
▁triple	-10391
BREIDING	-10392
Bronchus	-10393
Diameter	-10394
PRETATIE	-10395
centages	-10396
evorming	-10397
melanoom	-10398
▁Besluit	-10399
▁Epstein	-10400
▁Omentum	-10401
▁Rechter	-10402
▁geinter	-10403
▁grenzen	-10404
▁homozyg	-10405
▁immunop	-10406
▁kiemcel	-10407
▁slechte	-10408
▁veldjes	-10409
Dysplasie	-10410
TRANODALE	-10411
atypische	-10412
irculatie	-10413
italiteit	-10414
oblastair	-10415
otiliteit	-10416
ructurele	-10417
▁37151821	-10418
▁Meerdere	-10419
▁Sneevlak	-10420
▁abcessen	-10421
▁afmeting	-10422
▁biopsien	-10423
▁dyskerat	-10424
▁eenderde	-10425
▁gemiddel	-10426
▁medische	-10427
▁meenemen	-10428
▁optimale	-10429
▁predomin	-10430
▁rechterm	-10431
▁sessiele	-10432
▁techniek	-10433
▁vervette	-10434
▁vitiligo	-10435
Definitief	-10436
rumentatie	-10437
unctionele	-10438
▁acuminata	-10439
▁ectopisch	-10440
▁erytroide	-10441
▁georganis	-10442
▁hemosider	-10443
▁hiernaast	-10444
▁medenemen	-10445
▁polypeuze	-10446
▁subtotale	-10447
▁synoviale	-10448
▁verlittek	-10449
▁Vasectomie	-10450
▁acetabulum	-10451
▁bovenzijde	-10452
▁cervicitis	-10453
▁fibrinoide	-10454
▁gelijkende	-10455
▁ingevroren	-10456
▁linkerknie	-10457
▁membraneus	-10458
▁oncocytoom	-10459
▁parietalis	-10460
▁stimulatie	-10461
▁thermische	-10462
▁tricholemm	-10463
▁vaginawand	-10464
▁vergeleken	-10465
ulairadenoom	-10466
▁Circumcisie	-10467
▁PARPremmers	-10468
▁doorgegeven	-10469
▁epithelioid	-10470
▁geserreerde	-10471
▁hepatocyten	-10472
▁hoofdcarina	-10473
▁obturatoria	-10474
▁protuberans	-10475
▁verwijderen	-10476
▁Mammabiopsie	-10477
▁angiomateuze	-10478
▁concentratie	-10479
▁hemorragisch	-10480
▁klierbuisjes	-10481
▁opmerkelijke	-10482
▁porokeratose	-10483
▁protonpompre	-10484
microscopische	-10485
▁geinverteerde	-10486
▁gerapporteerd	-10487
▁medicamenteus	-10488
▁pigmentlaesie	-10489
▁transuretrale	-10490
▁Oesofagusbiopt	-10491
▁acantholytisch	-10492
▁condylomateuze	-10493
▁ganglioncellen	-10494
▁gecauteriseerd	-10495
▁gemengdcellige	-10496
▁herschikkingen	-10497
▁instrumentatie	-10498
▁retromamillair	-10499
▁tubulusatrofie	-10500
Consultmateriaal	-10501
Revisiemateriaal	-10502
▁Beenmergbiopsie	-10503
▁Hyperplastische	-10504
▁Oesophagusbiopt	-10505
▁extracapsulaire	-10506
▁geinterpreteerd	-10507
▁hyperkeratotica	-10508
▁microcirculatie	-10509
71	-10510
CG	-10511
DK	-10512
Ig	-10513
TS	-10514
033	-10515
127	-10516
159	-10517
17[	-10518
750	-10519
ASS	-10520
Als	-10521
Eer	-10522
MOT	-10523
PRO	-10524
WER	-10525
cfz	-10526
jwz	-10527
tri	-10528
uff	-10529
vel	-10530
▁73	-10531
▁ps	-10532
1115	-10533
1413	-10534
Plex	-10535
VERI	-10536
arts	-10537
elli	-10538
etux	-10539
heum	-10540
host	-10541
ieme	-10542
itum	-10543
orax	-10544
voer	-10545
▁117	-10546
▁11[	-10547
▁Bul	-10548
▁Cor	-10549
▁Dub	-10550
▁FOX	-10551
▁GBM	-10552
▁MPL	-10553
▁SNP	-10554
▁kit	-10555
▁mee	-10556
▁opg	-10557
▁out	-10558
2017[	-10559
61014	-10560
MOTIL	-10561
Samen	-10562
ansie	-10563
egens	-10564
etens	-10565
ieren	-10566
leasp	-10567
oride	-10568
snijd	-10569
trans	-10570
uctie	-10571
▁1400	-10572
▁2040	-10573
▁Bart	-10574
▁Diff	-10575
▁Drie	-10576
▁Even	-10577
▁cMYC	-10578
▁chor	-10579
▁geel	-10580
▁host	-10581
▁pGlu	-10582
▁pTNM	-10583
▁pTis	-10584
▁plus	-10585
▁smal	-10586
▁stam	-10587
▁supr	-10588
Huidst	-10589
crasie	-10590
geving	-10591
glomer	-10592
inders	-10593
leolus	-10594
sgraad	-10595
stumor	-10596
wijfel	-10597
▁Meest	-10598
▁Naast	-10599
▁PDGFR	-10600
▁Pipel	-10601
▁Sweet	-10602
▁agens	-10603
▁exant	-10604
▁hypop	-10605
▁mijns	-10606
▁minor	-10607
▁nucle	-10608
▁perid	-10609
▁reuma	-10610
▁richt	-10611
Biopsie	-10612
ameters	-10613
atheter	-10614
blasten	-10615
centrum	-10616
clusies	-10617
consult	-10618
elviene	-10619
erdacht	-10620
hagisch	-10621
ichting	-10622
infiltr	-10623
lisatie	-10624
schacht	-10625
uceerde	-10626
▁Alcian	-10627
▁Eczeem	-10628
▁Langer	-10629
▁Naboth	-10630
▁alsnog	-10631
▁elkaar	-10632
▁koepel	-10633
▁medium	-10634
▁myxoom	-10635
▁origin	-10636
▁reanim	-10637
▁ribben	-10638
▁versie	-10639
beenmerg	-10640
ergillus	-10641
etuximab	-10642
iectomie	-10643
innemend	-10644
iopathie	-10645
itumumab	-10646
ocytosis	-10647
verander	-10648
▁Bijnier	-10649
▁Externe	-10650
▁Locatie	-10651
▁Tweetal	-10652
▁ablatie	-10653
▁classif	-10654
▁kristal	-10655
▁paracol	-10656
▁pijpjes	-10657
▁uiteind	-10658
▁vermoed	-10659
610141821	-10660
cluderend	-10661
ekleuring	-10662
electieve	-10663
granuloom	-10664
olateraal	-10665
othelioom	-10666
verkregen	-10667
▁Protocol	-10668
▁antibody	-10669
▁followup	-10670
▁geregist	-10671
▁lytische	-10672
▁maagcard	-10673
▁maagwand	-10674
▁osteopor	-10675
▁puncties	-10676
▁radiatie	-10677
▁relevant	-10678
▁targeted	-10679
▁verdient	-10680
▁voorhuid	-10681
MOTILITEIT	-10682
oblastaire	-10683
snijdingen	-10684
▁Administr	-10685
▁BowenoAde	-10686
▁Verspreid	-10687
▁achterste	-10688
▁behandeld	-10689
▁biopteren	-10690
▁buikholte	-10691
▁chemische	-10692
▁codeletie	-10693
▁endotheel	-10694
▁exantheem	-10695
▁malleolus	-10696
▁ongebruik	-10697
▁orofarynx	-10698
▁pleuritis	-10699
▁prominent	-10700
▁stopcodon	-10701
▁substraat	-10702
▁tenosynov	-10703
Cytologisch	-10704
involvement	-10705
leaspiratie	-10706
oesofagitis	-10707
statectomie	-10708
▁Cystevocht	-10709
▁FusionPlex	-10710
▁Lobectomie	-10711
▁Urineblaas	-10712
▁capillaire	-10713
▁getrombose	-10714
▁infestatie	-10715
▁oedemateus	-10716
▁pathologen	-10717
▁pulmonalis	-10718
▁rechterbil	-10719
▁tubectomie	-10720
▁vasectomie	-10721
Amplificatie	-10722
ebeoordeling	-10723
▁Tlymfocyten	-10724
▁bemoeilijkt	-10725
▁buitenzijde	-10726
▁extranodaal	-10727
▁inactivatie	-10728
▁mediaanlijn	-10729
▁structurele	-10730
▁subcorneale	-10731
▁urotheliale	-10732
Beenmergbiopt	-10733
rangschikking	-10734
▁Polipectomie	-10735
▁ZiehlNeelsen	-10736
▁aangevraagde	-10737
▁pancreaticob	-10738
▁rechterborst	-10739
▁rechtszijdig	-10740
▁sclerotische	-10741
▁traumatische	-10742
▁ziekenhuizen	-10743
resectieranden	-10744
▁INTERPRETATIE	-10745
▁excisieranden	-10746
▁geperforeerde	-10747
▁mycobacterien	-10748
▁weefselstukje	-10749
Duodenumbiopten	-10750
▁carcinosarcoom	-10751
▁myelodysplasie	-10752
▁overeenkomstig	-10753
▁Littekenweefsel	-10754
▁frontotemporaal	-10755
▁maagantrumbiopt	-10756
▁placentavlokken	-10757
▁restmaligniteit	-10758
Ag	-10759
EX	-10760
LD	-10761
Mb	-10762
NL	-10763
PG	-10764
SH	-10765
SR	-10766
Sr	-10767
]6	-10768
cy	-10769
dr	-10770
131	-10771
176	-10772
184	-10773
238	-10774
245	-10775
30[	-10776
601	-10777
797	-10778
Ade	-10779
Bot	-10780
DUC	-10781
Gen	-10782
HPv	-10783
IDH	-10784
IHC	-10785
MAR	-10786
OHS	-10787
WHO	-10788
alg	-10789
alv	-10790
col	-10791
mac	-10792
meg	-10793
nap	-10794
ote	-10795
sus	-10796
▁57	-10797
▁BK	-10798
▁Cl	-10799
▁Du	-10800
▁GA	-10801
▁PP	-10802
▁fe	-10803
▁pa	-10804
▁rh	-10805
1500	-10806
2110	-10807
ERON	-10808
GEST	-10809
MASS	-10810
STRO	-10811
aalf	-10812
apar	-10813
assa	-10814
epar	-10815
gere	-10816
ieve	-10817
inde	-10818
legm	-10819
leng	-10820
leur	-10821
opur	-10822
roeb	-10823
tijd	-10824
visc	-10825
ysis	-10826
▁246	-10827
▁Gec	-10828
▁RES	-10829
▁Reg	-10830
▁alb	-10831
▁buc	-10832
▁dag	-10833
▁del	-10834
▁oph	-10835
▁vis	-10836
MProt	-10837
_0049	-10838
acuut	-10839
alans	-10840
alanx	-10841
bloed	-10842
eming	-10843
ensie	-10844
epast	-10845
fibro	-10846
halen	-10847
herbe	-10848
hilus	-10849
lokte	-10850
oplak	-10851
orend	-10852
otrop	-10853
uurde	-10854
▁CHPv	-10855
▁IKMN	-10856
▁Path	-10857
▁SSTR	-10858
▁Zoon	-10859
▁clit	-10860
▁glan	-10861
▁lues	-10862
▁pArg	-10863
▁wijs	-10864
121516	-10865
151823	-10866
METING	-10867
OESTRO	-10868
elders	-10869
ikking	-10870
isitis	-10871
itsing	-10872
ortion	-10873
staand	-10874
ummerd	-10875
versus	-10876
verval	-10877
vormig	-10878
wendig	-10879
▁Groot	-10880
▁Hemat	-10881
▁LLETZ	-10882
▁Lapar	-10883
▁datab	-10884
▁korst	-10885
▁small	-10886
▁steri	-10887
Diepere	-10888
INISCHE	-10889
MASSALE	-10890
MProton	-10891
PROGEST	-10892
ablatie	-10893
eculair	-10894
fibrose	-10895
herapie	-10896
hotspot	-10897
ositeit	-10898
ronisch	-10899
▁Binnen	-10900
▁Lokaal	-10901
▁PDGFRB	-10902
▁Transc	-10903
▁cyclus	-10904
▁cystic	-10905
▁farynx	-10906
▁gemist	-10907
▁gevorm	-10908
▁infund	-10909
▁intrat	-10910
▁ketens	-10911
▁myxoid	-10912
▁nasale	-10913
▁tekens	-10914
Volledig	-10915
elleboog	-10916
epigment	-10917
hechting	-10918
icularis	-10919
megakary	-10920
seceerde	-10921
variatie	-10922
villeuze	-10923
▁Hiermee	-10924
▁Tcellen	-10925
▁Verdere	-10926
▁bekeken	-10927
▁drietal	-10928
▁flardje	-10929
▁hieraan	-10930
▁massale	-10931
▁neusgat	-10932
▁overlap	-10933
▁periren	-10934
▁pyogeen	-10935
▁twijfel	-10936
conclusie	-10937
eerslagen	-10938
legmoneus	-10939
verdeling	-10940
▁Controle	-10941
▁Pericard	-10942
▁aankleur	-10943
▁artefact	-10944
▁buismaag	-10945
▁clitoris	-10946
▁discreet	-10947
▁gemengde	-10948
▁kleinere	-10949
▁multiple	-10950
▁pleomorf	-10951
▁precieze	-10952
▁subacuut	-10953
▁verbrokk	-10954
OESTROGEEN	-10955
erkleuring	-10956
ochemische	-10957
oleiomyoom	-10958
populaties	-10959
ulovilleus	-10960
▁GEWIJZIGD	-10961
▁Resultaat	-10962
▁Ulceratie	-10963
▁Vaginatop	-10964
▁afgegeven	-10965
▁bloedvaat	-10966
▁chronicum	-10967
▁dominante	-10968
▁funisitis	-10969
▁genummerd	-10970
▁hieronder	-10971
▁longembol	-10972
▁naschrift	-10973
▁onderdeel	-10974
▁splitsing	-10975
▁verdwijnt	-10976
PROGESTERON	-10977
apillaritis	-10978
▁Overwegend	-10979
▁alveolaris	-10980
▁blaastumor	-10981
▁botvorming	-10982
▁epidermaal	-10983
▁epitheloid	-10984
▁fistelgang	-10985
▁giardiasis	-10986
▁granulatie	-10987
▁ileumbiopt	-10988
▁mannelijke	-10989
▁protonpomp	-10990
▁reanimatie	-10991
▁resterende	-10992
▁reticuline	-10993
▁tumordikte	-10994
▁tumorgroei	-10995
inflammatoir	-10996
▁EXTRANODALE	-10997
▁Nierbiopsie	-10998
▁biopsiename	-10999
▁corpusbiopt	-11000
▁deficientie	-11001
▁implicaties	-11002
▁pseudocyste	-11003
▁rechtervoet	-11004
▁tuberculose	-11005
geassocieerde	-11006
▁cytogenetica	-11007
▁glioblastoma	-11008
▁kiemceltumor	-11009
▁respiratoire	-11010
▁spoelvormige	-11011
▁sterilisatie	-11012
▁tubulopathie	-11013
▁verwantschap	-11014
ifferentieerde	-11015
▁appendectomie	-11016
▁bijnierschors	-11017
▁erythropoiese	-11018
▁huidcurettage	-11019
▁immunoprofiel	-11020
▁incontinentie	-11021
▁microbiologie	-11022
▁nierparenchym	-11023
▁paratracheaal	-11024
▁proliferaties	-11025
▁retroareolair	-11026
▁traumatisatie	-11027
▁Bijschildklier	-11028
▁celhyperplasie	-11029
▁littekengebied	-11030
▁schimmelsporen	-11031
▁arteriosclerose	-11032
▁dermatitisbeeld	-11033
▁sigmoidresectie	-11034
57	-11035
Ch	-11036
Dd	-11037
ME	-11038
NS	-11039
037	-11040
12[	-11041
132	-11042
211	-11043
265	-11044
338	-11045
53[	-11046
602	-11047
855	-11048
CMV	-11049
STE	-11050
cem	-11051
duc	-11052
eal	-11053
fra	-11054
hem	-11055
hou	-11056
ilt	-11057
nea	-11058
nek	-11059
rin	-11060
sac	-11061
sud	-11062
vet	-11063
weg	-11064
zie	-11065
▁63	-11066
▁8[	-11067
▁BH	-11068
▁IM	-11069
▁IU	-11070
▁LB	-11071
▁SF	-11072
▁VC	-11073
▁ik	-11074
▁im	-11075
▁pA	-11076
1047	-11077
1810	-11078
2116	-11079
746_	-11080
EBUS	-11081
MORF	-11082
Mede	-11083
Nier	-11084
_000	-11085
aker	-11086
holm	-11087
iley	-11088
isme	-11089
lust	-11090
nion	-11091
onde	-11092
ovas	-11093
pert	-11094
quam	-11095
resp	-11096
sche	-11097
spre	-11098
wing	-11099
woor	-11100
▁03[	-11101
▁ABC	-11102
▁EPI	-11103
▁Ges	-11104
▁MCL	-11105
▁Mal	-11106
▁Mes	-11107
▁PTK	-11108
▁Tox	-11109
▁VCM	-11110
▁fij	-11111
▁har	-11112
▁lam	-11113
▁lij	-11114
▁pod	-11115
▁pus	-11116
Steel	-11117
]2014	-11118
atoom	-11119
cline	-11120
derom	-11121
icros	-11122
ietak	-11123
ikels	-11124
iveau	-11125
kwand	-11126
orsie	-11127
ralis	-11128
rante	-11129
ratum	-11130
recid	-11131
semin	-11132
stomp	-11133
terke	-11134
typen	-11135
virus	-11136
▁CDLE	-11137
▁LiPA	-11138
▁MOHS	-11139
▁PALB	-11140
▁Post	-11141
▁SPEC	-11142
▁TURP	-11143
▁blan	-11144
▁brug	-11145
▁fiss	-11146
▁fraa	-11147
▁late	-11148
▁midf	-11149
▁rhab	-11150
▁vaak	-11151
▁week	-11152
▁zeld	-11153
Focaal	-11154
Tweede	-11155
ageaal	-11156
alvans	-11157
ariAle	-11158
aticum	-11159
kelijk	-11160
ladder	-11161
omheen	-11162
oplasm	-11163
pelijk	-11164
rolyse	-11165
▁AMOLD	-11166
▁CINII	-11167
▁Gelet	-11168
▁MPNST	-11169
▁Wordt	-11170
▁cutis	-11171
▁echog	-11172
▁grill	-11173
▁jaren	-11174
▁meten	-11175
▁neemt	-11176
▁orbit	-11177
▁plave	-11178
DUCTALE	-11179
andaard	-11180
bacteri	-11181
normaal	-11182
omische	-11183
omyxoma	-11184
rotheel	-11185
vattend	-11186
woordig	-11187
▁Atypie	-11188
▁Volume	-11189
▁Wegens	-11190
▁aanged	-11191
▁aanlev	-11192
▁atrium	-11193
▁bacter	-11194
▁dienen	-11195
▁geleid	-11196
▁gemeen	-11197
▁intima	-11198
▁kanaal	-11199
▁konden	-11200
▁lipoid	-11201
▁omslag	-11202
▁scherp	-11203
▁twaalf	-11204
▁vierde	-11205
MAXIMALE	-11206
Maximale	-11207
Prognost	-11208
acroscop	-11209
adiering	-11210
gebracht	-11211
iliacaal	-11212
matische	-11213
promoter	-11214
sclerose	-11215
soorzaak	-11216
vectomie	-11217
vezeling	-11218
▁Grocott	-11219
▁Hiervan	-11220
▁Kliniek	-11221
▁Parotis	-11222
▁bilnaad	-11223
▁breedte	-11224
▁diepste	-11225
▁dikwand	-11226
▁femoris	-11227
▁geboren	-11228
▁gekalib	-11229
▁hemorro	-11230
▁immuunt	-11231
▁junctie	-11232
▁minieme	-11233
▁septale	-11234
▁setting	-11235
▁thymoom	-11236
akeratose	-11237
epidermal	-11238
esteatoom	-11239
odestumor	-11240
okeratine	-11241
okeratoom	-11242
opbrengst	-11243
operatief	-11244
pathogene	-11245
▁Bevestig	-11246
▁Malherbe	-11247
▁Vaginale	-11248
▁Verdacht	-11249
▁aantonen	-11250
▁androgen	-11251
▁biliaire	-11252
▁darmwand	-11253
▁expansie	-11254
▁grenzend	-11255
▁inversum	-11256
▁overlegd	-11257
▁stations	-11258
▁verhoorn	-11259
Motiliteit	-11260
aanvullend	-11261
iolateraal	-11262
▁Afwijking	-11263
▁Eventuele	-11264
▁Gradering	-11265
▁Subtotale	-11266
▁Uitstrijk	-11267
▁antihelix	-11268
▁atroficus	-11269
▁axillaire	-11270
▁buitenste	-11271
▁corticale	-11272
▁decalvans	-11273
▁gemiddeld	-11274
▁geschatte	-11275
▁longtumor	-11276
▁polymorfe	-11277
▁recidiver	-11278
▁splijting	-11279
▁thermisch	-11280
▁vaginalis	-11281
▁verdeling	-11282
▁verstuurd	-11283
▁vesiculae	-11284
Huidbiopsie	-11285
Progressief	-11286
endometrium	-11287
eosinofiele	-11288
malformatie	-11289
schappelijk	-11290
viscositeit	-11291
▁1214151823	-11292
▁AANVULLING	-11293
▁Cholecyste	-11294
▁Hyperkerat	-11295
▁MSIuitslag	-11296
▁Okselklier	-11297
▁arterietak	-11298
▁bekledende	-11299
▁epiglottis	-11300
▁ingeblokte	-11301
▁ischemisch	-11302
▁neerslagen	-11303
▁wijsvinger	-11304
eiwitanalyse	-11305
homogeniteit	-11306
tegenwoordig	-11307
▁Colonpoliep	-11308
▁DisclaimerA	-11309
▁MALTlymfoom	-11310
▁bovenstaand	-11311
▁capillairen	-11312
▁cylindercel	-11313
▁doorgemaakt	-11314
▁dysmegakary	-11315
▁nierweefsel	-11316
▁onverdachte	-11317
▁pankeratine	-11318
▁placentabed	-11319
▁presentatie	-11320
▁rechterlong	-11321
Classificatie	-11322
evocellularis	-11323
▁corpusmucosa	-11324
▁mesenteriale	-11325
▁suppuratieve	-11326
necrotiserende	-11327
▁celpopulaties	-11328
▁cholesteatoom	-11329
▁conventioneel	-11330
▁emfysemateuze	-11331
▁gekalibreerde	-11332
▁metastasering	-11333
▁oorschelprand	-11334
▁overgangszone	-11335
▁tumornegatief	-11336
▁zwangerschaps	-11337
odifferentiatie	-11338
▁Hyperplastisch	-11339
▁Intraepidermal	-11340
▁differentiated	-11341
▁excisiebiopten	-11342
▁immunotherapie	-11343
▁parotidectomie	-11344
▁ruimteinnemend	-11345
▁subclaviculair	-11346
Lymfklierpunctie	-11347
▁Laparoscopische	-11348
▁biopsielitteken	-11349
▁cardiomyopathie	-11350
▁desmoplastische	-11351
▁extracapillaire	-11352
▁testisparenchym	-11353
39	-11354
Vr	-11355
dd	-11356
eq	-11357
kv	-11358
nr	-11359
120	-11360
124	-11361
128	-11362
14[	-11363
156	-11364
244	-11365
246	-11366
273	-11367
331	-11368
47[	-11369
500	-11370
Ema	-11371
KTE	-11372
NAN	-11373
NIE	-11374
POT	-11375
SLL	-11376
VID	-11377
bot	-11378
cir	-11379
ebs	-11380
hyp	-11381
iol	-11382
ito	-11383
lis	-11384
lob	-11385
rit	-11386
sle	-11387
was	-11388
▁68	-11389
▁EW	-11390
▁XI	-11391
▁nl	-11392
1117	-11393
1914	-11394
1953	-11395
aant	-11396
edes	-11397
emur	-11398
enis	-11399
iche	-11400
iemb	-11401
iose	-11402
kitt	-11403
lein	-11404
naar	-11405
ofag	-11406
onge	-11407
otje	-11408
prof	-11409
rijs	-11410
▁60[	-11411
▁All	-11412
▁Fax	-11413
▁Hel	-11414
▁IIV	-11415
▁MED	-11416
▁MEK	-11417
▁NHL	-11418
▁PCC	-11419
▁PIP	-11420
▁SDH	-11421
▁Wal	-11422
▁Zou	-11423
▁asc	-11424
▁cre	-11425
▁fil	-11426
▁hoe	-11427
▁tat	-11428
Email	-11429
NANGS	-11430
Vraag	-11431
Vulva	-11432
ageen	-11433
denst	-11434
elect	-11435
gemen	-11436
hraal	-11437
ident	-11438
oorte	-11439
scent	-11440
traum	-11441
ugger	-11442
▁2009	-11443
▁3000	-11444
▁Beck	-11445
▁Chis	-11446
▁FOXL	-11447
▁MLPA	-11448
▁Mass	-11449
▁Stur	-11450
▁Syst	-11451
▁Veel	-11452
▁Webs	-11453
▁acne	-11454
▁bijd	-11455
▁cong	-11456
▁geop	-11457
▁loge	-11458
▁nodi	-11459
▁only	-11460
▁pend	-11461
▁pink	-11462
▁sein	-11463
▁somm	-11464
▁stap	-11465
▁tool	-11466
Eerste	-11467
GEPAST	-11468
atherm	-11469
epaste	-11470
haemia	-11471
ignaal	-11472
infect	-11473
ishman	-11474
itosen	-11475
orgaan	-11476
ostase	-11477
ragend	-11478
raumat	-11479
roebel	-11480
ulosis	-11481
werken	-11482
worden	-11483
▁balan	-11484
▁brede	-11485
▁geinc	-11486
▁oblit	-11487
▁opgem	-11488
▁polyk	-11489
▁react	-11490
▁shift	-11491
▁steen	-11492
▁stere	-11493
▁thans	-11494
Breslow	-11495
Tumoren	-11496
aadwerk	-11497
ablatio	-11498
aginaal	-11499
ammaire	-11500
cideren	-11501
ementen	-11502
erzijds	-11503
figuren	-11504
gebreid	-11505
iembaan	-11506
illaire	-11507
inctive	-11508
iserend	-11509
raniaal	-11510
revisie	-11511
uterien	-11512
wijzing	-11513
▁Andere	-11514
▁Custom	-11515
▁Mucosa	-11516
▁Stukje	-11517
▁Tenzij	-11518
▁Tonsil	-11519
▁aangem	-11520
▁access	-11521
▁areola	-11522
▁ogende	-11523
▁overig	-11524
▁volair	-11525
▁zelfde	-11526
Afdeling	-11527
elevante	-11528
gewricht	-11529
iciAntie	-11530
mogelijk	-11531
orectale	-11532
rotische	-11533
spunctie	-11534
therapie	-11535
▁Fibrose	-11536
▁Station	-11537
▁Tekenen	-11538
▁Volgens	-11539
▁Website	-11540
▁begrens	-11541
▁erosies	-11542
▁fixatie	-11543
▁floride	-11544
▁gastric	-11545
▁glaasje	-11546
▁incisie	-11547
▁leveren	-11548
▁species	-11549
▁spreken	-11550
▁troebel	-11551
▁waarmee	-11552
Oesofagus	-11553
PGMProton	-11554
biopsieAn	-11555
dyscrasie	-11556
formulier	-11557
iddenkwab	-11558
oresectie	-11559
orrelatie	-11560
overgangs	-11561
regressie	-11562
▁10121516	-11563
▁AFMETING	-11564
▁Alhoewel	-11565
▁Barretts	-11566
▁Chisholm	-11567
▁Genetica	-11568
▁Hierdoor	-11569
▁Infectie	-11570
▁Minimaal	-11571
▁Radicale	-11572
▁Waldenst	-11573
▁apoptose	-11574
▁detectie	-11575
▁diastase	-11576
▁driemaal	-11577
▁effecten	-11578
▁geinfarc	-11579
▁gesugger	-11580
▁hierdoor	-11581
▁immatuur	-11582
▁lamellen	-11583
▁pemfigus	-11584
▁slijmnap	-11585
▁suspecte	-11586
▁thrombus	-11587
▁voorvoet	-11588
Lymfeklier	-11589
helderheid	-11590
immuniteit	-11591
musculaire	-11592
oduodenale	-11593
overweging	-11594
versushost	-11595
▁Overwogen	-11596
▁Proximale	-11597
▁Regionale	-11598
▁aangezien	-11599
▁balanitis	-11600
▁gefibrose	-11601
▁getraumat	-11602
▁leukoplak	-11603
▁marginaal	-11604
▁opgemerkt	-11605
▁originele	-11606
▁overgaand	-11607
▁overgrijp	-11608
▁polypoide	-11609
▁processus	-11610
▁spirochet	-11611
▁verdachts	-11612
Microscopie	-11613
constructie	-11614
henospermie	-11615
ocapillaire	-11616
olliculitis	-11617
omorfologie	-11618
▁Aspecifiek	-11619
▁Langerhans	-11620
▁Spierbiopt	-11621
▁aanvragend	-11622
▁allergisch	-11623
▁blaasbodem	-11624
▁bronchiaal	-11625
▁cholestase	-11626
▁classifier	-11627
▁cribriform	-11628
▁cytoplasma	-11629
▁eosinofiel	-11630
▁flegmoneus	-11631
▁ingesneden	-11632
▁ingevangen	-11633
▁laesionaal	-11634
▁leverhilus	-11635
▁linkerlong	-11636
▁losgelegen	-11637
▁mammabiopt	-11638
▁myxofibros	-11639
Concentratie	-11640
parakeratose	-11641
▁Cystectomie	-11642
▁Laaggradige	-11643
▁Ontstekings	-11644
▁Vriescoupes	-11645
▁additionele	-11646
▁condylomata	-11647
▁funiculitis	-11648
▁gedilateerd	-11649
▁hematopoAse	-11650
▁histiocyten	-11651
▁immunologie	-11652
▁linksrechts	-11653
▁necrobiosis	-11654
▁organisatie	-11655
▁weefselstuk	-11656
Differentiaal	-11657
evenbevinding	-11658
▁Appendicitis	-11659
▁Pipellebiopt	-11660
▁Vulvabiopten	-11661
▁antrumcorpus	-11662
▁capillaritis	-11663
▁endometritis	-11664
▁herschikking	-11665
▁incisiebiopt	-11666
▁lymffollikel	-11667
▁neuspoliepen	-11668
▁ondergelegen	-11669
▁parailiacaal	-11670
▁Cristabiopsie	-11671
▁angiokeratoom	-11672
▁basissnijvlak	-11673
▁granulomateus	-11674
▁intracavitair	-11675
▁multinodulair	-11676
▁pericardvocht	-11677
▁tenosynoviale	-11678
▁tricholemmale	-11679
▁vermoedelijke	-11680
Prostaatbiopten	-11681
▁Neusslijmvlies	-11682
▁geregistreerde	-11683
▁ijzerdepositie	-11684
▁ijzerstapeling	-11685
▁ongebruikelijk	-11686
▁phyllodestumor	-11687
▁tumormateriaal	-11688
▁Administratieve	-11689
▁Uteruscurettage	-11690
▁graftversushost	-11691
▁maagcorpusbiopt	-11692
▁oesophagusbiopt	-11693
▁vertegenwoordig	-11694
Is	-11695
Mx	-11696
Nx	-11697
nh	-11698
sb	-11699
106	-11700
16[	-11701
198	-11702
218	-11703
250	-11704
268	-11705
28[	-11706
295	-11707
459	-11708
705	-11709
806	-11710
COR	-11711
Ile	-11712
Pan	-11713
ble	-11714
cet	-11715
dur	-11716
han	-11717
ock	-11718
onc	-11719
oot	-11720
ukt	-11721
▁77	-11722
▁78	-11723
▁84	-11724
▁86	-11725
▁EC	-11726
▁FN	-11727
▁Hp	-11728
▁Ir	-11729
▁LA	-11730
▁MT	-11731
▁NF	-11732
▁RO	-11733
▁Zo	-11734
▁bn	-11735
1310	-11736
1410	-11737
1617	-11738
2283	-11739
IMEN	-11740
alum	-11741
ancy	-11742
arti	-11743
ator	-11744
doet	-11745
hode	-11746
huis	-11747
jwjs	-11748
myel	-11749
oond	-11750
▁20[	-11751
▁ATR	-11752
▁LAB	-11753
▁LAD	-11754
▁LBQ	-11755
▁MIB	-11756
▁Non	-11757
▁aur	-11758
▁chr	-11759
▁eci	-11760
▁fac	-11761
▁fys	-11762
▁mij	-11763
▁mix	-11764
▁ort	-11765
▁pir	-11766
▁tmA	-11767
▁tum	-11768
2019[	-11769
Agren	-11770
DIKTE	-11771
MARGE	-11772
]2016	-11773
aalde	-11774
asien	-11775
ativa	-11776
ecidu	-11777
endym	-11778
inion	-11779
inoom	-11780
ivert	-11781
massa	-11782
nieuw	-11783
osits	-11784
pport	-11785
ylact	-11786
▁2004	-11787
▁2008	-11788
▁6495	-11789
▁BRIP	-11790
▁CISH	-11791
▁Dens	-11792
▁Gram	-11793
▁LETZ	-11794
▁MGUS	-11795
▁RICC	-11796
▁Reed	-11797
▁amel	-11798
▁dele	-11799
▁doel	-11800
▁grof	-11801
▁hiel	-11802
▁ihkv	-11803
▁kind	-11804
▁sect	-11805
▁stag	-11806
▁stro	-11807
▁synd	-11808
▁vent	-11809
▁wilt	-11810
DIEPTE	-11811
KSFJBE	-11812
_00003	-11813
abiele	-11814
cardia	-11815
cavaal	-11816
istent	-11817
itiele	-11818
itmest	-11819
muraal	-11820
obulin	-11821
ocytic	-11822
oembol	-11823
oesoph	-11824
ontane	-11825
rachus	-11826
ractie	-11827
rectum	-11828
romale	-11829
stijds	-11830
ugeerd	-11831
▁Aorta	-11832
▁PASdi	-11833
▁Reikt	-11834
▁Stans	-11835
▁Ultra	-11836
▁exsud	-11837
▁haren	-11838
▁loopt	-11839
▁monot	-11840
▁onged	-11841
▁rheum	-11842
▁tatoe	-11843
▁thyro	-11844
▁valse	-11845
▁varia	-11846
▁verse	-11847
GEPASTE	-11848
arterie	-11849
artilag	-11850
bundels	-11851
kleppen	-11852
matumor	-11853
mentaar	-11854
middels	-11855
riciele	-11856
sistent	-11857
spreide	-11858
waarden	-11859
▁Dieper	-11860
▁LABPON	-11861
▁Portio	-11862
▁Secund	-11863
▁cortex	-11864
▁cryogl	-11865
▁hoogst	-11866
▁indruk	-11867
▁intens	-11868
▁kleurt	-11869
▁minisc	-11870
▁plekke	-11871
▁poging	-11872
▁renaal	-11873
▁sneden	-11874
▁telken	-11875
▁vaatst	-11876
▁vacuum	-11877
▁veldje	-11878
Botbiopt	-11879
Punctaat	-11880
bedraagt	-11881
epresent	-11882
ercellen	-11883
ereikend	-11884
sentumor	-11885
standige	-11886
▁Bladder	-11887
▁SjAgren	-11888
▁Wassing	-11889
▁adhesie	-11890
▁digitum	-11891
▁klonale	-11892
▁mucosae	-11893
▁opinion	-11894
▁plaques	-11895
▁puntige	-11896
▁rapport	-11897
▁sommige	-11898
▁urachus	-11899
▁vlakken	-11900
▁voorbij	-11901
▁zijwaar	-11902
KLINISCHE	-11903
Nierbiopt	-11904
Ulceratie	-11905
crementen	-11906
ethylatie	-11907
globuline	-11908
omucosale	-11909
velstreng	-11910
▁Excisies	-11911
▁Hiervoor	-11912
▁afspraak	-11913
▁basaloid	-11914
▁bewaarde	-11915
▁elastine	-11916
▁genfusie	-11917
▁glaasjes	-11918
▁grillige	-11919
▁insertie	-11920
▁kiembaan	-11921
▁ovarieel	-11922
▁polypoid	-11923
▁signalen	-11924
▁staafjes	-11925
▁tumoraal	-11926
▁zenuwtak	-11927
DEFINITIEF	-11928
glandulair	-11929
lowcytomet	-11930
▁aangepast	-11931
▁aberrante	-11932
▁borstbeen	-11933
▁bovenpool	-11934
▁coderende	-11935
▁eigenlijk	-11936
▁excideren	-11937
▁feitelijk	-11938
▁ingescand	-11939
▁lesionaal	-11940
▁phyllodes	-11941
▁richtlijn	-11942
▁seminalis	-11943
▁tijdensna	-11944
▁tubulitis	-11945
uitstrijken	-11946
▁ECadherine	-11947
▁Ecadherine	-11948
▁Myometrium	-11949
▁bekkenwand	-11950
▁belangrijk	-11951
▁blaasbiopt	-11952
▁destructie	-11953
▁dikwandige	-11954
▁fibrinedep	-11955
▁fibrinopur	-11956
▁genetische	-11957
▁homozygote	-11958
▁hrHPVtypen	-11959
▁mammatumor	-11960
▁merendeels	-11961
▁omliggende	-11962
▁regressief	-11963
▁synoviitis	-11964
omonocytaire	-11965
▁Ileocoecaal	-11966
▁Rectumbiopt	-11967
▁Waldenstrom	-11968
▁antilichaam	-11969
▁blaaskoepel	-11970
▁lipomatosus	-11971
▁lymfangioom	-11972
▁rechtzijdig	-11973
▁vrouwelijke	-11974
▁Rectosigmoid	-11975
▁adenomatoide	-11976
▁bloedvaatjes	-11977
▁cilindrische	-11978
▁epithelioide	-11979
▁leverbiopten	-11980
▁mediastinaal	-11981
▁pseudomyxoma	-11982
▁schaamstreek	-11983
▁subcapsulair	-11984
▁verhevenheid	-11985
▁voorgestelde	-11986
celhyperplasie	-11987
▁Barrettmucosa	-11988
▁Diepteinvasie	-11989
▁Microscopisch	-11990
▁Prostaatbiopt	-11991
▁Tubulovilleus	-11992
▁androgenetica	-11993
▁heldercellige	-11994
▁immuuncomplex	-11995
▁infraorbitaal	-11996
▁orchidectomie	-11997
▁pleurabiopten	-11998
▁polycythaemia	-11999
▁subepidermaal	-12000
▁transplantaat	-12001
▁Dermatofibroom	-12002
▁Gefragmenteerd	-12003
▁angioleiomyoom	-12004
▁architecturale	-12005
▁epitheelatypie	-12006
▁excisiebiopsie	-12007
▁herbeoordeling	-12008
▁Peritoneumbiopt	-12009
▁antrumgastritis	-12010
▁bronchusbiopten	-12011
▁genamplificatie	-12012
▁glomerulopathie	-12013
▁gynaecologische	-12014
▁nietverhoornend	-12015
▁retroperitoneum	-12016
▁vasculitisbeeld	-12017
Cr	-12018
RO	-12019
jz	-12020
vl	-12021
▁y	-12022
03[	-12023
139	-12024
149	-12025
166	-12026
186	-12027
18[	-12028
197	-12029
226	-12030
236	-12031
270	-12032
406	-12033
473	-12034
719	-12035
ATS	-12036
Gro	-12037
ORD	-12038
VOL	-12039
]10	-12040
]25	-12041
beg	-12042
dit	-12043
geg	-12044
ias	-12045
kte	-12046
osi	-12047
sth	-12048
uin	-12049
umm	-12050
utt	-12051
yer	-12052
yth	-12053
▁IL	-12054
▁IR	-12055
▁RA	-12056
▁fa	-12057
▁ph	-12058
▁po	-12059
▁up	-12060
▁vd	-12061
1300	-12062
1314	-12063
1326	-12064
1828	-12065
2210	-12066
Bcel	-12067
Hier	-12068
MPUS	-12069
Rect	-12070
agel	-12071
alie	-12072
arme	-12073
arte	-12074
brek	-12075
ever	-12076
fasc	-12077
gene	-12078
ituc	-12079
ppel	-12080
raam	-12081
rent	-12082
tegr	-12083
tiel	-12084
uken	-12085
week	-12086
▁02[	-12087
▁125	-12088
▁260	-12089
▁270	-12090
▁Cil	-12091
▁DIP	-12092
▁Eer	-12093
▁Exc	-12094
▁Ley	-12095
▁MCP	-12096
▁Mon	-12097
▁Ont	-12098
▁enc	-12099
▁eos	-12100
▁fec	-12101
▁imb	-12102
▁mbt	-12103
▁rab	-12104
abdom	-12105
akket	-12106
ambda	-12107
ellum	-12108
enkel	-12109
ialis	-12110
krist	-12111
orrag	-12112
plant	-12113
quorp	-12114
ubcut	-12115
▁Chol	-12116
▁Vari	-12117
▁arth	-12118
▁flat	-12119
▁groe	-12120
▁lijn	-12121
▁mild	-12122
▁olig	-12123
▁ovar	-12124
▁reak	-12125
▁tien	-12126
▁toen	-12127
Basale	-12128
CBDJBE	-12129
Cancer	-12130
NIEUWE	-12131
ONSULT	-12132
POTJSL	-12133
Uterus	-12134
alings	-12135
asperm	-12136
entigo	-12137
focaal	-12138
gebeld	-12139
gedraa	-12140
gevoeg	-12141
ierend	-12142
ietaal	-12143
ihepat	-12144
ionaal	-12145
oAdose	-12146
olking	-12147
opoAse	-12148
orsaal	-12149
rectie	-12150
ubeerd	-12151
uitein	-12152
wissel	-12153
▁2015[	-12154
▁Breun	-12155
▁Fiber	-12156
▁Nerve	-12157
▁Niets	-12158
▁TBFNA	-12159
▁Vries	-12160
▁aldus	-12161
▁apart	-12162
▁colum	-12163
▁invas	-12164
▁jonge	-12165
▁juven	-12166
▁mixed	-12167
▁overh	-12168
▁ovula	-12169
▁patch	-12170
▁pneum	-12171
▁sacro	-12172
▁serum	-12173
▁zeven	-12174
betrouw	-12175
breking	-12176
caudaal	-12177
culitis	-12178
erapeut	-12179
ereerde	-12180
etrusor	-12181
functie	-12182
iniaire	-12183
ometrie	-12184
▁Elders	-12185
▁Lipoom	-12186
▁MelanA	-12187
▁Testis	-12188
▁berust	-12189
▁blanco	-12190
▁endomy	-12191
▁gevuld	-12192
▁ingang	-12193
▁morpha	-12194
▁onrijp	-12195
▁opgave	-12196
▁opname	-12197
▁punten	-12198
▁subple	-12199
▁synovi	-12200
▁uiteen	-12201
▁ventro	-12202
▁vormen	-12203
▁zeggen	-12204
GEWIJZIG	-12205
IMENTYPE	-12206
Slokdarm	-12207
hotspots	-12208
ocaecaal	-12209
ovariele	-12210
poliepje	-12211
syndroom	-12212
ulmonale	-12213
voergang	-12214
ytologie	-12215
zwelling	-12216
▁Bauhini	-12217
▁Burkitt	-12218
▁Density	-12219
▁EGFRgen	-12220
▁HEcoupe	-12221
▁Hormoon	-12222
▁Tnummer	-12223
▁benigna	-12224
▁breuken	-12225
▁contral	-12226
▁cryptde	-12227
▁eerstel	-12228
▁epithel	-12229
▁flarden	-12230
▁mastoid	-12231
▁methode	-12232
▁pilaris	-12233
▁pustels	-12234
▁stratum	-12235
▁subtiel	-12236
bacterien	-12237
relevante	-12238
▁Curettag	-12239
▁Lipbiopt	-12240
▁Negatief	-12241
▁Tweemaal	-12242
▁Voorstel	-12243
▁daadwerk	-12244
▁daarvoor	-12245
▁destijds	-12246
▁dubieuze	-12247
▁genitaal	-12248
▁getracht	-12249
▁gevormde	-12250
▁melanose	-12251
▁occlusie	-12252
▁omsneden	-12253
▁pleurale	-12254
▁potentie	-12255
▁retentie	-12256
▁uitloper	-12257
▁vaatrijk	-12258
▁vaginose	-12259
Bacteriele	-12260
Oesophagus	-12261
epithelial	-12262
▁Dysplasie	-12263
▁Hypertrof	-12264
▁Macroscop	-12265
▁Procedure	-12266
▁Variation	-12267
▁aneurysma	-12268
▁bevolking	-12269
▁cetuximab	-12270
▁congorood	-12271
▁daaronder	-12272
▁follikels	-12273
▁gecentrif	-12274
▁helixrand	-12275
▁hemithyre	-12276
▁hepaticus	-12277
▁inflammat	-12278
▁lipoidica	-12279
▁opgenomen	-12280
▁spitzoide	-12281
▁standaard	-12282
Predictieve	-12283
angiopathie	-12284
neusvleugel	-12285
perineurale	-12286
▁Bespreking	-12287
▁Botbiopten	-12288
▁Breuninger	-12289
▁ZNkleuring	-12290
▁behandelen	-12291
▁bestraling	-12292
▁cerebellum	-12293
▁conclusieI	-12294
▁cystebeeld	-12295
▁glomerulus	-12296
▁ingebracht	-12297
▁methylatie	-12298
▁orientatie	-12299
▁pustulaire	-12300
▁radiologie	-12301
▁rechteroog	-12302
▁somatische	-12303
▁suprasperm	-12304
▁toereikend	-12305
▁uitbreiden	-12306
Breslowdikte	-12307
Histologisch	-12308
histiocytair	-12309
itucomponent	-12310
ocytologisch	-12311
radiologisch	-12312
spierweefsel	-12313
▁Bevindingen	-12314
▁clonaliteit	-12315
▁distinctive	-12316
▁geincubeerd	-12317
▁gevalideerd	-12318
▁hidradenoom	-12319
▁midfrontaal	-12320
▁omslagplooi	-12321
▁osteoporose	-12322
▁panitumumab	-12323
▁parametrium	-12324
▁tumorproces	-12325
▁vervezeling	-12326
Vraagstelling	-12327
ecidualiseerd	-12328
ihepatectomie	-12329
overgangszone	-12330
▁Aanwijzingen	-12331
▁Excochleatie	-12332
▁Normospermie	-12333
▁SPECIMENTYPE	-12334
▁Voornamelijk	-12335
▁cicatriciele	-12336
▁cytokeratine	-12337
▁geruptureerd	-12338
▁lymfkliertje	-12339
▁maagovergang	-12340
▁scleroserend	-12341
▁uiteindelijk	-12342
▁Anusuitstrijk	-12343
▁Cervixbiopsie	-12344
▁Coecumbiopten	-12345
▁Pericardvocht	-12346
▁Transplantaat	-12347
▁ameloblastoom	-12348
▁berichtgeving	-12349
▁condylomateus	-12350
▁cryptabcesjes	-12351
▁halslymfklier	-12352
▁hysterectomie	-12353
▁markerpatroon	-12354
▁Microcurettage	-12355
▁Mutatieanalyse	-12356
▁craniolateraal	-12357
▁georganiseerde	-12358
▁immuuntherapie	-12359
▁pancreasstaart	-12360
▁ulcusmateriaal	-12361
ologiebespreking	-12362
▁Medebeoordeling	-12363
▁Synoviumbiopten	-12364
▁allelspecifieke	-12365
▁follikelcentrum	-12366
▁gecentrifugeerd	-12367
▁graderingsgroep	-12368
▁hepatoduodenale	-12369
▁ijzerdeposities	-12370
▁ileocoecaalklep	-12371
▁lymfadenectomie	-12372
▁mutatiehotspots	-12373
▁naevuscelnaevus	-12374
▁tubulairadenoom	-12375
▁vaatmalformatie	-12376
IH	-12377
MG	-12378
SA	-12379
SD	-12380
Sb	-12381
UI	-12382
XI	-12383
ZI	-12384
aa	-12385
cN	-12386
pH	-12387
00[	-12388
122	-12389
152	-12390
161	-12391
164	-12392
191	-12393
19[	-12394
254	-12395
25[	-12396
304	-12397
404	-12398
408	-12399
46[	-12400
545	-12401
795	-12402
ASH	-12403
CEN	-12404
CNV	-12405
GCL	-12406
IRC	-12407
PIK	-12408
RAL	-12409
Seq	-12410
Str	-12411
]26	-12412
_03	-12413
ash	-12414
geh	-12415
inx	-12416
lig	-12417
ogn	-12418
plg	-12419
tse	-12420
uig	-12421
wal	-12422
yng	-12423
▁69	-12424
▁Ap	-12425
▁Bi	-12426
▁CF	-12427
▁ED	-12428
▁Ib	-12429
▁Of	-12430
▁PM	-12431
▁SA	-12432
▁TR	-12433
▁Ta	-12434
▁bh	-12435
▁ur	-12436
▁vs	-12437
1316	-12438
1417	-12439
1510	-12440
1607	-12441
1624	-12442
2215	-12443
2235	-12444
Aard	-12445
MGMT	-12446
adiA	-12447
ally	-12448
ateg	-12449
cfjs	-12450
hing	-12451
idus	-12452
ieus	-12453
node	-12454
oche	-12455
onse	-12456
oron	-12457
otox	-12458
pons	-12459
ress	-12460
rogl	-12461
toge	-12462
unch	-12463
urth	-12464
uzet	-12465
▁12[	-12466
▁300	-12467
▁AZN	-12468
▁Beh	-12469
▁EIF	-12470
▁Gal	-12471
▁HRD	-12472
▁IGH	-12473
▁IGK	-12474
▁MAI	-12475
▁Neu	-12476
▁TRG	-12477
▁Vet	-12478
▁acc	-12479
▁mgl	-12480
▁ong	-12481
▁oxy	-12482
▁rom	-12483
▁sur	-12484
▁tem	-12485
Blaas	-12486
GROEI	-12487
Regio	-12488
ancre	-12489
casus	-12490
dylla	-12491
evalu	-12492
grade	-12493
group	-12494
helft	-12495
inkes	-12496
kende	-12497
trial	-12498
ureel	-12499
vulus	-12500
wordt	-12501
zocht	-12502
▁1520	-12503
▁2030	-12504
▁ARAF	-12505
▁ATRX	-12506
▁Beta	-12507
▁Blok	-12508
▁CINI	-12509
▁DISH	-12510
▁KGCL	-12511
▁LORD	-12512
▁PERI	-12513
▁anat	-12514
▁bijv	-12515
▁cocc	-12516
▁elke	-12517
▁foto	-12518
▁gutt	-12519
▁left	-12520
▁leuc	-12521
▁lute	-12522
▁meng	-12523
▁oogt	-12524
▁pijn	-12525
▁site	-12526
▁subg	-12527
▁trab	-12528
ELTUMP	-12529
KSFMBR	-12530
alpinx	-12531
arrett	-12532
arynge	-12533
eeling	-12534
emming	-12535
gevend	-12536
icolor	-12537
lacent	-12538
morbus	-12539
niones	-12540
omonas	-12541
osilic	-12542
retage	-12543
ruppel	-12544
schikt	-12545
wricht	-12546
▁Bloed	-12547
▁Ewing	-12548
▁Femur	-12549
▁OVERI	-12550
▁Roche	-12551
▁STUMP	-12552
▁Zowel	-12553
▁conus	-12554
▁donor	-12555
▁fijne	-12556
▁hydat	-12557
▁hyfen	-12558
▁impet	-12559
▁lapar	-12560
▁large	-12561
▁lucht	-12562
▁mycob	-12563
▁opget	-12564
▁right	-12565
▁stoll	-12566
▁traan	-12567
Candida	-12568
Hotspot	-12569
Sigmoid	-12570
distale	-12571
geringe	-12572
lekkage	-12573
lengten	-12574
linisch	-12575
uzetest	-12576
vormend	-12577
▁Becksb	-12578
▁Bulbus	-12579
▁Ductus	-12580
▁SAMPUS	-12581
▁beleid	-12582
▁cornea	-12583
▁lijden	-12584
▁majora	-12585
▁merkel	-12586
▁mesang	-12587
▁moeten	-12588
▁multic	-12589
▁mutant	-12590
▁poster	-12591
▁seroom	-12592
▁smalle	-12593
▁suprag	-12594
▁uitval	-12595
▁vinden	-12596
▁viscer	-12597
▁zaadje	-12598
_0052283	-12599
inisatie	-12600
lottisch	-12601
ocytoide	-12602
opharynx	-12603
sluitend	-12604
▁Analyse	-12605
▁CONSULT	-12606
▁afbraak	-12607
▁bereikt	-12608
▁bewezen	-12609
▁celblok	-12610
▁discrep	-12611
▁enchond	-12612
▁gemerkt	-12613
▁gevolgd	-12614
▁giardia	-12615
▁guttata	-12616
▁implant	-12617
▁kleppen	-12618
▁langdur	-12619
▁motiele	-12620
▁nummers	-12621
▁pericol	-12622
▁periost	-12623
▁primers	-12624
▁rustige	-12625
▁synovia	-12626
▁verdikt	-12627
▁wederom	-12628
Doorgroei	-12629
Regressie	-12630
figuratie	-12631
otheliale	-12632
togewicht	-12633
▁Bioptjes	-12634
▁Melanoom	-12635
▁Onderlip	-12636
▁Perifere	-12637
▁Typering	-12638
▁analyses	-12639
▁behorend	-12640
▁ciliaire	-12641
▁continue	-12642
▁crescent	-12643
▁cysticus	-12644
▁database	-12645
▁dyshemat	-12646
▁fallopii	-12647
▁follicul	-12648
▁gasthuis	-12649
▁gestuwde	-12650
▁gevraagd	-12651
▁identiek	-12652
▁infundib	-12653
▁klachten	-12654
▁mucinose	-12655
▁omkapsel	-12656
▁redelijk	-12657
▁research	-12658
▁slijmbek	-12659
▁tatoeage	-12660
▁tumorDNA	-12661
▁volvulus	-12662
▁weefselp	-12663
USSNIJVLAK	-12664
aangetoond	-12665
aantasting	-12666
associeerd	-12667
lonaliteit	-12668
oAdectomie	-12669
obacterium	-12670
oppervlakk	-12671
rondcellen	-12672
snijranden	-12673
vriescoupe	-12674
zoospermie	-12675
▁Benchmark	-12676
▁Momenteel	-12677
▁VOORLOPIG	-12678
▁borstwand	-12679
▁deficient	-12680
▁enerzijds	-12681
▁gevraagde	-12682
▁granulair	-12683
▁linkerbil	-12684
▁mitochond	-12685
▁neurogene	-12686
▁nietklein	-12687
▁perniones	-12688
▁scapulair	-12689
▁segmenten	-12690
▁spierlaag	-12691
▁tweederde	-12692
▁uurszijde	-12693
▁verklaart	-12694
▁verzonden	-12695
▁voorzover	-12696
Progesteron	-12697
Satellitose	-12698
UITBREIDING	-12699
quorpunctie	-12700
reticulaire	-12701
▁AANGEPASTE	-12702
▁Clarklevel	-12703
▁Elektronen	-12704
▁Enucleatie	-12705
▁Preparaten	-12706
▁Stadiering	-12707
▁Uitgebreid	-12708
▁aangemaakt	-12709
▁aanleveren	-12710
▁commentaar	-12711
▁commissura	-12712
▁conjunctiv	-12713
▁doorgebeld	-12714
▁essentiele	-12715
▁exofytisch	-12716
▁gemarkeerd	-12717
▁huidstukje	-12718
▁intermamma	-12719
▁linkerbeen	-12720
▁naresectie	-12721
▁neuspoliep	-12722
▁ongevoelig	-12723
▁ontwikkeld	-12724
▁reepitheli	-12725
▁uitgenomen	-12726
▁versicolor	-12727
▁vervaardig	-12728
▁zweetklier	-12729
Colonbiopten	-12730
Volledigheid	-12731
aangetroffen	-12732
ceptorstatus	-12733
odiagnostiek	-12734
rodermatitis	-12735
▁Navelstreng	-12736
▁PASdiastase	-12737
▁atheroscler	-12738
▁bestralings	-12739
▁blaasmucosa	-12740
▁cystectomie	-12741
▁eerstelijns	-12742
▁glomustumor	-12743
▁ingestuurde	-12744
▁leukoplakie	-12745
▁longorigine	-12746
▁methylation	-12747
▁monotypisch	-12748
▁rectumbiopt	-12749
▁spermaticus	-12750
▁suppurativa	-12751
▁testisbiopt	-12752
▁triliniaire	-12753
▁uitstrijken	-12754
▁verhoorning	-12755
icrosatelliet	-12756
▁Fibroadenoom	-12757
▁duodenumtype	-12758
▁endoscopisch	-12759
▁geinduceerde	-12760
▁histiocytose	-12761
▁lymfadenitis	-12762
▁ondersteunen	-12763
▁onduidelijke	-12764
▁pretracheaal	-12765
▁spirochetose	-12766
▁trombosering	-12767
▁tumornecrose	-12768
▁vezeltoename	-12769
igeassocieerde	-12770
▁amplificaties	-12771
▁daadwerkelijk	-12772
▁geanalyseerde	-12773
▁gesuggereerde	-12774
▁getromboseerd	-12775
▁lymfkliertjes	-12776
▁mucosabiopten	-12777
▁verlittekende	-12778
▁virusinfectie	-12779
Resectievlakken	-12780
Zekerheidshalve	-12781
▁Mondslijmvlies	-12782
▁Transurethraal	-12783
▁arterioveneuze	-12784
▁differentieren	-12785
▁intratubulaire	-12786
▁micropapillair	-12787
▁multinodulaire	-12788
▁naevocellulare	-12789
▁nevenbevinding	-12790
▁papillomatosis	-12791
▁plaatsgevonden	-12792
▁sigmoidbiopten	-12793
▁slokdarmmucosa	-12794
▁tonsillectomie	-12795
Lymfangioinvasie	-12796
Oesofagusbiopten	-12797
▁Corpuscurettage	-12798
▁megakaryopoiese	-12799
▁microbiologisch	-12800
▁peritoneumbiopt	-12801
IZ	-12802
KS	-12803
We	-12804
ae	-12805
az	-12806
gs	-12807
039	-12808
10[	-12809
181	-12810
260	-12811
278	-12812
283	-12813
29[	-12814
409	-12815
508	-12816
509	-12817
67[	-12818
768	-12819
804	-12820
80[	-12821
EPI	-12822
HPF	-12823
ISE	-12824
MAP	-12825
PAS	-12826
ios	-12827
ona	-12828
oto	-12829
tel	-12830
urc	-12831
ych	-12832
ypt	-12833
yto	-12834
▁79	-12835
▁HU	-12836
▁KL	-12837
▁Kw	-12838
▁LO	-12839
▁SE	-12840
▁WT	-12841
1308	-12842
1530	-12843
1616	-12844
1903	-12845
2113	-12846
2114	-12847
Cave	-12848
Hals	-12849
Morf	-12850
VOLG	-12851
appa	-12852
aser	-12853
dent	-12854
egio	-12855
elia	-12856
erum	-12857
heup	-12858
hose	-12859
ieAn	-12860
iter	-12861
krab	-12862
mbst	-12863
oemd	-12864
omeg	-12865
rich	-12866
▁110	-12867
▁130	-12868
▁150	-12869
▁BTG	-12870
▁DDR	-12871
▁Dar	-12872
▁Ern	-12873
▁GCB	-12874
▁Hyp	-12875
▁LAM	-12876
▁Neg	-12877
▁PSC	-12878
▁Pas	-12879
▁Red	-12880
▁Rel	-12881
▁SLE	-12882
▁SOC	-12883
▁Zon	-12884
▁ach	-12885
▁dem	-12886
▁des	-12887
▁tez	-12888
Graag	-12889
MORFO	-12890
_0333	-12891
autor	-12892
eginn	-12893
ffect	-12894
iecem	-12895
lecel	-12896
links	-12897
lioom	-12898
obbel	-12899
ovend	-12900
toont	-12901
ulcus	-12902
wegen	-12903
▁1020	-12904
▁CMYC	-12905
▁COPD	-12906
▁ERPR	-12907
▁EWSR	-12908
▁Lung	-12909
▁Onze	-12910
▁POLD	-12911
▁Peri	-12912
▁Rond	-12913
▁VATS	-12914
▁anth	-12915
▁bloc	-12916
▁celt	-12917
▁echo	-12918
▁forn	-12919
▁jong	-12920
▁ontv	-12921
▁pSer	-12922
▁palp	-12923
▁rete	-12924
▁ring	-12925
▁side	-12926
▁temp	-12927
▁toev	-12928
▁tran	-12929
▁weer	-12930
▁ziek	-12931
ASTASE	-12932
Levern	-12933
active	-12934
alance	-12935
arcyto	-12936
ecific	-12937
esbaar	-12938
etumor	-12939
icisme	-12940
ilfers	-12941
immuno	-12942
itieve	-12943
lijnen	-12944
midden	-12945
patiAn	-12946
rijgen	-12947
rokkel	-12948
▁Giems	-12949
▁Graad	-12950
▁Myoom	-12951
▁abuis	-12952
▁einde	-12953
▁elekt	-12954
▁embol	-12955
▁gemac	-12956
▁isola	-12957
▁keten	-12958
▁knier	-12959
▁kolon	-12960
▁manus	-12961
▁negen	-12962
▁osteo	-12963
▁palat	-12964
▁palma	-12965
▁plica	-12966
▁rubra	-12967
▁toest	-12968
▁trial	-12969
▁versn	-12970
Mitosen	-12971
Patient	-12972
bericht	-12973
compens	-12974
houdend	-12975
laesies	-12976
mortaal	-12977
oordeel	-12978
reening	-12979
sresten	-12980
wandige	-12981
washout	-12982
▁100000	-12983
▁Extern	-12984
▁Hailey	-12985
▁Helaas	-12986
▁Idylla	-12987
▁Leydig	-12988
▁Lichte	-12989
▁METgen	-12990
▁Opvall	-12991
▁atrofe	-12992
▁atroof	-12993
▁betrof	-12994
▁bhband	-12995
▁comedo	-12996
▁daarna	-12997
▁divers	-12998
▁gebrek	-12999
▁gemute	-13000
▁genese	-13001
▁gliale	-13002
▁influx	-13003
▁laatst	-13004
▁latere	-13005
▁loslat	-13006
▁matrix	-13007
▁minora	-13008
▁rommel	-13009
▁sacrum	-13010
▁sectio	-13011
▁series	-13012
▁stadiA	-13013
▁trache	-13014
Receptor	-13015
aalplaat	-13016
agulatie	-13017
ategorie	-13018
bevestig	-13019
ergelijk	-13020
iecemeal	-13021
nectomie	-13022
omediaal	-13023
ovendien	-13024
romatose	-13025
▁Barthol	-13026
▁Chirurg	-13027
▁Diffuus	-13028
▁Gedacht	-13029
▁Infiltr	-13030
▁Lymfoom	-13031
▁MELTUMP	-13032
▁Passend	-13033
▁Patient	-13034
▁Sertoli	-13035
▁accumin	-13036
▁antrale	-13037
▁blaassp	-13038
▁congest	-13039
▁gebouwd	-13040
▁geident	-13041
▁gekleur	-13042
▁gepunch	-13043
▁kopieAn	-13044
▁larynge	-13045
▁meegere	-13046
▁neuswal	-13047
▁plaatsv	-13048
▁schacht	-13049
▁seromuc	-13050
▁subling	-13051
▁telling	-13052
▁tezamen	-13053
Consensus	-13054
biopteren	-13055
classific	-13056
erytrocyt	-13057
itiviteit	-13058
olytische	-13059
omyositis	-13060
oradische	-13061
ralisklep	-13062
vasculair	-13063
▁Gewricht	-13064
▁Grootste	-13065
▁Poliepje	-13066
▁Positief	-13067
▁Reductie	-13068
▁Zwelling	-13069
▁agarcyto	-13070
▁daardoor	-13071
▁dichtbij	-13072
▁erytheem	-13073
▁intralum	-13074
▁linguaal	-13075
▁morphaea	-13076
▁mucosaal	-13077
▁opwerken	-13078
▁paragang	-13079
▁paratrab	-13080
▁periduct	-13081
▁purulent	-13082
▁secretie	-13083
▁stervorm	-13084
▁tamelijk	-13085
▁vaginaal	-13086
Bespreking	-13087
Kleuringen	-13088
MORFOLOGIE	-13089
Vulvabiopt	-13090
cellularis	-13091
hepatische	-13092
inusoidale	-13093
kristallen	-13094
leucocyten	-13095
vitaliteit	-13096
▁Buikvocht	-13097
▁LORDtrial	-13098
▁METASTASE	-13099
▁Serologie	-13100
▁Tenminste	-13101
▁aangedaan	-13102
▁aggregaat	-13103
▁alveolair	-13104
▁bowenoAde	-13105
▁criterium	-13106
▁elementen	-13107
▁glycogene	-13108
▁hemorroid	-13109
▁hydrolyse	-13110
▁identieke	-13111
▁inactieve	-13112
▁knieregio	-13113
▁lepidisch	-13114
▁linkerarm	-13115
▁medullair	-13116
▁middenoor	-13117
▁neusholte	-13118
▁productie	-13119
▁recurrent	-13120
▁schatting	-13121
▁screening	-13122
▁stromacel	-13123
▁tonsillen	-13124
▁ulcerende	-13125
▁verwijzen	-13126
▁verwissel	-13127
Zijdelingse	-13128
aankleuring	-13129
autoriseerd	-13130
methylering	-13131
ontstekings	-13132
▁Blaasspoel	-13133
▁Concordant	-13134
▁Morfologie	-13135
▁aanmerking	-13136
▁auriculair	-13137
▁bacteriAle	-13138
▁calcinosis	-13139
▁carcinomen	-13140
▁celgroepje	-13141
▁dunwandige	-13142
▁follicular	-13143
▁glandulair	-13144
▁heterogene	-13145
▁hypofarynx	-13146
▁hypoplasie	-13147
▁intraabdom	-13148
▁linkerpols	-13149
▁maagfundus	-13150
▁piriformis	-13151
▁sinonasaal	-13152
▁tepelvocht	-13153
▁ulceratief	-13154
▁ulceraties	-13155
Excisiebiopt	-13156
eratospermie	-13157
geassocieerd	-13158
▁Flegmoneuze	-13159
▁Goedaardige	-13160
▁Immunologie	-13161
▁Intestinale	-13162
▁aspergillus	-13163
▁geprikkelde	-13164
▁hersentumor	-13165
▁huidadnexen	-13166
▁intensiteit	-13167
▁paraaortale	-13168
▁paracolisch	-13169
▁transmuraal	-13170
▁uitgevoerde	-13171
▁vaattoename	-13172
▁verbrokkeld	-13173
INVASIEDIEPTE	-13174
beenmergbiopt	-13175
▁Protocollair	-13176
▁aangrenzende	-13177
▁cystevorming	-13178
▁doodsoorzaak	-13179
▁gevoeligheid	-13180
▁intermammair	-13181
▁korstvorming	-13182
▁myeloblasten	-13183
▁nietinvasief	-13184
▁periadnexaal	-13185
▁plasmocytoom	-13186
▁samengesteld	-13187
▁volledigheid	-13188
microglobuline	-13189
▁Colonresectie	-13190
▁erythemateuze	-13191
▁ijzerkleuring	-13192
▁mammaprothese	-13193
▁mitosefiguren	-13194
▁necrotiserend	-13195
▁parapsoriasis	-13196
▁reconstructie	-13197
▁schimmeldraad	-13198
▁uterussegment	-13199
▁Bladderwashout	-13200
▁Gleasonpatroon	-13201
▁Prostatectomie	-13202
▁Transcervicale	-13203
▁Vriesmateriaal	-13204
▁autoimmuniteit	-13205
▁biopsietraject	-13206
▁coronairarteri	-13207
▁decidualisatie	-13208
▁lymfoidweefsel	-13209
▁paraffinecoupe	-13210
▁peribronchiale	-13211
▁rechterovarium	-13212
▁Tumorpercentage	-13213
▁Weefselfragment	-13214
▁diagnosticeerde	-13215
▁fibroglandulair	-13216
▁geidentificeerd	-13217
▁perifolliculair	-13218
▁thyreoidectomie	-13219
▁verlittekenende	-13220
2_	-13221
52	-13222
58	-13223
BL	-13224
DQ	-13225
En	-13226
Ep	-13227
Ob	-13228
PH	-13229
PL	-13230
Pl	-13231
VS	-13232
kb	-13233
pm	-13234
tt	-13235
vm	-13236
vp	-13237
030	-13238
239	-13239
266	-13240
280	-13241
286	-13242
289	-13243
290	-13244
308	-13245
407	-13246
40[	-13247
478	-13248
48[	-13249
535	-13250
542	-13251
769	-13252
807	-13253
952	-13254
CTI	-13255
ESS	-13256
FIL	-13257
MSP	-13258
Mar	-13259
Min	-13260
Pot	-13261
RNA	-13262
Sec	-13263
TAT	-13264
TZI	-13265
ano	-13266
cip	-13267
ets	-13268
ler	-13269
lum	-13270
ohn	-13271
pel	-13272
sed	-13273
sup	-13274
uil	-13275
▁64	-13276
▁76	-13277
▁83	-13278
▁IB	-13279
▁Ox	-13280
▁Ur	-13281
▁ef	-13282
▁ip	-13283
1305	-13284
1309	-13285
1433	-13286
1549	-13287
2034	-13288
2103	-13289
2200	-13290
AARD	-13291
EPIC	-13292
IALE	-13293
IZON	-13294
MULT	-13295
agni	-13296
anal	-13297
bele	-13298
clat	-13299
cula	-13300
derd	-13301
diep	-13302
dist	-13303
ijkt	-13304
ilet	-13305
iloc	-13306
imit	-13307
lect	-13308
mond	-13309
onei	-13310
opro	-13311
psie	-13312
qman	-13313
tuba	-13314
uale	-13315
uime	-13316
utie	-13317
zame	-13318
▁035	-13319
▁146	-13320
▁15[	-13321
▁211	-13322
▁290	-13323
▁Ber	-13324
▁DER	-13325
▁ECL	-13326
▁HOR	-13327
▁JNI	-13328
▁MTP	-13329
▁RDK	-13330
▁Ret	-13331
▁SAN	-13332
▁SLL	-13333
▁SPF	-13334
▁STR	-13335
▁TAM	-13336
▁TNF	-13337
▁TSO	-13338
▁The	-13339
▁Val	-13340
▁WGS	-13341
▁akt	-13342
▁ble	-13343
▁cap	-13344
▁lik	-13345
▁lin	-13346
▁opv	-13347
▁qua	-13348
▁sym	-13349
▁umc	-13350
2018[	-13351
2020[	-13352
Adnex	-13353
CRISE	-13354
INFIL	-13355
Klier	-13356
Toont	-13357
_2249	-13358
aline	-13359
bulle	-13360
enden	-13361
erfde	-13362
genen	-13363
idief	-13364
ieuze	-13365
ikaal	-13366
jicht	-13367
kraam	-13368
minus	-13369
ologe	-13370
orcel	-13371
ovasc	-13372
ragus	-13373
rauma	-13374
reert	-13375
repen	-13376
sched	-13377
tatie	-13378
vezel	-13379
▁1011	-13380
▁1015	-13381
▁1050	-13382
▁1112	-13383
▁AGEP	-13384
▁CAVE	-13385
▁FESS	-13386
▁Kaak	-13387
▁Morg	-13388
▁RETI	-13389
▁abru	-13390
▁anal	-13391
▁baat	-13392
▁botb	-13393
▁cast	-13394
▁dura	-13395
▁idem	-13396
▁incl	-13397
▁kant	-13398
▁koud	-13399
▁mamm	-13400
▁numm	-13401
▁sens	-13402
▁trad	-13403
▁true	-13404
▁vals	-13405
▁vlek	-13406
MULTIF	-13407
Pleura	-13408
String	-13409
Volume	-13410
WERKEN	-13411
]20150	-13412
centra	-13413
cysten	-13414
ellair	-13415
ermate	-13416
haling	-13417
icolon	-13418
iferum	-13419
inderd	-13420
iteria	-13421
klierb	-13422
kopafw	-13423
leerde	-13424
omisch	-13425
ostoma	-13426
pakket	-13427
punten	-13428
secret	-13429
udatie	-13430
ulated	-13431
▁2016[	-13432
▁COVID	-13433
▁HLADQ	-13434
▁Heeft	-13435
▁IIIII	-13436
▁Laser	-13437
▁Lupus	-13438
▁PLEVA	-13439
▁Potje	-13440
▁Ratio	-13441
▁breid	-13442
▁carun	-13443
▁gefix	-13444
▁genez	-13445
▁glute	-13446
▁hydro	-13447
▁ileus	-13448
▁invol	-13449
▁koude	-13450
▁kwant	-13451
▁linea	-13452
▁mucin	-13453
▁multi	-13454
▁polys	-13455
▁porta	-13456
▁rings	-13457
▁shock	-13458
▁stomp	-13459
▁vaker	-13460
▁ventr	-13461
Ascites	-13462
Geringe	-13463
Signaal	-13464
cirrose	-13465
clatuur	-13466
eliacus	-13467
eparaat	-13468
gebiopt	-13469
gevoegd	-13470
istente	-13471
obronch	-13472
oliepje	-13473
ollicul	-13474
stuwing	-13475
ullaire	-13476
verband	-13477
▁Behcet	-13478
▁Blokje	-13479
▁DERMIS	-13480
▁Darier	-13481
▁EUSFNA	-13482
▁Matuur	-13483
▁Minder	-13484
▁Urinec	-13485
▁altijd	-13486
▁buisje	-13487
▁bullae	-13488
▁double	-13489
▁engere	-13490
▁falanx	-13491
▁fornix	-13492
▁gesamp	-13493
▁glansp	-13494
▁groene	-13495
▁insitu	-13496
▁intrap	-13497
▁liggen	-13498
▁lipoma	-13499
▁luteum	-13500
▁meatus	-13501
▁miljml	-13502
▁palpab	-13503
▁presac	-13504
▁ronden	-13505
▁sectie	-13506
▁strikt	-13507
▁strips	-13508
▁uitger	-13509
▁verval	-13510
▁villus	-13511
▁zwarte	-13512
IFICATIE	-13513
IZONTALE	-13514
Minimale	-13515
Obductie	-13516
_0043334	-13517
_0333602	-13518
angioend	-13519
arianten	-13520
artefact	-13521
emphigus	-13522
imentine	-13523
lamellen	-13524
lassieke	-13525
ranuloom	-13526
recidief	-13527
sistente	-13528
uiteinde	-13529
▁Evenmin	-13530
▁Giemsak	-13531
▁Hooguit	-13532
▁OVERIGE	-13533
▁Reinkes	-13534
▁VERVOLG	-13535
▁WHOISUP	-13536
▁buccaal	-13537
▁cohesie	-13538
▁daartoe	-13539
▁dentata	-13540
▁druppel	-13541
▁duidend	-13542
▁ependym	-13543
▁gekeken	-13544
▁haemorr	-13545
▁lytisch	-13546
▁menstru	-13547
▁nierins	-13548
▁onrijpe	-13549
▁oxyuren	-13550
▁portaal	-13551
▁procent	-13552
▁psoriat	-13553
▁ritmest	-13554
▁sternoc	-13555
▁venster	-13556
2235_2249	-13557
Onderzoek	-13558
Vergelijk	-13559
afwijkend	-13560
anoString	-13561
cytoplasm	-13562
depositie	-13563
ificerend	-13564
middenafw	-13565
staartafw	-13566
veranderd	-13567
▁DIAMETER	-13568
▁Intracav	-13569
▁Kleinste	-13570
▁Leishman	-13571
▁Morgagni	-13572
▁Nagenoeg	-13573
▁OPWERKEN	-13574
▁Specific	-13575
▁Spontane	-13576
▁buikhuid	-13577
▁cartilag	-13578
▁cystaden	-13579
▁drainage	-13580
▁function	-13581
▁gebruikt	-13582
▁initiele	-13583
▁inzenden	-13584
▁koilocyt	-13585
▁longarts	-13586
▁miskraam	-13587
▁myeloAde	-13588
▁myositis	-13589
▁ophoping	-13590
▁ovariele	-13591
▁response	-13592
▁schatten	-13593
▁spiercel	-13594
▁stabiele	-13595
▁stolsels	-13596
▁temidden	-13597
▁tumorale	-13598
▁verleden	-13599
▁vertonen	-13600
BRONCHIALE	-13601
TUMORDIKTE	-13602
efropathie	-13603
eldiagnose	-13604
granulomen	-13605
macrofagen	-13606
occipitaal	-13607
parameters	-13608
peritoneum	-13609
▁Endometri	-13610
▁Secundair	-13611
▁Uitspraak	-13612
▁aantallen	-13613
▁antehelix	-13614
▁bioptisch	-13615
▁coeliacus	-13616
▁decompens	-13617
▁denudatie	-13618
▁diversion	-13619
▁enteritis	-13620
▁gastrisch	-13621
▁generatie	-13622
▁gestation	-13623
▁halsklier	-13624
▁hartfalen	-13625
▁immuunfen	-13626
▁intervill	-13627
▁onderbouw	-13628
▁opbrengst	-13629
▁overgroei	-13630
▁peritonei	-13631
▁ringsider	-13632
▁submuceus	-13633
▁synovitis	-13634
▁wenselijk	-13635
Beoordeling	-13636
Cervixbiopt	-13637
INFILTRATIE	-13638
SNIJVLAKKEN	-13639
bindweefsel	-13640
omenclatuur	-13641
▁Fragmentje	-13642
▁Histologie	-13643
▁accessoire	-13644
▁aktinische	-13645
▁celtelling	-13646
▁ductulaire	-13647
▁entiteiten	-13648
▁farynxboog	-13649
▁geserreerd	-13650
▁herhalings	-13651
▁heterogeen	-13652
▁kernatypie	-13653
▁laesionale	-13654
▁linkervoet	-13655
▁middermale	-13656
▁papillomen	-13657
▁ribbenboog	-13658
▁sarcoAdose	-13659
▁sinonasale	-13660
▁spierbiopt	-13661
▁stadiAring	-13662
▁stervormig	-13663
▁tumorbodem	-13664
▁uitwendige	-13665
Concluderend	-13666
RESECTIEVLAK	-13667
Samenvattend	-13668
extravasatie	-13669
ocardbiopten	-13670
translocatie	-13671
▁25610141821	-13672
▁Beiderzijds	-13673
▁Bindweefsel	-13674
▁Colorectaal	-13675
▁Geadviseerd	-13676
▁HORIZONTALE	-13677
▁Microscopie	-13678
▁RETICULAIRE	-13679
▁aanhoudende	-13680
▁achterhalen	-13681
▁aplastische	-13682
▁atrophicans	-13683
▁divertikels	-13684
▁doorgevoerd	-13685
▁enchondroom	-13686
▁ethmoidalis	-13687
▁fibrolipoom	-13688
▁huidweefsel	-13689
▁ingeschatte	-13690
▁kolonisatie	-13691
▁midprostaat	-13692
▁ondersteund	-13693
▁ossificatie	-13694
▁predominant	-13695
▁rechterbeen	-13696
▁rechterkuit	-13697
▁schoudernek	-13698
▁seriecoupes	-13699
▁sinusoidale	-13700
▁suboptimale	-13701
▁weggebracht	-13702
DCIScomponent	-13703
Prognostische	-13704
pathologische	-13705
▁Deppreparaat	-13706
▁Toxicodermie	-13707
▁aankleurende	-13708
▁configuratie	-13709
▁discrepantie	-13710
▁endometrioAd	-13711
▁gemacereerde	-13712
▁gereseceerde	-13713
▁interfereren	-13714
▁kernhoudende	-13715
▁levercirrose	-13716
▁nettogewicht	-13717
▁pancreatitis	-13718
▁papilliferum	-13719
▁pipellebiopt	-13720
▁plaatsvinden	-13721
▁progestageen	-13722
▁progressieve	-13723
▁sarcomatoide	-13724
▁spierinvasie	-13725
Mutatieanalyse	-13726
▁Liquorpunctie	-13727
▁Vacuumbiopten	-13728
▁bronchusbrush	-13729
▁geautoriseerd	-13730
▁neuroblastoom	-13731
▁overeenkomend	-13732
▁paraganglioom	-13733
▁Giemsakleuring	-13734
▁Urinecytologie	-13735
▁cylindercellen	-13736
▁eiwitexpressie	-13737
▁fibromusculair	-13738
▁hematologische	-13739
▁maagcardiatype	-13740
▁normaalwaarden	-13741
▁panelrelevante	-13742
▁rechterhandrug	-13743
▁rechterscapula	-13744
▁thyroidectomie	-13745
▁tumorpositieve	-13746
▁weefselpijpjes	-13747
volumepercentage	-13748
▁Cervixuitstrijk	-13749
▁brushpreparaten	-13750
▁coronairarterie	-13751
▁cytodiagnostiek	-13752
▁hypercellulaire	-13753
▁intraepithelial	-13754
▁intravasculaire	-13755
▁normocellulaire	-13756
▁overgangsgebied	-13757
▁stereotactische	-13758
▁vaatafwijkingen	-13759
▁zegelringcellen	-13760
32	-13761
CO	-13762
El	-13763
KX	-13764
MU	-13765
ND	-13766
TB	-13767
]9	-13768
ba	-13769
wn	-13770
008	-13771
035	-13772
038	-13773
107	-13774
171	-13775
27[	-13776
307	-13777
348	-13778
375	-13779
439	-13780
490	-13781
506	-13782
608	-13783
711	-13784
859	-13785
85[	-13786
86[	-13787
BCL	-13788
CBI	-13789
CIN	-13790
CON	-13791
EUS	-13792
HEK	-13793
Hem	-13794
PAM	-13795
Ref	-13796
Tyr	-13797
XCR	-13798
aml	-13799
apt	-13800
bas	-13801
dan	-13802
drs	-13803
mid	-13804
nod	-13805
oAƒ	-13806
own	-13807
sdu	-13808
▁71	-13809
▁96	-13810
▁DA	-13811
▁DQ	-13812
▁EZ	-13813
▁FU	-13814
▁Ia	-13815
▁PV	-13816
▁Pn	-13817
▁TA	-13818
▁Uw	-13819
▁cf	-13820
▁dy	-13821
▁vo	-13822
1355	-13823
1710	-13824
1801	-13825
1803	-13826
1915	-13827
1930	-13828
2037	-13829
2121	-13830
2129	-13831
2574	-13832
3140	-13833
3596	-13834
4646	-13835
CHEM	-13836
ICER	-13837
ISTO	-13838
MNIS	-13839
Oude	-13840
_006	-13841
ance	-13842
cale	-13843
cens	-13844
chet	-13845
coop	-13846
cort	-13847
fluv	-13848
heim	-13849
high	-13850
iSeq	-13851
ijpt	-13852
keus	-13853
land	-13854
milt	-13855
ofys	-13856
olic	-13857
oofd	-13858
osse	-13859
plex	-13860
rani	-13861
spar	-13862
stof	-13863
trom	-13864
utio	-13865
ytyp	-13866
zelf	-13867
▁005	-13868
▁136	-13869
▁250	-13870
▁333	-13871
▁ACT	-13872
▁AIH	-13873
▁ATP	-13874
▁BPH	-13875
▁Dis	-13876
▁EEM	-13877
▁IRF	-13878
▁Kap	-13879
▁Lis	-13880
▁MIT	-13881
▁NKX	-13882
▁Nec	-13883
▁Nvt	-13884
▁PAX	-13885
▁RCA	-13886
▁ROI	-13887
▁Vir	-13888
▁afg	-13889
▁bol	-13890
▁eil	-13891
▁lop	-13892
▁mag	-13893
▁not	-13894
▁pin	-13895
2013[	-13896
20338	-13897
Invas	-13898
Panel	-13899
actor	-13900
adequ	-13901
alaat	-13902
ample	-13903
aties	-13904
deels	-13905
ermet	-13906
icusp	-13907
irena	-13908
ision	-13909
klemm	-13910
lever	-13911
linde	-13912
neder	-13913
odend	-13914
odium	-13915
omeen	-13916
ossus	-13917
riale	-13918
tieve	-13919
verru	-13920
volgt	-13921
weekt	-13922
▁1115	-13923
▁111[	-13924
▁2011	-13925
▁CHEK	-13926
▁ERCC	-13927
▁Endo	-13928
▁ISUP	-13929
▁John	-13930
▁NASH	-13931
▁PTLD	-13932
▁SANO	-13933
▁SCLC	-13934
▁aure	-13935
▁cava	-13936
▁dode	-13937
▁eens	-13938
▁epip	-13939
▁gele	-13940
▁geob	-13941
▁haak	-13942
▁heen	-13943
▁hern	-13944
▁lact	-13945
▁maal	-13946
▁mits	-13947
▁moza	-13948
▁muco	-13949
▁neon	-13950
▁olec	-13951
▁ontk	-13952
▁pLeu	-13953
▁pang	-13954
▁pine	-13955
▁plex	-13956
▁ront	-13957
▁stof	-13958
▁tors	-13959
▁uren	-13960
Andere	-13961
CONCEN	-13962
Nadere	-13963
Second	-13964
]20160	-13965
]20170	-13966
anodus	-13967
auhini	-13968
axilla	-13969
cephal	-13970
elings	-13971
enomen	-13972
eronde	-13973
houden	-13974
iliair	-13975
kanaal	-13976
oideus	-13977
rengen	-13978
ronend	-13979
swijze	-13980
uginea	-13981
uitges	-13982
vangen	-13983
ypeerd	-13984
▁DICER	-13985
▁Dikte	-13986
▁Enter	-13987
▁Gland	-13988
▁Hurth	-13989
▁Licht	-13990
▁Lijkt	-13991
▁MARSH	-13992
▁Milex	-13993
▁OMNIS	-13994
▁absol	-13995
▁alias	-13996
▁break	-13997
▁draad	-13998
▁endos	-13999
▁exact	-14000
▁feite	-14001
▁frequ	-14002
▁koper	-14003
▁kweek	-14004
▁nauwe	-14005
▁nogal	-14006
▁onych	-14007
▁progn	-14008
▁reser	-14009
▁sneld	-14010
1117146	-14011
Analyse	-14012
Pipelle	-14013
aarding	-14014
anthoma	-14015
ateraal	-14016
cysteus	-14017
edevlak	-14018
etische	-14019
fluvium	-14020
houding	-14021
iescoup	-14022
iteiten	-14023
leteerd	-14024
orderde	-14025
prurigo	-14026
reeksen	-14027
seffect	-14028
snummer	-14029
ventief	-14030
zijdige	-14031
▁Longen	-14032
▁Marges	-14033
▁Paneth	-14034
▁Taqman	-14035
▁Zonder	-14036
▁advent	-14037
▁alwaar	-14038
▁areata	-14039
▁banale	-14040
▁beduid	-14041
▁bifurc	-14042
▁breidt	-14043
▁clavus	-14044
▁cordis	-14045
▁cruste	-14046
▁dysmat	-14047
▁eiland	-14048
▁gangli	-14049
▁gegaan	-14050
▁gekend	-14051
▁hilair	-14052
▁hydros	-14053
▁integr	-14054
▁meeste	-14055
▁nesten	-14056
▁nodaal	-14057
▁orbita	-14058
▁pieken	-14059
▁purpur	-14060
▁schouw	-14061
▁sebace	-14062
▁sugger	-14063
▁suprab	-14064
▁trials	-14065
▁uiting	-14066
▁vacuol	-14067
▁vervol	-14068
Spontaan	-14069
Verwerkt	-14070
WHOTUMOR	-14071
aschrift	-14072
biologie	-14073
embranen	-14074
gedragen	-14075
gekapsel	-14076
[...]
