<unk>	0
<s>	0
</s>	0
[PAD]	0
[UNK]	0
[CLS]	0
[MASK]	0
[C-SEP]	0
e	-2.10368
▁	-2.98897
F	-3.7126
]	-3.76209
C	-4.00025
[	-4.06357
RL	-4.13745
▁met	-4.15436
▁van	-4.29587
▁een	-4.33009
▁Geen	-4.42709
▁en	-4.52513
L	-4.68496
▁geen	-4.78329
▁de	-4.78642
▁in	-4.79317
▁voor	-4.8046
▁maligniteit	-4.87745
CR	-4.88057
▁het	-4.94745
1	-5.02985
▁rechts	-5.03495
▁links	-5.04103
▁bij	-5.07189
▁[	-5.08724
▁ontsteking	-5.20253
carcinoom	-5.27327
▁is	-5.3083
▁beeld	-5.31004
▁I	-5.34126
▁Huidexcisie	-5.3985
▁dysplasie	-5.44298
▁of	-5.47026
2	-5.4955
▁zonder	-5.56472
▁niet	-5.62673
▁aanwijzingen	-5.64837
▁basaalcel	-5.67299
▁1	-5.67733
▁Huidbiopt	-5.68904
I	-5.7884
II	-5.87679
s	-5.90029
A	-5.90837
▁afwijkingen	-5.9306
▁passend	-5.93761
▁2	-5.94619
▁op	-5.94624
le	-6.04617
▁chronische	-6.05483
▁vrij	-6.06525
en	-6.11009
▁naevus	-6.14407
▁geringe	-6.18862
▁kan	-6.20798
▁te	-6.21127
▁veranderingen	-6.22401
▁materiaal	-6.24393
▁actieve	-6.24505
▁waarin	-6.26464
▁reactieve	-6.28826
▁linker	-6.29463
▁biopten	-6.29804
▁dd	-6.30485
▁rechter	-6.32497
▁zijn	-6.32599
▁biopt	-6.32602
▁mm	-6.3662
▁adenocarcinoom	-6.37478
▁tot	-6.38059
Aanvulling	-6.39359
▁onderzoek	-6.40383
E	-6.4275
▁nodulair	-6.4433
▁worden	-6.46233
▁passen	-6.46532
▁dit	-6.48716
▁cm	-6.52297
▁laesie	-6.5245
▁verruca	-6.53093
▁verwijderd	-6.56228
▁metaplasie	-6.5629
biopten	-6.56508
▁tumor	-6.57747
▁atypie	-6.58112
▁Huid	-6.59952
▁Excisie	-6.61792
▁naevocellularis	-6.61886
▁Het	-6.62411
▁excisie	-6.63868
▁H	-6.64143
▁groeiend	-6.64758
▁Biopten	-6.65397
al	-6.65436
▁groei	-6.657
t	-6.6637
▁II	-6.685
▁seborrhoica	-6.68539
▁type	-6.68661
▁lokalisatie	-6.74827
▁deels	-6.75402
▁volgt	-6.7576
▁wordt	-6.75877
▁Er	-6.77499
ze	-6.78725
H	-6.7927
▁lymfklier	-6.79499
▁In	-6.80066
▁goed	-6.80464
▁huid	-6.81992
▁rug	-6.82266
▁intestinale	-6.82813
R	-6.83073
▁negatief	-6.83408
▁carcinoom	-6.84368
ve	-6.84595
▁dermale	-6.86432
▁focaal	-6.86569
▁waar	-6.86768
▁onder	-6.88016
▁colon	-6.88182
▁endometrium	-6.8825
▁Helicobacter	-6.88507
▁plaveiselcel	-6.89164
▁conclusie	-6.90234
▁metastase	-6.90534
▁maligne	-6.93988
▁hyperplasie	-6.94506
▁mogelijk	-6.9472
▁na	-6.95584
▁ook	-6.95713
▁past	-6.95825
▁mamma	-6.96312
▁aan	-6.96848
▁C	-6.98112
gedifferentieerd	-6.98966
ie	-6.99665
▁poliep	-7.02043
III	-7.04148
▁uit	-7.04701
▁benigne	-7.06171
▁keratose	-7.06373
▁pylori	-7.07258
▁adenoom	-7.097
▁kenmerken	-7.10202
▁diagnose	-7.12283
▁conform	-7.12914
▁Biopt	-7.13022
▁aanvullend	-7.14518
▁cellen	-7.15423
▁superficieel	-7.1543
tekenen	-7.16286
▁slijmvlies	-7.17211
▁als	-7.19427
▁aanwezig	-7.19587
▁aangetroffen	-7.19954
▁p	-7.20242
G	-7.20905
▁positief	-7.21617
B	-7.2246
▁matig	-7.22563
▁uitgebreide	-7.22599
▁actinisch	-7.22791
▁enkel	-7.22823
▁uitslag	-7.23304
▁atypische	-7.25361
▁laaggradige	-7.25937
▁gezien	-7.26604
▁epitheel	-7.26701
▁er	-7.27695
▁cyste	-7.28061
a	-7.28787
▁hals	-7.30343
oor	-7.32574
▁aangetoond	-7.33034
▁maag	-7.33049
▁uur	-7.331
▁graad	-7.33888
▁A	-7.3393
▁ter	-7.34656
▁specifieke	-7.34842
slijmvlies	-7.35674
p	-7.36761
▁solide	-7.36944
▁chronisch	-7.37943
▁G	-7.39291
▁huidexcisie	-7.39324
▁mutatie	-7.40182
▁klinisch	-7.40594
▁huidbiopt	-7.41229
▁wang	-7.43164
▁resectie	-7.43285
bij	-7.4524
▁samengestelde	-7.45258
▁morbus	-7.45389
Geen	-7.454
▁weefsel	-7.45548
RA	-7.45905
▁atrofie	-7.46294
▁dat	-7.46852
▁antrum	-7.47187
▁kunnen	-7.47509
▁afwijking	-7.47855
▁naar	-7.48479
▁voorkeur	-7.49246
▁nog	-7.49804
▁werd	-7.50202
▁argumenten	-7.51133
▁zie	-7.51999
▁delen	-7.52416
▁neus	-7.52873
▁diameter	-7.52914
▁door	-7.53566
▁bericht	-7.53687
▁tubulair	-7.53802
▁onvoldoend	-7.53907
▁onderbeen	-7.53909
▁prostaat	-7.56064
▁geheel	-7.56103
▁corpus	-7.56671
▁reikend	-7.56792
▁perineural	-7.56803
▁invasieve	-7.58032
▁deze	-7.5877
▁marge	-7.59621
▁sprieterig	-7.60075
▁Resectie	-7.60627
▁III	-7.60858
▁hoog	-7.60976
histochemisch	-7.61507
▁dan	-7.61586
oleculair	-7.62136
IE	-7.62831
▁klinische	-7.6284
n	-7.6303
▁enige	-7.63157
▁maar	-7.64055
▁dermatitis	-7.64649
▁toont	-7.64945
▁gering	-7.66191
▁voorhoofd	-7.66301
▁zeer	-7.66395
el	-7.6765
evens	-7.67798
▁nummer	-7.67859
▁radicaal	-7.67988
▁lymfklieren	-7.68096
▁basis	-7.68109
▁bovenbeen	-7.68315
▁lymfoom	-7.68714
▁histologisch	-7.69193
▁kader	-7.698
▁rest	-7.6992
▁boven	-7.70049
nvoldoend	-7.70632
▁over	-7.70671
▁weinig	-7.70763
▁colitis	-7.70786
▁hooggradig	-7.71001
▁situ	-7.72227
▁uitgesloten	-7.72407
▁gevonden	-7.72428
▁exon	-7.72883
▁melanoom	-7.73415
▁cervix	-7.73458
de	-7.74119
▁analyse	-7.74165
▁aanwezigheid	-7.74203
▁volgen	-7.74474
▁best	-7.74734
▁beide	-7.74853
d	-7.75228
▁immuun	-7.75364
▁pre	-7.75396
▁oppervlakkig	-7.75745
ing	-7.75889
▁CI	-7.75946
▁waarschijnlijk	-7.76335
▁punctie	-7.76672
▁pathologie	-7.76781
▁overwogen	-7.76967
▁fibrose	-7.77584
▁duodenum	-7.77719
unctie	-7.78166
▁c	-7.78703
rine	-7.79034
▁betreft	-7.79324
▁acute	-7.79627
▁Revisie	-7.80174
▁proliferatie	-7.8107
▁schouder	-7.81287
preparaat	-7.8134
▁h	-7.81684
▁moleculair	-7.82471
▁long	-7.82923
▁eventue	-7.8327
▁onderarm	-7.83338
▁microscopie	-7.83478
▁verdacht	-7.83498
▁specifiek	-7.83598
▁duidelijke	-7.83677
biopsie	-7.84478
van	-7.84638
▁reactief	-7.84754
▁R	-7.84877
▁keratosis	-7.85846
▁snijvlak	-7.85862
▁melanocytair	-7.86
▁temporaal	-7.86879
▁litteken	-7.87448
22	-7.88
▁echter	-7.88391
▁Endometrium	-7.89053
▁12	-7.89106
▁zeker	-7.89451
▁reikt	-7.90378
▁Bowen	-7.90405
▁eerder	-7.90476
▁actinica	-7.90482
eze	-7.90862
▁rectum	-7.90933
▁wat	-7.90993
▁bovenarm	-7.91279
▁bodem	-7.91476
▁zou	-7.92125
▁celbeeld	-7.92239
▁ascendens	-7.93182
aagbiopten	-7.94395
▁component	-7.94558
▁s	-7.94711
▁classificeren	-7.95691
f	-7.95786
21	-7.95902
▁kleine	-7.96232
▁B	-7.9739
nijvlakken	-7.97493
▁minimal	-7.97978
▁klein	-7.97982
▁snijvlakken	-7.98314
12	-7.98346
▁wel	-7.98727
▁beoordelen	-7.98729
▁lateraal	-7.98829
▁lichen	-7.98963
▁diagnostiek	-7.99071
▁u	-7.993
▁eczeem	-7.99827
▁coeur	-7.99962
▁lichenoide	-8.00226
▁alle	-8.00398
▁Beeld	-8.00535
▁Aanvullend	-8.01255
▁Een	-8.01684
▁kleuring	-8.04315
▁meer	-8.04535
▁daar	-8.04732
▁diagnostisch	-8.04826
it	-8.04865
▁groeiwijze	-8.05468
▁matige	-8.05978
▁afkomstig	-8.06944
▁sigmoid	-8.06962
▁aanwijzing	-8.06993
▁verder	-8.07081
▁vermeld	-8.0724
▁bekend	-8.07349
AA	-8.07667
▁epidermale	-8.08247
▁E	-8.08317
materiaal	-8.08355
LE	-8.08597
▁bekende	-8.08662
▁EGFR	-8.08843
▁minder	-8.09573
▁oppervlakkige	-8.09921
▁resectievlak	-8.09925
▁colonslijmvlies	-8.10623
▁name	-8.10986
▁midden	-8.11108
um	-8.11243
▁beenmerg	-8.11592
▁toto	-8.11801
▁dieper	-8.11991
▁g	-8.12015
▁eosinofiele	-8.12436
▁beoordeelbaar	-8.12766
wel	-8.12825
▁fragmenten	-8.13255
▁ulceratie	-8.13275
▁score	-8.13283
▁dermatofibroom	-8.13727
▁invasief	-8.14453
11	-8.14522
▁granulomen	-8.14846
▁hyperplastische	-8.15422
▁sterk	-8.15893
▁ten	-8.16167
▁vlokatrofie	-8.16273
Het	-8.17751
▁ileum	-8.17763
▁snijranden	-8.18551
▁littekenweefsel	-8.1892
▁hoofd	-8.19076
ER	-8.19314
leuravocht	-8.19528
▁zijde	-8.19603
▁Gleason	-8.19824
▁differentiaal	-8.20331
ohs	-8.20381
▁t	-8.20532
us	-8.20834
re	-8.2123
▁urotheelcel	-8.2133
▁zo	-8.21909
▁ca	-8.21974
▁volledig	-8.22042
Aanvullend	-8.22094
In	-8.22099
▁oksel	-8.22467
▁maagslijmvlies	-8.22644
▁tm	-8.23021
▁overige	-8.23383
▁centraal	-8.23635
naaldbiopten	-8.23704
▁superficie	-8.23994
▁die	-8.24509
▁eosinofilie	-8.24571
▁afwezig	-8.24692
▁papillair	-8.24846
▁transversum	-8.24968
▁contact	-8.2508
▁elders	-8.25349
Conclusie	-8.25987
▁cytologisch	-8.26065
▁borst	-8.26229
▁patient	-8.26295
▁oesofagus	-8.2668
▁toename	-8.26828
▁BRAF	-8.27207
▁oesophagus	-8.27654
▁normaal	-8.27839
▁lateral	-8.28701
▁beiderzijds	-8.29038
▁evident	-8.29128
▁status	-8.29355
▁m	-8.29705
▁coupes	-8.30268
▁consult	-8.30403
mw	-8.30468
▁celrijk	-8.30819
▁lipoom	-8.30949
▁weke	-8.31458
▁vetweefsel	-8.31489
▁aanknopingspunt	-8.31684
▁overwegend	-8.32001
▁aspecifiek	-8.32389
neu	-8.32642
risico	-8.32652
▁fors	-8.32906
▁onbekend	-8.33048
▁verdenking	-8.33066
▁tenminste	-8.33235
▁gedacht	-8.33422
▁reexcisie	-8.33557
iagnostiek	-8.33872
▁concordant	-8.35047
naast	-8.35156
▁genen	-8.35296
▁Barrett	-8.35376
▁overtuigend	-8.35391
▁Consult	-8.35774
▁kleincellig	-8.35824
▁aantoonbaar	-8.36112
▁respectievelijk	-8.37069
▁opnemen	-8.372
▁resectievlakken	-8.37641
epitheel	-8.38307
▁ernstige	-8.38452
▁risico	-8.38704
id	-8.40097
▁om	-8.40118
oliepectomie	-8.40329
▁dysplastische	-8.40661
aarne	-8.4081
▁diepe	-8.40871
▁dermis	-8.41027
▁kun	-8.41982
▁Colonbiopten	-8.42138
▁zijdigheid	-8.42146
▁flank	-8.42258
▁HER	-8.42756
▁ductaal	-8.42781
▁plaatse	-8.42823
weefsel	-8.42998
▁mutaties	-8.43133
ipelle	-8.43343
an	-8.43598
▁gelegen	-8.44208
▁plaatselijk	-8.44556
▁zwelling	-8.44642
▁derhalve	-8.44749
▁beperkt	-8.44916
▁11	-8.44981
uodenumbiopten	-8.44984
biopt	-8.45346
▁intraepithelial	-8.45563
▁gastritis	-8.45654
hyperplasie	-8.45751
▁mediaal	-8.45803
x	-8.462
▁eerste	-8.46251
rug	-8.46303
▁infiltrerend	-8.4641
er	-8.46446
▁tumorcellen	-8.47004
▁biopsie	-8.47314
v	-8.47392
▁invasie	-8.47466
▁buik	-8.47576
▁twee	-8.47636
▁plaveisel	-8.47723
▁eerdere	-8.47964
▁bespreking	-8.48045
alsnog	-8.48139
▁Conclusie	-8.48375
vragen	-8.48664
▁blaas	-8.48948
▁shaveexcisie	-8.49054
ontstekingsbeeld	-8.49165
bv	-8.4918
▁extern	-8.49363
▁IB	-8.49435
▁revisie	-8.49577
▁dien	-8.50119
▁andere	-8.50295
▁verricht	-8.50636
aaldbiopten	-8.50693
Er	-8.51882
▁secretariaat	-8.51924
▁level	-8.5194
▁grootcellig	-8.52223
▁lijkt	-8.52261
▁folliculitis	-8.52594
▁ge	-8.52915
Cholecystectomie	-8.53001
▁Huidstukje	-8.5322
▁microscopische	-8.53407
▁descendens	-8.53468
oorts	-8.53476
ver	-8.53674
▁betreffende	-8.53694
▁hier	-8.54826
▁folliculair	-8.5507
i	-8.55211
▁beginnend	-8.55445
Huidbiopt	-8.55504
▁mediale	-8.55652
▁maagantrum	-8.55726
AL	-8.56093
l	-8.56401
▁dorsaal	-8.56442
▁dunne	-8.56735
▁zekerheid	-8.56847
▁Appendectomie	-8.5751
▁coecum	-8.57666
▁slecht	-8.58374
▁plaveiselcellig	-8.58815
▁oor	-8.59195
▁appendicitis	-8.59261
▁laaggradig	-8.59622
uameu	-8.59665
▁stroma	-8.5968
▁lymfoid	-8.59747
▁Hoog	-8.59753
Revisie	-8.5984
rH	-8.59992
▁lies	-8.6
▁tussen	-8.60253
▁fronta	-8.60382
▁papilloom	-8.60447
▁immuno	-8.60712
▁panel	-8.60889
▁beoordeling	-8.60938
▁endocervicale	-8.60988
nummer	-8.61059
tevens	-8.61263
▁invasiediepte	-8.61458
▁intern	-8.61535
▁infiltratie	-8.61563
▁perivasculaire	-8.61805
itslag	-8.6222
▁bepaling	-8.62241
▁spongiotische	-8.62284
is	-8.62323
nijvlak	-8.6247
▁hemangioom	-8.62562
▁nader	-8.63047
▁uitbreiding	-8.63186
▁lymfocytose	-8.63609
▁granulomateu	-8.63641
▁granulocyten	-8.64111
▁primaire	-8.64359
▁infectie	-8.64369
▁verwerkt	-8.64713
▁schildklier	-8.64776
▁epitheliale	-8.64935
▁retour	-8.65201
▁vulgaris	-8.65201
▁lentigo	-8.65201
▁schimmels	-8.6528
▁hoeveelhe	-8.65415
▁diep	-8.6546
▁overgang	-8.65868
rostaatbiopten	-8.66654
▁placenta	-8.66836
▁Her	-8.67148
▁primair	-8.67159
▁blokje	-8.67633
▁FI	-8.68048
▁vasoinvasie	-8.68183
laveiselepitheel	-8.68838
▁bevindingen	-8.68921
lijk	-8.68944
▁pathogene	-8.68969
▁representatief	-8.69285
▁derden	-8.69459
aar	-8.69478
celcarcinoom	-8.695
b	-8.69525
resectie	-8.70063
▁uterus	-8.70344
▁kleuringen	-8.70525
▁poliepectomie	-8.70655
▁epidermis	-8.70735
c	-8.70819
▁gen	-8.71247
tal	-8.71449
▁Giardia	-8.71515
▁bloed	-8.71676
▁AL	-8.71737
▁uitgebreid	-8.71917
▁grensvlak	-8.72322
▁Bcel	-8.72354
iet	-8.72454
▁classificatie	-8.72932
▁sprake	-8.72937
▁geirriteerde	-8.73069
▁rand	-8.73292
▁morfologisch	-8.74289
▁granuloma	-8.74436
name	-8.74631
efinitieve	-8.74686
▁bijbehorend	-8.74695
▁veel	-8.74715
▁tel	-8.74799
amma	-8.74946
negatief	-8.74964
eke	-8.75076
veranderingen	-8.75224
▁sluiten	-8.75432
▁Bij	-8.75437
▁ventraal	-8.76119
▁regio	-8.76305
▁microorganismen	-8.76374
▁naast	-8.76457
▁angioinvasie	-8.76879
Huidexcisie	-8.76906
▁thorax	-8.76976
▁doorgemaakte	-8.77013
▁Lymfklier	-8.77051
▁bindweefsel	-8.77598
excisie	-8.77857
w	-8.78274
uw	-8.78494
▁origine	-8.78691
▁distale	-8.7888
▁bestaand	-8.79014
▁hyperkeratose	-8.79219
▁ontstoken	-8.79387
▁ovarium	-8.79688
▁lymfeklier	-8.79819
▁krap	-8.79847
▁vermoedelijk	-8.79983
▁dermaal	-8.80007
▁mucosa	-8.80214
▁localisatie	-8.80215
▁terminale	-8.80537
▁opvallend	-8.808
▁Biopsie	-8.80807
▁Cervixbiopt	-8.81035
▁micro	-8.81065
zijde	-8.81136
▁recidief	-8.81605
▁nek	-8.81608
uameus	-8.81677
▁diepte	-8.81757
▁hoogte	-8.82193
▁maxima	-8.82542
▁sterke	-8.82962
▁licht	-8.83214
▁lever	-8.83403
▁achter	-8.83433
▁slokdarm	-8.83454
m	-8.83718
▁Cytologisch	-8.8385
▁Conform	-8.83911
▁proces	-8.8397
▁knie	-8.84004
▁gefragmenteerd	-8.84006
at	-8.84275
▁behaard	-8.84629
▁planus	-8.84888
hyperkeratotisch	-8.85188
uit	-8.85206
▁deel	-8.85509
▁prostaatbiopten	-8.8557
▁fibroadenoom	-8.85889
lymfangioinvasie	-8.85988
▁nr	-8.86084
▁vasculitis	-8.86387
ezien	-8.86641
▁Huidstansbiopt	-8.86689
ok	-8.86765
▁kliniek	-8.8678
▁darm	-8.86797
▁urine	-8.86839
▁zoal	-8.86985
▁intradermale	-8.87062
▁pigment	-8.87186
▁meest	-8.87343
▁positieve	-8.87648
▁reactie	-8.88133
aag	-8.88749
▁regressie	-8.89096
ectomie	-8.89425
▁vriescoupe	-8.8973
rostaat	-8.89733
▁ulcererend	-8.89785
▁Colonslijmvlies	-8.89822
▁handrug	-8.90044
▁Huidstans	-8.90095
▁correlatie	-8.90511
▁achtergrond	-8.9079
▁carcinoma	-8.90853
▁gegevens	-8.90897
▁inflammatoir	-8.90915
▁maagcorpus	-8.90942
geen	-8.90948
▁onderlip	-8.91103
▁necrose	-8.91215
▁multifocaal	-8.91361
▁leiomyoom	-8.9141
▁atypisch	-8.92349
▁focus	-8.92842
▁nieuwe	-8.92859
▁distaal	-8.92997
▁coeliakie	-8.93006
▁nodus	-8.93033
▁erosie	-8.93072
▁tuba	-8.93162
CI	-8.93325
▁ER	-8.93431
mm	-8.93524
▁therapie	-8.93732
EF	-8.93815
▁neuroendocrien	-8.93929
Alab	-8.9426
▁arm	-8.94303
▁amplificatie	-8.94711
▁mammacarcinoom	-8.94811
o	-8.94819
▁keratoacanthoom	-8.94955
▁bovenkwab	-8.94998
ifferentiaal	-8.9519
in	-8.95281
▁lymfocyten	-8.95285
▁station	-8.95642
dikte	-8.96062
ogelijk	-8.96182
▁premaligniteit	-8.96282
erder	-8.96379
curettage	-8.96676
▁parotis	-8.96715
]2	-8.97111
▁bloeding	-8.97219
Anummer	-8.97633
▁slaap	-8.97698
CB	-8.97712
▁onderzocht	-8.97932
▁BE	-8.98005
▁subcutis	-8.98137
lacenta	-8.98461
uor	-8.98606
▁Bethesda	-8.98701
▁slechts	-8.98759
▁diffuus	-8.98974
▁ontstekingsrest	-8.99076
▁onderrug	-8.99166
Biopten	-8.99258
lijmvliesbiopt	-8.99285
▁focal	-8.99771
▁klasse	-8.9997
▁dank	-9.0001
op	-9.00062
stantie	-9.00322
Bij	-9.00347
▁hierin	-9.00398
▁sprieterige	-9.00429
▁wenkbrauw	-9.01164
▁Huidshave	-9.01355
▁preauriculair	-9.01408
▁degeneratie	-9.01416
▁meerder	-9.01504
ste	-9.01599
▁syndroom	-9.01924
ocellulair	-9.02094
▁ontvangen	-9.02101
▁celarm	-9.02108
▁tonen	-9.02341
▁fragmentje	-9.02392
▁uteri	-9.02909
▁axilla	-9.03005
▁Crohn	-9.0325
▁neoplasie	-9.03328
▁ulcus	-9.0335
on	-9.03754
▁kin	-9.04048
heid	-9.04564
aagslijmvlies	-9.0463
▁craniaal	-9.05056
▁cholecystitis	-9.0532
skenmerken	-9.05413
▁lymfocytaire	-9.05557
▁Gleasonscore	-9.05878
▁Cervix	-9.06195
▁afwijkend	-9.06452
isch	-9.06564
Consult	-9.06896
▁corpustype	-9.06979
▁oog	-9.07004
EI	-9.07092
▁nee	-9.07131
dometriumpoliep	-9.07317
▁onderkwab	-9.07345
ateriaal	-9.07517
▁ulcerosa	-9.07538
▁ontvangt	-9.07553
et	-9.07718
▁weken	-9.07835
▁nietkleincellig	-9.08015
▁gewicht	-9.08239
▁vorm	-9.08274
▁doorsnijdingen	-9.08315
oupes	-9.0832
▁tubulovilleu	-9.0834
▁anus	-9.08529
iameter	-9.08615
▁drie	-9.08986
▁definitieve	-9.09058
▁bas	-9.09174
▁verslag	-9.09248
▁editie	-9.09425
▁normal	-9.09427
▁variant	-9.09567
▁sclerosus	-9.09818
▁onderliggend	-9.0989
gediagnosticeerd	-9.10212
▁binnen	-9.10241
▁correleren	-9.10301
▁caudaal	-9.10362
▁infiltraat	-9.10462
diagnose	-9.1052
▁EB	-9.10638
▁bil	-9.11166
▁ruim	-9.11243
▁gelaat	-9.11348
▁pretibiaal	-9.11349
▁scapula	-9.11377
▁casus	-9.1166
▁Galblaas	-9.11866
▁resectieranden	-9.1193
▁random	-9.12163
nvasiediepte	-9.12513
▁naaldbiopten	-9.12737
▁neusvleugel	-9.12821
▁oorschelp	-9.12909
▁via	-9.12918
▁actief	-9.12919
▁darmslijmvlies	-9.13039
▁basaal	-9.13122
▁Li	-9.13231
▁romp	-9.133
▁papillomatosus	-9.13309
▁mediaan	-9.13372
▁totaal	-9.1351
▁gastropathie	-9.13525
▁Beenmergbiopt	-9.13721
▁psoriasis	-9.13736
▁bot	-9.14058
positief	-9.14146
▁galblaas	-9.14158
▁profiel	-9.14407
▁plasmacellen	-9.14558
▁gebied	-9.14572
▁fragment	-9.1473
euze	-9.14871
▁uitspraak	-9.15031
fragmenten	-9.15269
immuunhistochemi	-9.15395
▁tepel	-9.15423
▁schouderblad	-9.15572
▁adnex	-9.15645
▁sereus	-9.15746
▁scalp	-9.1612
▁hand	-9.16219
▁behandeling	-9.16267
▁voet	-9.16362
▁immunohistochem	-9.16363
▁adenomateu	-9.16378
▁suggestie	-9.16544
▁lichte	-9.16645
▁mid	-9.16706
▁verruceu	-9.17073
▁zal	-9.17076
▁differentiatie	-9.17122
▁aspect	-9.17775
uze	-9.17939
sinfiltraat	-9.18229
▁duodenumbiopten	-9.18363
▁spierweefsel	-9.18374
erende	-9.18442
▁22	-9.18498
▁lastig	-9.18672
▁Bronchus	-9.18936
▁proximaal	-9.19068
lijn	-9.19326
▁geruptureerd	-9.19467
▁fibroserend	-9.1953
uodenum	-9.20024
▁BRCA	-9.20382
▁endocervicaal	-9.20707
▁beschadigd	-9.20718
▁Gering	-9.20969
▁mammaweefsel	-9.21341
▁abcederende	-9.21404
▁plaats	-9.21487
▁verkregen	-9.21572
▁betrouwba	-9.21616
▁metaplastisch	-9.2164
▁lobulair	-9.21795
▁laag	-9.21824
g	-9.21899
▁kuit	-9.22074
ranulatieweefsel	-9.22106
reticulair	-9.22425
▁translocatie	-9.22438
ic	-9.22613
▁pleuravocht	-9.22643
▁schade	-9.2276
▁curettage	-9.22769
▁cholelithiasis	-9.22859
▁uitgesproken	-9.22965
▁appendix	-9.23304
kleuring	-9.2351
▁i	-9.23581
GEE	-9.23673
▁bovenrug	-9.23938
▁locatie	-9.2396
▁veranderd	-9.24216
▁welk	-9.24227
▁opruimreactie	-9.247
▁multipel	-9.24727
eer	-9.24862
▁Ascites	-9.24933
▁onderverdeling	-9.2496
enof	-9.25067
▁af	-9.25106
▁ooghoek	-9.25146
▁tumorvrij	-9.25274
▁klier	-9.25353
▁gaarn	-9.25679
▁RE	-9.25887
IEF	-9.25891
▁virale	-9.25957
▁helix	-9.25992
▁tegen	-9.26208
ieuwe	-9.26611
▁ingreep	-9.26923
r	-9.26956
sactiviteit	-9.26982
▁aantal	-9.27032
▁expressie	-9.27059
▁radicaliteit	-9.27165
aagt	-9.273
umor	-9.27417
▁neuspunt	-9.27781
▁bijzonderheden	-9.27808
sche	-9.28006
▁been	-9.28237
▁uitgevoerd	-9.28244
voor	-9.28284
LI	-9.28294
▁detrusor	-9.28315
▁metastasen	-9.28364
▁danwel	-9.28386
▁micronodulair	-9.2852
▁lab	-9.28765
▁speekselklier	-9.28822
proliferatie	-9.28961
▁pancreas	-9.29136
▁basale	-9.29173
ndien	-9.29191
▁vulva	-9.29498
▁shave	-9.29846
▁Huidresectie	-9.29916
esofagusbiopten	-9.29989
esophagusbiopten	-9.30006
▁paramediaa	-9.30267
▁atrofisch	-9.30558
▁ingroei	-9.30626
curettement	-9.30651
▁oesofagitis	-9.3072
vocht	-9.31025
▁preparaat	-9.31068
▁helicobacter	-9.3124
filtratiediepte	-9.31319
▁duidelijk	-9.31368
tv	-9.31502
▁digitus	-9.31505
▁bedr	-9.31838
▁zijsnijvlak	-9.32014
▁nodularis	-9.32018
▁relatie	-9.32068
▁variatie	-9.3217
▁beoordeeld	-9.32456
▁uiteinden	-9.32557
▁spreidend	-9.32936
▁context	-9.32975
eeft	-9.33005
▁bovenli	-9.33016
▁stansbiopt	-9.33475
▁transformatie	-9.33591
reactie	-9.33707
▁thoracaal	-9.33725
type	-9.3374
▁oorzaak	-9.33905
▁gepigmenteerd	-9.3392
▁ver	-9.34356
▁vet	-9.34376
▁was	-9.34452
mucosa	-9.34474
▁structuren	-9.3465
▁secundair	-9.34925
▁uiteinde	-9.34961
▁Bcellymfoom	-9.35015
▁punctaat	-9.35048
eerd	-9.35144
▁gr	-9.35159
eu	-9.35421
▁behoe	-9.35435
incontinentie	-9.35581
▁urotheel	-9.35607
▁gehe	-9.35617
▁Echogeleid	-9.35623
▁maligna	-9.35871
▁toegenomen	-9.35913
▁enig	-9.36015
aaldbiopt	-9.36073
ed	-9.36083
tumor	-9.36125
▁lamblia	-9.36368
supraclaviculair	-9.36383
RICH	-9.36391
▁annulare	-9.36423
▁lengte	-9.36845
▁segment	-9.36968
vm	-9.36971
▁scheenbeen	-9.3704
▁oedeem	-9.37106
▁simplex	-9.37371
▁aangegeven	-9.37395
▁necrotiserende	-9.37703
▁poliepen	-9.37803
▁ERBB	-9.37838
▁fibroepithelia	-9.37849
▁compact	-9.38424
▁hiervan	-9.38474
GE	-9.38695
▁ongewijzigd	-9.38895
sch	-9.39002
▁oppervlak	-9.39021
haveexcisie	-9.39146
aal	-9.39163
▁antrumtype	-9.3937
▁wisselend	-9.39448
▁proximale	-9.39457
▁onderooglid	-9.39557
▁v	-9.39637
▁grensvlaknaevus	-9.39924
▁lumbaal	-9.4002
▁chirurgie	-9.40028
▁extra	-9.40244
▁Hier	-9.4038
▁activ	-9.40428
▁Breslow	-9.40786
▁bronchus	-9.40947
▁interpretatie	-9.40963
▁aanvulling	-9.41003
▁matuur	-9.41008
athologie	-9.41035
▁hypertrofische	-9.41096
▁Radicaal	-9.41112
▁besproken	-9.41168
gen	-9.41337
dvies	-9.41472
▁groot	-9.41479
▁labium	-9.41554
nijranden	-9.41694
arge	-9.41706
▁grote	-9.41737
▁cho	-9.41785
▁bovenkwadrant	-9.42054
lecystolithiasis	-9.42549
linisch	-9.42658
▁nier	-9.42829
▁lymfo	-9.43035
▁sessiel	-9.43076
▁nasi	-9.43078
▁biologisch	-9.43115
▁overwegingen	-9.43327
▁topografie	-9.43334
▁plaveiselepithe	-9.43599
▁Reexcisie	-9.4381
▁tumorpositief	-9.43837
uentie	-9.43868
HER	-9.43912
▁serrated	-9.44188
▁patiAnt	-9.44219
▁granulerend	-9.44262
▁diffus	-9.44686
▁bevestigd	-9.44899
▁BCL	-9.45007
▁massa	-9.45136
▁ongev	-9.45246
▁maagtype	-9.45273
▁z	-9.45709
▁nietspecifiek	-9.45729
▁iliaca	-9.45807
▁Bronchusspoel	-9.46122
▁slijm	-9.4626
▁normocellulair	-9.46325
ALE	-9.46369
verband	-9.46815
▁Centrum	-9.46877
▁tractus	-9.46877
▁retroauriculair	-9.46893
▁onderscheid	-9.4718
huid	-9.47436
▁Histologisch	-9.47507
▁Lisexcisie	-9.47661
u	-9.47683
onderzoek	-9.47716
Biopt	-9.47808
▁verrukeu	-9.48272
beeld	-9.48417
▁duiden	-9.48928
▁net	-9.48978
▁beschouwen	-9.4912
▁compleet	-9.49127
hipple	-9.49687
▁doorsnijden	-9.49692
▁geadviseerd	-9.49702
▁pipelle	-9.49706
▁apex	-9.49761
▁adnexen	-9.50014
▁rond	-9.50139
▁glandula	-9.50234
▁Celrijk	-9.50303
▁activiteit	-9.50346
▁Is	-9.50407
▁bl	-9.50431
▁middels	-9.50479
▁node	-9.50564
heel	-9.50981
▁zone	-9.51113
▁richting	-9.51321
terusextirpatie	-9.51324
plooi	-9.51391
▁extranoda	-9.51511
Invasie	-9.51653
▁a	-9.51815
unctaat	-9.51852
arsh	-9.5196
hyperpigmentatie	-9.51992
▁ingezet	-9.5206
raag	-9.52085
▁oesophagitis	-9.52099
▁pleiomorf	-9.521
▁fibroom	-9.52193
riescoupe	-9.52263
unne	-9.52263
▁ischemie	-9.52284
▁parakeratose	-9.52424
▁verzoek	-9.52593
▁Curettage	-9.52593
LAIR	-9.5274
▁behouden	-9.53174
▁klierbuizen	-9.53398
▁minimaal	-9.53401
▁lisexcisie	-9.53471
▁beste	-9.53699
▁aankleuring	-9.53955
cel	-9.54278
▁b	-9.54279
▁separaat	-9.54356
▁Hodgkin	-9.54367
▁eveneens	-9.54375
▁perforatie	-9.54463
▁ml	-9.5448
▁HR	-9.54517
▁architectuur	-9.5457
▁celmateriaal	-9.55027
▁afstand	-9.55036
▁ontbreken	-9.55152
▁onderbuik	-9.55224
▁voorlopig	-9.55225
▁hyperplastisch	-9.55482
terus	-9.5549
GA	-9.55736
▁prurigo	-9.55887
fluorescentie	-9.55902
▁dr	-9.55938
zone	-9.56133
analyse	-9.56252
▁verhoornend	-9.56271
▁ontstaan	-9.56272
▁pyogenicum	-9.56768
ontsteking	-9.56787
▁ischemisch	-9.56865
utatie	-9.56918
▁voldoende	-9.56924
▁Cristabiopt	-9.56925
dat	-9.57302
▁opzicht	-9.5742
Excisie	-9.57471
▁mucineus	-9.57684
verige	-9.57801
▁cav	-9.57875
atie	-9.57948
▁hebben	-9.57999
▁verspreid	-9.58001
▁kruin	-9.58081
▁vanwege	-9.58151
utaties	-9.5823
▁myometrium	-9.58327
▁naaldbiopt	-9.58347
baar	-9.58555
▁acuta	-9.58621
▁mediastinum	-9.58622
▁solair	-9.58623
▁randen	-9.58634
ext	-9.58721
▁Colon	-9.58816
ijft	-9.5882
aagantrum	-9.58849
ls	-9.58949
▁typering	-9.59029
▁endometriose	-9.59118
▁kapsel	-9.59224
▁juist	-9.59245
ocaal	-9.59323
▁gram	-9.59363
▁indien	-9.59417
▁elleboog	-9.59574
▁uitsluiten	-9.59615
▁verlies	-9.59711
efinitief	-9.59818
▁sinus	-9.59879
▁doch	-9.60021
uencing	-9.60507
▁hypercellulair	-9.60509
▁pols	-9.60558
▁typisch	-9.60623
▁geven	-9.60668
ren	-9.60738
▁poliepje	-9.60794
▁sneevlak	-9.60827
▁pleura	-9.60899
slijmvliesbiopt	-9.60912
Galblaasresectie	-9.61078
▁goedaardig	-9.61144
▁specificiteit	-9.61144
istomorfologisch	-9.61185
▁erythema	-9.61551
▁oude	-9.61691
▁interesse	-9.61785
GIEGIE	-9.61785
▁total	-9.61853
CA	-9.61932
▁oud	-9.62002
▁respons	-9.62005
sreactie	-9.62201
▁re	-9.62223
ERE	-9.62338
punctaat	-9.62413
▁fibreus	-9.6243
▁circa	-9.62432
▁overwegen	-9.62437
▁rectosigmoid	-9.62449
▁resten	-9.62455
▁hierover	-9.6246
▁per	-9.62616
211	-9.6278
rh	-9.62907
▁hematopoese	-9.63081
▁lupus	-9.63132
▁perifeer	-9.63146
▁gevolg	-9.63362
▁ronde	-9.63388
▁krapst	-9.63395
zijwand	-9.63437
▁overleg	-9.63741
▁21	-9.63782
▁necrotisch	-9.63787
▁cel	-9.63883
▁beenmergbiopt	-9.63885
IA	-9.64025
▁ziekenhuis	-9.64426
▁reflux	-9.64437
cilinderepitheel	-9.64458
▁inzendingen	-9.64474
▁grond	-9.6484
▁tubae	-9.64935
▁ade	-9.65006
▁neurofibroom	-9.65053
chter	-9.6508
▁non	-9.65153
punctie	-9.65222
te	-9.65264
▁blasten	-9.65282
▁sigmoAd	-9.65701
door	-9.65709
adenocarcinoom	-9.6573
▁vagina	-9.65736
▁propria	-9.6574
▁IgA	-9.65796
y	-9.65905
▁hierbij	-9.65924
▁Beenmerg	-9.66227
ICA	-9.66254
▁mesotheel	-9.66405
▁milde	-9.66412
▁acinair	-9.66445
▁oncogene	-9.66461
▁poliepeus	-9.66495
▁clavicula	-9.66499
▁prostaatweefsel	-9.66572
▁IgG	-9.66617
▁stemband	-9.66676
h	-9.66714
▁bijschildklier	-9.67087
▁betekenis	-9.67127
▁haarfollikel	-9.67561
▁pG	-9.67583
▁cervixbiopt	-9.67679
erhalve	-9.67696
▁geduid	-9.67767
▁mede	-9.67936
itis	-9.68118
▁coupe	-9.68327
odulair	-9.68371
▁peritoneum	-9.68724
▁aanvraag	-9.68848
air	-9.68907
vlakken	-9.69057
▁calcificaties	-9.69091
▁endocervix	-9.69161
cm	-9.69182
▁musculus	-9.6922
▁infectieuze	-9.6928
ura	-9.69372
▁overweging	-9.69486
▁ja	-9.69806
toch	-9.69877
▁subcutaan	-9.69918
▁laesies	-9.70148
▁peri	-9.70245
▁aspiratie	-9.70253
wang	-9.70256
bovenbeen	-9.70416
▁metastatisch	-9.70516
▁sentinel	-9.70534
▁gaat	-9.70537
Bls	-9.70595
ammabiopt	-9.70614
oliep	-9.70825
ap	-9.70852
▁pathologisch	-9.71185
RE	-9.71189
▁restant	-9.71313
clusief	-9.71369
▁glomeruli	-9.71462
eration	-9.71472
▁subcutane	-9.71545
▁papillomateu	-9.71561
▁lymfeklieren	-9.71836
▁gezichtspunten	-9.71929
▁dubieus	-9.71957
▁darmziekte	-9.7199
▁Huidcurettage	-9.72218
▁talgklier	-9.72383
▁Foca	-9.72442
▁sarcoom	-9.72457
gesteronreceptor	-9.72484
▁gerelateerd	-9.72626
▁exact	-9.72644
Rprostaat	-9.72663
▁foetal	-9.72664
▁consultatie	-9.72671
gezonden	-9.72674
▁discre	-9.72764
calcificaties	-9.72789
▁heup	-9.72889
▁hotspot	-9.72898
▁pro	-9.73143
▁et	-9.73173
ammareductie	-9.73336
▁komt	-9.73362
▁rondom	-9.73366
▁dikke	-9.73368
▁sarcoidose	-9.73403
▁vier	-9.73447
▁extirpatie	-9.73456
▁geneesmiddelen	-9.73642
▁vaten	-9.74064
▁geisoleerd	-9.74087
▁sponta	-9.74114
▁grotendee	-9.74117
▁verlittekening	-9.7415
▁papel	-9.74463
▁laboratorium	-9.74646
ieper	-9.74798
▁uitsluiting	-9.74842
▁combinatie	-9.74887
▁suboptimaal	-9.74889
▁bulbus	-9.7494
▁inactief	-9.74941
▁gemarkeerd	-9.74958
▁li	-9.75072
▁mogelijkheid	-9.75072
tex	-9.75107
▁morfologie	-9.75135
▁submucosa	-9.75321
corpusslijmvlies	-9.75574
▁solaris	-9.75612
▁infiltratief	-9.75758
pv	-9.75826
▁geassocieerd	-9.75834
▁gedetecteerd	-9.75962
▁Excisiebiopt	-9.75997
▁wegen	-9.76225
▁fre	-9.76266
▁beschouwd	-9.76316
▁geeft	-9.76339
▁gebruik	-9.76509
▁toxicodermie	-9.76511
▁chroniciteit	-9.76769
▁middel	-9.76856
▁afdel	-9.77008
▁abdomen	-9.77039
▁intestinaal	-9.77053
▁herhalen	-9.77061
▁aanduiding	-9.771
▁inverte	-9.77248
▁para	-9.77274
resectievlak	-9.77612
▁mycose	-9.77723
▁leiomyomen	-9.77814
actieve	-9.77856
▁wand	-9.77884
ast	-9.78163
▁Representatief	-9.7817
aire	-9.78318
▁tumoren	-9.78327
▁paranasaal	-9.78552
Her	-9.78556
▁gedilateerd	-9.78612
iding	-9.78616
▁epidermiscyste	-9.78638
▁elastose	-9.78689
▁rechterwang	-9.78744
▁mesothelioom	-9.78754
tische	-9.78944
▁aangevraagd	-9.79313
▁perivasculair	-9.79422
▁testis	-9.79508
▁cs	-9.79837
▁partie	-9.80045
▁gland	-9.8008
▁dunnedarm	-9.80114
▁capillair	-9.80199
▁puntjes	-9.80225
cellen	-9.80312
iets	-9.80327
▁mutatieanalyse	-9.80374
ntstekingsbeeld	-9.807
▁dermatose	-9.80849
▁autoimmuun	-9.81188
holte	-9.81356
diagnostisch	-9.81358
▁Appendix	-9.81493
▁gisten	-9.8169
▁dorsal	-9.81759
▁ureter	-9.81779
▁receptor	-9.81887
Een	-9.81914
▁parietaal	-9.81954
▁kaak	-9.82028
▁snijrand	-9.82189
▁crista	-9.82404
▁kenmerkend	-9.82456
▁on	-9.82485
▁opsnijden	-9.82529
▁digestivus	-9.8253
▁o	-9.82565
over	-9.82612
parenchym	-9.82696
linische	-9.83024
▁spongiose	-9.83133
▁inzage	-9.83219
▁miljoen	-9.83242
▁minste	-9.83278
▁lentigineu	-9.83283
▁recente	-9.83297
Endometriumbiopt	-9.83309
▁gescleroseerd	-9.83325
js	-9.83398
dysplasie	-9.83787
Huidshaveexcisie	-9.83795
▁RB	-9.83829
mede	-9.8389
▁Botbiopt	-9.83951
▁fusie	-9.84014
▁uitstrijk	-9.84061
▁omentum	-9.84062
uba	-9.84569
LH	-9.8459
▁kwaliteit	-9.84694
▁verandering	-9.84824
▁dankzegging	-9.84825
▁pityriasi	-9.84829
anks	-9.84833
▁glandulair	-9.84992
▁aanle	-9.85112
▁tb	-9.85165
▁ductus	-9.85653
▁blauw	-9.85662
▁zich	-9.85701
▁negatie	-9.85831
sel	-9.85834
▁ziekte	-9.85991
lokalisatie	-9.86205
▁arteri	-9.86264
ala	-9.86344
Aanvullende	-9.86401
▁Accreditatie	-9.86458
▁temporalis	-9.86459
edisch	-9.86483
▁Lynch	-9.86524
▁verrichte	-9.86611
▁percentage	-9.86697
▁doorgroei	-9.86779
▁fase	-9.86789
▁bovenstaande	-9.86886
▁volgende	-9.87212
▁staat	-9.87286
▁reed	-9.87306
▁melanoma	-9.87309
▁longcarcinoom	-9.87354
▁tong	-9.87369
221	-9.87372
▁nabij	-9.87516
▁brush	-9.87691
HH	-9.87738
▁curettement	-9.87773
▁algeme	-9.88011
▁fund	-9.88119
periappendicitis	-9.88126
perifolliculitis	-9.88128
klasse	-9.88148
bovenarm	-9.88157
▁daarin	-9.88204
▁pseudo	-9.88223
▁schimmel	-9.88333
▁axillair	-9.88373
ut	-9.88438
▁daarbij	-9.8848
lokdarmbiopten	-9.88518
▁variaties	-9.88595
kh	-9.88606
▁huidbiopten	-9.88778
▁deposities	-9.88915
▁resulta	-9.88983
▁achterzijde	-9.89001
▁cell	-9.89033
▁buikwand	-9.89045
▁beschreven	-9.89427
▁procedure	-9.89512
▁codon	-9.89831
▁heldercellig	-9.89831
▁Bowenoid	-9.89876
▁onregelmatig	-9.89917
LIER	-9.89993
Immuunhistochemi	-9.90138
▁apocriene	-9.90269
▁voorlip	-9.90385
postinflammatoir	-9.90466
▁flex	-9.90569
▁nadere	-9.90593
▁hiervoor	-9.90721
▁ooglid	-9.9073
tumorlokalisatie	-9.908
▁verwijzing	-9.9082
niercelcarcinoom	-9.90848
maligniteit	-9.90991
rt	-9.91081
▁erytrocyten	-9.91109
▁toe	-9.91296
▁vasculair	-9.91363
▁breuk	-9.91503
▁uitrijpend	-9.91525
▁bovenbuik	-9.91551
▁therapeutisch	-9.91594
▁onzeker	-9.91689
▁Hoe	-9.9177
▁Aan	-9.9189
k	-9.92014
uat	-9.9217
▁even	-9.92376
anel	-9.92492
▁FGFR	-9.92693
maal	-9.92695
spoelvocht	-9.92815
▁cardia	-9.92897
rand	-9.93076
▁interstitie	-9.93142
▁vetnecrose	-9.933
▁kappa	-9.93386
▁betrouwbaar	-9.93428
zelf	-9.93569
atig	-9.93585
onder	-9.93606
oorkeur	-9.93809
na	-9.93838
▁muscularis	-9.94156
BBL	-9.94158
▁geinkt	-9.94182
▁porta	-9.9471
▁bulleu	-9.9476
▁cysteus	-9.94767
pas	-9.9479
▁man	-9.9479
▁hart	-9.94873
aligne	-9.95006
extirpatie	-9.95121
▁sternum	-9.95167
▁uitrijping	-9.95264
gang	-9.95327
▁IHC	-9.95349
▁leukemie	-9.95361
▁microscopisch	-9.95361
▁sub	-9.95388
▁granuloom	-9.95455
▁reuscelreactie	-9.95524
▁vreemdlichaams	-9.95605
▁rechterschouder	-9.95931
▁nasolabiaal	-9.95955
▁flegmoneuze	-9.95962
▁rejectie	-9.95975
▁se	-9.95984
af	-9.96011
▁Reactie	-9.96311
▁zien	-9.96322
212	-9.96567
▁deletie	-9.9658
▁aorta	-9.96729
▁preexistent	-9.9673
ppervlakkige	-9.96814
▁moet	-9.9686
▁adenomyosis	-9.96884
▁mammareductie	-9.9689
▁blue	-9.97076
▁penis	-9.97083
▁Leverbiopt	-9.97415
▁neutrofiele	-9.9763
▁achterlip	-9.97785
AI	-9.97898
▁mate	-9.98121
▁Benigne	-9.98189
Ale	-9.98208
den	-9.98285
▁tumorweefsel	-9.98435
▁histologie	-9.987
neer	-9.98738
▁patroon	-9.9874
IG	-9.98752
▁bevestiging	-9.98824
▁meerkernige	-9.99003
umoren	-9.99043
▁occipitaal	-9.99222
hondrodermatitis	-9.9927
▁gelijktijdi	-9.99635
▁geanalyseerd	-9.9976
▁potje	-9.99774
ERI	-9.99774
interstitiel	-9.99906
AR	-9.99958
Lymfklierpunctie	-9.99995
▁cytologie	-10.0009
▁gevolge	-10.0022
▁kleiner	-10.0025
▁merg	-10.0053
nt	-10.0055
▁linkerschouder	-10.0057
▁geexcideerd	-10.0058
▁urticaria	-10.0058
▁trilineair	-10.0058
▁spoelcellig	-10.0058
▁foci	-10.0061
▁kraakbeen	-10.0069
strogeenreceptor	-10.0081
▁tweede	-10.0094
▁n	-10.0098
oorlopig	-10.0099
randen	-10.0101
▁idiopathisch	-10.0156
▁lamina	-10.0156
▁groeipatroon	-10.0161
▁anastomose	-10.0163
vorming	-10.0182
dermatitis	-10.0202
wand	-10.0223
trum	-10.0239
▁serosa	-10.0249
▁geassocieerde	-10.0253
▁leeftijd	-10.0257
▁anders	-10.027
▁stromal	-10.0278
groep	-10.0294
ierbiopt	-10.0309
▁wan	-10.0335
kd	-10.0343
▁AI	-10.0355
iteit	-10.0364
▁congenitale	-10.039
▁volume	-10.039
▁ware	-10.0412
▁zijsnijrand	-10.042
▁vriescoupes	-10.0431
▁significant	-10.0448
▁bestaat	-10.0448
bijzijn	-10.0451
▁moeilijk	-10.0452
▁jaar	-10.0453
▁vraagstelling	-10.0458
▁etiologie	-10.046
▁langer	-10.0463
lijmvlies	-10.0467
▁gegeven	-10.0477
blijf	-10.0513
metastase	-10.052
▁hoge	-10.0535
▁zwangerschaps	-10.0538
techniek	-10.0538
▁beschadiging	-10.054
▁Gen	-10.0542
▁aantoonba	-10.0543
▁noemenswaardig	-10.0543
▁suspect	-10.0543
▁obductie	-10.0557
▁Brush	-10.0562
GREE	-10.0608
groei	-10.0612
tansbiopt	-10.0639
▁aldaar	-10.0643
▁kalk	-10.0646
▁pigmentosus	-10.0652
▁hele	-10.0657
▁erfelijk	-10.0657
▁varianten	-10.0657
▁letsel	-10.0664
▁lichenoAd	-10.0665
▁hyper	-10.0669
▁periana	-10.067
LB	-10.0687
ubectomie	-10.0689
▁marges	-10.0692
▁dig	-10.0692
▁voorkeurs	-10.0709
▁populatie	-10.0709
▁intra	-10.0725
graad	-10.0727
ar	-10.0733
▁archief	-10.0744
EGFR	-10.0753
▁Long	-10.0761
▁externa	-10.0778
▁amyloid	-10.0781
▁effect	-10.0791
▁achterwand	-10.0795
antal	-10.0795
▁lage	-10.0824
▁vital	-10.0831
▁histiocytair	-10.0839
▁administratie	-10.0846
▁graviditeit	-10.0846
▁gehandhaafd	-10.0846
▁cholesterolose	-10.0846
▁overlijden	-10.0848
▁onduidelijk	-10.0855
▁inclusiecyste	-10.0861
epitheelcellen	-10.0862
uurs	-10.0878
▁preexistente	-10.088
▁genomen	-10.088
aat	-10.0882
excochleaat	-10.0888
▁allel	-10.0903
▁macrofagen	-10.0909
▁stase	-10.091
ulvabiopt	-10.0921
▁th	-10.0932
▁spec	-10.0933
▁cutaneum	-10.0952
▁behoort	-10.0953
▁hepatica	-10.0954
▁compatibel	-10.0958
▁opgestuurd	-10.0961
▁blijk	-10.0986
stel	-10.1021
childklierpunct	-10.1022
AG	-10.1029
▁gedaan	-10.1054
▁schimmeldraden	-10.1054
▁prolifererend	-10.1054
▁navelstreng	-10.1062
▁intestinaaltype	-10.1063
▁geschat	-10.1068
▁parasieten	-10.1068
profiel	-10.1079
▁Cervixbiopten	-10.1089
▁nu	-10.1091
▁nav	-10.1147
waliteit	-10.1159
▁oorspronkelijk	-10.1159
▁dichtst	-10.116
▁cribriform	-10.1162
▁spier	-10.1163
ende	-10.1167
▁haargrens	-10.1167
▁chronicus	-10.1168
celpercentage	-10.1169
▁hersenen	-10.1175
▁beh	-10.1206
▁irritatie	-10.1252
klierdissectie	-10.1255
▁margina	-10.1256
▁ventra	-10.127
▁familie	-10.1274
▁Richardson	-10.128
▁BIR	-10.1287
▁steatose	-10.1288
stom	-10.1291
schimmelinfectie	-10.1292
worden	-10.1303
▁ernstig	-10.1309
▁hv	-10.1319
▁dus	-10.132
▁bacterien	-10.1351
▁bekle	-10.1366
▁par	-10.1369
anwege	-10.1372
▁geindiceerd	-10.1373
▁cornu	-10.1373
▁bepalingen	-10.1375
AAR	-10.1379
121	-10.1381
▁inzichten	-10.1382
▁atherosclerose	-10.1382
▁urethra	-10.1382
ro	-10.1386
▁Indi	-10.1389
▁acanthose	-10.1395
or	-10.1414
▁proliferatief	-10.1417
darmbiopten	-10.1426
regio	-10.1452
▁zijrand	-10.1465
Ad	-10.1467
ulp	-10.1479
▁geval	-10.1481
▁mandibula	-10.1484
▁bevestigt	-10.149
▁rosacea	-10.149
▁beoordeelba	-10.1492
▁pigmentatie	-10.1493
▁ganglion	-10.1501
▁krabeffecten	-10.1504
▁Enkel	-10.1513
▁Cave	-10.153
reuscelreactie	-10.1534
▁paraffine	-10.1552
▁GE	-10.1561
▁resp	-10.1579
▁helicis	-10.1591
▁referentie	-10.1591
▁behandelend	-10.1592
▁denken	-10.1592
▁reden	-10.1593
▁medisch	-10.1596
▁gemaakt	-10.16
▁endometrioid	-10.16
▁neuroom	-10.1601
▁ductale	-10.1643
Blokje	-10.1645
brush	-10.1648
lijmvliesexcisie	-10.1662
▁maagcorpustype	-10.1663
▁perifer	-10.1705
▁microsatelliet	-10.1705
▁mastopathisch	-10.1706
RI	-10.1706
▁choledochus	-10.1706
▁Ampli	-10.1713
chimmelkleuring	-10.1714
▁bovenooglid	-10.1717
▁os	-10.172
tov	-10.1728
istopathologisch	-10.174
▁ablatio	-10.1777
▁ovaria	-10.1781
▁middenkwab	-10.1801
▁sprietig	-10.1815
nstrumenta	-10.1815
▁myeloom	-10.1815
▁target	-10.1815
▁leverbiopt	-10.1819
CLA	-10.1827
▁fibrine	-10.1836
▁purulent	-10.1836
▁reuscellen	-10.1848
▁vlokken	-10.1854
cytologie	-10.1862
▁Bloom	-10.1866
▁ingenomen	-10.1878
▁slijmvliesbiopt	-10.1883
uitslag	-10.1898
▁zwak	-10.1908
▁gevoelig	-10.1923
chorioamnionitis	-10.1929
▁doorsneden	-10.1954
▁BCC	-10.1956
GI	-10.1973
▁Adnex	-10.1973
artie	-10.1979
▁hoe	-10.1987
▁pGly	-10.1987
onderbeen	-10.1998
scomponent	-10.2008
▁Alle	-10.2009
IGH	-10.2011
▁condyloma	-10.2031
▁complete	-10.2043
▁deferens	-10.2043
▁gradering	-10.2044
▁fragmentatie	-10.2045
esectievlakken	-10.2061
▁stukje	-10.207
▁pneumonie	-10.2071
▁gewenst	-10.2084
▁lambda	-10.2089
Appendixresectie	-10.2092
▁spoeling	-10.2106
poliep	-10.2111
▁decidua	-10.2112
▁plasmacel	-10.2114
▁d	-10.2123
Bethesda	-10.2126
▁krabeffect	-10.2145
laatselijk	-10.2145
▁nierbiopt	-10.2153
erkrijgings	-10.2156
fstand	-10.2163
Huid	-10.2168
▁vitaal	-10.2173
112	-10.2174
oom	-10.2174
▁sampling	-10.2182
aG	-10.2184
▁buiten	-10.2187
king	-10.2205
▁hepatitis	-10.2218
▁Levernaaldbiopt	-10.222
▁AA	-10.2227
lasse	-10.2236
▁lymfocytair	-10.225
BR	-10.2275
ekerheidshalve	-10.2277
▁vrouw	-10.2277
▁geneticus	-10.2281
▁zijresectievlak	-10.2287
▁depositie	-10.2294
▁macroscopisch	-10.2306
▁Crista	-10.2313
gv	-10.2314
▁diverticulitis	-10.2318
▁Eventue	-10.2324
excisiepreparaat	-10.2329
▁Rectum	-10.2345
▁nefropathie	-10.235
▁geneesmiddel	-10.2372
▁verstoring	-10.2391
▁zonbeschadigd	-10.2396
▁anterieur	-10.2396
▁doorgesneden	-10.2397
▁tijdens	-10.2397
radiculair	-10.2399
spoliep	-10.2403
▁cystadenoom	-10.2404
▁repair	-10.2406
dissectie	-10.2406
▁vijf	-10.2407
ijn	-10.2411
▁fistel	-10.2425
oa	-10.243
▁grade	-10.2432
▁adenose	-10.2461
▁gebieden	-10.247
neevlakken	-10.2507
▁hypertrof	-10.2509
ermale	-10.2512
▁oestrogeen	-10.2515
▁Borgstb	-10.2517
▁prolaps	-10.2517
▁high	-10.2521
▁max	-10.2527
▁scleroserend	-10.2528
IGE	-10.2531
igmoid	-10.2537
esophagus	-10.2547
▁weefselfragment	-10.2563
▁loka	-10.2571
▁nonHodgkin	-10.2573
▁diagnosen	-10.2574
activiteit	-10.2601
▁cervixpoliep	-10.2605
risk	-10.2626
histiocytaire	-10.2626
▁vaat	-10.2627
▁Lever	-10.2629
ikke	-10.2638
▁eku	-10.2639
jr	-10.2639
▁peritonitis	-10.2639
▁aangeleverd	-10.264
▁obturatorius	-10.264
▁opgesneden	-10.2641
▁mismatch	-10.2643
▁mechanisch	-10.2648
lip	-10.2666
▁vorming	-10.2671
▁121	-10.2694
▁langs	-10.2696
▁sclerose	-10.2698
▁toxisch	-10.27
▁BA	-10.2726
as	-10.2734
▁embryona	-10.2752
▁transmura	-10.2762
▁achterhoofd	-10.2763
▁tongrand	-10.2763
ische	-10.2764
▁hoornmateriaal	-10.2765
▁ascites	-10.2766
EHE	-10.277
ard	-10.2772
▁bijnier	-10.28
extraprostatisch	-10.2812
▁Radicaliteit	-10.2818
test	-10.2859
▁be	-10.2869
▁mond	-10.2871
nieuw	-10.2878
▁lobulaire	-10.2883
▁wekedelen	-10.2884
lomerulonefritis	-10.2887
▁verklaring	-10.2887
▁gedegenereerd	-10.2887
▁insectenbeet	-10.2888
score	-10.289
▁overleden	-10.2892
▁al	-10.2893
▁Immuunhistochem	-10.2895
▁chromosoom	-10.2898
▁celgroepen	-10.29
▁mitosen	-10.29
LAG	-10.291
▁her	-10.291
▁do	-10.2916
met	-10.2932
▁post	-10.2933
▁Corpus	-10.2942
gezien	-10.2948
naaldbiopt	-10.2989
▁acantholytische	-10.2996
jwng	-10.3014
▁subtiel	-10.3014
▁adenoid	-10.3016
▁urotheelcellen	-10.3017
▁bowenoid	-10.3018
▁littekenvorming	-10.3019
aanwijzingen	-10.3025
▁keratocyste	-10.3031
▁uitgaand	-10.3035
▁we	-10.3038
▁infarcering	-10.3039
▁colonpoliep	-10.3052
▁ons	-10.3054
111	-10.3068
▁Immuun	-10.3072
ring	-10.3072
▁klassiek	-10.3089
▁huidafwijking	-10.3091
▁ander	-10.3091
ig	-10.3104
oup	-10.3121
▁groep	-10.3132
inimal	-10.3138
▁superficiA	-10.3146
▁adenomen	-10.3147
▁at	-10.3154
ancer	-10.3175
▁LE	-10.3189
▁botbiopt	-10.3203
ader	-10.3221
▁Rectumbiopt	-10.3242
laesie	-10.3245
▁herhaling	-10.3245
▁placentarest	-10.3249
▁fibro	-10.3268
kenmerken	-10.3271
▁betrekk	-10.3272
▁microkalk	-10.3272
cutaan	-10.3273
▁therapiekeuze	-10.3278
sverschijnselen	-10.328
▁hal	-10.3283
▁genherschikking	-10.3283
▁maakt	-10.3283
uitstrijk	-10.3284
▁excisiebiopt	-10.3285
rale	-10.3288
▁amenorroeduur	-10.3289
▁waargenomen	-10.3299
▁gekend	-10.3303
ook	-10.3321
▁transplantatie	-10.3334
▁subtype	-10.3335
▁myeloide	-10.3337
onHodgkinlymfoom	-10.3347
▁lumpectomie	-10.3352
mee	-10.3384
▁coloncarcinoom	-10.3384
▁gesteld	-10.3389
▁simp	-10.3392
bodem	-10.3398
orbus	-10.3399
▁bewijs	-10.3404
▁micrografi	-10.3404
▁herkenbaar	-10.3404
▁beter	-10.3404
▁intraanaal	-10.3404
▁vaatinvasie	-10.3409
▁cystewand	-10.3413
▁hemorragisch	-10.3414
▁kon	-10.3418
BE	-10.3423
del	-10.344
ris	-10.3453
klierweefsel	-10.3468
▁dors	-10.3478
ide	-10.348
rest	-10.3504
▁laatste	-10.3516
▁clon	-10.3521
▁pla	-10.3524
▁glad	-10.3532
▁polyposis	-10.3537
▁palatum	-10.3538
▁diepreikend	-10.3538
claviculair	-10.3539
rw	-10.3541
▁lichaamsvreemd	-10.3548
dom	-10.3548
corpusbiopten	-10.3552
▁avita	-10.3561
▁cysten	-10.3568
schimmelkleuring	-10.3581
▁arts	-10.3591
umordiameter	-10.3594
▁acu	-10.3608
▁stadium	-10.3612
▁tonsil	-10.3648
ns	-10.3658
▁reeks	-10.3669
▁angioom	-10.3671
▁telefonisch	-10.3673
▁fibreuze	-10.3676
▁caudale	-10.3676
▁Chronisch	-10.368
▁trofoblast	-10.3683
▁solitair	-10.3683
▁assay	-10.369
▁collageneuze	-10.3698
▁lesie	-10.3702
▁cellulariteit	-10.3705
▁groter	-10.3705
▁Endocervica	-10.3707
min	-10.371
▁cutane	-10.3729
▁aandoening	-10.3748
age	-10.3756
▁controle	-10.3762
receptor	-10.3774
omatisch	-10.3804
craniale	-10.3805
ponta	-10.3807
aj	-10.3808
▁minuscu	-10.3809
yelodysplastisch	-10.3815
rechteronderbeen	-10.3823
▁huidlaesie	-10.3824
▁milt	-10.3835
▁Gefragmenteerd	-10.3842
▁positiviteit	-10.3842
▁EI	-10.3846
▁vast	-10.3854
▁bijvoor	-10.3857
▁eiwitten	-10.3862
▁anti	-10.3866
gelegen	-10.3889
▁Hotspot	-10.3908
Rblaas	-10.3921
▁ventrikel	-10.3936
▁laat	-10.3947
▁angiolipoom	-10.3948
▁materna	-10.3951
▁geld	-10.3951
tubulointerstiti	-10.3961
▁lip	-10.3965
▁vastgesteld	-10.3967
▁top	-10.3967
eels	-10.3968
jes	-10.3973
evel	-10.3978
▁clonal	-10.398
▁essentie	-10.4002
▁anterior	-10.4052
▁kans	-10.4062
orfologisch	-10.4076
▁ileumbiopten	-10.4077
cum	-10.4079
erruca	-10.4085
▁schedel	-10.4088
valt	-10.4089
▁psoriasiform	-10.4089
gediagnostiseerd	-10.4089
▁resultaten	-10.4089
▁minus	-10.409
▁extensie	-10.4091
▁extrauterien	-10.4091
▁bepalen	-10.4093
szins	-10.4093
structuren	-10.4111
voorgeschiedenis	-10.4125
▁trauma	-10.4128
▁borderline	-10.413
Immunohistochemi	-10.4131
▁vooral	-10.4138
gebied	-10.4143
▁flardje	-10.4146
component	-10.4159
▁promotor	-10.416
▁vanuit	-10.4169
▁mola	-10.4185
▁dicht	-10.421
afwijkingen	-10.4225
preparaten	-10.423
▁acuminatum	-10.4232
▁presternaal	-10.4232
▁maj	-10.4234
▁navel	-10.4239
▁darmtype	-10.4244
▁Huidreexcisie	-10.4249
▁onderkaak	-10.4251
of	-10.428
▁Helicobacters	-10.4295
differentiatie	-10.4323
▁linkerzijde	-10.4325
▁dysplastisch	-10.4325
▁cerebr	-10.4326
ad	-10.4335
▁radiologisch	-10.4343
ul	-10.4351
▁sluit	-10.4352
melijk	-10.4365
asus	-10.4374
▁bepaald	-10.4377
▁teratoom	-10.4377
▁toezending	-10.4377
▁pubis	-10.4378
▁posterior	-10.4381
agina	-10.4384
▁lijken	-10.4384
▁hematurie	-10.4388
▁intact	-10.4388
▁zijsnijvlakken	-10.4389
glandulaire	-10.4396
▁patiente	-10.4397
▁definitief	-10.4405
tenzij	-10.4406
▁histiocytoom	-10.4411
▁middermaal	-10.4412
▁longen	-10.4412
222	-10.4414
ammapunctie	-10.4419
cellymfoom	-10.4427
▁zijsnijranden	-10.4428
satypie	-10.4436
▁puntje	-10.4497
▁hypertrofisch	-10.4499
estrogeen	-10.4503
▁prominente	-10.4508
▁moll	-10.4515
▁proficient	-10.4524
▁naevi	-10.4524
▁duodeni	-10.4524
▁infectieus	-10.454
▁polypeu	-10.4541
▁cin	-10.4544
▁genereren	-10.4546
▁informatie	-10.4547
mamma	-10.4548
▁segmental	-10.4562
▁nieuw	-10.4568
▁overeen	-10.458
▁synovium	-10.4583
itgebreide	-10.4634
CH	-10.4637
▁intraepithelia	-10.4638
▁read	-10.4672
▁gereviseerd	-10.4673
▁cysteinhoud	-10.4673
▁reusceltumor	-10.4673
▁spermatozoa	-10.4674
▁alopecia	-10.4677
▁gastrisch	-10.4678
▁levert	-10.468
▁antistoffen	-10.4693
vaatproliferatie	-10.4697
▁Lumpectomie	-10.4717
▁steun	-10.4722
▁intraepiderma	-10.4722
kans	-10.4757
genomen	-10.4773
▁overgevoe	-10.4773
▁micronodulaire	-10.4781
ammanaaldbiopt	-10.4785
▁los	-10.4821
▁reductie	-10.4824
▁direct	-10.4824
▁crusta	-10.4825
ppervlakkig	-10.4826
ARGE	-10.4826
▁macroscopie	-10.4829
▁blaashals	-10.4835
An	-10.4845
▁niveaus	-10.4845
▁complexe	-10.485
cyste	-10.4854
▁Blaas	-10.4855
▁and	-10.4869
▁maken	-10.4877
▁secretoir	-10.4878
uterusextirpatie	-10.4899
▁Lymfklierbiopt	-10.4902
ligheidsreactie	-10.4926
necrose	-10.4929
achtergrond	-10.4943
carcinoma	-10.4948
resectievlakken	-10.4965
▁ab	-10.4976
▁erythematosus	-10.4978
▁behandeladvies	-10.4978
▁cylindrisch	-10.4978
▁irradicaal	-10.4978
▁haematurie	-10.4978
▁sclerotisch	-10.4978
▁tumorlengte	-10.4979
▁advies	-10.4982
▁mesenchymal	-10.4983
▁sneevlakken	-10.4985
▁megakaryocyten	-10.4992
biopsiemateriaal	-10.4998
▁fundus	-10.5002
eefsel	-10.5003
GR	-10.5009
lymfklierpunctie	-10.5015
▁lineaire	-10.5016
▁fibrotisch	-10.5018
▁inder	-10.5027
umortype	-10.5028
▁recidiverend	-10.503
▁ruptuur	-10.5032
▁reage	-10.5034
▁debris	-10.5036
▁collagene	-10.5059
▁junction	-10.5078
aad	-10.5085
ts	-10.5085
het	-10.5087
snijvlak	-10.5099
oksel	-10.5109
▁betreffen	-10.5125
▁verhoogd	-10.5134
▁rsi	-10.5135
▁beschrijving	-10.5135
▁mucocele	-10.5135
glomeruloscleros	-10.5135
▁kaakrand	-10.5135
aan	-10.5143
noch	-10.5146
exon	-10.5152
text	-10.5158
▁detecteert	-10.5172
▁Cytologi	-10.5173
▁crypt	-10.5173
LA	-10.5219
sluitend	-10.5228
▁GR	-10.5238
karakteristieken	-10.5242
cute	-10.5245
immunohistochemi	-10.5251
Angioinvasie	-10.5254
▁ven	-10.5262
▁cave	-10.5282
urettement	-10.5287
▁ontstekings	-10.5289
▁peptisch	-10.5294
GFRA	-10.5297
daad	-10.5298
▁inflammatie	-10.5298
▁duodenitis	-10.5298
▁zuurv	-10.5298
▁halscyste	-10.53
▁leverweefsel	-10.5305
▁buizen	-10.5306
▁mammaparenchym	-10.5312
esond	-10.5332
▁apica	-10.534
vasculaire	-10.5346
▁eosinofielen	-10.5355
▁Lokalisatie	-10.5359
▁helft	-10.5383
▁huidadnextumor	-10.5383
▁Immuno	-10.5384
▁klieren	-10.5398
▁osti	-10.5406
▁papil	-10.541
▁overgangs	-10.5422
▁kern	-10.5424
oesofagusbiopten	-10.5424
fibroserend	-10.5442
ormaal	-10.545
▁contagiosum	-10.5454
▁veroorzaakt	-10.5454
▁foveolair	-10.5455
▁mastopathie	-10.5455
▁behorend	-10.5457
▁Resectievlak	-10.5461
▁zwart	-10.5464
▁ingesloten	-10.5469
▁nos	-10.5476
ma	-10.5478
▁rechtermamma	-10.5479
▁parenchym	-10.5489
122	-10.5523
▁afge	-10.5528
▁Ileumbiopt	-10.5534
▁tumorrest	-10.554
▁maxilla	-10.5544
▁clonaliteits	-10.5565
▁vas	-10.5573
athogene	-10.5605
▁duct	-10.5605
nd	-10.5606
weede	-10.5608
accredit	-10.5618
▁myxoid	-10.5619
▁onderkwadrant	-10.5619
▁src	-10.5619
ruke	-10.5619
▁huidstansbiopt	-10.5619
▁Rand	-10.5619
▁ondersteunt	-10.5619
▁paravertebraal	-10.562
▁voorgelegd	-10.5621
▁tubair	-10.5622
▁radical	-10.5623
▁darmlijden	-10.5624
▁immatur	-10.5631
granuloomvorming	-10.5635
▁Archer	-10.5641
als	-10.5645
▁bekken	-10.5657
patroon	-10.5675
▁regeneratie	-10.5684
▁vol	-10.5689
▁datum	-10.5689
coba	-10.5701
microsatellieten	-10.5711
ovariumcarcinoom	-10.5723
▁gastrointestina	-10.5725
▁myelo	-10.5739
▁epitheelcellen	-10.5745
EL	-10.5746
ol	-10.5771
verstoring	-10.5773
▁candida	-10.5785
▁error	-10.5785
cfng	-10.5785
pool	-10.5785
▁posterieur	-10.5785
▁opgevraagd	-10.5786
▁mogelijkheden	-10.5786
▁intraductaal	-10.5788
onwaarschijnlijk	-10.579
▁impetiginisatie	-10.579
▁leiomyosarcoom	-10.579
▁getroffen	-10.579
▁cilindrisch	-10.579
metaplasie	-10.5791
▁toonde	-10.5799
▁hoorn	-10.5805
▁femur	-10.5807
▁Clark	-10.5808
▁flowcytometrie	-10.5808
ken	-10.5815
▁duim	-10.5817
▁text	-10.5827
esofagus	-10.585
▁preparaten	-10.5866
▁insufficientie	-10.5889
▁rechterzijde	-10.5891
▁oorl	-10.59
ductaalcarcinoom	-10.5902
uur	-10.5912
uamo	-10.5915
▁huidbiopsie	-10.5917
panel	-10.5921
▁vroege	-10.593
▁gecombineerd	-10.5955
▁gelokaliseerd	-10.5955
Resulta	-10.5958
▁verklaren	-10.596
▁submandibulair	-10.596
▁hybridisatie	-10.596
▁bekledend	-10.596
▁basaalmembraan	-10.596
▁bovenst	-10.5966
▁perifolliculair	-10.5969
▁colorectaal	-10.5974
▁lichenoides	-10.5977
▁schwannoom	-10.5978
▁mondbodem	-10.5978
igexcisie	-10.5989
▁hechting	-10.5994
▁thoraxwand	-10.5998
▁neo	-10.6007
▁losse	-10.6012
▁zes	-10.6017
oldoende	-10.6033
▁subepithelia	-10.6042
▁progesteron	-10.6053
rogesteron	-10.6066
tatus	-10.6092
▁huidexcisies	-10.6104
▁krappe	-10.6116
epel	-10.6117
uodenumbiopt	-10.6119
▁Assay	-10.6127
▁endometriosis	-10.6127
▁gastrale	-10.6127
▁toelichting	-10.6127
▁gevalideerd	-10.6132
▁Basaal	-10.6141
▁linkeronderarm	-10.6141
▁insturen	-10.6145
▁hemicolectomie	-10.6145
ekedelen	-10.6148
▁monotypisch	-10.615
▁kaakhoek	-10.6151
wee	-10.6152
pitheeldysplasie	-10.6154
▁afd	-10.6155
▁traject	-10.616
inflammatoire	-10.6172
▁Blaasspoel	-10.6182
▁keratine	-10.6186
▁huidig	-10.6194
▁cilindercel	-10.6197
▁eczemateu	-10.6203
stoornissen	-10.6236
▁hoogste	-10.6246
▁regiona	-10.6279
▁haard	-10.6283
basaalcel	-10.6293
▁snijden	-10.6297
aarschijnlijk	-10.6301
arthin	-10.6302
▁geulcereerd	-10.6302
▁submandibularis	-10.6302
▁herkomst	-10.6302
▁regelmatig	-10.6302
▁communis	-10.6303
▁meerlagig	-10.6303
▁studie	-10.6304
▁daarom	-10.6306
▁colloid	-10.6307
▁recent	-10.6309
▁subacut	-10.631
▁omgevend	-10.6312
▁cauterisatie	-10.6315
▁gebiopteerd	-10.6317
▁circulatie	-10.632
▁globa	-10.6329
▁Beide	-10.6337
lokdarm	-10.6348
▁co	-10.6349
▁onderste	-10.6355
ber	-10.6359
▁coli	-10.6362
▁interna	-10.6373
proces	-10.6382
▁x	-10.6436
▁poliepjes	-10.6439
have	-10.6461
▁mucineu	-10.6475
pitz	-10.6475
▁werk	-10.6479
▁planopilaris	-10.6481
▁geschikt	-10.6481
Laesi	-10.6481
▁imponerend	-10.6481
▁celpopulatie	-10.6483
▁maanden	-10.6483
▁galgang	-10.6486
▁fibromusculair	-10.6486
hun	-10.6493
▁zij	-10.6496
▁ileumslijmvlies	-10.6501
▁atheroomcyste	-10.6515
▁zijranden	-10.6522
▁genetisch	-10.6527
aagbiopt	-10.6527
▁bacterie	-10.6533
maals	-10.6537
▁soms	-10.6548
fragment	-10.6551
▁maagantrumtype	-10.6554
teuze	-10.6591
ca	-10.6642
tie	-10.6642
ten	-10.665
xcochleaat	-10.6652
lymfoom	-10.6653
epelvocht	-10.6661
▁collega	-10.6663
▁dermatoloog	-10.6663
▁intrauterien	-10.6663
▁lymfatisch	-10.6663
▁lavage	-10.6663
▁verknepen	-10.6663
▁panniculitis	-10.6663
▁meningeoom	-10.6663
▁urticarie	-10.6663
▁hepatocellulair	-10.6663
▁traumatisch	-10.6666
▁tweemaal	-10.6668
AHA	-10.6671
▁plaatepitheel	-10.6672
▁acanthoom	-10.6678
▁mycosis	-10.6678
▁dubbelbrekend	-10.6678
▁details	-10.6678
▁later	-10.6679
Lymfklierexcisie	-10.6689
▁verbred	-10.6708
▁Antrum	-10.6709
▁serie	-10.6711
Conform	-10.6718
richoepithelioom	-10.6752
▁endo	-10.6754
▁extravasatie	-10.6755
invasieve	-10.6756
▁der	-10.6771
▁lipomateu	-10.6771
effect	-10.6772
omateuze	-10.6807
snijvlakken	-10.6824
▁aangeboden	-10.6848
▁compound	-10.6848
▁multiforme	-10.6848
▁stellen	-10.6848
▁diverticulose	-10.6848
▁viraal	-10.6848
▁anaplastisch	-10.6848
om	-10.685
▁paraaortaal	-10.6851
▁preputium	-10.6852
▁defect	-10.6854
▁fungoides	-10.6854
▁bevatten	-10.6854
▁ductectasieen	-10.6863
▁usual	-10.6863
▁klep	-10.6864
cylinderepitheel	-10.6866
▁maturatie	-10.6883
▁chemotherapie	-10.6883
flank	-10.6894
▁aspiraat	-10.6895
▁Celarm	-10.6903
CHE	-10.6905
otal	-10.6907
Beeld	-10.6914
borst	-10.6914
▁cu	-10.6918
▁marker	-10.6936
ype	-10.6936
▁biopsies	-10.6941
▁schildklierkwab	-10.6943
tadierings	-10.6954
▁BAL	-10.6965
reikend	-10.6978
▁derde	-10.6993
product	-10.6999
▁stolsel	-10.7009
▁blaasslijmvlies	-10.7013
▁polyp	-10.7015
▁inzending	-10.7015
▁vlak	-10.7019
ur	-10.7026
entinel	-10.7029
emicolectomie	-10.7032
erwijdering	-10.7033
▁staven	-10.7037
▁oedemateu	-10.7037
▁gemodificeerd	-10.7037
▁mediastinale	-10.7037
▁pancreaskop	-10.7038
▁seborroisch	-10.7038
uaat	-10.7039
▁omgeving	-10.7052
▁central	-10.7064
pipelle	-10.7078
eld	-10.7087
kaak	-10.7092
▁Bodem	-10.7095
gegeven	-10.7096
▁haarfollikels	-10.7113
▁myocard	-10.7117
▁lange	-10.7128
groepjes	-10.7129
▁Longbiopt	-10.713
▁vinger	-10.7143
▁gemengd	-10.7151
▁allergisch	-10.7169
▁shavebiopt	-10.7181
▁epithelia	-10.7199
CLC	-10.7217
▁architecture	-10.7229
▁beschikbaar	-10.7229
▁alhier	-10.7229
▁irregulair	-10.7229
▁isthmus	-10.7229
▁villitis	-10.7229
columnair	-10.723
▁gehoor	-10.723
▁siliconen	-10.723
▁war	-10.7244
▁tekst	-10.7245
▁hypertensie	-10.7245
▁hematoom	-10.7245
▁cristabiopt	-10.725
isatie	-10.7256
▁disease	-10.7286
microscopie	-10.7286
▁restmateriaal	-10.7293
▁colontype	-10.73
▁protocol	-10.73
antrumslijmvlies	-10.7304
▁stenose	-10.7312
▁vreemdlichaam	-10.7319
▁verwijde	-10.732
▁blijvende	-10.7327
▁gericht	-10.7327
▁CLL	-10.7335
ose	-10.7359
grootte	-10.7363
▁ijzer	-10.7364
▁granulatie	-10.7385
ifferentiatie	-10.7414
emodex	-10.7424
roep	-10.7424
▁lienalis	-10.7425
▁curvatuur	-10.7425
▁with	-10.7425
▁losliggend	-10.7425
▁incidentie	-10.7426
Bovenstaand	-10.7426
▁systematisch	-10.7426
▁rode	-10.7426
▁hormona	-10.7431
▁intraductal	-10.7441
▁verwijdering	-10.7453
▁nvt	-10.7462
gebruik	-10.7488
plaveiselcel	-10.7489
▁naaldbiopsie	-10.7491
spoliepen	-10.7511
▁maagbiopt	-10.7515
Is	-10.7542
▁stabiel	-10.755
tisch	-10.7577
▁ano	-10.7579
ir	-10.7594
▁Lymfeklier	-10.7596
▁genoemd	-10.7609
Cys	-10.761
dagen	-10.7621
▁aangrenzend	-10.7625
▁ingeblokt	-10.7625
▁voorhanden	-10.7625
▁mitotisch	-10.7625
▁onverdacht	-10.7625
▁darmkanker	-10.7625
▁systemisch	-10.7625
▁adenomyose	-10.7626
▁urineblaas	-10.7626
▁chirurgisch	-10.7627
▁tangentieel	-10.7627
▁voorste	-10.7629
komende	-10.7631
▁persisterend	-10.7631
▁geArriteerd	-10.7631
▁ectocervicaal	-10.7634
▁leverparenchym	-10.7635
▁order	-10.7636
▁vries	-10.7642
▁nefritis	-10.7652
▁elektronen	-10.7652
▁steel	-10.7658
▁reepje	-10.7662
▁elk	-10.7669
▁wigexcisie	-10.7669
▁diafragma	-10.7674
▁junctione	-10.7697
wangerschapsduur	-10.7702
▁overigen	-10.7724
eerde	-10.7733
Cytologisch	-10.7738
bijmenging	-10.7751
carcinomen	-10.7754
▁niveau	-10.7765
▁ruime	-10.7768
▁gemethyleerd	-10.7771
▁f	-10.7798
even	-10.7805
▁mucine	-10.7808
▁Colonbiopt	-10.7812
erineural	-10.7815
▁microinvasie	-10.7817
▁foet	-10.7817
av	-10.7819
▁eind	-10.7823
igmoidresectie	-10.7827
varium	-10.7828
▁tandenrij	-10.7829
▁neig	-10.7829
▁rijping	-10.783
▁melanocyten	-10.7831
▁ao	-10.7834
▁bedra	-10.7835
▁geweest	-10.7835
▁malperfusie	-10.7835
▁vliezen	-10.7843
▁stenen	-10.7857
Resectie	-10.786
▁molle	-10.7861
▁basaloide	-10.7864
▁nevus	-10.7867
tis	-10.787
▁glomerulair	-10.787
▁inhoud	-10.7872
▁Beperkt	-10.789
▁inkt	-10.7909
▁huidresectie	-10.7914
expressie	-10.795
Lokalisatie	-10.7952
classificatie	-10.7956
▁vocht	-10.7963
receptorbepaling	-10.7963
▁RI	-10.7985
zijdig	-10.7994
agt	-10.8013
▁bevat	-10.8034
einig	-10.8036
▁trichilemm	-10.8037
▁geprikkeld	-10.8037
▁rubriek	-10.8037
▁immunoloog	-10.8038
▁gemengdcellig	-10.8038
▁microsatellitos	-10.8038
▁infiltraten	-10.8039
▁bevonden	-10.8039
▁uitbreidend	-10.804
▁serositis	-10.8041
▁componenten	-10.8041
▁chronica	-10.8041
▁diam	-10.8044
▁resectierand	-10.8045
▁eenduidig	-10.8047
▁galwegen	-10.8056
▁bloedvaten	-10.8057
▁maagmucosa	-10.8066
vergrot	-10.8068
▁pylorus	-10.8077
▁glioblastoom	-10.8077
pathologie	-10.8081
ierover	-10.8084
▁High	-10.8088
▁betrokkenheid	-10.8099
adere	-10.8102
▁lis	-10.8112
yp	-10.8121
mutatie	-10.8122
▁eerst	-10.8124
▁kristallen	-10.8144
▁w	-10.8147
kwab	-10.8158
vraag	-10.8159
▁leukocytoclas	-10.8166
▁supra	-10.8166
fragmentje	-10.8172
rechterbovenkwab	-10.8172
▁teken	-10.8192
ximale	-10.8193
▁abces	-10.8199
RG	-10.8199
▁relevant	-10.8201
olyp	-10.8202
ubcutis	-10.8203
▁conclusief	-10.8211
ubulair	-10.8222
▁bevinding	-10.8229
▁membraneu	-10.8234
otaal	-10.8239
iddels	-10.8246
ransuret	-10.8247
nterpretatie	-10.8249
▁fibroxanthoom	-10.825
▁geloosd	-10.825
▁pemphigoid	-10.825
time	-10.8251
▁progressie	-10.8253
ek	-10.8255
▁inguinaal	-10.8257
▁voetzool	-10.8257
▁amyloidose	-10.8257
aget	-10.8258
▁vaatjes	-10.8259
deling	-10.8262
▁verkalkingen	-10.8263
▁resttumor	-10.827
▁gingiva	-10.8271
▁Intern	-10.8275
ater	-10.8278
▁kernen	-10.8282
▁sporadisch	-10.8292
▁no	-10.8292
▁Adnexextirpatie	-10.8293
▁doen	-10.8293
▁fibroma	-10.8312
▁Blaasbiopten	-10.8312
▁gesneden	-10.8327
db	-10.8331
marge	-10.8377
nfiltratiediepte	-10.8385
microscopisch	-10.8399
▁aard	-10.8404
▁artefacten	-10.8439
schildwachtklier	-10.8448
ariant	-10.8451
zien	-10.8456
▁baso	-10.8459
▁reiken	-10.8462
tereotactisch	-10.8462
▁myoom	-10.8467
▁skintag	-10.8467
▁dwarsgestreept	-10.8468
▁intradermaal	-10.8468
▁acanthotisch	-10.8468
▁blaarvorming	-10.8468
▁koilocytose	-10.8468
arthintumor	-10.8469
▁beteken	-10.8472
etastase	-10.8476
▁caverneu	-10.8477
leuringen	-10.8482
▁wij	-10.8488
▁risk	-10.849
bovenkwab	-10.8491
▁divertikel	-10.8492
▁mucosal	-10.8493
▁endometrial	-10.8498
▁crypten	-10.8501
▁alveolair	-10.8521
▁test	-10.8564
Asp	-10.8565
▁schildwacht	-10.8565
▁haardje	-10.857
▁fibromatose	-10.8582
▁haar	-10.8619
▁arterie	-10.8619
onderarm	-10.8619
genoeg	-10.862
ocalisatie	-10.8625
leura	-10.8627
keratine	-10.8633
BRAF	-10.8644
▁interstiti	-10.8654
ante	-10.8664
lc	-10.8669
▁ex	-10.8677
▁circumferentie	-10.8682
aste	-10.8683
olledig	-10.8685
▁basalioom	-10.869
jogren	-10.869
▁liposarcoom	-10.869
▁prostatitis	-10.869
▁struma	-10.869
▁toepassing	-10.869
▁immunologisch	-10.869
▁platform	-10.869
▁zijdelings	-10.869
▁spirocheten	-10.8691
▁naevoid	-10.8691
▁septum	-10.8692
rapst	-10.8694
▁protocollair	-10.8694
▁ondersteuning	-10.8697
▁uitgeblust	-10.8697
▁cryptitis	-10.8697
▁vacuolair	-10.8698
▁fotos	-10.8698
▁veneu	-10.8704
adenoom	-10.8707
▁duodenumbiopt	-10.8714
▁ingestuurd	-10.8715
▁Low	-10.872
▁villeu	-10.8723
lymfklierexcisie	-10.8724
▁vergelijking	-10.8733
▁verdikt	-10.8735
▁Adenocarcinoom	-10.874
▁cellulair	-10.8748
▁nauwe	-10.8761
beoordeling	-10.877
▁papilloma	-10.8777
aginatop	-10.8781
▁Bericht	-10.8783
mateuze	-10.8784
▁waarde	-10.8825
▁gestelde	-10.8826
xtraprostatisch	-10.8831
jarig	-10.8846
elen	-10.8857
▁doorsnede	-10.8885
▁pilonidalis	-10.8917
▁scrotum	-10.8917
▁borstkas	-10.8917
▁talrijk	-10.8917
▁cytonucleair	-10.8917
▁bewerkt	-10.8918
▁ulcusbodem	-10.8919
▁endometri	-10.892
verwege	-10.892
ries	-10.8921
▁optimaal	-10.8923
▁multifocal	-10.8924
▁organiserend	-10.8924
▁zoek	-10.8926
▁follikel	-10.8928
▁pseudodecidual	-10.8928
▁ectocervix	-10.8932
▁cryptabcessen	-10.8936
aaldbiopsie	-10.8936
▁mesenterium	-10.8937
▁hierboven	-10.8937
▁premalign	-10.8941
▁Litteken	-10.8946
▁infarct	-10.8946
▁medebeoordeeld	-10.8948
▁voorwand	-10.8961
▁reuscel	-10.8969
deel	-10.8972
▁low	-10.8977
▁gegroeid	-10.8997
sereuz	-10.9002
arm	-10.902
▁hilair	-10.9034
▁verminderd	-10.9038
▁plasma	-10.9057
▁stuwing	-10.9059
cervicale	-10.9065
▁therapieeffect	-10.9065
▁voorlopige	-10.9088
GRA	-10.9108
Hoog	-10.9119
▁linkeroor	-10.912
positieve	-10.9121
papilloom	-10.9123
▁calcificatie	-10.9123
▁uurs	-10.9129
laas	-10.9135
iagnose	-10.9143
▁vlakke	-10.9145
rchidectomie	-10.9149
▁epicrise	-10.915
▁proctitis	-10.915
▁Aspiratie	-10.915
▁peesschede	-10.915
▁bewijzend	-10.915
▁pemfigoid	-10.915
▁bloederig	-10.915
▁stem	-10.915
▁uitgaa	-10.9151
▁ogend	-10.9151
▁Enig	-10.9152
ly	-10.9155
▁gecauteriseerd	-10.9157
▁the	-10.9157
▁lymfomenpanel	-10.9157
▁zijkant	-10.9157
▁tibia	-10.9158
▁bloedbijmenging	-10.9159
aarbij	-10.9163
▁infra	-10.9164
IHC	-10.9165
▁myelofibrose	-10.9168
▁myomatosus	-10.9169
▁graderen	-10.917
og	-10.9171
▁bloedingsresten	-10.9172
terusresectie	-10.9172
▁fossa	-10.9176
ari	-10.9177
▁conjunctiva	-10.9184
hoek	-10.9196
lies	-10.921
▁loc	-10.9219
▁gronden	-10.9236
▁linkszijdig	-10.9243
▁criteria	-10.9251
▁aanvragen	-10.9252
▁bekleding	-10.9255
▁blaar	-10.928
all	-10.928
▁zwangerschap	-10.9304
totaal	-10.9345
▁punt	-10.935
cytochemisch	-10.9354
ier	-10.9355
aanvulling	-10.9369
helix	-10.9369
terk	-10.938
efrectomie	-10.9387
pmerking	-10.9387
cflp	-10.9388
▁biopsy	-10.9388
▁correlaat	-10.9388
▁verslaglegging	-10.9388
▁gemic	-10.9388
▁neusbijholte	-10.9388
ortons	-10.9388
▁leversegment	-10.9388
▁sleeve	-10.9389
handpalm	-10.9389
▁zekerheidshalve	-10.939
▁herkend	-10.9395
▁haemangioom	-10.9395
vena	-10.9396
▁stasis	-10.9399
▁dermatomycose	-10.9406
▁wervel	-10.9407
▁larynx	-10.9407
▁serologie	-10.9409
▁subepiderma	-10.9423
▁hematopoiese	-10.9433
▁typeren	-10.9433
▁excisies	-10.9443
lis	-10.9448
weet	-10.9448
▁eccrien	-10.9459
▁herbeoorde	-10.9465
▁fundustype	-10.9469
verigen	-10.9479
▁tumorpercentage	-10.9482
▁haarden	-10.9488
▁markers	-10.9512
▁Ig	-10.9549
▁ruimte	-10.9559
z	-10.9594
mucosale	-10.9606
▁tumorvolume	-10.962
Helicobacter	-10.9626
▁karakter	-10.9626
ompleet	-10.963
Groeiwijze	-10.9632
▁voorafgaand	-10.9632
rodissect	-10.9632
▁ieder	-10.9632
▁slijmvormend	-10.9632
cylinders	-10.9634
▁semen	-10.9634
datum	-10.9634
▁artritis	-10.9639
▁condyloom	-10.9639
▁erytrocyturie	-10.9639
▁Hysteroscopisch	-10.9639
▁intracavitair	-10.9639
▁buitenoppervlak	-10.9639
▁gedeeltelijk	-10.964
dak	-10.964
▁dissectie	-10.9646
▁steatohepatitis	-10.9652
▁erg	-10.966
▁cervicaal	-10.9661
▁lokal	-10.9686
loge	-10.9692
childklier	-10.9694
▁LA	-10.9708
kant	-10.9709
▁ratio	-10.9726
▁hypertrofie	-10.9739
▁overgangstype	-10.9739
▁aantasting	-10.9757
▁cyst	-10.9758
▁zoda	-10.9773
▁voorkomen	-10.9776
scannen	-10.9789
punt	-10.9794
▁REC	-10.9803
▁immunofenotype	-10.9842
▁bewerking	-10.9843
uperficieel	-10.9851
ransurethra	-10.9866
top	-10.9867
je	-10.9871
▁excochleaat	-10.9872
▁nodig	-10.9873
reventie	-10.9874
▁onsteking	-10.9874
▁lymf	-10.9877
ermoedelijk	-10.9878
ziekte	-10.988
▁huidshave	-10.988
anamnes	-10.988
eoordeling	-10.9881
ngewijzigd	-10.9881
▁gaan	-10.9881
▁Laboratorium	-10.9882
▁clear	-10.9882
▁trimester	-10.9882
cholecystectomie	-10.9882
▁acantholyse	-10.9882
▁bijtfibroom	-10.9882
▁zogenaamd	-10.9882
▁keratinocyt	-10.9882
▁hypocellulair	-10.9882
▁paratubair	-10.9882
▁motiel	-10.9882
ouglas	-10.9883
▁arteriitis	-10.9884
▁prostatectomie	-10.9884
▁fibrocysteu	-10.9886
▁serologisch	-10.9886
breuk	-10.9887
gerelateerd	-10.9888
betreffende	-10.9889
▁groen	-10.9889
volgende	-10.9899
▁Als	-10.9899
▁oncocytair	-10.9902
▁ileocoecaal	-10.9902
▁ilium	-10.9902
laten	-10.9907
▁ruimer	-10.9911
▁di	-10.9915
▁periadnexa	-10.9923
▁rectumbiopten	-10.9926
▁desmoplastisch	-10.9929
epitheliale	-10.9936
GRAA	-10.9943
▁anaal	-10.995
paard	-10.9968
clinicopathologi	-10.9971
afw	-10.9972
▁rechterhand	-10.9973
▁villi	-10.9994
▁media	-11.0019
▁trombus	-11.0067
lein	-11.0089
Glu	-11.0101
amengestelde	-11.0104
▁bloedingsrest	-11.0113
ylori	-11.0118
▁pR	-11.0118
angulus	-11.013
▁mitose	-11.0133
ouble	-11.0137
▁Endocervix	-11.0138
▁macronodulair	-11.0138
▁Hyperplastisch	-11.0138
▁prepylorisch	-11.0139
▁fibroadipeu	-11.0141
▁pustel	-11.0141
▁gesteeld	-11.0143
juv	-11.0143
omtrent	-11.0144
▁tubuli	-11.0146
▁darmmucosa	-11.0146
▁restlokalisatie	-11.0153
▁radiotherapie	-11.0154
▁evt	-11.0159
▁sarcomatoid	-11.0159
onsillectom	-11.0169
▁celgroepjes	-11.017
▁thermisch	-11.0173
▁onze	-11.0174
▁satellieten	-11.0175
▁placentair	-11.0181
▁prostaatbiopt	-11.0185
▁gele	-11.0195
am	-11.0211
uidbiopsie	-11.0218
▁linkerhand	-11.0222
▁dyskeratose	-11.0227
▁geleide	-11.0247
▁ulceroflegmoneu	-11.0274
oorlopige	-11.0278
▁k	-11.0278
anwezigheid	-11.0292
▁HE	-11.0293
ot	-11.0307
orre	-11.0344
diameter	-11.0345
Immuun	-11.0356
▁bestaan	-11.0373
leine	-11.0376
lechts	-11.0376
gebl	-11.0378
neeranden	-11.0396
gens	-11.0396
▁collageen	-11.0401
▁Heupkop	-11.0401
▁galstenen	-11.0401
▁gezamenlijk	-11.0401
▁lingula	-11.0401
▁morfea	-11.0401
▁hematopoetisch	-11.0401
▁echogeleid	-11.0402
▁seborrhoisch	-11.0402
GIE	-11.0403
▁nerv	-11.0408
▁zin	-11.0409
▁skipping	-11.0409
▁mestcellen	-11.0409
▁lymfomen	-11.041
▁aanzien	-11.0419
▁verschillen	-11.0424
▁medicamenteuze	-11.0426
infiltratie	-11.0427
▁hypofyse	-11.0427
▁herschikking	-11.0428
ras	-11.0431
▁Bot	-11.0431
▁pulmonale	-11.0434
gewicht	-11.0437
▁centrum	-11.0437
▁intimafibrose	-11.0437
▁Random	-11.0437
typeslijmvlies	-11.0452
status	-11.0496
▁groepen	-11.0499
▁Anus	-11.0505
classificeerd	-11.0515
▁mesangia	-11.0521
▁apocrien	-11.0532
▁beeldvorming	-11.054
achtige	-11.0546
▁pan	-11.0548
▁Extern	-11.0552
▁Bronchusbiopt	-11.0591
▁Cp	-11.0595
▁Candida	-11.0595
atypie	-11.0629
▁bloedingen	-11.0632
lier	-11.0642
▁strek	-11.0648
ntsteking	-11.0649
oorbehandeling	-11.0651
▁wijzen	-11.0664
erologisch	-11.0667
ctieve	-11.0667
iepte	-11.0667
lceratie	-11.0668
▁vesicula	-11.0669
handeld	-11.0671
adhe	-11.0671
▁Goed	-11.0672
▁erythematodes	-11.0672
▁gespecificeerd	-11.0672
▁aanbevolen	-11.0672
▁nodosum	-11.0672
▁gemetastaseerd	-11.0672
▁chorionvlokken	-11.0672
▁prostatica	-11.0672
▁dikkedarm	-11.0672
rechteronderkwab	-11.0677
▁gelocaliseerd	-11.068
▁ligament	-11.068
▁opgebouwd	-11.068
▁fibrosering	-11.0681
▁erythrocyten	-11.0685
▁veldje	-11.0685
▁peritoneale	-11.0694
▁hoofdbronchus	-11.0695
ry	-11.0701
▁prikkeling	-11.0708
▁satellitose	-11.071
specifieke	-11.0711
GG	-11.0714
blokje	-11.0718
▁galweg	-11.0719
st	-11.0732
meld	-11.0739
▁remmers	-11.0739
▁partieel	-11.0743
ige	-11.0746
▁for	-11.0761
derde	-11.0771
▁zegelringcel	-11.0774
▁vraag	-11.0779
uenties	-11.0812
▁cholangio	-11.0848
▁zelf	-11.0857
▁klierweefsel	-11.0858
▁Ileum	-11.0867
eenmergaspiraat	-11.0869
▁maagcardia	-11.0877
▁malformatie	-11.0895
▁wangslijmvlies	-11.0895
▁pl	-11.0898
ysplasie	-11.0899
perma	-11.0916
▁probe	-11.0922
ommissie	-11.0945
niversit	-11.0946
ge	-11.0947
aligniteit	-11.0948
▁millimeter	-11.0949
▁erytropoese	-11.0949
▁endocarditis	-11.0949
▁ischaemie	-11.0949
▁blastentoename	-11.095
▁major	-11.095
▁cystitis	-11.095
▁waarna	-11.0953
▁horizontal	-11.0956
▁Fuhrman	-11.0958
▁Goedaardig	-11.0958
▁thoracal	-11.0958
▁ductaaltype	-11.0962
▁glans	-11.0962
▁IEL	-11.0965
Arg	-11.0966
▁innemend	-11.097
▁dijbeen	-11.0972
axima	-11.0978
▁littekenachtig	-11.0979
straal	-11.0983
▁nagel	-11.0992
▁ectocervica	-11.0992
LBCL	-11.0992
been	-11.0998
▁fimbriae	-11.1002
▁astrocytoom	-11.1002
▁gemedieerd	-11.1005
▁reads	-11.101
radiologisch	-11.1015
laboratorium	-11.1016
▁geamplificeerd	-11.1017
▁rood	-11.1017
▁lesion	-11.1027
▁tumortje	-11.1027
▁daarvan	-11.1033
chronische	-11.1034
▁kwab	-11.1044
▁klassieke	-11.1065
licht	-11.1074
ase	-11.1087
bepaling	-11.1122
▁bevind	-11.1146
aagcorpusbiopten	-11.1157
▁blastair	-11.1161
▁lichenoid	-11.1168
toe	-11.1168
atus	-11.1178
localisatie	-11.119
ubcutane	-11.1203
▁pleit	-11.1211
spinal	-11.1216
errichting	-11.122
bductie	-11.1233
▁infect	-11.1234
entana	-11.1235
▁genitalis	-11.1235
▁noodzakelijk	-11.1235
▁insectensteek	-11.1235
▁rosea	-11.1235
▁dilatatie	-11.1235
▁plasmocytose	-11.1235
▁matur	-11.1236
kbeen	-11.1236
▁cirrose	-11.1236
streek	-11.1238
▁overexpressie	-11.1241
▁Gewijzigd	-11.1244
▁tongbasis	-11.1244
erineum	-11.125
ebru	-11.126
il	-11.1267
▁krabben	-11.1274
▁adnexa	-11.1279
lymfklier	-11.1282
▁hilus	-11.129
▁trombose	-11.1306
infectie	-11.1317
verwijderd	-11.132
lijks	-11.133
▁markering	-11.1331
▁submucosale	-11.1331
poliepen	-11.1354
▁prothese	-11.1355
tje	-11.1357
▁decidual	-11.1391
niet	-11.1397
▁verruc	-11.1412
childwachtklier	-11.1419
▁translocaties	-11.142
▁indefinite	-11.1421
▁epithelioid	-11.1444
sn	-11.1464
coupes	-11.1468
▁pE	-11.1494
cus	-11.1498
lokdarmbiopt	-11.1507
ullen	-11.1521
screen	-11.1524
peekselklier	-11.1524
usculus	-11.1525
lux	-11.1525
gaand	-11.1526
▁tijd	-11.1527
▁Erytrocyturie	-11.1529
▁interface	-11.1529
▁carcinoid	-11.1529
▁herhaald	-11.1529
▁juli	-11.1529
boog	-11.1529
▁aansnijding	-11.1529
▁digniteit	-11.1529
▁bulla	-11.1529
▁intramusculair	-11.1529
▁uiterst	-11.1529
▁heupkop	-11.1529
▁adenocarcinoma	-11.153
▁nefrectomie	-11.153
▁overliggend	-11.1533
▁hiermee	-11.1536
▁ligging	-11.1538
▁epididymis	-11.1539
▁goedmatig	-11.154
▁Bronchoalveol	-11.1542
brug	-11.1546
▁complex	-11.1551
▁dermoidcyste	-11.1553
▁eiwit	-11.1553
▁duodenummucosa	-11.1555
▁pyelum	-11.1558
▁linkerflank	-11.1559
rectumslijmvlies	-11.1566
atuur	-11.1567
▁aanleg	-11.1568
opathie	-11.1571
▁embryonaal	-11.1577
GC	-11.1586
▁colonbiopt	-11.1599
▁maagresectie	-11.1602
▁stembandpoliep	-11.1615
▁inter	-11.1621
Breslow	-11.1636
lymfocyten	-11.1637
▁angio	-11.1647
▁Receptoren	-11.1654
▁diverse	-11.1657
▁spoelcel	-11.1669
schouderblad	-11.167
▁lymfoAde	-11.1678
▁parasterna	-11.1683
▁karakteristiek	-11.1686
▁basaalcelca	-11.1689
▁parti	-11.169
▁grootte	-11.1713
ierbij	-11.1715
ct	-11.1718
procedure	-11.1725
▁rub	-11.1728
▁Cyste	-11.1731
urie	-11.1737
can	-11.1747
haardjes	-11.1761
invasief	-11.1767
▁rechteroor	-11.1772
▁GI	-11.1777
oesofagea	-11.1783
poeling	-11.1784
nco	-11.18
nderzoek	-11.1802
▁Abortus	-11.1807
▁snel	-11.1808
ARC	-11.1813
▁blaaswand	-11.1815
▁adeno	-11.1825
ultipel	-11.1828
▁Arteri	-11.1829
ijdigheid	-11.1831
ahler	-11.1832
jwlp	-11.1832
▁antracose	-11.1832
▁cholangitis	-11.1832
▁geserreerd	-11.1832
▁glabella	-11.1832
▁mucokele	-11.1832
▁seminales	-11.1832
▁vruchtdood	-11.1832
▁hechtdraad	-11.1832
▁jicht	-11.1832
▁pseudomelanosis	-11.1832
▁senilis	-11.1832
▁discontinu	-11.1832
▁amorf	-11.1832
▁reAxcisie	-11.1832
▁spermatozoon	-11.1832
▁minor	-11.1833
▁periorbitaal	-11.1833
ocht	-11.1833
▁subtypering	-11.1833
▁cerebro	-11.1835
▁Bauhin	-11.1836
▁begeleid	-11.1837
▁okt	-11.1839
▁macrometastase	-11.1841
▁dysplasia	-11.1841
▁opbouw	-11.1841
▁oorzaken	-11.1841
▁vestibul	-11.1841
▁adenosis	-11.1842
▁bursa	-11.1843
spoeling	-11.1846
idectomie	-11.1852
▁excoriatie	-11.1857
beenmergaspiraat	-11.186
▁vroeg	-11.1862
▁significantie	-11.1862
▁ductectasie	-11.1864
▁infarcten	-11.1865
▁global	-11.1871
▁motiliteit	-11.1874
▁sepsis	-11.189
▁lig	-11.1893
rcinoom	-11.1911
▁ond	-11.1919
▁obstructie	-11.1923
geassocieerde	-11.1926
vormige	-11.1935
▁small	-11.1935
▁samen	-11.1941
Intern	-11.195
invasie	-11.198
▁teen	-11.1991
▁lymfoAd	-11.1992
leurabiopt	-11.2001
sproces	-11.2012
histologisch	-11.2016
▁locaties	-11.2025
▁retro	-11.2044
proliferatief	-11.2073
poelvocht	-11.2078
▁tw	-11.2082
tubulaire	-11.2086
poiese	-11.2095
voorste	-11.2095
▁Incisiebiopt	-11.2099
atient	-11.2106
Lys	-11.2138
iagnostisch	-11.214
verantwoordelijk	-11.2145
▁bevestigen	-11.2145
▁elastosis	-11.2145
▁galsteenlijden	-11.2145
▁cystoscopie	-11.2145
▁vaatlaesie	-11.2146
▁parasitair	-11.2146
BBLBBL	-11.2146
▁plana	-11.2149
▁kh	-11.215
▁incomplet	-11.2151
▁predictie	-11.2151
▁Buikspoel	-11.2153
▁keten	-11.2153
▁coronair	-11.2153
▁Actinisch	-11.2154
▁mastocytose	-11.2154
▁concha	-11.2154
▁gewijzigd	-11.2154
▁aortaklep	-11.2155
tes	-11.2156
▁lymfoompanel	-11.2163
▁fusietranscript	-11.217
▁sleutelbeen	-11.2171
▁vasculopathie	-11.2171
▁monoklonal	-11.2187
▁Beentumoren	-11.2187
▁element	-11.2193
▁ju	-11.22
▁fenotype	-11.22
yeloproliferatie	-11.2204
▁onvolledig	-11.2205
▁hormoonreceptor	-11.2214
rmatopathologie	-11.222
▁sept	-11.2224
nvasieve	-11.2228
crypthyperplasie	-11.2232
▁acra	-11.2251
▁fusies	-11.2254
▁rondkernig	-11.2254
verschuiving	-11.2255
▁En	-11.2257
▁huidfragment	-11.2277
ethylation	-11.2287
aspiratie	-11.229
bespreking	-11.2314
▁keloid	-11.2317
stadium	-11.2327
▁reumato	-11.2339
▁opmerking	-11.2379
▁termina	-11.2445
▁data	-11.2449
▁kopie	-11.2449
ulva	-11.2451
erifeer	-11.2452
▁special	-11.2453
▁mal	-11.2464
▁verminderde	-11.2465
erspreid	-11.2466
▁centimeter	-11.2467
▁decollete	-11.2467
▁gescand	-11.2467
▁parakeratotisch	-11.2467
▁december	-11.2467
▁immuuncytochemi	-11.2467
▁centrifugum	-11.2467
▁romphuidtype	-11.2467
▁fibrinoid	-11.2468
▁fronto	-11.2468
▁odontogen	-11.2468
bewa	-11.2469
▁lumen	-11.2477
▁neoplastisch	-11.2477
▁afmeting	-11.2477
▁hidrocystoom	-11.2477
▁vezels	-11.2482
▁ovari	-11.2488
▁glioom	-11.2494
▁papillomatose	-11.2494
arianten	-11.25
presentativiteit	-11.2502
▁hoger	-11.2523
wangerschapsrest	-11.2531
▁naad	-11.2538
▁zwakke	-11.2539
▁wig	-11.2542
▁holte	-11.2548
▁vel	-11.2559
▁respiratoir	-11.2559
▁spoel	-11.2569
kin	-11.259
▁ouder	-11.2596
carina	-11.2603
▁tonsill	-11.2606
ond	-11.2623
like	-11.2625
temporaal	-11.2633
▁gevallen	-11.2653
resten	-11.2655
▁Rest	-11.2656
EB	-11.2677
▁groepje	-11.2696
▁digiti	-11.2713
reactieve	-11.2731
rij	-11.2732
▁wijs	-11.2766
▁st	-11.2766
▁abortusrest	-11.2772
▁ont	-11.2778
▁secretoire	-11.278
▁kort	-11.2788
▁doorsnijding	-11.2791
▁augustus	-11.2801
▁herpetiformis	-11.2801
▁inferior	-11.2801
▁periporta	-11.2801
▁anemie	-11.2801
▁geAndiceerd	-11.2801
▁lymfadenopathie	-11.2801
iehl	-11.2801
▁myelopoese	-11.2801
flr	-11.2801
▁ongemarkeerd	-11.2801
▁alienum	-11.2801
▁clearcell	-11.2801
▁Aangevuld	-11.2801
mail	-11.2801
▁Fors	-11.2802
▁valvula	-11.2802
▁haardvormig	-11.2803
▁hersen	-11.2804
▁like	-11.2806
houdend	-11.2807
▁jejunum	-11.2811
▁myocarditis	-11.2813
alhoe	-11.2818
teel	-11.2819
erminale	-11.2823
icro	-11.2824
▁subserosa	-11.2827
▁Ingeblokt	-11.2828
▁littekenreactie	-11.2828
▁aangewezen	-11.2828
▁patholoog	-11.2835
▁medenem	-11.2846
cervixslijmvlies	-11.285
▁lytisch	-11.2851
▁hecht	-11.2851
transplantatie	-11.2859
abortusmateriaal	-11.2862
▁pariAtaal	-11.2865
▁alles	-11.2875
▁velden	-11.2876
▁immunokleuring	-11.2878
▁instabiliteit	-11.2883
▁vulvabiopt	-11.2915
▁lobectomie	-11.2919
olume	-11.292
▁bijkomende	-11.292
rimaire	-11.2939
steed	-11.2945
esproken	-11.297
rende	-11.2971
▁fascie	-11.298
onderkwab	-11.2986
Gleason	-11.299
enetisch	-11.2994
▁EBER	-11.3
aanwezigheid	-11.3
AB	-11.3001
aast	-11.301
▁gastro	-11.3019
scellen	-11.3024
dien	-11.3027
ammaexcisie	-11.3053
▁operatie	-11.3066
ng	-11.3069
eert	-11.3083
studi	-11.3084
▁abortus	-11.3093
leuring	-11.3122
reputium	-11.3138
icroscopisch	-11.3138
ymfklierpunctaat	-11.314
erzijds	-11.3141
▁vl	-11.3143
istale	-11.3143
eratosis	-11.3145
▁april	-11.3145
▁hidradenitis	-11.3145
▁ontbreekt	-11.3145
▁gallig	-11.3145
▁cholesterolosis	-11.3145
▁myopathie	-11.3145
eparate	-11.3145
ormal	-11.3146
▁trombi	-11.3146
andard	-11.3146
▁neoplasma	-11.3147
▁organismen	-11.3148
▁uterina	-11.3151
▁celproliferatie	-11.3152
koa	-11.3153
▁herkenba	-11.3155
▁Actinomyces	-11.3156
▁Grover	-11.3156
▁verwachten	-11.3157
▁naevocellulares	-11.3158
▁gladde	-11.3159
▁vervett	-11.3159
angiomateuze	-11.3163
icroscopie	-11.3169
▁organen	-11.3173
▁pouch	-11.3174
▁intermediair	-11.3175
hy	-11.318
▁vergelijkba	-11.3188
reolair	-11.3189
▁Fragment	-11.319
▁staan	-11.3205
▁overal	-11.3208
▁imm	-11.3209
rigon	-11.321
▁kloon	-11.3212
cardiatype	-11.3215
eelsen	-11.3216
▁cystic	-11.3218
reter	-11.322
▁sclerodermie	-11.3221
▁dermatopath	-11.3231
▁maagcorpusbiopt	-11.3233
▁lymfklierbiopt	-11.3239
▁anal	-11.3242
▁stoma	-11.3266
▁lymfangio	-11.3267
▁fractuur	-11.3268
▁voorgaand	-11.3272
ion	-11.3278
Endometrium	-11.328
liggend	-11.3283
▁laesiona	-11.3287
▁mediane	-11.3288
▁Atypisch	-11.3306
▁plek	-11.3333
ax	-11.3339
▁rectumcarcinoom	-11.335
indicatie	-11.3351
Long	-11.3351
prothese	-11.3352
▁darmresectie	-11.3354
conform	-11.3361
▁digit	-11.3377
ryptarchitectuur	-11.3382
▁gestuurd	-11.3383
▁amputatie	-11.3385
eerdere	-11.3398
▁vlok	-11.3405
▁nemen	-11.3406
ember	-11.3412
gr	-11.3421
▁Lab	-11.3426
▁huidsnijvlak	-11.3432
klierstation	-11.3432
▁klierbuis	-11.3434
▁trans	-11.3442
derma	-11.3445
orbitaal	-11.3466
HL	-11.3467
gestelde	-11.347
end	-11.3478
▁verlo	-11.3482
▁Blaasbiopt	-11.3483
rie	-11.3484
olipectomie	-11.3494
ter	-11.3501
asoinvasie	-11.3502
▁contaminatie	-11.3503
▁gedenudeerd	-11.3503
▁geretourneerd	-11.3503
▁detecteerbaar	-11.3503
utatieanalyse	-11.3503
▁secretiefase	-11.3503
uadr	-11.3503
▁zsm	-11.3503
Concentratie	-11.3503
▁inzender	-11.3503
▁pilomatrixoom	-11.3503
▁gynaecomastie	-11.3503
▁rectosigmoAd	-11.3503
▁pigmentosa	-11.3503
▁midline	-11.3503
▁hydropisch	-11.3503
▁samenhangend	-11.3504
mantelcellymfoom	-11.3504
▁imponeer	-11.3506
▁transit	-11.3507
uentieanalyse	-11.3507
▁volair	-11.3508
▁evaluatie	-11.3509
▁sneeranden	-11.3514
▁introitus	-11.3514
▁aggregaten	-11.3514
▁resistentie	-11.3515
▁naam	-11.3515
▁Bcellen	-11.3523
libra	-11.353
▁gevraagd	-11.3531
▁monoclonal	-11.3532
▁vals	-11.3532
▁spermatogenese	-11.3532
▁bilateral	-11.3538
volumepercentage	-11.354
proliferatiefase	-11.354
▁sebaceus	-11.3552
▁snede	-11.356
zen	-11.3575
▁verrichten	-11.3579
▁ijzerpigment	-11.358
dd	-11.359
▁index	-11.3596
▁Hart	-11.3598
▁ejaculaat	-11.361
eps	-11.3611
▁kwaliteits	-11.363
▁ko	-11.3634
▁macula	-11.3636
ierbiopsie	-11.3654
▁pseudoepitheli	-11.3658
▁meso	-11.3672
▁rondes	-11.3679
▁Hals	-11.3686
satellietstabiel	-11.3692
dreig	-11.3702
▁dermatologie	-11.3705
▁geA	-11.3706
Lymfklier	-11.3706
▁protonpomp	-11.3711
eikend	-11.3715
▁wond	-11.3717
slaap	-11.3726
Ala	-11.3728
eritoneumbiopt	-11.3734
▁teleangiectasie	-11.3737
hypertrofie	-11.3741
scheenbeen	-11.3745
midden	-11.3746
hr	-11.3755
▁zaad	-11.3804
▁contra	-11.3813
enzij	-11.3817
versus	-11.3835
ubcutaan	-11.3837
rotocol	-11.3859
AAL	-11.3869
lex	-11.3873
▁sprieten	-11.3873
▁verstoord	-11.3873
▁zygoma	-11.3873
▁ethmoid	-11.3873
▁sporen	-11.3873
▁overeenkomstig	-11.3873
▁superi	-11.3873
▁seminoom	-11.3873
▁vorig	-11.3873
▁herpes	-11.3873
▁anderszins	-11.3874
▁Brunners	-11.3874
irritatiefibroom	-11.3876
▁verklaard	-11.3876
▁mesotheelcellen	-11.3876
▁wild	-11.3876
▁weefselstukje	-11.3877
ierin	-11.3877
clonaal	-11.3879
▁skin	-11.3879
▁identiek	-11.3884
▁indolent	-11.3884
▁diabetisch	-11.3884
▁bloedverlies	-11.3885
▁terug	-11.3885
▁restlaesie	-11.3886
pen	-11.3889
▁lager	-11.3889
▁oppervlakte	-11.3891
▁linkerslaap	-11.3892
▁remmer	-11.3897
▁inclusie	-11.3898
Graderings	-11.3902
▁pseudolymfoom	-11.3905
▁bacteriAn	-11.3906
nucle	-11.391
sonderzoek	-11.3911
ogene	-11.3921
men	-11.3921
▁pGln	-11.3924
▁gelijkend	-11.3926
▁tekening	-11.3931
arterioloscleros	-11.3936
▁polyclonal	-11.3938
nzeker	-11.3943
▁Grade	-11.3944
▁gerapporteerd	-11.3944
▁kl	-11.3951
▁genetica	-11.3964
▁chondrosarcoom	-11.3964
▁signaal	-11.3967
▁longbiopt	-11.3971
▁tangentiel	-11.3972
▁discordant	-11.3975
▁relatieve	-11.3994
sinushistiocytos	-11.3998
▁klierparenchym	-11.4009
▁pyo	-11.4028
▁Anusbiopt	-11.4043
▁labia	-11.4055
▁pa	-11.4072
▁mb	-11.4079
stelling	-11.4086
▁tumorcel	-11.4125
ABL	-11.4133
▁Excochlea	-11.4138
coli	-11.4142
Radicaal	-11.4144
tussen	-11.4148
allergische	-11.4148
▁naald	-11.4153
oAde	-11.4158
Lymfklieren	-11.416
nder	-11.4166
▁gewricht	-11.418
▁dergelijk	-11.4193
opy	-11.4195
prostaat	-11.4198
out	-11.4198
laaggradig	-11.4199
▁lymfoplasmacyt	-11.4202
ologiebespreking	-11.4211
▁chronic	-11.422
▁tag	-11.4228
havebiopt	-11.423
▁promoter	-11.4233
▁polymorf	-11.4233
rkelcelcarcinoom	-11.4239
rotocollair	-11.425
ker	-11.425
▁fecaal	-11.4254
ikkedarm	-11.4257
▁schaam	-11.4257
FEHE	-11.4257
▁dun	-11.4257
iformis	-11.4258
isclaimer	-11.4258
▁Laaggradig	-11.4258
▁geAxcideerd	-11.4258
▁mesenchymaal	-11.4258
▁scabies	-11.4258
▁tyrosine	-11.4258
▁bronchopneumoni	-11.4258
2111	-11.4258
▁monoclonaal	-11.4258
▁hoornlaag	-11.4258
▁interscapulair	-11.4258
▁excochleatie	-11.4258
▁nasofarynx	-11.4258
▁bloedstolsel	-11.4258
▁mastectomie	-11.4258
▁precie	-11.4258
▁Hemithyreoid	-11.4259
▁aangesneden	-11.426
▁medebeoordeling	-11.4261
eefselexcisie	-11.4261
afhankelijk	-11.4264
▁peroperatie	-11.4264
▁eigen	-11.4265
▁inhibitors	-11.4269
▁interpreteren	-11.4269
▁ischaemisch	-11.4269
▁luidt	-11.4271
▁behandeld	-11.4272
len	-11.4275
▁mondslijmvlies	-11.4278
▁macro	-11.4286
▁ac	-11.4286
▁colectomie	-11.429
▁maagantrumbiopt	-11.4309
▁rib	-11.4309
▁osteochondroom	-11.4311
▁medicatie	-11.4311
▁wildtype	-11.4311
▁bewaard	-11.4312
RCE	-11.4321
▁mammapunctie	-11.4321
▁infarceringen	-11.4333
bronchusspoeling	-11.4337
entraal	-11.4342
▁CEA	-11.436
▁Lymfocytose	-11.4374
▁invaginatie	-11.4416
▁recht	-11.4458
ngroei	-11.4481
▁resterend	-11.4518
▁grens	-11.4524
▁epitheloid	-11.4531
boven	-11.4536
▁adenomyomateu	-11.4537
▁cor	-11.4538
▁plekke	-11.4547
index	-11.4554
▁cover	-11.4555
toont	-11.4561
passend	-11.4568
▁ecto	-11.4569
▁satelliet	-11.4592
▁bloedvat	-11.4631
▁exostose	-11.4639
▁min	-11.4641
▁maagcarcinoom	-11.4642
▁strip	-11.4643
nalyse	-11.465
auriculair	-11.4653
▁representatie	-11.4656
eratine	-11.4657
▁reticuline	-11.4657
▁Hyster	-11.4658
Bevindingen	-11.4658
dedifferentieerd	-11.4658
upuytren	-11.4658
▁exofytisch	-11.4658
▁geinverteerd	-11.4658
▁hypoxie	-11.4658
▁osteomyelitis	-11.4658
▁desmoid	-11.4658
▁ongeschikt	-11.4658
▁opmerkelijk	-11.4658
▁biologie	-11.4658
▁interfase	-11.4658
▁melanosis	-11.4658
▁vervallen	-11.4658
▁belangrijk	-11.4658
zakelijk	-11.4658
▁comedonecrose	-11.4658
▁durum	-11.4658
▁spoelcellipoom	-11.4658
▁rechterknie	-11.4658
▁periapica	-11.4658
▁verkalking	-11.4658
▁vaatstructuren	-11.4659
▁omliggend	-11.466
lledigheidshalve	-11.466
▁intramucosaal	-11.466
▁dysmorfie	-11.4661
▁lokatie	-11.4661
▁verdr	-11.4662
globuline	-11.4662
▁voetrand	-11.4663
▁aangevuld	-11.4664
▁mesothelia	-11.4665
▁ontwikkeling	-11.4669
▁apoptotisch	-11.467
▁bespreken	-11.467
▁ileitis	-11.467
▁beslag	-11.467
▁virus	-11.467
▁hierop	-11.4681
▁kapje	-11.4684
▁kapjes	-11.4685
oard	-11.4687
▁medi	-11.469
▁linkerlies	-11.469
▁parietale	-11.469
▁vacuum	-11.4707
▁gelijk	-11.4712
▁ducten	-11.4718
▁dominant	-11.4723
▁degeneratief	-11.4723
▁insnijden	-11.4725
ocatie	-11.4725
geleide	-11.4728
▁Genom	-11.4737
▁Huidexcisies	-11.4741
ko	-11.4745
▁ki	-11.4756
aagcorpus	-11.4775
▁megakaryocyt	-11.4777
▁schatt	-11.4782
dermaal	-11.479
ARAF	-11.4802
unica	-11.4803
delins	-11.4804
▁HLA	-11.4812
▁methylerings	-11.4814
▁zon	-11.4827
stens	-11.483
▁feit	-11.4832
AAn	-11.4832
nl	-11.4835
▁nieren	-11.4847
dermale	-11.4872
mentum	-11.4879
ulaire	-11.4896
▁residu	-11.4911
▁sturen	-11.4912
▁pH	-11.4918
▁verslagen	-11.4925
oide	-11.4938
la	-11.4967
▁Coupe	-11.4975
derende	-11.4977
▁huidadnex	-11.4985
gemedieerd	-11.499
traject	-11.4993
verhoornend	-11.4996
aanvullend	-11.4997
verslag	-11.5
kuit	-11.5004
▁receptoren	-11.5006
zicht	-11.5033
colon	-11.5045
▁casu	-11.5047
▁anusslijmvlies	-11.5051
lateraal	-11.506
▁adenoma	-11.506
▁komen	-11.5072
▁Extirpatie	-11.5074
▁Giemsa	-11.5074
▁melanofagen	-11.5074
▁november	-11.5074
▁sialoadenitis	-11.5074
▁wervelkolom	-11.5074
▁zenuwvezel	-11.5074
▁lamel	-11.5074
▁postmenopauza	-11.5074
▁chemie	-11.5074
▁kratervormige	-11.5074
▁teruggevonden	-11.5074
▁gegeneraliseerd	-11.5074
▁schimmelhyfen	-11.5074
schacht	-11.5074
▁cheilitis	-11.5074
▁neotermina	-11.5074
essner	-11.5074
▁alopecie	-11.5074
▁homogeen	-11.5074
pace	-11.5075
▁incompleet	-11.5075
▁Borrelia	-11.5075
▁koud	-11.5075
eimpetiginiseerd	-11.5075
▁purpura	-11.5076
▁anamnes	-11.5078
▁blijven	-11.5078
▁gangren	-11.5079
ldb	-11.508
▁web	-11.508
▁mei	-11.508
▁verbre	-11.5081
▁transitie	-11.5086
witte	-11.5086
▁circumscript	-11.5087
▁endometroid	-11.5087
▁lithiasis	-11.5087
▁drug	-11.5092
▁subcarinaal	-11.5093
▁trachea	-11.5095
▁vers	-11.5102
▁plaveiselcellen	-11.5105
scapulair	-11.5106
elbeeld	-11.5107
▁Licht	-11.5109
▁hyalinose	-11.5109
▁beloop	-11.5109
▁colorecta	-11.5118
▁erosief	-11.512
oging	-11.5121
▁prominent	-11.5123
ub	-11.5125
▁humerus	-11.5132
tracht	-11.5135
inder	-11.514
celpopulatie	-11.5141
▁BR	-11.5141
▁megakaryopoe	-11.5143
▁acantholytisch	-11.5149
▁entiteit	-11.5155
▁Lymfklieren	-11.5155
allen	-11.5173
▁stans	-11.5177
▁hamartoom	-11.5178
▁Huidfragment	-11.518
▁korte	-11.5197
▁lymfoplasm	-11.5199
▁cyto	-11.5209
remmers	-11.523
▁reuma	-11.5237
▁Ileumslijmvlies	-11.5242
▁indicatie	-11.5255
▁111	-11.5256
▁nodule	-11.5269
celtumor	-11.5273
▁cardiale	-11.5275
satelliethaarden	-11.5278
retroperitoneaal	-11.5282
unnedarm	-11.5289
emarkeerd	-11.5304
▁oesophagusbiopt	-11.5306
heen	-11.533
buisjes	-11.5339
▁mijn	-11.5355
teratuur	-11.5359
oid	-11.5366
zonder	-11.5366
uam	-11.537
huidbiopt	-11.538
▁feite	-11.54
Archer	-11.5448
Histologisch	-11.5451
scapula	-11.5451
obductie	-11.5451
naad	-11.5461
▁vervolg	-11.547
meer	-11.5475
neevlak	-11.5477
populatie	-11.5482
▁trial	-11.5493
reparaten	-11.5495
iepe	-11.5495
pierbiopt	-11.55
ityrosporum	-11.5501
nvasief	-11.5503
▁antrumbiopt	-11.5504
wenst	-11.5507
▁Hirschsprung	-11.5509
▁chemoradiatie	-11.5509
▁gestuwd	-11.5509
▁migrans	-11.5509
▁Bcl	-11.5509
▁Bench	-11.5509
▁carcinomatosa	-11.5509
▁steenlijden	-11.5509
▁thyreoiditis	-11.5509
▁myocardinfarct	-11.5509
▁funiculus	-11.5509
▁doorgevoerd	-11.5509
▁endoscopisch	-11.5509
▁afwachten	-11.5509
▁ectopisch	-11.5509
▁gangrenosum	-11.5509
▁IgAdeficientie	-11.5509
▁epidermoidcyste	-11.5511
▁heterogen	-11.5512
▁voorgrond	-11.5512
▁second	-11.5513
▁ww	-11.5515
▁multiple	-11.5515
▁plekje	-11.5516
▁graft	-11.5522
▁miniem	-11.5522
▁epitheelcyste	-11.5531
▁BRAFgen	-11.5532
▁Hemithyro	-11.5544
▁chromosomale	-11.5546
BRE	-11.5547
▁jun	-11.5547
▁array	-11.5549
mammair	-11.555
eefselfragment	-11.5551
delen	-11.5552
▁vera	-11.5558
plasmacellulair	-11.5564
▁gedeelte	-11.5568
metastasen	-11.5569
▁additione	-11.5569
▁subtota	-11.5571
▁erythrocyt	-11.5575
▁uitloper	-11.5576
fibrose	-11.558
▁parametri	-11.5599
▁uitslagen	-11.5605
▁pericard	-11.5614
▁CAR	-11.5635
▁Congorood	-11.5642
▁bind	-11.5647
▁papillomateus	-11.5653
olgen	-11.5671
▁pL	-11.5676
▁ante	-11.5687
▁bp	-11.569
▁achtig	-11.5709
▁granulomat	-11.5711
erend	-11.5754
LCI	-11.5776
▁dens	-11.5786
oon	-11.5796
▁som	-11.5806
ancreas	-11.5811
HI	-11.5828
fronta	-11.5839
ECI	-11.5841
▁stoornissen	-11.5846
▁ma	-11.5863
rent	-11.5881
maligne	-11.5897
circulatie	-11.5905
ammaweefsel	-11.591
▁lesiona	-11.5913
achten	-11.5916
waarschijnlijk	-11.5916
tijd	-11.592
medicamenteuze	-11.5921
klep	-11.5922
bronchus	-11.5923
Celrijk	-11.5927
pols	-11.5927
psoriasis	-11.5931
tadiering	-11.5931
endometrium	-11.5933
▁vaatwand	-11.5937
▁omgeven	-11.5938
▁Ep	-11.5938
esofagusbiopt	-11.5945
▁zwar	-11.5952
reslow	-11.5953
hof	-11.5958
putum	-11.5959
inds	-11.596
▁linkeroog	-11.5963
athnl	-11.5964
clitor	-11.5964
▁bijeenkomst	-11.5964
▁chalazion	-11.5964
▁endofytisch	-11.5964
▁geperforeerd	-11.5964
▁gynaecoloog	-11.5964
▁januari	-11.5964
Elektronen	-11.5964
▁papulose	-11.5964
▁arterioveneu	-11.5964
▁micronoduli	-11.5964
▁syringoom	-11.5964
▁zichtbaar	-11.5964
▁truncus	-11.5964
geboren	-11.5964
▁associatie	-11.5964
▁merendeel	-11.5964
▁angiosarcoom	-11.5964
▁dmv	-11.5964
matofibrosarcoma	-11.5964
▁vaatrijk	-11.5964
▁mannelijk	-11.5964
hvd	-11.5965
▁crustavorming	-11.5965
▁spoelvormig	-11.5965
▁mons	-11.5965
▁Hodgkinlymfoom	-11.5965
zak	-11.5965
▁zenuwweefsel	-11.5966
▁subcornea	-11.5966
▁vaginawand	-11.5967
▁condylomateuze	-11.5973
cytomorfologisch	-11.5974
▁bodemsnijvlak	-11.5975
▁doorgegeven	-11.5977
▁diabetes	-11.5978
▁aanvrager	-11.5978
▁conventione	-11.5978
▁fasciitis	-11.5978
▁pijpje	-11.598
▁erytroid	-11.5981
▁membraan	-11.5981
▁kop	-11.6001
Abortuscurettage	-11.6001
▁gemeten	-11.6002
▁tumorcelkernen	-11.6005
▁sh	-11.6009
▁huidstans	-11.6017
stand	-11.6023
▁kapseldoorbraak	-11.6027
▁lymfomato	-11.6035
level	-11.6038
dm	-11.6039
diagnostiek	-11.6046
▁abdominal	-11.6047
let	-11.6049
▁chemisch	-11.6049
sneden	-11.6067
ubae	-11.6083
▁Invasie	-11.6086
▁Gly	-11.609
▁pseudocyste	-11.6103
▁clusters	-11.6104
pathogene	-11.6109
▁waarden	-11.6117
▁loop	-11.612
▁acht	-11.6123
▁talgklieren	-11.6124
rijk	-11.6128
▁methylering	-11.6137
nr	-11.6137
gelbed	-11.6137
▁insertie	-11.6179
2122	-11.6187
▁Hersen	-11.6211
▁carina	-11.6217
▁helicobacters	-11.6237
stroma	-11.6239
▁linkerventrikel	-11.624
▁toxische	-11.6263
station	-11.6269
eusslijmvlies	-11.627
▁deficientie	-11.6302
alis	-11.6305
sie	-11.6314
▁neg	-11.6317
rend	-11.6333
▁mesenteria	-11.6344
dr	-11.6346
His	-11.6353
Cw	-11.6356
ering	-11.6375
▁glomerul	-11.6382
Amplificatie	-11.6391
▁cluster	-11.6392
▁granul	-11.64
lijden	-11.6403
▁portio	-11.6404
rap	-11.6411
lhoe	-11.6415
icrocalcificatie	-11.6418
Eerst	-11.642
innemend	-11.6421
nale	-11.6424
esophagusbiopt	-11.6424
verkregen	-11.6427
▁optima	-11.6427
▁patholog	-11.6427
spraak	-11.6427
Biopsie	-11.6427
consult	-11.6427
Beenmergbiopt	-11.6429
▁grenzen	-11.6432
vasculitis	-11.6432
homogen	-11.6433
▁to	-11.6434
virus	-11.6434
▁femor	-11.6436
xtracapsulair	-11.6439
esluit	-11.6439
▁cholesterol	-11.6439
Lymfangioinvasie	-11.644
▁Lobectomie	-11.644
▁acuminata	-11.644
▁continu	-11.644
▁geinterpreteerd	-11.644
▁gemiddeld	-11.644
▁gerangschikt	-11.644
▁homozygo	-11.644
▁instrumentatie	-11.644
▁oncocytoom	-11.644
▁vitiligo	-11.644
▁hyperkeratotica	-11.644
▁lymfangiectasie	-11.644
▁belang	-11.644
▁endotheel	-11.644
▁vergeleken	-11.644
▁cervicitis	-11.644
▁parietalis	-11.644
▁antibod	-11.644
▁porokeratose	-11.644
ordt	-11.644
myxoma	-11.644
▁georganiseerd	-11.644
helder	-11.644
▁poroom	-11.644
▁uitwendig	-11.644
▁linkerknie	-11.644
▁tripl	-11.644
asectomie	-11.644
▁adenomatoid	-11.6441
▁hepatocyten	-11.6441
rova	-11.6441
▁codeleti	-11.6441
▁verwijderen	-11.6441
▁klierbuisjes	-11.6441
▁verdien	-11.6442
▁grove	-11.6443
▁ingevroren	-11.6446
▁transuret	-11.6447
▁etmoid	-11.6447
▁Coecum	-11.6448
▁Circumcisie	-11.6448
▁Reed	-11.6449
schildkliernodus	-11.6451
kalib	-11.6453
▁acetabulum	-11.6454
▁protuberans	-11.6454
▁stimulatie	-11.6454
▁bemoeilijkt	-11.6455
▁synoviale	-11.6457
enemen	-11.6457
▁verlittekend	-11.6458
▁obturatori	-11.6465
hypermethylering	-11.6469
ml	-11.6471
▁urothelial	-11.6473
stein	-11.6473
▁incisiebiopt	-11.6475
acuum	-11.6476
▁abcessen	-11.6478
▁flow	-11.648
▁ganglioncellen	-11.6482
▁scopie	-11.6492
Rectumslijmvlies	-11.6495
neoplasie	-11.6502
ammabiopsie	-11.6504
▁Afwijking	-11.6505
huidexcisie	-11.6513
kleuringspatroon	-11.6514
▁tubulusatrofie	-11.6559
▁ABC	-11.6605
▁Rechter	-11.6641
dit	-11.6641
▁longtumor	-11.6653
▁Bijnier	-11.6656
▁Risk	-11.6666
▁Rechts	-11.6669
nodig	-11.6671
▁lang	-11.6676
ynovium	-11.669
rom	-11.6693
co	-11.6704
lymfklierweefsel	-11.6709
▁Longspoel	-11.6717
▁bovenstaand	-11.6719
▁concentratie	-11.6719
▁doorgemaakt	-11.6721
▁tru	-11.675
▁generati	-11.6763
ij	-11.6769
▁medicamenteus	-11.6773
stoornis	-11.6778
▁immunofenotyp	-11.6789
2121	-11.6809
kanaal	-11.6812
itstrijk	-11.682
snijden	-11.684
fs	-11.6843
maag	-11.6849
yr	-11.6851
▁gaand	-11.6855
▁diastase	-11.6855
visc	-11.6862
komen	-11.6863
▁patienten	-11.687
▁orbita	-11.6874
ekenen	-11.6888
aagantrumbiopt	-11.689
▁rearrangement	-11.6908
tjes	-11.6909
▁zenuw	-11.6909
▁ziekenhui	-11.6913
naevus	-11.6923
▁vesikel	-11.6926
intestinale	-11.6926
▁structuur	-11.6928
▁substr	-11.693
redictie	-11.6932
verval	-11.6933
apsel	-11.6934
▁structure	-11.6935
econd	-11.6935
erdacht	-11.6936
tumorlocalisatie	-11.6938
staart	-11.6939
▁Fusion	-11.694
rangschik	-11.694
▁lepidisch	-11.694
Concluderend	-11.694
jwz	-11.694
▁appendectomie	-11.694
▁carcinosarcoom	-11.694
▁exantheem	-11.694
▁geregistreerd	-11.694
▁getromboseerd	-11.694
▁ingescand	-11.694
▁ongebruikelijk	-11.694
▁ribben	-11.694
▁orofarynx	-11.694
▁myxoom	-11.694
▁zweetklier	-11.694
▁aberrant	-11.694
▁pleuritis	-11.694
▁netto	-11.694
cfz	-11.694
▁followup	-11.694
▁junctie	-11.6941
▁fijn	-11.6941
litteken	-11.6942
▁host	-11.6942
neerslag	-11.6942
splitsing	-11.6942
▁agens	-11.6942
bil	-11.6943
▁fibroglandulair	-11.6944
▁nasal	-11.6944
Af	-11.6945
reeks	-11.6946
▁grenzend	-11.6948
▁mycobacterien	-11.695
hotspot	-11.6953
elleboog	-11.6953
atrofie	-11.6953
▁buikholte	-11.6954
▁versie	-11.6954
ift	-11.6955
variatie	-11.6955
▁intima	-11.6955
▁overlap	-11.6955
▁pGlu	-11.6955
▁Alcian	-11.6955
▁Eczeem	-11.6955
▁gemist	-11.6955
▁Administratie	-11.6955
▁infestatie	-11.6955
▁inactivatie	-11.6956
▁uiteindelijk	-11.6957
▁myelodysplasie	-11.6957
▁rechterbil	-11.6958
▁biopteren	-11.6958
dup	-11.6958
▁Aspecifiek	-11.6959
▁necrobios	-11.6959
structuur	-11.6966
▁restmaligniteit	-11.6967
ubtota	-11.6968
olide	-11.697
kapsel	-11.6973
omente	-11.6981
▁gynaecologi	-11.6982
▁placentavlokken	-11.6983
▁radiatie	-11.6983
▁biopsiename	-11.6983
▁Cystevocht	-11.6983
▁Littekenweefsel	-11.6987
sprieterig	-11.6989
▁wil	-11.6997
segment	-11.7001
▁functione	-11.7008
▁excisieranden	-11.7011
▁vasectomie	-11.7015
leol	-11.7022
▁dergelijke	-11.7025
▁Betref	-11.703
▁stopcodon	-11.7037
▁predominant	-11.7038
▁ablatie	-11.7038
teruscurettage	-11.7039
amenvattend	-11.7045
nier	-11.7055
▁geinduceerd	-11.7065
gemeen	-11.7076
▁lymfoplasmocyt	-11.7091
▁haemato	-11.7108
2112	-11.714
▁Adeno	-11.7151
▁tumordikte	-11.7163
reerde	-11.7173
▁Links	-11.7177
▁corpusbiopt	-11.718
stium	-11.7187
setting	-11.7189
▁verdwijn	-11.7196
normaal	-11.7204
eosinofiele	-11.7205
▁multinodulair	-11.7274
▁ha	-11.728
▁dag	-11.7283
▁Incisie	-11.7294
lders	-11.7295
▁retroperitonea	-11.7308
atief	-11.7332
yometrium	-11.7349
aemi	-11.7359
rans	-11.7369
▁hydro	-11.7386
▁Extra	-11.7394
▁Loka	-11.7394
gebracht	-11.7397
neemt	-11.7398
Reiwit	-11.7399
epidermaal	-11.7424
▁flard	-11.7431
gevangen	-11.7432
▁pancreatico	-11.7434
iaire	-11.7435
rechts	-11.7447
▁subacu	-11.7447
roton	-11.7457
rognostisch	-11.7457
ericardvocht	-11.7459
vrij	-11.7459
egatief	-11.7462
olledigheid	-11.7463
innen	-11.7464
verwegend	-11.7464
erwerkt	-11.7465
edebeoordeling	-11.7465
▁xanthogranulo	-11.7466
GFRB	-11.7466
alherbe	-11.7466
schappe	-11.7466
▁Laparoscopisch	-11.7466
▁aangepast	-11.7466
▁decalvans	-11.7466
▁funisitis	-11.7466
▁intramura	-11.7466
▁reanimatie	-11.7466
▁sterilisatie	-11.7466
▁traumatisatie	-11.7466
▁verwantschap	-11.7466
▁database	-11.7466
▁bijnierschors	-11.7466
▁giardiasis	-11.7466
▁erythropoiese	-11.7466
▁paracolisch	-11.7466
▁tuberculose	-11.7466
▁wijsvinger	-11.7466
▁medullair	-11.7466
▁verbrokkeld	-11.7466
cryptinvolvement	-11.7466
▁cyclus	-11.7466
falan	-11.7466
▁alveolaris	-11.7466
▁twijfel	-11.7466
▁implicaties	-11.7466
▁Bijschildklier	-11.7466
▁subcapsulair	-11.7466
▁kiemceltumor	-11.7467
▁paratracheaal	-11.7467
▁lues	-11.7467
▁naschrift	-11.7467
▁brede	-11.7468
▁fistelgang	-11.7468
▁zeven	-11.7469
▁afgegeven	-11.7469
afwijking	-11.7469
▁nierparenchym	-11.7472
ERBB	-11.7472
▁botvorming	-11.7472
▁prog	-11.7472
balan	-11.7475
▁rechtervoet	-11.7478
▁hieronder	-11.7478
omheen	-11.748
▁geel	-11.748
▁littekengebied	-11.7481
vaten	-11.7481
▁apoptose	-11.7482
▁bekeken	-11.7482
▁schimmelsporen	-11.7482
▁zenuwschede	-11.7482
▁tubulopathie	-11.7482
▁buismaag	-11.7482
▁glioblastoma	-11.7483
▁splijting	-11.7483
▁pleomorf	-11.7483
▁microbiologisch	-11.7483
falen	-11.7483
▁Linker	-11.7484
egatie	-11.7484
eest	-11.7488
▁neuro	-11.7489
▁retroa	-11.7491
▁cryptabcesje	-11.7494
oorgroei	-11.75
kop	-11.75
promoter	-11.75
ch	-11.7507
revisie	-11.7509
▁gevormd	-11.7511
▁Grocott	-11.7511
▁cytogenetica	-11.7511
▁arteriosclerose	-11.7511
▁microbiologie	-11.7512
▁tenosynovia	-11.7512
necrotiserende	-11.7513
standig	-11.7513
▁dermatitisbeeld	-11.7514
▁destructie	-11.7515
▁ileumbiopt	-11.7519
toename	-11.7521
▁Controle	-11.7526
▁perirena	-11.7527
▁blaastumor	-11.7528
enkel	-11.7534
▁BCLL	-11.7538
uunhistochemisch	-11.7544
▁sigmoidresectie	-11.7547
▁pArg	-11.7554
li	-11.7566
Classificati	-11.757
▁gebruikt	-11.758
elan	-11.758
▁Regiona	-11.7595
▁comedo	-11.7597
▁celhyperplasie	-11.7597
▁IIII	-11.7597
▁extracapillair	-11.7601
moleculair	-11.7611
▁septal	-11.7615
ak	-11.7626
▁blaasbiopt	-11.7633
▁out	-11.7634
pathologisch	-11.7653
raad	-11.7655
typen	-11.7658
iepteinvasie	-11.766
▁thymus	-11.7663
▁immunocytochemi	-11.7669
immuno	-11.7689
achtig	-11.7697
▁Ander	-11.7698
2222	-11.7711
best	-11.7713
Als	-11.7735
▁lymfoepithelia	-11.7739
▁cortical	-11.774
▁differentiat	-11.774
ta	-11.7768
ty	-11.7768
▁Gene	-11.7772
▁process	-11.7791
▁hoogst	-11.781
waar	-11.7836
man	-11.7872
ctive	-11.7877
Aan	-11.7883
▁overig	-11.7908
vlak	-11.7924
ontactallergisch	-11.7926
otiliteit	-11.7946
tadium	-11.796
▁vergelijk	-11.7963
ntraepidermal	-11.7972
▁basaloid	-11.7973
▁hypo	-11.7982
Leverbiopt	-11.7982
tukje	-11.7987
▁emfysemateu	-11.7993
▁lichaam	-11.7996
erd	-11.8005
▁Br	-11.8006
pl	-11.8006
roximale	-11.8008
▁submamm	-11.8013
rogressief	-11.8014
kl	-11.802
liniek	-11.8021
▁geleid	-11.8021
▁amyloAd	-11.8021
centrifug	-11.8021
▁suppurati	-11.8022
▁cholesteatoom	-11.8022
▁fraai	-11.8022
▁grillig	-11.8022
▁inversum	-11.8022
▁tricholemma	-11.8022
▁verstuurd	-11.8022
▁atroficus	-11.8022
▁dysmegakaryopo	-11.8022
▁parailiaca	-11.8022
▁dikwandig	-11.8022
epiglottis	-11.8022
turm	-11.8022
▁atrium	-11.8022
▁presentatie	-11.8022
▁thymoom	-11.8022
ositeit	-11.8022
▁vaak	-11.8022
▁vrouwelijk	-11.8023
▁acne	-11.8023
troebel	-11.8024
Bacterie	-11.8024
▁cutis	-11.8024
▁methylatie	-11.8024
▁vaginalis	-11.8024
▁aantonen	-11.8024
▁gastric	-11.8025
▁placentabed	-11.8025
▁testisparenchym	-11.8026
▁parotidectomie	-11.8026
▁jaren	-11.8027
▁rechterlong	-11.8027
leverhilus	-11.8028
▁darmwand	-11.803
ebsi	-11.8033
▁aanvragend	-11.8038
▁gebouwd	-11.8039
▁preventie	-11.8039
▁breedte	-11.8041
▁somatisch	-11.8043
▁oorschelprand	-11.8044
▁nierweefsel	-11.8046
ppendicitis	-11.8047
ude	-11.8054
▁HEcoupe	-11.806
▁Gradering	-11.8061
▁overlegd	-11.8061
waarde	-11.8061
overweging	-11.8069
▁Radical	-11.8069
▁expansie	-11.8069
▁organisatie	-11.8069
▁immunotherapie	-11.8069
▁week	-11.807
aalf	-11.807
▁fixatie	-11.8077
▁nestje	-11.8079
gemerkt	-11.8081
▁Fibrose	-11.8082
ling	-11.8086
trial	-11.8086
gewricht	-11.8091
▁tumorgroei	-11.8092
conclusie	-11.8097
▁radi	-11.8097
basis	-11.8098
middenkwab	-11.81
▁flor	-11.8101
▁linksrechts	-11.8111
▁celpopulaties	-11.8112
Bronchus	-11.8112
▁AB	-11.8129
kleur	-11.813
▁apart	-11.8131
▁biopsielitteken	-11.8133
▁cardiomyopathie	-11.8146
yc	-11.815
tans	-11.8154
aginal	-11.8156
ulvabiopten	-11.8156
▁nodi	-11.8156
▁graderings	-11.816
middels	-11.8168
▁levernaaldbiopt	-11.8176
ystectomie	-11.8196
ous	-11.8198
▁Fibro	-11.8204
▁capillairen	-11.8206
he	-11.8212
▁verdeling	-11.8216
naar	-11.8218
elders	-11.8218
rineblaas	-11.8218
actief	-11.8221
nh	-11.8223
▁Atypie	-11.8232
zie	-11.8253
gedrag	-11.8253
▁scherp	-11.8256
riescoupes	-11.8295
▁pyoge	-11.8298
ra	-11.8316
▁tumornegatief	-11.8331
▁Cu	-11.8338
IB	-11.8352
▁late	-11.8358
▁Gele	-11.8367
erve	-11.837
ipellebiopt	-11.8371
tation	-11.8394
▁renal	-11.8397
▁histo	-11.8418
sgraad	-11.8432
aarna	-11.8443
ain	-11.8444
▁puncties	-11.8448
▁ad	-11.8449
▁neusga	-11.8454
follikels	-11.8474
cellige	-11.8492
core	-11.8496
ervixpoliep	-11.8506
▁biliaire	-11.8512
oorna	-11.8519
▁condylomat	-11.8548
▁than	-11.8563
ecundair	-11.8571
▁polypoid	-11.8573
▁pulmona	-11.8586
ies	-11.8588
▁mild	-11.8592
ypering	-11.8597
genoemde	-11.8597
assend	-11.8598
gevuld	-11.86
▁flegmoneu	-11.86
nomen	-11.8604
▁aneurysma	-11.8606
acroscopisch	-11.8606
inimaal	-11.8606
▁cerebell	-11.8607
▁cytoplasma	-11.8607
raagstelling	-11.8607
verwogen	-11.8608
weemaal	-11.8609
ermatofibroom	-11.8609
ert	-11.8609
pvallend	-11.8609
▁farynx	-11.8609
Hyperkeratotisch	-11.861
smaceldyscrasie	-11.861
▁Chisholm	-11.861
▁angiokeratoom	-11.861
▁architectural	-11.861
▁cholestase	-11.861
▁geinfarceerd	-11.861
▁gesuggereerd	-11.861
▁getraumatiseerd	-11.861
▁graftversushost	-11.861
▁omslagplooi	-11.861
▁pemfigus	-11.861
▁submuceu	-11.861
▁spreken	-11.861
myxofibrosarcoom	-11.861
▁classifier	-11.861
▁funiculitis	-11.861
Histocytologisch	-11.861
▁ihk	-11.861
▁klonale	-11.861
▁aplastisch	-11.861
zamen	-11.861
▁hemorroid	-11.861
▁sommige	-11.861
▁ulnair	-11.861
▁mesotheliomen	-11.861
▁cicatrici	-11.861
udeerd	-11.861
Receptorstatus	-11.861
▁stam	-11.8611
▁spermati	-11.8611
▁phyllodestumor	-11.8611
▁mucoid	-11.8611
▁thrombus	-11.8611
eci	-11.8611
▁only	-11.8611
▁Beck	-11.8612
▁Genetica	-11.8613
▁pink	-11.8615
▁linkerlong	-11.8616
▁histiocyten	-11.8617
▁Hierdoor	-11.8618
▁pericardvocht	-11.862
rostaatbiopt	-11.862
bedr	-11.8622
▁cystisch	-11.8622
▁intravasculair	-11.8623
Buikvocht	-11.8623
▁stereotactisch	-11.8624
artefacten	-11.8625
kwabben	-11.8628
▁gefibroseerd	-11.8628
▁slijmnap	-11.8628
▁begrensd	-11.8628
▁richtlijn	-11.8628
▁ijzerstapeling	-11.8628
▁immunologie	-11.8628
▁intramammair	-11.8629
▁ijzerdepositie	-11.863
▁glaasje	-11.863
▁dist	-11.8631
tracheaal	-11.8632
▁genfusie	-11.8637
large	-11.8638
▁tr	-11.8638
▁lymffollikel	-11.8641
▁neuspoliepen	-11.8643
▁bloedvaatje	-11.8643
▁ingesneden	-11.8646
▁areola	-11.8646
▁mammabiopt	-11.8653
▁zijresectierand	-11.8659
▁detectie	-11.866
▁capillaritis	-11.8661
iliaire	-11.8662
▁bronchiaal	-11.8664
ucosa	-11.8669
tot	-11.8673
▁Cervixbiopsie	-11.8675
ynoviumbiopt	-11.8675
▁Resulta	-11.8676
ou	-11.8679
▁potentie	-11.8683
▁marginaal	-11.8684
▁voorvoet	-11.8691
▁hematopoAse	-11.8693
▁lichtmicroscopi	-11.8693
▁hepatic	-11.8696
vital	-11.8704
▁leiomyomatos	-11.8707
diastase	-11.871
▁Ec	-11.8711
sluiten	-11.8714
gastritis	-11.8716
niveau	-11.8719
relevant	-11.872
recidief	-11.8722
Botbiopt	-11.8723
▁vat	-11.8724
▁pas	-11.8727
▁technisch	-11.8727
ues	-11.8732
micro	-11.8734
tumoren	-11.8738
gave	-11.874
nek	-11.874
ment	-11.875
mogelijk	-11.8751
pm	-11.8753
focaal	-11.8754
ans	-11.8765
▁vezel	-11.8765
ation	-11.8765
▁stations	-11.8779
geassocieerd	-11.8781
bevindingen	-11.8786
▁maagcardiatype	-11.8797
▁retroperitone	-11.8799
▁bi	-11.8802
ondslijmvlies	-11.8826
ovarium	-11.883
▁Reik	-11.8845
▁glia	-11.8875
kel	-11.8886
▁bronchusspoel	-11.8908
operatieve	-11.8909
▁radio	-11.8926
arges	-11.893
klierprocedure	-11.894
nesten	-11.8941
handrug	-11.8946
▁effecten	-11.8947
lyse	-11.8952
▁breed	-11.8952
Leu	-11.8955
lagen	-11.8989
va	-11.899
overgevoeligheid	-11.8994
▁zegelring	-11.9009
ia	-11.901
poliepje	-11.9019
ntestinale	-11.9025
▁lamellen	-11.9029
▁Lipbiopt	-11.9037
os	-11.9066
snijranden	-11.9069
nische	-11.9086
assing	-11.9112
▁halsklier	-11.9125
▁orient	-11.9127
▁proliferaties	-11.913
▁granulomateus	-11.9134
▁erosies	-11.9138
▁vagin	-11.914
bronchusepitheel	-11.9145
▁myo	-11.9147
▁or	-11.915
ariati	-11.9173
▁polycyth	-11.9174
egens	-11.9177
prieterig	-11.9187
oliepje	-11.9191
▁sign	-11.9203
▁va	-11.9205
▁weg	-11.9208
▁CA	-11.921
▁gist	-11.9211
▁chr	-11.9214
arotis	-11.9214
ubulovilleu	-11.9218
enminste	-11.9218
▁dik	-11.9219
▁geinc	-11.9223
▁pir	-11.9226
▁intens	-11.9228
▁verklaar	-11.923
▁techniek	-11.9231
elefonisch	-11.9232
mark	-11.9232
▁Even	-11.9233
nderlip	-11.9233
▁phyllodes	-11.9234
ijdelings	-11.9234
aldenstrom	-11.9235
jAgren	-11.9235
▁fibrinopurulent	-11.9235
▁hemorrhagisch	-11.9235
▁hysterectom	-11.9235
▁inwendig	-11.9235
▁lipomatosus	-11.9235
▁sectio	-11.9235
▁androgenetica	-11.9235
▁angioleiomyoom	-11.9235
▁seminalis	-11.9235
flowcytometrisch	-11.9235
▁zijwaarts	-11.9235
▁variabel	-11.9235
▁accessoir	-11.9235
▁miniscu	-11.9235
▁nevenbevinding	-11.9235
▁staafjes	-11.9235
▁glomerulopathie	-11.9235
▁Aanwijzing	-11.9235
▁blanco	-11.9235
▁synoviitis	-11.9235
▁mediastinaal	-11.9235
▁tubulitis	-11.9235
▁lymfangioom	-11.9236
▁ovarieel	-11.9236
▁bekkenwand	-11.9237
▁Gram	-11.9237
▁orchidectomie	-11.9237
▁haren	-11.9238
▁strikt	-11.9238
termijn	-11.9239
decidualis	-11.924
▁antrumgastritis	-11.9241
▁telken	-11.9241
jwjs	-11.9248
Cervixlisexcisie	-11.9249
▁indruk	-11.925
▁vasculitisbeeld	-11.9252
kleurt	-11.9253
▁monoto	-11.9253
▁regel	-11.9253
▁excideren	-11.9254
▁adhesie	-11.9254
▁epitheelatypie	-11.9254
▁Ileocoecaal	-11.9254
▁antilichaam	-11.9254
▁urachus	-11.9254
▁verhevenheid	-11.9255
▁mastoid	-11.9255
▁tumormateriaal	-11.9258
▁redelijk	-11.9258
▁tonsillair	-11.9259
▁doel	-11.9263
▁glaasjes	-11.9265
▁jugul	-11.9265
▁CH	-11.9266
▁micropapillair	-11.9266
▁lichaams	-11.9267
▁Barrettmucosa	-11.9267
▁subepidermaal	-11.927
overgang	-11.9271
▁polypoide	-11.9276
▁Rectosigmoid	-11.9288
▁signalen	-11.9289
▁immuuncomplex	-11.929
▁hepato	-11.9294
▁mix	-11.9299
▁bn	-11.9301
Basal	-11.9301
overgangs	-11.9303
▁thrombose	-11.9305
▁kind	-11.9308
▁chirurg	-11.9308
sarcoom	-11.9312
lateral	-11.9317
Ase	-11.9321
wijze	-11.9321
▁speci	-11.9321
▁rapport	-11.9323
▁hiel	-11.9327
▁renaal	-11.9335
iermee	-11.9338
▁rustig	-11.9358
▁genamplificatie	-11.9359
▁poli	-11.936
▁Ex	-11.9363
▁mammatumor	-11.9364
Colon	-11.9368
sb	-11.9373
sperm	-11.9374
leangiectaticum	-11.9379
ksel	-11.938
keratose	-11.9382
▁peritoneumbiopt	-11.9386
bacterien	-11.9387
neusvleugel	-11.9389
aangetoond	-11.9389
onderverdeling	-11.9389
schade	-11.9389
zwelling	-11.9389
▁ophoping	-11.9394
morbus	-11.9397
▁band	-11.9399
perineural	-11.9409
▁blijken	-11.9414
iertransplantaat	-11.9429
▁Buik	-11.9435
▁bestralings	-11.9458
▁tumoraal	-11.9465
▁systeem	-11.9465
rose	-11.9468
Bcel	-11.947
blastair	-11.9498
▁Groot	-11.9502
▁Lip	-11.9546
▁tien	-11.9556
j	-11.9565
▁craniolater	-11.9569
▁patiAnte	-11.958
ster	-11.9595
▁initie	-11.9611
▁divers	-11.9613
▁clonaliteit	-11.9614
▁lymfaden	-11.9634
ted	-11.9643
▁ta	-11.9647
deposities	-11.9648
▁jonge	-11.9657
▁Latera	-11.9682
artiA	-11.9687
werken	-11.9716
▁sperm	-11.9718
▁bloc	-11.9728
pitheelbekleding	-11.9741
▁commiss	-11.9747
geschiedenis	-11.9748
▁antrumcorpus	-11.975
▁mening	-11.9752
ethylatie	-11.9757
verlies	-11.9759
halve	-11.9767
ichting	-11.9767
able	-11.9768
oraal	-11.9777
celveranderingen	-11.9786
ature	-11.9812
▁dura	-11.9814
ica	-11.9816
gevoeligheid	-11.9826
vormend	-11.983
wezigheid	-11.9841
EE	-11.9846
▁opname	-11.9849
umorpercentage	-11.985
▁RIC	-11.9851
ercentage	-11.9852
kingsonderzoek	-11.9853
poradisch	-11.9867
flat	-11.9871
▁leveren	-11.9875
▁teleangiectati	-11.9886
rocedure	-11.9888
▁metastasering	-11.9889
▁Barret	-11.9889
▁granulo	-11.989
ikte	-11.9894
ovula	-11.9894
avelstreng	-11.9894
rifere	-11.9895
itosen	-11.9897
erslag	-11.9899
ycobacteri	-11.99
ormospermie	-11.9901
▁Colonpoliep	-11.9901
▁trilin	-11.9901
▁rechteroog	-11.9901
▁follow	-11.9901
▁vrucht	-11.9901
▁ameloblastoom	-11.9902
▁fysiologisch	-11.9902
▁juveniel	-11.9902
▁preexsistent	-11.9902
▁radiologie	-11.9902
pustulair	-11.9902
▁lipoidica	-11.9902
▁destijds	-11.9902
▁zeggen	-11.9902
▁subpleura	-11.9902
▁follikelcentrum	-11.9902
▁hidradenoom	-11.9902
▁congorood	-11.9902
entigo	-11.9902
▁pilaris	-11.9902
pakket	-11.9902
▁berichtgeving	-11.9902
▁lymfkliertje	-11.9902
▁ontwikkeld	-11.9902
▁donor	-11.9902
▁Burkitt	-11.9902
▁Lipoom	-11.9902
▁behandelen	-11.9902
euning	-11.9902
▁standaard	-11.9902
▁aldus	-11.9902
▁pancreasstaart	-11.9903
▁chondroid	-11.9903
▁serum	-11.9903
duodenectomie	-11.9904
▁immuuntherapie	-11.9904
▁benigna	-11.9904
▁panitumumab	-11.9904
▁recurrent	-11.9904
▁hormoon	-11.9904
▁omsneden	-11.9905
▁huidstukje	-11.9905
▁overeenkomend	-11.9906
flux	-11.9906
bevol	-11.9907
▁akti	-11.9907
▁antral	-11.9908
LAB	-11.9908
▁testisbiopt	-11.9908
▁intratubulair	-11.9909
ltra	-11.9909
do	-11.9911
▁moment	-11.9914
▁omental	-11.9914
▁differentieren	-11.9918
▁tubulairadenoom	-11.992
▁Ar	-11.992
▁auramine	-11.9923
▁daadwerkelijk	-11.9923
▁trombosering	-11.9923
▁reaktie	-11.9923
▁myopathisch	-11.9923
▁cetuximab	-11.9924
▁markeringshecht	-11.9925
▁tussenliggend	-11.9926
▁Fib	-11.9927
▁methode	-11.9927
celnaevus	-11.9928
▁eczemat	-11.9928
▁loge	-11.9929
▁ijzerdeposities	-11.9934
tratum	-11.994
▁EGFRgen	-11.9944
▁contralatera	-11.9948
ostmorta	-11.995
atypische	-11.9952
▁uitbreiden	-11.9953
▁osteoporose	-11.9957
▁vaatmalformatie	-11.9959
▁melanose	-11.9959
▁genitaal	-11.9959
▁mutant	-11.9959
▁tumorproces	-11.9959
▁patch	-11.996
▁ulcusmateriaal	-11.9963
▁Hormoonreceptor	-11.9966
▁lipoma	-11.9968
▁dys	-11.997
ablatio	-11.9976
▁telling	-11.9976
▁punten	-11.9978
ium	-11.998
▁cystebeeld	-11.9989
laveiselcel	-11.999
▁cornea	-11.999
ua	-11.9993
▁vervezeling	-11.9996
▁Ewing	-12.0002
▁dubieu	-12.0007
▁linea	-12.0008
▁Geschat	-12.0011
▁ingebracht	-12.0011
▁excisiebiopsie	-12.0012
grote	-12.0017
▁opgenomen	-12.0027
▁mut	-12.0034
▁Concordant	-12.0034
▁samengesteld	-12.0038
▁nietatypisch	-12.0043
▁sinonasal	-12.0054
europathologisch	-12.0055
itgebreid	-12.0059
▁condylomateu	-12.0062
lekkage	-12.0072
▁artefact	-12.0077
▁EE	-12.0078
Regressie	-12.0078
▁transplantaat	-12.0078
ire	-12.0081
spatroon	-12.0082
▁necrotiserend	-12.0083
▁neurog	-12.0083
degeneratie	-12.0088
▁mondho	-12.0094
Candida	-12.0097
mamillair	-12.0098
vinger	-12.0099
melanoom	-12.01
gemethyleerd	-12.01
Hotspot	-12.0101
grade	-12.0102
massa	-12.0102
Ascites	-12.0103
aangetroffen	-12.0103
wordt	-12.0105
assiste	-12.0107
▁laatst	-12.0109
deficientie	-12.0111
casus	-12.0111
distale	-12.0112
▁bod	-12.0115
Colonbiopten	-12.0119
vriescoupe	-12.0135
▁ik	-12.0143
▁lumina	-12.0149
prostaatresectie	-12.0159
▁poly	-12.0204
▁cylindercel	-12.0237
cystectomie	-12.0251
▁vormen	-12.0254
cal	-12.0255
otje	-12.0277
▁verdachts	-12.0279
node	-12.0293
▁prep	-12.0306
ensit	-12.0319
▁Acu	-12.0332
▁differenti	-12.0338
buis	-12.0345
▁vo	-12.0356
inding	-12.0358
▁spitzoide	-12.036
ung	-12.038
▁Bespreking	-12.0382
▁cylinder	-12.0384
▁gebiedje	-12.0398
erologie	-12.0398
▁Barretts	-12.0405
right	-12.0409
circumferentieel	-12.0414
▁Lichen	-12.0423
▁tangentie	-12.043
och	-12.0434
▁respiratoire	-12.0435
eAxcisie	-12.0448
2211	-12.045
geringe	-12.0451
▁sinonasa	-12.0454
ransurethraal	-12.0458
▁bo	-12.0467
ertoli	-12.0469
fibrinedepositie	-12.0503
ano	-12.0504
▁osteo	-12.0527
▁gemerkt	-12.054
▁Larynxbiopt	-12.0542
uitbreiding	-12.0549
▁stri	-12.0551
Regio	-12.056
zonden	-12.058
atellitose	-12.058
▁samenhang	-12.0583
▁periost	-12.0584
regressie	-12.0584
▁synovia	-12.0586
▁ondersteunen	-12.0587
▁naevocellulare	-12.0588
allopi	-12.0604
▁atrof	-12.0606
rostatectomie	-12.0607
cystevorming	-12.0609
Longbiopt	-12.0611
orfologie	-12.0612
aevus	-12.0612
ediastinale	-12.0613
uctus	-12.0615
ergelijking	-12.0615
dyl	-12.0615
legmoneuze	-12.0615
pecific	-12.0616
▁tatoeage	-12.0616
▁giardia	-12.0616
▁abnormal	-12.0616
▁Bulbus	-12.0616
Consensus	-12.0616
druppel	-12.0616
iskraam	-12.0616
pyloriorganismen	-12.0616
▁gasthuis	-12.0616
▁guttata	-12.0616
▁peritonei	-12.0616
▁primers	-12.0616
▁versicolor	-12.0616
▁volvulus	-12.0616
ladderwash	-12.0616
▁discrepant	-12.0616
▁slijmbekercel	-12.0616
▁elastine	-12.0616
oncoloog	-12.0616
▁beleid	-12.0616
▁papillomatosis	-12.0616
▁research	-12.0616
▁suppurativa	-12.0616
▁glycogen	-12.0616
▁eerstelijns	-12.0616
▁anatomisch	-12.0616
▁vezeltoename	-12.0616
▁glomustumor	-12.0616
▁bereikt	-12.0616
▁verhoorning	-12.0616
▁intermammair	-12.0616
▁weefselpijpje	-12.0616
▁bewezen	-12.0616
▁perniones	-12.0616
Immunologisch	-12.0616
▁spierlaag	-12.0616
▁polipeu	-12.0616
▁commentaar	-12.0616
cfjs	-12.0616
▁kleppen	-12.0616
▁bowenoAd	-12.0616
▁plaatsgevonden	-12.0617
▁keratotisch	-12.0617
▁Beta	-12.0617
▁doorgebeld	-12.0617
▁aangemaakt	-12.0617
▁left	-12.0617
▁ulcerend	-12.0617
▁meng	-12.0617
▁mucinose	-12.0617
leucocyten	-12.0618
▁conus	-12.0618
microangiopathie	-12.0619
▁longorigine	-12.0619
▁ingeschat	-12.0621
plg	-12.0622
▁warm	-12.0622
edacht	-12.0622
gebrek	-12.0622
▁pelvien	-12.0623
▁aankleurend	-12.0624
▁aanleveren	-12.0624
uitval	-12.0626
▁vinden	-12.0628
mgl	-12.0628
childwacht	-12.0631
▁sinusoida	-12.0636
▁afbraak	-12.0638
▁langdurig	-12.0638
▁verwant	-12.0638
▁omkapseld	-12.0638
▁neuspoliep	-12.0639
▁Fibroadenoom	-12.0639
▁lymfadenitis	-12.0639
▁virusinfectie	-12.064
▁lymfvat	-12.064
▁bijdragend	-12.0643
▁cysticus	-12.0644
coronairsclerose	-12.0648
▁blaasmucosa	-12.0648
▁site	-12.0651
▁uitgenomen	-12.066
▁lymfkliertjes	-12.0663
▁gevolgd	-12.0666
aard	-12.0668
▁Hp	-12.0668
uodenumbiopsie	-12.0672
▁spirochetose	-12.0674
▁histomorfologi	-12.0677
▁hyalien	-12.0678
▁pericolisch	-12.0678
▁zaadje	-12.0678
▁celblok	-12.0679
nb	-12.0683
▁tumornecrose	-12.0684
Excisiebiopt	-12.0688
temband	-12.0692
classificeren	-12.0693
▁grof	-12.0702
▁eos	-12.0718
▁secretie	-12.0718
▁hyfen	-12.0719
ranscervica	-12.0721
▁erytro	-12.0726
▁rectumbiopt	-12.0731
▁foto	-12.0731
▁verwacht	-12.0731
vul	-12.0738
gestuurd	-12.0753
inke	-12.0763
▁gezicht	-12.0763
Lever	-12.0773
tring	-12.0774
uid	-12.0775
▁up	-12.0781
▁cut	-12.0784
amputatie	-12.0792
▁frontal	-12.0804
▁im	-12.0809
methylering	-12.0825
▁perine	-12.0831
▁stapeling	-12.0841
rondcell	-12.0842
ctie	-12.0842
▁cytoplasmatisch	-12.0844
eritoneum	-12.0846
▁Endo	-12.085
Bespreking	-12.0855
Cervix	-12.0855
lamellen	-12.0859
medicamenteus	-12.0864
controle	-12.0869
grens	-12.0871
hooggradig	-12.0873
ulcus	-12.0873
patiAnt	-12.0874
epithelioom	-12.088
translocatie	-12.0883
Blaas	-12.0883
abothi	-12.0887
▁naresectie	-12.0905
vt	-12.0908
▁leukoplakie	-12.0911
▁reepithelialis	-12.0912
uren	-12.0918
1112	-12.0919
CERA	-12.0921
focus	-12.0922
rs	-12.0922
▁daarna	-12.0929
▁uurszijde	-12.0929
cf	-12.0934
toi	-12.0944
dag	-12.0946
ctomie	-12.0953
▁histiocytose	-12.0964
Cave	-12.0969
vv	-12.0973
differentiaal	-12.0978
▁vesiculae	-12.0978
▁spierinvasie	-12.0984
▁segmenten	-12.0993
▁verm	-12.1002
art	-12.1008
▁voorz	-12.1014
▁septa	-12.1017
▁rete	-12.102
hylation	-12.1034
▁oment	-12.1041
bestaande	-12.1054
▁lingua	-12.108
ijkt	-12.1099
der	-12.11
tica	-12.1101
▁vertegenwoordig	-12.1118
▁megakaryo	-12.112
hyroidectomie	-12.1131
sstoornissen	-12.1153
dectomie	-12.1155
yoom	-12.1156
▁negati	-12.1167
lijnen	-12.1168
ini	-12.1179
▁hyperparakerato	-12.1189
acellulair	-12.1203
genen	-12.1205
▁penetr	-12.1208
unnedarmresectie	-12.1229
▁amplificaties	-12.1264
for	-12.1274
▁occlusie	-12.1278
▁gal	-12.1297
▁stromacel	-12.1299
peritoneum	-12.1315
hele	-12.1325
erde	-12.1334
diagnosticeerd	-12.1345
merking	-12.1351
▁verlitteken	-12.1353
▁paraffinecoupe	-12.1357
terke	-12.1357
pH	-12.136
▁maagfundus	-12.1361
▁bioptisch	-12.1363
inste	-12.1367
▁peribronchia	-12.1371
ositief	-12.1372
▁paraaorta	-12.1373
▁nod	-12.1373
iffuus	-12.1379
vraagformulier	-12.138
▁seborro	-12.138
rethra	-12.1381
itbreiding	-12.1381
▁verwijz	-12.1381
elanoom	-12.1381
▁klin	-12.1381
▁vi	-12.1382
▁follicular	-12.1383
▁morphaea	-12.1384
arrest	-12.1384
▁onderzoeken	-12.1384
cytoplasm	-12.1385
▁Bartholin	-12.1385
▁gepunch	-12.1385
▁agarcyto	-12.1385
▁criterium	-12.1385
▁erytheem	-12.1385
▁geidentificeerd	-12.1385
▁gemacereerd	-12.1385
▁hemorragie	-12.1385
▁versneld	-12.1385
interpreteerbaar	-12.1385
▁rommelig	-12.1385
▁stervormig	-12.1385
▁hypoxisch	-12.1385
▁bhband	-12.1385
▁cryptdestructie	-12.1385
▁palmair	-12.1385
▁endometrioAd	-12.1385
▁plasmocytoom	-12.1385
▁celtelling	-12.1385
▁korstvorming	-12.1385
▁hyalinis	-12.1385
▁aspergillus	-12.1385
▁lamellair	-12.1385
▁transitione	-12.1385
▁mitosefiguren	-12.1385
▁calcinosis	-12.1385
▁intralumina	-12.1385
▁rubra	-12.1385
amenteuze	-12.1385
▁doodsoorzaak	-12.1385
▁vaattoename	-12.1386
▁cytogenetisch	-12.1386
▁thyreoidectomie	-12.1386
▁aangedaan	-12.1386
▁kernhoudend	-12.1386
▁forni	-12.1386
▁varierend	-12.1386
▁myeloblasten	-12.1386
▁uterussegment	-12.1388
plica	-12.1389
mediadegeneratie	-12.1389
welling	-12.1389
▁ijzerkleuring	-12.1389
nasaal	-12.1391
▁bioptlengte	-12.1391
▁radiair	-12.1391
▁Ectocervica	-12.1395
pons	-12.1397
▁selectie	-12.1397
eparaat	-12.1399
wandig	-12.1399
▁hemithyreo	-12.1399
▁middermal	-12.1401
▁Additione	-12.1405
▁Fragmentje	-12.1406
▁Colonresectie	-12.1407
▁celgroepje	-12.1408
▁sacrum	-12.141
▁Chirurgisch	-12.141
▁intraabdomina	-12.141
▁stadiAring	-12.141
▁Beiderzijds	-12.141
▁Gewrichts	-12.141
▁paratrabeculair	-12.141
▁hypofarynx	-12.141
▁obliteratie	-12.141
▁myeloAd	-12.1413
▁tepelvocht	-12.1418
▁dichtbij	-12.1418
th	-12.1424
▁podocyt	-12.1426
▁isolat	-12.1426
▁overgrijpen	-12.1427
▁verse	-12.1431
▁bovengenoemd	-12.1432
▁lijden	-12.1433
▁bacteriA	-12.1439
▁sy	-12.1441
▁side	-12.1445
eductie	-12.1445
▁ant	-12.1446
▁elementen	-12.1448
▁screening	-12.1452
▁gemuteerd	-12.1452
▁trabeculair	-12.1452
▁Immunologie	-12.1452
▁hypoplasie	-12.1452
▁productie	-12.1453
rond	-12.1457
myofibroblastair	-12.1459
ocytose	-12.1459
▁Langerhans	-12.1467
delijke	-12.1468
Coupe	-12.1472
▁atypi	-12.1478
thoracaal	-12.1478
▁nefro	-12.1486
laag	-12.1491
▁gereseceerd	-12.1493
▁Geadviseerd	-12.1496
▁merkelcel	-12.1497
▁huidadnexen	-12.15
▁bijzonder	-12.1507
▁coronairarterie	-12.1512
▁volledigheid	-12.1512
▁ontv	-12.1518
▁ongevoelig	-12.1518
▁huidfragmentje	-12.1519
percentage	-12.1525
ps	-12.1526
strips	-12.1537
▁gekleurd	-12.154
▁reconstructie	-12.154
▁matrix	-12.154
▁autoimmuniteit	-12.154
▁Lymfoom	-12.154
▁concrement	-12.1541
hals	-12.1542
▁neusw	-12.1546
opt	-12.1548
▁GCB	-12.1562
▁decidualisatie	-12.1567
▁term	-12.1577
voet	-12.158
infiltraat	-12.1581
▁ulceratief	-12.1584
oorsnijdingen	-12.1604
▁erythemateu	-12.1609
hoofd	-12.1615
Levernaaldbiopt	-12.1623
zijn	-12.165
stase	-12.1653
parameters	-12.1671
▁jong	-12.1676
▁tri	-12.1678
▁genese	-12.1678
▁kristal	-12.1679
Cervixbiopt	-12.1679
recht	-12.168
▁granulair	-12.1683
plasma	-12.1688
Beenmerg	-12.1696
pigment	-12.1701
gemengd	-12.1702
▁onrijpe	-12.1702
Lymfeklier	-12.1703
▁buisje	-12.1703
extravasatie	-12.1703
nefropathie	-12.1704
macrofagen	-12.1704
insufficientie	-12.1704
bindweefsel	-12.1705
granulomen	-12.1705
▁insitu	-12.1705
stuwing	-12.1706
radicaal	-12.1706
melanocytair	-12.1706
volledig	-12.1706
aankleuring	-12.1707
dorsaal	-12.1707
lumpectomie	-12.1709
axilla	-12.1713
sternaal	-12.1713
sturen	-12.1716
Gering	-12.173
IgH	-12.1742
Ander	-12.1754
placenta	-12.1758
▁verkalkt	-12.1758
duodenal	-12.1771
ang	-12.1775
▁middenoor	-12.1778
▁eosinofiel	-12.1779
superficieel	-12.1797
rimair	-12.1798
▁lik	-12.1811
▁verwijd	-12.1816
emen	-12.1825
dan	-12.1825
▁intestinal	-12.183
▁Bloed	-12.1839
deels	-12.1855
groeiend	-12.1856
▁hepat	-12.1881
atige	-12.1883
▁uiteen	-12.1897
▁adenos	-12.1916
atio	-12.1921
▁ch	-12.1937
Halsklier	-12.1951
ova	-12.1954
▁con	-12.1958
▁col	-12.1962
ay	-12.1964
ual	-12.1966
▁pectoral	-12.1966
fre	-12.197
aak	-12.1979
▁mucosaal	-12.1985
uin	-12.2002
▁kwadrant	-12.2002
▁leiomyomateu	-12.2004
basaal	-12.2011
zende	-12.2028
▁too	-12.203
▁AR	-12.2031
▁naevo	-12.2032
bas	-12.2036
bei	-12.2036
yo	-12.2038
▁por	-12.2073
ieuw	-12.2101
▁fibromatos	-12.211
▁ov	-12.2127
▁spierbiopt	-12.2156
▁trombo	-12.2157
dige	-12.2166
▁liesklier	-12.2169
▁pipellebiopt	-12.2172
forme	-12.2175
mentin	-12.2178
ins	-12.2183
ignaal	-12.2185
▁liggen	-12.2187
uitstrijkje	-12.2193
umorvolume	-12.2196
▁halslymfklier	-12.2196
apillair	-12.22
ag	-12.2201
oxicodermie	-12.2203
ranslocatie	-12.2203
▁fix	-12.2205
▁suboptima	-12.2206
illair	-12.2206
▁subcarina	-12.2207
elvien	-12.2211
▁unc	-12.2211
▁denud	-12.2212
ermate	-12.2213
▁rijp	-12.2215
▁Ib	-12.2215
irena	-12.2216
▁echt	-12.2216
komstig	-12.2216
▁heteroge	-12.2217
▁bestraling	-12.2218
▁carun	-12.2218
▁opbrengst	-12.2218
Gastric	-12.2218
ecompleteerd	-12.2218
orgagni	-12.2218
rhabdomyosarcoom	-12.2218
▁achterhalen	-12.2218
▁atrophicans	-12.2218
▁gefixeerd	-12.2218
▁geopend	-12.2218
▁interfereren	-12.2218
▁kolonisatie	-12.2218
▁levercirrose	-12.2218
▁luteum	-12.2218
▁ossificatie	-12.2218
▁oxyuren	-12.2218
▁pancreatitis	-12.2218
▁papilliferum	-12.2218
▁wenselijk	-12.2218
▁Laser	-12.2218
▁coelia	-12.2218
▁gekeken	-12.2218
▁paraganglioom	-12.2218
▁consistent	-12.2218
▁miljml	-12.2218
▁papillomen	-12.2218
▁enchondroom	-12.2218
▁glanspenis	-12.2218
spleet	-12.2218
▁geautoriseerd	-12.2218
▁tumid	-12.2218
▁fibrolipoom	-12.2218
▁palpab	-12.2218
▁buccaal	-12.2219
▁Behcet	-12.2219
▁synovitis	-12.2219
▁cytodiagnostiek	-12.2219
▁lymfang	-12.2219
▁ileus	-12.2219
▁spiervezel	-12.2219
▁shock	-12.2219
▁ringsideroblast	-12.2219
▁Lymfoid	-12.2219
▁presacra	-12.2219
▁vertonen	-12.2219
▁tradition	-12.2219
▁nucleair	-12.2219
▁agar	-12.2219
▁morfometri	-12.2219
▁ondersteund	-12.2219
▁seromucineu	-12.2219
▁breid	-12.2219
▁hartfalen	-12.2219
▁normaalwaarden	-12.2219
▁verleden	-12.2219
▁plaatsvinden	-12.222
▁zegelringcellen	-12.222
▁idem	-12.222
▁granular	-12.222
itspraak	-12.222
▁longarts	-12.2221
upus	-12.2222
▁dystrofisch	-12.2222
▁Clin	-12.2223
▁aantallen	-12.2223
▁umc	-12.2223
▁banal	-12.2225
▁Corpustype	-12.2225
▁ontst	-12.2225
latuur	-12.2226
oont	-12.2227
▁myoma	-12.2228
arier	-12.2229
▁vulvair	-12.223
▁progestageen	-12.223
▁deficient	-12.2231
etastasen	-12.2235
▁vaatafwijkingen	-12.2237
▁enteritis	-12.2238
▁neuroblastoom	-12.2244
▁inzenden	-12.2245
▁sarcoAdose	-12.2245
▁Bindweefsel	-12.2245
▁gesampled	-12.2245
▁Intracavitair	-12.2245
▁basaloAd	-12.2245
▁geAnkt	-12.2245
▁configuratie	-12.2245
▁biamniotisch	-12.2246
fluxoesofagitis	-12.2246
▁maagfundustype	-12.2246
▁cerebellair	-12.225
▁decompensati	-12.225
▁nietafwijkend	-12.225
ilex	-12.2251
iv	-12.2254
▁ulna	-12.2255
oche	-12.2258
▁endothelial	-12.227
▁okselklier	-12.2273
▁rechterbeen	-12.2276
BCL	-12.2276
ostomie	-12.2285
agus	-12.2287
▁Hooggradig	-12.2293
engere	-12.2299
▁dy	-12.2299
▁oligo	-12.2299
▁congestie	-12.2299
▁Relatie	-12.2301
ish	-12.2303
▁Ca	-12.2309
▁dorso	-12.2309
▁Hemithyreo	-12.2313
kt	-12.2317
fractie	-12.2325
▁weer	-12.2326
▁divertikels	-12.233
diepte	-12.2333
▁overgroei	-12.2335
▁Histologi	-12.2337
nze	-12.2348
▁stolsels	-12.2349
pect	-12.2363
▁HG	-12.2367
▁spiercel	-12.237
▁Ernstig	-12.2387
▁pilair	-12.2391
che	-12.2394
▁verkrijgings	-12.2394
ntat	-12.2399
▁myositis	-12.2411
▁genezen	-12.2429
leden	-12.2444
▁combin	-12.2452
▁geboorte	-12.2459
olorectaal	-12.2468
ichenoide	-12.2472
oorkeurs	-12.2494
buisstructuren	-12.2502
▁plan	-12.2506
▁verdikking	-12.2506
dragen	-12.2508
acu	-12.2514
ARI	-12.2521
▁multinodulaire	-12.2535
▁mit	-12.2561
▁perivilleu	-12.2561
▁Af	-12.2576
bericht	-12.2581
occipitaal	-12.2581
▁instabiel	-12.2581
▁kleur	-12.2593
kan	-12.2596
▁bu	-12.2603
concentratie	-12.2603
links	-12.2605
helft	-12.2606
▁Aorta	-12.2607
gevallen	-12.2607
Extern	-12.2609
origine	-12.2611
granuloom	-12.2612
aandoening	-12.2612
gedetecteerd	-12.2614
volgt	-12.2614
beschreven	-12.2614
parietaal	-12.2614
actinisch	-12.2615
Bowen	-12.2615
infiltrerend	-12.2616
protonpompremmer	-12.2617
prurigo	-12.2619
appa	-12.2635
▁pus	-12.2652
tm	-12.2653
2212	-12.2684
behandeling	-12.2691
syndroom	-12.2695
reexcisie	-12.2698
nodulair	-12.2708
▁mag	-12.2712
ging	-12.273
RGR	-12.2732
▁oesofagusbiopt	-12.2741
▁hematologische	-12.2748
▁exoge	-12.2762
▁loslat	-12.2774
ning	-12.278
▁mat	-12.2791
▁mesangio	-12.2792
myometrium	-12.2839
dometriosecyste	-12.2851
▁uitsluit	-12.2865
no	-12.2874
stabiel	-12.2885
ERIG	-12.2889
▁overheers	-12.289
▁alb	-12.2892
▁lymfohistiocyt	-12.2895
▁slokdarmbiopt	-12.2905
cher	-12.2924
typering	-12.293
evident	-12.2932
sinusoida	-12.2933
▁schimmelinfect	-12.2936
po	-12.2947
▁Al	-12.2948
▁analyses	-12.2956
▁ductepitheel	-12.2956
lever	-12.2973
ingen	-12.2985
diep	-12.2987
ngeve	-12.2989
▁fil	-12.3004
oppervlakkige	-12.3011
amniotisch	-12.3028
▁arteriol	-12.3028
▁Regressie	-12.3034
ius	-12.3034
ias	-12.3045
▁BH	-12.3061
▁inhibitor	-12.3071
sis	-12.3088
▁cava	-12.3089
▁recidiveren	-12.3089
zing	-12.3089
slag	-12.3089
AGE	-12.3095
▁granulocyt	-12.3098
verweging	-12.3099
poel	-12.3099
oven	-12.3101
▁hyp	-12.3106
herapeutisch	-12.3109
mtrent	-12.3112
arotidectomie	-12.312
ortio	-12.312
▁as	-12.3121
etrusor	-12.3122
▁mantelcel	-12.3123
erdenking	-12.3124
erminderd	-12.3124
gd	-12.3124
ambda	-12.3125
▁schuim	-12.3126
▁begin	-12.3126
▁betrokken	-12.3126
ugine	-12.3127
ormocellulair	-12.3127
▁inactiv	-12.3127
icopathologisch	-12.3127
sdu	-12.3127
▁choriaalplaat	-12.3127
▁Gecombineerd	-12.3127
▁Gingiva	-12.3127
▁abcedering	-12.3127
▁accuminatum	-12.3127
▁adventiti	-12.3127
▁anulare	-12.3127
▁atroficans	-12.3127
▁effluvium	-12.3127
▁gekweekt	-12.3127
▁gemelli	-12.3127
▁getypeerd	-12.3127
▁hypoplastisch	-12.3127
▁inklemming	-12.3127
▁mozai	-12.3127
▁olecran	-12.3127
▁plantaardig	-12.3127
▁pyelonefritis	-12.3127
▁rontgen	-12.3127
▁solutio	-12.3127
▁therapy	-12.3127
▁zeldzaam	-12.3127
▁geevalueerd	-12.3127
▁nevocellularis	-12.3127
▁absolu	-12.3127
▁cylindroom	-12.3127
▁formaline	-12.3127
ecrospermie	-12.3127
▁retroplacentair	-12.3127
▁supraglottisch	-12.3127
ohnson	-12.3128
▁areata	-12.3128
▁angiofibroom	-12.3128
▁onveranderd	-12.3128
▁calcificerend	-12.3128
▁clavus	-12.3128
▁pendulum	-12.3128
▁lichteruptie	-12.3128
aschrift	-12.3128
▁systeemziekte	-12.3128
▁meegereseceerd	-12.3128
▁tubulusnecrose	-12.3128
▁beduidend	-12.3128
▁reperfusie	-12.3128
schraap	-12.3128
▁hormoongebruik	-12.3128
▁collageenrijk	-12.3128
▁parapemphigus	-12.3128
▁ongewone	-12.3128
errukeu	-12.3128
▁behandelaar	-12.3128
▁ontaarding	-12.3128
▁torsio	-12.3128
▁uitgerijpt	-12.3128
▁verval	-12.3128
▁aanbev	-12.3128
load	-12.3129
kiemcelneoplasie	-12.3129
▁trombusvorming	-12.3129
▁pigmentverlies	-12.313
▁melanomenpanel	-12.313
▁plasmacytos	-12.313
▁vlg	-12.3132
▁extraovarie	-12.3132
▁demodex	-12.3132
▁Broncho	-12.3132
stelsel	-12.3132
▁traanklier	-12.3133
partum	-12.3133
▁temp	-12.3133
▁vervaardigd	-12.3134
▁wijziging	-12.3134
▁hersenweefsel	-12.3134
▁hernia	-12.3134
▁pieken	-12.3136
▁paraffineblokje	-12.3136
▁vermoed	-12.3136
▁peroperatief	-12.3137
▁neona	-12.3137
▁vetcellen	-12.3139
▁ontstekingsg	-12.314
▁leukocyten	-12.3141
emurkop	-12.3143
akjes	-12.3145
akke	-12.3145
granulomateu	-12.3146
▁diagnosis	-12.3148
▁vervalt	-12.3148
▁blaarziekte	-12.3148
▁emfyseem	-12.3149
▁Infiltratie	-12.315
▁linkervoet	-12.315
▁commissie	-12.3151
▁discordantie	-12.3153
▁aanliggend	-12.3154
▁Conjunctiva	-12.3157
▁cordis	-12.3157
▁dermatomyositis	-12.3157
▁impetigo	-12.3157
▁plusminus	-12.3157
▁polyklonale	-12.3157
▁spiradenoom	-12.3157
▁urticariAle	-12.3157
▁perfor	-12.3157
▁endocapillair	-12.3158
▁nummers	-12.3159
▁infundibulair	-12.3159
▁abcesvorming	-12.3159
ICER	-12.3159
▁suprabasa	-12.316
▁corpora	-12.3162
alwaar	-12.3165
▁insitucomponent	-12.317
▁artrose	-12.3172
trekk	-12.3172
osis	-12.3173
oidectomie	-12.3177
irad	-12.3181
▁buis	-12.3184
▁fusiegen	-12.3188
ngioendothelioom	-12.3189
ton	-12.3198
Lymfklierbiopt	-12.3199
lassieke	-12.3205
▁frictie	-12.3205
▁cast	-12.3207
▁kweek	-12.3208
▁Irradicaal	-12.3208
ief	-12.3208
▁Hematologie	-12.3208
▁partikels	-12.321
nderzoeks	-12.3215
gressief	-12.3223
auhin	-12.3238
▁koilocyto	-12.3239
ncreaticobiliair	-12.325
▁Antrumtype	-12.3252
▁cirro	-12.3257
loos	-12.3257
▁schouw	-12.3258
▁granuloompje	-12.3261
genmutatie	-12.3269
▁AIH	-12.327
ulair	-12.3274
▁membran	-12.3274
nis	-12.3276
sensitiviteit	-12.3285
naevuscellularis	-12.3298
▁men	-12.3299
pt	-12.3305
▁lopend	-12.3309
▁dood	-12.3314
▁sectie	-12.3315
hand	-12.3324
adnex	-12.3328
▁tricho	-12.3332
receptoren	-12.3339
▁draad	-12.3347
aald	-12.3356
coronairarterien	-12.3359
schi	-12.3364
est	-12.3373
bst	-12.3374
▁pLeu	-12.3383
▁jugular	-12.3388
tieve	-12.3399
intr	-12.34
infarct	-12.3401
HB	-12.3403
▁microcysteu	-12.3416
cd	-12.3436
klinische	-12.3437
▁carcinomen	-12.3449
oliepen	-12.346
▁immunofluores	-12.3466
wn	-12.3478
erytrocyten	-12.3498
opmerkingen	-12.3507
aagbiopsie	-12.352
▁verheven	-12.3532
▁opening	-12.3539
mediaal	-12.3545
▁IGH	-12.3547
klier	-12.3548
viteit	-12.3564
cilinders	-12.3564
▁elleboogs	-12.3567
igmoidbiopt	-12.3567
▁tubulus	-12.3569
▁Glandula	-12.3573
kleincellig	-12.3574
elproliferatie	-12.3579
▁cilinder	-12.3582
ven	-12.3587
eling	-12.3594
▁sana	-12.3599
line	-12.3601
▁Granulomateu	-12.3603
Huidstans	-12.3604
cor	-12.3604
gegaan	-12.3604
Groot	-12.3607
verminderd	-12.3608
aantasting	-12.3608
subtype	-12.3609
ureter	-12.3611
hilair	-12.3611
2221	-12.3611
schildklierkwab	-12.3611
gericht	-12.3612
promotor	-12.3612
aanwezig	-12.3613
gevonden	-12.3614
Echogeleid	-12.3614
▁verrukeus	-12.3615
granulocyten	-12.3615
ischemie	-12.3616
EBER	-12.3617
Representatief	-12.3617
letsel	-12.3617
kristallen	-12.3617
Gleasonscore	-12.3618
Huidstansbiopt	-12.3618
weken	-12.362
▁stadiering	-12.3621
varianten	-12.3621
uis	-12.3625
oesophagus	-12.363
pGly	-12.3631
verruca	-12.3633
▁gegaan	-12.3637
drie	-12.3642
voorkeur	-12.3653
▁manu	-12.3661
Imm	-12.3674
sneevlak	-12.3678
choriale	-12.3683
sme	-12.3683
rtransplantatie	-12.3683
▁bronchusbiopt	-12.3695
up	-12.3695
lymfklieren	-12.3702
GB	-12.3702
▁darmbiopt	-12.3713
anale	-12.3724
ndometriosecyste	-12.3738
subcutis	-12.3748
diagnosen	-12.3755
▁uiter	-12.3756
▁sarcoid	-12.3756
extramura	-12.3768
▁adenomyo	-12.3773
▁nage	-12.3798
orale	-12.3802
pje	-12.3823
rectum	-12.3824
▁uterien	-12.3827
▁uitge	-12.3835
▁plantair	-12.3844
roken	-12.3851
▁pA	-12.3862
Immuno	-12.3864
▁erythro	-12.387
▁hemo	-12.3877
vo	-12.388
ongbiopt	-12.3904
▁trig	-12.3939
sich	-12.3947
membranen	-12.3948
▁betreffend	-12.3964
ford	-12.3965
ceme	-12.3967
ph	-12.3982
▁auto	-12.3992
▁atherosclero	-12.3995
ink	-12.4008
ransplantaat	-12.4011
ld	-12.4015
asie	-12.4033
ilocytair	-12.4038
ono	-12.4043
arcinoom	-12.405
tien	-12.4053
lecht	-12.4067
pierweefsel	-12.4073
▁stuk	-12.4085
uwelijk	-12.4087
otheel	-12.4089
▁myofibroblast	-12.4089
ating	-12.409
▁ontvang	-12.4092
ystem	-12.4093
nijrand	-12.4098
▁teloge	-12.4101
▁Lis	-12.4101
▁multi	-12.4108
▁micrometastase	-12.411
▁celgroep	-12.4111
▁dystrof	-12.4111
ria	-12.4112
ircumcisie	-12.4114
pancreatisch	-12.4114
▁pustulos	-12.4117
oorz	-12.4119
ergelijk	-12.4122
trikt	-12.4122
ellient	-12.4123
eratospermie	-12.4124
richomonas	-12.4124
Representatie	-12.4124
erwijzing	-12.4124
▁Lymfeklierbiopt	-12.4125
umorlengte	-12.4125
eucocyten	-12.4125
etreffende	-12.4125
▁bowen	-12.4126
zoospermie	-12.4126
ligospermie	-12.4126
otilit	-12.4127
mgevend	-12.4127
pressie	-12.4127
▁glandulo	-12.4127
elopbrengst	-12.4127
gunstig	-12.4127
ynapto	-12.4127
▁Cycline	-12.4127
▁Folliculair	-12.4127
▁Hoofd	-12.4127
▁achillespees	-12.4127
▁actinomyces	-12.4127
▁botombouw	-12.4127
▁cardiomyocyten	-12.4127
▁consensus	-12.4127
▁ectatisch	-12.4127
▁genomisch	-12.4127
▁klievingsvlak	-12.4127
▁monotypie	-12.4127
▁morphea	-12.4127
▁mucositis	-12.4127
▁partijen	-12.4127
▁pathognom	-12.4127
▁spermakwaliteit	-12.4127
▁transgender	-12.4127
chonlein	-12.4127
stapelingsziekte	-12.4127
▁intervillositis	-12.4127
▁restrictie	-12.4127
▁verdeeld	-12.4127
▁weggebiopteerd	-12.4127
▁epidermoid	-12.4127
▁geteld	-12.4127
▁polytypisch	-12.4127
▁psoriatiform	-12.4127
▁trombocytose	-12.4127
▁trombopenie	-12.4127
▁integra	-12.4128
▁melaninepigment	-12.4128
▁ongewoon	-12.4128
▁elektronendicht	-12.4128
▁afgekapseld	-12.4128
▁chromo	-12.4128
▁cocco	-12.4128
▁intracornea	-12.4128
emorcelleerd	-12.4128
▁plomp	-12.4128
▁endoectocervica	-12.4128
▁pulmonalisklep	-12.4128
▁zinvol	-12.4128
▁Epiderma	-12.4128
▁organoid	-12.4128
▁pulmonalis	-12.4128
▁trombocytemie	-12.4128
streken	-12.4128
▁intradermalis	-12.4128
▁dundarm	-12.4128
sthenospermie	-12.4128
▁pangastritis	-12.4128
▁specificatie	-12.4128
▁invade	-12.4128
▁xanthogranuloom	-12.4128
ncompleet	-12.4128
▁milium	-12.4128
▁bleek	-12.4128
▁Brunt	-12.4128
▁tuberculosis	-12.4128
▁drain	-12.4128
rdg	-12.4128
▁diathermisch	-12.4128
▁bcl	-12.4129
▁beta	-12.4129
▁beentumoren	-12.4129
▁nascens	-12.4129
▁monocytose	-12.4129
▁jl	-12.4129
Ihigh	-12.4129
low	-12.4129
▁Giardiasis	-12.413
sparen	-12.413
▁immunotypering	-12.413
nverdacht	-12.413
▁kiemcentr	-12.413
wangerschapsafbr	-12.413
▁fibroblastair	-12.413
▁naaldvormig	-12.413
▁Fibreu	-12.4131
▁botinvasie	-12.4131
▁eerstgenoemde	-12.4131
▁abdominalis	-12.4132
nvolledig	-12.4132
▁slow	-12.4133
▁partus	-12.4133
▁verkrijgen	-12.4134
conisatie	-12.4135
retin	-12.4136
ary	-12.4137
▁Alth	-12.4137
malig	-12.4137
▁atypia	-12.4137
▁abdomina	-12.4138
▁by	-12.4143
ack	-12.4144
▁Fallopi	-12.4146
idden	-12.415
▁alcohol	-12.415
▁epi	-12.4154
▁folliculorum	-12.4155
▁melanoompanel	-12.4156
▁harde	-12.4157
▁intrapulmona	-12.4157
▁hoornschilfer	-12.4159
▁tumorstroma	-12.4159
▁malignancy	-12.416
▁drainage	-12.416
▁multiorgaan	-12.416
▁hemosiderine	-12.416
▁Beginnend	-12.416
▁pseudojicht	-12.416
▁rabdomyosarcoom	-12.416
lbla	-12.4161
▁Hypertrofisch	-12.4162
▁opgetreden	-12.4164
▁bifurcati	-12.4165
▁nodulus	-12.4166
▁Loss	-12.4168
▁digital	-12.4168
▁kiemcel	-12.4169
▁fibroadenomato	-12.4182
oma	-12.4186
▁BI	-12.4193
▁eczeembeeld	-12.4194
reef	-12.4199
▁halo	-12.4201
▁cf	-12.4202
▁synovi	-12.4205
embol	-12.4205
ortioamputatie	-12.4213
▁antilichamen	-12.4217
▁gekerfd	-12.4217
▁monomorf	-12.4217
▁Alk	-12.4217
▁lisnecrose	-12.4218
▁herbiopteren	-12.4218
▁blinde	-12.4221
blatio	-12.4222
▁spierbundel	-12.4222
cerebral	-12.4224
epidermale	-12.4226
▁lan	-12.4226
▁enteropathie	-12.4238
▁berusten	-12.4239
mb	-12.424
llen	-12.4245
▁incisie	-12.4251
▁Eerder	-12.4258
▁doorsnedes	-12.4258
producten	-12.4267
BI	-12.4269
▁chorionitis	-12.4275
▁optie	-12.4277
ille	-12.4296
Igebruik	-12.4296
▁inductie	-12.4298
lastica	-12.4308
Ieffect	-12.431
▁slijmkleuring	-12.4324
alisatie	-12.4325
uitgang	-12.4325
▁mesenteri	-12.4334
▁vreemd	-12.4334
▁voeren	-12.4334
▁placentaresten	-12.4339
ov	-12.4341
▁lymfklierbeeld	-12.4351
▁implant	-12.4357
nig	-12.4364
1221	-12.4365
▁r	-12.4367
▁myoepithelia	-12.4394
▁FE	-12.4404
breed	-12.4404
▁fenotypisch	-12.4406
ondom	-12.4409
cyten	-12.4423
▁transurethra	-12.4425
▁bijv	-12.4431
▁gestatione	-12.4454
mentumbiopt	-12.4469
▁naevuscel	-12.4484
proportion	-12.4489
musculair	-12.4498
centieonderzoek	-12.4503
▁vlokje	-12.4506
duidend	-12.4509
▁1112	-12.4514
▁grijs	-12.4516
▁acro	-12.4522
oloog	-12.4528
RIGE	-12.4532
morfologisch	-12.4538
▁crusteu	-12.4554
▁mammaablati	-12.4556
▁cartilagineu	-12.4556
centraal	-12.4564
▁ascen	-12.4568
▁are	-12.4575
wezen	-12.4589
lb	-12.4594
▁pectora	-12.4595
tte	-12.4597
formatie	-12.4597
▁onderscheiden	-12.46
diagnosestelling	-12.4608
dode	-12.4608
▁entero	-12.4626
urotheelcel	-12.4637
ons	-12.4654
ost	-12.4655
chronisch	-12.4659
esangiocapillair	-12.4668
volume	-12.4685
therapieeffecten	-12.469
lichaampje	-12.4696
▁spina	-12.4697
▁forme	-12.4698
▁tumordeposit	-12.4701
lisexcisie	-12.4709
folliculair	-12.4711
folliculitis	-12.4712
Links	-12.4714
Risk	-12.4714
Rechts	-12.4715
insertie	-12.4715
bulleu	-12.472
Bericht	-12.4721
hepatitis	-12.4722
Bloom	-12.4724
Benigne	-12.4725
Radicaliteit	-12.4725
onderbuik	-12.4726
lymfocytose	-12.4726
ulceratie	-12.4732
aliteit	-12.4732
villi	-12.4733
Atypisch	-12.4735
tumorvrij	-12.4737
parotis	-12.4737
Alle	-12.4746
lg	-12.4751
oduodenal	-12.4751
ndocervicale	-12.4758
functie	-12.4759
▁incontinentie	-12.4762
▁agressie	-12.4771
▁zg	-12.4775
caudaal	-12.4777
▁Granuloma	-12.4779
▁mammanaaldbiopt	-12.4781
ota	-12.4785
rechter	-12.4793
solide	-12.4799
primair	-12.48
tain	-12.4804
maagovergang	-12.4806
pG	-12.4809
aginabiopt	-12.4813
bekende	-12.4832
oedeem	-12.4833
eterozygosit	-12.4834
▁clinico	-12.4835
subcutane	-12.4837
Incisiebiopt	-12.4843
olid	-12.4844
▁stagering	-12.4845
▁ERC	-12.485
letie	-12.4853
spierweefsel	-12.4855
baard	-12.4858
ligodendroglioom	-12.4873
histiocytose	-12.4879
cre	-12.488
eferentie	-12.4883
▁satelliethaard	-12.4883
▁immun	-12.49
▁Colorecta	-12.4903
▁Cristabeenmerg	-12.4905
▁streng	-12.4931
monocytaire	-12.4936
snede	-12.4946
▁spin	-12.4952
▁arterio	-12.4967
lling	-12.497
olair	-12.4972
sigmoid	-12.4977
bekleding	-12.4992
▁Ruime	-12.4993
▁hematologie	-12.4999
uitgebreide	-12.5
capsula	-12.5008
▁afgeronde	-12.5015
▁heen	-12.5018
▁pap	-12.5018
vloe	-12.5032
stenose	-12.5042
oorgesteld	-12.5048
▁incl	-12.5078
▁ileo	-12.5079
▁vlakken	-12.5083
▁Result	-12.5086
lobulaire	-12.5088
illin	-12.509
edeem	-12.5097
▁ga	-12.5106
Corpusslijmvlies	-12.5106
▁spr	-12.5116
▁myelomonocyt	-12.5117
spoliepje	-12.5119
preparaatje	-12.5122
▁opge	-12.5124
dus	-12.5127
eck	-12.5129
▁eruptie	-12.5133
morfologie	-12.5135
doende	-12.5137
▁coagulatie	-12.514
iare	-12.5143
▁tubulo	-12.5145
emisch	-12.5149
osum	-12.515
▁Hemithyr	-12.5152
vula	-12.5154
lectronen	-12.5158
stations	-12.5159
stromal	-12.5161
▁hyperplasi	-12.5161
verig	-12.5161
ervicale	-12.5169
▁bijkomend	-12.5176
varia	-12.5189
▁embryo	-12.519
▁Classificati	-12.5191
▁polyclona	-12.5195
Fragment	-12.5195
ecretoir	-12.52
▁falen	-12.5203
▁lint	-12.5205
▁onderbouw	-12.521
ransthoraca	-12.5213
fhankelijk	-12.5214
rauma	-12.5219
ynovia	-12.5221
herapiekeuzetest	-12.5222
ijf	-12.5222
reexistent	-12.5224
rurigo	-12.5225
▁leucocytoclas	-12.5227
iferi	-12.5229
aboth	-12.5231
▁Epitheel	-12.5232
splits	-12.5233
pirocheten	-12.5234
ythema	-12.5234
icrobiologie	-12.5234
uent	-12.5235
ediastinum	-12.5236
otiel	-12.5236
fysi	-12.5236
▁lymfk	-12.5237
▁temporal	-12.5238
eusbijholte	-12.5238
ubieus	-12.5238
ijsnijvlak	-12.5238
▁verdw	-12.5238
rotheel	-12.5238
▁Leishmania	-12.5238
▁staple	-12.5239
▁prostate	-12.5239
▁bilirubinostas	-12.5239
▁melanine	-12.5239
Retroperitonea	-12.5239
drempel	-12.5239
glutamin	-12.5239
olecular	-12.5239
weldamcfk	-12.5239
▁Adnectomie	-12.5239
▁LauwILA	-12.5239
▁aangeraden	-12.5239
▁afstoting	-12.5239
▁cryptdistorsie	-12.5239
▁dyshematopoe	-12.5239
▁geconsulteerd	-12.5239
▁georienteerd	-12.5239
▁heftig	-12.5239
▁helices	-12.5239
▁hydatide	-12.5239
▁malignteit	-12.5239
▁neuropatholoog	-12.5239
▁nuchae	-12.5239
▁pilomatrixoma	-12.5239
▁salpingitis	-12.5239
▁toxiciteit	-12.5239
▁verlaagd	-12.5239
Huidexcochleatie	-12.5239
▁Apart	-12.5239
▁Lauren	-12.5239
soleerd	-12.5239
▁abortion	-12.5239
▁fototoxisch	-12.5239
▁monoklonaal	-12.5239
▁Apex	-12.5239
▁involutie	-12.5239
▁polysomie	-12.5239
▁seminoma	-12.5239
▁cito	-12.5239
▁vlekkig	-12.5239
▁levend	-12.5239
▁dysmaturiteit	-12.5239
▁Aortaklep	-12.5239
▁culicosis	-12.5239
acora	-12.5239
▁chondroom	-12.5239
▁spits	-12.5239
▁mycobacteriAn	-12.5239
▁oncologisch	-12.5239
▁plasmacytoid	-12.5239
▁besmetting	-12.5239
▁mucoepidermoid	-12.5239
▁imbalance	-12.5239
▁epiploica	-12.5239
cystadenofibroom	-12.5239
▁hemithyroid	-12.5239
▁luchtweg	-12.5239
▁spoelcelnaevus	-12.5239
▁voldoe	-12.5239
▁antracosilicose	-12.5239
▁gastraal	-12.5239
▁reaction	-12.5239
▁significance	-12.524
color	-12.524
▁bandvormig	-12.524
bturatorius	-12.524
▁intron	-12.524
ramus	-12.524
▁schedelobductie	-12.524
▁placentavolume	-12.524
▁geacht	-12.5241
▁Endoresectie	-12.5241
▁chorion	-12.5242
chemisch	-12.5242
onisatie	-12.5242
▁neurovasculair	-12.5243
▁bloedrijk	-12.5243
▁Hashimoto	-12.5243
▁stent	-12.5243
▁aang	-12.5243
gastrooesophagea	-12.5244
▁Graves	-12.5244
▁retentiecyste	-12.5245
▁multicysteu	-12.5245
▁aortawand	-12.5245
▁Epidermis	-12.5246
▁klonaliteit	-12.5246
▁sacrouterien	-12.5246
▁ontwikkelend	-12.5248
Anaal	-12.5249
▁appendixwand	-12.5251
▁semin	-12.5252
ha	-12.5252
▁adenoompje	-12.5252
anced	-12.5253
▁Herzien	-12.5254
▁optreden	-12.5257
▁retina	-12.526
mitralisklep	-12.526
eaktie	-12.5262
uodenummucosa	-12.5263
karakteris	-12.5265
▁grover	-12.5266
▁follikelcyste	-12.5267
mucus	-12.527
▁etc	-12.5271
remmergebruik	-12.5273
▁Atrofisch	-12.5274
▁staaf	-12.5275
▁cirrhose	-12.5275
▁Identi	-12.5275
▁bruin	-12.5275
▁contour	-12.5275
▁Infiltrerend	-12.5275
▁gesuperponeerd	-12.5275
▁caudo	-12.5276
▁progressief	-12.5276
otinib	-12.5276
▁wijzend	-12.5277
▁acini	-12.5278
▁uitstrijkje	-12.5278
▁intervill	-12.5278
▁tumormetastasen	-12.528
▁verander	-12.5281
wij	-12.5281
▁paraffinecoupes	-12.5282
▁kernp	-12.5286
▁fibroblasten	-12.5292
▁craniomedia	-12.5293
hemihepatectomie	-12.5294
fin	-12.5295
▁Blaasslijmvlies	-12.5298
Li	-12.53
▁huma	-12.5305
▁perivesica	-12.5308
zegelringceltype	-12.5316
▁sperma	-12.5322
▁vacuol	-12.5323
▁dysmorf	-12.5326
car	-12.5329
▁ALCL	-12.5335
▁uterusresectie	-12.5337
▁Conus	-12.5338
▁extramedullair	-12.5339
▁Basis	-12.5339
▁doorbraak	-12.5339
▁verhouding	-12.5339
▁haematopoe	-12.5339
▁amyloAdose	-12.5339
▁fenomeen	-12.5341
▁zuur	-12.5341
▁plasmacellulair	-12.5342
male	-12.5344
▁cortica	-12.5354
▁Boven	-12.5359
▁Bilatera	-12.536
kanker	-12.5361
▁rijk	-12.5365
▁mosaicisme	-12.5373
▁rheumat	-12.5377
▁palatina	-12.538
HA	-12.5383
▁fibroadenomateu	-12.5389
ness	-12.539
lie	-12.5391
▁sessi	-12.5395
keer	-12.5401
▁druk	-12.5406
▁lymfoblastair	-12.5406
olypeu	-12.5408
▁nefroge	-12.5413
▁plus	-12.5422
▁polyps	-12.5429
follikelepitheel	-12.543
▁chondromatose	-12.543
darmfragment	-12.5431
▁stromatumor	-12.5438
uele	-12.5447
acd	-12.5448
front	-12.5459
ongo	-12.546
lance	-12.5465
▁gevorderd	-12.5471
▁onafhankelijk	-12.5473
lering	-12.5481
kselklier	-12.5482
▁huidbeeld	-12.5485
cc	-12.5485
▁Anders	-12.5492
cell	-12.5493
sprake	-12.5503
penetrerend	-12.5503
cutane	-12.5511
act	-12.5518
ingroei	-12.552
▁huidcurettement	-12.5532
▁Clon	-12.5537
aresectie	-12.5543
▁pericentra	-12.5559
eur	-12.5572
etrof	-12.5575
▁steen	-12.5578
emie	-12.5583
▁HI	-12.5591
▁ger	-12.5606
lus	-12.5611
RCA	-12.5612
▁prostatisch	-12.5613
orrelatie	-12.5613
▁lok	-12.5628
▁radial	-12.5642
▁sublingual	-12.5643
▁sn	-12.5649
ill	-12.5654
▁percentages	-12.5656
▁Afmeting	-12.5675
EGRE	-12.5686
▁abcesje	-12.5689
criteria	-12.5704
▁stof	-12.5707
▁papels	-12.5708
ificatie	-12.5712
▁mitochondria	-12.572
▁Let	-12.5721
eirriteerde	-12.5729
tumoruitbreiding	-12.5731
▁comm	-12.5732
ent	-12.5732
bb	-12.5748
ade	-12.5749
therapie	-12.5765
ft	-12.5793
laaggradige	-12.5798
▁Ala	-12.5804
rd	-12.5809
ath	-12.581
▁lichaampje	-12.5813
▁chroniciteits	-12.5817
bare	-12.5828
fusie	-12.5835
tatie	-12.5837
strijk	-12.5838
rp	-12.5843
▁sp	-12.5845
iese	-12.5845
▁pr	-12.5849
ervixuitstrijk	-12.5865
cellig	-12.5874
▁Consultcoupe	-12.5878
▁ain	-12.5879
unt	-12.5882
fase	-12.589
lopen	-12.5896
collectie	-12.5899
im	-12.5904
▁monocyt	-12.5915
▁epidermotropi	-12.5916
▁Blokje	-12.5916
arr	-12.5917
ermaal	-12.5921
schelp	-12.5923
elling	-12.5934
mber	-12.5934
corpus	-12.5935
coiling	-12.5936
▁nodul	-12.5936
opening	-12.5953
▁fractie	-12.5953
sclerose	-12.5954
cervix	-12.5956
laesiona	-12.5967
invaginatie	-12.5967
scherp	-12.5968
markering	-12.5973
Eventue	-12.5974
Adnex	-12.5975
achterwand	-12.5975
bevestigd	-12.5976
beoordelen	-12.5976
wenkbrauw	-12.5976
beoordeelbaar	-12.5976
focal	-12.5976
colitis	-12.5976
Lisexcisie	-12.5976
lambda	-12.5977
uurszijde	-12.5977
klierbuizen	-12.5977
Receptoren	-12.5978
thorax	-12.5978
regeneratie	-12.5978
hoogte	-12.5978
minimaal	-12.5979
bot	-12.5981
littekenweefsel	-12.5982
werd	-12.5982
besproken	-12.5982
▁conclusieI	-12.5984
deletie	-12.5988
klein	-12.5989
infarcering	-12.599
minimal	-12.5992
oesofagitis	-12.5993
rot	-12.5996
▁Coecumbiopt	-12.601
arts	-12.6012
▁pos	-12.6019
▁expert	-12.6021
culaire	-12.604
invasiediepte	-12.6043
erwij	-12.6046
▁superficiale	-12.6053
▁spongieu	-12.6054
▁stolling	-12.6055
▁Bi	-12.6073
bene	-12.608
transplantaat	-12.609
shy	-12.6091
grootcellig	-12.6092
▁retromam	-12.6115
Rechter	-12.6123
▁IG	-12.6131
eiwitten	-12.6151
Antrumslijmvlies	-12.6163
hyoid	-12.6165
▁lekkage	-12.6167
oude	-12.6175
chi	-12.6178
int	-12.618
▁sc	-12.619
pecifieke	-12.6193
tembandbiopt	-12.6194
amine	-12.6212
profiling	-12.6216
▁car	-12.6226
ik	-12.6232
inus	-12.6239
ilt	-12.6246
▁gecorr	-12.6251
fenotypisch	-12.6255
yocardbiopt	-12.6284
xtra	-12.6297
▁haema	-12.63
▁GA	-12.6304
nadering	-12.6306
▁Herhaling	-12.6313
plaatst	-12.6314
ammaablati	-12.6319
estis	-12.6322
lieren	-12.6341
▁HCC	-12.6347
▁conse	-12.635
▁exclusi	-12.6362
▁periduct	-12.6364
▁bra	-12.6365
nen	-12.638
klierhyperplasie	-12.6382
▁misse	-12.6384
▁mycobacterie	-12.6393
ud	-12.6396
rostaatresectie	-12.6402
filtraat	-12.6404
oint	-12.6405
▁loss	-12.6411
▁uitb	-12.6416
▁vaginal	-12.6417
endocervicale	-12.6417
ratio	-12.6422
poAse	-12.6423
enduidig	-12.6427
cephal	-12.6435
iment	-12.6441
▁Lym	-12.6442
▁vari	-12.6443
▁persisteren	-12.645
arker	-12.645
tolsel	-12.6451
uboptimaal	-12.6451
foo	-12.6452
▁duid	-12.6455
▁dak	-12.6456
▁diagnosi	-12.646
jwj	-12.6461
▁vaatafwijking	-12.6464
▁dubbel	-12.6466
▁bron	-12.6469
soriasis	-12.647
condyl	-12.6471
oxisch	-12.6476
olumepercentage	-12.6476
atiAnt	-12.6476
▁sarcom	-12.6478
cent	-12.6478
▁schimmeldraad	-12.648
igmoAd	-12.6482
▁alge	-12.6483
ystematisch	-12.6484
▁musc	-12.6485
ntvangen	-12.6486
ediaal	-12.6486
irca	-12.6486
elanomenpanel	-12.6486
▁rectumpoliep	-12.6486
ehouden	-12.6486
uscularis	-12.6487
nderliggend	-12.6487
alatum	-12.6487
bonden	-12.6488
gewone	-12.6488
handeling	-12.6488
▁dilat	-12.6488
▁kiembaan	-12.6488
eticuline	-12.6488
▁subglottis	-12.6488
nkno	-12.6489
▁galsteen	-12.6489
▁ruiter	-12.6489
weefselopbrengst	-12.6489
▁balloon	-12.6489
▁Hyperkeratos	-12.6489
▁meningotheli	-12.6489
▁palmaris	-12.6489
eclampsie	-12.6489
ultidisciplinair	-12.6489
▁Coeliakie	-12.6489
▁Hailey	-12.6489
▁accentu	-12.6489
▁bdz	-12.6489
▁breekpunt	-12.6489
▁conflue	-12.6489
▁erysipel	-12.6489
▁exsudati	-12.6489
▁fissuur	-12.6489
▁gebaseerd	-12.6489
▁gecalcificeerd	-12.6489
▁geclusterd	-12.6489
▁geconstateerd	-12.6489
▁geformuleerd	-12.6489
▁gehyaliniseerd	-12.6489
▁implic	-12.6489
▁inflammation	-12.6489
▁necrobiotisch	-12.6489
▁omvormd	-12.6489
▁pedikel	-12.6489
▁pemphigus	-12.6489
▁raadzaam	-12.6489
▁trapeziu	-12.6489
▁wanordelijk	-12.6489
▁abruptio	-12.6489
▁mastoAd	-12.6489
▁overeenkomsten	-12.6489
▁plasmacytoom	-12.6489
▁ileostoma	-12.6489
▁cycline	-12.6489
▁incipiens	-12.6489
▁pedis	-12.6489
▁herkennen	-12.6489
▁acrochordon	-12.6489
▁fiber	-12.6489
▁tertiair	-12.6489
▁cytomorfologie	-12.6489
▁fecal	-12.6489
▁prepatella	-12.6489
▁nauwkeurig	-12.6489
▁nierschors	-12.6489
▁cellulitis	-12.6489
▁deposits	-12.6489
▁kiembaanmutatie	-12.6489
▁lymphoma	-12.6489
▁adenofibroom	-12.6489
▁myxoAd	-12.6489
▁toegevoegd	-12.6489
▁Enterob	-12.6489
▁accreditatie	-12.6489
▁arterietakken	-12.6489
▁glycogeen	-12.6489
▁refractair	-12.6489
▁verhoging	-12.6489
▁msCRC	-12.6489
▁vulvectomie	-12.6489
▁hydrosalpinx	-12.6489
iant	-12.6489
▁bichoriale	-12.6489
▁intralaesiona	-12.6489
▁subungua	-12.6489
▁inframammair	-12.6489
▁specificeren	-12.6489
inhibitie	-12.6489
▁umbilicalis	-12.6489
▁pleuraingroei	-12.6489
▁kalkdeposities	-12.6489
▁paragranuloom	-12.6489
▁schuimcellen	-12.6489
▁hypertroof	-12.649
▁soort	-12.649
asson	-12.649
ower	-12.649
▁melanomen	-12.649
ntstekingspoliep	-12.649
▁paravesica	-12.649
▁normospermie	-12.649
▁Foet	-12.649
▁plaveiepitheel	-12.6491
antitr	-12.6491
▁correct	-12.6491
oprostatectomie	-12.6491
▁fibrosis	-12.6491
▁haemorrhagisch	-12.6491
▁submentaal	-12.6491
kristalurie	-12.6492
▁categori	-12.6492
▁brugvorming	-12.6492
▁Brain	-12.6492
▁bouw	-12.6492
▁Blaaswand	-12.6493
heidsonderzoek	-12.6493
▁myoepitheel	-12.6493
▁fistelvorming	-12.6494
▁longoedeem	-12.6494
▁koper	-12.6495
▁ani	-12.6496
▁profylactisch	-12.6496
▁weefselvolume	-12.6496
eyers	-12.6497
▁granulocytair	-12.6497
▁humora	-12.6498
▁extr	-12.6499
Flowcytometrisch	-12.6501
▁germinal	-12.6501
▁tumorbed	-12.6502
▁ovariumcyste	-12.6502
▁hard	-12.6502
▁venectasie	-12.6503
toevalsbevinding	-12.6504
aagantrumtype	-12.6505
alga	-12.6506
▁longembolieen	-12.6507
▁homogen	-12.6507
▁tegenover	-12.6507
ntogen	-12.6508
Component	-12.6509
▁celtype	-12.6509
erig	-12.6509
▁septisch	-12.651
peritoneaal	-12.6511
▁bioptvolume	-12.6512
cardiaresectie	-12.6512
herhalingsrisico	-12.6513
▁eilandje	-12.6514
ako	-12.6516
staande	-12.6517
peripancreatisch	-12.6517
▁synoviaal	-12.6517
▁pLys	-12.6522
estant	-12.6524
aagmucosa	-12.6527
▁retromola	-12.653
▁ontkalkt	-12.653
▁opstijgend	-12.653
▁Recidief	-12.653
▁afzetting	-12.653
▁verdrongen	-12.653
▁osteosarcoom	-12.6531
▁BerE	-12.6531
▁sample	-12.6535
▁weing	-12.6537
▁rechternier	-12.6537
▁wekedelentumor	-12.6538
▁opruim	-12.6539
▁Ev	-12.654
▁ondersteunend	-12.6541
▁posterolatera	-12.6544
amen	-12.6547
▁vacuolis	-12.6548
celrijk	-12.6553
▁pigmentcel	-12.6564
▁ependymoom	-12.6566
▁Best	-12.6573
▁aangenomen	-12.6578
onisch	-12.658
▁uitgroei	-12.6586
schreven	-12.659
▁immuunfluor	-12.6591
▁vervolgen	-12.6593
▁gezonde	-12.6597
▁Lengte	-12.6599
▁seroom	-12.6603
lende	-12.6603
▁exsudaat	-12.6603
▁pathogeniciteit	-12.6603
▁psoas	-12.6603
▁corne	-12.6604
▁kapseldoorgroei	-12.6604
▁problem	-12.6605
hav	-12.6606
▁Hemi	-12.6607
▁pleiten	-12.6607
phal	-12.6609
▁Grote	-12.6611
▁spongiotisch	-12.6612
▁invasi	-12.6612
▁placentaweefsel	-12.6614
emming	-12.6614
son	-12.6614
red	-12.6621
sgewij	-12.6622
▁Larynx	-12.6623
▁IELs	-12.6629
▁Lies	-12.663
▁kopieen	-12.6636
aneth	-12.6638
▁duur	-12.6642
trof	-12.6645
▁spot	-12.6649
▁geirriteerd	-12.6655
EA	-12.6664
▁FAC	-12.6667
▁Rosen	-12.6679
▁Aangepast	-12.6679
▁Ileocaecaal	-12.6679
▁ECL	-12.6681
ntraepithelial	-12.6685
▁veld	-12.6688
pping	-12.6698
▁studies	-12.6708
neural	-12.6708
tip	-12.6709
begre	-12.6713
oordeel	-12.6714
oli	-12.6718
troof	-12.672
▁spongios	-12.6726
Ade	-12.6733
▁laryngea	-12.6735
architectuur	-12.6745
▁cohesie	-12.675
Hanalyse	-12.6751
▁Eind	-12.6758
depositie	-12.6758
▁gef	-12.6767
Honderzoek	-12.6772
ledig	-12.6774
▁activatie	-12.6776
▁pees	-12.6781
sterkte	-12.6783
ierbiopten	-12.6787
Hier	-12.679
▁prognose	-12.6793
▁noo	-12.6793
angioinvasie	-12.6803
embolieAn	-12.6805
markers	-12.6806
▁ossa	-12.681
▁commissu	-12.6815
▁Angioinvasie	-12.6817
▁pseudomembrane	-12.6825
▁fibros	-12.6859
▁Infectie	-12.6867
▁lipo	-12.689
oot	-12.6905
▁stom	-12.6918
▁genoeg	-12.692
▁staal	-12.6927
ort	-12.693
▁borstel	-12.6936
delC	-12.6939
▁thromb	-12.6942
▁sv	-12.6956
▁stag	-12.6967
ICH	-12.6973
▁exper	-12.6979
▁chip	-12.6984
acht	-12.6988
▁zijden	-12.6994
▁ong	-12.7
and	-12.7013
▁vue	-12.7022
lytische	-12.7041
stoma	-12.7062
cula	-12.7063
lad	-12.707
▁purpuri	-12.7072
▁la	-12.7097
▁Gr	-12.7099
LAR	-12.7102
oogt	-12.7104
Linker	-12.7119
surv	-12.7135
ziekten	-12.714
▁maagovergang	-12.7147
verdikking	-12.7163
▁area	-12.7163
amyloiddepositie	-12.7171
▁abc	-12.7176
ti	-12.7187
ga	-12.7212
▁hemat	-12.7215
ong	-12.7227
▁j	-12.7237
▁verkalkte	-12.7237
kleuringen	-12.724
opoiese	-12.7244
▁ag	-12.7251
▁pericellul	-12.7255
tro	-12.7261
haard	-12.7264
atiek	-12.7271
blasten	-12.7279
▁IIb	-12.7296
bB	-12.7298
zij	-12.7309
gesneden	-12.7311
maxima	-12.7313
infiltr	-12.7327
riaal	-12.7331
▁meet	-12.7354
wortel	-12.7365
Clon	-12.7367
▁fissur	-12.737
bloeding	-12.737
▁menstrue	-12.7372
Afmeting	-12.7375
systeem	-12.7378
grijs	-12.7378
heup	-12.7384
bothi	-12.7386
trauma	-12.7389
buik	-12.739
lumina	-12.739
▁parameters	-12.7391
Barrett	-12.7391
fibroom	-12.7397
fractuur	-12.7397
lobectomie	-12.7398
samen	-12.7398
mediale	-12.7401
naevocellularis	-12.7402
insitu	-12.7402
vlokken	-12.7402
Gr	-12.7402
gegroeid	-12.7402
mucineus	-12.7404
gewenst	-12.7404
diverticulitis	-12.7404
debris	-12.7405
fibroadenoom	-12.7405
Appendectomie	-12.7405
representatief	-12.7405
goed	-12.7405
maken	-12.7405
waarin	-12.7405
FGFR	-12.7406
argumenten	-12.7406
betreft	-12.7406
micronodulair	-12.7407
correlatie	-12.7407
protocol	-12.7408
overwogen	-12.7408
patient	-12.741
lichen	-12.7414
respons	-12.7414
hoog	-12.7416
voorwand	-12.7417
slecht	-12.7417
▁markerings	-12.7417
patienten	-12.7418
overgangstype	-12.7421
chip	-12.7425
doorgroei	-12.7426
▁pil	-12.7429
ruptuur	-12.7434
cytaire	-12.7439
1212	-12.7444
indingen	-12.746
▁leiomyoma	-12.7463
▁hoek	-12.7476
autoimmuunziekte	-12.7478
▁glios	-12.748
atoire	-12.748
klierparenchym	-12.7485
weke	-12.7489
cytologisch	-12.7496
hyperplastische	-12.7537
lok	-12.754
leeve	-12.7543
▁vergroot	-12.7544
▁mo	-12.7544
▁bied	-12.7544
ctocervix	-12.7563
▁ged	-12.7568
igniteit	-12.757
▁cervixcarcinoom	-12.7574
igresectie	-12.758
▁cryptarchitectu	-12.7581
▁steato	-12.7587
▁toest	-12.7598
▁scha	-12.7599
loop	-12.7604
▁samenvatt	-12.7608
vol	-12.7614
▁karakteristieke	-12.7617
isie	-12.7636
plantaat	-12.7636
▁megakaryopo	-12.7651
aspecifiek	-12.7661
ruimt	-12.7666
posit	-12.7667
stof	-12.7692
klinisch	-12.7697
▁normo	-12.77
istof	-12.7702
niti	-12.7706
▁bijbevinding	-12.7712
pla	-12.7737
▁subcutisexcisie	-12.7745
▁chorio	-12.7746
ractie	-12.7749
▁Exp	-12.7768
neden	-12.7775
smo	-12.7779
▁milia	-12.7782
ilateral	-12.7785
▁sup	-12.7789
▁not	-12.7793
iale	-12.7799
▁weefsels	-12.7805
bc	-12.7815
peroxidase	-12.7822
verschijnselen	-12.7828
genome	-12.7829
groeve	-12.7829
iseerd	-12.7832
▁plaat	-12.7837
Consultcoupe	-12.7837
ood	-12.7838
▁mis	-12.7845
ingsstoornissen	-12.7845
▁reserve	-12.7847
histiocytair	-12.7861
ffen	-12.7863
▁ulcera	-12.7865
iep	-12.7874
▁koilocyt	-12.7874
onderd	-12.788
▁neutrofi	-12.7881
chwannoom	-12.7881
ampling	-12.7883
▁haarschacht	-12.7886
▁vind	-12.7894
erruceu	-12.7896
coom	-12.7897
iscre	-12.7899
verdeling	-12.7899
▁thyreo	-12.7901
nduidelijk	-12.7904
▁paravertebra	-12.7904
umorvrij	-12.7905
veneens	-12.7906
reparaat	-12.7906
▁wijzig	-12.7907
uperficie	-12.7908
hv	-12.7909
rofylactisch	-12.7909
▁neoplasm	-12.791
▁Genetic	-12.791
▁epidermotro	-12.7911
lacentabed	-12.7911
▁schimm	-12.7912
vleugel	-12.7912
pongiotische	-12.7912
edebeoordeeld	-12.7913
ornu	-12.7913
robe	-12.7913
epaling	-12.7913
iteinden	-12.7914
mfyse	-12.7914
nderzocht	-12.7914
▁bul	-12.7915
esloten	-12.7915
omegalie	-12.7916
uctie	-12.7916
▁ritmestoornis	-12.7916
verweeg	-12.7916
iffus	-12.7917
▁inflammato	-12.7917
uniculus	-12.7917
▁benig	-12.7917
aureola	-12.7917
▁ernst	-12.7917
eefselstukje	-12.7917
ejunum	-12.7917
canth	-12.7917
esearch	-12.7917
chneideria	-12.7917
ficiAnt	-12.7917
ndri	-12.7917
aposi	-12.7917
klonaal	-12.7917
▁collum	-12.7917
▁complement	-12.7917
Rproficient	-12.7917
fertiliteit	-12.7917
nifix	-12.7917
richofolliculoom	-12.7917
ubreuilh	-12.7917
▁Aangrenzend	-12.7917
▁Agendia	-12.7917
▁Hemangioom	-12.7917
▁Respectievelijk	-12.7917
▁aangehecht	-12.7917
▁acanto	-12.7917
▁atrophy	-12.7917
▁calcaneus	-12.7917
▁cholestatisch	-12.7917
▁dyserytropo	-12.7917
▁epulis	-12.7917
▁exanthemateu	-12.7917
▁extensor	-12.7917
▁gecompliceerd	-12.7917
▁gelukt	-12.7917
▁gepland	-12.7917
▁hospita	-12.7917
▁iatroge	-12.7917
▁isomerism	-12.7917
▁kattenkrab	-12.7917
▁macrofaag	-12.7917
▁macrovesiculair	-12.7917
▁neurinoom	-12.7917
▁oxalaat	-12.7917
▁pattern	-12.7917
▁porfyrie	-12.7917
▁prolactine	-12.7917
▁rekening	-12.7917
▁retromammillair	-12.7917
▁stigmata	-12.7917
▁suggereer	-12.7917
▁xanthelasma	-12.7917
▁Bartonella	-12.7917
▁bullosa	-12.7917
▁change	-12.7917
▁costa	-12.7917
▁diverticulosis	-12.7917
▁gezegd	-12.7917
▁subdura	-12.7917
▁tinea	-12.7917
▁verleng	-12.7917
papillomatotisch	-12.7917
▁astrocytair	-12.7917
▁brokkelig	-12.7917
▁laser	-12.7917
▁sekwester	-12.7917
▁tzt	-12.7917
▁Aspergillus	-12.7917
▁kindsdelen	-12.7917
▁trichoblastoom	-12.7917
▁vermicularis	-12.7917
▁angiomyolipoom	-12.7917
▁lymfocytosis	-12.7917
▁orgaan	-12.7917
▁subdigastrisch	-12.7917
▁retetestis	-12.7917
▁schors	-12.7917
▁perivenulair	-12.7917
iathermisch	-12.7917
▁hormoontherapie	-12.7917
▁reumanodus	-12.7917
▁temporo	-12.7917
▁thrombotisch	-12.7917
▁Burs	-12.7917
▁field	-12.7917
▁individue	-12.7917
▁Lymfomenpanel	-12.7917
ijsnijvlakken	-12.7917
▁halonaevus	-12.7917
▁staplenaad	-12.7917
▁Hun	-12.7917
▁echoarm	-12.7917
▁desmoAd	-12.7917
neuropathie	-12.7917
▁gezocht	-12.7917
▁ventrocaudaal	-12.7917
▁intraossa	-12.7917
▁hippocamp	-12.7917
▁dubbelzijdig	-12.7918
▁posttraumatisch	-12.7918
chamberg	-12.7918
keurig	-12.7918
▁onbetrouwbaar	-12.7918
▁wormen	-12.7918
▁naakt	-12.7918
▁fundusklier	-12.7918
▁synoviosarcoom	-12.7918
▁reactivatie	-12.7918
▁linksversch	-12.7918
▁lipomen	-12.7918
▁geschampt	-12.7918
▁spaarza	-12.7918
▁zeldzame	-12.7918
▁dermalis	-12.7918
▁amyloidosis	-12.7918
▁verwisseld	-12.7918
▁pinealis	-12.7918
▁visceral	-12.7918
▁ultrastructure	-12.7918
▁plasmablastair	-12.7918
▁sediment	-12.7918
▁aplasie	-12.7918
itinib	-12.7918
▁vlokstructuren	-12.7919
▁pijnlijk	-12.7919
▁dermoid	-12.7919
▁leukemisch	-12.7919
ineaire	-12.7919
▁pushing	-12.7919
▁visceralis	-12.7919
▁monoclonaliteit	-12.7919
ella	-12.7919
▁Feitelijk	-12.7919
plugg	-12.7919
▁leiomyoompje	-12.7919
▁verbetering	-12.7919
▁kapselnaevus	-12.7919
▁bullavorming	-12.792
▁gecon	-12.792
▁opsnijding	-12.792
▁merker	-12.792
▁overeenstem	-12.792
troch	-12.792
▁slank	-12.792
▁hypergranulos	-12.7921
▁receptorstatus	-12.7921
▁biopsievolume	-12.7921
interfolliculair	-12.7921
▁rectal	-12.7922
▁intraduraal	-12.7922
▁leeg	-12.7923
▁double	-12.7923
▁weefselstukken	-12.7923
cient	-12.7923
genitale	-12.7923
reuscelgranuloom	-12.7924
▁Endomyocard	-12.7924
▁aggregaat	-12.7924
▁Focus	-12.7925
▁stenoserend	-12.7925
▁nivo	-12.7926
▁Geneesmiddelen	-12.7927
▁carotis	-12.7928
▁restmelanoom	-12.7928
▁daaromheen	-12.7928
▁nonsemino	-12.7928
▁kaakholte	-12.7929
▁Huidcurretage	-12.793
▁cryoglobulinemi	-12.7931
ity	-12.7932
igmoidslijmvlies	-12.7934
▁lymfevat	-12.7934
servatie	-12.7935
▁sputum	-12.7935
▁inzendend	-12.7935
▁universit	-12.7937
▁immuunfenotype	-12.7938
▁linkerheup	-12.7938
▁myelodysplast	-12.7939
egelmatig	-12.7939
mechanismen	-12.794
▁peribronchiaal	-12.7943
▁pityrosporum	-12.7945
▁nodular	-12.7946
▁cardiac	-12.7948
ilinderepitheel	-12.795
astectomie	-12.795
lastische	-12.7951
▁polipectomie	-12.7951
chrom	-12.7952
▁nasolabia	-12.7953
▁linkertuba	-12.7954
▁patella	-12.7954
▁fibrolipomateu	-12.7954
▁mycobacteri	-12.7955
▁bijmilt	-12.7956
uitvloed	-12.7957
▁arteriolen	-12.7958
▁gel	-12.796
▁retentie	-12.796
▁plavei	-12.7961
▁mucinosis	-12.7962
▁echo	-12.7962
apsin	-12.7962
▁cmyc	-12.7962
span	-12.7962
▁klonaliteits	-12.7964
▁thyroiditis	-12.7965
▁Complete	-12.7966
▁apert	-12.7966
▁gescoord	-12.7966
▁sfenoAd	-12.7966
▁endometroAd	-12.7966
▁endothelitis	-12.7966
▁dyskeratotisch	-12.7966
▁ganglioglioom	-12.7966
▁nodosa	-12.7966
▁invasiviteit	-12.7966
▁involvement	-12.7966
▁zuurvormend	-12.7966
▁broek	-12.7966
▁circulair	-12.7966
▁linkerovarium	-12.7966
▁Hurthlecel	-12.7966
▁omringend	-12.7967
▁adenocarcinomen	-12.7968
crescentisch	-12.7968
▁laparoscopisch	-12.7968
▁peesweefsel	-12.7969
▁class	-12.797
▁botfragmenten	-12.797
ypsi	-12.7974
▁clip	-12.7975
▁huis	-12.7977
▁pCys	-12.7979
▁aandoend	-12.798
▁aansluitend	-12.798
▁hidradeno	-12.799
▁gro	-12.799
▁Leydigcel	-12.7991
▁relevantie	-12.7992
▁leiden	-12.7992
▁anorecta	-12.7995
▁ingeleverd	-12.7996
riton	-12.7997
▁lymphocyt	-12.8007
haald	-12.8008
ectasieen	-12.8013
ator	-12.8015
artieel	-12.8022
ubcutisexcisie	-12.8024
▁perirecta	-12.8026
▁lintje	-12.8027
▁pulp	-12.8035
keren	-12.8036
cord	-12.8037
▁blaasresectie	-12.8043
▁verb	-12.8049
▁snelle	-12.8049
▁Cribriform	-12.8051
▁inguinal	-12.8052
scentieonderzoek	-12.8061
ritmestoornissen	-12.8063
▁Amplificatie	-12.8071
▁poliepvorming	-12.8071
▁substantie	-12.808
ru	-12.8082
▁irritatieve	-12.8085
sten	-12.8087
immuundeposities	-12.8093
▁Receptor	-12.8111
▁leesbaar	-12.8115
▁papeltje	-12.8117
▁mesorecta	-12.812
▁testen	-12.8134
▁Anal	-12.8135
▁bronch	-12.8138
▁hematomorfologi	-12.814
ransplantaatnier	-12.8152
ocyten	-12.8155
▁gede	-12.8159
etweefsel	-12.8163
▁postmorta	-12.8164
▁heterolo	-12.8168
hepatisch	-12.8173
▁infiltr	-12.8174
▁bodembiopt	-12.8176
matie	-12.8177
▁Anusslijmvlies	-12.8177
▁orienteren	-12.8179
▁glute	-12.8183
oscopie	-12.8188
▁erupti	-12.8191
▁tubaovarie	-12.8196
correleer	-12.8199
lymfklierstation	-12.82
derzijds	-12.8201
▁gleason	-12.8203
▁hoeveel	-12.8208
▁Ruim	-12.8217
▁afgerond	-12.8218
▁pin	-12.822
penie	-12.8221
▁metaplasi	-12.8222
▁capsul	-12.8225
ceratie	-12.8225
▁afvoergang	-12.8225
lue	-12.8231
▁oncologie	-12.8235
▁dystrofie	-12.8244
▁neutrofiel	-12.8245
lymfocytaire	-12.8251
onsil	-12.8252
▁autoly	-12.8255
lacentaparenchym	-12.8264
ppen	-12.8266
▁malformati	-12.8268
▁delenresectie	-12.8269
ysplastische	-12.8275
▁proliferati	-12.8281
▁lengt	-12.8282
▁cryoglobuline	-12.8285
▁pijn	-12.8289
rologie	-12.8292
blaas	-12.8297
bed	-12.83
bundels	-12.83
cer	-12.8301
▁producerend	-12.8318
kers	-12.8325
▁file	-12.8329
▁chondro	-12.8339
▁heden	-12.8348
ovarie	-12.8349
▁paar	-12.8358
rk	-12.8359
▁RAI	-12.8361
nie	-12.8368
▁parabasa	-12.8371
nodal	-12.8372
▁tt	-12.8376
urine	-12.8381
▁sco	-12.8383
▁jarig	-12.8408
ui	-12.842
▁ureteren	-12.844
evestiging	-12.8442
▁inclusies	-12.8448
yelum	-12.8463
▁Cav	-12.8468
▁adenomat	-12.8471
resectieranden	-12.8471
▁allergi	-12.8472
▁local	-12.8476
schatt	-12.848
oth	-12.8481
tase	-12.8485
rige	-12.85
▁wortel	-12.8502
▁chromosome	-12.8504
▁periora	-12.8505
▁dunnedarmtype	-12.8511
Al	-12.8514
▁lingual	-12.853
▁resectiemarge	-12.8539
HR	-12.8542
ukocytoclastisch	-12.8547
matige	-12.8575
polym	-12.8578
▁ob	-12.8586
▁colonresectie	-12.8586
iaal	-12.8589
mon	-12.8592
▁coiling	-12.8595
omateus	-12.8608
off	-12.8617
mis	-12.8618
marges	-12.8642
ri	-12.8644
▁papule	-12.8651
▁monocytaire	-12.8661
stiek	-12.8661
einde	-12.8666
▁hemi	-12.8667
▁vor	-12.8674
formulier	-12.8679
ping	-12.8702
gesproken	-12.8702
axillair	-12.8716
zekerheid	-12.8721
▁liggend	-12.8734
▁residua	-12.8738
▁levermetastase	-12.8746
nende	-12.8758
zo	-12.8766
▁enter	-12.8766
cysten	-12.8767
▁bilatera	-12.8768
zeker	-12.8776
jugul	-12.8786
▁tubulusepitheel	-12.8793
ibroom	-12.8793
odont	-12.8811
IAA	-12.8811
arrettoesophagus	-12.8811
strijkpreparaten	-12.8816
iatie	-12.882
▁cilinders	-12.8832
cortica	-12.8854
LAE	-12.8872
rain	-12.8876
dermis	-12.8879
▁IIB	-12.8884
pi	-12.8899
ijns	-12.8899
▁doorvoer	-12.8899
▁aanv	-12.8902
vlies	-12.8903
isme	-12.8924
▁Cho	-12.8925
sduur	-12.8941
▁granulaircel	-12.8957
▁crust	-12.8964
rin	-12.8967
▁Hi	-12.8968
oorst	-12.8972
risatie	-12.8973
▁verschuiving	-12.8977
situ	-12.8979
anknopingspunten	-12.898
▁kwa	-12.8993
manchet	-12.8995
prostatisch	-12.8998
steunt	-12.9003
▁latero	-12.9003
▁fimbrie	-12.9006
haarden	-12.9007
oscopisch	-12.901
ical	-12.9011
kenmerk	-12.9016
oppervlak	-12.9018
transversum	-12.9018
▁ru	-12.9019
villus	-12.9024
artefact	-12.9033
put	-12.9035
arbo	-12.9038
plaats	-12.904
▁bundel	-12.9044
▁cranio	-12.9046
verandering	-12.9047
duodenum	-12.905
instabiel	-12.9052
cytoplasmatisch	-12.9054
uiteinde	-12.9054
stapeling	-12.9056
vezel	-12.9057
obstructie	-12.906
staal	-12.9062
Lymfocytose	-12.9062
ejaculaat	-12.9063
discordant	-12.9065
Beperkt	-12.9067
betrokkenheid	-12.9067
Celarm	-12.9068
recidiverend	-12.9069
Lumpectomie	-12.9069
beenmerg	-12.9069
disease	-12.9069
borderline	-12.9069
reuscellen	-12.907
▁mi	-12.9071
uitgesloten	-12.9071
onderooglid	-12.9071
respectievelijk	-12.9071
correleren	-12.9072
verricht	-12.9072
inkt	-12.9072
kliniek	-12.9073
verdacht	-12.9074
Enkel	-12.9075
IgG	-12.9077
Congorood	-12.9078
uitspraak	-12.9079
somie	-12.9084
passen	-12.9085
mut	-12.9096
toxicodermie	-12.9096
wit	-12.9098
tumorcellen	-12.9101
pre	-12.9104
ntrale	-12.9106
antrum	-12.9107
ware	-12.9108
onsilbiopt	-12.9113
stans	-12.9118
meerder	-12.9122
▁rondkernige	-12.9123
secretoir	-12.9131
Reexcisie	-12.916
ylindercelatypie	-12.9164
ronchusspoeling	-12.9165
myelo	-12.9172
small	-12.9183
▁Graa	-12.9183
omo	-12.9189
derhalve	-12.9191
emia	-12.9192
sterke	-12.9197
tepel	-12.92
steek	-12.9205
tief	-12.9206
eccrien	-12.9214
hemicol	-12.9216
ERAL	-12.9221
adenomateu	-12.9227
Cytologi	-12.9232
▁cap	-12.9234
oo	-12.9252
oring	-12.9258
mondho	-12.9261
nster	-12.9262
▁nierbiopsie	-12.9265
cortical	-12.9267
▁kerato	-12.9276
▁atro	-12.9277
▁veno	-12.9279
effecten	-12.9286
▁geg	-12.9292
▁syndrome	-12.9294
bkb	-12.931
▁faeca	-12.9311
tr	-12.9312
Lab	-12.9315
▁pseudodecidua	-12.9316
▁bloedings	-12.9329
wart	-12.933
ab	-12.9332
lijkt	-12.9335
gegevens	-12.9335
ci	-12.934
thal	-12.9345
ifferentiee	-12.9352
pylorisch	-12.9356
▁nest	-12.9356
teerde	-12.9375
▁mucino	-12.9378
▁Arg	-12.9385
lesie	-12.9412
▁periappendic	-12.9419
papillary	-12.9424
ieve	-12.943
▁chil	-12.9438
▁intramucosa	-12.9448
▁blaascarcinoom	-12.9459
sion	-12.946
▁kale	-12.9465
uig	-12.9466
papillaire	-12.9466
▁geh	-12.947
pericard	-12.9479
▁ortho	-12.9479
▁obturator	-12.948
geleverd	-12.9486
itieve	-12.9488
▁cryptabces	-12.949
ussen	-12.9492
treden	-12.9495
▁Leydig	-12.9498
osa	-12.9499
▁smal	-12.9499
▁omentumbiopt	-12.95
emihepatectomie	-12.9501
maturiteit	-12.9501
▁Endometriose	-12.9503
Immunocytochemi	-12.9504
ocalis	-12.951
muller	-12.951
egment	-12.9513
omen	-12.9519
▁redelijke	-12.952
pididymis	-12.9522
uurt	-12.9522
bp	-12.9527
dragend	-12.9528
eratie	-12.9529
▁dermo	-12.9533
craniaal	-12.9535
pper	-12.9541
decidualisatie	-12.9544
ction	-12.9546
ertolicel	-12.9549
▁angiomato	-12.955
▁behoren	-12.9551
erlies	-12.9551
lijm	-12.9551
ectasie	-12.9553
▁ontkalking	-12.9553
▁overeenkom	-12.9554
▁micropapillaire	-12.9555
estisbiopt	-12.9555
▁Langerhanscel	-12.9556
▁glan	-12.9556
▁beantwoord	-12.9558
ff	-12.9558
▁progestage	-12.9559
▁argument	-12.956
▁proce	-12.956
▁RAF	-12.9561
▁intraparenchyma	-12.9567
athologisch	-12.9571
atroon	-12.9571
▁maand	-12.9571
plasie	-12.9573
▁syn	-12.9573
▁positie	-12.9574
▁resistent	-12.9574
ositieve	-12.9574
▁spermatozo	-12.9575
▁semi	-12.9575
ityrosporon	-12.9575
▁cystosco	-12.9576
ind	-12.9576
atheter	-12.9576
rominent	-12.9576
utane	-12.9578
oorgemaakte	-12.9578
oliepeus	-12.9578
permatozoa	-12.9579
arcoidose	-12.9579
upra	-12.9579
lierstation	-12.9579
▁alveol	-12.9579
ategori	-12.9579
edicamenteus	-12.958
ypercellulair	-12.958
▁antisto	-12.958
▁techn	-12.958
icronodulair	-12.958
ransbronchia	-12.958
lagig	-12.9581
angentieel	-12.9581
ntstoken	-12.9581
icrokalk	-12.9581
inuscu	-12.9581
▁Herhal	-12.9581
▁subco	-12.9581
vertuigend	-12.9582
▁link	-12.9582
▁waa	-12.9582
ubulairadenoom	-12.9582
▁pancreatic	-12.9582
▁torsi	-12.9582
fgedraaid	-12.9582
ichtst	-12.9583
oldoe	-12.9583
eratoacanthoom	-12.9583
asofarynx	-12.9583
irect	-12.9583
▁colloAd	-12.9583
mamilla	-12.9583
▁krab	-12.9584
▁milj	-12.9584
▁pauci	-12.9584
▁Color	-12.9584
lactatie	-12.9584
▁accreta	-12.9584
▁atrophicus	-12.9584
▁medicijn	-12.9584
▁onychomycose	-12.9584
▁parasitose	-12.9584
▁vaststellen	-12.9584
Gedilateerd	-12.9584
abdomyoblastair	-12.9584
amengevat	-12.9584
inistra	-12.9584
podermatoscleros	-12.9584
▁Amyloid	-12.9584
▁Ganglion	-12.9584
▁Hematurie	-12.9584
▁Hypofyse	-12.9584
▁afgeplat	-12.9584
▁angiolipomen	-12.9584
▁angiomyxoom	-12.9584
▁annulaire	-12.9584
▁antifosfolipide	-12.9584
▁aortitis	-12.9584
▁baby	-12.9584
▁benoemen	-12.9584
▁chordoom	-12.9584
▁cytometrie	-12.9584
▁deciduitis	-12.9584
▁dyskeratoom	-12.9584
▁endosalpingiose	-12.9584
▁eosinophili	-12.9584
▁fecoliet	-12.9584
▁fulminant	-12.9584
▁geinvolueerd	-12.9584
▁gelobuleerd	-12.9584
▁geprik	-12.9584
▁getransformeerd	-12.9584
▁hormonen	-12.9584
▁hypoechoge	-12.9584
▁hysteroscopisch	-12.9584
▁megaloblast	-12.9584
▁melanofagocytos	-12.9584
▁mononucleair	-12.9584
▁multiloculair	-12.9584
▁pemphigoAd	-12.9584
▁pilomatricoom	-12.9584
▁plasmocellulair	-12.9584
▁preAxistent	-12.9584
▁reversibel	-12.9584
▁stress	-12.9584
▁surfac	-12.9584
▁toegepast	-12.9584
▁vellushaar	-12.9584
itraalklep	-12.9584
▁Array	-12.9584
▁betacatenin	-12.9584
▁nasopharynx	-12.9584
▁parieto	-12.9584
▁Radika	-12.9584
▁material	-12.9584
▁paraproteine	-12.9584
vascular	-12.9584
▁hypopigmentatie	-12.9584
▁adenocarcinooom	-12.9584
▁bolvormig	-12.9584
▁stroomgebied	-12.9584
▁semenmonster	-12.9584
▁BHband	-12.9584
▁autorisatie	-12.9584
▁omvang	-12.9584
▁slijmmeren	-12.9584
egher	-12.9584
ncytiotrofoblast	-12.9584
▁polyklonaal	-12.9584
▁dysfunctione	-12.9584
▁amenor	-12.9584
▁zonbeschadiging	-12.9584
▁verzocht	-12.9584
ertheim	-12.9584
▁afgewerkt	-12.9584
▁tubulusschade	-12.9584
▁harttamponade	-12.9584
▁zenuwtakken	-12.9584
▁cancerisatie	-12.9584
▁empyeem	-12.9584
▁fibromyxo	-12.9584
▁klepblad	-12.9584
▁zorg	-12.9584
▁asbest	-12.9584
▁hemofagocyt	-12.9584
arheidsinterval	-12.9584
▁sclerosis	-12.9584
woeker	-12.9584
▁afwisselend	-12.9584
▁triploid	-12.9584
▁historie	-12.9584
▁astma	-12.9584
▁seriesnede	-12.9584
▁vatinvasie	-12.9584
▁hartkleppen	-12.9584
eutz	-12.9584
▁report	-12.9584
▁trilhaar	-12.9584
Glaasje	-12.9584
▁fibroelastose	-12.9584
▁zijsneerand	-12.9584
▁oorsprong	-12.9584
Genotypering	-12.9585
▁nasopalatinus	-12.9585
▁callus	-12.9585
▁zelflimiterend	-12.9585
▁asymmetrisch	-12.9585
▁break	-12.9585
llips	-12.9585
▁galganglijden	-12.9585
▁verkeerd	-12.9585
▁overweeg	-12.9585
▁toenem	-12.9585
▁heterotopi	-12.9585
▁Borg	-12.9585
▁neuroma	-12.9585
LLCLL	-12.9585
▁kno	-12.9585
▁afgedraaid	-12.9585
▁mislukt	-12.9585
▁seroomholte	-12.9585
▁pagetoid	-12.9585
letz	-12.9585
▁fibroompje	-12.9585
▁burs	-12.9585
stukken	-12.9585
▁hoort	-12.9585
▁seniel	-12.9585
▁splen	-12.9585
▁chorangiose	-12.9585
▁potential	-12.9586
▁bont	-12.9586
cellonly	-12.9586
ijsnijranden	-12.9586
▁ingedikt	-12.9586
▁asthenospermie	-12.9586
▁homo	-12.9586
▁pharynx	-12.9586
alfa	-12.9586
▁extrathyreoid	-12.9586
▁epitheli	-12.9586
curretage	-12.9587
▁hemangioompje	-12.9587
ngemarkeerd	-12.9587
▁barrett	-12.9587
figuren	-12.9587
EGFRBRAF	-12.9587
▁lepr	-12.9588
stromacelsarcoom	-12.9588
vergang	-12.9588
▁prefibrotisch	-12.9588
anter	-12.9588
▁elder	-12.9588
▁gehouden	-12.9588
▁dij	-12.9588
▁adenoAd	-12.9588
▁poliepskintag	-12.9588
iforme	-12.9589
▁Cystebeeld	-12.9589
epithelioAd	-12.9589
▁pAsn	-12.9589
erota	-12.9589
sieke	-12.9589
▁postero	-12.959
▁nierziekte	-12.959
eAmpetiginiseerd	-12.9591
▁nood	-12.9591
▁extremiteiten	-12.9591
▁progr	-12.9591
▁zonelymfoom	-12.9591
▁ingu	-12.9591
phic	-12.9592
ityriasi	-12.9592
▁zenuwtakjes	-12.9592
▁Bo	-12.9592
▁tubahoek	-12.9593
lacentarest	-12.9593
▁hoornplug	-12.9593
▁radius	-12.9593
avage	-12.9594
dermatopatholoog	-12.9594
matig	-12.9595
▁bif	-12.9595
▁duiding	-12.9595
▁monochoria	-12.9595
▁ovarii	-12.9596
cavitair	-12.9596
Inzending	-12.9596
diment	-12.9596
▁glandularis	-12.9596
▁topklier	-12.9597
▁brisk	-12.9597
▁Ba	-12.9597
▁aneurysmatisch	-12.9597
▁transbronchia	-12.9597
▁huidpunten	-12.9601
▁disseminat	-12.9601
ney	-12.9602
aarom	-12.9603
▁chromosomen	-12.9604
▁word	-12.9604
pan	-12.9604
▁combinatiebeeld	-12.9604
▁randsinus	-12.9609
▁Bulle	-12.9609
▁beantwoorden	-12.961
▁mijten	-12.961
onor	-12.9611
ilde	-12.9614
▁plaveis	-12.9614
▁spitz	-12.9615
▁lymklier	-12.9615
▁aut	-12.9617
moAd	-12.9619
▁endomyocard	-12.9619
uitmonding	-12.9619
ioom	-12.962
prostaatbiopten	-12.962
▁linkeradnex	-12.9621
▁strookje	-12.9622
▁dog	-12.9623
mediastinoscopie	-12.9623
▁pHis	-12.9624
▁mijt	-12.9624
▁dominantie	-12.963
▁begren	-12.963
▁verkleuring	-12.963
cavaal	-12.963
▁brugvorm	-12.9632
▁aggregaatje	-12.9633
tweelingplacenta	-12.9639
Light	-12.964
▁Folliculitis	-12.9642
▁repet	-12.9642
▁Etiologie	-12.9642
▁choroid	-12.9642
▁geactiveerd	-12.9642
▁scabiAs	-12.9642
▁Radiologisch	-12.9642
▁villusatrofie	-12.9642
▁uitgestreken	-12.9642
▁BloomRichardson	-12.9642
▁knobbel	-12.9642
▁manifestatie	-12.9642
▁katheter	-12.9642
▁voorloper	-12.9642
▁mastitis	-12.9643
▁longemfyseem	-12.9643
▁melanocytoom	-12.9643
▁glomangioom	-12.9643
▁verwisseling	-12.9643
▁overgenomen	-12.9643
▁my	-12.9643
▁zona	-12.9644
▁vallecula	-12.9645
▁herstel	-12.9648
▁scheen	-12.9649
▁zoster	-12.9649
▁scler	-12.9649
▁zenuwbundels	-12.9651
▁opties	-12.9653
▁uitlopertje	-12.9654
▁hieromtrent	-12.9657
latum	-12.9658
▁kinder	-12.9658
▁retrospectie	-12.9658
▁intrahepatisch	-12.9658
ternoclaviculair	-12.9662
▁kwantitatie	-12.9666
stasisdermatitis	-12.9666
▁clo	-12.9675
▁leid	-12.9675
▁pancreasweefsel	-12.9677
factoren	-12.9679
▁erythropoe	-12.9679
▁sarcomateu	-12.9682
▁tumorhaard	-12.9682
▁zetten	-12.9685
▁vaatwanden	-12.9686
▁fibrillair	-12.9688
▁vesikels	-12.9688
reak	-12.9693
mmunotypering	-12.9695
bjz	-12.9697
bry	-12.9698
▁cavernosu	-12.9698
tage	-12.9699
▁Colonbiopsie	-12.9704
tomie	-12.9705
matopatholoog	-12.9708
ck	-12.9711
emd	-12.972
▁lympho	-12.9726
▁gewrichts	-12.9727
impel	-12.9741
▁lymfocyt	-12.9743
pider	-12.9743
▁secreet	-12.9744
▁femoralis	-12.9745
▁debul	-12.9745
▁verka	-12.9748
▁aortocava	-12.975
▁polycythemi	-12.9759
▁endoresectie	-12.9762
▁factor	-12.9763
▁daarop	-12.9769
▁fascia	-12.9769
acuu	-12.977
▁papill	-12.9772
ruimingsreactie	-12.9775
▁will	-12.9783
▁cervixuitstrijk	-12.9784
bu	-12.9784
form	-12.979
▁ileocol	-12.9795
▁weefselverband	-12.9796
▁Anastomose	-12.9799
vage	-12.9802
mutatieanalyse	-12.9803
BAL	-12.9803
Laag	-12.981
▁gb	-12.9817
▁adn	-12.982
satellietlaesies	-12.9822
ival	-12.9834
▁expositie	-12.985
▁Auramine	-12.985
▁Extranoda	-12.9852
heden	-12.9853
▁oesophagea	-12.9853
▁papilloompje	-12.9856
▁tumormetastase	-12.9861
▁parietaalcel	-12.9866
enom	-12.9866
metabol	-12.9868
▁dermat	-12.9875
REA	-12.9889
Aanvull	-12.9897
ming	-12.99
nfectieuze	-12.9904
▁rim	-12.9905
capillaire	-12.9906
▁aortacava	-12.991
ios	-12.992
▁behandelings	-12.9922
▁caus	-12.993
▁coxart	-12.9935
▁rectu	-12.9943
▁dichts	-12.9949
▁aanvoe	-12.9951
▁faciale	-12.9954
▁parenchymateus	-12.9954
▁irregularit	-12.9957
defini	-12.9966
▁zwaar	-12.9967
▁thromboemboli	-12.9971
irale	-12.9972
appendiculair	-12.9983
Ras	-12.9987
acurettage	-12.9992
▁paracava	-12.9996
▁ner	-12.9999
▁fibroblast	-13.0013
▁splice	-13.0015
▁Lu	-13.0018
mer	-13.0019
Axcisie	-13.0021
▁nummula	-13.0024
▁plex	-13.0025
▁perineu	-13.0028
▁Glu	-13.0034
▁immuunkleuring	-13.0057
acte	-13.0063
▁Epicrise	-13.0066
▁syndroma	-13.007
▁perichondri	-13.0073
iner	-13.0076
▁Immuuncytochemi	-13.0104
bls	-13.0108
tuba	-13.0114
▁letsels	-13.013
▁kenmerk	-13.0133
▁bevinden	-13.0133
ativiteit	-13.0134
beet	-13.0151
▁cardio	-13.0167
▁thyroid	-13.0174
▁villus	-13.0177
duct	-13.018
▁wit	-13.0181
▁sta	-13.0188
▁piece	-13.0193
▁perioral	-13.0203
▁tumortype	-13.0204
▁superficial	-13.0208
vloed	-13.0219
▁aankleurings	-13.0225
xtramura	-13.0236
▁spitzoid	-13.0243
▁biliair	-13.0253
▁ui	-13.0253
▁miniatu	-13.0255
ass	-13.0256
▁lin	-13.0256
▁plantaire	-13.0259
▁indefinit	-13.0269
▁Cer	-13.0274
cyst	-13.0277
▁kracht	-13.0286
oren	-13.0292
ida	-13.0297
▁Lymfocyt	-13.0304
aris	-13.0309
ogen	-13.0311
dnexextirpatie	-13.0328
▁epithelial	-13.0331
gel	-13.0332
ding	-13.0334
▁lopen	-13.0354
▁muc	-13.0354
▁grad	-13.036
▁hyoid	-13.0361
lo	-13.0361
▁fat	-13.0362
draad	-13.0363
ERG	-13.0364
uscelarteriitis	-13.0368
▁epithelioma	-13.0383
ondbodem	-13.0387
granuloma	-13.0391
poliepjes	-13.0403
pon	-13.0416
az	-13.0428
▁cou	-13.0429
ystewand	-13.0432
adnextumor	-13.0436
iernaaldbiopt	-13.0438
▁abcederend	-13.0457
long	-13.0466
regiona	-13.0479
▁huiduiteinde	-13.0479
lig	-13.048
▁myxopapilla	-13.0489
culair	-13.0506
steen	-13.051
gi	-13.0517
orme	-13.052
nierbiopt	-13.0521
kort	-13.0567
mbiopten	-13.057
ewicht	-13.0575
assen	-13.0578
ysis	-13.0579
tent	-13.058
opoese	-13.0588
▁event	-13.059
▁reacti	-13.0592
▁littekens	-13.0594
anaal	-13.0599
▁nierfunctie	-13.06
▁Adenomateu	-13.0605
mid	-13.0609
▁ulcerati	-13.0613
blastoom	-13.0621
▁spi	-13.0622
Bronchusspoel	-13.0627
entaal	-13.063
▁collectie	-13.063
Cervixslijmvlies	-13.0632
▁gastr	-13.0648
plet	-13.0649
ortawand	-13.0655
▁granulomatos	-13.0656
BIR	-13.067
pste	-13.0671
nog	-13.0671
▁cellymfoom	-13.0697
cysteus	-13.0699
▁bb	-13.0708
laesies	-13.0735
▁sinusoid	-13.0756
▁lb	-13.0759
▁form	-13.0771
▁mitochondri	-13.0801
▁eczema	-13.0807
oll	-13.0871
invloed	-13.0872
▁IIIII	-13.0883
▁chemo	-13.0894
▁ontbrekend	-13.0926
▁schaa	-13.0941
flardje	-13.0944
pier	-13.0967
Hart	-13.0975
▁pasen	-13.0989
rectaal	-13.099
hechting	-13.0994
Herceptest	-13.0996
sbeeld	-13.0997
▁rea	-13.0997
nodus	-13.1011
ymo	-13.1012
ostatisch	-13.1013
insufficiAntie	-13.1014
otomie	-13.1014
behoud	-13.1019
epithelia	-13.1021
band	-13.1023
schilfer	-13.1024
Epicrise	-13.1025
▁uitgebreider	-13.1027
system	-13.1032
marker	-13.1033
producerend	-13.1033
genetisch	-13.1033
inclusies	-13.1033
lang	-13.1036
biliaire	-13.1047
▁Excisierand	-13.105
clonaliteits	-13.1053
schildklier	-13.1054
opper	-13.1055
Lymfeklierbiopt	-13.1055
ophoping	-13.1056
comedo	-13.1058
geinduceerd	-13.106
tubulusatrofie	-13.106
nodi	-13.1061
blaar	-13.1061
hamartoom	-13.1062
Hersen	-13.1063
negatie	-13.1063
chondrosarcoom	-13.1063
instabiliteit	-13.1064
clusters	-13.1065
fibrotisch	-13.1065
genetica	-13.1066
geamplificeerd	-13.1066
penis	-13.1066
hoorn	-13.1067
complex	-13.1067
beide	-13.1067
divertikel	-13.1067
rood	-13.1067
High	-13.1067
diafragma	-13.1068
amplificatie	-13.1069
reuscel	-13.1069
Gefragmenteerd	-13.1069
detecteert	-13.1069
middermaal	-13.1069
fistel	-13.107
uitrijping	-13.107
cellulariteit	-13.107
buiten	-13.107
positiviteit	-13.107
reikt	-13.1071
Appendix	-13.1071
nagel	-13.1071
pneumonie	-13.1071
Cristabiopt	-13.1071
concordant	-13.1072
spoel	-13.1072
blue	-13.1073
gekend	-13.1073
histiocytoom	-13.1073
cho	-13.1073
uitgesproken	-13.1073
ascendens	-13.1074
nietkleincellig	-13.1074
pLeu	-13.1074
beschadiging	-13.1075
macroscopisch	-13.1076
glomeruli	-13.1077
thoraxwand	-13.1082
multipel	-13.1083
gradering	-13.1084
bovenrug	-13.1084
coupe	-13.1084
▁numm	-13.1085
papillair	-13.1088
▁longembolie	-13.1091
culum	-13.1092
extern	-13.1094
doch	-13.1094
Corpus	-13.1097
Huidresectie	-13.1105
linker	-13.1105
ndle	-13.1105
colonslijmvlies	-13.1107
vagina	-13.1108
BRCA	-13.1109
▁cre	-13.1116
▁tuber	-13.1117
Gly	-13.1119
abc	-13.1121
zenden	-13.1123
▁villo	-13.1128
maagslijmvlies	-13.113
vi	-13.1132
▁Levernaald	-13.1133
signaal	-13.1136
▁ulcer	-13.114
▁neuropathologi	-13.1141
▁bekkenk	-13.1144
▁glutea	-13.1144
acute	-13.1153
cover	-13.1154
▁cal	-13.1166
▁cy	-13.117
lij	-13.117
Hoe	-13.1171
acuumbiopt	-13.1181
rietal	-13.1186
Bcellymfoom	-13.1187
pylori	-13.119
▁medial	-13.1196
alveolair	-13.1214
extracapillair	-13.1217
dieper	-13.1218
En	-13.122
Regiona	-13.1233
tweede	-13.1244
benigne	-13.1251
eosinofilie	-13.1251
fibrille	-13.1257
arre	-13.1269
strengen	-13.1278
▁ho	-13.1279
geven	-13.128
▁mar	-13.1281
mbs	-13.1288
▁bc	-13.1306
function	-13.1307
▁wijze	-13.1309
▁leuko	-13.1318
▁plaatste	-13.1324
element	-13.1326
▁hemicol	-13.133
achter	-13.1333
vesica	-13.1339
▁gest	-13.1346
▁all	-13.1346
lveolair	-13.1348
itt	-13.1351
▁necro	-13.1353
slechts	-13.1353
nm	-13.1354
▁opruiming	-13.1362
aten	-13.1369
ducti	-13.1376
blad	-13.1376
stin	-13.1377
▁halve	-13.1392
euro	-13.1394
mutaties	-13.1396
testis	-13.1397
onvoldoend	-13.1409
xanthoma	-13.1413
▁zitten	-13.1415
lasi	-13.1416
▁Huidre	-13.1426
▁diff	-13.1428
▁Hypertrof	-13.1432
▁levercel	-13.1433
▁lobu	-13.1436
▁darmsnijvlak	-13.1441
hronische	-13.1444
▁enzym	-13.1453
aspiraat	-13.1459
usies	-13.1459
zaam	-13.146
ijk	-13.146
wigexcisie	-13.1467
▁histiocyt	-13.1469
▁sella	-13.1472
▁laborator	-13.1479
eversegment	-13.1481
hal	-13.1481
▁arterietak	-13.1481
▁ilio	-13.1485
▁slokdarmmaag	-13.1489
▁fout	-13.1491
▁medio	-13.1491
▁laryng	-13.1493
▁retrospect	-13.1494
ylinderepitheel	-13.1498
▁mono	-13.1502
raal	-13.1506
model	-13.1513
▁polyoma	-13.1513
parakeratose	-13.1515
▁sterker	-13.1516
weelingplacenta	-13.1517
▁veroorzaken	-13.1527
ijranden	-13.1532
Blok	-13.1533
ediastinoscopie	-13.1536
▁berust	-13.1537
▁vaginabiopt	-13.1541
▁Reflux	-13.1542
synon	-13.1542
olitair	-13.1545
lierdissectie	-13.1545
▁centro	-13.1548
tabiel	-13.155
▁angioma	-13.1551
icrosatelliet	-13.1553
ntstekingsrest	-13.1553
▁wissel	-13.1553
▁melanocyt	-13.1554
▁oestroge	-13.1555
▁mutation	-13.1556
icrosatellieten	-13.1557
orde	-13.1559
▁sneerand	-13.1559
▁gebracht	-13.1564
▁reticulo	-13.1565
ebruikt	-13.1565
▁vervet	-13.1567
▁sac	-13.1568
horaxwand	-13.1568
celkernen	-13.1568
oegenomen	-13.1569
ericard	-13.1569
imensi	-13.1569
▁congenita	-13.157
aagcorpusbiopt	-13.1571
▁rech	-13.1575
hul	-13.1575
uni	-13.1575
anitumumab	-13.1576
arcoma	-13.1576
ilindrisch	-13.1577
▁resect	-13.1577
scopische	-13.1577
▁vermelden	-13.1577
▁infundibul	-13.1578
upravagina	-13.1578
esothelioom	-13.1578
ultifocaal	-13.1579
essiel	-13.1579
▁intermedi	-13.1579
yperplasie	-13.1579
▁hematopoe	-13.158
ility	-13.158
eassocieerde	-13.158
arametri	-13.158
rticaria	-13.158
emodificeerd	-13.1581
oelichting	-13.1581
elanomen	-13.1581
vonden	-13.1581
▁aanknoping	-13.1581
kni	-13.1582
ntermediate	-13.1582
acea	-13.1582
ocrien	-13.1583
oodsoorzaak	-13.1583
eldzame	-13.1583
mplicaties	-13.1583
iselcelcarcinoom	-13.1583
entigineu	-13.1583
▁transplant	-13.1583
gulatie	-13.1583
▁Hormo	-13.1583
wisseld	-13.1583
ssificerend	-13.1584
▁intravas	-13.1584
ratervormige	-13.1584
dition	-13.1584
spectie	-13.1584
pulatie	-13.1584
▁doublehit	-13.1584
▁stikstof	-13.1584
rhoeduur	-13.1584
▁wimper	-13.1584
▁autoriseren	-13.1584
▁haarinplant	-13.1584
▁laparotomie	-13.1584
▁postinfectieus	-13.1584
arfan	-13.1584
asaoka	-13.1584
dactyli	-13.1584
plasmacelmyeloom	-13.1584
plasmocellularis	-13.1584
rechterventrikel	-13.1584
▁Aanduiding	-13.1584
▁Alzheimer	-13.1584
▁Brokkelig	-13.1584
▁Galweg	-13.1584
▁HaileyHailey	-13.1584
▁Iliaca	-13.1584
▁Intrauterien	-13.1584
▁Linear	-13.1584
▁amalgaam	-13.1584
▁arthropode	-13.1584
▁beweeglijk	-13.1584
▁consolidatie	-13.1584
▁cryotherapie	-13.1584
▁cytolyt	-13.1584
▁ductulolobulair	-13.1584
▁dyskeratoma	-13.1584
▁elastinevezels	-13.1584
▁evidence	-13.1584
▁falciform	-13.1584
▁fibroosse	-13.1584
▁gefuseerd	-13.1584
▁gelijkaardig	-13.1584
▁geopereerd	-13.1584
▁hersenstam	-13.1584
▁hydatidosa	-13.1584
▁indeterminate	-13.1584
▁intercosta	-13.1584
▁invaginerend	-13.1584
▁kraakbenig	-13.1584
▁leishmaniasis	-13.1584
▁lymfomonocytose	-13.1584
▁melkgang	-13.1584
▁mellitus	-13.1584
▁mesiotempora	-13.1584
▁ombouw	-13.1584
▁oranje	-13.1584
▁parauretra	-13.1584
▁peroneus	-13.1584
▁phylloides	-13.1584
▁plotseling	-13.1584
▁polyethyleen	-13.1584
▁proteAn	-13.1584
▁rhabdo	-13.1584
▁stucco	-13.1584
▁suprasellair	-13.1584
▁uitgedoofd	-13.1584
▁vertakkend	-13.1584
▁verzamel	-13.1584
▁voedsel	-13.1584
▁voorkomt	-13.1584
▁yolk	-13.1584
telectase	-13.1584
▁alcian	-13.1584
▁antrochoana	-13.1584
▁breakdown	-13.1584
▁donut	-13.1584
▁laryngocele	-13.1584
▁onderoog	-13.1584
▁organoAd	-13.1584
▁pendulans	-13.1584
▁pterygium	-13.1584
▁scabiesmijt	-13.1584
▁spermatocele	-13.1584
tissu	-13.1584
▁antibioti	-13.1584
▁aritm	-13.1584
▁discussie	-13.1584
▁dooierzaktumor	-13.1584
▁recess	-13.1584
▁aspergillose	-13.1584
▁bifasisch	-13.1584
▁classification	-13.1584
▁concentrisch	-13.1584
▁lymfbanen	-13.1584
▁prakti	-13.1584
▁sialometaplasie	-13.1584
▁porokeratosis	-13.1584
ezary	-13.1584
▁aanwijziging	-13.1584
▁pancyto	-13.1584
▁plexiform	-13.1584
craniofaryngioom	-13.1584
katern	-13.1584
▁cytotoxisch	-13.1584
▁necrolyse	-13.1584
▁niche	-13.1584
▁abnormality	-13.1584
enoomdiagnostiek	-13.1584
▁classificeerba	-13.1584
▁oropharynx	-13.1584
▁nagelriem	-13.1584
ammotoom	-13.1584
▁Exconisatie	-13.1584
▁benoemd	-13.1584
▁full	-13.1584
▁mortis	-13.1584
liezen	-13.1584
▁achterblijven	-13.1584
▁botbalk	-13.1584
einfecteerd	-13.1584
▁schimmelsgisten	-13.1584
ngsd	-13.1584
▁fungi	-13.1584
▁filiformis	-13.1584
lides	-13.1584
▁corresponde	-13.1584
▁moeder	-13.1584
▁internist	-13.1584
▁afzonderlijk	-13.1584
Leufs	-13.1584
▁gastroduodenal	-13.1584
▁collagenoom	-13.1584
belast	-13.1584
▁decubitus	-13.1584
▁titer	-13.1584
bronchoalveolair	-13.1584
print	-13.1584
polaris	-13.1584
▁meisje	-13.1584
▁hernieuwd	-13.1584
▁center	-13.1584
▁verenig	-13.1584
▁vegetatie	-13.1584
▁plasmocytoid	-13.1584
▁biallelisch	-13.1584
▁familiair	-13.1584
▁extraskeleta	-13.1584
▁contactallergie	-13.1584
ctoendocervicaal	-13.1584
▁negeren	-13.1584
▁Functione	-13.1584
▁botbank	-13.1584
▁vaatingroei	-13.1585
▁periode	-13.1585
▁Cauda	-13.1585
▁osteoom	-13.1585
▁schimmig	-13.1585
▁fibrinetromb	-13.1585
▁subendocardia	-13.1585
waarts	-13.1585
▁verklee	-13.1585
▁curvatu	-13.1585
▁urogenitalis	-13.1585
▁Letsel	-13.1585
scendenssigmoAd	-13.1585
▁neurologisch	-13.1585
▁arytenoid	-13.1585
▁vlokpathologie	-13.1585
ermatologie	-13.1585
▁ijzerhoudend	-13.1585
▁chromogranine	-13.1585
paraneoplastisch	-13.1585
▁schuimcel	-13.1585
epatica	-13.1586
▁jeukend	-13.1586
▁vatlokalisatie	-13.1586
▁afsluiting	-13.1586
▁candidainfectie	-13.1586
▁femurkop	-13.1586
▁uniloculair	-13.1586
▁aanhangend	-13.1586
▁ouderdom	-13.1586
utatieprofi	-13.1586
▁naevoAd	-13.1586
▁postoperatief	-13.1586
ubme	-13.1587
▁lymflier	-13.1587
identificatie	-13.1587
ijker	-13.1587
▁hemolytisch	-13.1587
▁stable	-13.1587
▁aankleur	-13.1587
▁albicans	-13.1588
▁lippen	-13.1588
▁lymfocele	-13.1588
▁Erosie	-13.1588
nguinal	-13.1588
▁snedevlakken	-13.1588
▁skeletspier	-13.1588
rsten	-13.1588
pericanaliculair	-13.1588
▁buccal	-13.1589
▁angiodysplasie	-13.1589
▁scrota	-13.1589
▁bloedvormend	-13.1589
▁Brunnersch	-13.1589
▁follicularis	-13.1589
▁noninvasief	-13.1589
▁supravagina	-13.159
▁hemangioma	-13.159
▁aantekening	-13.159
isual	-13.159
amy	-13.159
aginawand	-13.159
▁gebruikelijk	-13.159
▁bolletje	-13.159
▁lymfocytenrijk	-13.159
▁immuunsuppressi	-13.1591
▁present	-13.1591
▁geba	-13.1591
▁spermatocyt	-13.1591
ata	-13.1591
▁keloidaal	-13.1592
▁sphenoidal	-13.1592
▁hoofdhals	-13.1592
▁Conc	-13.1593
melanotisch	-13.1593
umulatie	-13.1593
▁prebulleu	-13.1593
ontstekingshaard	-13.1593
astig	-13.1593
uller	-13.1594
▁pityrosporon	-13.1594
▁scar	-13.1594
▁colum	-13.1595
▁periuret	-13.1595
▁ontb	-13.1596
▁cellient	-13.1596
▁Brunn	-13.1597
▁klinsch	-13.1598
rostaatbiopsieA	-13.1598
dep	-13.1598
nsyndroom	-13.1598
▁bijoortje	-13.1599
▁osteoscler	-13.1599
▁spoelcellaesie	-13.1599
igeerd	-13.16
alk	-13.1601
▁langerbestaand	-13.1601
sni	-13.1601
▁poikiloderm	-13.1602
differ	-13.1603
ells	-13.1603
gezet	-13.1605
ynoviaal	-13.1605
▁immuunglobuline	-13.1606
▁laterobasa	-13.1606
▁snederanden	-13.1608
▁recidiefkans	-13.1608
▁crescents	-13.1608
ollowup	-13.1609
▁medulla	-13.1611
▁eosinofielie	-13.1612
▁bite	-13.1612
durend	-13.1614
grenz	-13.1614
▁apical	-13.1616
▁lymklieren	-13.1616
▁betrouwbaarheid	-13.1616
▁incompletus	-13.1616
▁bestond	-13.1617
▁arthritis	-13.1618
steking	-13.1619
▁steentjes	-13.1621
alth	-13.1621
mmuunfenotypisch	-13.1624
▁verkleving	-13.1625
uitenoppervlak	-13.1626
▁doorgroeiend	-13.1626
▁gedes	-13.1626
conc	-13.1626
▁atheroom	-13.1627
▁tarsal	-13.1627
▁hoeveelheden	-13.163
▁getest	-13.1631
sure	-13.1631
▁romphuid	-13.1631
bito	-13.1633
laden	-13.1633
▁corpusmaag	-13.1634
ubacut	-13.1634
▁pAla	-13.1634
▁pot	-13.1635
▁kliertje	-13.1635
▁mani	-13.1638
▁anterolatera	-13.1641
emosiderofagen	-13.1641
hemel	-13.1642
verwegingen	-13.1644
▁vold	-13.1649
▁cons	-13.165
▁ur	-13.1655
▁bloedbeeld	-13.1656
▁bethesda	-13.1657
▁Gemelli	-13.1657
▁geinactiveerd	-13.1657
▁aannemelijk	-13.1657
▁nucleoli	-13.1657
▁multicentrisch	-13.1657
▁ihc	-13.1657
▁Linkszijdig	-13.1658
▁podocyten	-13.1658
▁gebeur	-13.1658
▁Lynchsyndroom	-13.1658
▁ovariumtumor	-13.1658
▁voorspel	-13.1658
opklier	-13.1659
▁lijns	-13.1659
▁parasita	-13.166
▁Bevestigd	-13.1661
▁au	-13.1662
▁leukocyt	-13.1664
lobje	-13.1664
▁buitenaf	-13.1667
ieren	-13.1667
▁schilfer	-13.1668
▁recurrens	-13.1673
myc	-13.1674
ulleria	-13.1677
▁lumba	-13.1678
▁HLAB	-13.1678
▁had	-13.1678
aematur	-13.1679
ordeel	-13.1679
▁HCG	-13.1679
▁stromareactie	-13.168
▁zijsneevlak	-13.1683
▁syringo	-13.1684
rnocleidomastoid	-13.1684
▁arterietakje	-13.1687
tonen	-13.1694
▁linkercolon	-13.1694
▁emfysemateus	-13.17
leidend	-13.1703
▁tracheobronchia	-13.1707
ossa	-13.1711
talgklieradenoom	-13.1716
▁leverresectie	-13.1718
ratieve	-13.1719
excisiebiopt	-13.1725
erpes	-13.1733
beenmergbiopt	-13.1738
ram	-13.1741
▁pericardia	-13.1747
▁zit	-13.1748
▁tand	-13.1758
br	-13.1758
rgani	-13.1759
▁bed	-13.1761
▁live	-13.1763
uidelijke	-13.1765
▁Central	-13.1767
▁snedes	-13.177
▁stra	-13.1775
aliseerd	-13.1777
▁steroid	-13.1783
▁orthokeratose	-13.1784
▁deficiAntie	-13.1784
▁geintegreerd	-13.1784
▁Abdominal	-13.1784
▁reticularis	-13.1784
▁draden	-13.1785
▁positiv	-13.1785
▁vernauwing	-13.1786
▁catheter	-13.1789
▁vlek	-13.1798
rium	-13.1803
▁colli	-13.1803
▁hydroce	-13.1811
CEA	-13.1813
arvo	-13.1815
EGR	-13.1815
oesofagus	-13.1816
▁zur	-13.1821
▁probes	-13.1822
extravasatietype	-13.1823
shaveexcisie	-13.1824
▁onderwand	-13.1824
▁peria	-13.183
▁flexor	-13.1832
▁gespeci	-13.1843
Rectum	-13.1846
beoordelingen	-13.1848
til	-13.1851
enfusie	-13.1852
▁wor	-13.1854
pass	-13.1869
nvulling	-13.1872
ac	-13.1876
esce	-13.1883
▁oesofagusmaag	-13.1889
▁skintags	-13.189
axi	-13.1895
▁sebaceo	-13.1902
▁pararecta	-13.1909
▁Clonaliteits	-13.1909
tape	-13.191
▁voetjes	-13.191
mi	-13.1914
▁sr	-13.1916
▁imbalans	-13.1916
orum	-13.1917
tibiaal	-13.1922
drade	-13.1923
▁arc	-13.1923
chimmels	-13.1939
▁poro	-13.1948
▁kliertjes	-13.1953
hi	-13.1955
sor	-13.1972
▁probabl	-13.1975
▁atypsi	-13.2006
▁repen	-13.2016
mus	-13.2033
▁ben	-13.2042
▁stollings	-13.2042
▁hyphen	-13.2054
▁plav	-13.2056
ngreep	-13.206
▁AHH	-13.2088
▁silicone	-13.2094
▁Cor	-13.2098
▁differentiA	-13.2102
▁Ade	-13.2103
nemend	-13.2105
keratosis	-13.2112
▁villonodula	-13.2115
▁Fa	-13.2127
▁electro	-13.2129
cr	-13.2131
LGL	-13.2137
agelbiopt	-13.2141
▁behoud	-13.2146
Bijkomend	-13.2152
ologisch	-13.2156
cter	-13.2162
enectomie	-13.2174
▁Cyst	-13.2174
▁insufficiAntie	-13.2188
▁mor	-13.219
tubulair	-13.2191
▁beschadigingen	-13.2201
neuze	-13.2215
▁intrathoraca	-13.222
poese	-13.2224
uff	-13.2225
▁fou	-13.2238
▁gastroenter	-13.2252
seffect	-13.2255
niem	-13.2257
▁netwerk	-13.2266
ynov	-13.2271
zeer	-13.2276
rim	-13.2289
▁scop	-13.2291
ors	-13.2294
cyt	-13.2297
▁bewerk	-13.2307
1211	-13.2309
▁median	-13.231
emoradiotherapie	-13.2313
oogd	-13.2321
ferentie	-13.2328
kn	-13.2341
▁compartiment	-13.236
▁wind	-13.2371
▁cystes	-13.238
richtingen	-13.2388
isc	-13.2392
proliferaties	-13.2403
ortaal	-13.2406
▁losge	-13.2409
CREB	-13.2411
toide	-13.2414
ient	-13.2414
▁menstru	-13.2425
myositis	-13.2435
▁inscannen	-13.2436
umorregressie	-13.2437
▁mammaexcisie	-13.2441
Agen	-13.2447
ssel	-13.2458
▁bal	-13.246
▁deltoideu	-13.2462
▁circumferenti	-13.2478
▁bronchia	-13.2479
rivasculaire	-13.2489
bi	-13.251
oc	-13.2513
ib	-13.2519
▁jodium	-13.2522
▁doorlopen	-13.2528
CALC	-13.2529
ow	-13.2532
▁littekentje	-13.2563
placentair	-13.258
this	-13.2581
▁py	-13.259
di	-13.2591
lopend	-13.2598
▁mini	-13.26
tum	-13.2619
dens	-13.2623
▁monocyto	-13.2624
und	-13.2626
adnextumortje	-13.2631
▁fasci	-13.264
ara	-13.2654
Rectumbiopt	-13.2658
ili	-13.2661
▁solita	-13.2669
ymfocytaire	-13.267
ulum	-13.2677
▁gedi	-13.2677
gat	-13.2678
▁baard	-13.2682
noid	-13.2684
omvorming	-13.2691
▁formatie	-13.2695
lysis	-13.2701
lytisch	-13.272
velden	-13.2728
atieve	-13.273
▁hematologisch	-13.2731
onsill	-13.2736
▁mesangi	-13.2743
sitie	-13.2752
▁uitvoer	-13.2756
plasti	-13.2758
rolifererend	-13.2766
▁distal	-13.2767
▁collagen	-13.277
urg	-13.2772
rsch	-13.2773
▁topografi	-13.2781
▁reA	-13.2782
ner	-13.279
dor	-13.2792
▁blijvend	-13.2805
▁myeloid	-13.2813
▁graa	-13.2817
▁musculair	-13.2826
▁sho	-13.2835
celhyperplasie	-13.2835
hans	-13.2871
osus	-13.2874
immuun	-13.2874
Ig	-13.2878
▁neoplasi	-13.2879
enpanel	-13.2883
ocraniaal	-13.2904
▁muco	-13.2917
▁mic	-13.292
▁utero	-13.293
▁purpur	-13.2935
labiaal	-13.2937
▁onderbe	-13.2941
▁du	-13.3005
▁fata	-13.301
plex	-13.3011
anti	-13.3013
▁Intra	-13.3013
ateraal	-13.3014
voeren	-13.3022
umors	-13.3046
ubi	-13.3066
transversumbiopt	-13.3067
syringocystadeno	-13.3082
▁Allel	-13.3101
▁bronchi	-13.3103
staan	-13.3116
sh	-13.3131
▁cervixpoliepje	-13.3138
uste	-13.3143
rus	-13.3157
▁Bevestig	-13.3167
▁sublingua	-13.317
▁cystadeno	-13.3171
▁uitzonder	-13.3196
pelvi	-13.3198
▁bioptname	-13.3202
chirurgie	-13.3204
copisch	-13.3232
cellulair	-13.3244
lobair	-13.3246
veld	-13.3253
Flowcytometrie	-13.3256
▁Basal	-13.3272
land	-13.3274
▁initi	-13.3281
gering	-13.329
takken	-13.3307
▁sliert	-13.3307
oud	-13.3311
rag	-13.3315
eefselbiopt	-13.3315
middel	-13.3316
cardiale	-13.3331
vide	-13.3348
actie	-13.3356
ABB	-13.3358
toto	-13.3362
▁exc	-13.3399
ventriculair	-13.3416
▁uro	-13.3418
vat	-13.3426
▁Rond	-13.3427
esothelioompanel	-13.3429
vari	-13.343
icus	-13.3435
zwaar	-13.3436
▁com	-13.3441
▁crani	-13.3447
▁gastropathi	-13.3447
▁faci	-13.3448
activatie	-13.3448
▁benign	-13.3455
inhoud	-13.3456
nav	-13.3468
▁sacra	-13.3468
tumorpercentages	-13.3471
theliale	-13.3472
ablatie	-13.3473
▁cc	-13.3474
▁excisi	-13.3476
ruim	-13.3482
catie	-13.3489
perfusie	-13.3496
ILAI	-13.3498
ju	-13.3498
milt	-13.3509
electro	-13.3512
asse	-13.3513
hyphen	-13.3515
▁prematu	-13.3517
Rest	-13.352
hormoon	-13.3522
irregularit	-13.3525
unnedarmbiopt	-13.3531
dystrofie	-13.3532
richting	-13.3536
lengte	-13.3536
afvoergang	-13.3537
hilus	-13.3537
typisch	-13.3537
gevorderd	-13.3543
vreemd	-13.3545
elveranderingen	-13.3547
geboorte	-13.3551
werk	-13.3552
Ernstig	-13.3552
concrement	-13.3552
matrix	-13.3553
onafhankelijk	-13.3553
autoimmuniteit	-13.3553
reconstructie	-13.3553
gekleurd	-13.3553
ijzer	-13.3554
parenchymateus	-13.3555
foto	-13.3555
Concordant	-13.3556
Ewing	-13.3556
follikel	-13.3557
rustig	-13.3558
technisch	-13.3558
dood	-13.3558
genamplificatie	-13.3558
▁fusion	-13.3558
tibia	-13.356
stopcodon	-13.356
apart	-13.3561
predominant	-13.3561
uitloper	-13.3562
Grade	-13.3563
gerapporteerd	-13.3564
verwacht	-13.3564
plekke	-13.3564
Eind	-13.3565
pariAtaal	-13.3565
kloon	-13.3565
Buikspoel	-13.3567
astrocytoom	-13.3567
duim	-13.3567
hematopoiese	-13.3568
seborrhoica	-13.3568
desmoplastisch	-13.3568
poli	-13.3568
eventue	-13.3568
glomerulair	-13.3568
maturatie	-13.3569
atheroomcyste	-13.3569
merg	-13.3569
glioblastoom	-13.3569
ganglion	-13.3569
sepsis	-13.357
rodermatitis	-13.357
dominant	-13.357
collageneuze	-13.357
kunnen	-13.3571
betrouwbaar	-13.3571
Lymfoom	-13.3571
kwaliteits	-13.3571
gemarkeerd	-13.3571
geneesmiddelen	-13.3571
ontstaan	-13.3572
lumbaal	-13.3572
oesophagitis	-13.3572
ooghoek	-13.3572
purulent	-13.3572
opruimreactie	-13.3572
fimbriae	-13.3573
metaplastisch	-13.3573
Galblaas	-13.3573
vlokatrofie	-13.3573
contact	-13.3573
leiomyoom	-13.3574
onvolledig	-13.3574
entiteit	-13.3574
microorganismen	-13.3574
▁lipid	-13.3574
bulbus	-13.3575
Brush	-13.3575
doorsneden	-13.3575
lastig	-13.3575
granulerend	-13.3576
gedacht	-13.3576
ileum	-13.3576
inverte	-13.3576
Genom	-13.3576
perforatie	-13.3577
pleiomorf	-13.3577
dys	-13.3577
langer	-13.3578
clavicula	-13.3578
vergelijking	-13.3579
partieel	-13.3579
onderliggend	-13.3579
nevus	-13.358
verdenking	-13.358
biopsielitteken	-13.3581
vetweefsel	-13.3581
leverbiopt	-13.3584
detrusor	-13.3586
reepje	-13.3586
infectieuze	-13.3586
gezicht	-13.3589
waarden	-13.3589
gram	-13.3592
etreft	-13.3592
vermeld	-13.3593
weinig	-13.3593
cellularis	-13.3594
zwangerschap	-13.3598
preexistent	-13.3598
hoogste	-13.3598
serie	-13.3598
nvt	-13.3602
bijnier	-13.3604
Beide	-13.3609
langs	-13.361
▁san	-13.3611
lab	-13.3612
oncologie	-13.3614
verkrijgings	-13.362
▁ti	-13.3622
sampling	-13.3624
voorlopige	-13.3631
onem	-13.3632
▁mammabiopsie	-13.3636
pilair	-13.3637
▁pancreaticobil	-13.3639
geheel	-13.3639
▁mog	-13.3647
relatie	-13.3648
Crohn	-13.365
▁system	-13.365
▁lymfklierpuncta	-13.3653
pylorus	-13.3656
▁metabo	-13.3657
pleura	-13.3659
con	-13.3667
Adnexextirpatie	-13.3679
fors	-13.3679
lob	-13.3679
kaar	-13.3686
sporadisch	-13.3689
spier	-13.3689
ya	-13.3689
▁huidshavebiopt	-13.3698
▁parakeratos	-13.3701
eusbiopt	-13.3704
stukje	-13.3704
rc	-13.3709
onale	-13.3726
hersen	-13.3734
plaatselijk	-13.3737
ummer	-13.3738
yco	-13.3743
▁bijholte	-13.3744
▁Bricker	-13.3745
▁geb	-13.3752
odus	-13.3752
oAd	-13.3753
▁acantho	-13.3762
maar	-13.3762
▁Groei	-13.3771
anethcel	-13.3773
▁sebace	-13.378
definitief	-13.3784
▁gesti	-13.3784
pijn	-13.3787
ali	-13.379
than	-13.3794
▁keratoacantho	-13.3799
▁mol	-13.3804
▁tube	-13.3807
eerst	-13.3813
yndroom	-13.3818
ifferenti	-13.3818
filter	-13.3825
▁pneumo	-13.3839
▁vacu	-13.384
reactief	-13.3843
▁Longwig	-13.3844
▁endocard	-13.3853
▁dysp	-13.3858
tegen	-13.3861
oesophaguscardia	-13.3862
▁erytr	-13.3869
▁aller	-13.3869
▁infarcthaard	-13.3871
▁libr	-13.3877
arget	-13.388
▁Ablati	-13.3887
samengestelde	-13.3889
▁urothelia	-13.3893
wandinfarct	-13.3895
▁midoesofag	-13.39
fibromen	-13.3901
hoeft	-13.3902
repen	-13.3909
▁port	-13.3911
menten	-13.3913
▁gave	-13.3935
▁overgrijp	-13.3936
▁oesophagusmaag	-13.3938
muleerd	-13.3941
verwijzing	-13.3943
roliferati	-13.3945
ndometriosehaard	-13.3947
ocaudaal	-13.3948
omp	-13.3953
tosis	-13.3961
▁mij	-13.3966
drietakscoronair	-13.3968
▁crescent	-13.3974
rosie	-13.3975
zins	-13.3984
gn	-13.3984
differentiee	-13.3991
tinib	-13.3992
sinus	-13.3992
minatie	-13.3993
ylorus	-13.3994
fibroepithelioma	-13.3994
rich	-13.4004
gevoegd	-13.4008
Addition	-13.4013
lia	-13.4013
win	-13.4016
▁antero	-13.4018
mfyseem	-13.402
▁houden	-13.4023
▁lat	-13.4025
chemotherapie	-13.4026
▁Buiten	-13.4027
bris	-13.403
itralisklep	-13.4034
▁oogka	-13.4034
▁kiem	-13.4037
xon	-13.4037
▁Cyto	-13.4043
holecystolithias	-13.4043
reuze	-13.4045
▁behandel	-13.4046
nderbeen	-13.4047
orbi	-13.4048
▁osteoartr	-13.4049
centreerd	-13.4051
▁condylom	-13.4052
utation	-13.4052
▁sateliet	-13.4055
▁Fibrom	-13.4056
dissemin	-13.4057
jz	-13.4057
spierfasciebiop	-13.4057
ubmucosa	-13.4057
▁piek	-13.4059
▁bevond	-13.406
▁erytrocyt	-13.406
vet	-13.4061
▁fav	-13.4061
▁snederand	-13.4062
▁opvolgen	-13.4062
umorlokalisatie	-13.4063
hod	-13.4064
rachea	-13.4066
▁tract	-13.407
gebreid	-13.407
▁verminder	-13.407
▁anaplas	-13.4071
▁prostaathelft	-13.4071
ance	-13.4071
slot	-13.4073
regress	-13.4073
apsul	-13.4074
▁luid	-13.4075
arietaalcel	-13.4076
▁hemangiom	-13.4076
oename	-13.4077
ancreaskop	-13.4077
splenie	-13.4077
apilloma	-13.4077
arcinoma	-13.4078
icrobiologisch	-13.4079
atelliet	-13.4079
▁fibrino	-13.4079
▁hyfe	-13.4079
eborrhoisch	-13.4079
ubtiel	-13.4079
lcererend	-13.4079
▁gluten	-13.4079
▁concre	-13.408
pitznaevus	-13.408
lioblastoom	-13.408
Lichaams	-13.408
▁speek	-13.408
rticarie	-13.408
edicin	-13.4081
▁insectenbe	-13.4081
fici	-13.4081
ripl	-13.4081
culus	-13.4081
tting	-13.4081
igmoAdresectie	-13.4081
oglid	-13.4081
isselend	-13.4082
▁pemfigo	-13.4082
obacter	-13.4082
elblok	-13.4082
ongrand	-13.4082
nderverdeling	-13.4082
▁mitralis	-13.4082
vergangstype	-13.4082
▁insecten	-13.4082
ebul	-13.4082
osacea	-13.4082
anvankelijk	-13.4083
esicula	-13.4083
▁moei	-13.4083
▁hyal	-13.4083
ofarynx	-13.4083
ilatatie	-13.4083
current	-13.4083
raakbeen	-13.4083
euroendocrien	-13.4083
undarm	-13.4083
eurofibroom	-13.4083
oacantho	-13.4083
▁intersti	-13.4083
annelijk	-13.4083
Hercep	-13.4084
adenitis	-13.4084
aposisarcoom	-13.4084
kkig	-13.4084
▁meconium	-13.4084
cystoma	-13.4084
strueerd	-13.4084
▁anthraco	-13.4084
elkersson	-13.4084
rthlecel	-13.4084
zygos	-13.4084
upffer	-13.4084
▁afkomst	-13.4084
▁inzetten	-13.4084
subarachno	-13.4084
▁Atheroomcyste	-13.4084
▁calcify	-13.4084
▁conglomera	-13.4084
▁damag	-13.4084
▁donker	-13.4084
▁nefropatholoog	-13.4084
sspecificiteit	-13.4084
▁Betekenis	-13.4084
▁Cholelithiasis	-13.4084
▁abrupt	-13.4084
▁elektro	-13.4084
▁imatinib	-13.4084
▁pancreato	-13.4084
▁pilomatricoma	-13.4084
Gehandhaafd	-13.4084
Grawitz	-13.4084
Gynaecologi	-13.4084
Interstiti	-13.4084
epithelialiseerd	-13.4084
fasciculata	-13.4084
folliculotrope	-13.4084
geAnduceerd	-13.4084
gemitigeerd	-13.4084
groeivertraging	-13.4084
hemangioblastoom	-13.4084
hyperpigmenteerd	-13.4084
incip	-13.4084
lcereerd	-13.4084
lostridium	-13.4084
nterpreteerd	-13.4084
objectiveerba	-13.4084
premenstrue	-13.4084
ricuspidalisklep	-13.4084
sinfiltraten	-13.4084
splinters	-13.4084
trauss	-13.4084
uckle	-13.4084
uhring	-13.4084
▁Civatte	-13.4084
▁Eosinofilie	-13.4084
▁Ethmoid	-13.4084
▁Gastrisch	-13.4084
▁Haggit	-13.4084
▁aangetast	-13.4084
▁alternatie	-13.4084
▁antracotisch	-13.4084
▁aureus	-13.4084
▁blasteem	-13.4084
▁calciumoxalaat	-13.4084
▁candidiasis	-13.4084
▁consulent	-13.4084
▁crizotinib	-13.4084
▁detected	-13.4084
▁disbalans	-13.4084
▁doorslaggevend	-13.4084
▁dyskinesie	-13.4084
▁endocervicitis	-13.4084
▁epilepsie	-13.4084
▁episode	-13.4084
▁evalueren	-13.4084
▁exploratie	-13.4084
▁flegmonosa	-13.4084
▁foliaceus	-13.4084
▁geAnverteerd	-13.4084
▁geimp	-13.4084
▁gezichtpunten	-13.4084
▁gluc	-13.4084
▁groeirestrictie	-13.4084
▁gyrat	-13.4084
▁honeycombing	-13.4084
▁idiopatisch	-13.4084
▁introAtus	-13.4084
▁keloAd	-13.4084
▁lactase	-13.4084
▁longitudina	-13.4084
▁melanofagie	-13.4084
▁metanefrisch	-13.4084
▁metrorragi	-13.4084
▁mondkeel	-13.4084
▁neurotropie	-13.4084
▁obstruerend	-13.4084
▁omgekeerd	-13.4084
▁onychomycosis	-13.4084
▁opgeslagen	-13.4084
▁opgeteld	-13.4084
▁ossificans	-13.4084
▁osteoporotisch	-13.4084
▁pacemaker	-13.4084
▁precursor	-13.4084
▁prodroma	-13.4084
▁progestati	-13.4084
▁prolactinoom	-13.4084
▁psammomateus	-13.4084
▁rafelig	-13.4084
▁richtinggevend	-13.4084
▁sialolithiasis	-13.4084
▁stenotisch	-13.4084
▁suggereren	-13.4084
▁tricholemmoom	-13.4084
▁varicella	-13.4084
▁verdichting	-13.4084
▁verondersteld	-13.4084
eochromocytoom	-13.4084
▁Granulomen	-13.4084
▁arachnoid	-13.4084
▁bacteriekoloni	-13.4084
▁elasticum	-13.4084
▁hypoplasia	-13.4084
▁lepidic	-13.4084
▁urolithiasis	-13.4084
▁vasculopathisch	-13.4084
▁veroudering	-13.4084
endoappendicitis	-13.4084
▁Atrofie	-13.4084
▁Berard	-13.4084
▁Endoecho	-13.4084
▁driver	-13.4084
▁gistbolletje	-13.4084
▁profund	-13.4084
▁spoed	-13.4084
▁limit	-13.4084
▁neusseptum	-13.4084
▁vereist	-13.4084
▁Churg	-13.4084
▁round	-13.4084
xkit	-13.4084
▁Excision	-13.4084
▁calpain	-13.4084
▁desintegreren	-13.4084
▁dialyse	-13.4084
▁migratie	-13.4084
▁omstrengel	-13.4084
fuus	-13.4084
▁gelaagd	-13.4084
▁maligiteit	-13.4084
▁perforata	-13.4084
▁range	-13.4084
▁tricuspid	-13.4084
▁brughoek	-13.4084
▁krabletsel	-13.4084
▁leukostase	-13.4084
▁palissaderend	-13.4084
▁specfiek	-13.4084
▁waarneembaar	-13.4084
▁enterocolitis	-13.4084
▁metallose	-13.4084
▁secreetstase	-13.4084
▁metasase	-13.4084
lbsd	-13.4084
▁histiocytosis	-13.4084
▁kolfvormig	-13.4084
▁neurofibromen	-13.4084
▁dermatosis	-13.4084
rodeerd	-13.4084
▁rubrum	-13.4084
▁epitheloAd	-13.4084
▁opspor	-13.4084
▁remissie	-13.4084
oriAnt	-13.4084
▁vliezig	-13.4084
rouwelijk	-13.4084
▁endobronchiaal	-13.4084
▁xanthoom	-13.4084
▁existent	-13.4084
▁lake	-13.4084
▁koilocytosis	-13.4084
▁BCRABL	-13.4084
▁polyangiitis	-13.4084
▁stuwingsbeeld	-13.4084
▁Combinatie	-13.4084
egradeerd	-13.4084
▁irradicaliteit	-13.4084
oilocytose	-13.4084
▁vellus	-13.4084
▁Bovenbeen	-13.4084
▁myofibroom	-13.4084
▁vaatsteel	-13.4084
▁clinicus	-13.4084
▁null	-13.4084
yrfs	-13.4084
▁raden	-13.4084
▁verwor	-13.4084
▁verknijpings	-13.4084
▁afweerreactie	-13.4085
ngeh	-13.4085
▁fibrocellulair	-13.4085
▁retromolair	-13.4085
▁fibrinoAd	-13.4085
rekend	-13.4085
koperstapeling	-13.4085
▁prima	-13.4085
▁syfilis	-13.4085
▁korrelig	-13.4085
▁passage	-13.4085
▁supero	-13.4085
▁results	-13.4085
▁disco	-13.4085
▁dermoAd	-13.4085
▁Calcificatie	-13.4085
▁Gepigmenteerd	-13.4085
▁hoornmassa	-13.4085
▁osteoma	-13.4085
▁schema	-13.4085
▁cytopeni	-13.4085
▁cardiacorpus	-13.4085
▁herpesinfectie	-13.4085
▁mucosectomie	-13.4085
▁verwerking	-13.4085
▁postief	-13.4085
▁Hemorragisch	-13.4085
▁aanvankelijk	-13.4085
▁aganglionos	-13.4085
▁vaginavoorwand	-13.4085
▁periductitis	-13.4085
▁pseudopel	-13.4085
knop	-13.4085
▁subglottisch	-13.4085
▁abnormaal	-13.4085
▁terminalis	-13.4085
▁bloot	-13.4086
▁adencarcinoom	-13.4086
interval	-13.4086
▁heart	-13.4086
▁beinvloeding	-13.4086
silicose	-13.4086
brid	-13.4086
▁perineuraal	-13.4086
▁plot	-13.4086
▁Cito	-13.4086
▁ulceration	-13.4086
▁Borstel	-13.4086
▁bloedblaar	-13.4086
▁verificatie	-13.4086
▁excl	-13.4087
▁limb	-13.4087
▁uitkomst	-13.4087
▁hematop	-13.4087
▁superficialis	-13.4087
glasvocht	-13.4087
vou	-13.4087
▁RAEB	-13.4087
Receptorbepaling	-13.4087
werking	-13.4087
▁dermatis	-13.4087
ipple	-13.4087
mho	-13.4087
▁plasmocytair	-13.4087
ndetermin	-13.4087
▁botaantasting	-13.4087
▁azoospermie	-13.4087
rticulair	-13.4088
▁werkdagen	-13.4088
▁stamcel	-13.4088
Aanvuling	-13.4088
▁cement	-13.4088
▁mural	-13.4088
▁punkt	-13.4088
▁toenemend	-13.4088
▁rugschouder	-13.4088
▁germ	-13.4088
aureolair	-13.4088
erosa	-13.4088
▁voortzetten	-13.4088
olent	-13.4088
▁opgewerkt	-13.4089
openie	-13.4089
▁lymfomatoAd	-13.4089
▁bewustzijns	-13.4089
▁sheets	-13.4089
siderose	-13.4089
▁pneumonectomie	-13.4089
▁poroid	-13.4089
ttme	-13.4089
▁hybrid	-13.4089
shunt	-13.4089
▁progressiva	-13.4089
▁uitgesteld	-13.4089
▁emboli	-13.4089
▁monoklonaliteit	-13.409
▁spitznaevus	-13.409
▁visu	-13.409
▁microgranulomen	-13.409
▁vetrijk	-13.409
▁cloac	-13.409
▁slij	-13.409
ventriculi	-13.409
▁pneumocyst	-13.409
▁hypermutatie	-13.409
▁antistof	-13.4091
▁hyaline	-13.4091
▁vetindex	-13.4091
lori	-13.4091
▁vesiculair	-13.4091
schak	-13.4091
thyroglossus	-13.4091
zig	-13.4091
amnion	-13.4091
▁weten	-13.4092
meter	-13.4092
hyleringsarray	-13.4092
▁sclerosering	-13.4093
delinsCA	-13.4093
▁Fusionplex	-13.4093
▁facet	-13.4093
aematurie	-13.4094
ntramusculair	-13.4094
▁lymfoomprotocol	-13.4094
▁epidermolys	-13.4097
clerotisch	-13.4097
echanisch	-13.4097
▁diagnostics	-13.4097
▁metastasis	-13.4097
Ronde	-13.4097
▁mededeling	-13.4098
Rectumamputatie	-13.4098
▁fasciezijde	-13.4098
▁studieverband	-13.4098
▁roze	-13.4098
▁geleden	-13.4098
bulb	-13.4099
schrompel	-13.4099
▁rectumamputatie	-13.41
▁spongiosa	-13.41
erfs	-13.41
▁Leukemi	-13.41
▁vallen	-13.41
▁onspecifiek	-13.4101
amnioti	-13.4101
dorm	-13.4101
loedvaten	-13.4102
berg	-13.4102
▁spoor	-13.4104
corre	-13.4105
thisch	-13.4106
gloss	-13.4106
▁aanstaande	-13.4107
▁botcyste	-13.4107
arotispunct	-13.4107
drenal	-13.4108
▁dochter	-13.4108
umorcellen	-13.4108
naaldbiopsie	-13.4109
ummers	-13.4109
wur	-13.411
igheid	-13.4112
istent	-13.4112
from	-13.4112
wachten	-13.4112
▁favo	-13.4113
▁bevatte	-13.4114
▁ziektebeeld	-13.4115
▁oro	-13.4116
▁artefacta	-13.4116
▁pseudopoliepen	-13.4117
concentreer	-13.4117
▁hamart	-13.4119
▁genpanel	-13.4119
▁huidpunt	-13.4119
▁copy	-13.4119
▁axon	-13.412
▁versch	-13.4122
▁formaties	-13.4124
tenen	-13.4124
▁mutations	-13.4125
▁wash	-13.4125
chron	-13.4125
▁project	-13.4126
ervo	-13.4127
[...]
