<unk>	0
<s>	0
</s>	0
[PAD]	0
[UNK]	0
[CLS]	0
[MASK]	0
[C-SEP]	0
en	-0
er	-1
in	-2
ie	-3
an	-4
▁m	-5
el	-6
is	-7
al	-8
▁v	-9
et	-10
ch	-11
een	-12
on	-13
it	-14
ij	-15
▁b	-16
▁d	-17
la	-18
or	-19
at	-20
**	-21
re	-22
st	-23
▁g	-24
ing	-25
op	-26
▁a	-27
ar	-28
om	-29
CR	-30
id	-31
ig	-32
LF	-33
CRLF	-34
▁p	-35
▁h	-36
▁c	-37
▁met	-38
▁l	-39
▁n	-40
iop	-41
der	-42
ct	-43
▁s	-44
▁t	-45
iopt	-46
▁re	-47
as	-48
ol	-49
end	-50
▁(	-51
aal	-52
▁H	-53
ro	-54
uid	-55
oor	-56
▁G	-57
▁in	-58
▁van	-59
cht	-60
us	-61
▁een	-62
ek	-63
oom	-64
isch	-65
▁on	-66
.[	-67
▁en	-68
▁Geen	-69
um	-70
ic	-71
eel	-72
biopt	-73
ex	-74
sie	-75
▁w	-76
▁k	-77
isie	-78
****	-79
▁Huid	-80
ign	-81
▁z	-82
▁o	-83
▁aan	-84
▁de	-85
ag	-86
ctie	-87
ite	-88
cisie	-89
wij	-90
den	-91
▁voor	-92
ingen	-93
ve	-94
se	-95
cel	-96
arc	-97
align	-98
ent	-99
atie	-100
ev	-101
arcin	-102
iteit	-103
▁ver	-104
▁malign	-105
ink	-106
▁I	-107
arcinoom	-108
▁geen	-109
ul	-110
▁recht	-111
ale	-112
▁link	-113
pla	-114
excisie	-115
og	-116
ische	-117
▁maligniteit	-118
ula	-119
le	-120
yp	-121
ra	-122
carcinoom	-123
aar	-124
▁het	-125
plasie	-126
▁bij	-127
▁ont	-128
▁u	-129
▁rechts	-130
▁links	-131
eeld	-132
ed	-133
▁ontst	-134
):	-135
▁B	-136
eking	-137
▁ontsteking	-138
ur	-139
ir	-140
es	-141
if	-142
em	-143
▁f	-144
▁na	-145
***	-146
*******	-147
un	-148
II	-149
iet	-150
ot	-151
ep	-152
ier	-153
oc	-154
▁is	-155
▁beeld	-156
ys	-157
celcarcinoom	-158
▁E	-159
de	-160
▁[	-161
am	-162
ende	-163
▁dys	-164
ec	-165
os	-166
ron	-167
▁onder	-168
▁D	-169
▁Huidexcisie	-170
ass	-171
▁1	-172
ym	-173
wijz	-174
▁C	-175
onder	-176
ijk	-177
we	-178
▁dysplasie	-179
ru	-180
▁bas	-181
▁af	-182
eri	-183
▁op	-184
ver	-185
▁of	-186
▁pass	-187
-1	-188
il	-189
te	-190
ymf	-191
biopten	-192
ige	-193
▁ch	-194
ctieve	-195
▁uit	-196
ies	-197
▁la	-198
▁aanwijz	-199
▁zonder	-200
ok	-201
▁niet	-202
ast	-203
eer	-204
im	-205
lak	-206
▁biopt	-207
erm	-208
ose	-209
ge	-210
ire	-211
▁basaal	-212
ei	-213
▁naev	-214
▁*******	-215
▁gro	-216
▁aanwijzingen	-217
ran	-218
▁be	-219
vlak	-220
wijk	-221
▁waar	-222
lij	-223
ulair	-224
iep	-225
▁lymf	-226
cell	-227
▁2	-228
▁afwijk	-229
▁Huidbiopt	-230
▁ge	-231
sel	-232
od	-233
lier	-234
ull	-235
vull	-236
▁mat	-237
-0	-238
▁chron	-239
ef	-240
ken	-241
ri	-242
▁sp	-243
lies	-244
▁at	-245
lijm	-246
itis	-247
▁con	-248
ze	-249
aat	-250
lijmv	-251
ering	-252
yt	-253
▁groei	-254
lijmvlies	-255
ide	-256
▁aden	-257
ist	-258
▁pla	-259
of	-260
elijk	-261
▁wor	-262
ste	-263
klier	-264
▁vr	-265
umor	-266
▁huid	-267
▁afwijkingen	-268
olog	-269
ang	-270
ander	-271
▁passend	-272
▁zij	-273
▁di	-274
ant	-275
▁ne	-276
eriaal	-277
▁gering	-278
mer	-279
heel	-280
ke	-281
▁A	-282
▁rea	-283
).	-284
sectie	-285
▁chronische	-286
orm	-287
rof	-288
vas	-289
up	-290
▁derm	-291
▁over	-292
ov	-293
anvull	-294
ine	-295
ho	-296
ter	-297
yper	-298
aag	-299
20	-300
▁vrij	-301
nij	-302
ap	-303
ens	-304
ris	-305
ub	-306
ib	-307
▁atyp	-308
▁te	-309
rad	-310
▁R	-311
sp	-312
efsel	-313
▁tot	-314
anderingen	-315
▁naevus	-316
cl	-317
agn	-318
▁tumor	-319
epit	-320
zo	-321
erat	-322
▁geringe	-323
▁st	-324
▁Biopt	-325
oven	-326
▁col	-327
ut	-328
▁vol	-329
vasie	-330
▁kan	-331
ik	-332
ype	-333
▁hyper	-334
act	-335
ma	-336
▁veranderingen	-337
oliep	-338
omet	-339
Aanvull	-340
▁materiaal	-341
and	-342
▁actieve	-343
als	-344
▁cel	-345
▁waarin	-346
:[	-347
alis	-348
eken	-349
oed	-350
▁nod	-351
arm	-352
▁biopten	-353
ometri	-354
▁reactieve	-355
zoek	-356
ica	-357
ocarcinoom	-358
ele	-359
▁rechter	-360
itie	-361
▁zijn	-362
sc	-363
▁end	-364
▁linker	-365
atief	-366
slijmvlies	-367
ulaire	-368
ca	-369
▁De	-370
erd	-371
iff	-372
▁boven	-373
ico	-374
usie	-375
ad	-376
▁mm	-377
ne	-378
veis	-379
rug	-380
veisel	-381
▁adenocarcinoom	-382
esie	-383
ometrium	-384
he	-385
ment	-386
orr	-387
▁lymfklier	-388
▁verru	-389
oog	-390
Aanvulling	-391
▁plaveisel	-392
▁onderzoek	-393
ect	-394
▁volg	-395
clusie	-396
ocell	-397
erent	-398
amma	-399
ocyt	-400
pre	-401
▁ged	-402
▁In	-403
eb	-404
▁aang	-405
uze	-406
imm	-407
ibro	-408
▁passen	-409
▁worden	-410
alisatie	-411
▁L	-412
ularis	-413
oon	-414
lin	-415
ifferent	-416
▁diagn	-417
erv	-418
▁maag	-419
▁meta	-420
▁laesie	-421
▁dit	-422
wez	-423
ip	-424
▁pro	-425
ecif	-426
xcisie	-427
▁kle	-428
▁er	-429
wijder	-430
▁cm	-431
weefsel	-432
▁kerat	-433
▁verruca	-434
nijvlak	-435
▁verwijder	-436
wezig	-437
inale	-438
▁0	-439
▁sch	-440
heid	-441
▁metaplasie	-442
iek	-443
ost	-444
▁colon	-445
ret	-446
▁aanget	-447
epitheel	-448
▁Excisie	-449
▁atypie	-450
yste	-451
omie	-452
grad	-453
ix	-454
gen	-455
▁verwijderd	-456
ath	-457
▁naevocell	-458
been	-459
ak	-460
-20	-461
okalisatie	-462
bre	-463
▁foc	-464
▁Het	-465
▁naevocellularis	-466
▁excisie	-467
sch	-468
▁nodulair	-469
ase	-470
olec	-471
▁seb	-472
icro	-473
ori	-474
ien	-475
▁II	-476
▁Biopten	-477
▁inf	-478
eels	-479
rum	-480
▁groeiend	-481
▁poliep	-482
orrho	-483
test	-484
▁act	-485
▁seborrho	-486
▁carcinoom	-487
och	-488
erf	-489
ou	-490
gatief	-491
▁seborrhoica	-492
do	-493
dt	-494
aire	-495
chter	-496
▁sup	-497
▁we	-498
▁ex	-499
acter	-500
▁type	-501
▁mamma	-502
staat	-503
tra	-504
ogelijk	-505
▁goed	-506
▁invasie	-507
bacter	-508
▁intest	-509
sla	-510
▁Er	-511
elico	-512
elicobacter	-513
del	-514
▁volgt	-515
yl	-516
▁metast	-517
▁wordt	-518
ositie	-519
oid	-520
vol	-521
▁aanwezig	-522
form	-523
ult	-524
ologisch	-525
▁deels	-526
▁klin	-527
▁endometrium	-528
▁resectie	-529
▁gran	-530
rofie	-531
▁li	-532
erfic	-533
▁specif	-534
rag	-535
▁micro	-536
▁lokalisatie	-537
▁actin	-538
slag	-539
utatie	-540
▁hoog	-541
eratie	-542
▁pr	-543
doende	-544
euze	-545
▁superfic	-546
▁intestinale	-547
unctie	-548
▁negatief	-549
▁door	-550
▁ar	-551
per	-552
▁e	-553
▁du	-554
▁per	-555
▁Helicobacter	-556
▁dermale	-557
orp	-558
ia	-559
▁superficie	-560
iaal	-561
▁focaal	-562
ieke	-563
ific	-564
▁conclusie	-565
▁imm	-566
omp	-567
antrum	-568
len	-569
oden	-570
elan	-571
ervix	-572
▁mogelijk	-573
▁fibro	-574
ragment	-575
▁granul	-576
ong	-577
je	-578
▁metastase	-579
mat	-580
▁tub	-581
voldoende	-582
▁bet	-583
merken	-584
▁hyperplasie	-585
RA	-586
▁laag	-587
iopsie	-588
▁rug	-589
▁maligne	-590
gest	-591
las	-592
aald	-593
gradige	-594
▁melan	-595
ologie	-596
▁past	-597
ieerd	-598
▁beoor	-599
▁ook	-600
▁dermat	-601
pervlak	-602
gebre	-603
ositief	-604
),	-605
▁co	-606
hist	-607
enign	-608
bij	-609
lok	-610
itt	-611
enigne	-612
odenum	-613
ochem	-614
erk	-615
zien	-616
III	-617
▁uitgebre	-618
▁gedifferent	-619
▁ken	-620
▁mutatie	-621
ogen	-622
▁reik	-623
eli	-624
▁par	-625
fen	-626
omat	-627
omen	-628
▁pyl	-629
par	-630
▁aanvull	-631
eerd	-632
-2	-633
▁diep	-634
▁keratose	-635
apil	-636
▁pylori	-637
ER	-638
histochem	-639
uit	-640
orpus	-641
▁min	-642
▁benigne	-643
itteken	-644
acht	-645
▁slijmvlies	-646
▁an	-647
agus	-648
▁gra	-649
▁adenoom	-650
▁kenmerken	-651
▁ac	-652
▁oppervlak	-653
oma	-654
▁diagnose	-655
ofd	-656
unt	-657
▁med	-658
▁mor	-659
ow	-660
▁eer	-661
zij	-662
plast	-663
icaal	-664
▁ev	-665
▁lich	-666
▁teken	-667
scop	-668
ari	-669
▁cyste	-670
cent	-671
aan	-672
uun	-673
▁Re	-674
▁cellen	-675
▁al	-676
oide	-677
evens	-678
uc	-679
▁conform	-680
tr	-681
roffen	-682
▁superficieel	-683
ummer	-684
▁gen	-685
▁gev	-686
erende	-687
).[	-688
▁tekenen	-689
baar	-690
ulc	-691
ac	-692
▁als	-693
▁dan	-694
io	-695
beeld	-696
eter	-697
sult	-698
▁prostaat	-699
nen	-700
▁sub	-701
▁epitheel	-702
▁lichen	-703
ges	-704
▁aangetroffen	-705
▁bek	-706
▁uitgebreide	-707
ab	-708
nijvlakken	-709
ectomie	-710
▁positief	-711
IE	-712
De	-713
oll	-714
▁ulc	-715
▁oes	-716
▁oppervlakk	-717
▁enk	-718
epith	-719
bus	-720
▁uitslag	-721
yse	-722
▁litteken	-723
▁ontstekings	-724
ave	-725
▁hist	-726
▁atypische	-727
▁laaggradige	-728
nd	-729
bla	-730
ameter	-731
▁rad	-732
▁neus	-733
▁bes	-734
riet	-735
osis	-736
▁papil	-737
ere	-738
dig	-739
amen	-740
olif	-741
age	-742
▁specifieke	-743
ref	-744
▁gezien	-745
▁uur	-746
▁comp	-747
eerde	-748
rot	-749
elde	-750
▁actinische	-751
ion	-752
▁spriet	-753
invasie	-754
▁diagnost	-755
00	-756
epid	-757
keur	-758
▁weefsel	-759
▁path	-760
stig	-761
dere	-762
▁sol	-763
king	-764
-201	-765
▁aangetoon	-766
▁F	-767
▁infil	-768
pp	-769
rans	-770
▁Con	-771
▁hals	-772
▁huidexcisie	-773
alyse	-774
erde	-775
elen	-776
resectie	-777
epiderm	-778
▁rest	-779
▁betref	-780
▁aangetoond	-781
▁matig	-782
21	-783
have	-784
imale	-785
▁hier	-786
ocytaire	-787
▁ter	-788
ocht	-789
gestelde	-790
ouder	-791
▁sprieter	-792
ctomie	-793
uret	-794
▁dat	-795
▁solide	-796
cellen	-797
▁microscop	-798
▁samen	-799
ijn	-800
uring	-801
22	-802
▁mar	-803
osin	-804
▁intra	-805
]1	-806
aaldbiopten	-807
urale	-808
osinof	-809
epitheli	-810
ectie	-811
▁to	-812
rine	-813
▁huidbiopt	-814
▁mid	-815
▁aanvullend	-816
iagn	-817
enten	-818
leu	-819
ericht	-820
merg	-821
evisie	-822
ans	-823
lass	-824
▁eosinof	-825
▁enkele	-826
ctief	-827
▁voorkeur	-828
cellig	-829
na	-830
ind	-831
▁th	-832
lijk	-833
iele	-834
eenmerg	-835
▁zek	-836
▁antrum	-837
▁graad	-838
▁later	-839
uw	-840
ard	-841
▁samengestelde	-842
lassific	-843
▁my	-844
▁atrofie	-845
▁plaat	-846
▁duid	-847
▁best	-848
▁klein	-849
plastische	-850
unnen	-851
cor	-852
▁morbus	-853
gum	-854
oliferatie	-855
▁immuun	-856
▁kunnen	-857
vocht	-858
endens	-859
▁fragment	-860
▁corpus	-861
▁wang	-862
▁epiderm	-863
▁ka	-864
▁naar	-865
▁afwijking	-866
uur	-867
onden	-868
igm	-869
urett	-870
eld	-871
▁nog	-872
gumenten	-873
▁klinische	-874
jes	-875
▁cervix	-876
Geen	-877
▁chronisch	-878
▁argumenten	-879
ell	-880
osa	-881
elijke	-882
rand	-883
▁ten	-884
▁delen	-885
▁uitges	-886
▁0,	-887
ineurale	-888
paraat	-889
▁bericht	-890
▁resectievlak	-891
▁infiltr	-892
oph	-893
histochemisch	-894
▁duodenum	-895
olon	-896
▁*******,	-897
yst	-898
entr	-899
▁trans	-900
oleculaire	-901
▁onvoldoende	-902
est	-903
▁pre	-904
▁(1	-905
▁bl	-906
hoofd	-907
▁beoordel	-908
schijn	-909
rijk	-910
▁geheel	-911
link	-912
▁classific	-913
kw	-914
▁Resectie	-915
emp	-916
epitheliale	-917
biopsie	-918
lot	-919
van	-920
▁perineurale	-921
ollic	-922
ame	-923
air	-924
▁ho	-925
▁invasieve	-926
▁deze	-927
▁gl	-928
ologische	-929
ulitis	-930
randen	-931
▁lev	-932
▁toon	-933
▁onderbeen	-934
▁verm	-935
1-1	-936
▁End	-937
scendens	-938
▁waarbij	-939
ute	-940
▁enige	-941
▁inter	-942
▁tubulair	-943
▁i	-944
▁hem	-945
▁reikend	-946
]2	-947
▁bep	-948
▁dermatitis	-949
co	-950
oel	-951
▁bla	-952
▁ca	-953
schijnlijk	-954
▁el	-955
odem	-956
▁long	-957
▁oor	-958
eren	-959
▁schouder	-960
hal	-961
▁III	-962
loten	-963
▁toont	-964
▁meer	-965
▁Huidst	-966
▁darm	-967
▁peri	-968
▁maar	-969
▁daar	-970
▁lymfoom	-971
risico	-972
leura	-973
▁20	-974
▁rect	-975
owen	-976
▁ing	-977
2-1	-978
omateuze	-979
▁-	-980
iagnost	-981
▁verd	-982
▁zeer	-983
▁Colon	-984
]0	-985
▁lymfklieren	-986
▁radicaal	-987
▁nummer	-988
inig	-989
materiaal	-990
itu	-991
uk	-992
kle	-993
empor	-994
gev	-995
lan	-996
▁norm	-997
▁marge	-998
igmoid	-999
▁basis	-1000
▁kader	-1001
ocyten	-1002
▁1,	-1003
asis	-1004
aak	-1005
iv	-1006
nvoldoende	-1007
CL	-1008
omy	-1009
▁overwe	-1010
▁colitis	-1011
GF	-1012
pl	-1013
type	-1014
▁melanoom	-1015
ente	-1016
▁uitgesloten	-1017
▁pat	-1018
▁situ	-1019
▁vas	-1020
iepte	-1021
▁sprieterig	-1022
entu	-1023
▁bloed	-1024
min	-1025
opath	-1026
▁gast	-1027
▁klinisch	-1028
lair	-1029
igment	-1030
]*******	-1031
▁wel	-1032
▁gevonden	-1033
ud	-1034
▁analyse	-1035
▁beh	-1036
▁asp	-1037
▁achter	-1038
▁aanwezigheid	-1039
ax	-1040
wogen	-1041
▁werd	-1042
▁bovenbeen	-1043
uik	-1044
▁weinig	-1045
onent	-1046
ronch	-1047
▁punctie	-1048
▁Endometrium	-1049
▁duct	-1050
entraal	-1051
ild	-1052
▁overwogen	-1053
▁beoord	-1054
ofagus	-1055
raag	-1056
pro	-1057
▁fibrose	-1058
gradig	-1059
▁ret	-1060
▁diameter	-1061
eke	-1062
▁immun	-1063
chts	-1064
GFR	-1065
▁om	-1066
ibroom	-1067
▁Bowen	-1068
diepte	-1069
leas	-1070
leason	-1071
▁papill	-1072
sen	-1073
▁der	-1074
▁Revisie	-1075
ext	-1076
ophagus	-1077
▁betreft	-1078
mm	-1079
▁zie	-1080
upes	-1081
▁tempor	-1082
rea	-1083
▁proliferatie	-1084
Con	-1085
▁waarschijnlijk	-1086
ifferentiaal	-1087
▁acute	-1088
▁pathologie	-1089
CI	-1090
▁cont	-1091
cler	-1092
▁follic	-1093
me	-1094
▁aant	-1095
▁beide	-1096
▁voorhoofd	-1097
▁duidelijke	-1098
res	-1099
rond	-1100
▁urot	-1101
nijranden	-1102
icht	-1103
leum	-1104
▁matige	-1105
▁verdacht	-1106
▁zw	-1107
▁microscopie	-1108
kwab	-1109
preparaat	-1110
kom	-1111
be	-1112
▁ec	-1113
▁eventu	-1114
richt	-1115
angi	-1116
tie	-1117
ppend	-1118
▁rectum	-1119
▁urotheel	-1120
LE	-1121
voor	-1122
▁vet	-1123
rij	-1124
▁reactief	-1125
▁snijvlak	-1126
▁cyt	-1127
reactie	-1128
▁keratosis	-1129
Huid	-1130
▁besch	-1131
▁kleine	-1132
▁gastr	-1133
In	-1134
ept	-1135
▁melanocytaire	-1136
▁pati	-1137
fragment	-1138
▁onderarm	-1139
▁beenmerg	-1140
▁overweg	-1141
terus	-1142
-10	-1143
ocerv	-1144
uodenum	-1145
initie	-1146
leuravocht	-1147
]-	-1148
entie	-1149
▁schimm	-1150
ort	-1151
Deze	-1152
wand	-1153
▁pan	-1154
▁echter	-1155
lip	-1156
luit	-1157
▁Aanvull	-1158
▁oppervlakkig	-1159
▁kra	-1160
cid	-1161
▁10	-1162
▁bodem	-1163
urettage	-1164
▁muc	-1165
▁actinica	-1166
kerat	-1167
▁reikt	-1168
▁Gleason	-1169
af	-1170
ipel	-1171
oleculair	-1172
rest	-1173
▁wat	-1174
ors	-1175
▁celbeeld	-1176
blaas	-1177
gro	-1178
▁zou	-1179
one	-1180
▁lip	-1181
▁sec	-1182
eur	-1183
▁(*******	-1184
aden	-1185
otische	-1186
▁temporaal	-1187
unct	-1188
halve	-1189
▁oppervlakkige	-1190
▁component	-1191
ymfklier	-1192
zeem	-1193
emen	-1194
▁prim	-1195
ronchus	-1196
▁:	-1197
▁specifiek	-1198
snij	-1199
angio	-1200
oet	-1201
centa	-1202
ildklier	-1203
▁bekende	-1204
tu	-1205
▁vlok	-1206
▁bovenarm	-1207
wijze	-1208
gang	-1209
▁zeker	-1210
)[	-1211
▁snijvlakken	-1212
▁j	-1213
anth	-1214
▁reg	-1215
eg	-1216
▁beoordelen	-1217
erap	-1218
▁eczeem	-1219
▁histologisch	-1220
▁stat	-1221
▁diagnostiek	-1222
▁ileum	-1223
pres	-1224
▁Beeld	-1225
aagbiopten	-1226
AA	-1227
▁12	-1228
▁sle	-1229
▁Duodenum	-1230
ont	-1231
over	-1232
▁Cervix	-1233
▁beoordeel	-1234
rom	-1235
▁Een	-1236
BD	-1237
ola	-1238
▁minimale	-1239
▁lichenoide	-1240
inf	-1241
ern	-1242
▁gr	-1243
ief	-1244
orst	-1245
ipelle	-1246
poliep	-1247
iculair	-1248
upe	-1249
▁midden	-1250
ust	-1251
▁r	-1252
osus	-1253
rostaat	-1254
▁ab	-1255
komstig	-1256
▁kleuring	-1257
▁eerder	-1258
▁her	-1259
ificatie	-1260
▁lateraal	-1261
unten	-1262
▁schimmel	-1263
▁waarvan	-1264
aarne	-1265
ob	-1266
icale	-1267
cut	-1268
▁groeiwijze	-1269
ium	-1270
ogene	-1271
derm	-1272
11	-1273
geen	-1274
vers	-1275
erend	-1276
kn	-1277
▁EGFR	-1278
aliteit	-1279
ofibroom	-1280
▁mult	-1281
▁ascendens	-1282
▁afkomstig	-1283
iale	-1284
erkt	-1285
▁aanwijzing	-1286
▁nec	-1287
atrofie	-1288
▁ad	-1289
agen	-1290
ilie	-1291
▁shave	-1292
spunten	-1293
invasieve	-1294
elling	-1295
▁resp	-1296
▁exon	-1297
ond	-1298
▁epidermale	-1299
ede	-1300
cyt	-1301
ders	-1302
nex	-1303
12	-1304
ces	-1305
▁hyperkerat	-1306
imaal	-1307
▁colonslijmvlies	-1308
culaire	-1309
oh	-1310
▁vermeld	-1311
ds	-1312
▁name	-1313
RAF	-1314
boven	-1315
oA	-1316
ansbiopt	-1317
org	-1318
▁toto	-1319
▁fragmenten	-1320
▁2,	-1321
):[	-1322
▁hyperplastische	-1323
orrel	-1324
oe	-1325
▁beoordeelbaar	-1326
▁ander	-1327
▁am	-1328
ocytose	-1329
▁ulceratie	-1330
rose	-1331
ename	-1332
ledig	-1333
▁eosinofiele	-1334
ecifieke	-1335
cellige	-1336
▁append	-1337
▁invasief	-1338
▁granulomen	-1339
▁oesofagus	-1340
alblaas	-1341
▁dermatofibroom	-1342
orf	-1343
▁endocerv	-1344
▁vul	-1345
▁vlokatrofie	-1346
art	-1347
10	-1348
cre	-1349
ider	-1350
▁hoofd	-1351
gem	-1352
aande	-1353
cyste	-1354
are	-1355
▁coeur	-1356
▁zijde	-1357
▁biopsie	-1358
ruim	-1359
▁(2	-1360
iameter	-1361
▁consult	-1362
ocaal	-1363
▁vari	-1364
▁ulcer	-1365
all	-1366
igo	-1367
▁ok	-1368
▁groot	-1369
▁snijranden	-1370
muc	-1371
▁bev	-1372
anden	-1373
▁littekenweefsel	-1374
▁aantoon	-1375
tern	-1376
▁alle	-1377
yn	-1378
▁CD	-1379
emb	-1380
versum	-1381
▁bekend	-1382
Het	-1383
▁eventuele	-1384
du	-1385
core	-1386
zijds	-1387
▁lever	-1388
▁differentiaal	-1389
eptor	-1390
initieve	-1391
wel	-1392
▁dist	-1393
uwe	-1394
▁maagslijmvlies	-1395
cord	-1396
▁ern	-1397
iviteit	-1398
▁dors	-1399
▁eryt	-1400
ulatie	-1401
rechter	-1402
iesco	-1403
bek	-1404
▁correl	-1405
opathie	-1406
▁infectie	-1407
▁opn	-1408
▁score	-1409
▁mes	-1410
▁minder	-1411
▁Lymfklier	-1412
und	-1413
▁twe	-1414
▁BRAF	-1415
▁oksel	-1416
▁neu	-1417
arret	-1418
hyper	-1419
▁klier	-1420
▁contact	-1421
▁verricht	-1422
ohs	-1423
▁(0	-1424
linker	-1425
cordant	-1426
▁diagnostisch	-1427
▁superficiele	-1428
ith	-1429
unne	-1430
▁borst	-1431
▁eosinofilie	-1432
eus	-1433
▁oog	-1434
zijde	-1435
▁sigmoid	-1436
▁overige	-1437
▁sc	-1438
sect	-1439
vorm	-1440
▁oesophagus	-1441
▁immuno	-1442
▁afwezig	-1443
stige	-1444
▁thor	-1445
▁secret	-1446
FI	-1447
selijk	-1448
CA	-1449
lank	-1450
oping	-1451
icitis	-1452
▁Ch	-1453
▁fib	-1454
▁licht	-1455
arrett	-1456
▁normaal	-1457
iderzijds	-1458
](	-1459
nummer	-1460
iagnostiek	-1461
▁grens	-1462
▁toename	-1463
▁ductaal	-1464
▁loc	-1465
iding	-1466
▁gem	-1467
▁evid	-1468
▁blaas	-1469
men	-1470
▁nodulaire	-1471
ts	-1472
eth	-1473
▁ov	-1474
▁centraal	-1475
▁chol	-1476
▁sterk	-1477
unctaat	-1478
▁elders	-1479
▁cr	-1480
▁bepal	-1481
▁die	-1482
knoping	-1483
▁geb	-1484
rechts	-1485
vang	-1486
▁pol	-1487
▁rand	-1488
minste	-1489
▁eerdere	-1490
darm	-1491
eiomy	-1492
▁weke	-1493
angioom	-1494
▁spong	-1495
denking	-1496
kleuring	-1497
mw	-1498
▁hel	-1499
eklier	-1500
▁infiltratie	-1501
ukje	-1502
elegen	-1503
ceptor	-1504
▁aanknoping	-1505
Conclusie	-1506
links	-1507
patie	-1508
preking	-1509
▁grensvlak	-1510
▁lipoom	-1511
▁lab	-1512
irpatie	-1513
lokdarm	-1514
▁spongi	-1515
▁vetweefsel	-1516
▁beiderzijds	-1517
lam	-1518
▁ser	-1519
aaldbiopt	-1520
aten	-1521
oorn	-1522
▁subcut	-1523
neu	-1524
organ	-1525
corpus	-1526
▁celrijk	-1527
▁pigment	-1528
▁Consult	-1529
▁perivas	-1530
▁Aanvullend	-1531
▁verdenking	-1532
▁gedacht	-1533
tuig	-1534
▁Barrett	-1535
da	-1536
▁hand	-1537
▁leiomy	-1538
▁risico	-1539
▁Diagnostiek	-1540
▁diepe	-1541
1-0	-1542
201	-1543
ardia	-1544
▁buik	-1545
▁morf	-1546
ectiev	-1547
▁haar	-1548
▁zekere	-1549
▁*******.[	-1550
▁concordant	-1551
met	-1552
rus	-1553
▁overtuig	-1554
ich	-1555
▁onbek	-1556
digheid	-1557
ectievelijk	-1558
▁overwegend	-1559
entatief	-1560
▁transversum	-1561
▁verk	-1562
▁ontvang	-1563
▁aantoonbaar	-1564
ene	-1565
naast	-1566
plastisch	-1567
irr	-1568
stat	-1569
naaldbiopten	-1570
AL	-1571
usc	-1572
Aanvullend	-1573
▁resectievlakken	-1574
teri	-1575
▁opnemen	-1576
▁genen	-1577
▁1.	-1578
▁ernstige	-1579
hyperplasie	-1580
ieuwe	-1581
▁dd	-1582
▁patient	-1583
▁lijk	-1584
▁scler	-1585
▁volledig	-1586
▁for	-1587
▁volgens	-1588
▁lent	-1589
▁or	-1590
▁dysplastische	-1591
▁maagantrum	-1592
emat	-1593
ocellulair	-1594
▁tenminste	-1595
▁moleculair	-1596
erapie	-1597
▁gel	-1598
traat	-1599
lu	-1600
▁me	-1601
roma	-1602
▁hooggradig	-1603
tumor	-1604
▁plas	-1605
▁verw	-1606
▁dermis	-1607
uam	-1608
▁CI	-1609
ymfoom	-1610
oliepectomie	-1611
ront	-1612
▁epidermis	-1613
▁ER	-1614
lammat	-1615
▁Colonbiopten	-1616
▁laterale	-1617
ench	-1618
▁kunt	-1619
organis	-1620
▁Conclusie	-1621
malign	-1622
leg	-1623
ductie	-1624
▁plaatse	-1625
▁mutaties	-1626
kin	-1627
arium	-1628
▁Huidbiopsie	-1629
▁ger	-1630
▁gelegen	-1631
iasis	-1632
▁coupes	-1633
▁cytologisch	-1634
▁overtuigende	-1635
▁cholec	-1636
▁evidente	-1637
▁Ge	-1638
ystectomie	-1639
▁inz	-1640
fende	-1641
lammato	-1642
1,	-1643
▁kleincellig	-1644
gin	-1645
▁he	-1646
bare	-1647
nt	-1648
igine	-1649
visie	-1650
▁gastritis	-1651
▁hooggradige	-1652
▁plaatselijk	-1653
nog	-1654
fect	-1655
▁status	-1656
iescoupe	-1657
▁dient	-1658
adenoom	-1659
▁overgang	-1660
zie	-1661
▁derhalve	-1662
▁zwelling	-1663
histochemie	-1664
enchym	-1665
aur	-1666
eling	-1667
▁nier	-1668
shave	-1669
▁lymfeklier	-1670
▁flank	-1671
▁zekerheid	-1672
▁HER	-1673
▁ges	-1674
▁bespreking	-1675
hor	-1676
igg	-1677
▁forse	-1678
▁eerste	-1679
▁tumorcellen	-1680
▁schildklier	-1681
gel	-1682
▁andere	-1683
eft	-1684
room	-1685
▁Dit	-1686
ussen	-1687
▁uitbre	-1688
▁placenta	-1689
ren	-1690
▁diff	-1691
▁myel	-1692
ore	-1693
ecum	-1694
rouw	-1695
lasse	-1696
▁Gaarne	-1697
ocri	-1698
▁uterus	-1699
ez	-1700
▁tel	-1701
auriculair	-1702
proken	-1703
uringen	-1704
▁doorsnij	-1705
ppende	-1706
▁vragen	-1707
▁krap	-1708
▁tuba	-1709
▁Duodenumbiopten	-1710
iaan	-1711
▁gland	-1712
▁IBD	-1713
ariaat	-1714
▁folliculitis	-1715
▁secretariaat	-1716
uis	-1717
uren	-1718
▁behand	-1719
geb	-1720
▁Bronchus	-1721
alsnog	-1722
▁adnex	-1723
▁lijkt	-1724
▁Def	-1725
▁tra	-1726
▁Cholec	-1727
▁cholecyst	-1728
ressie	-1729
▁mediaal	-1730
analyse	-1731
ithiasis	-1732
ouw	-1733
▁Huidstukje	-1734
ten	-1735
Biopt	-1736
▁extra	-1737
ginn	-1738
▁ap	-1739
▁vaat	-1740
▁aspecifieke	-1741
▁granulomateuze	-1742
oorts	-1743
vestig	-1744
▁primaire	-1745
lav	-1746
curettage	-1747
▁betreffende	-1748
our	-1749
▁front	-1750
▁plasma	-1751
indingen	-1752
opla	-1753
ikel	-1754
▁ant	-1755
deling	-1756
▁tubul	-1757
ug	-1758
-02-1	-1759
ement	-1760
iatie	-1761
uameuze	-1762
RE	-1763
lokje	-1764
▁papillair	-1765
▁Hoog	-1766
iteerde	-1767
Er	-1768
mucosa	-1769
lokalisatie	-1770
ligg	-1771
luiten	-1772
▁repres	-1773
▁Appende	-1774
▁respectievelijk	-1775
LA	-1776
▁dunne	-1777
▁volgen	-1778
va	-1779
ane	-1780
adig	-1781
▁def	-1782
▁revisie	-1783
maligniteit	-1784
▁classificeren	-1785
itein	-1786
▁stroma	-1787
▁papilloom	-1788
▁perivasculaire	-1789
▁hemat	-1790
▁Beenmerg	-1791
▁dorsaal	-1792
2,	-1793
aris	-1794
ille	-1795
▁plan	-1796
vorming	-1797
▁aanvullende	-1798
▁appendicitis	-1799
-01	-1800
inaal	-1801
score	-1802
▁ster	-1803
positief	-1804
omorf	-1805
▁lies	-1806
▁level	-1807
▁slecht	-1808
aam	-1809
▁verder	-1810
▁beoordeling	-1811
effect	-1812
▁tussen	-1813
▁endocervicale	-1814
alc	-1815
lop	-1816
ons	-1817
dien	-1818
▁Her	-1819
odulair	-1820
▁descendens	-1821
geven	-1822
▁hemangioom	-1823
eveel	-1824
anthoom	-1825
sectier	-1826
▁tevens	-1827
▁sprieterige	-1828
itslag	-1829
-11	-1830
gra	-1831
lid	-1832
Huidbiopt	-1833
▁bepaling	-1834
▁spongiotische	-1835
epat	-1836
▁sterke	-1837
▁infiltrerend	-1838
▁microscopische	-1839
Revisie	-1840
▁11	-1841
ista	-1842
▁mil	-1843
ustype	-1844
▁panel	-1845
▁hoeveel	-1846
▁ovarium	-1847
GE	-1848
organismen	-1849
▁uitbreiding	-1850
▁AL	-1851
▁Cyt	-1852
▁beginn	-1853
arcinoma	-1854
ure	-1855
▁max	-1856
arcoom	-1857
▁hoeveelheid	-1858
▁granulocyten	-1859
oth	-1860
▁dank	-1861
▁bevestig	-1862
▁lymfocytose	-1863
▁inst	-1864
agitis	-1865
▁spier	-1866
▁uitein	-1867
receptor	-1868
▁Galblaas	-1869
▁endometri	-1870
▁schimmels	-1871
ging	-1872
-01-1	-1873
▁Appendectomie	-1874
▁vulg	-1875
▁multif	-1876
grond	-1877
▁retour	-1878
atell	-1879
▁vulgaris	-1880
▁Huidshave	-1881
▁verwerkt	-1882
▁epitheliale	-1883
▁onbekend	-1884
illa	-1885
spoel	-1886
▁prox	-1887
erminale	-1888
▁lentigo	-1889
▁twee	-1890
▁vasc	-1891
extirpatie	-1892
zen	-1893
▁Bij	-1894
steking	-1895
urettement	-1896
▁invasiediepte	-1897
▁vaso	-1898
lammatoire	-1899
loc	-1900
▁dr	-1901
linisch	-1902
▁mediale	-1903
▁frontaal	-1904
iardia	-1905
BB	-1906
DI	-1907
reid	-1908
ruct	-1909
LI	-1910
omer	-1911
isexcisie	-1912
-21	-1913
wang	-1914
▁bot	-1915
▁extern	-1916
▁le	-1917
onen	-1918
gemaak	-1919
▁bevindingen	-1920
--	-1921
EFI	-1922
▁typ	-1923
neden	-1924
▁derden	-1925
▁moleculaire	-1926
ft	-1927
vert	-1928
▁recid	-1929
irriteerde	-1930
onale	-1931
▁perif	-1932
diameter	-1933
negatief	-1934
▁kleuringen	-1935
▁no	-1936
▁zo	-1937
▁cyst	-1938
▁bloeding	-1939
indweefsel	-1940
▁representatief	-1941
low	-1942
genomen	-1943
CH	-1944
▁ruim	-1945
esda	-1946
▁angio	-1947
▁Giardia	-1948
▁ax	-1949
aarde	-1950
▁urine	-1951
▁2.	-1952
rake	-1953
▁nas	-1954
generatie	-1955
rostaatbiopten	-1956
▁classificerende	-1957
▁mac	-1958
▁onge	-1959
▁naast	-1960
▁classificatie	-1961
-12	-1962
epel	-1963
ethesda	-1964
▁sprake	-1965
iculaire	-1966
▁coecum	-1967
oedelijk	-1968
▁intraderm	-1969
▁grootcellig	-1970
▁poliepectomie	-1971
▁post	-1972
buik	-1973
anger	-1974
behor	-1975
▁beho	-1976
agin	-1977
trof	-1978
▁eryth	-1979
▁thorax	-1980
gemaakte	-1981
-02	-1982
lab	-1983
▁int	-1984
ositieve	-1985
clerose	-1986
▁bijbehor	-1987
▁det	-1988
▁pathogene	-1989
LLE	-1990
ied	-1991
▁sluiten	-1992
veranderingen	-1993
▁vorm	-1994
punctie	-1995
▁bijbehorende	-1996
sori	-1997
vall	-1998
▁geh	-1999
plificatie	-2000
▁FI	-2001
oken	-2002
▁necrot	-2003
sectieranden	-2004
aard	-2005
▁veel	-2006
▁nader	-2007
blast	-2008
▁Daar	-2009
▁glomer	-2010
roliferatie	-2011
▁maagcorpus	-2012
ifferentiatie	-2013
alp	-2014
▁cran	-2015
▁bindweefsel	-2016
ila	-2017
mid	-2018
▁Ig	-2019
▁neuro	-2020
mb	-2021
bra	-2022
odg	-2023
▁dis	-2024
antie	-2025
▁zijs	-2026
▁verander	-2027
▁gep	-2028
erkte	-2029
▁proces	-2030
▁slokdarm	-2031
▁therapie	-2032
-11-1	-2033
▁uits	-2034
odgkin	-2035
hoek	-2036
amm	-2037
evlak	-2038
▁mucosa	-2039
▁hyperkeratose	-2040
osie	-2041
▁gew	-2042
▁kap	-2043
esophagus	-2044
▁geirriteerde	-2045
▁201	-2046
alcificatie	-2047
zicht	-2048
▁betrouw	-2049
▁dermaal	-2050
GIE	-2051
iseerd	-2052
▁Biopsie	-2053
▁ontstoken	-2054
▁laaggradig	-2055
▁dig	-2056
▁spoel	-2057
orpustype	-2058
ameus	-2059
inder	-2060
▁opvall	-2061
kenmerken	-2062
▁ventraal	-2063
▁Cervixbiopt	-2064
her	-2065
ischem	-2066
rofiel	-2067
uameus	-2068
▁variant	-2069
▁vasculitis	-2070
▁cir	-2071
-10-1	-2072
▁diepere	-2073
▁primair	-2074
Huidexcisie	-2075
▁.	-2076
arge	-2077
evus	-2078
iekte	-2079
▁dieper	-2080
▁erosie	-2081
▁distale	-2082
▁ext	-2083
itaal	-2084
neevlak	-2085
▁rond	-2086
2-	-2087
infil	-2088
ocriene	-2089
▁doorgemaakte	-2090
▁DD	-2091
asus	-2092
otisch	-2093
centage	-2094
▁pancre	-2095
▁beschadig	-2096
▁sy	-2097
▁zover	-2098
nie	-2099
▁lob	-2100
▁Conform	-2101
▁origine	-2102
▁granuloma	-2103
rijp	-2104
groei	-2105
uscel	-2106
▁psori	-2107
▁reactie	-2108
▁uitgebreid	-2109
▁arch	-2110
▁blij	-2111
ieerde	-2112
oplasie	-2113
▁planus	-2114
otis	-2115
▁mic	-2116
itone	-2117
isatie	-2118
▁prostaatbiopten	-2119
▁cryp	-2120
▁ischem	-2121
▁gefragment	-2122
exon	-2123
▁geg	-2124
-12-1	-2125
▁ulcus	-2126
atori	-2127
iciteit	-2128
▁Imm	-2129
▁regio	-2130
locatie	-2131
schouder	-2132
▁vooralsnog	-2133
pret	-2134
roon	-2135
▁diepte	-2136
▁terminale	-2137
▁gediagnost	-2138
▁localisatie	-2139
▁fibroadenoom	-2140
ERI	-2141
rocyt	-2142
▁deel	-2143
olaire	-2144
▁positieve	-2145
▁Huidstansbiopt	-2146
enk	-2147
erg	-2148
vies	-2149
▁Hier	-2150
▁Huidstans	-2151
▁intradermale	-2152
▁nr	-2153
▁regressie	-2154
ollikel	-2155
▁Definitieve	-2156
▁Colonslijmvlies	-2157
iA	-2158
▁nek	-2159
eliak	-2160
pressie	-2161
▁hoogte	-2162
▁hypertrof	-2163
▁papillomat	-2164
AR	-2165
▁com	-2166
▁achtergrond	-2167
ce	-2168
asaal	-2169
scite	-2170
ructuren	-2171
acanthoom	-2172
icaliteit	-2173
-202	-2174
▁kerato	-2175
▁neusrug	-2176
▁leiomyoom	-2177
▁correlatie	-2178
illeus	-2179
vlakken	-2180
▁necrose	-2181
rush	-2182
klein	-2183
▁kliniek	-2184
▁carcinoma	-2185
1.	-2186
▁voet	-2187
ndroom	-2188
▁hepat	-2189
▁gegevens	-2190
▁amplificatie	-2191
CC	-2192
▁non	-2193
▁vir	-2194
zocht	-2195
▁caud	-2196
eliakie	-2197
▁nieuwe	-2198
hr	-2199
▁beschouw	-2200
▁Lev	-2201
▁knie	-2202
uus	-2203
▁enkel	-2204
▁recidief	-2205
▁maagbiopten	-2206
▁multifocaal	-2207
ulus	-2208
scites	-2209
esofagus	-2210
▁mammacarcinoom	-2211
▁all	-2212
▁focus	-2213
▁meest	-2214
▁nodus	-2215
amelijk	-2216
▁cil	-2217
br	-2218
-22	-2219
opoe	-2220
▁Invasie	-2221
▁vermoedelijk	-2222
ees	-2223
flu	-2224
▁Rad	-2225
▁lum	-2226
wijzig	-2227
▁verslag	-2228
▁lymfocyten	-2229
,1	-2230
-)	-2231
laire	-2232
atelliet	-2233
▁uitsluit	-2234
▁coeliakie	-2235
▁beginnende	-2236
▁et	-2237
▁zoals	-2238
▁*******)	-2239
▁beperkte	-2240
cellymfoom	-2241
▁bed	-2242
▁blokje	-2243
▁verdere	-2244
▁bovenkwab	-2245
▁morfologisch	-2246
osit	-2247
activiteit	-2248
▁Cytologische	-2249
▁rel	-2250
ooglid	-2251
raak	-2252
▁dik	-2253
▁variatie	-2254
assoc	-2255
micro	-2256
lacenta	-2257
▁fibros	-2258
▁Daarnaast	-2259
wege	-2260
▁toe	-2261
eleide	-2262
zonder	-2263
▁ingez	-2264
rat	-2265
ven	-2266
▁ob	-2267
-2020	-2268
opoese	-2269
fragmenten	-2270
▁doorsnijd	-2271
▁1:	-2272
▁bestaande	-2273
lex	-2274
urg	-2275
brauw	-2276
▁middel	-2277
enkbrauw	-2278
▁glomerul	-2279
gegeven	-2280
iagnose	-2281
▁micron	-2282
▁parotis	-2283
▁behaarde	-2284
heden	-2285
reerde	-2286
▁handrug	-2287
zaak	-2288
▁medi	-2289
▁Gezien	-2290
▁onderzocht	-2291
alk	-2292
roh	-2293
▁station	-2294
alcificaties	-2295
▁ontstekingsrest	-2296
iver	-2297
rohn	-2298
▁onderlip	-2299
▁vriescoupe	-2300
EI	-2301
roei	-2302
▁bul	-2303
▁sla	-2304
-2021	-2305
▁DEFI	-2306
atieve	-2307
CBD	-2308
graad	-2309
▁uteri	-2310
▁hierin	-2311
elp	-2312
▁degeneratie	-2313
anel	-2314
▁slechts	-2315
aagslijmvlies	-2316
lar	-2317
icus	-2318
▁beste	-2319
▁lichte	-2320
▁diffuus	-2321
▁instantie	-2322
duid	-2323
schap	-2324
spraak	-2325
▁slaap	-2326
Biopten	-2327
▁subcutis	-2328
▁syndroom	-2329
▁naaldbiopten	-2330
2-0	-2331
gte	-2332
rac	-2333
▁arm	-2334
▁ple	-2335
irurg	-2336
itect	-2337
stand	-2338
▁even	-2339
schelp	-2340
▁Crohn	-2341
▁tonen	-2342
▁axilla	-2343
▁Differentiaal	-2344
rt	-2345
▁crypt	-2346
▁celarm	-2347
▁neoplasie	-2348
imp	-2349
▁cl	-2350
▁pse	-2351
innen	-2352
oupes	-2353
▁lamb	-2354
▁eventueel	-2355
ade	-2356
erden	-2357
▁lymfocytaire	-2358
uor	-2359
ikte	-2360
punt	-2361
apula	-2362
iform	-2363
formatie	-2364
▁hr	-2365
leugel	-2366
▁acanth	-2367
namelijk	-2368
selklier	-2369
▁anus	-2370
▁werden	-2371
▁zijdigheid	-2372
Bij	-2373
▁EB	-2374
vrij	-2375
vleugel	-2376
▁focale	-2377
▁meerdere	-2378
kleincellig	-2379
▁ed	-2380
▁cut	-2381
-2022	-2382
olifer	-2383
rogeen	-2384
stitie	-2385
▁gevol	-2386
▁klasse	-2387
▁wenkbrauw	-2388
▁opvallende	-2389
▁cholecystitis	-2390
.(	-2391
ill	-2392
huid	-2393
▁DCI	-2394
middel	-2395
strijk	-2396
▁atypisch	-2397
▁pancreas	-2398
▁ontvangen	-2399
eu	-2400
asen	-2401
cont	-2402
eron	-2403
▁Indien	-2404
ateriaal	-2405
▁bil	-2406
iologisch	-2407
proliferatie	-2408
rant	-2409
urie	-2410
▁musc	-2411
▁Focaal	-2412
▁histologische	-2413
▁verruc	-2414
▁voornamelijk	-2415
eek	-2416
▁nee	-2417
▁weken	-2418
▁ulcerosa	-2419
▁onderkwab	-2420
raagt	-2421
▁romp	-2422
naevus	-2423
th	-2424
ark	-2425
▁RE	-2426
erder	-2427
adrant	-2428
Consult	-2429
▁doorsnijdingen	-2430
derende	-2431
athologie	-2432
onderzoek	-2433
▁translocatie	-2434
ui	-2435
emd	-2436
hol	-2437
leet	-2438
uizen	-2439
ibiaal	-2440
iverende	-2441
▁ontvangt	-2442
ulatieweefsel	-2443
mon	-2444
▁uw	-2445
chog	-2446
rista	-2447
▁editie	-2448
▁onderrug	-2449
itale	-2450
▁distaal	-2451
▁sclerosus	-2452
eve	-2453
itus	-2454
▁100	-2455
▁bronchus	-2456
▁correleren	-2457
▁infiltraat	-2458
▁definitieve	-2459
▁py	-2460
▁mucine	-2461
▁hooguit	-2462
▁inflammatoire	-2463
con	-2464
hand	-2465
groep	-2466
reductie	-2467
▁chirurg	-2468
▁normale	-2469
laviculair	-2470
▁onderligg	-2471
▁ulcererende	-2472
▁GE	-2473
ruik	-2474
wijzigd	-2475
▁blijft	-2476
estrogeen	-2477
▁*******:	-2478
coch	-2479
sten	-2480
regen	-2481
gesteron	-2482
▁resectieranden	-2483
efr	-2484
gevo	-2485
▁Cel	-2486
egment	-2487
▁gebied	-2488
ovilleus	-2489
▁BR	-2490
blad	-2491
▁sug	-2492
cochle	-2493
▁tepel	-2494
▁preparaat	-2495
▁psoriasis	-2496
▁Aanvullende	-2497
▁gediagnostic	-2498
▁darmslijmvlies	-2499
ng	-2500
led	-2501
▁aanv	-2502
astase	-2503
kwadrant	-2504
eekselklier	-2505
ereus	-2506
ecrose	-2507
▁actief	-2508
▁totaal	-2509
infiltraat	-2510
▁gastropathie	-2511
lijmvliesbiopten	-2512
IEF	-2513
door	-2514
owel	-2515
▁mast	-2516
eringe	-2517
▁profiel	-2518
▁behandeling	-2519
▁basocellulair	-2520
▁atrof	-2521
dis	-2522
eid	-2523
▁cell	-2524
▁kaak	-2525
▁segment	-2526
▁lymfoide	-2527
▁Beenmergbiopt	-2528
tal	-2529
▁abce	-2530
waliteit	-2531
▁uitspraak	-2532
▁plasmacellen	-2533
sa	-2534
inus	-2535
▁craniaal	-2536
▁galblaas	-2537
▁corpustype	-2538
2.	-2539
ERE	-2540
ank	-2541
emie	-2542
spot	-2543
edarm	-2544
reemd	-2545
contin	-2546
dermat	-2547
reslow	-2548
▁bedraagt	-2549
▁papillomatosus	-2550
▁Li	-2551
hals	-2552
lymf	-2553
lijden	-2554
▁differentiatie	-2555
20-	-2556
▁mon	-2557
otspot	-2558
reg	-2559
neus	-2560
reep	-2561
▁gec	-2562
▁tox	-2563
▁Hist	-2564
laesie	-2565
▁suggest	-2566
▁Diameter	-2567
ben	-2568
impl	-2569
▁zal	-2570
▁pret	-2571
▁opruim	-2572
ysplasie	-2573
▁geassoc	-2574
▁mediaan	-2575
▁tr	-2576
uptu	-2577
▁gelaat	-2578
▁scapula	-2579
▁gal	-2580
▁casus	-2581
▁aspect	-2582
▁binnen	-2583
zijdigheid	-2584
▁neusvleugel	-2585
▁spierweefsel	-2586
▁onc	-2587
▁ste	-2588
lopig	-2589
▁histi	-2590
ocervix	-2591
▁sereus	-2592
▁reexcisie	-2593
-00	-2594
▁Bla	-2595
onderbeen	-2596
▁folliculaire	-2597
▁kin	-2598
diagnose	-2599
aria	-2600
lijn	-2601
▁hyp	-2602
▁Crista	-2603
pretatie	-2604
▁caudaal	-2605
▁reuscel	-2606
▁*******.	-2607
bin	-2608
ple	-2609
issel	-2610
▁punt	-2611
ofagitis	-2612
▁appendix	-2613
▁lymfangio	-2614
▁oorschelp	-2615
▁suggestief	-2616
ars	-2617
▁drie	-2618
parenchym	-2619
histochemische	-2620
▁endocervicaal	-2621
▁tubulovilleus	-2622
▁gefragmenteerd	-2623
med	-2624
unn	-2625
▁hy	-2626
▁cholel	-2627
▁architect	-2628
▁verruceuze	-2629
▁abcederende	-2630
▁fibroserende	-2631
▁mammaweefsel	-2632
ynov	-2633
rusor	-2634
ulare	-2635
▁uitrijp	-2636
▁bovenlip	-2637
▁helicobacter	-2638
▁infiltratieve	-2639
opt	-2640
typ	-2641
▁Ad	-2642
▁uret	-2643
initief	-2644
▁Append	-2645
▁thorac	-2646
▁mediast	-2647
▁plaveiselcel	-2648
▁duodenumbiopten	-2649
ude	-2650
ume	-2651
itoneum	-2652
klinisch	-2653
chogeleide	-2654
▁bijzonder	-2655
comp	-2656
▁zowel	-2657
▁geruptu	-2658
▁zwanger	-2659
▁verkregen	-2660
▁pretibiaal	-2661
▁uitgesproken	-2662
▁zwangerschap	-2663
▁cholelithiasis	-2664
▁0.	-2665
▁aantal	-2666
▁lastig	-2667
follikel	-2668
▁Al	-2669
gens	-2670
akerat	-2671
▁vulva	-2672
eenbeen	-2673
ings	-2674
▁dep	-2675
▁tegen	-2676
▁schade	-2677
stitiele	-2678
eesmiddel	-2679
▁betrouwbare	-2680
ann	-2681
boog	-2682
▁BRCA	-2683
▁locatie	-2684
▁curettage	-2685
▁expressie	-2686
▁Invasiediepte	-2687
▁opruimreactie	-2688
ici	-2689
rik	-2690
▁sep	-2691
▁gest	-2692
ziekte	-2693
▁fibre	-2694
▁vagin	-2695
▁arteri	-2696
▁micros	-2697
iserende	-2698
▁prolifer	-2699
▁tumorvrij	-2700
ocol	-2701
▁dub	-2702
▁maximale	-2703
▁pl	-2704
ilia	-2705
waar	-2706
▁cor	-2707
▁Deze	-2708
▁krab	-2709
▁klierb	-2710
▁Bethesda	-2711
▁sneevlak	-2712
▁radicaliteit	-2713
ive	-2714
exist	-2715
▁been	-2716
pigment	-2717
▁herhal	-2718
▁virale	-2719
▁ooghoek	-2720
dermatitis	-2721
esophagusbiopten	-2722
22-	-2723
▁mit	-2724
▁tal	-2725
andib	-2726
▁fund	-2727
▁gaarne	-2728
litteken	-2729
▁Ascites	-2730
▁ingreep	-2731
▁cilinder	-2732
▁onderver	-2733
icum	-2734
▁kuit	-2735
entrum	-2736
iratie	-2737
otheli	-2738
▁inzend	-2739
skenmerken	-2740
▁pleuravocht	-2741
raf	-2742
ermat	-2743
▁leuk	-2744
▁tong	-2745
▁verb	-2746
▁danwel	-2747
▁detrusor	-2748
▁proximaal	-2749
▁Bronchusspoel	-2750
▁speekselklier	-2751
▁bijzonderheden	-2752
▁Ex	-2753
▁via	-2754
▁slijm	-2755
▁welke	-2756
aardige	-2757
gevoerd	-2758
▁metastasen	-2759
▁adenomateuze	-2760
▁geneesmiddel	-2761
asc	-2762
▁tri	-2763
▁test	-2764
bovenbeen	-2765
endocriene	-2766
▁Huidresectie	-2767
atum	-2768
dens	-2769
lich	-2770
ylin	-2771
▁Immuun	-2772
▁basale	-2773
▁colonbiopten	-2774
▁geruptureerde	-2775
▁2-	-2776
oloog	-2777
▁verh	-2778
afwijk	-2779
necrose	-2780
oratori	-2781
richting	-2782
▁Appendix	-2783
▁bovenrug	-2784
ria	-2785
romb	-2786
dikte	-2787
erfor	-2788
▁sarc	-2789
▁oesofagitis	-2790
aams	-2791
acte	-2792
▁ingroei	-2793
osclerose	-2794
specifieke	-2795
continentie	-2796
▁intestinaal	-2797
lia	-2798
▁ann	-2799
icula	-2800
emband	-2801
otheel	-2802
oratorium	-2803
▁punctaat	-2804
.1	-2805
ity	-2806
osen	-2807
▁helix	-2808
▁retro	-2809
▁divert	-2810
▁inclusie	-2811
▁nodularis	-2812
▁Resectievlakken	-2813
oo	-2814
tv	-2815
erior	-2816
acteri	-2817
▁elast	-2818
▁spreid	-2819
▁parakerat	-2820
▁zijsnijvlak	-2821
eker	-2822
atroon	-2823
actieve	-2824
pervlakk	-2825
▁Geringe	-2826
▁context	-2827
▁uiteinden	-2828
▁structuren	-2829
Ad	-2830
au	-2831
▁Ac	-2832
uentie	-2833
▁onderzochte	-2834
▁was	-2835
▁scalp	-2836
▁oorzaak	-2837
▁folliculair	-2838
esofagusbiopten	-2839
DH	-2840
iel	-2841
▁Is	-2842
▁se	-2843
cidu	-2844
ammap	-2845
bodem	-2846
▁Rect	-2847
▁random	-2848
riescoupe	-2849
▁beoordeeld	-2850
▁Gleasonscore	-2851
dyl	-2852
enc	-2853
ura	-2854
edeem	-2855
tiele	-2856
opulatie	-2857
cochleaat	-2858
▁uiteinde	-2859
curettement	-2860
▁transformatie	-2861
igmoA	-2862
oplas	-2863
▁poliepen	-2864
▁spreidend	-2865
▁haarfollikel	-2866
▁schouderblad	-2867
AI	-2868
heids	-2869
holte	-2870
▁kapsel	-2871
▁toegenomen	-2872
Imm	-2873
ced	-2874
use	-2875
▁En	-2876
▁Gen	-2877
▁los	-2878
oelig	-2879
ograf	-2880
▁angi	-2881
▁sinus	-2882
▁gehele	-2883
▁wissel	-2884
▁annulare	-2885
olithiasis	-2886
dit	-2887
spl	-2888
actief	-2889
▁patiA	-2890
▁behoeve	-2891
▁uitgevoerd	-2892
resectievlak	-2893
▁necrotiserende	-2894
baal	-2895
ctus	-2896
inel	-2897
implex	-2898
▁oedeem	-2899
▁ontbre	-2900
▁lamblia	-2901
▁aangegeven	-2902
rop	-2903
▁nav	-2904
▁top	-2905
engte	-2906
ester	-2907
raden	-2908
entinel	-2909
▁secund	-2910
▁simplex	-2911
DE	-2912
▁ses	-2913
scheid	-2914
osarcoom	-2915
▁gepigment	-2916
▁Echogeleide	-2917
▁22	-2918
houd	-2919
veer	-2920
ERICH	-2921
▁colla	-2922
▁BERICH	-2923
▁hiervan	-2924
aagantrum	-2925
▁stansbiopt	-2926
raclaviculair	-2927
ue	-2928
ante	-2929
ontaan	-2930
▁groep	-2931
▁aankleuring	-2932
adv	-2933
ooi	-2934
▁ru	-2935
▁ect	-2936
▁result	-2937
▁maligna	-2938
▁lobulair	-2939
gesteronreceptor	-2940
▁grensvlaknaevus	-2941
ores	-2942
▁myc	-2943
rijke	-2944
oidose	-2945
epithel	-2946
delingen	-2947
▁Radicaal	-2948
▁chirurgie	-2949
▁thoracaal	-2950
▁onderscheid	-2951
incontinentie	-2952
02	-2953
▁pap	-2954
anaal	-2955
▁(100	-2956
▁hoorn	-2957
ografie	-2958
▁sessie	-2959
adviseerd	-2960
▁besproken	-2961
AD	-2962
udo	-2963
atyp	-2964
keuze	-2965
▁Lever	-2966
▁coupe	-2967
▁heeft	-2968
▁separ	-2969
▁matuur	-2970
▁adenomy	-2971
▁scheenbeen	-2972
RAD	-2973
oen	-2974
▁ma	-2975
▁sign	-2976
leboog	-2977
▁intern	-2978
▁lengte	-2979
▁digitus	-2980
▁aanvulling	-2981
gd	-2982
ipele	-2983
matig	-2984
rated	-2985
▁amyl	-2986
dermie	-2987
▁Breslow	-2988
▁duidelijk	-2989
▁ongewijzigd	-2990
▁bovenkwadrant	-2991
▁interpretatie	-2992
▁hypertrofische	-2993
01	-2994
0-0	-2995
merk	-2996
▁bre	-2997
ocard	-2998
raagd	-2999
ranod	-3000
▁prom	-3001
▁tubae	-3002
▁overwegingen	-3003
ijz	-3004
ynx	-3005
uurd	-3006
▁foet	-3007
atisch	-3008
cedure	-3009
Invasie	-3010
staande	-3011
▁Rectum	-3012
▁Hodgkin	-3013
schildklier	-3014
▁onderooglid	-3015
pt	-3016
ary	-3017
osale	-3018
▁nasi	-3019
▁snij	-3020
oornend	-3021
▁oesoph	-3022
orescent	-3023
▁erosieve	-3024
▁serrated	-3025
▁stemband	-3026
▁proximale	-3027
▁activerende	-3028
▁metaplastisch	-3029
▁tumorpositief	-3030
app	-3031
bes	-3032
----	-3033
iforme	-3034
oblast	-3035
▁condyl	-3036
▁beperkt	-3037
▁,	-3038
LLI	-3039
▁plaats	-3040
unnedarm	-3041
▁diffuse	-3042
▁onderste	-3043
▁granulerende	-3044
▁ontstekingsp	-3045
asie	-3046
elat	-3047
urigo	-3048
▁gang	-3049
▁mass	-3050
▁prot	-3051
immuun	-3052
ntsteking	-3053
▁cysteuze	-3054
▁granuloom	-3055
▁antrumtype	-3056
▁degeneratieve	-3057
ea	-3058
HER	-3059
iologie	-3060
osities	-3061
▁perfor	-3062
orescentie	-3063
gl	-3064
▁net	-3065
▁zone	-3066
ranspl	-3067
▁geval	-3068
▁grote	-3069
ineaire	-3070
arkeerde	-3071
▁Centrum	-3072
▁lymfoid	-3073
▁tractus	-3074
dissectie	-3075
ransplant	-3076
▁bevestigd	-3077
▁endometriose	-3078
▁interstitiele	-3079
Her	-3080
apillair	-3081
▁lumbaal	-3082
▁Lisexcisie	-3083
▁micronodulair	-3084
21-	-3085
ros	-3086
aakt	-3087
iomorf	-3088
▁recent	-3089
▁neuspunt	-3090
▁activiteit	-3091
▁biologisch	-3092
sn	-3093
▁GEE	-3094
▁aut	-3095
▁para	-3096
linische	-3097
▁verband	-3098
BBL	-3099
ers	-3100
hip	-3101
ins	-3102
panel	-3103
ronde	-3104
▁fibr	-3105
▁mond	-3106
▁dicht	-3107
▁labium	-3108
▁hetgeen	-3109
▁compleet	-3110
▁verrichte	-3111
▁beschouwen	-3112
kop	-3113
▁ha	-3114
inum	-3115
rtic	-3116
ieden	-3117
▁ERBB	-3118
▁enig	-3119
Coupes	-3120
legmon	-3121
roscop	-3122
spreid	-3123
▁param	-3124
▁pariet	-3125
▁waarop	-3126
osigmoid	-3127
▁adnexen	-3128
ppervlakk	-3129
▁geadviseerd	-3130
ALE	-3131
ate	-3132
ema	-3133
eens	-3134
▁BCL	-3135
▁duiden	-3136
punctaat	-3137
▁extranod	-3138
▁doorsnijden	-3139
hipple	-3140
prostaat	-3141
cellulair	-3142
▁behandel	-3143
ontsteking	-3144
▁mesotheel	-3145
pigmentatie	-3146
▁verrukeuze	-3147
cop	-3148
dom	-3149
gew	-3150
let	-3151
arsh	-3152
ening	-3153
▁ilia	-3154
ls	-3155
igh	-3156
oge	-3157
kenh	-3158
oord	-3159
orro	-3160
▁aort	-3161
▁chond	-3162
gesneden	-3163
▁ingezet	-3164
▁ziekenh	-3165
▁mesotheli	-3166
▁oesophagitis	-3167
▁parakeratose	-3168
LAI	-3169
elf	-3170
ring	-3171
ruin	-3172
▁IgA	-3173
▁heup	-3174
gklier	-3175
▁vreemd	-3176
infectie	-3177
▁overleg	-3178
▁pipelle	-3179
▁ischemie	-3180
▁pleiomorf	-3181
▁krabeffect	-3182
ha	-3183
uno	-3184
hoog	-3185
wacht	-3186
▁node	-3187
▁chori	-3188
bovenarm	-3189
▁verzoek	-3190
▁glandula	-3191
▁klierbuizen	-3192
terusextirpatie	-3193
▁normocellulair	-3194
▁cylin	-3195
▁urtic	-3196
iculitis	-3197
▁veranderd	-3198
▁microsatelliet	-3199
▁21	-3200
21-0	-3201
erie	-3202
upus	-3203
▁Bot	-3204
oscop	-3205
iceerd	-3206
▁behou	-3207
Excisie	-3208
snijden	-3209
▁cutane	-3210
▁fibroom	-3211
microscop	-3212
▁ongeveer	-3213
▁richting	-3214
ly	-3215
▁ml	-3216
22-0	-3217
ranul	-3218
▁Long	-3219
▁circ	-3220
teerde	-3221
▁genet	-3222
▁randen	-3223
▁sessiel	-3224
▁elleboog	-3225
▁eveneens	-3226
▁perforatie	-3227
▁celmateriaal	-3228
▁exter	-3229
▁spermat	-3230
▁minimaal	-3231
▁separaat	-3232
▁ontbreken	-3233
▁talgklier	-3234
Aanvullende	-3235
▁beschadigde	-3236
0,	-3237
LAIRE	-3238
srest	-3239
legmoneuze	-3240
percentage	-3241
0.	-3242
gr	-3243
jw	-3244
neum	-3245
tend	-3246
▁heb	-3247
▁laat	-3248
▁oude	-3249
▁ather	-3250
▁navel	-3251
▁pyogen	-3252
]*******[	-3253
▁receptor	-3254
▁pyogenicum	-3255
▁Cristabiopt	-3256
▁architectuur	-3257
lev	-3258
▁2:	-3259
flux	-3260
▁ven	-3261
Hodgkin	-3262
▁microc	-3263
▁reflux	-3264
▁testis	-3265
▁compact	-3266
▁opzicht	-3267
▁erytrocyt	-3268
▁voldoende	-3269
▁gepigmenteerde	-3270
uta	-3271
▁imp	-3272
▁Door	-3273
▁apex	-3274
olaris	-3275
▁Dunne	-3276
atische	-3277
▁gelijk	-3278
▁nadere	-3279
▁vreemdlich	-3280
omorfologisch	-3281
▁acuta	-3282
▁prurigo	-3283
▁ontstaan	-3284
lat	-3285
kern	-3286
ulva	-3287
▁Aan	-3288
▁drs	-3289
▁gram	-3290
verige	-3291
▁trich	-3292
unction	-3293
▁hebben	-3294
▁opzichte	-3295
▁typering	-3296
▁myometrium	-3297
adenocarcinoom	-3298
cf	-3299
▁HR	-3300
elet	-3301
entum	-3302
epres	-3303
ubcut	-3304
▁doch	-3305
paraten	-3306
patroon	-3307
▁interes	-3308
▁verhoornend	-3309
ijd	-3310
otyp	-3311
stel	-3312
▁gist	-3313
ediaan	-3314
▁polyp	-3315
▁totale	-3316
▁gezicht	-3317
▁verlies	-3318
epitheliaal	-3319
▁perifollic	-3320
▁Huidbiopten	-3321
oren	-3322
zone	-3323
marge	-3324
oring	-3325
▁prop	-3326
▁geven	-3327
▁ronde	-3328
▁neurof	-3329
▁mucineus	-3330
▁naaldbiopt	-3331
▁mediastinum	-3332
▁specificiteit	-3333
HE	-3334
ged	-3335
▁Be	-3336
ding	-3337
▁geA	-3338
intern	-3339
▁aangev	-3340
voorhoofd	-3341
▁aanvraag	-3342
▁Curettage	-3343
▁interesse	-3344
▁uitsluitend	-3345
HC	-3346
LEC	-3347
▁id	-3348
ieus	-3349
nier	-3350
▁clav	-3351
▁synov	-3352
▁resten	-3353
pectomie	-3354
stelling	-3355
▁overwegen	-3356
eslijmvlies	-3357
▁papillaire	-3358
js	-3359
poel	-3360
akary	-3361
etect	-3362
ekenis	-3363
▁verst	-3364
eration	-3365
▁crista	-3366
Bethesda	-3367
▁multipele	-3368
▁lisexcisie	-3369
▁hematopoese	-3370
kh	-3371
ry	-3372
ieuw	-3373
raat	-3374
uenc	-3375
▁ade	-3376
schik	-3377
ibrose	-3378
▁haard	-3379
ecifiek	-3380
esterol	-3381
lymfoom	-3382
▁combin	-3383
icodermie	-3384
▁hierover	-3385
▁labnummer	-3386
▁peritoneum	-3387
▁extranodale	-3388
LH	-3389
acu	-3390
loom	-3391
reng	-3392
▁auto	-3393
▁vast	-3394
▁lupus	-3395
entrale	-3396
uencing	-3397
▁indien	-3398
▁afstand	-3399
▁fibreus	-3400
▁gewicht	-3401
▁ziekenhuis	-3402
▁fragmentjes	-3403
▁onderliggende	-3404
20-0	-3405
ieel	-3406
▁acin	-3407
achter	-3408
ferent	-3409
illair	-3410
▁grond	-3411
▁gebruik	-3412
▁vrijwel	-3413
▁inzendingen	-3414
▁verlitteken	-3415
▁Histologisch	-3416
uba	-3417
arak	-3418
▁get	-3419
▁ijz	-3420
▁gesch	-3421
arakter	-3422
▁blasten	-3423
▁propria	-3424
▁erythema	-3425
▁beenmergbiopt	-3426
▁calcificaties	-3427
1-	-3428
hin	-3429
rie	-3430
cret	-3431
ereb	-3432
olip	-3433
▁0,1	-3434
uiten	-3435
▁mark	-3436
▁vanwege	-3437
▁poliepeus	-3438
▁neurofibroom	-3439
▁prostaatweefsel	-3440
▁lok	-3441
▁pols	-3442
tratie	-3443
▁milde	-3444
▁papel	-3445
▁sigmoA	-3446
▁hierbij	-3447
▁afdeling	-3448
▁oncogene	-3449
▁bijschildklier	-3450
AF	-3451
vum	-3452
▁neg	-3453
▁hart	-3454
ortale	-3455
erhalve	-3456
▁pleura	-3457
▁subopt	-3458
▁perifeer	-3459
▁poliepje	-3460
▁betekenis	-3461
▁cholesterol	-3462
rh	-3463
eds	-3464
▁IDH	-3465
▁IgG	-3466
▁(2):	-3467
▁mede	-3468
▁Blaas	-3469
ocytair	-3470
▁middels	-3471
ntstekings	-3472
▁onderbuik	-3473
▁reticulaire	-3474
▁hypercellulair	-3475
▁hyperplastisch	-3476
cip	-3477
aand	-3478
laag	-3479
gener	-3480
uteri	-3481
▁nefr	-3482
gaande	-3483
▁paras	-3484
▁geduid	-3485
▁laesies	-3486
▁collagen	-3487
▁kwaliteit	-3488
▁overweging	-3489
▁ischemische	-3490
uct	-3491
rale	-3492
▁milj	-3493
oornis	-3494
▁steat	-3495
▁duoden	-3496
▁prostat	-3497
▁respons	-3498
etecteerd	-3499
▁maagtype	-3500
▁afwijkend	-3501
▁onbekende	-3502
▁extirpatie	-3503
▁infectieuze	-3504
▁paramediaan	-3505
Bls	-3506
chn	-3507
icol	-3508
ular	-3509
▁gaat	-3510
▁subm	-3511
onderarm	-3512
▁gerelat	-3513
▁karakter	-3514
▁signific	-3515
▁clavicula	-3516
▁uitstrijk	-3517
epresentatief	-3518
▁chroniciteit	-3519
dat	-3520
▁ja	-3521
odon	-3522
▁gek	-3523
▁meg	-3524
▁toch	-3525
▁maagc	-3526
▁celgroep	-3527
▁aspiratie	-3528
▁vasculaire	-3529
▁lymfeklieren	-3530
▁papillomateuze	-3531
omt	-3532
▁Hem	-3533
arynx	-3534
▁vagina	-3535
▁sarcoom	-3536
▁tumoren	-3537
▁verspreid	-3538
▁combinatie	-3539
▁darmziekte	-3540
▁gezichtspunten	-3541
aad	-3542
ampl	-3543
kaak	-3544
▁wij	-3545
▁zon	-3546
Advies	-3547
▁cereb	-3548
▁pseud	-3549
▁traum	-3550
ytische	-3551
▁decidu	-3552
▁pseudo	-3553
▁cervixbiopt	-3554
▁consultatie	-3555
▁Huidcurettage	-3556
EL	-3557
eut	-3558
resp	-3559
reven	-3560
chting	-3561
▁vaten	-3562
▁vraag	-3563
▁alleen	-3564
ildwacht	-3565
▁hotspot	-3566
idectomie	-3567
▁musculus	-3568
▁dunnedarm	-3569
▁subcutaan	-3570
ammareductie	-3571
▁glandulaire	-3572
tur	-3573
▁An	-3574
eked	-3575
enst	-3576
osum	-3577
▁emb	-3578
append	-3579
verted	-3580
▁fusie	-3581
▁dubieus	-3582
▁macroscop	-3583
▁endocervix	-3584
▁verlittekening	-3585
cm	-3586
tot	-3587
para	-3588
▁1).	-3589
▁1,2	-3590
onaal	-3591
▁oste	-3592
dering	-3593
neumon	-3594
▁massa	-3595
ermamma	-3596
▁rondom	-3597
▁bacteri	-3598
▁restant	-3599
▁Derhalve	-3600
▁inactief	-3601
▁tumorcel	-3602
childklier	-3603
▁glomeruli	-3604
▁morfologie	-3605
▁sarcoidose	-3606
▁suboptimaal	-3607
inflammatoire	-3608
▁laboratorium	-3609
▁mogelijkheid	-3610
]2:	-3611
▁man	-3612
gesch	-3613
▁Diep	-3614
▁komt	-3615
▁pity	-3616
atypie	-3617
▁cavum	-3618
▁dikke	-3619
ekedelen	-3620
▁foetale	-3621
▁krapste	-3622
▁solaris	-3623
▁Excisiebiopt	-3624
▁infiltratief	-3625
▁geneesmiddelen	-3626
asp	-3627
enis	-3628
isol	-3629
grens	-3630
irrit	-3631
later	-3632
▁wand	-3633
▁Adnex	-3634
▁geeft	-3635
tendeels	-3636
▁acanthol	-3637
▁subcutane	-3638
▁grotendeels	-3639
▁uitsluiting	-3640
▁proliferatieve	-3641
,2	-3642
cs	-3643
▁as	-3644
lion	-3645
ynch	-3646
domen	-3647
culair	-3648
wijzing	-3649
▁Echter	-3650
▁aanduid	-3651
▁kenmerk	-3652
metastase	-3653
▁herhalen	-3654
▁megakary	-3655
▁fragmentje	-3656
▁gedetecteerd	-3657
▁toxicodermie	-3658
▁diagnostische	-3659
aff	-3660
eiw	-3661
ekt	-3662
ger	-3663
rect	-3664
▁gla	-3665
▁oud	-3666
prostat	-3667
▁gedila	-3668
▁geisol	-3669
▁iliaca	-3670
▁patiente	-3671
▁Definitief	-3672
DL	-3673
ps	-3674
iva	-3675
rch	-3676
▁AD	-3677
▁oc	-3678
raal	-3679
▁Lymf	-3680
icatie	-3681
ocrien	-3682
▁kruin	-3683
▁mycose	-3684
▁elastose	-3685
▁relatief	-3686
▁rectosigmoid	-3687
▁Representatief	-3688
els	-3689
vat	-3690
▁ir	-3691
oeil	-3692
gging	-3693
iraat	-3694
▁vert	-3695
▁vier	-3696
anasaal	-3697
erapeut	-3698
leiding	-3699
oeilijk	-3700
ierbiopt	-3701
▁solaire	-3702
▁typisch	-3703
ooralsnog	-3704
oordeling	-3705
▁beschouwd	-3706
▁aanduiding	-3707
▁mesothelioom	-3708
iets	-3709
reik	-3710
stiv	-3711
coeur	-3712
olair	-3713
▁tril	-3714
credit	-3715
gelijk	-3716
iopath	-3717
igestiv	-3718
▁gisten	-3719
▁hersen	-3720
▁wegens	-3721
icientie	-3722
▁acinair	-3723
▁*******[	-3724
▁leiomyomen	-3725
▁proliferatief	-3726
1).	-3727
rek	-3728
▁0,2	-3729
lassie	-3730
▁circa	-3731
▁tromb	-3732
igineuze	-3733
▁omentum	-3734
▁overeen	-3735
▁dermatose	-3736
ammabiopten	-3737
ntstekingsbeeld	-3738
▁epidermiscyste	-3739
▁x	-3740
Een	-3741
mede	-3742
oort	-3743
sist	-3744
crete	-3745
emaal	-3746
▁chrom	-3747
▁irrit	-3748
▁bulbus	-3749
odulaire	-3750
▁puntjes	-3751
▁capillair	-3752
▁aanleiding	-3753
say	-3754
▁ep	-3755
risk	-3756
eefsel	-3757
secten	-3758
gewicht	-3759
▁paraff	-3760
▁recente	-3761
onaliteit	-3762
▁digestiv	-3763
▁inverted	-3764
▁opsnijden	-3765
▁spongiose	-3766
▁preauriculair	-3767
icul	-3768
ioom	-3769
oides	-3770
orect	-3771
lexura	-3772
tensie	-3773
▁Lynch	-3774
▁anders	-3775
▁buiten	-3776
▁inzage	-3777
uteriene	-3778
▁miljoen	-3779
otherapie	-3780
▁snijrand	-3781
▁doorgroei	-3782
▁huidbiopten	-3783
eert	-3784
▁Inf	-3785
▁Ileum	-3786
▁strom	-3787
ocytoom	-3788
oorkeur	-3789
▁erythemat	-3790
▁afwijkende	-3791
▁ingezonden	-3792
appendicitis	-3793
hy	-3794
cer	-3795
rap	-3796
son	-3797
anks	-3798
arct	-3799
▁fre	-3800
▁fun	-3801
adium	-3802
inter	-3803
regel	-3804
riasis	-3805
status	-3806
sigmoid	-3807
zegging	-3808
▁chondro	-3809
▁parietaal	-3810
iagnostisch	-3811
▁digestivus	-3812
▁betrouwbaar	-3813
▁dankzegging	-3814
▁verandering	-3815
▁bovenstaande	-3816
▁longcarcinoom	-3817
Gly	-3818
ida	-3819
niet	-3820
zijn	-3821
▁bew	-3822
▁pur	-3823
▁neut	-3824
itaire	-3825
snijvlak	-3826
▁Celrijke	-3827
▁negatieve	-3828
▁gesclerose	-3829
opathologische	-3830
mee	-3831
lete	-3832
text	-3833
klasse	-3834
▁stern	-3835
stische	-3836
▁ductus	-3837
▁Accredit	-3838
▁sentinel	-3839
prostatische	-3840
▁lentigineuze	-3841
▁geassocieerde	-3842
zeker	-3843
▁fase	-3844
▁zich	-3845
▁basal	-3846
▁embry	-3847
▁staat	-3848
▁ureter	-3849
▁ziekte	-3850
veolaire	-3851
iescoupes	-3852
▁melanoma	-3853
▁plasmacel	-3854
▁verdachte	-3855
000	-3856
get	-3857
tij	-3858
atus	-3859
iese	-3860
olab	-3861
histi	-3862
▁brush	-3863
▁daarin	-3864
cipitaal	-3865
ronische	-3866
▁abdomen	-3867
▁daarbij	-3868
▁insecten	-3869
▁apocriene	-3870
▁procedure	-3871
▁deposities	-3872
▁topografie	-3873
▁wisselende	-3874
▁curettement	-3875
fluorescentie	-3876
▁geassocieerd	-3877
▁keratoacanthoom	-3878
.2	-3879
1)	-3880
ina	-3881
istr	-3882
▁mis	-3883
▁val	-3884
osaal	-3885
▁horm	-3886
kernige	-3887
ministr	-3888
▁helder	-3889
▁intrad	-3890
neumonie	-3891
▁discrete	-3892
▁resultaat	-3893
▁beschreven	-3894
▁temporalis	-3895
▁gemarkeerde	-3896
▁verwijderde	-3897
IA	-3898
sm	-3899
]2.	-3900
def	-3901
ewel	-3902
fact	-3903
astom	-3904
etsel	-3905
orbus	-3906
▁tons	-3907
lopige	-3908
▁onregel	-3909
afwijking	-3910
▁junction	-3911
▁partiele	-3912
ppervlakkige	-3913
waarschijnlijk	-3914
▁histiocytaire	-3915
hv	-3916
ile	-3917
yre	-3918
▁hrH	-3919
gment	-3920
oiese	-3921
andida	-3922
jectie	-3923
▁nabij	-3924
▁reeds	-3925
iseerde	-3926
▁Geheel	-3927
▁effect	-3928
ascendens	-3929
sdiagnose	-3930
▁hiervoor	-3931
epidermale	-3932
▁pityriasis	-3933
ransplantatie	-3934
.:	-3935
amn	-3936
eten	-3937
ethy	-3938
pect	-3939
perm	-3940
uiste	-3941
edisch	-3942
▁aorta	-3943
▁geind	-3944
-10-201	-3945
segment	-3946
▁alsmede	-3947
▁gevolge	-3948
▁zijwand	-3949
▁volgende	-3950
▁daarnaast	-3951
▁paranasaal	-3952
lokdarmbiopten	-3953
▁reuscelreactie	-3954
rok	-3955
▁AA	-3956
21-1	-3957
enuw	-3958
otje	-3959
uate	-3960
▁Hoe	-3961
▁ind	-3962
▁myx	-3963
▁rep	-3964
aling	-3965
▁lang	-3966
▁zien	-3967
ernaal	-3968
gemeen	-3969
intest	-3970
omateus	-3971
▁amyloid	-3972
existente	-3973
▁percentage	-3974
▁gedilateerde	-3975
nder	-3976
elfde	-3977
ortus	-3978
▁card	-3979
ledige	-3980
▁algemeen	-3981
▁celrijke	-3982
▁verwijzing	-3983
▁perivasculair	-3984
2)	-3985
ox	-3986
ert	-3987
▁RB	-3988
stru	-3989
antal	-3990
▁iets	-3991
▁nive	-3992
▁vill	-3993
umoren	-3994
▁bulle	-3995
▁inges	-3996
▁herken	-3997
▁ooglid	-3998
turatori	-3999
▁Botbiopt	-4000
▁ganglion	-4001
ocervicale	-4002
▁behoudens	-4003
▁submandib	-4004
icolectomie	-4005
▁muscularis	-4006
▁vetnecrose	-4007
ozo	-4008
val	-4009
igin	-4010
mmer	-4011
regio	-4012
▁fist	-4013
streng	-4014
▁blijk	-4015
▁zenuw	-4016
station	-4017
▁fundic	-4018
▁juiste	-4019
olabiaal	-4020
▁chromos	-4021
▁dorsale	-4022
igexcisie	-4023
lymfklier	-4024
schikking	-4025
▁buikwand	-4026
▁leukemie	-4027
heidshalve	-4028
erapeutisch	-4029
ARD	-4030
afd	-4031
cob	-4032
▁LE	-4033
elev	-4034
meer	-4035
rist	-4036
▁2).	-4037
▁ald	-4038
▁ins	-4039
ecaal	-4040
▁prep	-4041
▁sept	-4042
Immuun	-4043
aligne	-4044
sneden	-4045
wezige	-4046
▁geink	-4047
▁kraak	-4048
rofagen	-4049
astomose	-4050
▁immunof	-4051
▁rejectie	-4052
structuren	-4053
▁neutrofie	-4054
▁aangevraagd	-4055
▁flegmoneuze	-4056
Re	-4057
line	-4058
▁den	-4059
besch	-4060
itose	-4061
▁zwak	-4062
rument	-4063
▁delet	-4064
▁dikte	-4065
▁omgev	-4066
▁volledige	-4067
▁mammareductie	-4068
▁vreemdlichaams	-4069
..	-4070
IG	-4071
GRE	-4072
ole	-4073
▁sn	-4074
▁21-0	-4075
▁FGFR	-4076
▁abla	-4077
▁moet	-4078
aardig	-4079
ionale	-4080
tefact	-4081
▁perit	-4082
▁myocard	-4083
▁patroon	-4084
▁actinisch	-4085
▁beginnend	-4086
▁schimmeld	-4087
▁linkerwang	-4088
▁secundaire	-4089
▁adenomyosis	-4090
▁rechterschouder	-4091
GI	-4092
IL	-4093
bev	-4094
pas	-4095
aren	-4096
umin	-4097
▁sten	-4098
chniek	-4099
tijdig	-4100
genitale	-4101
ienummer	-4102
▁Benigne	-4103
▁cysteus	-4104
oornissen	-4105
▁atrofisch	-4106
▁intraduct	-4107
excochleaat	-4108
▁tumorweefsel	-4109
pa	-4110
oir	-4111
maal	-4112
▁Dik	-4113
▁eiw	-4114
▁ile	-4115
excid	-4116
▁(1):	-4117
▁blue	-4118
▁merg	-4119
▁radi	-4120
▁Graag	-4121
-11-201	-4122
gressie	-4123
oplasma	-4124
pasbaar	-4125
gestuurd	-4126
▁geinkte	-4127
▁klassie	-4128
▁kraakbeen	-4129
▁histologie	-4130
▁meerkernige	-4131
▁onderliggend	-4132
0)	-4133
EHE	-4134
bel	-4135
emf	-4136
vid	-4137
ving	-4138
amman	-4139
groot	-4140
▁foci	-4141
anneer	-4142
rische	-4143
▁bevat	-4144
dermaal	-4145
emische	-4146
▁gastro	-4147
▁hemorr	-4148
▁letsel	-4149
▁mammap	-4150
existent	-4151
▁stromale	-4152
opathische	-4153
▁Bowenoide	-4154
▁spermatozo	-4155
diagnostisch	-4156
▁bevestiging	-4157
▁gelijktijdig	-4158
▁metastatisch	-4159
ook	-4160
DEFI	-4161
]201	-4162
ribr	-4163
▁cru	-4164
▁maj	-4165
ieten	-4166
olsel	-4167
spron	-4168
▁kalk	-4169
▁poly	-4170
▁vlak	-4171
eftijd	-4172
▁lamin	-4173
-02-201	-4174
-2022:[	-4175
▁huidad	-4176
▁infarc	-4177
▁langer	-4178
snijrand	-4179
▁*******:[	-4180
▁inpasbaar	-4181
▁lobulaire	-4182
▁occipitaal	-4183
▁afwezigheid	-4184
▁trilineaire	-4185
therapeutisch	-4186
▁groeipatroon	-4187
CE	-4188
kd	-4189
kt	-4190
nu	-4191
▁BE	-4192
ibel	-4193
roch	-4194
uurs	-4195
▁pil	-4196
ibros	-4197
▁glad	-4198
ardson	-4199
gebied	-4200
▁gemen	-4201
liggende	-4202
▁sternum	-4203
ichardson	-4204
populatie	-4205
▁idiopath	-4206
▁waardoor	-4207
▁bovenbuik	-4208
▁urticaria	-4209
▁oestrogeen	-4210
typeslijmvlies	-4211
ff	-4212
Dit	-4213
weg	-4214
▁Af	-4215
icam	-4216
icis	-4217
name	-4218
▁ala	-4219
ogeen	-4220
▁mate	-4221
▁noem	-4222
arthin	-4223
oordeeld	-4224
ransuret	-4225
▁geexcid	-4226
▁gegeven	-4227
▁hematop	-4228
▁geisoleerd	-4229
respectievelijk	-4230
bep	-4231
ebe	-4232
▁2)	-4233
20-1	-4234
DERE	-4235
EGFR	-4236
FICA	-4237
ting	-4238
ucle	-4239
zins	-4240
▁pal	-4241
codon	-4242
haafd	-4243
igens	-4244
▁jaar	-4245
entrik	-4246
granul	-4247
ositis	-4248
uspect	-4249
▁ijzer	-4250
▁verkla	-4251
▁volume	-4252
emporaal	-4253
▁bestaat	-4254
▁wanneer	-4255
▁lichenoA	-4256
▁obductie	-4257
▁aanwezige	-4258
▁etiologie	-4259
▁satelliet	-4260
▁uitrijping	-4261
▁achterzijde	-4262
▁binnenzijde	-4263
▁heldercellig	-4264
RI	-4265
hra	-4266
ikt	-4267
acea	-4268
atig	-4269
gele	-4270
kend	-4271
mamma	-4272
gezien	-4273
zijnde	-4274
▁Brush	-4275
▁Infil	-4276
▁penis	-4277
▁bekled	-4278
▁detect	-4279
▁fistel	-4280
mogelijk	-4281
viditeit	-4282
waardige	-4283
▁bijnier	-4284
▁genomen	-4285
▁noemens	-4286
dysplasie	-4287
uitstrijk	-4288
▁gevoelig	-4289
▁leeftijd	-4290
▁moeilijk	-4291
▁necrotisch	-4292
▁aantoonbare	-4293
▁goedaardige	-4294
▁neutrofiele	-4295
▁vriescoupes	-4296
▁beschadiging	-4297
▁vraagstelling	-4298
,0	-4299
GREE	-4300
chan	-4301
▁(1)	-4302
▁fam	-4303
▁sem	-4304
itair	-4305
atibel	-4306
basaal	-4307
lonale	-4308
zelfde	-4309
▁cardia	-4310
▁circum	-4311
▁huidst	-4312
▁marges	-4313
▁suspect	-4314
lammatoir	-4315
tansbiopt	-4316
▁geanalyse	-4317
▁populatie	-4318
aaldbiopsie	-4319
▁atrofische	-4320
tratiediepte	-4321
▁darmbiopten	-4322
▁rechterwang	-4323
▁zijsnijrand	-4324
▁microscopisch	-4325
ise	-4326
tje	-4327
▁LB	-4328
▁os	-4329
ject	-4330
kalk	-4331
▁erf	-4332
LIERE	-4333
immel	-4334
▁syst	-4335
onitis	-4336
▁bowen	-4337
▁vrouw	-4338
gebruik	-4339
leuring	-4340
▁gehand	-4341
▁submuc	-4342
▁tweede	-4343
gevoelig	-4344
▁archief	-4345
ulvabiopt	-4346
atellitose	-4347
▁mogelijke	-4348
▁congenitale	-4349
▁karakterist	-4350
▁pigmentosus	-4351
▁gefragmenteerde	-4352
▁noemenswaardige	-4353
CD	-4354
hel	-4355
iem	-4356
tio	-4357
▁Am	-4358
orad	-4359
▁IHC	-4360
abiel	-4361
flank	-4362
trans	-4363
trole	-4364
asieen	-4365
ocyste	-4366
volume	-4367
▁blaar	-4368
▁kappa	-4369
▁stase	-4370
Gleason	-4371
vormige	-4372
▁externa	-4373
▁flexura	-4374
▁placent	-4375
bijzijnde	-4376
▁administr	-4377
▁hoofdhuid	-4378
▁paraffine	-4379
▁voorlopig	-4380
▁anastomose	-4381
▁macrofagen	-4382
▁overlijden	-4383
▁gehandhaafd	-4384
▁graviditeit	-4385
▁cholesterolose	-4386
etal	-4387
raad	-4388
spronk	-4389
▁breuk	-4390
iliteit	-4391
reuscel	-4392
▁haemat	-4393
▁onduid	-4394
andibula	-4395
emateuze	-4396
▁behoort	-4397
beschadig	-4398
▁cutaneum	-4399
▁hepatica	-4400
▁achterlip	-4401
▁aspecifiek	-4402
▁Cervixbiopten	-4403
0-1	-4404
Lev	-4405
lag	-4406
▁Ev	-4407
22-1	-4408
borst	-4409
leden	-4410
▁herk	-4411
▁hoge	-4412
lokjes	-4413
▁goede	-4414
-12-201	-4415
ampling	-4416
▁Levern	-4417
▁aldaar	-4418
▁blijkt	-4419
▁gedaan	-4420
▁lamina	-4421
▁myelod	-4422
atselijk	-4423
entrikel	-4424
uscellen	-4425
▁voorlip	-4426
bovenkwab	-4427
endocrien	-4428
wijzingen	-4429
▁hotspots	-4430
▁varianten	-4431
▁parasieten	-4432
▁ulceratieve	-4433
ildwachtklier	-4434
▁linkerschouder	-4435
▁schimmeldraden	-4436
top	-4437
ulp	-4438
leed	-4439
▁som	-4440
▁ves	-4441
iaire	-4442
▁cerv	-4443
ectrum	-4444
ginale	-4445
onisch	-4446
menging	-4447
olipoom	-4448
rijging	-4449
▁Coupes	-4450
▁promot	-4451
▁vertex	-4452
▁axillair	-4453
▁chronicus	-4454
di	-4455
▁BI	-4456
colon	-4457
edoch	-4458
risch	-4459
▁flow	-4460
▁lage	-4461
▁tang	-4462
ariant	-4463
erieur	-4464
▁Bloom	-4465
▁cribr	-4466
▁crust	-4467
edochus	-4468
efritis	-4469
poeling	-4470
rosacea	-4471
▁minste	-4472
omponent	-4473
▁inzicht	-4474
▁spectrum	-4475
▁steatose	-4476
ocervicaal	-4477
▁bacterien	-4478
▁irritatie	-4479
▁Richardson	-4480
▁bepalingen	-4481
▁opgestuurd	-4482
RL	-4483
1):	-4484
hyl	-4485
ial	-4486
uff	-4487
uut	-4488
emde	-4489
opec	-4490
arget	-4491
inding	-4492
murale	-4493
rectum	-4494
▁Hyper	-4495
▁prola	-4496
cytomet	-4497
▁carcin	-4498
▁gevolg	-4499
▁acanthose	-4500
▁inzichten	-4501
▁vergelijk	-4502
stbijzijnde	-4503
▁obturatori	-4504
▁kenmerkende	-4505
▁significante	-4506
epitheelcellen	-4507
dd	-4508
duct	-4509
kele	-4510
▁2,0	-4511
▁fem	-4512
order	-4513
▁Derm	-4514
▁Inst	-4515
▁comm	-4516
▁glob	-4517
anwege	-4518
etigin	-4519
zijdig	-4520
▁cornu	-4521
▁promin	-4522
▁therap	-4523
oorlopig	-4524
▁rosacea	-4525
▁zijrand	-4526
cytologie	-4527
▁hersenen	-4528
▁bevestigt	-4529
▁Rectumbiopten	-4530
▁inclusiecyste	-4531
▁atherosclerose	-4532
max	-4533
▁nu	-4534
▁vl	-4535
iect	-4536
-20:[	-4537
brush	-4538
ronen	-4539
▁flar	-4540
ormaal	-4541
▁omdat	-4542
▁reden	-4543
chimmel	-4544
▁acumin	-4545
▁mechan	-4546
▁complex	-4547
▁helicis	-4548
▁neuroom	-4549
onefritis	-4550
plaveisel	-4551
ulariteit	-4552
umpectomie	-4553
▁*******):	-4554
▁marginale	-4555
▁nasolabiaal	-4556
▁pigmentatie	-4557
▁cytologische	-4558
unohistochemisch	-4559
▁Huidexcochleaat	-4560
2:	-4561
BR	-4562
ess	-4563
ijf	-4564
zak	-4565
memb	-4566
wijs	-4567
▁tij	-4568
IFICA	-4569
ellen	-4570
igoid	-4571
orden	-4572
▁Cave	-4573
▁chem	-4574
icient	-4575
ulente	-4576
▁allel	-4577
ionitis	-4578
▁alopec	-4579
▁behulp	-4580
▁denken	-4581
▁vooral	-4582
radicaal	-4583
▁Diepere	-4584
▁Hierbij	-4585
▁abortus	-4586
▁ductale	-4587
ingenomen	-4588
▁inclusief	-4589
▁mesenchym	-4590
intestinale	-4591
▁compatibel	-4592
▁choledochus	-4593
▁Resectieranden	-4594
▁administratief	-4595
2).	-4596
pit	-4597
cele	-4598
erru	-4599
ilic	-4600
apsel	-4601
ongen	-4602
yster	-4603
▁Borg	-4604
oename	-4605
▁Corpus	-4606
▁ovaria	-4607
▁tubulo	-4608
▁vitale	-4609
arenchym	-4610
▁bekleed	-4611
▁myeloom	-4612
Lymfklier	-4613
rumentaal	-4614
▁cylinder	-4615
▁follikel	-4616
▁hemorrag	-4617
▁ventrale	-4618
▁(*******,	-4619
▁cytologie	-4620
▁ingenomen	-4621
▁secundair	-4622
▁Leverbiopt	-4623
▁achterwand	-4624
▁reuscellen	-4625
▁navelstreng	-4626
ifferentieerd	-4627
▁ontstekingsc	-4628
▁zonbeschadig	-4629
▁Instrumentaal	-4630
▁micronodulaire	-4631
▁mutatieanalyse	-4632
▁intestinaaltype	-4633
GH	-4634
oil	-4635
aste	-4636
beet	-4637
edel	-4638
oire	-4639
rikk	-4640
ulum	-4641
▁2):	-4642
▁opt	-4643
▁vro	-4644
erens	-4645
plooi	-4646
▁kern	-4647
▁lymfo	-4648
▁vanaf	-4649
angiect	-4650
▁exacte	-4651
efonisch	-4652
▁urethra	-4653
▁vlokken	-4654
omatische	-4655
▁lichaams	-4656
amnionitis	-4657
▁doorsneden	-4658
▁behandelend	-4659
▁krabeffecten	-4660
reuscelreactie	-4661
aG	-4662
eit	-4663
▁1)	-4664
▁BCC	-4665
▁zeg	-4666
abces	-4667
itten	-4668
▁kans	-4669
ortaal	-4670
-2020:[	-4671
artiele	-4672
eratoom	-4673
merking	-4674
uitslag	-4675
▁Enkele	-4676
▁chorio	-4677
▁verbre	-4678
--------	-4679
▁ablatio	-4680
▁gewenst	-4681
▁portale	-4682
▁vorming	-4683
component	-4684
▁deferens	-4685
naaldbiopt	-4686
▁pneumonie	-4687
▁verstoring	-4688
▁erytrocyten	-4689
▁geindiceerd	-4690
▁fragmentatie	-4691
▁placentarest	-4692
klierdissectie	-4693
lijmvliesbiopt	-4694
▁beoordeelbare	-4695
▁corpusbiopten	-4696
CLA	-4697
▁kw	-4698
ater	-4699
dist	-4700
rosp	-4701
tere	-4702
▁dus	-4703
adier	-4704
ancer	-4705
eduur	-4706
oksel	-4707
▁arter	-4708
iedenis	-4709
blastoom	-4710
▁familie	-4711
▁fibrine	-4712
▁gemaakt	-4713
ammabiopt	-4714
ochemisch	-4715
laatselijk	-4716
▁condyloma	-4717
▁mandibula	-4718
▁middenkwab	-4719
▁cervixpoliep	-4720
▁geanalyseerd	-4721
▁coloncarcinoom	-4722
maag	-4723
raan	-4724
▁dec	-4725
▁hid	-4726
esult	-4727
oemde	-4728
▁20-0	-4729
▁prof	-4730
▁abces	-4731
▁impon	-4732
komende	-4733
▁Eventu	-4734
▁adenose	-4735
▁interne	-4736
▁scleros	-4737
apillaire	-4738
▁sampling	-4739
▁depositie	-4740
▁geneticus	-4741
▁haargrens	-4742
▁hepatitis	-4743
▁nierbiopt	-4744
▁submucosa	-4745
▁Generation	-4746
▁nefropathie	-4747
ekerheidshalve	-4748
▁bloedingsrest	-4749
▁diverticulitis	-4750
ood	-4751
stb	-4752
ule	-4753
▁.[	-4754
verd	-4755
▁pul	-4756
ation	-4757
match	-4758
ragen	-4759
rcher	-4760
selen	-4761
▁01-0	-4762
▁gede	-4763
▁subc	-4764
▁vacu	-4765
Blokje	-4766
lengte	-4767
ristal	-4768
-01-201	-4769
consult	-4770
olledig	-4771
omatose	-4772
▁crusta	-4773
▁tonsil	-4774
▁vitaal	-4775
aagbiopt	-4776
aliseerde	-4777
stechniek	-4778
▁protocol	-4779
neevlakken	-4780
onaliteits	-4781
▁diagnosen	-4782
▁gradering	-4783
schijnselen	-4784
geschiedenis	-4785
▁cystadenoom	-4786
▁doorgesneden	-4787
▁gescleroseerd	-4788
lijmvliesexcisie	-4789
rijgingstechniek	-4790
LL	-4791
lc	-4792
▁Gro	-4793
utium	-4794
▁buis	-4795
▁repair	-4796
orectaal	-4797
▁arteria	-4798
▁deletie	-4799
▁ductect	-4800
▁ernstig	-4801
▁gemengd	-4802
▁infarct	-4803
▁leverbiopt	-4804
▁onduidelijk	-4805
▁regressieve	-4806
▁maagcorpustype	-4807
1:	-4808
1[	-4809
eku	-4810
▁sta	-4811
deels	-4812
istof	-4813
otype	-4814
▁AARD	-4815
ending	-4816
impele	-4817
itgebre	-4818
▁lokaal	-4819
▁geschat	-4820
▁kleiner	-4821
▁tijdens	-4822
▁gebieden	-4823
▁mismatch	-4824
▁opgesneden	-4825
▁geexcideerd	-4826
roliferatieve	-4827
▁endometrioid	-4828
▁pathologisch	-4829
chimmelkleuring	-4830
▁zonbeschadigde	-4831
0):	-4832
LAG	-4833
iat	-4834
mus	-4835
uli	-4836
yna	-4837
even	-4838
thor	-4839
▁lig	-4840
agina	-4841
etref	-4842
onair	-4843
▁Alle	-4844
laring	-4845
osperm	-4846
▁Dikke	-4847
oorzaak	-4848
▁bekken	-4849
▁mening	-4850
▁myelop	-4851
bepaling	-4852
ospermie	-4853
▁Dermale	-4854
▁bulleus	-4855
orroeduur	-4856
rofoblast	-4857
▁lymfomen	-4858
▁sclerose	-4859
▁spoeling	-4860
▁embryonale	-4861
▁colonpoliep	-4862
▁peritonitis	-4863
▁radiculaire	-4864
▁Radicaliteit	-4865
▁hoornmateriaal	-4866
Af	-4867
rs	-4868
AID	-4869
het	-4870
ric	-4871
▁ro	-4872
bris	-4873
▁(2)	-4874
▁200	-4875
▁mal	-4876
esion	-4877
ombin	-4878
ynaec	-4879
▁12-0	-4880
▁22-0	-4881
▁ware	-4882
aximale	-4883
mutatie	-4884
reparaat	-4885
▁mitosen	-4886
▁prolaps	-4887
expressie	-4888
wezigheid	-4889
▁aangelev	-4890
▁grootste	-4891
oscopische	-4892
▁Reexcisie	-4893
▁overleden	-4894
ysplastisch	-4895
▁celgroepen	-4896
▁verklaring	-4897
▁bovenooglid	-4898
▁gerelateerde	-4899
▁mastopathische	-4900
jr	-4901
lp	-4902
▁ag	-4903
▁bel	-4904
]11-0	-4905
icard	-4906
▁fors	-4907
ernale	-4908
▁acuut	-4909
▁langs	-4910
▁ruime	-4911
▁interf	-4912
▁lambda	-4913
-*******	-4914
structie	-4915
▁onzeker	-4916
ubectomie	-4917
▁gedegener	-4918
▁verminder	-4919
afwijkingen	-4920
ositiviteit	-4921
▁colonmucosa	-4922
▁infarcering	-4923
▁inflammatoir	-4924
▁insectenbeet	-4925
▁overgevoelig	-4926
resectievlakken	-4927
▁urotheelcellen	-4928
GR	-4929
ace	-4930
aps	-4931
yro	-4932
1).[	-4933
agel	-4934
peri	-4935
▁ecz	-4936
]21-0	-4937
ieken	-4938
ocele	-4939
▁02-0	-4940
▁zuur	-4941
ereren	-4942
minder	-4943
▁graag	-4944
-2021:[	-4945
inimale	-4946
liggend	-4947
uperfic	-4948
▁fibrin	-4949
rectomie	-4950
sternaal	-4951
▁ascites	-4952
efragment	-4953
epitheeld	-4954
orderline	-4955
voorbeeld	-4956
pathologie	-4957
▁basaalcel	-4958
orfologisch	-4959
▁superficiA	-4960
0-	-4961
2[	-4962
IC	-4963
DCI	-4964
int	-4965
▁BA	-4966
▁fo	-4967
ient	-4968
long	-4969
opie	-4970
▁1,1	-4971
▁1-2	-4972
ntrum	-4973
verte	-4974
▁11-0	-4975
uratie	-4976
▁aando	-4977
rekking	-4978
rotocol	-4979
▁cylind	-4980
▁genher	-4981
▁target	-4982
▁blokjes	-4983
▁laatste	-4984
▁schedel	-4985
▁passende	-4986
▁tongrand	-4987
spoelvocht	-4988
▁tubulaire	-4989
▁therapieke	-4990
aanwijzingen	-4991
▁cribriforme	-4992
▁waargenomen	-4993
verschijnselen	-4994
▁huidafwijking	-4995
▁littekenvorming	-4996
BE	-4997
sd	-4998
AAL	-4999
bil	-5000
▁av	-5001
emph	-5002
graf	-5003
stit	-5004
▁ost	-5005
▁Ampl	-5006
▁plek	-5007
vreemd	-5008
▁Inter	-5009
▁blast	-5010
▁immat	-5011
▁maakt	-5012
aanvull	-5013
▁polype	-5014
▁angioom	-5015
▁relatie	-5016
▁botbiopt	-5017
▁complete	-5018
▁myeloide	-5019
▁referent	-5020
▁herhaling	-5021
▁micrograf	-5022
stoornissen	-5023
▁herkenbaar	-5024
klierweefsel	-5025
▁Helicobacters	-5026
aj	-5027
rg	-5028
isc	-5029
rab	-5030
iops	-5031
vlok	-5032
▁and	-5033
▁ess	-5034
▁spi	-5035
-22:[	-5036
▁coll	-5037
▁haem	-5038
▁reek	-5039
▁vijf	-5040
ariele	-5041
rombus	-5042
slagen	-5043
tadier	-5044
▁blauwe	-5045
▁bronch	-5046
▁vanuit	-5047
asiforme	-5048
ektronen	-5049
lateraal	-5050
tefacten	-5051
▁evident	-5052
▁simpele	-5053
▁stadium	-5054
temporaal	-5055
▁adenomen	-5056
▁cystewand	-5057
▁opvallend	-5058
▁chromosoom	-5059
▁hypertrofe	-5060
▁uitrijpend	-5061
▁lymfocytair	-5062
▁vaatinvasie	-5063
▁spoelcellige	-5064
microscopische	-5065
▁idiopathische	-5066
▁transplantatie	-5067
▁Huidcurettement	-5068
LD	-5069
rw	-5070
Def	-5071
▁EI	-5072
iden	-5073
▁lar	-5074
▁ons	-5075
vaten	-5076
▁Aden	-5077
▁arts	-5078
▁desm	-5079
▁high	-5080
▁mola	-5081
▁assay	-5082
▁lesie	-5083
▁regel	-5084
▁bewijs	-5085
▁cysten	-5086
▁ostium	-5087
aspiraat	-5088
▁tweetal	-5089
▁diepreik	-5090
▁plaatsen	-5091
▁erfelijke	-5092
▁microkalk	-5093
▁purulente	-5094
▁trofoblast	-5095
▁keratocyste	-5096
▁obturatorius	-5097
▁acantholytische	-5098
EID	-5099
IGE	-5100
]20	-5101
cav	-5102
col	-5103
sub	-5104
lear	-5105
next	-5106
oret	-5107
wann	-5108
▁Des	-5109
▁mot	-5110
]01-0	-5111
iddel	-5112
ptuur	-5113
ratie	-5114
weede	-5115
▁Goed	-5116
inalis	-5117
inhoud	-5118
iteerd	-5119
trofie	-5120
ytisch	-5121
▁parat	-5122
ondanks	-5123
ormatie	-5124
▁cutaan	-5125
▁minusc	-5126
omatosus	-5127
▁subtype	-5128
▁veneuze	-5129
▁eiwitten	-5130
▁polyposis	-5131
▁wekedelen	-5132
▁wisselend	-5133
iepreparaat	-5134
opathologie	-5135
transversum	-5136
ufficientie	-5137
▁betrekking	-5138
▁huidlaesie	-5139
▁collageneuze	-5140
▁excisiebiopt	-5141
10)	-5142
]10	-5143
man	-5144
ser	-5145
ual	-5146
ader	-5147
ubis	-5148
▁tek	-5149
-21:[	-5150
acute	-5151
irect	-5152
▁pust	-5153
▁flard	-5154
maligne	-5155
vasatie	-5156
vertebr	-5157
▁Antrum	-5158
▁gynaec	-5159
▁mesent	-5160
invasief	-5161
nextumor	-5162
overgang	-5163
verdacht	-5164
▁fibreuze	-5165
▁geworden	-5166
▁perifere	-5167
preparaten	-5168
▁bowenoide	-5169
▁parenchym	-5170
▁Gefragment	-5171
lassificatie	-5172
▁telefonisch	-5173
▁positiviteit	-5174
▁micrografische	-5175
yg	-5176
amp	-5177
oes	-5178
tub	-5179
vez	-5180
DIGH	-5181
ngio	-5182
ocla	-5183
volg	-5184
basis	-5185
urele	-5186
▁Anus	-5187
▁reum	-5188
advies	-5189
erruca	-5190
ilaris	-5191
proces	-5192
▁Acute	-5193
▁minus	-5194
▁plasm	-5195
▁vrije	-5196
DIGHEID	-5197
ofarynx	-5198
pipelle	-5199
▁afname	-5200
▁longen	-5201
esultaat	-5202
▁adenoid	-5203
▁caudale	-5204
▁extensie	-5205
▁promotor	-5206
efrectomie	-5207
▁Reactieve	-5208
epithelioom	-5209
▁resultaten	-5210
▁ileumbiopten	-5211
▁lokalisaties	-5212
▁therapiekeuze	-5213
▁genherschikking	-5214
▁slijmvliesbiopt	-5215
lo	-5216
vm	-5217
yc	-5218
ber	-5219
rim	-5220
hese	-5221
hier	-5222
loed	-5223
voet	-5224
▁Asp	-5225
▁hyd	-5226
ervel	-5227
gland	-5228
szins	-5229
▁amen	-5230
▁memb	-5231
▁tele	-5232
▁toez	-5233
elring	-5234
matige	-5235
▁BIRAD	-5236
▁clear	-5237
▁geldt	-5238
▁majus	-5239
conform	-5240
▁Blaass	-5241
▁Huidre	-5242
athogene	-5243
istoffen	-5244
▁Amplise	-5245
▁Hotspot	-5246
▁medisch	-5247
▁bestaand	-5248
▁coronair	-5249
▁spontaan	-5250
▁epitheeld	-5251
▁uitgaande	-5252
▁zegelring	-5253
ammapunctie	-5254
▁acuminatum	-5255
heidsreactie	-5256
▁achterhoofd	-5257
▁angiolipoom	-5258
▁flowcytomet	-5259
omiepreparaat	-5260
2):	-5261
DIA	-5262
ata	-5263
▁RI	-5264
arch	-5265
caal	-5266
kans	-5267
▁fot	-5268
roper	-5269
▁10-0	-5270
▁milt	-5271
▁stud	-5272
rokken	-5273
▁beter	-5274
▁grade	-5275
▁pubis	-5276
▁types	-5277
oliepen	-5278
rijving	-5279
wannoom	-5280
eeranden	-5281
spoeling	-5282
▁bepalen	-5283
▁clonale	-5284
▁kristal	-5285
▁anterior	-5286
▁craniale	-5287
▁teratoom	-5288
topografie	-5289
▁hematurie	-5290
▁ventrikel	-5291
▁(*******):	-5292
▁beschadigd	-5293
▁cryptabces	-5294
▁prominente	-5295
▁toezending	-5296
oreticulaire	-5297
▁grootcellige	-5298
▁histiocytoom	-5299
▁infiltrerende	-5300
▁morfologische	-5301
po	-5302
]21	-5303
ctin	-5304
▁hal	-5305
▁zod	-5306
inger	-5307
iteri	-5308
recid	-5309
ritis	-5310
▁pars	-5311
▁valt	-5312
ageren	-5313
▁Deels	-5314
▁biops	-5315
▁naevi	-5316
▁sluit	-5317
enteuze	-5318
gesteld	-5319
ubcutis	-5320
▁levert	-5321
▁lijken	-5322
▁tenzij	-5323
▁trauma	-5324
aliseerd	-5325
itoneale	-5326
▁externe	-5327
onderkwab	-5328
▁multipel	-5329
▁synovium	-5330
itgebreide	-5331
umordiameter	-5332
▁(*******):[	-5333
▁transmurale	-5334
▁zijsnijranden	-5335
▁lichaamsvreemd	-5336
▁zijsnijvlakken	-5337
AH	-5338
ALI	-5339
ege	-5340
lob	-5341
nem	-5342
▁GR	-5343
ella	-5344
▁(12	-5345
]20-0	-5346
slaap	-5347
uwing	-5348
▁doet	-5349
▁glio	-5350
-2021:	-5351
imeter	-5352
oplasm	-5353
aplasie	-5354
erfusie	-5355
gelegen	-5356
profiel	-5357
vlokken	-5358
▁lymfoA	-5359
ocytocla	-5360
▁gesteld	-5361
▁toxisch	-5362
aagcorpus	-5363
▁Eventueel	-5364
▁maternale	-5365
▁onderkaak	-5366
▁posterior	-5367
▁infectieus	-5368
▁ondersteun	-5369
▁proficient	-5370
▁spermatozoa	-5371
▁Ileumbiopten	-5372
▁onregelmatig	-5373
▁retroauriculair	-5374
AB	-5375
FA	-5376
RD	-5377
sol	-5378
tag	-5379
▁Ab	-5380
ARGE	-5381
alen	-5382
amne	-5383
ange	-5384
lamm	-5385
renz	-5386
adnex	-5387
grote	-5388
leerd	-5389
uraal	-5390
▁Buik	-5391
▁anti	-5392
▁isch	-5393
▁koil	-5394
▁uurs	-5395
▁gerev	-5396
▁inder	-5397
▁maken	-5398
mediaan	-5399
▁Hyster	-5400
▁blaass	-5401
▁dubbel	-5402
spontaan	-5403
▁duodeni	-5404
▁gekende	-5405
▁opnieuw	-5406
▁organis	-5407
▁reading	-5408
▁verkalk	-5409
▁klassiek	-5410
▁reageren	-5411
▁genereren	-5412
▁oorspronk	-5413
▁aandoening	-5414
▁basaalmemb	-5415
▁middermaal	-5416
▁segmentale	-5417
▁Lumpectomie	-5418
▁macroscopie	-5419
▁reusceltumor	-5420
▁Duodenumbiopt	-5421
▁psoriasiforme	-5422
▁huidadnextumor	-5423
Ge	-5424
db	-5425
Arg	-5426
wee	-5427
uter	-5428
▁Rec	-5429
▁fus	-5430
]02-0	-5431
ielen	-5432
vaste	-5433
▁vers	-5434
decidu	-5435
▁reeks	-5436
▁steun	-5437
▁debris	-5438
▁dorsum	-5439
▁fibrot	-5440
▁fundus	-5441
▁hoewel	-5442
▁medebe	-5443
▁puntje	-5444
▁remmer	-5445
ergische	-5446
▁monotyp	-5447
▁ruptuur	-5448
▁stolsel	-5449
▁alopecia	-5450
▁controle	-5451
▁maximaal	-5452
▁tangentie	-5453
▁tumorrest	-5454
▁Chronische	-5455
▁haematurie	-5456
▁Lokalisatie	-5457
▁antistoffen	-5458
▁erythematosus	-5459
▁scleroserende	-5460
▁behandeladvies	-5461
▁epitheelcellen	-5462
▁megakaryocyten	-5463
Ex	-5464
DGF	-5465
lel	-5466
rsi	-5467
▁0[	-5468
▁Ep	-5469
▁He	-5470
▁La	-5471
bouw	-5472
cyst	-5473
daad	-5474
scri	-5475
▁exc	-5476
▁lis	-5477
ernen	-5478
otact	-5479
racht	-5480
wegen	-5481
▁fasc	-5482
▁pemf	-5483
▁rijp	-5484
rapste	-5485
▁nieuw	-5486
achtige	-5487
oorstel	-5488
▁Hemith	-5489
▁alsook	-5490
▁daarom	-5491
▁direct	-5492
▁verwij	-5493
ificeerd	-5494
lammatie	-5495
umortype	-5496
▁candida	-5497
▁hormoon	-5498
▁verhoog	-5499
▁subtiele	-5500
▁waarvoor	-5501
vertebraal	-5502
▁Cytologie	-5503
▁betreffen	-5504
▁voorzijde	-5505
uperficieel	-5506
▁detecteert	-5507
▁informatie	-5508
▁irradicaal	-5509
▁gereviseerd	-5510
▁lumpectomie	-5511
▁sneevlakken	-5512
▁beschrijving	-5513
▁mesenchymale	-5514
gedifferentieerd	-5515
▁zijresectievlak	-5516
bv	-5517
hl	-5518
rc	-5519
21-2	-5520
deel	-5521
lark	-5522
lokt	-5523
lott	-5524
ylor	-5525
▁(10	-5526
▁Lab	-5527
▁ivm	-5528
intra	-5529
ustom	-5530
▁spec	-5531
coecum	-5532
kedarm	-5533
▁ischa	-5534
▁opgev	-5535
▁silic	-5536
tumoren	-5537
▁advies	-5538
▁bacter	-5539
▁buizen	-5540
▁gedeel	-5541
Resectie	-5542
bronchus	-5543
keratose	-5544
oidcyste	-5545
oomcyste	-5546
▁klieren	-5547
▁palatum	-5548
▁spiroch	-5549
elichting	-5550
▁Litteken	-5551
▁mucocele	-5552
▁halscyste	-5553
▁immunofen	-5554
▁celrijkdom	-5555
▁diverticul	-5556
▁duodenitis	-5557
▁preparaten	-5558
▁Curettement	-5559
▁inflammatie	-5560
▁circumferent	-5561
▁eosinofielen	-5562
▁leverweefsel	-5563
▁mammaparenchym	-5564
EB	-5565
:12	-5566
agi	-5567
aus	-5568
idu	-5569
imb	-5570
igen	-5571
odex	-5572
olle	-5573
plas	-5574
rach	-5575
vage	-5576
▁1):	-5577
▁ast	-5578
▁vez	-5579
lagig	-5580
olype	-5581
stens	-5582
uscum	-5583
▁klep	-5584
bitaal	-5585
erings	-5586
gelegd	-5587
▁datum	-5588
▁femur	-5589
▁hecht	-5590
▁waren	-5591
agiosum	-5592
▁wervel	-5593
cysteuze	-5594
olluscum	-5595
▁galgang	-5596
▁medicam	-5597
▁seborro	-5598
uterisatie	-5599
▁enigszins	-5600
▁inderdaad	-5601
▁zuurvaste	-5602
achtergrond	-5603
▁botweefsel	-5604
▁ingesloten	-5605
▁veroorzaak	-5606
luorescentie	-5607
▁contagiosum	-5608
▁gerelateerd	-5609
▁mastopathie	-5610
▁clonaliteits	-5611
▁huidexcisies	-5612
▁amenorroeduur	-5613
EC	-5614
gv	-5615
1.[	-5616
Glu	-5617
bed	-5618
dep	-5619
ime	-5620
pal	-5621
pan	-5622
ppe	-5623
▁FF	-5624
▁ju	-5625
cred	-5626
pjes	-5627
▁src	-5628
DGFRA	-5629
etica	-5630
junct	-5631
ulcer	-5632
verst	-5633
▁Raad	-5634
▁date	-5635
▁fung	-5636
▁geac	-5637
▁herp	-5638
▁hybr	-5639
amnese	-5640
assing	-5641
▁Actin	-5642
▁Intra	-5643
▁nagel	-5644
▁pemph	-5645
▁cilind	-5646
▁serosa	-5647
▁studie	-5648
▁zouden	-5649
celtumor	-5650
carcinoma	-5651
▁geaccred	-5652
▁sprietig	-5653
atienummer	-5654
▁blaashals	-5655
▁mucineuze	-5656
ibroserende	-5657
snijvlakken	-5658
▁Lymfeklier	-5659
▁darmlijden	-5660
▁erythrocyt	-5661
etiginisatie	-5662
▁huidbiopsie	-5663
▁lichenoides	-5664
▁ondersteunt	-5665
▁responskans	-5666
▁veroorzaakt	-5667
▁Accreditatie	-5668
▁onderkwadrant	-5669
▁geaccrediteerd	-5670
FF	-5671
aru	-5672
ikk	-5673
oco	-5674
ror	-5675
▁:[	-5676
epen	-5677
haar	-5678
kank	-5679
pitz	-5680
unis	-5681
▁cur	-5682
Angio	-5683
aruke	-5684
asale	-5685
ember	-5686
ocale	-5687
▁11-1	-5688
kintag	-5689
▁error	-5690
verlies	-5691
recidief	-5692
▁maxilla	-5693
centratie	-5694
ethyleerd	-5695
ificeerde	-5696
▁complexe	-5697
▁lineaire	-5698
▁radicale	-5699
▁getroffen	-5700
▁overgangs	-5701
▁waaronder	-5702
localisatie	-5703
oplastische	-5704
▁circulatie	-5705
▁opgevraagd	-5706
▁voorgelegd	-5707
fibroserende	-5708
ransplantaat	-5709
▁Excochleaat	-5710
▁junctionele	-5711
▁teleangiect	-5712
▁cylindrische	-5713
▁dysplastisch	-5714
▁mogelijkheden	-5715
slijmvliesbiopt	-5716
▁Lymfklierbiopt	-5717
▁insufficientie	-5718
.,	-5719
des	-5720
vet	-5721
▁kl	-5722
atio	-5723
eoom	-5724
knie	-5725
omst	-5726
▁Gra	-5727
▁por	-5728
]22-0	-5729
iezen	-5730
▁Aard	-5731
▁cave	-5732
▁gein	-5733
▁pept	-5734
▁werk	-5735
kanker	-5736
▁behor	-5737
▁losse	-5738
▁potje	-5739
pontaan	-5740
revisie	-5741
▁Aantal	-5742
▁fibrom	-5743
▁stukje	-5744
duodenum	-5745
edieerde	-5746
icroscop	-5747
omatoide	-5748
volledig	-5749
▁kaaklijn	-5750
▁kaakrand	-5751
verstoring	-5752
▁mesenteri	-5753
▁molluscum	-5754
▁verklaren	-5755
▁schwannoom	-5756
▁ulcererend	-5757
▁Resectievlak	-5758
▁pathologische	-5759
▁basaalmembraan	-5760
▁leiomyosarcoom	-5761
▁impetiginisatie	-5762
0[	-5763
CB	-5764
RG	-5765
DER	-5766
▁As	-5767
ease	-5768
▁kon	-5769
cobas	-5770
papil	-5771
▁pees	-5772
nemend	-5773
oidale	-5774
stitiA	-5775
thorax	-5776
ventie	-5777
▁helft	-5778
▁irreg	-5779
▁monoc	-5780
▁zodat	-5781
▁Basaal	-5782
▁Hoewel	-5783
▁krappe	-5784
inclusie	-5785
ocoecaal	-5786
oldoende	-5787
▁bepaald	-5788
▁beschik	-5789
▁gevalid	-5790
▁snijden	-5791
▁essentie	-5792
▁insturen	-5793
▁lymfaden	-5794
▁secretoir	-5795
microscopie	-5796
ppervlakkig	-5797
▁divertikel	-5798
▁veranderde	-5799
▁toelichting	-5800
▁cauterisatie	-5801
▁intraductaal	-5802
▁endometriosis	-5803
▁recidiverende	-5804
▁vasoinvasieve	-5805
ammanaaldbiopten	-5806
▁linkerbovenbeen	-5807
▁linkeronderbeen	-5808
Is	-5809
rr	-5810
ail	-5811
hib	-5812
mel	-5813
ous	-5814
▁Co	-5815
▁HE	-5816
ilus	-5817
lein	-5818
odes	-5819
spro	-5820
tjes	-5821
▁ana	-5822
arina	-5823
level	-5824
oeder	-5825
stype	-5826
tatus	-5827
trent	-5828
▁Comp	-5829
▁hyal	-5830
▁ingu	-5831
▁intr	-5832
▁kiem	-5833
▁term	-5834
assend	-5835
ilater	-5836
▁Beide	-5837
▁gelok	-5838
▁group	-5839
▁ingeb	-5840
▁molle	-5841
▁terug	-5842
▁vocht	-5843
aortaal	-5844
iformis	-5845
oscopie	-5846
▁Randen	-5847
▁aangeb	-5848
▁hybrid	-5849
▁tricho	-5850
ematisch	-5851
epatitis	-5852
laterale	-5853
zakelijk	-5854
▁gebiopt	-5855
▁niveaus	-5856
▁persist	-5857
▁traject	-5858
oppervlak	-5859
▁epitheli	-5860
▁gastrale	-5861
▁retroper	-5862
bespreking	-5863
illectomie	-5864
▁collagene	-5865
▁poliepjes	-5866
▁Desondanks	-5867
▁generation	-5868
▁lipomateuze	-5869
▁presternaal	-5870
▁regeneratie	-5871
aarschijnlijk	-5872
▁celpopulatie	-5873
▁extravasatie	-5874
▁rechtermamma	-5875
ocytoclastische	-5876
▁submandibularis	-5877
.0	-5878
Gra	-5879
IHC	-5880
cus	-5881
atop	-5882
gast	-5883
hang	-5884
orme	-5885
adere	-5886
etast	-5887
maals	-5888
sduur	-5889
teerd	-5890
usual	-5891
vende	-5892
▁ling	-5893
aanden	-5894
asting	-5895
ilaire	-5896
ronden	-5897
script	-5898
▁relev	-5899
Conform	-5900
▁Bronch	-5901
▁compon	-5902
▁niveau	-5903
▁oorlel	-5904
▁planop	-5905
▁versch	-5906
▁vroege	-5907
delingse	-5908
erwijder	-5909
voorstel	-5910
▁criteri	-5911
▁globaal	-5912
▁interna	-5913
▁tubulus	-5914
▁voetrug	-5915
arcinomen	-5916
handeling	-5917
leuringen	-5918
▁communis	-5919
▁gecombin	-5920
▁pancreat	-5921
▁reductie	-5922
metaplasie	-5923
oidectomie	-5924
sectierand	-5925
▁betrokken	-5926
▁meerlagig	-5927
▁mondbodem	-5928
▁overigens	-5929
▁goedaardig	-5930
▁progressie	-5931
▁cilindercel	-5932
▁colorectaal	-5933
▁planopilaris	-5934
▁hypertrofisch	-5935
▁huidstansbiopt	-5936
▁Gefragmenteerde	-5937
▁ileumslijmvlies	-5938
▁weefselfragment	-5939
AHA	-5940
]22	-5941
ala	-5942
oeg	-5943
rix	-5944
aget	-5945
lega	-5946
omyc	-5947
pool	-5948
▁(2,	-5949
▁fra	-5950
▁gez	-5951
▁hom	-5952
▁hun	-5953
issie	-5954
ulose	-5955
wezen	-5956
▁21-1	-5957
▁pann	-5958
-2020:	-5959
knepen	-5960
okerat	-5961
▁gemod	-5962
▁herbe	-5963
mediale	-5964
▁collega	-5965
▁maanden	-5966
eenlijden	-5967
epelvocht	-5968
▁behouden	-5969
▁biopsies	-5970
▁geschikt	-5971
▁gestelde	-5972
▁helemaal	-5973
cisiebiopt	-5974
laaggradig	-5975
otactische	-5976
ransurethr	-5977
▁different	-5978
▁peptische	-5979
▁verknepen	-5980
▁zijranden	-5981
▁meningeoom	-5982
histiocytaire	-5983
▁hybridisatie	-5984
▁panniculitis	-5985
▁hemorragische	-5986
▁plaatepitheel	-5987
▁hemicolectomie	-5988
▁prolifererende	-5989
▁Bronchusbiopten	-5990
bi	-5991
ux	-5992
Cyt	-5993
irc	-5994
▁1[	-5995
ails	-5996
rise	-5997
wikk	-5998
▁BAL	-5999
▁neo	-6000
▁oed	-6001
extra	-6002
ilemm	-6003
▁coli	-6004
▁neur	-6005
▁noch	-6006
evocht	-6007
icrise	-6008
schede	-6009
▁Bodem	-6010
▁compo	-6011
▁voorh	-6012
erieure	-6013
▁Celarm	-6014
▁defect	-6015
▁lavage	-6016
▁marker	-6017
▁mitose	-6018
eratieve	-6019
poliepen	-6020
▁hoogste	-6021
▁mycosis	-6022
▁stellen	-6023
▁trombus	-6024
rriteerde	-6025
▁Hierover	-6026
▁aspiraat	-6027
▁darmtype	-6028
▁hechting	-6029
▁kaakhoek	-6030
▁keratine	-6031
vasculaire	-6032
▁acanthoom	-6033
▁dubbelbre	-6034
▁fungoides	-6035
▁groeiende	-6036
▁maturatie	-6037
▁aangeboden	-6038
▁multiforme	-6039
▁dermatoloog	-6040
▁eczemateuze	-6041
▁linkermamma	-6042
▁aangeleverde	-6043
▁diverticulose	-6044
ctomiepreparaat	-6045
▁flowcytometrie	-6046
▁maagantrumtype	-6047
▁paravertebraal	-6048
kedarmslijmvlies	-6049
▁schildklierkwab	-6050
.):	-6051
cri	-6052
ibr	-6053
its	-6054
oos	-6055
rib	-6056
▁Le	-6057
morf	-6058
reen	-6059
uaat	-6060
▁2.[	-6061
▁Bep	-6062
▁fen	-6063
▁the	-6064
▁zes	-6065
iging	-6066
▁uitg	-6067
coupes	-6068
hoewel	-6069
monale	-6070
▁Assay	-6071
▁derde	-6072
▁intim	-6073
apeling	-6074
fibroom	-6075
ienalis	-6076
▁curvat	-6077
▁grader	-6078
▁incomp	-6079
▁slijmv	-6080
▁staven	-6081
oradisch	-6082
▁Celrijk	-6083
▁apicaal	-6084
▁decidua	-6085
▁ontwikk	-6086
▁bovenste	-6087
▁compound	-6088
▁genoemde	-6089
▁herkomst	-6090
▁omgeving	-6091
▁subacute	-6092
▁verwijde	-6093
tadierings	-6094
▁klierbuis	-6095
▁regelmatig	-6096
▁thoraxwand	-6097
▁epitheliaal	-6098
▁linkerzijde	-6099
▁mediastinale	-6100
▁Bronchusbrush	-6101
▁haarfollikels	-6102
▁immuunprofiel	-6103
▁submandibulair	-6104
▁blaasslijmvlies	-6105
-,	-6106
HL	-6107
av	-6108
li	-6109
-2-	-6110
Cys	-6111
bul	-6112
ift	-6113
iss	-6114
nge	-6115
ome	-6116
ung	-6117
BRAF	-6118
olen	-6119
▁(22	-6120
▁12-	-6121
▁HRA	-6122
▁Ion	-6123
Beeld	-6124
]10-0	-6125
ragma	-6126
snede	-6127
vraag	-6128
▁clin	-6129
▁isth	-6130
ingiva	-6131
ioneel	-6132
onucle	-6133
▁comed	-6134
▁lange	-6135
▁thyre	-6136
eerbaar	-6137
▁adenoc	-6138
▁gehoor	-6139
▁methyl	-6140
▁viraal	-6141
▁voorts	-6142
cidentie	-6143
▁disease	-6144
Resultaat	-6145
▁bevatten	-6146
▁flardjes	-6147
▁hematoom	-6148
▁immature	-6149
▁nogmaals	-6150
▁anterieur	-6151
▁immuuncyt	-6152
▁represent	-6153
erwijdering	-6154
▁uitsluiten	-6155
▁beschikbaar	-6156
▁pancreaskop	-6157
▁Huidexcisies	-6158
▁bijvoorbeeld	-6159
▁cellulariteit	-6160
▁chemotherapie	-6161
▁restmateriaal	-6162
▁vreemdlichaam	-6163
aagantrumbiopten	-6164
gn	-6165
ko	-6166
my	-6167
za	-6168
CLC	-6169
GEE	-6170
pse	-6171
▁RA	-6172
irat	-6173
moid	-6174
odus	-6175
uble	-6176
ulat	-6177
▁(20	-6178
▁2,2	-6179
▁Dem	-6180
]12-0	-6181
braak	-6182
ekent	-6183
embol	-6184
ipeus	-6185
latie	-6186
▁acht	-6187
▁stri	-6188
Aantal	-6189
blokje	-6190
ervorm	-6191
midden	-6192
random	-6193
▁tekst	-6194
distaal	-6195
▁Cancer	-6196
▁inhoud	-6197
▁tanden	-6198
etastase	-6199
▁Demodex	-6200
usculaire	-6201
▁gevolgen	-6202
▁lienalis	-6203
▁villitis	-6204
▁blijvende	-6205
▁curvatuur	-6206
▁regionale	-6207
▁siliconen	-6208
▁Aanvulling	-6209
▁gehoorgang	-6210
▁trichilemm	-6211
▁voorlopige	-6212
▁cristabiopt	-6213
▁hypertensie	-6214
▁diepreikende	-6215
▁rechterzijde	-6216
differentiatie	-6217
▁onregelmatige	-6218
ao	-6219
ekk	-6220
alan	-6221
fund	-6222
ouwd	-6223
rium	-6224
roep	-6225
▁1.[	-6226
arige	-6227
eleid	-6228
idend	-6229
naire	-6230
weest	-6231
▁1).[	-6232
▁part	-6233
▁reep	-6234
▁risk	-6235
lechts	-6236
ochond	-6237
▁dagen	-6238
▁order	-6239
grootte	-6240
▁Diepte	-6241
▁perine	-6242
▁vinger	-6243
maximale	-6244
mucosale	-6245
▁gericht	-6246
▁huidige	-6247
▁isthmus	-6248
▁tubaire	-6249
cobacteri	-6250
ercentage	-6251
inclusief	-6252
oorlopige	-6253
voorlopig	-6254
▁aangrenz	-6255
▁dezelfde	-6256
▁excisies	-6257
▁hidraden	-6258
▁nefritis	-6259
alperfusie	-6260
ocellulaire	-6261
ovenstaande	-6262
▁adenomyose	-6263
▁darmkanker	-6264
▁elektronen	-6265
▁gastrische	-6266
▁onverdacht	-6267
▁poliepeuze	-6268
▁voorhanden	-6269
amengestelde	-6270
yroidectomie	-6271
▁componenten	-6272
▁necrotische	-6273
▁verwijdering	-6274
unohistochemie	-6275
▁ductectasieen	-6276
▁ectocervicaal	-6277
▁leverparenchym	-6278
ni	-6279
-1.	-6280
2),	-6281
alu	-6282
gek	-6283
omm	-6284
ora	-6285
pje	-6286
pur	-6287
▁-)	-6288
▁DI	-6289
▁dw	-6290
▁sk	-6291
heen	-6292
ossa	-6293
▁1,0	-6294
▁Dep	-6295
▁wil	-6296
Level	-6297
clone	-6298
haard	-6299
helix	-6300
pecif	-6301
reerd	-6302
udaal	-6303
▁Atyp	-6304
▁diaf	-6305
▁inkt	-6306
▁verl	-6307
entrif	-6308
plasia	-6309
▁eerst	-6310
▁nevus	-6311
▁plooi	-6312
apulair	-6313
omycose	-6314
rolifer	-6315
▁Advies	-6316
▁Laesie	-6317
orbitaal	-6318
ubcutane	-6319
▁gangren	-6320
▁geulcer	-6321
▁geweest	-6322
▁vliezen	-6323
▁*******-	-6324
▁polypeus	-6325
erineurale	-6326
▁preputium	-6327
▁tandenrij	-6328
▁variaties	-6329
▁Colonbiopt	-6330
▁borderline	-6331
iesmateriaal	-6332
▁lymfoplasma	-6333
▁malperfusie	-6334
▁melanocyten	-6335
▁tangentieel	-6336
▁tumorlengte	-6337
▁chirurgische	-6338
▁intraductale	-6339
▁naaldbiopsie	-6340
Differentiatie	-6341
igmoidresectie	-6342
▁Blaasspoeling	-6343
▁gemodificeerde	-6344
RC	-6345
Asp	-6346
aas	-6347
ipp	-6348
uld	-6349
abet	-6350
cran	-6351
hank	-6352
iken	-6353
klep	-6354
oris	-6355
zool	-6356
▁Bes	-6357
▁CLL	-6358
▁vru	-6359
▁zin	-6360
briek	-6361
einig	-6362
▁Link	-6363
▁duim	-6364
erking	-6365
haarde	-6366
idalis	-6367
orrent	-6368
varium	-6369
▁Clark	-6370
▁steel	-6371
arsgest	-6372
handrug	-6373
verneus	-6374
ytrocyt	-6375
▁Archer	-6376
▁Hierin	-6377
▁aanbev	-6378
▁alhier	-6379
▁antrac	-6380
▁diabet	-6381
▁verval	-6382
▁vrucht	-6383
dictieve	-6384
gevonden	-6385
sproduct	-6386
xanthoom	-6387
▁chorion	-6388
▁endomet	-6389
▁geprikk	-6390
▁membran	-6391
▁mesangi	-6392
▁rijping	-6393
bijmenging	-6394
chronische	-6395
cochleatie	-6396
etreffende	-6397
ronodulair	-6398
▁basaloide	-6399
▁collageen	-6400
▁huidshave	-6401
▁inzending	-6402
▁serositis	-6403
Definitieve	-6404
▁bloedvaten	-6405
▁conclusief	-6406
▁immunoloog	-6407
▁imponerend	-6408
▁kristallen	-6409
▁maagmucosa	-6410
▁shavebiopt	-6411
▁urineblaas	-6412
ransuretrale	-6413
▁infiltraten	-6414
▁longweefsel	-6415
▁lymfatische	-6416
▁submucosaal	-6417
▁voorkomende	-6418
▁Breslowdikte	-6419
▁anaplastisch	-6420
▁glioblastoom	-6421
▁huidresectie	-6422
▁dubbelbrekend	-6423
▁macroscopisch	-6424
▁trichilemmale	-6425
▁hepatocellulair	-6426
ana	-6427
mal	-6428
uul	-6429
▁LD	-6430
Door	-6431
orum	-6432
reek	-6433
time	-6434
▁DIA	-6435
▁Lip	-6436
▁Low	-6437
hibit	-6438
otale	-6439
steek	-6440
▁Aang	-6441
▁cort	-6442
▁doen	-6443
▁endo	-6444
▁pyel	-6445
▁soms	-6446
eikend	-6447
totaal	-6448
yperen	-6449
▁digit	-6450
▁myoom	-6451
▁semen	-6452
▁usual	-6453
dermale	-6454
neusrug	-6455
ropoese	-6456
▁geloos	-6457
▁lesion	-6458
▁oproep	-6459
▁stenen	-6460
▁toonde	-6461
apklasse	-6462
ofibrose	-6463
ventieve	-6464
wijzigde	-6465
▁Bericht	-6466
▁eenduid	-6467
▁keratin	-6468
▁vaatjes	-6469
▁voorste	-6470
otypering	-6471
▁centrale	-6472
▁galwegen	-6473
▁gesneden	-6474
▁groepjes	-6475
▁spoelcel	-6476
▁vesicula	-6477
carcinomen	-6478
▁afgenomen	-6479
▁behorende	-6480
▁bevinding	-6481
▁linkeroor	-6482
▁resttumor	-6483
▁slijmvorm	-6484
behandeling	-6485
olypectomie	-6486
▁amyloidose	-6487
▁artefacten	-6488
▁bijmenging	-6489
▁fibromatose	-6490
▁mechanische	-6491
▁pseudodecidu	-6492
▁resectierand	-6493
▁Endocervicale	-6494
▁fibroxanthoom	-6495
▁linkeronderarm	-6496
2.[	-6497
cir	-6498
cur	-6499
ras	-6500
rep	-6501
▁AI	-6502
▁il	-6503
20-2	-6504
CAAL	-6505
cand	-6506
diep	-6507
dors	-6508
erif	-6509
riae	-6510
verm	-6511
▁afd	-6512
front	-6513
immun	-6514
ouble	-6515
romet	-6516
▁aard	-6517
▁afge	-6518
▁heel	-6519
▁kwab	-6520
▁nauw	-6521
▁plat	-6522
▁zaad	-6523
follic	-6524
iddels	-6525
lation	-6526
stenen	-6527
▁Cyste	-6528
▁Delen	-6529
▁cardi	-6530
▁clust	-6531
▁heter	-6532
▁organ	-6533
▁pylor	-6534
▁zwart	-6535
Afstand	-6536
geassoc	-6537
reikend	-6538
▁belang	-6539
▁foetus	-6540
▁reiken	-6541
▁stasis	-6542
behaarde	-6543
▁arterie	-6544
▁cerebri	-6545
▁daarmee	-6546
▁rubriek	-6547
architect	-6548
ativiteit	-6549
ilaterale	-6550
procedure	-6551
▁Reactief	-6552
▁chronica	-6553
▁conjunct	-6554
▁geloosde	-6555
▁reikende	-6556
▁dwarsgest	-6557
▁solitaire	-6558
▁werkgroep	-6559
Lokalisatie	-6560
endometrium	-6561
▁pemphigoid	-6562
▁wigexcisie	-6563
leurabiopten	-6564
▁overtuigend	-6565
▁vastgesteld	-6566
interstitiele	-6567
▁blaarvorming	-6568
▁glomerulaire	-6569
▁verkalkingen	-6570
ammanaaldbiopt	-6571
▁atheroomcyste	-6572
▁betrokkenheid	-6573
ID	-6574
BCL	-6575
edi	-6576
jog	-6577
nek	-6578
nos	-6579
ode	-6580
▁Ar	-6581
▁Br	-6582
clus	-6583
looi	-6584
mark	-6585
ruma	-6586
weet	-6587
wend	-6588
annen	-6589
auter	-6590
elden	-6591
komen	-6592
tieel	-6593
ylori	-6594
▁High	-6595
▁thym	-6596
▁toep	-6597
Gezien	-6598
RADERI	-6599
etisch	-6600
jogren	-6601
tussen	-6602
udeerd	-6603
▁juist	-6604
▁media	-6605
▁pilon	-6606
▁scrot	-6607
ructuur	-6608
ubulair	-6609
volgens	-6610
▁bewijz	-6611
▁septum	-6612
▁waarde	-6613
stitieel	-6614
typering	-6615
▁crypten	-6616
▁stenose	-6617
▁betekent	-6618
▁respirat	-6619
▁verwacht	-6620
ohepatitis	-6621
▁basalioom	-6622
▁cryptitis	-6623
glandulaire	-6624
▁bacteriele	-6625
▁liposarcoom	-6626
▁prostatitis	-6627
▁sclerotisch	-6628
▁uitbreidend	-6629
▁Blaasbiopten	-6630
▁endometriale	-6631
▁gemethyleerd	-6632
▁systematisch	-6633
▁Interpretatie	-6634
▁duodenumbiopt	-6635
▁ondersteuning	-6636
▁persisterende	-6637
▁Adenocarcinoom	-6638
▁metaplastische	-6639
BC	-6640
EA	-6641
ju	-6642
1),	-6643
Ind	-6644
chr	-6645
kas	-6646
ord	-6647
pol	-6648
Hoog	-6649
greg	-6650
ijns	-6651
▁ano	-6652
auhin	-6653
delen	-6654
kleur	-6655
ofyse	-6656
orood	-6657
▁12-1	-6658
▁bijt	-6659
▁veld	-6660
▁with	-6661
groeid	-6662
ijkant	-6663
stisch	-6664
▁abdom	-6665
▁apopt	-6666
▁monok	-6667
▁semin	-6668
opoiese	-6669
stabiel	-6670
nderzoek	-6671
nodulair	-6672
verigens	-6673
▁Broncho	-6674
▁avitaal	-6675
▁pilomat	-6676
▁sereuze	-6677
▁Receptor	-6678
▁astrocyt	-6679
▁optimaal	-6680
▁pericard	-6681
▁voetzool	-6682
▁voorwand	-6683
alveolaire	-6684
▁Dunnedarm	-6685
▁cytonucle	-6686
▁diafragma	-6687
▁dissectie	-6688
▁hierboven	-6689
▁inguinaal	-6690
umorgrootte	-6691
▁referentie	-6692
▁spoelvocht	-6693
▁toepassing	-6694
▁cilindrisch	-6695
▁koilocytose	-6696
▁pilonidalis	-6697
▁seborroische	-6698
▁vergelijking	-6699
▁cryptabcessen	-6700
▁gedegenereerd	-6701
▁Hemicolectomie	-6702
▁architecturele	-6703
icopathologische	-6704
▁fibromusculaire	-6705
vl	-6706
CHE	-6707
cha	-6708
jun	-6709
sec	-6710
uiv	-6711
▁1-	-6712
▁2[	-6713
▁og	-6714
▁ul	-6715
22-2	-6716
erig	-6717
onge	-6718
palm	-6719
ster	-6720
▁(1,	-6721
▁inv	-6722
▁kel	-6723
▁low	-6724
▁rib	-6725
2-201	-6726
andom	-6727
ethyl	-6728
inose	-6729
leine	-6730
otaal	-6731
ustyp	-6732
▁stuk	-6733
▁zoek	-6734
Gaarne	-6735
Indien	-6736
atoide	-6737
bronch	-6738
ctitis	-6739
elijks	-6740
iatype	-6741
lonaal	-6742
nivers	-6743
omelan	-6744
tritis	-6745
▁dilat	-6746
▁enter	-6747
▁pleit	-6748
▁serie	-6749
agenoeg	-6750
aginale	-6751
angitis	-6752
cendens	-6753
entiele	-6754
imbriae	-6755
toename	-6756
usculus	-6757
veolair	-6758
verwege	-6759
▁ingest	-6760
▁thromb	-6761
bijholte	-6762
▁fibroma	-6763
▁gronden	-6764
▁haardje	-6765
▁neiging	-6766
▁pylorus	-6767
▁stuwing	-6768
▁uitgaat	-6769
](*******	-6770
▁Fragment	-6771
▁criteria	-6772
▁endocard	-6773
▁epicrise	-6774
▁gecauter	-6775
▁gegroeid	-6776
▁platform	-6777
aanvulling	-6778
cellulaire	-6779
operatieve	-6780
▁Aspiratie	-6781
▁aanvragen	-6782
▁bewijzend	-6783
▁pemfigoid	-6784
▁samenhang	-6785
▁halverwege	-6786
▁mitotische	-6787
▁myomatosus	-6788
▁ulcusbodem	-6789
▁vacuolaire	-6790
▁spirocheten	-6791
terusresectie	-6792
▁calcificatie	-6793
▁gevalideerde	-6794
▁huidfragment	-6795
▁monotypische	-6796
▁myelofibrose	-6797
tereotactische	-6798
▁lymfomenpanel	-6799
▁Huidshavebiopt	-6800
▁bloedbijmenging	-6801
▁bloedingsresten	-6802
.)	-6803
0),	-6804
20:	-6805
End	-6806
GRA	-6807
ICR	-6808
ain	-6809
ves	-6810
zet	-6811
▁ie	-6812
akle	-6813
amin	-6814
antw	-6815
erst	-6816
glas	-6817
idym	-6818
sent	-6819
▁erg	-6820
▁gef	-6821
Casus	-6822
defin	-6823
ollow	-6824
ortio	-6825
potje	-6826
▁cent	-6827
▁gren	-6828
▁hele	-6829
▁ligg	-6830
▁nood	-6831
▁real	-6832
▁rode	-6833
▁teen	-6834
▁vena	-6835
aseerd	-6836
jarige	-6837
morbus	-6838
pseudo	-6839
shalve	-6840
▁aange	-6841
▁blauw	-6842
▁galst	-6843
▁stemp	-6844
▁therm	-6845
legging	-6846
ofibros	-6847
umnaire	-6848
▁aggreg	-6849
▁biopsy	-6850
▁vooraf	-6851
afibrose	-6852
▁bloeder	-6853
▁celarme	-6854
▁evenmin	-6855
▁haarden	-6856
▁herkend	-6857
▁markers	-6858
▁typeren	-6859
papilloom	-6860
▁bevonden	-6861
▁talrijke	-6862
▁vergrote	-6863
descendens	-6864
▁bekleding	-6865
▁correlaat	-6866
▁opgegeven	-6867
▁proctitis	-6868
▁stemplooi	-6869
▁zoekvraag	-6870
▁incidentie	-6871
architectuur	-6872
rchidectomie	-6873
▁urticariele	-6874
onsillectomie	-6875
▁hematopoiese	-6876
▁kleincellige	-6877
▁leversegment	-6878
▁dermatomycose	-6879
▁linkerbovenarm	-6880
▁verslaglegging	-6881
▁Adnexextirpatie	-6882
▁neuroendocriene	-6883
▁zekerheidshalve	-6884
ln	-6885
zw	-6886
Bes	-6887
Leu	-6888
erc	-6889
erp	-6890
nte	-6891
onp	-6892
oop	-6893
uhr	-6894
Lymf	-6895
▁Als	-6896
▁tib	-6897
Extra	-6898
antel	-6899
erkel	-6900
iitis	-6901
reept	-6902
▁calc	-6903
▁impl	-6904
▁mest	-6905
beginn	-6906
emfyse	-6907
exacte	-6908
omyces	-6909
totale	-6910
vezels	-6911
▁Immun	-6912
▁bulla	-6913
▁nodig	-6914
angulus	-6915
passend	-6916
rimaire	-6917
uamocol	-6918
▁extrac	-6919
▁larynx	-6920
▁mantel	-6921
▁uitgeb	-6922
▁vlakke	-6923
orectale	-6924
pmerking	-6925
snijding	-6926
usculair	-6927
voorkeur	-6928
▁colloid	-6929
▁gingiva	-6930
▁myxoide	-6931
▁reepjes	-6932
▁scrotum	-6933
▁transit	-6934
eritoneum	-6935
hankelijk	-6936
ingsgroep	-6937
positieve	-6938
roeiwijze	-6939
▁artritis	-6940
▁graderen	-6941
▁naevoide	-6942
rogesteron	-6943
▁bekledend	-6944
▁condyloom	-6945
▁klassieke	-6946
▁knieholte	-6947
▁onsteking	-6948
▁papilloma	-6949
▁serologie	-6950
niversitair	-6951
▁aantasting	-6952
▁ectocervix	-6953
▁peesschede	-6954
Helicobacter	-6955
▁allergische	-6956
▁geulcereerd	-6957
▁hypertrofie	-6958
▁mesenterium	-6959
▁systemische	-6960
▁uitrijpende	-6961
ransurethrale	-6962
▁intradermaal	-6963
Hodgkinlymfoom	-6964
▁erytrocyturie	-6965
▁organiserende	-6966
▁subepidermale	-6967
▁slokdarmbiopten	-6968
▁steatohepatitis	-6969
Cp	-6970
DA	-6971
pv	-6972
vt	-6973
Loc	-6974
Lys	-6975
cin	-6976
▁):	-6977
▁je	-6978
IGDE	-6979
RADI	-6980
erse	-6981
oriz	-6982
uent	-6983
ursa	-6984
▁2),	-6985
▁mut	-6986
breuk	-6987
ctuur	-6988
derma	-6989
idden	-6990
ollet	-6991
scalp	-6992
▁gere	-6993
▁trim	-6994
-2021[	-6995
1-10-1	-6996
enteus	-6997
idymis	-6998
italis	-6999
ouglas	-7000
versch	-7001
▁eccri	-7002
▁graft	-7003
▁ieder	-7004
▁ilium	-7005
▁ingev	-7006
▁maart	-7007
▁virus	-7008
illeuze	-7009
mediaal	-7010
ogenaam	-7011
omatoid	-7012
orizont	-7013
ovarium	-7014
▁galweg	-7015
▁groeit	-7016
igniteit	-7017
laveisel	-7018
neuspunt	-7019
ylorisch	-7020
▁aanvrag	-7021
▁gedeelt	-7022
▁geleide	-7023
▁inhibit	-7024
▁paratub	-7025
▁scannen	-7026
▁skintag	-7027
poelvocht	-7028
rikkeling	-7029
▁Compleet	-7030
▁bacteriA	-7031
▁intracav	-7032
reventieve	-7033
▁Longbiopt	-7034
▁bewerking	-7035
▁bovenkaak	-7036
▁cervicaal	-7037
▁colontype	-7038
▁doorsnede	-7039
▁trimester	-7040
▁definitief	-7041
▁maxillaris	-7042
▁sporadisch	-7043
▁tumorvrije	-7044
amplificeerd	-7045
roliferatief	-7046
▁Cytologisch	-7047
▁aangetoonde	-7048
▁acantholyse	-7049
▁haemangioom	-7050
▁multifocale	-7051
▁zijdelingse	-7052
▁klierweefsel	-7053
▁radiologisch	-7054
▁slijmvormend	-7055
uamocolumnaire	-7056
▁antrumbiopten	-7057
▁prolifererend	-7058
▁prostatectomie	-7059
▁buitenoppervlak	-7060
0(	-7061
▁*	-7062
emm	-7063
fig	-7064
hen	-7065
uim	-7066
ERBB	-7067
Long	-7068
aart	-7069
iens	-7070
igon	-7071
ilis	-7072
nten	-7073
rain	-7074
▁(11	-7075
▁2,1	-7076
▁IEL	-7077
▁are	-7078
▁ber	-7079
▁hol	-7080
▁reA	-7081
▁sin	-7082
juvan	-7083
luste	-7084
zaken	-7085
▁Heup	-7086
▁gaan	-7087
▁onze	-7088
ipping	-7089
ivatie	-7090
wegend	-7091
▁Brunn	-7092
▁codon	-7093
▁gelet	-7094
▁hypox	-7095
▁villi	-7096
adipeus	-7097
caudaal	-7098
haarden	-7099
handeld	-7100
illende	-7101
infarct	-7102
juvante	-7103
zijwand	-7104
▁retrom	-7105
▁tubuli	-7106
▁vascul	-7107
RADICAAL	-7108
houdende	-7109
ommissie	-7110
ylinders	-7111
▁Afstand	-7112
▁Daarbij	-7113
▁grotere	-7114
▁intacte	-7115
▁omtrent	-7116
▁protonp	-7117
▁stabiel	-7118
▁ulcerof	-7119
▁zijkant	-7120
neeranden	-7121
secteerde	-7122
emateriaal	-7123
▁caverneus	-7124
▁genetisch	-7125
▁interpret	-7126
▁Endocervix	-7127
▁arteriitis	-7128
▁darmmucosa	-7129
▁lymfoplasm	-7130
▁celgroepjes	-7131
▁ileocoecaal	-7132
▁satellieten	-7133
classificatie	-7134
▁angioinvasie	-7135
▁blaasbiopten	-7136
▁cytonucleaire	-7137
▁fibrocysteuze	-7138
▁herbeoordeeld	-7139
▁interstitieel	-7140
▁overgangstype	-7141
▁prostaatbiopt	-7142
▁radiotherapie	-7143
▁dwarsgestreept	-7144
▁gescleroseerde	-7145
▁medebeoordeeld	-7146
▁neusslijmvlies	-7147
▁rechterbovenarm	-7148
▁tumorpercentage	-7149
GG	-7150
cr	-7151
,11	-7152
can	-7153
oss	-7154
ray	-7155
▁DE	-7156
aang	-7157
best	-7158
indt	-7159
oper	-7160
ordt	-7161
taal	-7162
verk	-7163
vula	-7164
▁0.[	-7165
▁enA	-7166
▁sac	-7167
▁sca	-7168
▁sen	-7169
creas	-7170
datum	-7171
ekere	-7172
junum	-7173
rache	-7174
▁RECE	-7175
▁phyl	-7176
-2020[	-7177
igonum	-7178
ijbeen	-7179
lottis	-7180
ormale	-7181
uiving	-7182
▁kopie	-7183
ergisch	-7184
▁Random	-7185
▁graadA	-7186
amenlijk	-7187
anamnese	-7188
centraal	-7189
frontaal	-7190
volgende	-7191
▁Heupkop	-7192
▁aanzien	-7193
▁bestaan	-7194
▁gepaard	-7195
▁groepen	-7196
▁lingula	-7197
▁remmers	-7198
atypische	-7199
entoename	-7200
▁borstkas	-7201
▁skipping	-7202
▁tweemaal	-7203
aligniteit	-7204
oplastisch	-7205
sonderzoek	-7206
▁galstenen	-7207
▁hormonale	-7208
▁huidadnex	-7209
▁pulmonale	-7210
▁voorkomen	-7211
▁weefselst	-7212
betreffende	-7213
ermoedelijk	-7214
infiltratie	-7215
▁bloedingen	-7216
▁cellulaire	-7217
▁hematopoet	-7218
▁mestcellen	-7219
▁secretoire	-7220
▁verminderd	-7221
lassificeerd	-7222
rostaatbiopt	-7223
▁dyskeratose	-7224
opathologisch	-7225
▁Ascitesvocht	-7226
▁beeldvorming	-7227
omorfologische	-7228
transplantatie	-7229
▁immunologisch	-7230
▁keratinocyten	-7231
▁medicamenteuze	-7232
▁onderverdeling	-7233
ustypeslijmvlies	-7234
fs	-7235
vo	-7236
▁)	-7237
Gln	-7238
Rad	-7239
kel	-7240
mac	-7241
via	-7242
zyg	-7243
▁sh	-7244
-2).	-7245
Diep	-7246
band	-7247
dont	-7248
enen	-7249
igus	-7250
oont	-7251
open	-7252
prox	-7253
reig	-7254
vent	-7255
▁(2-	-7256
▁11)	-7257
▁20-	-7258
▁cin	-7259
▁lym	-7260
▁pot	-7261
acaal	-7262
aklep	-7263
anale	-7264
derde	-7265
draad	-7266
leven	-7267
melan	-7268
omast	-7269
spier	-7270
▁epid	-7271
▁scab	-7272
▁sial	-7273
▁uter	-7274
-2022:	-7275
Double	-7276
ageale	-7277
alking	-7278
herine	-7279
ibulum	-7280
kapsel	-7281
ysteem	-7282
▁anaal	-7283
▁diver	-7284
▁fossa	-7285
▁opgeb	-7286
▁overg	-7287
Breslow	-7288
gerelat	-7289
ynovium	-7290
▁keloid	-7291
▁pulmon	-7292
▁ruimte	-7293
▁sleeve	-7294
▁wijzen	-7295
Beenmerg	-7296
gebleven	-7297
▁Douglas	-7298
▁centrum	-7299
▁evenals	-7300
▁nodosum	-7301
tenminste	-7302
verwijder	-7303
▁Diagnose	-7304
▁gespecif	-7305
▁horizont	-7306
▁hypofyse	-7307
▁innemend	-7308
▁mucosale	-7309
▁zogenaam	-7310
Groeiwijze	-7311
lisexcisie	-7312
▁Hemithyre	-7313
▁Invasieve	-7314
▁eenduidig	-7315
▁minuscule	-7316
rometastase	-7317
▁aanbevolen	-7318
▁foveolaire	-7319
▁fundustype	-7320
▁prikkeling	-7321
▁prostatica	-7322
▁aangrenzend	-7323
▁gezamenlijk	-7324
▁malformatie	-7325
▁satellitose	-7326
▁tumorvolume	-7327
▁Laboratorium	-7328
oorbehandeling	-7329
▁erythematodes	-7330
▁hoofdbronchus	-7331
▁rectumbiopten	-7332
▁chorionvlokken	-7333
▁Levernaaldbiopt	-7334
▁rechteronderarm	-7335
FD	-7336
afw	-7337
sis	-7338
ues	-7339
wab	-7340
▁bi	-7341
DIFF	-7342
dood	-7343
kuit	-7344
terk	-7345
ubae	-7346
umep	-7347
▁10-	-7348
▁art	-7349
▁res	-7350
▁wig	-7351
GRAAD	-7352
oment	-7353
roces	-7354
rogen	-7355
rosea	-7356
terne	-7357
undel	-7358
zoals	-7359
▁feit	-7360
▁wond	-7361
Archer	-7362
arieel	-7363
arteri	-7364
rocyst	-7365
screen	-7366
zekere	-7367
▁Enige	-7368
▁geloc	-7369
▁ident	-7370
▁jicht	-7371
▁laten	-7372
▁ligam	-7373
▁odont	-7374
▁pariA	-7375
▁tibia	-7376
DIFFERE	-7377
GRADERI	-7378
IEGRAAD	-7379
eerdere	-7380
eosinof	-7381
icrodis	-7382
scapula	-7383
▁interm	-7384
▁lokale	-7385
▁polycl	-7386
▁waarna	-7387
antwoord	-7388
breiding	-7389
gressief	-7390
▁daarvan	-7391
▁indefin	-7392
▁reticul	-7393
adjuvante	-7394
omenpanel	-7395
ratervorm	-7396
reactieve	-7397
specifiek	-7398
▁cystitis	-7399
▁fimbriae	-7400
scheenbeen	-7401
▁ischaemie	-7402
▁minuscuul	-7403
▁perianaal	-7404
▁gemicrodis	-7405
▁kenmerkend	-7406
Angioinvasie	-7407
histiocytose	-7408
▁afgehandeld	-7409
▁bijtfibroom	-7410
▁erytropoese	-7411
▁excochleaat	-7412
▁gemedieerde	-7413
▁paratubaire	-7414
▁peritoneale	-7415
▁verminderde	-7416
▁Aanwezigheid	-7417
▁endocarditis	-7418
▁erythrocyten	-7419
▁regeneratieve	-7420
▁verschillende	-7421
▁blastentoename	-7422
▁gespecificeerd	-7423
▁geclassificeerd	-7424
▁oorspronkelijke	-7425
▁restlokalisatie	-7426
GA	-7427
)).	-7428
-2.	-7429
hag	-7430
oli	-7431
ril	-7432
ebru	-7433
este	-7434
ieen	-7435
situ	-7436
▁0).	-7437
▁Fib	-7438
▁RAD	-7439
▁elk	-7440
▁evt	-7441
▁nat	-7442
▁ren	-7443
▁wit	-7444
beide	-7445
eelde	-7446
okele	-7447
perma	-7448
ulaat	-7449
▁02-1	-7450
▁2).[	-7451
▁DIAG	-7452
▁eind	-7453
▁mill	-7454
▁spit	-7455
bladen	-7456
carina	-7457
elders	-7458
geleid	-7459
kingen	-7460
▁bijna	-7461
▁evalu	-7462
▁glans	-7463
▁lamel	-7464
▁rosea	-7465
▁xanth	-7466
astasen	-7467
bductie	-7468
ebruari	-7469
odermie	-7470
oriatie	-7471
▁aanleg	-7472
▁exonen	-7473
▁follow	-7474
▁groter	-7475
▁infect	-7476
▁kernen	-7477
▁straal	-7478
▁struma	-7479
bovenlip	-7480
craniaal	-7481
ervicale	-7482
itoneaal	-7483
lceratie	-7484
ubcutaan	-7485
ultipele	-7486
▁bewerkt	-7487
▁cirrose	-7488
▁diverse	-7489
abiliteit	-7490
rocystoom	-7491
▁gemetast	-7492
▁handpalm	-7493
▁prothese	-7494
▁romphuid	-7495
▁trombose	-7496
eentumoren	-7497
erologisch	-7498
errichting	-7499
lymfocyten	-7500
▁blaaswand	-7501
▁bloederig	-7502
▁dilatatie	-7503
▁genitalis	-7504
▁vaginatop	-7505
encylinders	-7506
ytrocyturie	-7507
▁geprikkeld	-7508
▁linkerhand	-7509
▁millimeter	-7510
▁pilomatrix	-7511
▁posterieur	-7512
▁premaligne	-7513
histologisch	-7514
iagnostische	-7515
▁adenomateus	-7516
▁astrocytoom	-7517
▁fibrosering	-7518
▁linkszijdig	-7519
▁submucosale	-7520
microscopisch	-7521
umepercentage	-7522
▁plasmocytose	-7523
▁acanthotische	-7524
▁cervixbiopten	-7525
▁ectocervicale	-7526
▁insectensteek	-7527
▁macronodulair	-7528
▁overexpressie	-7529
▁translocaties	-7530
childwachtklier	-7531
▁achtergebleven	-7532
▁gedegenereerde	-7533
▁subepitheliale	-7534
▁wangslijmvlies	-7535
----------------	-7536
BL	-7537
Ig	-7538
RF	-7539
2,1	-7540
21:	-7541
ICC	-7542
elv	-7543
jac	-7544
▁02	-7545
▁El	-7546
▁ou	-7547
▁un	-7548
brug	-7549
ouch	-7550
part	-7551
prom	-7552
utel	-7553
▁Gem	-7554
▁hum	-7555
▁thv	-7556
▁tpv	-7557
corne	-7558
coupe	-7559
erdep	-7560
ervus	-7561
grade	-7562
hepat	-7563
iment	-7564
olyse	-7565
reken	-7566
wicht	-7567
ymorf	-7568
▁Rest	-7569
▁diam	-7570
▁foto	-7571
-2022[	-7572
entana	-7573
erkwab	-7574
ijpjes	-7575
lichen	-7576
ortusc	-7577
ukbeen	-7578
▁breed	-7579
▁eiwit	-7580
▁geser	-7581
▁holte	-7582
▁naald	-7583
▁ratio	-7584
▁reads	-7585
▁sperm	-7586
▁trach	-7587
Barrett	-7588
apicaal	-7589
uenties	-7590
weemaal	-7591
▁emfyse	-7592
▁levern	-7593
▁mature	-7594
▁microb	-7595
▁morfea	-7596
▁pyelum	-7597
▁resist	-7598
▁syring	-7599
IAscreen	-7600
aginatie	-7601
jaculaat	-7602
radenoom	-7603
utelbeen	-7604
▁Candida	-7605
▁centrif	-7606
▁dysmorf	-7607
▁grootte	-7608
▁heupkop	-7609
▁hiermee	-7610
▁ligging	-7611
▁melanof	-7612
neoplasie	-7613
▁iliacaal	-7614
▁mondhoek	-7615
▁tumortje	-7616
omelanosis	-7617
receptoren	-7618
verwijderd	-7619
vriescoupe	-7620
▁digniteit	-7621
▁hetzelfde	-7622
deficientie	-7623
gemarkeerde	-7624
▁*******):[	-7625
▁Receptoren	-7626
▁mechanisch	-7627
▁mesangiale	-7628
▁nauwelijks	-7629
▁rechteroor	-7630
lokdarmbiopt	-7631
peekselklier	-7632
▁ductaaltype	-7633
▁fibrotische	-7634
▁rechterhand	-7635
▁maagresectie	-7636
▁noodzakelijk	-7637
▁Erytrocyturie	-7638
▁gelokaliseerd	-7639
▁gepigmenteerd	-7640
▁vergelijkbaar	-7641
▁Buikspoelvocht	-7642
▁duodenummucosa	-7643
▁geamplificeerd	-7644
▁tumorkenmerken	-7645
aagcorpusbiopten	-7646
(-	-7647
DD	-7648
100	-7649
12-	-7650
Reg	-7651
]1.	-7652
ahl	-7653
isk	-7654
tri	-7655
-1).	-7656
-21:	-7657
RALE	-7658
atte	-7659
heem	-7660
loge	-7661
omin	-7662
orta	-7663
oupe	-7664
roph	-7665
▁Loc	-7666
▁amp	-7667
▁ham	-7668
▁nvt	-7669
▁okt	-7670
▁vor	-7671
Colon	-7672
ahler	-7673
chond	-7674
dtype	-7675
inden	-7676
kruin	-7677
ullen	-7678
▁herh	-7679
delins	-7680
derend	-7681
elitis	-7682
etreft	-7683
ietran	-7684
inales	-7685
ionele	-7686
kernig	-7687
oderma	-7688
raagde	-7689
solide	-7690
▁alien	-7691
▁amorf	-7692
▁hilus	-7693
▁perip	-7694
▁ruber	-7695
▁subst	-7696
benigne	-7697
inische	-7698
labella	-7699
▁Bauhin	-7700
▁adnexa	-7701
▁discre	-7702
▁nervus	-7703
▁opbouw	-7704
▁sepsis	-7705
▁zullen	-7706
mucosaal	-7707
obductie	-7708
racheaal	-7709
rekzijde	-7710
spatroon	-7711
▁bevindt	-7712
▁globale	-7713
▁krabben	-7714
▁senilis	-7715
▁villeus	-7716
aspiratie	-7717
gastritis	-7718
ijdigheid	-7719
▁compacte	-7720
▁locaties	-7721
▁oorzaken	-7722
▁perineum	-7723
▁serosale	-7724
](*******)	-7725
definitief	-7726
▁antracose	-7727
▁deciduale	-7728
▁discontin	-7729
▁dysplasia	-7730
▁infarcten	-7731
▁interface	-7732
▁omgevende	-7733
▁opgebouwd	-7734
▁restanten	-7735
▁seminales	-7736
▁thoracale	-7737
▁verhoogde	-7738
▁alveolaire	-7739
▁epididymis	-7740
▁maagcardia	-7741
▁motiliteit	-7742
▁overeenkom	-7743
▁vruchtdood	-7744
vermoedelijk	-7745
▁abortusrest	-7746
▁cholangitis	-7747
▁nefrectomie	-7748
▁oedemateuze	-7749
▁serologisch	-7750
▁subtypering	-7751
geassocieerde	-7752
▁neusbijholte	-7753
▁prepylorisch	-7754
▁spermatozoon	-7755
▁voorafgaande	-7756
▁zegelringcel	-7757
▁hypocellulair	-7758
▁intimafibrose	-7759
▁metastatische	-7760
▁significantie	-7761
▁adenocarcinoma	-7762
▁stembandpoliep	-7763
▁vriesmateriaal	-7764
▁familieanamnese	-7765
fl	-7766
ml	-7767
202	-7768
Ala	-7769
CLL	-7770
Cel	-7771
bet	-7772
dak	-7773
hem	-7774
-20:	-7775
RDIA	-7776
inec	-7777
inib	-7778
iren	-7779
kant	-7780
like	-7781
oard	-7782
obul	-7783
ppen	-7784
verh	-7785
▁aug	-7786
▁ben	-7787
▁men	-7788
▁nam	-7789
▁vit	-7790
Lever	-7791
acuum	-7792
allux	-7793
domin	-7794
plaat	-7795
▁0).[	-7796
▁22-1	-7797
▁Fuhr	-7798
▁beel	-7799
▁corp	-7800
▁dyst	-7801
▁zelf	-7802
liniek	-7803
mentum	-7804
orient	-7805
staart	-7806
streek	-7807
vinger	-7808
▁bestr	-7809
▁methy	-7810
▁necro	-7811
▁plana	-7812
▁probe	-7813
Ingroei	-7814
complex	-7815
emateus	-7816
geringe	-7817
medicam	-7818
osering	-7819
yndroom	-7820
▁concha	-7821
▁contra	-7822
▁hallux	-7823
▁suppur	-7824
▁vervet	-7825
Duodenum	-7826
omatosis	-7827
onderrug	-7828
otypisch	-7829
vormende	-7830
▁dijbeen	-7831
▁epithel	-7832
▁hilaire	-7833
▁verwant	-7834
bevinding	-7835
rosarcoom	-7836
▁begeleid	-7837
▁centrifu	-7838
▁cholangi	-7839
▁ijzerdep	-7840
▁mucokele	-7841
▁neusbrug	-7842
▁onzekere	-7843
▁verbreed	-7844
deposities	-7845
ethylation	-7846
ethylering	-7847
oppervlakk	-7848
rospinalis	-7849
▁(*******)	-7850
▁cervicale	-7851
▁immunocyt	-7852
▁tongbasis	-7853
▁verruceus	-7854
rechterwang	-7855
▁bevestigen	-7856
▁discordant	-7857
▁excoriatie	-7858
▁vaatlaesie	-7859
▁Beentumoren	-7860
▁conjunctiva	-7861
▁cystoscopie	-7862
▁dieptegroei	-7863
▁mastocytose	-7864
▁monoklonale	-7865
▁mycobacteri	-7866
▁uitgebluste	-7867
▁lymfoompanel	-7868
▁mammabiopten	-7869
▁seborrhoische	-7870
▁vasculopathie	-7871
▁galsteenlijden	-7872
▁cerebrospinalis	-7873
▁rectumcarcinoom	-7874
An	-7875
]*	-7876
0.[	-7877
IDI	-7878
aut	-7879
det	-7880
eil	-7881
eps	-7882
ish	-7883
por	-7884
soc	-7885
sup	-7886
urt	-7887
▁cy	-7888
▁ol	-7889
-001	-7890
imer	-7891
inea	-7892
ober	-7893
omed	-7894
omon	-7895
oude	-7896
ozyg	-7897
pols	-7898
raum	-7899
▁dur	-7900
▁fix	-7901
▁hog	-7902
▁pgv	-7903
aceus	-7904
casus	-7905
fusie	-7906
ircum	-7907
isier	-7908
komst	-7909
menop	-7910
nodus	-7911
oesof	-7912
oging	-7913
reden	-7914
▁Hart	-7915
▁naad	-7916
Cervix	-7917
aanget	-7918
atient	-7919
erdere	-7920
focaal	-7921
iculus	-7922
oideum	-7923
ollete	-7924
ostose	-7925
promot	-7926
reigde	-7927
stroma	-7928
ulares	-7929
▁Fibro	-7930
▁alles	-7931
▁bursa	-7932
▁inact	-7933
▁intro	-7934
▁lumen	-7935
▁meden	-7936
▁parap	-7937
▁wijst	-7938
erifeer	-7939
geblokt	-7940
ochemie	-7941
ogenese	-7942
osigmoA	-7943
rothese	-7944
▁Coecum	-7945
▁erytro	-7946
▁glioom	-7947
▁intram	-7948
▁multin	-7949
▁residu	-7950
▁subser	-7951
▁vezels	-7952
esionaal	-7953
ndiceerd	-7954
ongorood	-7955
rieterig	-7956
▁beelden	-7957
▁cytogen	-7958
▁oktober	-7959
▁scabies	-7960
amputatie	-7961
apsulaire	-7962
asternaal	-7963
klinische	-7964
okleuring	-7965
scapulair	-7966
▁Abortusc	-7967
▁februari	-7968
▁gevallen	-7969
▁namelijk	-7970
▁neusgang	-7971
▁polymorf	-7972
▁trigonum	-7973
▁verhoogd	-7974
▁Commissie	-7975
▁Genetisch	-7976
▁Hiernaast	-7977
▁anusbiopt	-7978
▁bedreigde	-7979
▁blastaire	-7980
▁deciduaal	-7981
▁endometro	-7982
▁fusietran	-7983
▁onderpool	-7984
▁plasmacyt	-7985
Localisatie	-7986
▁bijkomende	-7987
▁centimeter	-7988
▁embryonaal	-7989
▁fibrotisch	-7990
▁onvolledig	-7991
gerelateerde	-7992
▁centrifugum	-7993
▁interstitiA	-7994
▁traumatisch	-7995
▁gedeeltelijk	-7996
▁hidrocystoom	-7997
▁sclerodermie	-7998
▁maagcarcinoom	-7999
▁papillomatose	-8000
▁poliepexcisie	-8001
▁hematopoetisch	-8002
▁macrometastase	-8003
▁schouderbladen	-8004
epitheliomateuze	-8005
▁pseudomelanosis	-8006
AC	-8007
ii	-8008
Aan	-8009
bda	-8010
bew	-8011
ian	-8012
ody	-8013
uad	-8014
appa	-8015
domy	-8016
eikt	-8017
iene	-8018
inds	-8019
vill	-8020
zaam	-8021
▁Ext	-8022
▁HLA	-8023
▁Ile	-8024
▁don	-8025
▁kop	-8026
20-10	-8027
]12-1	-8028
breng	-8029
hemat	-8030
icans	-8031
inige	-8032
ittek	-8033
olent	-8034
olume	-8035
ustus	-8036
▁2020	-8037
▁data	-8038
▁luid	-8039
▁sigm	-8040
▁tijd	-8041
▁vest	-8042
chrift	-8043
ediast	-8044
ergens	-8045
schors	-8046
▁allen	-8047
▁basos	-8048
▁oment	-8049
▁vroeg	-8050
brengst	-8051
ellicht	-8052
eringen	-8053
omastie	-8054
stadium	-8055
stolsel	-8056
▁anemie	-8057
▁fascie	-8058
▁herpes	-8059
▁herpet	-8060
▁hydrop	-8061
▁intact	-8062
▁lymfop	-8063
▁velden	-8064
corneale	-8065
genoemde	-8066
iotische	-8067
olymfoom	-8068
onderlip	-8069
placenta	-8070
rosporum	-8071
▁alienum	-8072
▁angulus	-8073
▁avitale	-8074
▁details	-8075
▁eccrien	-8076
▁element	-8077
▁gescand	-8078
▁uiterst	-8079
▁weinige	-8080
indicatie	-8081
onderbuik	-8082
oscopisch	-8083
▁adenosis	-8084
▁apocrien	-8085
▁bulleuze	-8086
▁cardiomy	-8087
▁december	-8088
▁fenotype	-8089
▁glabella	-8090
▁minstens	-8091
▁toxische	-8092
▁verbrede	-8093
▁verdikte	-8094
generatief	-8095
ngewijzigd	-8096
▁aortaklep	-8097
▁carcinoid	-8098
▁clearcell	-8099
▁elastosis	-8100
▁markering	-8101
▁opmerking	-8102
▁patholoog	-8103
▁waarnaast	-8104
Endometrium	-8105
▁Actinische	-8106
▁Blaasbiopt	-8107
▁aangewezen	-8108
▁anterieure	-8109
▁hechtdraad	-8110
▁indefinite	-8111
▁kapseldoor	-8112
▁kratervorm	-8113
▁lobectomie	-8114
▁myelopoese	-8115
▁odontogene	-8116
▁osteochond	-8117
deringsgroep	-8118
verschuiving	-8119
▁claviculair	-8120
▁gebiopteerd	-8121
▁geisoleerde	-8122
▁irregulaire	-8123
▁myocarditis	-8124
▁rechterlies	-8125
▁rectosigmoA	-8126
▁schildwacht	-8127
▁sleutelbeen	-8128
antwoordelijk	-8129
esofagusbiopt	-8130
▁doorsnijding	-8131
▁romphuidtype	-8132
▁Histologische	-8133
▁herpetiformis	-8134
▁instabiliteit	-8135
▁radiologische	-8136
▁oorspronkelijk	-8137
▁adnexextirpatie	-8138
▁fusietranscript	-8139
▁littekenreactie	-8140
▁microorganismen	-8141
(1	-8142
BI	-8143
Be	-8144
nl	-8145
IGD	-8146
Rec	-8147
auz	-8148
flr	-8149
gde	-8150
hom	-8151
ilt	-8152
koa	-8153
non	-8154
-000	-8155
Daar	-8156
ERDE	-8157
HERA	-8158
Hist	-8159
iard	-8160
iehl	-8161
ling	-8162
omuc	-8163
omyx	-8164
orse	-8165
post	-8166
sens	-8167
ulde	-8168
utum	-8169
▁10,	-8170
▁car	-8171
▁tbv	-8172
▁vat	-8173
20-01	-8174
ecrot	-8175
hesie	-8176
ilich	-8177
lobul	-8178
oraal	-8179
reter	-8180
volve	-8181
▁ecto	-8182
▁form	-8183
▁gall	-8184
andard	-8185
arcoma	-8186
artoom	-8187
axilla	-8188
eelsen	-8189
istale	-8190
kernen	-8191
▁Extra	-8192
▁domin	-8193
▁geret	-8194
▁index	-8195
▁supra	-8196
eptorst	-8197
erappor	-8198
iceerde	-8199
ingroei	-8200
ogranul	-8201
▁Aangev	-8202
▁Grover	-8203
▁mammae	-8204
▁solair	-8205
▁trombi	-8206
▁tuberc	-8207
adenitis	-8208
adnexale	-8209
eratosis	-8210
onecrose	-8211
poliepje	-8212
reputium	-8213
soriasis	-8214
▁geduide	-8215
▁groepje	-8216
▁lichaam	-8217
▁organen	-8218
▁uterina	-8219
iardiasis	-8220
oblastoom	-8221
okeratose	-8222
oorspronk	-8223
▁fractuur	-8224
▁gestuurd	-8225
▁inferior	-8226
▁kleinste	-8227
▁operatie	-8228
icroscopie	-8229
▁Ingeblokt	-8230
▁amputatie	-8231
▁lichenoid	-8232
▁maagbiopt	-8233
▁myopathie	-8234
▁neoplasma	-8235
▁terminaal	-8236
▁transuret	-8237
beoordeling	-8238
eptorstatus	-8239
neusvleugel	-8240
otidectomie	-8241
▁herkenbare	-8242
▁organismen	-8243
▁reumatoide	-8244
▁verrichten	-8245
▁verwachten	-8246
aanwezigheid	-8247
▁Actinomyces	-8248
▁aansnijding	-8249
▁ductectasie	-8250
▁oncocytaire	-8251
▁parasitaire	-8252
▁urotheelcel	-8253
Invasiediepte	-8254
igmoidbiopten	-8255
▁dermoidcyste	-8256
▁gecombineerd	-8257
▁hidradenitis	-8258
▁gemetastaseerd	-8259
▁celproliferatie	-8260
▁cholesterolosis	-8261
▁littekenachtige	-8262
▁lymfadenopathie	-8263
▁naevocellulares	-8264
20,	-8265
His	-8266
dys	-8267
eem	-8268
oca	-8269
odu	-8270
pen	-8271
ruk	-8272
▁FL	-8273
▁Gl	-8274
2).[	-8275
ARCB	-8276
LIER	-8277
able	-8278
ourn	-8279
rikt	-8280
teel	-8281
▁(0,	-8282
▁CDH	-8283
▁mig	-8284
▁oss	-8285
▁spl	-8286
▁tag	-8287
22-01	-8288
arges	-8289
ender	-8290
index	-8291
omale	-8292
otica	-8293
umber	-8294
▁Epid	-8295
▁Hals	-8296
▁Laag	-8297
▁alve	-8298
▁juli	-8299
▁ligt	-8300
▁snel	-8301
▁wild	-8302
auzaal	-8303
meting	-8304
opisch	-8305
resten	-8306
weging	-8307
▁april	-8308
▁geden	-8309
▁infra	-8310
▁nemen	-8311
▁parac	-8312
▁plant	-8313
▁sinon	-8314
▁snede	-8315
▁staan	-8316
▁stoma	-8317
arinaal	-8318
eratuur	-8319
esneden	-8320
estatie	-8321
icaties	-8322
normaal	-8323
oglobul	-8324
▁Dermat	-8325
▁gladde	-8326
▁opmerk	-8327
▁rondes	-8328
▁ruimer	-8329
▁uitlop	-8330
.*******	-8331
aminatie	-8332
epigment	-8333
ourneerd	-8334
▁gallige	-8335
▁inziens	-8336
▁mediane	-8337
▁necrobi	-8338
▁special	-8339
▁stukjes	-8340
Daarnaast	-8341
]*******,	-8342
satelliet	-8343
▁gewricht	-8344
▁inzender	-8345
▁sebaceus	-8346
▁verloren	-8347
beginnende	-8348
borderline	-8349
hooggradig	-8350
ierbiopsie	-8351
metastasen	-8352
opatholoog	-8353
snijranden	-8354
▁ejaculaat	-8355
▁evaluatie	-8356
▁relevante	-8357
▁sprietige	-8358
olipectomie	-8359
rotocollair	-8360
▁aggregaten	-8361
▁cardiatype	-8362
▁colonbiopt	-8363
▁obstructie	-8364
▁pigmentosa	-8365
▁sigmoideum	-8366
▁sneeranden	-8367
▁vestibulum	-8368
▁vulvabiopt	-8369
▁zogenaamde	-8370
Cytologische	-8371
folliculitis	-8372
▁Beoordeling	-8373
▁membraneuze	-8374
▁methylering	-8375
▁placentaire	-8376
▁predictieve	-8377
▁resistentie	-8378
invasiediepte	-8379
transplantaat	-8380
▁Bovenstaande	-8381
▁Incisiebiopt	-8382
▁Leverbiopten	-8383
▁darmresectie	-8384
▁dermatologie	-8385
▁haardvormige	-8386
▁huidsnijvlak	-8387
▁idiopathisch	-8388
oorspronkelijk	-8389
▁Endocervicaal	-8390
▁detecteerbaar	-8391
▁geretourneerd	-8392
▁gynaecomastie	-8393
▁pilomatrixoom	-8394
▁gelocaliseerde	-8395
▁karakteristiek	-8396
▁lymfklierbiopt	-8397
▁spermatogenese	-8398
Am	-8399
DR	-8400
lb	-8401
1)[	-8402
aso	-8403
lum	-8404
▁Ca	-8405
▁mn	-8406
▁ra	-8407
▁tw	-8408
.201	-8409
0000	-8410
10):	-8411
aast	-8412
erus	-8413
gist	-8414
laas	-8415
stij	-8416
umab	-8417
ynge	-8418
▁ent	-8419
▁jug	-8420
▁nef	-8421
▁pen	-8422
▁plm	-8423
▁weg	-8424
22-00	-8425
circa	-8426
falen	-8427
hyfen	-8428
ichen	-8429
ieuze	-8430
traum	-8431
verru	-8432
▁EBER	-8433
▁naam	-8434
▁wijz	-8435
1-11-1	-8436
acanth	-8437
ammair	-8438
ekenen	-8439
eliale	-8440
iefase	-8441
ndanks	-8442
olater	-8443
▁Casus	-8444
▁nates	-8445
▁pouch	-8446
ethmoid	-8447
oduoden	-8448
oliepje	-8449
▁Arteri	-8450
▁Gering	-8451
▁amyloA	-8452
▁fecaal	-8453
▁helaas	-8454
▁hemith	-8455
▁versus	-8456
▁zwakke	-8457
Bronchus	-8458
areolair	-8459
sclerose	-8460
ubulaire	-8461
▁Beperkt	-8462
▁Fuhrman	-8463
▁Interne	-8464
▁directe	-8465
▁jejunum	-8466
▁jukbeen	-8467
▁systeem	-8468
iteratuur	-8469
ogeniteit	-8470
ventrikel	-8471
volvement	-8472
▁alhoewel	-8473
▁blaasdak	-8474
▁bloedvat	-8475
▁exostose	-8476
▁nagenoeg	-8477
▁sprieten	-8478
▁tekening	-8479
▁typische	-8480
bronchiale	-8481
kleuringen	-8482
oesophagus	-8483
▁Aangezien	-8484
▁huidstans	-8485
▁naevuscel	-8486
▁ontbreekt	-8487
▁uitslagen	-8488
▁verklaard	-8489
eosinofiele	-8490
fragmentjes	-8491
hypertrofie	-8492
menopauzaal	-8493
schikkingen	-8494
▁anderszins	-8495
▁bilaterale	-8496
▁restlaesie	-8497
▁rondkernig	-8498
▁submammair	-8499
oliepexcisie	-8500
▁horizontale	-8501
▁losliggende	-8502
▁monoclonale	-8503
▁periportale	-8504
cellulariteit	-8505
▁bloedverlies	-8506
▁contaminatie	-8507
▁gebiopteerde	-8508
▁klierstation	-8509
▁overliggende	-8510
▁secretiefase	-8511
▁gecombineerde	-8512
▁gemengdcellig	-8513
▁longparenchym	-8514
▁peroperatieve	-8515
▁chondrosarcoom	-8516
▁immunofenotype	-8517
▁klierparenchym	-8518
▁lymfoplasmacyt	-8519
IF	-8520
ACR	-8521
BRE	-8522
]02	-8523
]1:	-8524
cad	-8525
cho	-8526
opy	-8527
oud	-8528
vir	-8529
▁--	-8530
▁CA	-8531
▁ty	-8532
▁yp	-8533
-011	-8534
blok	-8535
coli	-8536
icat	-8537
mdat	-8538
olom	-8539
orte	-8540
pura	-8541
romp	-8542
roof	-8543
sbew	-8544
slab	-8545
xcid	-8546
▁(1-	-8547
▁10:	-8548
▁CEA	-8549
▁GEI	-8550
▁dun	-8551
▁myo	-8552
▁obv	-8553
▁tgv	-8554
▁zsm	-8555
▁zyg	-8556
1-201	-8557
21-01	-8558
]02-1	-8559
aking	-8560
aries	-8561
edebe	-8562
erans	-8563
gnost	-8564
ineus	-8565
ipoom	-8566
oduli	-8567
terie	-8568
ulent	-8569
zover	-8570
▁1-2.	-8571
▁2022	-8572
▁drug	-8573
▁myof	-8574
bekled	-8575
cervix	-8576
ergill	-8577
formul	-8578
infarc	-8579
nzeker	-8580
osider	-8581
preken	-8582
sporen	-8583
▁anale	-8584
▁clone	-8585
▁geimp	-8586
▁glaas	-8587
▁luidt	-8588
▁ogend	-8589
▁tyros	-8590
▁vezel	-8591
ancreas	-8592
fibrose	-8593
geleide	-8594
omatosa	-8595
origine	-8596
orrelia	-8597
ringing	-8598
urettag	-8599
wendige	-8600
▁Granul	-8601
▁motiel	-8602
▁oudere	-8603
▁schuim	-8604
ibraries	-8605
omenteel	-8606
▁Reikend	-8607
▁midline	-8608
▁oorrand	-8609
▁overall	-8610
▁valvula	-8611
▁vesikel	-8612
Besproken	-8613
cellipoom	-8614
ditionele	-8615
sbewaking	-8616
verdeling	-8617
▁Douglasi	-8618
▁antilich	-8619
▁augustus	-8620
▁chemorad	-8621
▁genetica	-8622
▁herhaald	-8623
▁intermed	-8624
▁seminoom	-8625
▁solitair	-8626
▁spoelsel	-8627
▁superior	-8628
Definitief	-8629
epidermaal	-8630
▁Anusbiopt	-8631
▁hoornlaag	-8632
▁introitus	-8633
▁leverkwab	-8634
huidexcisie	-8635
verhoornend	-8636
▁Aangevulde	-8637
▁inhibitors	-8638
▁irritatief	-8639
▁strekzijde	-8640
amplificatie	-8641
doorgemaakte	-8642
ppendectomie	-8643
▁Longbiopten	-8644
▁Lymfklieren	-8645
▁Lymfocytose	-8646
▁aangeleverd	-8647
▁aangesneden	-8648
▁diabetische	-8649
▁invaginatie	-8650
▁linkerflank	-8651
▁mastectomie	-8652
▁oppervlakte	-8653
▁respiratoir	-8654
▁tangentiele	-8655
eefselexcisie	-8656
slaboratorium	-8657
▁bloedstolsel	-8658
▁ijzerpigment	-8659
▁parasternaal	-8660
▁vastgestelde	-8661
▁xanthogranul	-8662
▁infarceringen	-8663
▁interpreteren	-8664
▁neoplastische	-8665
▁pseudolymfoom	-8666
Graderingsgroep	-8667
▁mondslijmvlies	-8668
verantwoordelijk	-8669
▁intraepidermale	-8670
▁medebeoordeling	-8671
▁mesotheelcellen	-8672
0:	-8673
kl	-8674
ph	-8675
to	-8676
-2)	-8677
0).	-8678
Fre	-8679
]12	-8680
anu	-8681
cot	-8682
emt	-8683
rem	-8684
upu	-8685
▁DL	-8686
▁IA	-8687
abed	-8688
cave	-8689
hans	-8690
ight	-8691
krap	-8692
olus	-8693
tief	-8694
uaal	-8695
▁11,	-8696
▁Bet	-8697
▁CIC	-8698
▁Hir	-8699
▁Lok	-8700
▁cas	-8701
▁var	-8702
20-00	-8703
Cover	-8704
atige	-8705
enzij	-8706
estis	-8707
fibro	-8708
iated	-8709
ichte	-8710
iemsa	-8711
lacht	-8712
lagen	-8713
mmers	-8714
oneus	-8715
onsil	-8716
oorde	-8717
upuyt	-8718
usion	-8719
▁band	-8720
▁dent	-8721
1-12-1	-8722
achtig	-8723
cardia	-8724
ietaal	-8725
necrot	-8726
riceps	-8727
rictie	-8728
ullair	-8729
zoeken	-8730
▁Board	-8731
▁Links	-8732
▁antib	-8733
▁class	-8734
▁crani	-8735
▁driet	-8736
▁eigen	-8737
▁kapje	-8738
▁macro	-8739
▁peric	-8740
▁staaf	-8741
▁stans	-8742
-11-202	-8743
distale	-8744
eratine	-8745
ericard	-8746
rombose	-8747
▁Hirsch	-8748
▁atroph	-8749
▁beiden	-8750
▁beslag	-8751
▁contin	-8752
▁custom	-8753
▁ducten	-8754
▁fusies	-8755
▁gemeld	-8756
▁hierop	-8757
▁kapjes	-8758
▁kinase	-8759
▁nieren	-8760
▁schaam	-8761
▁sporen	-8762
▁sturen	-8763
▁suprac	-8764
▁vastus	-8765
▁vorige	-8766
Coverage	-8767
Radicaal	-8768
abiopsie	-8769
blastoma	-8770
esionale	-8771
oblasten	-8772
ofytisch	-8773
preteerd	-8774
ropoiese	-8775
sentinel	-8776
sociatie	-8777
spoelsel	-8778
stoornis	-8779
upuytren	-8780
▁Celarme	-8781
▁Distale	-8782
▁clonaal	-8783
▁hypoxie	-8784
▁ileitis	-8785
▁massaal	-8786
▁mindere	-8787
▁ongesch	-8788
▁osteomy	-8789
▁signaal	-8790
bekleding	-8791
huidbiopt	-8792
hypertrof	-8793
oadenitis	-8794
stapeling	-8795
uadriceps	-8796
▁biologie	-8797
▁bronchop	-8798
▁deleties	-8799
▁erfelijk	-8800
▁maagfund	-8801
▁partieel	-8802
▁pyoderma	-8803
▁separate	-8804
▁thyreoid	-8805
▁vaatwand	-8806
▁wellicht	-8807
aparenchym	-8808
artefacten	-8809
evindingen	-8810
isieranden	-8811
otemporaal	-8812
▁(*******:	-8813
▁bespreken	-8814
▁foveolair	-8815
▁gesteelde	-8816
▁hoogstens	-8817
▁imponeert	-8818
▁insnijden	-8819
▁interfase	-8820
▁lateralis	-8821
▁libraries	-8822
▁longbiopt	-8823
▁medicatie	-8824
▁melanosis	-8825
▁parietale	-8826
▁relatieve	-8827
▁verslagen	-8828
▁vervallen	-8829
Lymfklieren	-8830
▁Gewijzigde	-8831
▁colectomie	-8832
▁cystevocht	-8833
▁incomplete	-8834
▁ligamentum	-8835
▁nasofarynx	-8836
▁receptoren	-8837
▁verbreding	-8838
▁verkalking	-8839
ammapunctaat	-8840
schouderblad	-8841
▁Dieptegroei	-8842
▁discontinue	-8843
▁echogeleide	-8844
▁gedenudeerd	-8845
▁linkerslaap	-8846
▁monoclonaal	-8847
▁pancreatico	-8848
▁polyclonale	-8849
▁spoelcellig	-8850
▁stoornissen	-8851
▁verdringing	-8852
▁Cervixpoliep	-8853
▁Huidfragment	-8854
▁degeneratief	-8855
▁mammapunctie	-8856
▁mesenchymaal	-8857
▁ontwikkeling	-8858
▁rechteroksel	-8859
▁Bronchusbiopt	-8860
▁osteomyelitis	-8861
edifferentieerd	-8862
▁angioinvasieve	-8863
▁immunokleuring	-8864
▁osteochondroom	-8865
▁stromaceltumor	-8866
▁vaatstructuren	-8867
ranulatieweefsel	-8868
▁linkerbovenkwab	-8869
▁pseudodeciduale	-8870
▁representatieve	-8871
Al	-8872
ED	-8873
eI	-8874
iz	-8875
11,	-8876
21)	-8877
bot	-8878
cep	-8879
ese	-8880
hyp	-8881
ilf	-8882
jsm	-8883
ldb	-8884
lux	-8885
nco	-8886
pat	-8887
raa	-8888
spr	-8889
▁GI	-8890
▁sm	-8891
-21)	-8892
assa	-8893
cess	-8894
cian	-8895
curr	-8896
dose	-8897
iciA	-8898
mber	-8899
mine	-8900
ocus	-8901
opii	-8902
path	-8903
sner	-8904
▁11-	-8905
▁bem	-8906
▁mam	-8907
▁red	-8908
erken	-8909
evorm	-8910
ieren	-8911
iling	-8912
kolom	-8913
ocyst	-8914
roren	-8915
unica	-8916
▁Cyst	-8917
▁Disc	-8918
▁casu	-8919
▁dood	-8920
▁glom	-8921
▁glyc	-8922
▁like	-8923
▁meso	-8924
▁morp	-8925
▁nove	-8926
▁prog	-8927
▁vele	-8928
0-01-1	-8929
globul	-8930
ineuze	-8931
laimer	-8932
ologen	-8933
ormoon	-8934
▁durum	-8935
▁fotos	-8936
▁lepid	-8937
▁schat	-8938
▁zicht	-8939
details	-8940
eilitis	-8941
infiltr	-8942
klieren	-8943
middels	-8944
traject	-8945
villeus	-8946
wachten	-8947
▁Afwijk	-8948
▁Lichen	-8949
▁beloop	-8950
▁chemie	-8951
▁hyperm	-8952
▁nodule	-8953
▁overla	-8954
▁portio	-8955
▁thymus	-8956
▁zygoma	-8957
*******[	-8958
effecten	-8959
gevoerde	-8960
keratine	-8961
minimale	-8962
ucocyten	-8963
xcideerd	-8964
▁Arteria	-8965
▁Incisie	-8966
▁cholest	-8967
▁desmoid	-8968
▁dystrof	-8969
▁erosief	-8970
▁gegener	-8971
▁purpura	-8972
blastaire	-8973
havebiopt	-8974
obectomie	-8975
proximaal	-8976
reexcisie	-8977
reparaten	-8978
terminale	-8979
verteerde	-8980
▁alopecie	-8981
▁entiteit	-8982
▁gerappor	-8983
▁haardjes	-8984
▁homogeen	-8985
▁metastas	-8986
▁november	-8987
▁omgevend	-8988
▁promoter	-8989
▁voetrand	-8990
▁wildtype	-8991
iologische	-8992
ircumcisie	-8993
▁Atypische	-8994
▁decollete	-8995
▁hamartoom	-8996
▁lithiasis	-8997
▁september	-8998
bevindingen	-8999
degeneratie	-9000
interstitiA	-9001
laviculaire	-9002
ocellularis	-9003
▁Extirpatie	-9004
▁contactall	-9005
▁focusscore	-9006
▁ingestuurd	-9007
▁literatuur	-9008
▁verstoorde	-9009
▁voorgaande	-9010
▁zaadcellen	-9011
rectosigmoid	-9012
superficieel	-9013
▁colorectale	-9014
▁gangreneuze	-9015
▁hydropische	-9016
▁linkeroksel	-9017
▁melanofagen	-9018
▁sarcomatoid	-9019
▁apoptotische	-9020
▁Hysterectomie	-9021
▁comedonecrose	-9022
▁kratervormige	-9023
▁schimmelhyfen	-9024
▁sialoadenitis	-9025
▁teruggevonden	-9026
▁hechtmateriaal	-9027
▁macroscopische	-9028
▁megakaryopoese	-9029
▁spoelcellipoom	-9030
▁subepitheliaal	-9031
▁plaveiselcellen	-9032
▁plaveiselcellig	-9033
LG	-9034
pr	-9035
.22	-9036
ECI	-9037
clu	-9038
eck	-9039
nas	-9040
net	-9041
▁FB	-9042
▁Ha	-9043
▁bp	-9044
▁um	-9045
▁ww	-9046
-22:	-9047
alib	-9048
ariA	-9049
emia	-9050
erve	-9051
goed	-9052
ices	-9053
imab	-9054
mail	-9055
odig	-9056
udio	-9057
vaat	-9058
werk	-9059
zion	-9060
▁1),	-9061
▁11:	-9062
▁Bcl	-9063
▁Ect	-9064
▁Ged	-9065
▁ond	-9066
Immun	-9067
arran	-9068
ctive	-9069
eurys	-9070
omata	-9071
tegen	-9072
uncus	-9073
uptie	-9074
▁2021	-9075
▁Bijn	-9076
▁ante	-9077
▁derg	-9078
▁epig	-9079
▁extr	-9080
▁kort	-9081
▁pect	-9082
1-01-1	-9083
chatte	-9084
ekkage	-9085
essner	-9086
gement	-9087
hoogte	-9088
inosis	-9089
iteind	-9090
olgens	-9091
opulat	-9092
rimair	-9093
schade	-9094
sprung	-9095
undels	-9096
verage	-9097
zonden	-9098
▁DLBCL	-9099
▁Forse	-9100
▁array	-9101
▁komen	-9102
▁labia	-9103
▁strip	-9104
▁techn	-9105
▁wenst	-9106
▁witte	-9107
allopii	-9108
arkeerd	-9109
aterale	-9110
estudio	-9111
heliale	-9112
temband	-9113
ustumor	-9114
utaties	-9115
verslag	-9116
▁bijeen	-9117
▁digiti	-9118
▁macula	-9119
▁multip	-9120
▁orient	-9121
▁partiA	-9122
▁pustel	-9123
beenmerg	-9124
elleboog	-9125
erspreid	-9126
ucleatie	-9127
▁Abortus	-9128
▁achtige	-9129
▁blijven	-9130
▁ethmoid	-9131
▁humerus	-9132
▁migrans	-9133
▁ondanks	-9134
▁polycyt	-9135
▁present	-9136
▁vervolg	-9137
annelijke	-9138
granuloom	-9139
opulaties	-9140
pierbiopt	-9141
tubulaire	-9142
▁Borrelia	-9143
▁Centraal	-9144
▁Invasief	-9145
▁anamnese	-9146
▁cardiale	-9147
▁gedeelte	-9148
▁indolent	-9149
▁somscore	-9150
▁tongpunt	-9151
▁tyrosine	-9152
▁verheven	-9153
pretibiaal	-9154
roscopisch	-9155
▁Congorood	-9156
▁Dupuytren	-9157
▁dergelijk	-9158
▁dysmorfie	-9159
▁emfysemat	-9160
▁funiculus	-9161
▁hyalinose	-9162
▁ingeblokt	-9163
▁structuur	-9164
▁voorgrond	-9165
amniotische	-9166
arrangement	-9167
gemedieerde	-9168
ityrosporum	-9169
oesofageale	-9170
uitbreiding	-9171
▁(*******).	-9172
▁Genestudio	-9173
▁Goedaardig	-9174
▁autoimmuun	-9175
▁bemoeilijk	-9176
▁dergelijke	-9177
▁incompleet	-9178
▁losliggend	-9179
▁ongeschikt	-9180
domyosarcoom	-9181
etiginiseerd	-9182
geirriteerde	-9183
icroscopisch	-9184
▁diepreikend	-9185
▁endometroid	-9186
▁gangrenosum	-9187
▁onderzoeken	-9188
▁rechterknie	-9189
▁steenlijden	-9190
▁wervelkolom	-9191
▁Hirschsprung	-9192
▁endometriaal	-9193
▁excochleatie	-9194
▁ischaemische	-9195
▁mesotheliale	-9196
▁methylerings	-9197
▁thyreoiditis	-9198
▁carcinomatosa	-9199
▁dermatofibros	-9200
▁eerstvolgende	-9201
▁hoofdzakelijk	-9202
▁papillomateus	-9203
▁protocollaire	-9204
▁anusslijmvlies	-9205
▁gelokaliseerde	-9206
▁interscapulair	-9207
▁intracavitaire	-9208
▁myocardinfarct	-9209
▁neuroendocrien	-9210
lymfklierexcisie	-9211
▁Ileumslijmvlies	-9212
▁huidsnijvlakken	-9213
cd	-9214
dm	-9215
nr	-9216
-1)	-9217
10.	-9218
RCE	-9219
akk	-9220
hof	-9221
hvd	-9222
itm	-9223
ius	-9224
sle	-9225
toe	-9226
▁01	-9227
▁AF	-9228
▁Ec	-9229
▁ox	-9230
2022	-9231
ages	-9232
cott	-9233
etab	-9234
ieze	-9235
iter	-9236
krab	-9237
naad	-9238
nair	-9239
orie	-9240
rang	-9241
rokk	-9242
vasc	-9243
▁bif	-9244
▁cry	-9245
▁mbv	-9246
▁mee	-9247
▁mei	-9248
▁pas	-9249
▁www	-9250
0-201	-9251
21-00	-9252
Bowen	-9253
angen	-9254
ermin	-9255
ileum	-9256
lijke	-9257
olemm	-9258
ompre	-9259
putum	-9260
space	-9261
▁aber	-9262
▁janu	-9263
▁neot	-9264
▁nest	-9265
▁rood	-9266
▁stim	-9267
LEERDE	-9268
RCELLE	-9269
alping	-9270
ertoli	-9271
etting	-9272
helder	-9273
koepel	-9274
oedeem	-9275
openie	-9276
oriale	-9277
oscler	-9278
sensus	-9279
▁Bench	-9280
▁Level	-9281
▁penet	-9282
▁phyll	-9283
▁splij	-9284
▁zware	-9285
-2020.[	-9286
alazion	-9287
geleken	-9288
herapie	-9289
hotspot	-9290
membran	-9291
opcodon	-9292
remmers	-9293
ronisch	-9294
uberans	-9295
voorlip	-9296
▁Genome	-9297
▁Giemsa	-9298
▁Intern	-9299
▁Larynx	-9300
▁Linker	-9301
▁gecomp	-9302
▁gestuw	-9303
▁merend	-9304
▁microp	-9305
▁second	-9306
amillair	-9307
apsulair	-9308
etabulum	-9309
hechting	-9310
itstrijk	-9311
melanoom	-9312
ventraal	-9313
▁Actieve	-9314
▁Epiderm	-9315
▁adenoma	-9316
▁aneurys	-9317
▁buisjes	-9318
▁evenwel	-9319
▁januari	-9320
▁omgeven	-9321
▁paramet	-9322
▁traumat	-9323
▁verdwij	-9324
▁waarden	-9325
asectomie	-9326
iradenoom	-9327
ofytische	-9328
opathisch	-9329
othelioom	-9330
tadiering	-9331
▁Beperkte	-9332
▁Celbeeld	-9333
▁diabetes	-9334
▁membraan	-9335
▁myofibro	-9336
▁papulose	-9337
aanvullend	-9338
achterwand	-9339
▁Brunnerse	-9340
▁aanvrager	-9341
▁afwachten	-9342
▁cheilitis	-9343
▁fasciitis	-9344
▁fibroaden	-9345
▁linkeroog	-9346
▁middelste	-9347
▁mondholte	-9348
▁patienten	-9349
▁stapeling	-9350
▁syringoom	-9351
▁transitie	-9352
▁zichtbaar	-9353
ammaweefsel	-9354
grootcellig	-9355
intestinaal	-9356
ohsresectie	-9357
▁Disclaimer	-9358
▁Fragmenten	-9359
▁abdominale	-9360
▁associatie	-9361
▁irregulair	-9362
▁linkerlies	-9363
Bovenstaande	-9364
bijvoorbeeld	-9365
▁antrumbiopt	-9366
▁bijeenkomst	-9367
▁doorgegeven	-9368
▁gynaecoloog	-9369
▁linkerborst	-9370
▁longbiopten	-9371
▁lymfangiect	-9372
▁micronoduli	-9373
▁talgklieren	-9374
▁zenuwvezels	-9375
▁Leverbiopsie	-9376
▁Longspoeling	-9377
▁angiosarcoom	-9378
▁begeleidende	-9379
▁circumscript	-9380
▁lymfomatoide	-9381
▁rechterflank	-9382
▁tumorexcisie	-9383
▁zenuwweefsel	-9384
▁bodemsnijvlak	-9385
▁chemoradiatie	-9386
▁epitheelcyste	-9387
▁helicobacters	-9388
▁intramucosaal	-9389
ingsstoornissen	-9390
▁Excisiebiopsie	-9391
▁condylomateuze	-9392
▁erythrocyturie	-9393
▁tumorcelkernen	-9394
laveiselepitheel	-9395
receptorbepaling	-9396
▁adenomyomateuze	-9397
▁gecauteriseerde	-9398
▁kapseldoorbraak	-9399
▁linkeronderkwab	-9400
▁postmenopauzaal	-9401
EE	-9402
HI	-9403
cy	-9404
10-	-9405
ABL	-9406
bit	-9407
dup	-9408
erw	-9409
fel	-9410
gat	-9411
ips	-9412
ker	-9413
mes	-9414
onc	-9415
rox	-9416
tak	-9417
tes	-9418
yla	-9419
▁IF	-9420
▁lo	-9421
12-1	-9422
DALE	-9423
anim	-9424
atel	-9425
edep	-9426
eest	-9427
mond	-9428
pars	-9429
pier	-9430
prof	-9431
wing	-9432
▁(21	-9433
▁BRI	-9434
▁LCI	-9435
▁web	-9436
Grade	-9437
aboth	-9438
aevus	-9439
bloed	-9440
cieze	-9441
delet	-9442
eiwit	-9443
erste	-9444
gemen	-9445
hilus	-9446
ilair	-9447
iligo	-9448
massa	-9449
olide	-9450
recht	-9451
stein	-9452
vloed	-9453
▁(1),	-9454
▁(201	-9455
▁10-1	-9456
▁2012	-9457
▁Gast	-9458
▁Risk	-9459
▁dens	-9460
▁meen	-9461
▁mons	-9462
▁stam	-9463
BREIDI	-9464
Intern	-9465
custom	-9466
emisch	-9467
glomer	-9468
iffuus	-9469
oralis	-9470
ortons	-9471
osynov	-9472
otomie	-9473
rostat	-9474
weetal	-9475
▁Crist	-9476
▁Diepe	-9477
▁cicat	-9478
▁drain	-9479
▁gecon	-9480
▁grove	-9481
▁korte	-9482
▁lager	-9483
▁major	-9484
▁ongew	-9485
▁parag	-9486
▁pleur	-9487
▁zweet	-9488
Celrijk	-9489
amenvat	-9490
apillar	-9491
ariatie	-9492
astumor	-9493
blasten	-9494
centrum	-9495
contact	-9496
crement	-9497
digitus	-9498
lachten	-9499
rognost	-9500
uramine	-9501
uriteit	-9502
variant	-9503
▁Fusion	-9504
▁Rechts	-9505
▁gaande	-9506
▁gerang	-9507
▁hogere	-9508
▁hyster	-9509
▁plekje	-9510
▁poroom	-9511
▁scopie	-9512
▁steeds	-9513
▁tunica	-9514
Diameter	-9515
centages	-9516
evorming	-9517
iliacaal	-9518
promoter	-9519
subcutis	-9520
zwelling	-9521
▁Besluit	-9522
▁Betreft	-9523
▁Epstein	-9524
▁Rechter	-9525
▁breslow	-9526
▁grenzen	-9527
▁homozyg	-9528
▁kiemcel	-9529
▁slechte	-9530
▁truncus	-9531
▁veldjes	-9532
Dysplasie	-9533
irculatie	-9534
italiteit	-9535
olytische	-9536
otiliteit	-9537
ructurele	-9538
thoracaal	-9539
verkregen	-9540
▁abcessen	-9541
▁biopsien	-9542
▁clusters	-9543
▁coverage	-9544
▁dyskerat	-9545
▁eenderde	-9546
▁geperfor	-9547
▁medische	-9548
▁meenemen	-9549
▁nagelbed	-9550
▁optimale	-9551
▁predomin	-9552
▁sessiele	-9553
▁techniek	-9554
▁vitiligo	-9555
linkerwang	-9556
peritoneum	-9557
rumentatie	-9558
stansbiopt	-9559
unctionele	-9560
▁acuminata	-9561
▁chalazion	-9562
▁erytroide	-9563
▁hiernaast	-9564
▁medenemen	-9565
▁subtotale	-9566
▁synoviale	-9567
▁verlittek	-9568
ammabiopsie	-9569
▁cervicitis	-9570
▁gelijkende	-9571
▁ingevroren	-9572
▁oncocytoom	-9573
▁onderzijde	-9574
▁stimulatie	-9575
▁thermische	-9576
▁tricholemm	-9577
▁vaginawand	-9578
▁vergeleken	-9579
ulairadenoom	-9580
▁(*******).[	-9581
▁Circumcisie	-9582
▁Gemarkeerde	-9583
▁coecumbodem	-9584
▁geserreerde	-9585
▁hepatocyten	-9586
▁posterieure	-9587
▁progesteron	-9588
▁protuberans	-9589
▁subcarinaal	-9590
▁verwijderen	-9591
interpreteerd	-9592
▁breslowdikte	-9593
▁chromosomale	-9594
▁concentratie	-9595
▁geexcideerde	-9596
▁hemorragisch	-9597
▁klierbuisjes	-9598
▁neoterminale	-9599
▁opmerkelijke	-9600
▁porokeratose	-9601
▁protonpompre	-9602
▁samenhangend	-9603
esophagusbiopt	-9604
▁medicamenteus	-9605
▁pigmentlaesie	-9606
Duodenumbiopten	-9607
▁desmoplastisch	-9608
▁ganglioncellen	-9609
▁gecauteriseerd	-9610
▁gemengdcellige	-9611
▁herschikkingen	-9612
▁instrumentatie	-9613
▁tubulusatrofie	-9614
▁Beenmergbiopsie	-9615
▁Hyperplastische	-9616
▁extracapsulaire	-9617
▁hyperkeratotica	-9618
▁incidentiedatum	-9619
▁linkerventrikel	-9620
▁microcirculatie	-9621
:1	-9622
-2,	-9623
2)[	-9624
22,	-9625
Als	-9626
DIE	-9627
ILI	-9628
alv	-9629
bas	-9630
hou	-9631
lor	-9632
was	-9633
▁*:	-9634
▁CR	-9635
▁GB	-9636
▁ko	-9637
arts	-9638
elli	-9639
emur	-9640
etux	-9641
gere	-9642
heum	-9643
high	-9644
host	-9645
hout	-9646
iair	-9647
ical	-9648
ieme	-9649
itum	-9650
myel	-9651
naar	-9652
opor	-9653
tral	-9654
voer	-9655
zend	-9656
▁Bul	-9657
▁Col	-9658
▁Cor	-9659
▁Dub	-9660
▁kit	-9661
▁out	-9662
▁ped	-9663
acuut	-9664
econd	-9665
egens	-9666
etens	-9667
lever	-9668
lioom	-9669
retro	-9670
sluit	-9671
snijd	-9672
ucosa	-9673
uctie	-9674
ulcus	-9675
▁CARD	-9676
▁Drie	-9677
▁Even	-9678
▁bind	-9679
▁host	-9680
▁immu	-9681
▁meeg	-9682
▁vera	-9683
arotis	-9684
binnen	-9685
crasie	-9686
crista	-9687
entigo	-9688
geving	-9689
iddeld	-9690
inders	-9691
leolus	-9692
pansie	-9693
sgraad	-9694
weinig	-9695
wijfel	-9696
▁agens	-9697
▁exant	-9698
▁nucle	-9699
▁reuma	-9700
▁richt	-9701
-01-202	-9702
Biopsie	-9703
ameters	-9704
atheter	-9705
bekende	-9706
dorsaal	-9707
elviene	-9708
erdacht	-9709
flexura	-9710
gemaakt	-9711
hagisch	-9712
ichting	-9713
lisatie	-9714
mammair	-9715
oleiomy	-9716
rotheel	-9717
schacht	-9718
skintag	-9719
uceerde	-9720
ypering	-9721
▁Eczeem	-9722
▁Hersen	-9723
▁Langer	-9724
▁alsnog	-9725
▁benign	-9726
▁elkaar	-9727
▁etmoid	-9728
▁myxoom	-9729
▁overal	-9730
▁reanim	-9731
▁versie	-9732
aginatop	-9733
ergelijk	-9734
ergillus	-9735
etuximab	-9736
iectomie	-9737
innemend	-9738
iopathie	-9739
itumumab	-9740
metingen	-9741
ocytosis	-9742
oplasmat	-9743
therapie	-9744
verander	-9745
▁Bijnier	-9746
▁BowenoA	-9747
▁Externe	-9748
▁Locatie	-9749
▁ablatie	-9750
▁commiss	-9751
▁immunop	-9752
▁lokatie	-9753
▁pijpjes	-9754
▁trachea	-9755
▁uiteind	-9756
cadherine	-9757
cluderend	-9758
conclusie	-9759
oblastair	-9760
olateraal	-9761
rineblaas	-9762
wenkbrauw	-9763
▁antibody	-9764
▁arteriol	-9765
▁geregist	-9766
▁lytische	-9767
▁maagwand	-9768
▁puncties	-9769
▁rechterm	-9770
▁relevant	-9771
▁tepelhof	-9772
▁verdient	-9773
oblastaire	-9774
overwegend	-9775
redictieve	-9776
riescoupes	-9777
snijdingen	-9778
▁Administr	-9779
▁aangevuld	-9780
▁behandeld	-9781
▁biopteren	-9782
▁endotheel	-9783
▁exantheem	-9784
▁georganis	-9785
▁hemosider	-9786
▁indicatie	-9787
▁longembol	-9788
▁malleolus	-9789
▁pleuritis	-9790
▁polypeuze	-9791
▁prominent	-9792
▁substraat	-9793
▁tenosynov	-9794
Cytologisch	-9795
involvement	-9796
nasolabiaal	-9797
oesofagitis	-9798
olliculaire	-9799
▁(*******)[	-9800
▁Cystevocht	-9801
▁Lobectomie	-9802
▁acetabulum	-9803
▁capillaire	-9804
▁fibrinoide	-9805
▁getrombose	-9806
▁infestatie	-9807
▁oedemateus	-9808
▁paraffinec	-9809
▁parietalis	-9810
▁pathologen	-9811
▁pulmonalis	-9812
▁tubectomie	-9813
▁vasectomie	-9814
angioinvasie	-9815
▁afhankelijk	-9816
▁bemoeilijkt	-9817
▁extranodaal	-9818
▁hoofdcarina	-9819
▁inactivatie	-9820
▁structurele	-9821
▁subcorneale	-9822
Beenmergbiopt	-9823
Differentiaal	-9824
rangschikking	-9825
rostatectomie	-9826
▁angiomateuze	-9827
▁ascitesvocht	-9828
▁periadnexale	-9829
▁sclerotische	-9830
▁ziekenhuizen	-9831
ifferentieerde	-9832
linkerschouder	-9833
medicamenteuze	-9834
resectieranden	-9835
▁crustavorming	-9836
▁excisieranden	-9837
▁geinverteerde	-9838
▁intermediaire	-9839
▁ongemarkeerde	-9840
▁transuretrale	-9841
▁weefselstukje	-9842
▁carcinosarcoom	-9843
▁intramusculair	-9844
▁myelodysplasie	-9845
▁*******-*******	-9846
▁Littekenweefsel	-9847
▁epidermoidcyste	-9848
▁geinterpreteerd	-9849
▁maagantrumbiopt	-9850
▁placentavlokken	-9851
▁restmaligniteit	-9852
))	-9853
DC	-9854
IB	-9855
mA	-9856
-1,	-9857
-1:	-9858
002	-9859
Bot	-9860
Gro	-9861
alg	-9862
fra	-9863
lis	-9864
meg	-9865
nap	-9866
osi	-9867
ote	-9868
sac	-9869
uni	-9870
▁).	-9871
▁HI	-9872
▁IG	-9873
▁fe	-9874
▁ps	-9875
▁rh	-9876
-021	-9877
-100	-9878
DGFR	-9879
aalf	-9880
apar	-9881
dige	-9882
epar	-9883
fasc	-9884
ieve	-9885
inde	-9886
legm	-9887
leng	-9888
leur	-9889
opur	-9890
roeb	-9891
rova	-9892
tijd	-9893
visc	-9894
▁Gec	-9895
▁Reg	-9896
▁abn	-9897
▁alb	-9898
▁syn	-9899
▁tov	-9900
-01-2	-9901
Coupe	-9902
alanx	-9903
allen	-9904
eming	-9905
ensie	-9906
epast	-9907
halen	-9908
hecht	-9909
herbe	-9910
iveau	-9911
kappa	-9912
lokte	-9913
oplak	-9914
orton	-9915
otrop	-9916
perif	-9917
plant	-9918
ransc	-9919
semin	-9920
stomp	-9921
uurde	-9922
zoide	-9923
▁2000	-9924
▁Bart	-9925
▁Copy	-9926
▁chor	-9927
▁clit	-9928
▁geel	-9929
▁juni	-9930
▁lues	-9931
▁neer	-9932
▁skin	-9933
▁vulv	-9934
▁wijs	-9935
Focaal	-9936
alvans	-9937
echter	-9938
ginaal	-9939
ikking	-9940
itsing	-9941
lambda	-9942
loride	-9943
oesoph	-9944
ortion	-9945
search	-9946
staand	-9947
ummerd	-9948
versus	-9949
verval	-9950
vormig	-9951
wendig	-9952
▁Groot	-9953
▁Hemat	-9954
▁Lapar	-9955
▁datab	-9956
▁groen	-9957
▁korst	-9958
▁lymph	-9959
▁mijns	-9960
-2022.[	-9961
Diepere	-9962
ablatie	-9963
eculair	-9964
erzijds	-9965
gemerkt	-9966
krapste	-9967
oordeel	-9968
ositeit	-9969
▁Alcian	-9970
▁Binnen	-9971
▁Lokaal	-9972
▁cyclus	-9973
▁cystic	-9974
▁farynx	-9975
▁gemist	-9976
▁gevorm	-9977
▁intrat	-9978
▁ketens	-9979
▁koepel	-9980
▁medium	-9981
▁ribben	-9982
▁tekens	-9983
▁vacuum	-9984
biopsieA	-9985
bovenrug	-9986
dectomie	-9987
icularis	-9988
megakary	-9989
seceerde	-9990
ubtotale	-9991
villeuze	-9992
▁Hiermee	-9993
▁bekeken	-9994
▁classif	-9995
▁convent	-9996
▁flardje	-9997
▁gemeten	-9998
▁hieraan	-9999
▁massale	-10000
▁paracol	-10001
▁progest	-10002
▁pseudop	-10003
▁twijfel	-10004
▁vermoed	-10005
electieve	-10006
kselklier	-10007
legmoneus	-10008
verwegend	-10009
▁Controle	-10010
▁aankleur	-10011
▁afmeting	-10012
▁clitoris	-10013
▁discreet	-10014
▁kleinere	-10015
▁multiple	-10016
▁osteopor	-10017
▁verbrokk	-10018
▁vervette	-10019
▁voorhuid	-10020
▁webspace	-10021
erilisatie	-10022
erkleuring	-10023
ochemische	-10024
populaties	-10025
sprieterig	-10026
ulovilleus	-10027
▁Resultaat	-10028
▁afgegeven	-10029
▁bloedvaat	-10030
▁decalvans	-10031
▁ectopisch	-10032
▁genummerd	-10033
▁naschrift	-10034
▁onderdeel	-10035
▁ongebruik	-10036
▁splitsing	-10037
▁stopcodon	-10038
▁verdwijnt	-10039
apillaritis	-10040
olledigheid	-10041
oxicodermie	-10042
▁alveolaris	-10043
▁arterioven	-10044
▁botvorming	-10045
▁fistelgang	-10046
▁giardiasis	-10047
▁granulatie	-10048
▁ileumbiopt	-10049
▁mannelijke	-10050
▁reanimatie	-10051
▁reticuline	-10052
▁tumorgroei	-10053
Amplificatie	-10054
ericardvocht	-10055
inflammatoir	-10056
▁biopsiename	-10057
▁corpusbiopt	-10058
▁deficientie	-10059
▁implicaties	-10060
▁obturatoria	-10061
▁urotheliale	-10062
eusslijmvlies	-10063
▁aangevraagde	-10064
▁glioblastoma	-10065
▁kiemceltumor	-10066
▁periorbitaal	-10067
▁rechterslaap	-10068
▁rechtszijdig	-10069
▁respiratoire	-10070
▁spoelvormige	-10071
▁traumatische	-10072
▁tubulopathie	-10073
edebeoordeling	-10074
granulomateuze	-10075
necrotiserende	-10076
▁appendectomie	-10077
▁bijnierschors	-10078
▁erythropoiese	-10079
▁geperforeerde	-10080
▁gerapporteerd	-10081
▁huidcurettage	-10082
▁incontinentie	-10083
▁microbiologie	-10084
▁mycobacterien	-10085
▁nierparenchym	-10086
▁paratracheaal	-10087
▁proliferaties	-10088
▁rearrangement	-10089
▁traumatisatie	-10090
▁tumordiameter	-10091
▁Bijschildklier	-10092
▁acantholytisch	-10093
▁celhyperplasie	-10094
▁littekengebied	-10095
▁retromamillair	-10096
▁schimmelsporen	-10097
Consultmateriaal	-10098
Revisiemateriaal	-10099
▁arteriosclerose	-10100
▁dermatitisbeeld	-10101
▁sigmoidresectie	-10102
*[	-10103
1(	-10104
Ch	-10105
Cl	-10106
].	-10107
hc	-10108
yr	-10109
.)[	-10110
011	-10111
Gen	-10112
IDH	-10113
]2,	-10114
cem	-10115
duc	-10116
eal	-10117
sud	-10118
ulo	-10119
urk	-10120
▁Dd	-10121
▁IE	-10122
▁LA	-10123
▁ik	-10124
▁mo	-10125
,21)	-10126
Link	-10127
anco	-10128
brek	-10129
dder	-10130
drie	-10131
holm	-10132
iley	-10133
iose	-10134
isme	-10135
nion	-10136
ntie	-10137
onde	-10138
pert	-10139
pons	-10140
sche	-10141
spre	-10142
woor	-10143
▁Ges	-10144
▁buc	-10145
▁dag	-10146
▁fij	-10147
▁har	-10148
▁lam	-10149
▁lij	-10150
▁obl	-10151
▁opg	-10152
▁oph	-10153
▁pod	-10154
▁pus	-10155
▁vis	-10156
-10,1	-10157
21-11	-10158
DGFRB	-10159
ablat	-10160
atoom	-10161
bulle	-10162
cline	-10163
diepe	-10164
enkel	-10165
ertie	-10166
ietak	-10167
ikels	-10168
kloon	-10169
kwand	-10170
orsie	-10171
ralis	-10172
rante	-10173
ratum	-10174
stans	-10175
terke	-10176
tukje	-10177
typen	-10178
virus	-10179
▁brug	-10180
▁fiss	-10181
▁fraa	-10182
▁plus	-10183
▁rhab	-10184
▁smal	-10185
▁supr	-10186
▁vaak	-10187
▁week	-10188
▁zeld	-10189
Cancer	-10190
ageaal	-10191
artila	-10192
atherm	-10193
aticum	-10194
extern	-10195
isitis	-10196
kelijk	-10197
omheen	-10198
pelijk	-10199
rolyse	-10200
stumor	-10201
tadium	-10202
vangen	-10203
▁2000[	-10204
▁Gelet	-10205
▁cutis	-10206
▁grill	-10207
▁jaren	-10208
▁meten	-10209
▁minor	-10210
▁neemt	-10211
▁perid	-10212
▁plave	-10213
Candida	-10214
ablatio	-10215
alherbe	-10216
andaard	-10217
arterie	-10218
bacteri	-10219
celrijk	-10220
egatief	-10221
erwerkt	-10222
lumbaal	-10223
omische	-10224
omyxoma	-10225
woordig	-10226
▁Atypie	-10227
▁aanged	-10228
▁aanlev	-10229
▁atrium	-10230
▁dienen	-10231
▁geleid	-10232
▁gemeen	-10233
▁intima	-10234
▁kanaal	-10235
▁konden	-10236
▁lipoid	-10237
▁myxoid	-10238
▁origin	-10239
▁scherp	-10240
▁twaalf	-10241
]20-02-1	-10242
gebracht	-10243
grootste	-10244
partiele	-10245
roximale	-10246
soorzaak	-10247
variatie	-10248
vectomie	-10249
vezeling	-10250
▁Hiervan	-10251
▁dikwand	-10252
▁drietal	-10253
▁femoris	-10254
▁hemorro	-10255
▁junctie	-10256
▁minieme	-10257
▁neusgat	-10258
▁overlap	-10259
▁setting	-10260
▁thymoom	-10261
akeratose	-10262
chogeleid	-10263
ekleuring	-10264
epidermal	-10265
esteatoom	-10266
formulier	-10267
okeratine	-10268
okeratoom	-10269
oorschelp	-10270
opbrengst	-10271
operatief	-10272
overgangs	-10273
regressie	-10274
yometrium	-10275
▁Bevestig	-10276
▁aantonen	-10277
▁androgen	-10278
▁biliaire	-10279
▁buismaag	-10280
▁darmwand	-10281
▁gemengde	-10282
▁grenzend	-10283
▁inversum	-10284
▁maagcard	-10285
▁overlegd	-10286
▁pleomorf	-10287
▁radiatie	-10288
▁targeted	-10289
▁verhoorn	-10290
alibreerde	-10291
iolateraal	-10292
lowcytomet	-10293
oleiomyoom	-10294
rogressief	-10295
▁Afwijking	-10296
▁Eventuele	-10297
▁Gradering	-10298
▁achterste	-10299
▁atroficus	-10300
▁axillaire	-10301
▁buikholte	-10302
▁buitenste	-10303
▁chronicum	-10304
▁corticale	-10305
▁dominante	-10306
▁funisitis	-10307
▁hematopoA	-10308
▁hieronder	-10309
▁longtumor	-10310
▁polymorfe	-10311
▁recidiver	-10312
▁splijting	-10313
▁thermisch	-10314
▁vaginalis	-10315
▁verdeling	-10316
▁verstuurd	-10317
▁vesiculae	-10318
Huidbiopsie	-10319
amenvattend	-10320
beiderzijds	-10321
laaggradige	-10322
malformatie	-10323
schappelijk	-10324
ulvabiopten	-10325
viscositeit	-10326
▁Cholecyste	-10327
▁Hyperkerat	-10328
▁arterietak	-10329
▁bekledende	-10330
▁blaastumor	-10331
▁epidermaal	-10332
▁epiglottis	-10333
▁epitheloid	-10334
▁ischemisch	-10335
▁linkerknie	-10336
▁markerings	-10337
▁neerslagen	-10338
▁protonpomp	-10339
▁resterende	-10340
▁tumordikte	-10341
▁wijsvinger	-10342
Concentratie	-10343
eiwitanalyse	-10344
homogeniteit	-10345
tegenwoordig	-10346
▁bovenstaand	-10347
▁capillairen	-10348
▁cylindercel	-10349
▁dysmegakary	-10350
▁epithelioid	-10351
▁mediaanlijn	-10352
▁nierweefsel	-10353
▁onverdachte	-10354
▁organisatie	-10355
▁presentatie	-10356
▁rechterlong	-10357
▁tuberculose	-10358
Classificatie	-10359
amenorroeduur	-10360
differentiaal	-10361
evocellularis	-10362
oppervlakkige	-10363
▁cytogenetica	-10364
▁mesenteriale	-10365
▁suppuratieve	-10366
▁verwantschap	-10367
▁celpopulaties	-10368
▁cholesteatoom	-10369
▁emfysemateuze	-10370
▁immunoprofiel	-10371
▁metastasering	-10372
▁tumornegatief	-10373
▁Hyperplastisch	-10374
▁Intraepidermal	-10375
▁differentiaald	-10376
▁immunotherapie	-10377
▁overeenkomstig	-10378
▁parotidectomie	-10379
Lymfklierpunctie	-10380
rechteronderbeen	-10381
▁Laparoscopische	-10382
▁biopsielitteken	-10383
▁cardiomyopathie	-10384
▁extracapillaire	-10385
▁testisparenchym	-10386
eh	-10387
001	-10388
10,	-10389
ALB	-10390
Cad	-10391
dur	-10392
ebs	-10393
geg	-10394
iol	-10395
ito	-10396
nea	-10397
oto	-10398
sus	-10399
tru	-10400
▁GA	-10401
▁kn	-10402
▁nl	-10403
-200	-10404
1):[	-10405
2020	-10406
aant	-10407
anus	-10408
apex	-10409
edes	-10410
gren	-10411
heup	-10412
huis	-10413
iche	-10414
iemb	-10415
lust	-10416
opoA	-10417
rijs	-10418
sein	-10419
tans	-10420
turm	-10421
▁202	-10422
▁All	-10423
▁Fax	-10424
▁Hel	-10425
,11,1	-10426
alden	-10427
ather	-10428
derom	-10429
ecund	-10430
elect	-10431
ident	-10432
oorte	-10433
pvall	-10434
scent	-10435
sinus	-10436
strom	-10437
ugger	-10438
wordt	-10439
▁(2),	-10440
▁Beck	-10441
▁Chis	-10442
▁bijd	-10443
▁geop	-10444
▁loge	-10445
▁nodi	-10446
▁only	-10447
▁orch	-10448
▁pend	-10449
▁somm	-10450
▁stap	-10451
-1-201	-10452
Custom	-10453
Eerste	-10454
ebsite	-10455
epaste	-10456
haemia	-10457
infect	-10458
ishman	-10459
itosen	-10460
labium	-10461
orgaan	-10462
ostase	-10463
ragend	-10464
raumat	-10465
roebel	-10466
tation	-10467
uitein	-10468
ulosis	-10469
urkitt	-10470
vertex	-10471
waarde	-10472
werken	-10473
worden	-10474
▁(12,1	-10475
▁brede	-10476
▁geinc	-10477
▁orbit	-10478
▁shift	-10479
▁sinds	-10480
▁steen	-10481
▁thans	-10482
-2021):	-10483
aadwerk	-10484
aginaal	-10485
ementen	-10486
erentie	-10487
figuren	-10488
iembaan	-10489
inctive	-10490
inimaal	-10491
iserend	-10492
oxische	-10493
pitheel	-10494
uterien	-10495
▁Andere	-10496
▁aangem	-10497
▁acrale	-10498
▁infund	-10499
▁nasale	-10500
▁ogende	-10501
▁omslag	-10502
▁recurr	-10503
Afdeling	-10504
alanitis	-10505
ongeveer	-10506
rocedure	-10507
rotische	-10508
spunctie	-10509
syndroom	-10510
tweemaal	-10511
verwogen	-10512
▁Fibrose	-10513
▁arterio	-10514
▁begrens	-10515
▁breedte	-10516
▁diepste	-10517
▁erosies	-10518
▁fixatie	-10519
▁floride	-10520
▁geboren	-10521
▁immuunt	-10522
▁incisie	-10523
▁leveren	-10524
▁periren	-10525
▁pyogeen	-10526
▁septale	-10527
▁species	-10528
▁spreken	-10529
▁troebel	-10530
Cadherine	-10531
acteriele	-10532
dyscrasie	-10533
iddenkwab	-10534
oresectie	-10535
orrelatie	-10536
pathogene	-10537
testinale	-10538
vasculair	-10539
▁Alhoewel	-10540
▁Chisholm	-10541
▁Genetica	-10542
▁Hierdoor	-10543
▁Infectie	-10544
▁Radicale	-10545
▁apoptose	-10546
▁artefact	-10547
▁detectie	-10548
▁diastase	-10549
▁effecten	-10550
▁expansie	-10551
▁geinfarc	-10552
▁gesugger	-10553
▁hierdoor	-10554
▁immatuur	-10555
▁lamellen	-10556
▁pemfigus	-10557
▁slijmnap	-10558
▁suspecte	-10559
▁thrombus	-10560
Lymfeklier	-10561
helderheid	-10562
immuniteit	-10563
musculaire	-10564
oduodenale	-10565
overweging	-10566
turatorius	-10567
▁Regionale	-10568
▁aangezien	-10569
▁diameters	-10570
▁gewijzigd	-10571
▁leukoplak	-10572
▁originele	-10573
▁orofarynx	-10574
▁overgaand	-10575
▁overgrijp	-10576
▁phyllodes	-10577
▁polypoide	-10578
▁spirochet	-10579
▁verdachts	-10580
achterzijde	-10581
angiopathie	-10582
constructie	-10583
henospermie	-10584
linkerzijde	-10585
ocapillaire	-10586
omorfologie	-10587
oornamelijk	-10588
▁(*******),	-10589
▁Aspecifiek	-10590
▁Langerhans	-10591
▁aanvragend	-10592
▁blaasbodem	-10593
▁bovenzijde	-10594
▁bronchiaal	-10595
▁cholestase	-10596
▁cribriform	-10597
▁cytoplasma	-10598
▁eosinofiel	-10599
▁flegmoneus	-10600
▁ingeblokte	-10601
▁ingesneden	-10602
▁ingevangen	-10603
▁laesionaal	-10604
▁linkerlong	-10605
▁losgelegen	-10606
▁mammabiopt	-10607
▁myxofibros	-10608
erapeutische	-10609
histiocytair	-10610
parakeratose	-10611
raagstelling	-10612
radiologisch	-10613
▁Cystectomie	-10614
▁Laaggradige	-10615
▁condylomata	-10616
▁doorgemaakt	-10617
▁funiculitis	-10618
▁gedilateerd	-10619
▁histiocyten	-10620
▁immunologie	-10621
▁necrobiosis	-10622
▁pankeratine	-10623
▁pseudocyste	-10624
▁rechtervoet	-10625
▁weefselstuk	-10626
evenbevinding	-10627
▁Appendicitis	-10628
▁corpusmucosa	-10629
▁herschikking	-10630
▁lymffollikel	-10631
▁neuspoliepen	-10632
▁ondergelegen	-10633
▁rechterborst	-10634
▁sterilisatie	-10635
eritoneumbiopt	-10636
linkerbovenarm	-10637
teruscurettage	-10638
▁Cristabiopsie	-10639
▁basissnijvlak	-10640
▁intracavitair	-10641
▁oorschelprand	-10642
▁overgangszone	-10643
▁pericardvocht	-10644
▁tenosynoviale	-10645
▁tricholemmale	-10646
▁zwangerschaps	-10647
linkeronderbeen	-10648
▁excisiebiopten	-10649
▁geregistreerde	-10650
▁ijzerdepositie	-10651
▁ijzerstapeling	-10652
▁ongebruikelijk	-10653
▁subclaviculair	-10654
▁tumormateriaal	-10655
rechterbovenbeen	-10656
supraclaviculair	-10657
teruscurettement	-10658
variumcarcinomen	-10659
▁Administratieve	-10660
▁desmoplastische	-10661
▁maagcorpusbiopt	-10662
▁vertegenwoordig	-10663
*,	-10664
GC	-10665
bn	-10666
ey	-10667
go	-10668
jA	-10669
nh	-10670
sb	-10671
tt	-10672
.2:	-10673
00)	-10674
00.	-10675
20)	-10676
21,	-10677
ati	-10678
ble	-10679
elk	-10680
han	-10681
kan	-10682
mic	-10683
ock	-10684
oot	-10685
rit	-10686
uin	-10687
▁BH	-10688
▁Hp	-10689
▁im	-10690
▁mb	-10691
-010	-10692
-121	-10693
alle	-10694
ancy	-10695
arte	-10696
atoe	-10697
ator	-10698
avel	-10699
doet	-10700
eryt	-10701
hode	-10702
lode	-10703
ltra	-10704
maar	-10705
mult	-10706
ofag	-10707
oond	-10708
ostm	-10709
tong	-10710
ysis	-10711
▁12:	-10712
▁LAB	-10713
▁LLE	-10714
▁aur	-10715
▁cre	-10716
▁del	-10717
▁fys	-10718
▁hoe	-10719
▁mij	-10720
▁nag	-10721
▁ort	-10722
▁pir	-10723
-10-2	-10724
21-10	-10725
Clone	-10726
ERIGE	-10727
IEDIE	-10728
aalde	-10729
abdom	-10730
ativa	-10731
chrom	-10732
ecidu	-10733
endym	-10734
helft	-10735
inion	-10736
inoom	-10737
orrag	-10738
osits	-10739
pport	-10740
ranst	-10741
roton	-10742
ylact	-10743
▁CDLE	-10744
▁Dens	-10745
▁RICC	-10746
▁Reed	-10747
▁acne	-10748
▁amel	-10749
▁dele	-10750
▁doel	-10751
▁glan	-10752
▁hern	-10753
▁kind	-10754
▁late	-10755
▁sect	-10756
▁stag	-10757
▁stro	-10758
▁synd	-10759
▁tool	-10760
▁weer	-10761
▁wilt	-10762
abiele	-10763
cavaal	-10764
gelaat	-10765
ionaal	-10766
itiele	-10767
itmest	-10768
muraal	-10769
ocytic	-10770
ontane	-10771
rachus	-10772
ractie	-10773
repres	-10774
richts	-10775
romale	-10776
rommel	-10777
stijds	-10778
ugeerd	-10779
▁Aorta	-10780
▁Ewing	-10781
▁Reikt	-10782
▁excid	-10783
▁exsud	-10784
▁haren	-10785
▁loopt	-10786
▁monot	-10787
▁onged	-10788
▁polyk	-10789
▁react	-10790
▁rheum	-10791
▁small	-10792
▁varia	-10793
▁verse	-10794
-02-202	-10795
afstand	-10796
aortale	-10797
bundels	-10798
cysteus	-10799
dorsale	-10800
erflank	-10801
erschap	-10802
illaire	-10803
kleppen	-10804
matumor	-10805
mentaar	-10806
nderlip	-10807
riciele	-10808
sistent	-10809
spreide	-10810
waarden	-10811
▁Dieper	-10812
▁Immuno	-10813
▁access	-10814
▁blanco	-10815
▁carina	-10816
▁comedo	-10817
▁indruk	-10818
▁intens	-10819
▁minisc	-10820
▁plekke	-10821
▁renaal	-10822
▁sneden	-10823
▁telken	-10824
▁vaatst	-10825
▁veldje	-10826
▁vierde	-10827
▁volair	-10828
1-12-201	-10829
Botbiopt	-10830
bedraagt	-10831
bevestig	-10832
enminste	-10833
epresent	-10834
ereikend	-10835
erologie	-10836
excisies	-10837
gewricht	-10838
lassieke	-10839
mammaire	-10840
sentumor	-10841
standige	-10842
stations	-10843
▁Bladder	-10844
▁adhesie	-10845
▁bilnaad	-10846
▁digitum	-10847
▁klonale	-10848
▁mucosae	-10849
▁opinion	-10850
▁puntige	-10851
▁rapport	-10852
▁sommige	-10853
▁urachus	-10854
▁voorbij	-10855
▁waarmee	-10856
▁zijwaar	-10857
beoordeel	-10858
crementen	-10859
ethylatie	-10860
globuline	-10861
granuloma	-10862
omucosale	-10863
▁Excisies	-10864
▁Hiervoor	-10865
▁afspraak	-10866
▁bewaarde	-10867
▁driemaal	-10868
▁elastine	-10869
▁grillige	-10870
▁insertie	-10871
▁kiembaan	-10872
▁ovarieel	-10873
▁staafjes	-10874
▁tumoraal	-10875
▁zenuwtak	-10876
aldenstrom	-10877
elefonisch	-10878
glandulair	-10879
granulomen	-10880
ijdelingse	-10881
lodestumor	-10882
voorlopige	-10883
▁*******),	-10884
▁aangepast	-10885
▁excideren	-10886
▁gefibrose	-10887
▁geschatte	-10888
▁ingescand	-10889
▁richtlijn	-10890
▁seminalis	-10891
▁tubulitis	-10892
binnenzijde	-10893
ontstekings	-10894
uitstrijken	-10895
▁*******).[	-10896
▁bekkenwand	-10897
▁belangrijk	-10898
▁blaasbiopt	-10899
▁classifier	-10900
▁cryoglobul	-10901
▁destructie	-10902
▁dikwandige	-10903
▁fibrinedep	-10904
▁fibrinopur	-10905
▁genetische	-10906
▁homozygote	-10907
▁leverhilus	-10908
▁mammatumor	-10909
▁merendeels	-10910
▁omliggende	-10911
▁regressief	-10912
▁synoviitis	-10913
ubulovilleus	-10914
▁Colonpoliep	-10915
▁DisclaimerA	-10916
▁Rectumbiopt	-10917
▁antilichaam	-10918
▁blaaskoepel	-10919
▁buitenzijde	-10920
▁lipomatosus	-10921
▁omslagplooi	-10922
▁placentabed	-10923
▁vrouwelijke	-10924
overgangszone	-10925
pathologische	-10926
riesmateriaal	-10927
▁Rectosigmoid	-10928
▁bloedvaatjes	-10929
▁capillaritis	-10930
▁cilindrische	-10931
▁endometritis	-10932
▁epithelioide	-10933
▁incisiebiopt	-10934
▁mediastinaal	-10935
▁voorgestelde	-10936
celhyperplasie	-10937
▁androgenetica	-10938
▁angiokeratoom	-10939
▁conventioneel	-10940
▁granulomateus	-10941
▁immuuncomplex	-10942
▁multinodulair	-10943
▁orchidectomie	-10944
▁pleurabiopten	-10945
▁polycythaemia	-10946
▁subepidermaal	-10947
▁vermoedelijke	-10948
rechterschouder	-10949
▁Dermatofibroom	-10950
▁Gefragmenteerd	-10951
▁angioleiomyoom	-10952
▁architecturale	-10953
▁differentiated	-10954
▁epitheelatypie	-10955
▁herbeoordeling	-10956
▁antrumgastritis	-10957
▁bronchusbiopten	-10958
▁frontotemporaal	-10959
▁genamplificatie	-10960
▁glomerulopathie	-10961
▁gynaecologische	-10962
▁oesophagusbiopt	-10963
▁vasculitisbeeld	-10964
,[	-10965
LC	-10966
Li	-10967
RB	-10968
jz	-10969
nb	-10970
20.	-10971
Ile	-10972
ash	-10973
ias	-10974
kte	-10975
lig	-10976
occ	-10977
ukt	-10978
utt	-10979
▁Du	-10980
▁LI	-10981
▁eo	-10982
▁fa	-10983
▁pa	-10984
▁ph	-10985
▁po	-10986
▁up	-10987
10),	-10988
Aard	-10989
Hier	-10990
Rect	-10991
acin	-10992
alie	-10993
alum	-10994
arme	-10995
diam	-10996
erum	-10997
heer	-10998
ixed	-10999
land	-11000
onse	-11001
ppel	-11002
raam	-11003
reun	-11004
tegr	-11005
tiel	-11006
tuba	-11007
uken	-11008
uorp	-11009
week	-11010
▁Cil	-11011
▁Exc	-11012
▁IGH	-11013
▁Ley	-11014
▁enc	-11015
▁fac	-11016
▁fec	-11017
▁rab	-11018
20-12	-11019
21-21	-11020
22-02	-11021
Clark	-11022
ageen	-11023
akket	-11024
alans	-11025
artiA	-11026
ellum	-11027
gaand	-11028
ialis	-11029
yroid	-11030
▁Chol	-11031
▁Gram	-11032
▁Hemi	-11033
▁lijn	-11034
▁mild	-11035
▁ovar	-11036
▁pink	-11037
▁reak	-11038
▁tien	-11039
-12-20	-11040
Basale	-11041
alings	-11042
asperm	-11043
bulbus	-11044
gebeld	-11045
gedraa	-11046
gevoeg	-11047
ierend	-11048
ignaal	-11049
olking	-11050
oxisch	-11051
rectie	-11052
retage	-11053
ubeerd	-11054
ureter	-11055
wijzen	-11056
▁Fiber	-11057
▁aldus	-11058
▁apart	-11059
▁colum	-11060
▁invas	-11061
▁jonge	-11062
▁kloon	-11063
▁oblit	-11064
▁pneum	-11065
▁preex	-11066
▁serum	-11067
▁tatoe	-11068
▁valse	-11069
▁vlekk	-11070
▁vries	-11071
▁zeven	-11072
-2020):	-11073
betrouw	-11074
breking	-11075
clusies	-11076
colitis	-11077
functie	-11078
iniaire	-11079
kristal	-11080
laesies	-11081
leinste	-11082
ometrie	-11083
parotis	-11084
sarcoom	-11085
vaardig	-11086
▁Elders	-11087
▁Lipoom	-11088
▁areola	-11089
▁berust	-11090
▁gevuld	-11091
▁ingang	-11092
▁morpha	-11093
▁opgave	-11094
▁opname	-11095
▁overig	-11096
▁punten	-11097
▁synovi	-11098
▁triple	-11099
▁uiteen	-11100
▁vormen	-11101
▁zeggen	-11102
]20-01-1	-11103
derhalve	-11104
elevante	-11105
hotspots	-11106
lottisch	-11107
ocaecaal	-11108
ovariele	-11109
uitgebre	-11110
ulmonale	-11111
voergang	-11112
ytologie	-11113
▁Bauhini	-11114
▁Density	-11115
▁Grocott	-11116
▁benigna	-11117
▁breuken	-11118
▁cryptde	-11119
▁eerstel	-11120
▁flarden	-11121
▁mastoid	-11122
▁pilaris	-11123
▁pustels	-11124
▁stratum	-11125
▁subtiel	-11126
bacterien	-11127
etastasen	-11128
reuninger	-11129
▁Curettag	-11130
▁Lipbiopt	-11131
▁daadwerk	-11132
▁daarvoor	-11133
▁dubieuze	-11134
▁getracht	-11135
▁gevormde	-11136
▁occlusie	-11137
▁omsneden	-11138
▁overheer	-11139
▁polypoid	-11140
▁potentie	-11141
▁retentie	-11142
▁uitloper	-11143
▁vaatrijk	-11144
▁vaginose	-11145
▁voorvoet	-11146
Bacteriele	-11147
epithelial	-11148
lonaliteit	-11149
membraneus	-11150
occipitaal	-11151
paranasaal	-11152
ycobacteri	-11153
▁Dysplasie	-11154
▁Hypertrof	-11155
▁aberrante	-11156
▁aneurysma	-11157
▁antihelix	-11158
▁balanitis	-11159
▁bovenpool	-11160
▁daaronder	-11161
▁eigenlijk	-11162
▁feitelijk	-11163
▁follikels	-11164
▁gecentrif	-11165
▁getraumat	-11166
▁helixrand	-11167
▁hemithyre	-11168
▁hepaticus	-11169
▁inflammat	-11170
▁lesionaal	-11171
▁lipoidica	-11172
▁marginaal	-11173
▁opgemerkt	-11174
▁opgenomen	-11175
▁processus	-11176
▁standaard	-11177
allergische	-11178
moleculaire	-11179
ormospermie	-11180
perineurale	-11181
reticulaire	-11182
▁Bespreking	-11183
▁Botbiopten	-11184
▁allergisch	-11185
▁behandelen	-11186
▁bestraling	-11187
▁cerebellum	-11188
▁conclusieI	-11189
▁glomerulus	-11190
▁ingebracht	-11191
▁methylatie	-11192
▁orientatie	-11193
▁pustulaire	-11194
▁radiologie	-11195
▁rechterbil	-11196
▁rechteroog	-11197
▁somatische	-11198
▁suprasperm	-11199
▁toereikend	-11200
▁uitbreiden	-11201
Histologisch	-11202
aangetroffen	-11203
extravasatie	-11204
hepatectomie	-11205
ocytologisch	-11206
omonocytaire	-11207
rognostische	-11208
spierweefsel	-11209
▁Bevindingen	-11210
▁Ileocoecaal	-11211
▁additionele	-11212
▁clonaliteit	-11213
▁geincubeerd	-11214
▁gevalideerd	-11215
▁panitumumab	-11216
▁rechtzijdig	-11217
▁tumorproces	-11218
▁vervezeling	-11219
beenmergbiopt	-11220
ecidualiseerd	-11221
gekalibreerde	-11222
icrocurettage	-11223
utatieanalyse	-11224
▁Aanwijzingen	-11225
▁Excochleatie	-11226
▁cicatriciele	-11227
▁leverbiopten	-11228
▁lymfkliertje	-11229
▁maagovergang	-11230
▁neoadjuvante	-11231
▁pseudomyxoma	-11232
▁scleroserend	-11233
▁uiteindelijk	-11234
onderverdeling	-11235
umorpercentage	-11236
ynoviumbiopten	-11237
▁Anusuitstrijk	-11238
▁Cervixbiopsie	-11239
▁Coecumbiopten	-11240
▁ameloblastoom	-11241
▁berichtgeving	-11242
▁cryptabcesjes	-11243
▁halslymfklier	-11244
▁hysterectomie	-11245
▁markerpatroon	-11246
▁transplantaat	-11247
▁georganiseerde	-11248
▁pancreasstaart	-11249
▁phyllodestumor	-11250
olkingsonderzoek	-11251
ologiebespreking	-11252
▁gecentrifugeerd	-11253
▁hepatoduodenale	-11254
▁ijzerdeposities	-11255
▁lymfadenectomie	-11256
▁naevuscelnaevus	-11257
▁retroperitoneum	-11258
▁tubulairadenoom	-11259
▁vaatmalformatie	-11260
En	-11261
az	-11262
pH	-11263
pi	-11264
pm	-11265
▁y	-11266
(1-	-11267
.10	-11268
12,	-11269
Lab	-11270
chy	-11271
dag	-11272
dan	-11273
inx	-11274
ogn	-11275
plg	-11276
seb	-11277
tse	-11278
uig	-11279
umm	-11280
wal	-11281
wit	-11282
ypt	-11283
▁AC	-11284
▁Ap	-11285
▁Ib	-11286
▁Ir	-11287
▁bh	-11288
▁lu	-11289
▁vd	-11290
▁vs	-11291
-020	-11292
-112	-11293
2):[	-11294
RALI	-11295
Roch	-11296
adiA	-11297
aker	-11298
ally	-11299
ateg	-11300
auto	-11301
ceus	-11302
gene	-11303
hing	-11304
idus	-11305
node	-11306
onei	-11307
oron	-11308
oste	-11309
ress	-11310
toge	-11311
unch	-11312
uzet	-11313
weeg	-11314
▁0.0	-11315
▁0.1	-11316
▁0.2	-11317
▁EIF	-11318
▁Gal	-11319
▁acc	-11320
▁asc	-11321
▁sur	-11322
▁tem	-11323
▁tum	-11324
21-02	-11325
21-20	-11326
Blaas	-11327
Regio	-11328
Roche	-11329
asien	-11330
beker	-11331
dylla	-11332
entro	-11333
ergie	-11334
evalu	-11335
gerij	-11336
group	-11337
ivert	-11338
penis	-11339
radit	-11340
ratio	-11341
toont	-11342
trial	-11343
ureel	-11344
vulus	-11345
▁100.	-11346
▁ARAF	-11347
▁Beta	-11348
▁anat	-11349
▁beta	-11350
▁flat	-11351
▁grof	-11352
▁gutt	-11353
▁hiel	-11354
▁left	-11355
▁lute	-11356
▁meng	-11357
▁olig	-11358
▁oogt	-11359
▁site	-11360
▁subg	-11361
▁trab	-11362
alpinx	-11363
arynge	-11364
eeling	-11365
eerste	-11366
emming	-11367
erslag	-11368
fascie	-11369
icolor	-11370
niones	-11371
omonas	-11372
osilic	-11373
pancre	-11374
ruppel	-11375
schikt	-11376
undarm	-11377
▁10-11	-11378
▁10-20	-11379
▁Bloed	-11380
▁Femur	-11381
▁fijne	-11382
▁hydat	-11383
▁hyfen	-11384
▁impet	-11385
▁juven	-11386
▁lapar	-11387
▁large	-11388
▁lucht	-11389
▁mixed	-11390
▁opget	-11391
▁ovula	-11392
▁right	-11393
▁sacro	-11394
▁stere	-11395
▁stoll	-11396
▁traan	-11397
Hotspot	-11398
abdomen	-11399
artilag	-11400
ductaal	-11401
elanoom	-11402
entueel	-11403
ereerde	-11404
erifere	-11405
hooguit	-11406
lekkage	-11407
lengten	-11408
prurigo	-11409
telling	-11410
uzetest	-11411
vormend	-11412
▁Bulbus	-11413
▁Ductus	-11414
▁Huidex	-11415
▁beleid	-11416
▁cornea	-11417
▁cortex	-11418
▁kleurt	-11419
▁lijden	-11420
▁lipoma	-11421
▁majora	-11422
▁mesang	-11423
▁multic	-11424
▁mutant	-11425
▁onrijp	-11426
▁poging	-11427
▁seroom	-11428
▁subple	-11429
▁ventro	-11430
▁vinden	-11431
▁viscer	-11432
▁zaadje	-11433
▁zelfde	-11434
Receptor	-11435
]02-02-1	-11436
artefact	-11437
complete	-11438
diastase	-11439
ganglion	-11440
inisatie	-11441
lobulair	-11442
maximaal	-11443
ocytoide	-11444
omyocard	-11445
onderste	-11446
oserende	-11447
partieel	-11448
▁Burkitt	-11449
▁Hormoon	-11450
▁afbraak	-11451
▁bereikt	-11452
▁bewezen	-11453
▁discrep	-11454
▁enchond	-11455
▁gevolgd	-11456
▁giardia	-11457
▁guttata	-11458
▁implant	-11459
▁kleppen	-11460
▁langdur	-11461
▁methode	-11462
▁motiele	-11463
▁nummers	-11464
▁pericol	-11465
▁primers	-11466
▁rustige	-11467
▁synovia	-11468
▁verdikt	-11469
Doorgroei	-11470
Regressie	-11471
endometri	-11472
eresectie	-11473
figuratie	-11474
itgebreid	-11475
orfologie	-11476
otheliale	-11477
parietaal	-11478
togewicht	-11479
voorzijde	-11480
▁Bioptjes	-11481
▁ciliaire	-11482
▁continue	-11483
▁crescent	-11484
▁cysticus	-11485
▁database	-11486
▁destijds	-11487
▁dyshemat	-11488
▁fallopii	-11489
▁follicul	-11490
▁gasthuis	-11491
▁genitaal	-11492
▁gevraagd	-11493
▁glaasjes	-11494
▁identiek	-11495
▁klachten	-11496
▁melanose	-11497
▁mucinose	-11498
▁omkapsel	-11499
▁pleurale	-11500
▁research	-11501
▁secretie	-11502
▁subacuut	-11503
▁volvulus	-11504
▁weefselp	-11505
aangetoond	-11506
aantasting	-11507
avelstreng	-11508
rondcellen	-11509
uorpunctie	-11510
zoospermie	-11511
▁Benchmark	-11512
▁borstbeen	-11513
▁borstwand	-11514
▁chemische	-11515
▁coderende	-11516
▁deficient	-11517
▁enerzijds	-11518
▁granulair	-11519
▁mitochond	-11520
▁peritonei	-11521
▁perniones	-11522
▁scapulair	-11523
▁spierlaag	-11524
▁spitzoide	-11525
▁tweederde	-11526
▁uurszijde	-11527
▁verklaart	-11528
▁verzonden	-11529
ergelijking	-11530
erolateraal	-11531
ipellebiopt	-11532
maagbiopten	-11533
onderooglid	-11534
▁Elektronen	-11535
▁Enucleatie	-11536
▁aangemaakt	-11537
▁aanleveren	-11538
▁commentaar	-11539
▁conjunctiv	-11540
▁cystebeeld	-11541
▁doorgebeld	-11542
▁exofytisch	-11543
▁huidstukje	-11544
▁naresectie	-11545
▁neuspoliep	-11546
▁ongevoelig	-11547
▁ontwikkeld	-11548
▁uitgenomen	-11549
▁versicolor	-11550
▁zweetklier	-11551
Colonbiopten	-11552
Gleasonscore	-11553
celpopulatie	-11554
ceptorstatus	-11555
infiltrerend	-11556
odiagnostiek	-11557
oppervlakkig	-11558
rodermatitis	-11559
translocatie	-11560
▁atheroscler	-11561
▁bestralings	-11562
▁blaasmucosa	-11563
▁cytoplasmat	-11564
▁distinctive	-11565
▁eerstelijns	-11566
▁glomustumor	-11567
▁hidradenoom	-11568
▁ingestuurde	-11569
▁leukoplakie	-11570
▁longorigine	-11571
▁lymfangioom	-11572
▁methylation	-11573
▁osteoporose	-11574
▁parametrium	-11575
▁rectumbiopt	-11576
▁spermaticus	-11577
▁suppurativa	-11578
▁testisbiopt	-11579
▁triliniaire	-11580
▁verhoorning	-11581
ondslijmvlies	-11582
ransurethraal	-11583
▁Fibroadenoom	-11584
▁cytokeratine	-11585
▁duodenumtype	-11586
▁endoscopisch	-11587
▁geinduceerde	-11588
▁geruptureerd	-11589
▁histiocytose	-11590
▁lymfadenitis	-11591
▁ondersteunen	-11592
▁onduidelijke	-11593
▁schaamstreek	-11594
▁spirochetose	-11595
▁trombosering	-11596
▁vezeltoename	-11597
▁Diepteinvasie	-11598
▁Huidreexcisie	-11599
▁amplificaties	-11600
▁condylomateus	-11601
▁daadwerkelijk	-11602
▁geanalyseerde	-11603
▁gesuggereerde	-11604
▁getromboseerd	-11605
▁lymfkliertjes	-11606
▁mucosabiopten	-11607
▁verlittekende	-11608
Resectievlakken	-11609
linkerbovenbeen	-11610
▁differentieren	-11611
▁excisiebiopsie	-11612
▁immuuntherapie	-11613
▁intratubulaire	-11614
▁multinodulaire	-11615
▁naevocellulare	-11616
▁nevenbevinding	-11617
▁plaatsgevonden	-11618
▁sigmoidbiopten	-11619
▁slokdarmmucosa	-11620
▁ulcusmateriaal	-11621
▁Corpuscurettage	-11622
▁follikelcentrum	-11623
▁ileocoecaalklep	-11624
▁megakaryopoiese	-11625
▁peritoneumbiopt	-11626
*)	-11627
AE	-11628
gs	-11629
ua	-11630
,10	-11631
012	-11632
02.	-11633
101	-11634
11-	-11635
110	-11636
12.	-11637
ara	-11638
dus	-11639
erb	-11640
gec	-11641
ieA	-11642
nze	-11643
pel	-11644
uil	-11645
urc	-11646
ych	-11647
yel	-11648
yto	-11649
▁DA	-11650
▁EE	-11651
▁IB	-11652
▁ur	-11653
-102	-11654
-2.[	-11655
20):	-11656
AARD	-11657
Cave	-11658
EBER	-11659
Hals	-11660
akke	-11661
anal	-11662
berg	-11663
calc	-11664
cort	-11665
dent	-11666
egio	-11667
elia	-11668
hele	-11669
hose	-11670
oemd	-11671
omeg	-11672
rich	-11673
rint	-11674
rogl	-11675
rood	-11676
sept	-11677
syst	-11678
thle	-11679
trom	-11680
weke	-11681
yoom	-11682
zeer	-11683
▁22-	-11684
▁DDR	-11685
▁Dar	-11686
▁Det	-11687
▁Ern	-11688
▁Gew	-11689
▁HRD	-11690
▁Hyp	-11691
▁LAD	-11692
▁ReA	-11693
▁Red	-11694
▁Rel	-11695
▁ach	-11696
▁dem	-11697
▁imb	-11698
▁oxy	-11699
▁tez	-11700
22-10	-11701
22-11	-11702
DLBCL	-11703
Graag	-11704
antit	-11705
autor	-11706
elast	-11707
erige	-11708
ffect	-11709
icrob	-11710
iecem	-11711
ineum	-11712
inkes	-11713
obbel	-11714
orcel	-11715
ovend	-11716
patiA	-11717
vulva	-11718
▁Abla	-11719
▁Rond	-11720
▁anth	-11721
▁bloc	-11722
▁cocc	-11723
▁cong	-11724
▁echo	-11725
▁elke	-11726
▁groe	-11727
▁jong	-11728
▁myco	-11729
▁ontv	-11730
▁pijn	-11731
▁rete	-11732
▁ring	-11733
▁side	-11734
Levern	-11735
active	-11736
alance	-11737
arcyto	-11738
buiten	-11739
ediaal	-11740
eletie	-11741
esbaar	-11742
exonen	-11743
gevend	-11744
haling	-11745
ilfers	-11746
itieve	-11747
kleine	-11748
lectie	-11749
lijnen	-11750
papill	-11751
rijgen	-11752
rokkel	-11753
trauma	-11754
urthle	-11755
ylorus	-11756
▁abuis	-11757
▁afgew	-11758
▁conus	-11759
▁donor	-11760
▁einde	-11761
▁elekt	-11762
▁embol	-11763
▁gemac	-11764
▁isola	-11765
▁keten	-11766
▁kolon	-11767
▁manus	-11768
▁menst	-11769
▁negen	-11770
▁osteo	-11771
▁palat	-11772
▁rubra	-11773
▁toest	-11774
▁trial	-11775
▁versn	-11776
acinair	-11777
compens	-11778
houdend	-11779
ifocaal	-11780
olypeus	-11781
reening	-11782
sresten	-11783
vanwege	-11784
vergang	-11785
verruca	-11786
wandige	-11787
washout	-11788
welling	-11789
▁Extern	-11790
▁Hailey	-11791
▁Helaas	-11792
▁Leydig	-11793
▁Lichte	-11794
▁atrofe	-11795
▁atroof	-11796
▁betrof	-11797
▁daarna	-11798
▁gebrek	-11799
▁gemute	-11800
▁genese	-11801
▁gliale	-11802
▁hoogst	-11803
▁influx	-11804
▁laatst	-11805
▁matrix	-11806
▁minora	-11807
▁moeten	-11808
▁myeloA	-11809
▁rommel	-11810
▁sacrum	-11811
▁sectio	-11812
▁series	-11813
▁stadiA	-11814
▁suprag	-11815
▁trache	-11816
]21-10-1	-11817
aalplaat	-11818
adnexaal	-11819
agulatie	-11820
ariation	-11821
ategorie	-11822
egatieve	-11823
iecemeal	-11824
mucineus	-11825
nectomie	-11826
olytisch	-11827
opharynx	-11828
ovendien	-11829
ransthor	-11830
romatose	-11831
uiteinde	-11832
voorwand	-11833
▁Barthol	-11834
▁Chirurg	-11835
▁Diffuus	-11836
▁Gedacht	-11837
▁Infiltr	-11838
▁Lymfoom	-11839
▁accumin	-11840
▁antrale	-11841
▁bowenoA	-11842
▁celblok	-11843
▁congest	-11844
▁contral	-11845
▁gebouwd	-11846
▁geident	-11847
▁gekleur	-11848
▁gepunch	-11849
▁larynge	-11850
▁meegere	-11851
▁plaatsv	-11852
▁schacht	-11853
▁subling	-11854
▁tezamen	-11855
Consensus	-11856
beginnend	-11857
biopteren	-11858
bovenbuik	-11859
classific	-11860
ermammair	-11861
erytrocyt	-11862
markering	-11863
omyositis	-11864
oradische	-11865
ralisklep	-11866
relevante	-11867
▁Grootste	-11868
▁Reductie	-11869
▁agarcyto	-11870
▁daardoor	-11871
▁dichtbij	-11872
▁gestuwde	-11873
▁intralum	-11874
▁morphaea	-11875
▁opwerken	-11876
▁paragang	-11877
▁paratrab	-11878
▁periduct	-11879
▁redelijk	-11880
▁signalen	-11881
▁stervorm	-11882
▁tatoeage	-11883
Bespreking	-11884
actinische	-11885
cellularis	-11886
hepatische	-11887
inusoidale	-11888
itbreiding	-11889
kristallen	-11890
leucocyten	-11891
moleculair	-11892
vitaliteit	-11893
▁Buikvocht	-11894
▁aangedaan	-11895
▁aggregaat	-11896
▁alveolair	-11897
▁cetuximab	-11898
▁congorood	-11899
▁criterium	-11900
▁elementen	-11901
▁gemiddeld	-11902
▁gevraagde	-11903
▁glycogene	-11904
▁hemorroid	-11905
▁hydrolyse	-11906
▁identieke	-11907
▁inactieve	-11908
▁lepidisch	-11909
▁medullair	-11910
▁middenoor	-11911
▁neurogene	-11912
▁neusholte	-11913
▁productie	-11914
▁screening	-11915
▁segmenten	-11916
▁stromacel	-11917
▁tonsillen	-11918
▁verwijzen	-11919
▁verwissel	-11920
▁voorzover	-11921
aankleuring	-11922
autoriseerd	-11923
bovenooglid	-11924
ediastinale	-11925
haveexcisie	-11926
methylering	-11927
roscopische	-11928
wangerschap	-11929
▁Breuninger	-11930
▁Concordant	-11931
▁aanmerking	-11932
▁auriculair	-11933
▁carcinomen	-11934
▁celgroepje	-11935
▁dunwandige	-11936
▁essentiele	-11937
▁follicular	-11938
▁glandulair	-11939
▁hypoplasie	-11940
▁maagfundus	-11941
▁mycobacter	-11942
▁piriformis	-11943
▁slijmbeker	-11944
▁tepelvocht	-11945
▁ulceratief	-11946
▁ulceraties	-11947
▁vervaardig	-11948
Excisiebiopt	-11949
acuumbiopten	-11950
geassocieerd	-11951
kleincellige	-11952
ycobacterium	-11953
▁Flegmoneuze	-11954
▁Goedaardige	-11955
▁Intestinale	-11956
▁aspergillus	-11957
▁cystectomie	-11958
▁endometrioA	-11959
▁geprikkelde	-11960
▁hersentumor	-11961
▁huidadnexen	-11962
▁intensiteit	-11963
▁midfrontaal	-11964
▁transmuraal	-11965
▁uitgevoerde	-11966
▁vaattoename	-11967
▁verbrokkeld	-11968
atheroomcyste	-11969
calcificaties	-11970
radiologische	-11971
ranscervicale	-11972
▁aangrenzende	-11973
▁adenomatoide	-11974
▁cystevorming	-11975
▁doodsoorzaak	-11976
▁gevoeligheid	-11977
▁korstvorming	-11978
▁myeloblasten	-11979
▁plasmocytoom	-11980
▁subcapsulair	-11981
▁verhevenheid	-11982
▁volledigheid	-11983
dermatofibroom	-11984
eefselfragment	-11985
microglobuline	-11986
representatief	-11987
▁Colonresectie	-11988
▁erythemateuze	-11989
▁heldercellige	-11990
▁ijzerkleuring	-11991
▁mammaprothese	-11992
▁mitosefiguren	-11993
▁necrotiserend	-11994
▁parapsoriasis	-11995
▁reconstructie	-11996
▁schimmeldraad	-11997
▁uterussegment	-11998
▁virusinfectie	-11999
odifferentiatie	-12000
▁Bladderwashout	-12001
▁arterioveneuze	-12002
▁biopsietraject	-12003
▁coronairarteri	-12004
▁craniolateraal	-12005
▁decidualisatie	-12006
▁lymfoidweefsel	-12007
▁papillomatosis	-12008
▁peribronchiale	-12009
▁rechterovarium	-12010
▁tonsillectomie	-12011
epithelialisatie	-12012
eritoneumbiopten	-12013
▁diagnosticeerde	-12014
▁fibroglandulair	-12015
▁geidentificeerd	-12016
▁microbiologisch	-12017
▁thyreoidectomie	-12018
▁verlittekenende	-12019
Ep	-12020
FE	-12021
HG	-12022
bb	-12023
lg	-12024
.00	-12025
1-2	-12026
200	-12027
21.	-12028
210	-12029
212	-12030
CHI	-12031
FIL	-12032
GCL	-12033
IGH	-12034
IgG	-12035
RDI	-12036
Ref	-12037
ano	-12038
auw	-12039
ets	-12040
fil	-12041
inn	-12042
myc	-12043
nav	-12044
nix	-12045
nod	-12046
off	-12047
ohn	-12048
sed	-12049
▁AB	-12050
▁AR	-12051
▁ef	-12052
▁oa	-12053
-002	-12054
-1.[	-12055
0.2:	-12056
1-10	-12057
10).	-12058
2021	-12059
ICRI	-12060
agni	-12061
arty	-12062
aser	-12063
bele	-12064
clat	-12065
cula	-12066
hcet	-12067
ijkt	-12068
ilex	-12069
iloc	-12070
imit	-12071
ines	-12072
lect	-12073
milt	-12074
nefr	-12075
nkte	-12076
plex	-12077
psie	-12078
sarc	-12079
sing	-12080
uale	-12081
uime	-12082
utie	-12083
zame	-12084
▁20,	-12085
▁21:	-12086
▁DER	-12087
▁ECL	-12088
▁GCB	-12089
▁Lam	-12090
▁Res	-12091
▁Ret	-12092
▁ble	-12093
▁cap	-12094
▁fil	-12095
▁mgl	-12096
▁umc	-12097
▁wen	-12098
20-02	-12099
21-22	-12100
Adnex	-12101
ERIBR	-12102
aline	-12103
alpab	-12104
arker	-12105
atuur	-12106
erfde	-12107
focus	-12108
ikaal	-12109
jicht	-12110
kraam	-12111
meest	-12112
minus	-12113
neuro	-12114
nieuw	-12115
ocran	-12116
ologe	-12117
ondyl	-12118
ontst	-12119
param	-12120
ragus	-12121
reert	-12122
rinec	-12123
tepel	-12124
tring	-12125
vezel	-12126
vrije	-12127
ymmet	-12128
zowel	-12129
▁Clin	-12130
▁Lung	-12131
▁abru	-12132
▁baat	-12133
▁cast	-12134
▁echt	-12135
▁kant	-12136
▁prec	-12137
▁temp	-12138
▁toen	-12139
-01-21	-12140
-10-20	-12141
-11-20	-12142
-2-201	-12143
-2021,	-12144
CHIALE	-12145
centra	-12146
cysten	-12147
eerder	-12148
ellair	-12149
ermate	-12150
icolon	-12151
iferum	-12152
iliair	-12153
inderd	-12154
iteria	-12155
klierb	-12156
kopafw	-12157
leerde	-12158
omisch	-12159
onodig	-12160
ostoma	-12161
pakket	-12162
plasma	-12163
punten	-12164
secret	-12165
sigmoA	-12166
slecht	-12167
target	-12168
tubulo	-12169
tweede	-12170
udatie	-12171
ulated	-12172
wissel	-12173
▁(1-11	-12174
▁1-2).	-12175
▁11-12	-12176
▁Coupe	-12177
▁Graad	-12178
▁Laser	-12179
▁Lupus	-12180
▁Ratio	-12181
▁breid	-12182
▁carun	-12183
▁famil	-12184
▁gefix	-12185
▁genez	-12186
▁glute	-12187
▁hydro	-12188
▁ileus	-12189
▁invol	-12190
▁plica	-12191
▁polys	-12192
▁porta	-12193
▁shock	-12194
▁vaker	-12195
-10-202	-12196
-2021.[	-12197
Ascites	-12198
Geringe	-12199
ateraal	-12200
bericht	-12201
cirrose	-12202
clatuur	-12203
deletie	-12204
eliacus	-12205
eparaat	-12206
gebiopt	-12207
gericht	-12208
geschat	-12209
gevoegd	-12210
orgagni	-12211
palatum	-12212
pecific	-12213
pontane	-12214
positie	-12215
primair	-12216
slechts	-12217
stuwing	-12218
subtype	-12219
ullaire	-12220
verband	-12221
version	-12222
zending	-12223
▁Behcet	-12224
▁Darier	-12225
▁Idylla	-12226
▁altijd	-12227
▁buisje	-12228
▁bullae	-12229
▁engere	-12230
▁falanx	-12231
▁gesamp	-12232
▁kopieA	-12233
▁liggen	-12234
▁luteum	-12235
▁merkel	-12236
▁presac	-12237
▁ronden	-12238
▁sarcoA	-12239
▁sectie	-12240
▁smalle	-12241
▁strikt	-12242
▁strips	-12243
▁uitval	-12244
▁villus	-12245
*******.	-12246
]01-10-1	-12247
]10-02-1	-12248
]10-10-1	-12249
]11-11-1	-12250
]12-12-1	-12251
axillair	-12252
ecundair	-12253
emphigus	-12254
haardjes	-12255
imentine	-12256
itspraak	-12257
junctiva	-12258
lamellen	-12259
minimaal	-12260
omediaal	-12261
oplacent	-12262
pancreas	-12263
reactief	-12264
sistente	-12265
tubulair	-12266
uidelijk	-12267
verricht	-12268
▁100.000	-12269
▁Analyse	-12270
▁Evenmin	-12271
▁Hooguit	-12272
▁basaloA	-12273
▁cohesie	-12274
▁daartoe	-12275
▁dentata	-12276
▁druppel	-12277
▁ependym	-12278
▁gekeken	-12279
▁gemerkt	-12280
▁glaasje	-12281
▁haemorr	-12282
▁lytisch	-12283
▁menstru	-12284
▁nierins	-12285
▁oxyuren	-12286
▁portaal	-12287
▁procent	-12288
▁ritmest	-12289
▁seromuc	-12290
▁telling	-12291
▁venster	-12292
▁wederom	-12293
achterlip	-12294
afwijkend	-12295
cytoplasm	-12296
haargrens	-12297
ificerend	-12298
itiviteit	-12299
middenafw	-12300
oesofagus	-12301
otypische	-12302
prieterig	-12303
staartafw	-12304
veranderd	-12305
verspreid	-12306
▁Intracav	-12307
▁Leishman	-12308
▁analyses	-12309
▁auramine	-12310
▁basaloid	-12311
▁behorend	-12312
▁cystaden	-12313
▁erytheem	-12314
▁gebruikt	-12315
▁infundib	-12316
▁initiele	-12317
▁inzenden	-12318
▁koilocyt	-12319
▁linguaal	-12320
▁longarts	-12321
▁miskraam	-12322
▁mucosaal	-12323
▁myositis	-12324
▁ophoping	-12325
▁ovariele	-12326
▁purulent	-12327
▁response	-12328
▁schatten	-12329
▁spiercel	-12330
▁stabiele	-12331
▁stolsels	-12332
▁tamelijk	-12333
▁temidden	-12334
▁vaginaal	-12335
▁verleden	-12336
▁vertonen	-12337
eldiagnose	-12338
macrofagen	-12339
parameters	-12340
vasculitis	-12341
▁Endometri	-12342
▁aantallen	-12343
▁bioptisch	-12344
▁coeliacus	-12345
▁decompens	-12346
▁denudatie	-12347
▁enteritis	-12348
▁generatie	-12349
▁gestation	-12350
▁hartfalen	-12351
▁immuunfen	-12352
▁linkerbil	-12353
▁onderbouw	-12354
▁opbrengst	-12355
▁overgroei	-12356
▁recurrent	-12357
▁schatting	-12358
▁synovitis	-12359
▁wenselijk	-12360
Beoordeling	-12361
Cervixbiopt	-12362
afhankelijk	-12363
bindweefsel	-12364
diagnostiek	-12365
ethylationE	-12366
lymfklieren	-12367
nefropathie	-12368
omenclatuur	-12369
onvoldoende	-12370
ranslocatie	-12371
satellieten	-12372
▁Fragmentje	-12373
▁Histologie	-12374
▁accessoire	-12375
▁calcinosis	-12376
▁celtelling	-12377
▁commissura	-12378
▁ductulaire	-12379
▁entiteiten	-12380
▁farynxboog	-12381
▁gemarkeerd	-12382
▁geserreerd	-12383
▁kernatypie	-12384
▁laesionale	-12385
▁linkerbeen	-12386
▁papillomen	-12387
▁ribbenboog	-12388
▁sinonasaal	-12389
▁sinonasale	-12390
▁spierbiopt	-12391
▁stervormig	-12392
Concluderend	-12393
acroscopisch	-12394
eratospermie	-12395
gemethyleerd	-12396
ideroblasten	-12397
lymfocytaire	-12398
protocollair	-12399
▁Beiderzijds	-12400
▁Bindweefsel	-12401
▁Colorectaal	-12402
▁Geadviseerd	-12403
▁aanhoudende	-12404
▁achterhalen	-12405
▁aplastische	-12406
▁atrophicans	-12407
▁divertikels	-12408
▁doorgevoerd	-12409
▁enchondroom	-12410
▁ethmoidalis	-12411
▁huidweefsel	-12412
▁kolonisatie	-12413
▁midprostaat	-12414
▁monotypisch	-12415
▁ondersteund	-12416
▁ossificatie	-12417
▁paracolisch	-12418
▁predominant	-12419
▁seriecoupes	-12420
▁sinusoidale	-12421
▁weggebracht	-12422
artilagineuze	-12423
medicamenteus	-12424
rinecytologie	-12425
▁Deppreparaat	-12426
▁aankleurende	-12427
▁configuratie	-12428
▁discrepantie	-12429
▁gemacereerde	-12430
▁gereseceerde	-12431
▁interfereren	-12432
▁levercirrose	-12433
▁pancreatitis	-12434
▁papilliferum	-12435
▁plaatsvinden	-12436
▁progressieve	-12437
▁sarcomatoide	-12438
▁spierinvasie	-12439
▁tumornecrose	-12440
hypertrofische	-12441
▁infraorbitaal	-12442
▁neuroblastoom	-12443
▁overeenkomend	-12444
▁paraganglioom	-12445
duodenumbiopten	-12446
▁Gleasonpatroon	-12447
▁cylindercellen	-12448
▁eiwitexpressie	-12449
▁fibromusculair	-12450
▁maagcardiatype	-12451
▁micropapillair	-12452
▁normaalwaarden	-12453
▁thyroidectomie	-12454
▁tumorpositieve	-12455
▁weefselpijpjes	-12456
eefselfragmenten	-12457
excisiepreparaat	-12458
volumepercentage	-12459
▁Cervixuitstrijk	-12460
▁allelspecifieke	-12461
▁brushpreparaten	-12462
▁coronairarterie	-12463
▁cytodiagnostiek	-12464
▁hypercellulaire	-12465
▁normocellulaire	-12466
▁overgangsgebied	-12467
▁perifolliculair	-12468
▁vaatafwijkingen	-12469
▁zegelringcellen	-12470
)-	-12471
2(	-12472
::	-12473
El	-12474
aa	-12475
ba	-12476
dr	-12477
mn	-12478
rd	-12479
wn	-12480
01,	-12481
22.	-12482
22[	-12483
CBI	-12484
Hem	-12485
apt	-12486
att	-12487
bcd	-12488
bst	-12489
cil	-12490
drs	-12491
exc	-12492
geA	-12493
hym	-12494
ics	-12495
ler	-12496
lik	-12497
own	-12498
sdu	-12499
vro	-12500
yth	-12501
▁CC	-12502
▁IL	-12503
▁pH	-12504
▁vo	-12505
-111	-12506
00):	-12507
11):	-12508
12,1	-12509
Atyp	-12510
BRCA	-12511
ICER	-12512
RCLA	-12513
]2):	-12514
acuA	-12515
ance	-12516
cale	-12517
cens	-12518
chet	-12519
coop	-12520
ever	-12521
fluv	-12522
heim	-12523
keus	-12524
lcer	-12525
loss	-12526
ofys	-12527
olid	-12528
oofd	-12529
osse	-12530
reus	-12531
stof	-12532
trol	-12533
utio	-12534
ytyp	-12535
zelf	-12536
▁0,0	-12537
▁AIH	-12538
▁CHE	-12539
▁Dis	-12540
▁IRF	-12541
▁Lis	-12542
▁afg	-12543
▁akt	-12544
▁des	-12545
▁lop	-12546
▁mag	-12547
▁nos	-12548
-1).[	-12549
-12-2	-12550
21-12	-12551
22-12	-12552
22-21	-12553
22-22	-12554
Bloom	-12555
Invas	-12556
alaat	-12557
ample	-12558
aneth	-12559
aties	-12560
ature	-12561
basal	-12562
eginn	-12563
enden	-12564
ermie	-12565
ernum	-12566
genen	-12567
icusp	-12568
irena	-12569
ision	-12570
linde	-12571
mming	-12572
neder	-12573
odend	-12574
odium	-12575
omeen	-12576
orsio	-12577
riale	-12578
sched	-12579
stase	-12580
tieve	-12581
troof	-12582
varia	-12583
weekt	-12584
▁1,2:	-12585
▁11,1	-12586
▁ERCC	-12587
▁anal	-12588
▁aure	-12589
▁cava	-12590
▁dode	-12591
▁eens	-12592
▁epip	-12593
▁gele	-12594
▁geob	-12595
▁heen	-12596
▁idem	-12597
▁lact	-12598
▁leuc	-12599
▁lint	-12600
▁maal	-12601
▁muco	-12602
▁neon	-12603
▁olec	-12604
▁ontk	-12605
▁pang	-12606
▁pine	-12607
▁retr	-12608
▁sens	-12609
▁stof	-12610
▁toev	-12611
▁vals	-12612
-02-21	-12613
-10-21	-12614
0-10-1	-12615
2020:[	-12616
Andere	-12617
Rectum	-12618
anodus	-12619
auhini	-12620
cephal	-12621
cutane	-12622
elings	-12623
enomen	-12624
eronde	-12625
etumor	-12626
fundus	-12627
gehele	-12628
gering	-12629
houden	-12630
icisme	-12631
immels	-12632
lating	-12633
marges	-12634
mtrent	-12635
ohnson	-12636
oideus	-12637
ostaal	-12638
rengen	-12639
rethra	-12640
rijwel	-12641
rogene	-12642
ronend	-12643
spenis	-12644
swijze	-12645
uginea	-12646
uitges	-12647
vragen	-12648
ypeerd	-12649
▁(22-0	-12650
▁Angio	-12651
▁DICER	-12652
▁Enter	-12653
▁Gland	-12654
▁Heeft	-12655
▁Licht	-12656
▁Lijkt	-12657
▁absol	-12658
▁adeno	-12659
▁alias	-12660
▁arthr	-12661
▁break	-12662
▁draad	-12663
▁endos	-12664
▁exact	-12665
▁feite	-12666
▁koude	-12667
▁linea	-12668
▁mucin	-12669
▁multi	-12670
▁nauwe	-12671
▁nogal	-12672
▁onych	-12673
▁palma	-12674
▁progn	-12675
▁reser	-12676
▁rings	-12677
▁stomp	-12678
-12-202	-12679
-2022):	-12680
Analyse	-12681
aarding	-12682
coiling	-12683
edevlak	-12684
etische	-12685
fluvium	-12686
gemengd	-12687
geruptu	-12688
hilaire	-12689
houding	-12690
iescoup	-12691
iteiten	-12692
leteerd	-12693
luitend	-12694
ngeveer	-12695
obronch	-12696
orderde	-12697
poelsel	-12698
reeksen	-12699
rontgen	-12700
seffect	-12701
snummer	-12702
sternum	-12703
ventief	-12704
vermeld	-12705
waarbij	-12706
zijdige	-12707
▁Longen	-12708
▁advent	-12709
▁areata	-12710
▁banale	-12711
▁beduid	-12712
▁bifurc	-12713
▁breidt	-12714
▁clavus	-12715
▁clinic	-12716
▁cordis	-12717
▁cruste	-12718
▁dysmat	-12719
▁gegaan	-12720
▁gekend	-12721
▁integr	-12722
▁meatus	-12723
▁meeste	-12724
▁nesten	-12725
▁orbita	-12726
▁pieken	-12727
▁purpur	-12728
▁schouw	-12729
▁sugger	-12730
▁tradit	-12731
▁trials	-12732
▁uiting	-12733
▁vacuol	-12734
▁zwarte	-12735
]10-01-1	-12736
]20-11-1	-12737
]22-02-1	-12738
arianten	-12739
arietaal	-12740
aschrift	-12741
blastair	-12742
collagen	-12743
compleet	-12744
controle	-12745
erapieke	-12746
ernstige	-12747
gedragen	-12748
gekapsel	-12749
gevallen	-12750
ischemie	-12751
ocytemie	-12752
ogelijke	-12753
omegalie	-12754
protocol	-12755
rocheten	-12756
rosporon	-12757
urotheel	-12758
vaginale	-12759
verzicht	-12760
▁11-02-1	-12761
▁Adenoid	-12762
▁Gingiva	-12763
▁Hurthle	-12764
▁Reinkes	-12765
▁achille	-12766
▁anulare	-12767
▁artrose	-12768
▁bauhini	-12769
▁blijken	-12770
▁bovenop	-12771
▁buccaal	-12772
▁demodex	-12773
▁duidend	-12774
▁frictie	-12775
▁gemelli	-12776
▁lichter	-12777
▁lymfvat	-12778
▁neuswal	-12779
▁olecran	-12780
▁onrijpe	-12781
▁opening	-12782
▁pangast	-12783
▁pneumon	-12784
▁podocyt	-12785
▁psoriat	-12786
▁renalis	-12787
▁retrosp	-12788
▁ruimere	-12789
▁solutio	-12790
▁stadier	-12791
▁sternoc	-12792
▁telkens	-12793
▁termijn	-12794
▁therapy	-12795
▁thrombo	-12796
▁toonden	-12797
▁vervalt	-12798
▁volaire	-12799
Longbiopt	-12800
andelijke	-12801
bevestigd	-12802
chronisch	-12803
depositie	-12804
ditioneel	-12805
erdenking	-12806
erminderd	-12807
errukeuze	-12808
evalueerd	-12809
hoofdhuid	-12810
inoscopie	-12811
legmonosa	-12812
odendrogl	-12813
onbekende	-12814
orreleren	-12815
osilicose	-12816
poradisch	-12817
proximale	-12818
pulmonale	-12819
rospermie	-12820
verweging	-12821
▁Detrusor	-12822
▁Femurkop	-12823
▁Gecombin	-12824
▁cerebrum	-12825
▁combined	-12826
▁drainage	-12827
▁emfyseem	-12828
▁fibrolip	-12829
▁gebiedje	-12830
▁geboorte	-12831
▁gekweekt	-12832
▁inductie	-12833
▁isolatie	-12834
▁ligament	-12835
▁monotone	-12836
▁oncoloog	-12837
▁pendulum	-12838
▁perivasc	-12839
▁polipeus	-12840
▁reaktief	-12841
▁specific	-12842
▁stations	-12843
▁striatus	-12844
▁tumorale	-12845
▁uitgerij	-12846
▁vaginale	-12847
▁verkalkt	-12848
▁vermelde	-12849
▁vertoont	-12850
▁villeuze	-12851
▁zeldzaam	-12852
-12-2022:[	-12853
Leverbiopt	-12854
abdominaal	-12855
beschreven	-12856
bronchiaal	-12857
childwacht	-12858
fragmentje	-12859
inepigment	-12860
lichenoide	-12861
oglobuline	-12862
ostmortaal	-12863
thoraxwand	-12864
umorvolume	-12865
▁Different	-12866
▁Regressie	-12867
▁agressief	-12868
▁albuginea	-12869
▁antehelix	-12870
▁begrensde	-12871
▁cellijnen	-12872
▁cerebrale	-12873
▁commissie	-12874
▁diagnosis	-12875
▁diversion	-12876
▁effluvium	-12877
▁gastrisch	-12878
▁getypeerd	-12879
▁halsklier	-12880
▁hormonaal	-12881
▁inhibitor	-12882
▁insluiten	-12883
▁inwendige	-12884
▁loslating	-12885
▁mantelcel	-12886
▁partikels	-12887
▁periferie	-12888
▁placentad	-12889
▁pulmonaal	-12890
▁submuceus	-12891
▁urticariA	-12892
▁vasculair	-12893
▁versnelde	-12894
▁vriescoup	-12895
aanvullende	-12896
achterhoofd	-12897
betrouwbaar	-12898
gebiopteerd	-12899
lumpectomie	-12900
ogeniciteit	-12901
paramediaan	-12902
parenchymat	-12903
uitgebreide	-12904
▁Irradicaal	-12905
▁abcedering	-12906
▁aktinische	-12907
▁atroficans	-12908
▁bijdragend	-12909
▁celreeksen	-12910
▁coagulatie	-12911
▁consistent	-12912
▁cylindroom	-12913
▁fistelende	-12914
▁hemorragie	-12915
▁herhalings	-12916
▁leukocyten	-12917
▁linkerpols	-12918
▁linkervoet	-12919
▁middermale	-12920
▁okselklier	-12921
▁ontaarding	-12922
▁placentage	-12923
▁placentair	-12924
▁presacraal	-12925
▁tonsillair	-12926
▁uitwendige	-12927
▁verdikking	-12928
Leverbiopten	-12929
aneldiagnose	-12930
concentratie	-12931
endothelioom	-12932
excisiebiopt	-12933
▁Conjunctiva	-12934
▁Immunologie	-12935
▁Larynxbiopt	-12936
▁aanbeveling	-12937
▁accuminatum	-12938
▁behandelaar	-12939
▁cirrotische	-12940
▁endofytisch	-12941
▁endosalping	-12942
▁intramuraal	-12943
▁obliteratie	-12944
▁onveranderd	-12945
▁periapicaal	-12946
▁polyklonale	-12947
▁rechterbeen	-12948
▁recidiveren	-12949
▁spiradenoom	-12950
▁subserosaal	-12951
▁uitstrijken	-12952
▁vasoinvasie	-12953
arotidectomie	-12954
corpusbiopten	-12955
eldiagnostiek	-12956
macroscopisch	-12957
ormocellulair	-12958
ransthoracaal	-12959
rijgingswijze	-12960
samengestelde	-12961
▁abcesvorming	-12962
▁discordantie	-12963
▁doorgevoerde	-12964
▁ductepitheel	-12965
▁endofytische	-12966
▁epidermotrop	-12967
▁fibromatosis	-12968
▁gerangschikt	-12969
▁hyalinisatie	-12970
▁kernhoudende	-12971
▁lichteruptie	-12972
▁negativiteit	-12973
▁omentectomie	-12974
▁ontstekingsg	-12975
▁pipellebiopt	-12976
▁pretracheaal	-12977
▁retroplacent	-12978
▁samengesteld	-12979
▁trombotische	-12980
Representatief	-12981
eelingplacenta	-12982
immunoblastair	-12983
linkeronderarm	-12984
▁Deppreparaten	-12985
▁Diagnostische	-12986
▁bronchusbrush	-12987
▁choriaalplaat	-12988
▁geautoriseerd	-12989
▁gecompleteerd	-12990
▁hersenweefsel	-12991
▁inactiverende	-12992
▁preexsistente	-12993
▁pyelonefritis	-12994
▁systeemziekte	-12995
▁tegenstelling	-12996
▁transitioneel	-12997
rechterbovenarm	-12998
schildklierkwab	-12999
▁Doorsnijdingen	-13000
▁hematologische	-13001
▁hormoongebruik	-13002
▁melanomenpanel	-13003
▁nevocellularis	-13004
▁oesofagusbiopt	-13005
▁paraffinecoupe	-13006
▁pigmentverlies	-13007
▁schimmelinfect	-13008
▁trofoblastaire	-13009
▁trombusvorming	-13010
▁tubulusnecrose	-13011
▁uiteengevallen	-13012
biopsiemateriaal	-13013
oorkeursdiagnose	-13014
▁Duodenumbiopsie	-13015
▁cervixcarcinoom	-13016
▁dermatomyositis	-13017
▁graderingsgroep	-13018
▁intramusculaire	-13019
▁intravasculaire	-13020
▁karakteristieke	-13021
▁koilocytotische	-13022
▁parakeratotisch	-13023
▁placentagewicht	-13024
▁stereotactische	-13025
(2	-13026
)(	-13027
-[	-13028
EF	-13029
FR	-13030
ay	-13031
kb	-13032
mp	-13033
nc	-13034
ta	-13035
.).	-13036
0)[	-13037
00[	-13038
022	-13039
0:[	-13040
11.	-13041
Asn	-13042
FIG	-13043
LCI	-13044
LEI	-13045
].[	-13046
beg	-13047
bei	-13048
dub	-13049
hea	-13050
iev	-13051
inv	-13052
lue	-13053
neg	-13054
oas	-13055
rdg	-13056
syn	-13057
vis	-13058
zym	-13059
▁Ag	-13060
▁Bi	-13061
▁FE	-13062
▁Ia	-13063
▁cf	-13064
▁dy	-13065
-012	-13066
0).[	-13067
11-1	-13068
ARAF	-13069
CALI	-13070
blij	-13071
cert	-13072
clav	-13073
eeks	-13074
ekom	-13075
erry	-13076
evid	-13077
ford	-13078
iare	-13079
igoA	-13080
ilit	-13081
imbr	-13082
meta	-13083
oxid	-13084
plen	-13085
pong	-13086
rads	-13087
ruba	-13088
term	-13089
toil	-13090
uele	-13091
ulic	-13092
vier	-13093
weld	-13094
wijl	-13095
yten	-13096
▁(0)	-13097
▁1.0	-13098
▁10.	-13099
▁20.	-13100
▁21-	-13101
▁Alk	-13102
▁Ast	-13103
▁Ber	-13104
▁CDC	-13105
▁Hen	-13106
▁bcl	-13107
▁bol	-13108
▁cav	-13109
▁cod	-13110
▁dak	-13111
▁nab	-13112
,12,1	-13113
-02-2	-13114
-2).[	-13115
20-20	-13116
20-22	-13117
BIRAD	-13118
Groot	-13119
Links	-13120
actor	-13121
adeno	-13122
alret	-13123
aposi	-13124
apsul	-13125
ashim	-13126
blain	-13127
cohol	-13128
deren	-13129
ellus	-13130
enees	-13131
erpon	-13132
etten	-13133
hrale	-13134
icell	-13135
ingeb	-13136
inine	-13137
kende	-13138
lecht	-13139
limit	-13140
maris	-13141
ocamp	-13142
odies	-13143
olare	-13144
onade	-13145
orale	-13146
ormal	-13147
rauma	-13148
repen	-13149
spees	-13150
tatie	-13151
tijen	-13152
ualis	-13153
udale	-13154
volgt	-13155
yloid	-13156
▁12,1	-13157
▁20-2	-13158
▁Aort	-13159
▁Cell	-13160
▁Endo	-13161
▁bene	-13162
▁botb	-13163
▁cons	-13164
▁deep	-13165
▁dura	-13166
▁haak	-13167
▁hemi	-13168
▁inva	-13169
▁mohs	-13170
▁open	-13171
▁pelv	-13172
▁plex	-13173
▁poli	-13174
▁pore	-13175
▁rijk	-13176
▁sana	-13177
▁sfen	-13178
▁slow	-13179
▁uren	-13180
▁vene	-13181
▁vlgs	-13182
▁ziek	-13183
duoden	-13184
eerand	-13185
ekomen	-13186
eraard	-13187
gender	-13188
lipoom	-13189
nesten	-13190
oening	-13191
ombouw	-13192
onlein	-13193
otilit	-13194
snedes	-13195
spleet	-13196
splooi	-13197
struma	-13198
sturen	-13199
tische	-13200
toilet	-13201
tolsel	-13202
udding	-13203
verall	-13204
voeren	-13205
waarin	-13206
weldam	-13207
ycline	-13208
▁(1,2,	-13209
▁Aruba	-13210
▁Hoofd	-13211
▁Regel	-13212
▁Ruime	-13213
▁begin	-13214
▁bleek	-13215
▁culic	-13216
▁falen	-13217
▁fixed	-13218
▁fraai	-13219
▁grijs	-13220
▁harde	-13221
▁inkle	-13222
▁kliev	-13223
▁kweek	-13224
▁myoma	-13225
▁opges	-13226
▁optie	-13227
▁plomp	-13228
▁polip	-13229
▁prote	-13230
▁ventr	-13231
Benigne	-13232
Interne	-13233
biliair	-13234
bulking	-13235
bulleus	-13236
clusion	-13237
ectasie	-13238
ediment	-13239
embolus	-13240
etermin	-13241
irrhose	-13242
lichaam	-13243
metting	-13244
nijrand	-13245
ollicul	-13246
onaevus	-13247
ostomie	-13248
raapsel	-13249
rerende	-13250
schikte	-13251
sziekte	-13252
ufficiA	-13253
uperpon	-13254
voorste	-13255
▁Anders	-13256
▁Barret	-13257
▁Beginn	-13258
▁Genees	-13259
▁Henoch	-13260
▁Result	-13261
▁achtig	-13262
▁arrest	-13263
▁atypia	-13264
▁cancer	-13265
▁cystes	-13266
▁dichte	-13267
▁epiplo	-13268
▁fornix	-13269
▁gecons	-13270
▁genoeg	-13271
▁hernia	-13272
▁hilair	-13273
▁hydros	-13274
▁nodaal	-13275
▁partus	-13276
▁sebace	-13277
▁suprab	-13278
▁toekom	-13279
▁torsio	-13280
▁ulnair	-13281
▁voeren	-13282
▁zinvol	-13283
Derhalve	-13284
Fragment	-13285
Invasien	-13286
]01-02-1	-13287
]10-12-1	-13288
]12-02-1	-13289
]21-01-1	-13290
]22-10-1	-13291
aanwezig	-13292
alpabele	-13293
ashimoto	-13294
complexe	-13295
eculaire	-13296
elastose	-13297
gerichte	-13298
iagnosen	-13299
inverted	-13300
obulaire	-13301
ongbiopt	-13302
oordelen	-13303
oorzover	-13304
optimaal	-13305
precieze	-13306
primaire	-13307
promotor	-13308
prothese	-13309
pvallend	-13310
tichting	-13311
ummulair	-13312
▁21-11-1	-13313
▁Ablatio	-13314
▁Immunof	-13315
▁Lentigo	-13316
▁Lymfoid	-13317
▁afsluit	-13318
▁behalve	-13319
▁bewaard	-13320
▁cystica	-13321
▁dundarm	-13322
▁eczemat	-13323
▁eruptie	-13324
▁gastric	-13325
▁glandul	-13326
▁haakjes	-13327
▁hoogtes	-13328
▁lopende	-13329
▁meestal	-13330
▁mucoide	-13331
▁nascens	-13332
▁nodulus	-13333
▁pathogn	-13334
▁periost	-13335
▁perives	-13336
▁plekken	-13337
▁product	-13338
▁reeksen	-13339
▁reserve	-13340
▁rontgen	-13341
▁spermak	-13342
▁subment	-13343
▁thyroid	-13344
▁tubulov	-13345
▁uitname	-13346
▁vlakken	-13347
Huidstans	-13348
]*******:	-13349
afbreking	-13350
apsulated	-13351
clavicula	-13352
doorgroei	-13353
erwijzing	-13354
eventueel	-13355
gepigment	-13356
ichoriale	-13357
ilateraal	-13358
nierbiopt	-13359
nverdacht	-13360
nvolledig	-13361
ometrisch	-13362
otoxische	-13363
schilfers	-13364
varianten	-13365
▁Barretts	-13366
▁Epitheel	-13367
▁Glandula	-13368
▁Laterale	-13369
▁allemaal	-13370
▁buikhuid	-13371
▁cardiaal	-13372
▁diatherm	-13373
▁doorheen	-13374
▁dystrofe	-13375
▁eccriene	-13376
▁function	-13377
▁granular	-13378
▁impetigo	-13379
▁juveniel	-13380
▁kwadrant	-13381
▁omentale	-13382
▁ongewone	-13383
▁ongewoon	-13384
▁partijen	-13385
▁stromaal	-13386
▁telogeen	-13387
▁uitgroei	-13388
▁verrucae	-13389
▁weefsels	-13390
▁zichzelf	-13391
Referentie	-13392
Richardson	-13393
aagbiopsie	-13394
allergisch	-13395
capillaire	-13396
itsluitend	-13397
morfologie	-13398
preventief	-13399
ribriforme	-13400
richomonas	-13401
villositis	-13402
ylactische	-13403
▁*******).	-13404
▁Colontype	-13405
▁Epidermis	-13406
▁Geschatte	-13407
▁abnormale	-13408
▁afgeronde	-13409
▁arteriele	-13410
▁botombouw	-13411
▁bovenrand	-13412
▁cerebraal	-13413
▁chondroid	-13414
▁codeletie	-13415
▁columnair	-13416
▁darmbiopt	-13417
▁eenzelfde	-13418
▁fibrinoid	-13419
▁formaline	-13420
▁gesampled	-13421
▁gewichten	-13422
▁interstit	-13423
▁jugularis	-13424
▁klievings	-13425
▁lesionale	-13426
▁melanofag	-13427
▁mengbeeld	-13428
▁mesangiop	-13429
▁monotypie	-13430
▁mucositis	-13431
▁nagekomen	-13432
▁neusflank	-13433
▁ontwikkel	-13434
▁overzicht	-13435
▁pustulose	-13436
▁reticulin	-13437
▁subserosa	-13438
▁uitermate	-13439
▁ulcerende	-13440
▁verrukeus	-13441
▁vetcellen	-13442
▁vruchtzak	-13443
Bevindingen	-13444
aslijmvlies	-13445
claviculair	-13446
ecrospermie	-13447
hooggradige	-13448
ligospermie	-13449
mmergebruik	-13450
ngewijzigde	-13451
otilititeit	-13452
pierweefsel	-13453
plaatselijk	-13454
pleuravocht	-13455
presternaal	-13456
ronendichte	-13457
▁Antrumtype	-13458
▁Corpustype	-13459
▁Giardiasis	-13460
▁Huidlaesie	-13461
▁Incompleet	-13462
▁Leucocyten	-13463
▁Lichenoide	-13464
▁acellulair	-13465
▁afgekapsel	-13466
▁anderzijds	-13467
▁botinvasie	-13468
▁doorsnedes	-13469
▁eenduidige	-13470
▁gewijzigde	-13471
▁granulocyt	-13472
▁heterogene	-13473
▁hypofarynx	-13474
▁inklemming	-13475
▁kiemcentra	-13476
▁landelijke	-13477
▁lisnecrose	-13478
▁malignancy	-13479
▁monocytose	-13480
▁ontkalking	-13481
▁opgetreden	-13482
▁pancreatic	-13483
▁pectoralis	-13484
▁pilocytair	-13485
▁restrictie	-13486
▁stadiering	-13487
▁technische	-13488
▁tumorbodem	-13489
▁verkrijgen	-13490
▁vermelding	-13491
▁verstreken	-13492
▁zijwaartse	-13493
apsulectomie	-13494
gedetecteerd	-13495
geneesmiddel	-13496
granulocyten	-13497
isinusoidale	-13498
morfologisch	-13499
nomenclatuur	-13500
rechterzijde	-13501
rotocollaire	-13502
ysplastische	-13503
▁Azoospermie	-13504
▁Colonmucosa	-13505
▁Hematologie	-13506
▁HemithyreoA	-13507
▁abdominalis	-13508
▁actinomyces	-13509
▁beentumoren	-13510
▁blaarziekte	-13511
▁chorionitis	-13512
▁eczeembeeld	-13513
▁extramurale	-13514
▁fibrolipoom	-13515
▁geevalueerd	-13516
▁hoogdermale	-13517
▁ingeschatte	-13518
▁lymfangitis	-13519
▁preexistent	-13520
▁rechterkuit	-13521
▁rondkernige	-13522
▁suboptimale	-13523
▁subpleuraal	-13524
▁suprabasale	-13525
▁toekomstige	-13526
▁trabeculair	-13527
▁trombopenie	-13528
▁tumorstroma	-13529
▁urticarieel	-13530
▁wigexcisies	-13531
▁zenuwschede	-13532
Diagnostische	-13533
Invasieniveau	-13534
ectocervicale	-13535
geruptureerde	-13536
lowcytometrie	-13537
odendroglioom	-13538
poliepectomie	-13539
preauriculair	-13540
▁Concentratie	-13541
▁Geneesmiddel	-13542
▁achillespees	-13543
▁antilichamen	-13544
▁doelgerichte	-13545
▁endotheliale	-13546
▁enteropathie	-13547
▁fibroadipeus	-13548
▁folliculorum	-13549
▁fysiologisch	-13550
▁herbiopteren	-13551
▁naastgelegen	-13552
▁neutrofielen	-13553
▁pangastritis	-13554
▁perforerende	-13555
▁perivilleuze	-13556
▁peroperatief	-13557
▁plasmacytose	-13558
▁progestageen	-13559
▁protocollair	-13560
▁trombocytose	-13561
▁tuberculosis	-13562
Huidstansbiopt	-13563
Lymfklierbiopt	-13564
epresentatieve	-13565
proliferatieve	-13566
▁Cervixexcisie	-13567
▁Gecombineerde	-13568
▁biamniotische	-13569
▁bovengenoemde	-13570
▁cervixexcisie	-13571
▁collageenrijk	-13572
▁decompensatio	-13573
▁eerstgenoemde	-13574
▁gerangschikte	-13575
▁histochemisch	-13576
▁hoornlamellen	-13577
▁intradermalis	-13578
▁mastopathisch	-13579
▁melanoompanel	-13580
▁mesotheliomen	-13581
▁onderscheiden	-13582
▁trombocytemie	-13583
erapiekeuzetest	-13584
sneldiagnostiek	-13585
▁Asthenospermie	-13586
▁Excisiebiopten	-13587
▁Excisieweefsel	-13588
▁Granulomateuze	-13589
▁Longcarcinomen	-13590
▁buisstructuren	-13591
▁cardiomyocyten	-13592
▁contralaterale	-13593
▁endocapillaire	-13594
▁immunotypering	-13595
▁leiomyomatosis	-13596
▁lymfklierbeeld	-13597
▁maagfundustype	-13598
▁placentaresten	-13599
▁rechterhandrug	-13600
▁rechterscapula	-13601
▁tubulovilleuze	-13602
▁tumorregressie	-13603
iertransplantaat	-13604
ronenmicroscopie	-13605
tumorlokalisatie	-13606
▁Lymfeklierbiopt	-13607
▁blaasperitoneum	-13608
▁ileocoecaalhoek	-13609
▁intervillositis	-13610
▁melaninepigment	-13611
▁rabdomyosarcoom	-13612
▁semenparameters	-13613
▁spermakwaliteit	-13614
▁xanthogranuloom	-13615
Ev	-13616
no	-13617
tD	-13618
yo	-13619
*)[	-13620
..[	-13621
00,	-13622
010	-13623
021	-13624
102	-13625
121	-13626
122	-13627
20[	-13628
21[	-13629
ARC	-13630
Bep	-13631
Gem	-13632
IAA	-13633
ILA	-13634
IgH	-13635
RGR	-13636
Ret	-13637
cfk	-13638
don	-13639
eng	-13640
fib	-13641
hyd	-13642
lei	-13643
oek	-13644
ory	-13645
osf	-13646
pec	-13647
pez	-13648
pte	-13649
tel	-13650
upl	-13651
vul	-13652
wat	-13653
yal	-13654
yng	-13655
▁ED	-13656
▁do	-13657
▁jl	-13658
▁zh	-13659
,11)	-13660
-101	-13661
....	-13662
0):[	-13663
1-22	-13664
12-2	-13665
Buik	-13666
IRAD	-13667
Risk	-13668
bijt	-13669
chae	-13670
chat	-13671
deze	-13672
duim	-13673
econ	-13674
ekwe	-13675
euro	-13676
fend	-13677
fibr	-13678
flar	-13679
glut	-13680
groe	-13681
imal	-13682
inal	-13683
irub	-13684
itst	-13685
kier	-13686
lang	-13687
leid	-13688
loop	-13689
neid	-13690
ocav	-13691
orfy	-13692
othi	-13693
past	-13694
prep	-13695
reef	-13696
reet	-13697
rode	-13698
roek	-13699
roop	-13700
sich	-13701
skin	-13702
stot	-13703
teit	-13704
true	-13705
veil	-13706
vern	-13707
vloe	-13708
ware	-13709
ziek	-13710
▁21,	-13711
▁AGE	-13712
▁HCC	-13713
▁IIA	-13714
▁IIB	-13715
▁Ing	-13716
▁Let	-13717
▁RCA	-13718
▁beg	-13719
▁cox	-13720
▁eil	-13721
▁ene	-13722
▁etc	-13723
▁lat	-13724
▁mbt	-13725
▁pin	-13726
▁pos	-13727
▁str	-13728
▁umb	-13729
▁vel	-13730
-22):	-13731
20-21	-13732
Immot	-13733
acora	-13734
allel	-13735
aneus	-13736
array	-13737
assen	-13738
atale	-13739
atiek	-13740
atten	-13741
auren	-13742
baard	-13743
beste	-13744
blaar	-13745
chron	-13746
ecret	-13747
enter	-13748
erian	-13749
erica	-13750
flard	-13751
fossa	-13752
gezet	-13753
horax	-13754
idief	-13755
iferi	-13756
illin	-13757
indle	-13758
intim	-13759
ismen	-13760
kelet	-13761
lance	-13762
lijkt	-13763
oiden	-13764
oidie	-13765
omemb	-13766
ordon	-13767
osoom	-13768
ouwde	-13769
scler	-13770
senen	-13771
small	-13772
stijg	-13773
thans	-13774
trikt	-13775
urine	-13776
utane	-13777
villi	-13778
wenen	-13779
xford	-13780
ystem	-13781
▁10):	-13782
▁Apex	-13783
▁Darm	-13784
▁Lauw	-13785
▁Leuk	-13786
▁Resp	-13787
▁Ruim	-13788
▁agar	-13789
▁body	-13790
▁cost	-13791
▁faec	-13792
▁heft	-13793
▁keer	-13794
▁koud	-13795
▁mamm	-13796
▁merk	-13797
▁moza	-13798
▁orth	-13799
▁paar	-13800
▁plot	-13801
▁tars	-13802
▁tert	-13803
▁welk	-13804
-01-20	-13805
-02-22	-13806
-12-21	-13807
-2022,	-13808
0-12,1	-13809
CERALI	-13810
Rechts	-13811
arende	-13812
[...]
