<unk>	0
<s>	0
</s>	0
[PAD]	0
[UNK]	0
[CLS]	0
[MASK]	0
[C-SEP]	0
e	-2.06539
.	-2.9574
▁	-3.23043
▁de	-3.50785
▁van	-3.66117
▁een	-3.74779
,	-4.00991
▁met	-4.04613
▁en	-4.05433
▁in	-4.15631
▁het	-4.24188
▁geen	-4.51592
▁bij	-4.6118
-	-4.74878
▁is	-5.02578
▁voor	-5.0481
▁er	-5.21123
▁op	-5.26924
cr	-5.29128
lf	-5.29981
▁werd	-5.34539
▁was	-5.64768
▁niet	-5.67931
▁beeld	-5.69377
▁rechts	-5.76156
▁obductie	-5.76895
▁links	-5.81093
▁oud	-5.85787
▁linker	-5.92349
▁na	-5.93311
▁patient	-5.93923
▁zijn	-5.96792
▁-	-6.03194
▁afwijkingen	-6.04573
cisie	-6.05166
▁aan	-6.06588
▁onderzoek	-6.07406
▁ook	-6.08646
▁overlijden	-6.08674
▁gezien	-6.09367
▁of	-6.10152
carcinoom	-6.10215
▁uitgebreide	-6.11577
▁maligniteit	-6.12176
▁rechter	-6.14835
▁passend	-6.18296
▁hart	-6.18744
▁worden	-6.19063
▁als	-6.1931
▁tot	-6.19754
▁ontsteking	-6.20047
▁deze	-6.20656
▁zonder	-6.22248
▁overleden	-6.23018
▁aanwijzingen	-6.23524
▁jaar	-6.25022
▁longen	-6.28197
▁te	-6.28379
▁aangetroffen	-6.28403
▁door	-6.29407
▁man	-6.29625
▁geworden	-6.32749
▁kan	-6.37687
▁lever	-6.38284
▁dit	-6.41353
▁tekenen	-6.43621
▁wordt	-6.46773
▁betreft	-6.4701
▁cm	-6.48294
▁gevonden	-6.49452
▁mogelijk	-6.53696
▁microscopisch	-6.53851
▁i	-6.54961
▁t	-6.6107
▁geringe	-6.62406
▁huide	-6.6256
▁die	-6.63096
▁vrouw	-6.63914
▁ventrikel	-6.67405
▁gram	-6.67516
▁tevens	-6.69277
▁waarschijnlijk	-6.69908
▁veranderingen	-6.71939
▁status	-6.74506
▁basis	-6.74534
▁tumor	-6.75164
▁adenocarcinoom	-6.75416
▁waren	-6.75513
▁zeer	-6.7882
▁basaalcel	-6.79218
▁onder	-6.80053
▁werden	-6.8014
▁bekend	-6.81768
▁sprake	-6.81898
▁atherosclerose	-6.82477
▁zie	-6.82565
▁acute	-6.82952
▁dysplasie	-6.83982
▁aorta	-6.86043
▁ernstige	-6.86992
▁vrij	-6.87083
▁chronische	-6.88482
▁toonde	-6.88864
s	-6.89046
▁waarbij	-6.90002
▁goed	-6.9005
▁pneumonie	-6.90553
▁dat	-6.90628
▁huidbiopt	-6.91559
▁ter	-6.93429
▁epicrise	-6.94684
v	-6.95702
jarige	-6.96251
▁verder	-6.97898
▁sepsis	-6.98415
▁opgenomen	-6.98449
▁bevindingen	-6.98967
▁long	-6.99098
en	-6.9914
▁toont	-7.01269
▁milt	-7.01546
▁klinisch	-7.03024
▁beiderzijds	-7.0322
d	-7.03436
▁naar	-7.05292
▁enkele	-7.06841
▁biopten	-7.08694
▁bloeding	-7.08981
▁infarct	-7.09577
▁recente	-7.10399
▁beide	-7.10585
▁myocardinfarct	-7.10917
▁bronchopneumoni	-7.11287
▁kunnen	-7.13003
▁passen	-7.13739
▁huid	-7.14003
gedifferentieerd	-7.1461
▁ten	-7.16109
▁nieren	-7.16205
▁stuwing	-7.16544
▁uit	-7.16744
isch	-7.18393
▁myocard	-7.18601
▁dagen	-7.18808
▁carcinoom	-7.19111
▁volgt	-7.20192
▁gevolg	-7.20487
▁conclusie	-7.20754
▁aanwezig	-7.20781
▁hersenen	-7.2143
▁echter	-7.22886
▁verricht	-7.23674
▁nog	-7.24067
▁waarin	-7.24184
▁name	-7.24319
voorgeschiedenis	-7.24736
▁biopt	-7.25202
▁deels	-7.25776
▁wel	-7.26774
▁heeft	-7.27673
▁materiaal	-7.27943
▁a	-7.28367
▁weken	-7.29679
▁kleine	-7.31153
▁patiente	-7.33032
▁actieve	-7.33675
▁ii	-7.3458
t	-7.36723
▁waarvoor	-7.37581
ii	-7.37972
▁focaal	-7.38443
▁matig	-7.38515
▁infarcering	-7.38564
a	-7.3956
▁maar	-7.39887
▁type	-7.40412
▁aanvullend	-7.42035
▁insufficientie	-7.42552
▁uitgebreid	-7.42869
▁ischemie	-7.42926
▁mm	-7.43061
▁fibrose	-7.43183
▁sterk	-7.4424
▁verwijderd	-7.44409
▁colon	-7.44528
▁wat	-7.4455
▁prostaat	-7.44586
▁duidelijke	-7.45141
▁g	-7.45232
▁oorzaak	-7.45821
▁dan	-7.46
▁cordis	-7.46506
▁verband	-7.46875
▁nier	-7.47711
▁d	-7.47948
▁grote	-7.4821
▁maag	-7.48628
▁definitieve	-7.49107
▁reactieve	-7.50658
▁recent	-7.51228
▁past	-7.52372
▁metastase	-7.52459
▁meer	-7.53186
▁lymfklier	-7.54068
▁bloed	-7.54259
▁lokalisatie	-7.5467
▁verklaren	-7.55083
▁naevus	-7.55243
▁macroscopisch	-7.55497
▁cardiale	-7.55841
▁lymfklieren	-7.56042
▁groeiend	-7.5609
▁voorts	-7.56547
▁tonen	-7.56753
▁forse	-7.57145
▁enige	-7.5725
▁dd	-7.57996
▁plaatse	-7.58164
▁klinische	-7.59116
▁zou	-7.59181
▁gevolge	-7.59425
▁diagnose	-7.59462
▁doodsoorzaak	-7.59661
▁diameter	-7.59849
▁groei	-7.60334
▁organen	-7.60732
▁matige	-7.60876
▁darm	-7.61028
▁metastasen	-7.61307
▁hebben	-7.62268
▁hypertrofie	-7.62363
▁hypertensie	-7.62789
▁normaal	-7.63209
▁nodulair	-7.6366
▁daarnaast	-7.64291
▁plaveiselcel	-7.64424
▁decompensatio	-7.6517
▁negatief	-7.65294
▁gr	-7.65328
▁pleuravocht	-7.65696
▁dood	-7.66109
▁c	-7.66264
▁histologisch	-7.66275
▁uur	-7.67006
▁bleek	-7.6731
▁overleed	-7.67648
▁reanimatie	-7.68762
▁shock	-7.68784
▁laesie	-7.69068
▁acuut	-7.69284
▁mamma	-7.6939
▁zij	-7.69478
▁arteria	-7.70614
m	-7.7101
▁oedeem	-7.72015
▁hij	-7.72018
▁aanvulling	-7.72784
▁microscopie	-7.7406
▁aneurysma	-7.7554
▁conform	-7.75563
▁andere	-7.76763
▁coronairscleros	-7.77069
▁respiratoire	-7.77262
▁overige	-7.77281
▁achterwand	-7.77321
▁ischaemie	-7.77871
▁bericht	-7.79811
▁aangetoond	-7.80294
▁dunne	-7.8056
n	-7.80677
▁gewicht	-7.81012
▁b	-7.82211
▁coronair	-7.8262
▁over	-7.83967
▁groot	-7.83997
▁ontstaan	-7.84255
▁aanwezigheid	-7.84571
aanvulling	-7.84668
▁meerdere	-7.84704
▁pancreas	-7.85379
▁klein	-7.8545
▁zich	-7.85794
▁kader	-7.85959
▁multipele	-7.86086
▁alle	-7.8647
▁hier	-7.86521
▁positief	-7.86573
▁maligne	-7.86922
▁dag	-7.87544
▁beenmerg	-7.87561
▁vermoedelijk	-7.87563
le	-7.87802
▁necrose	-7.88167
▁welke	-7.88872
▁opname	-7.89575
g	-7.91779
▁endometrium	-7.92332
▁toonden	-7.92628
▁zowel	-7.92628
▁resectie	-7.92911
▁intra	-7.93678
▁verdenking	-7.9418
▁aspiratie	-7.95338
gewicht	-7.95458
▁stenose	-7.95862
▁lad	-7.96174
▁diffuse	-7.96181
▁wegens	-7.96245
▁graad	-7.96259
▁atypie	-7.96327
▁verruca	-7.96651
▁ca	-7.96855
▁metaplasie	-7.97241
▁afwijking	-7.97434
▁zien	-7.98018
▁meest	-7.98676
▁placenta	-7.99096
▁geheel	-7.99278
▁jarige	-7.99953
▁combinatie	-7.99994
▁infectie	-8.00431
▁hyperplasie	-8.0121
▁slijmvlies	-8.01646
▁lymfoom	-8.01902
▁veel	-8.02076
▁twee	-8.02351
▁gegeneraliseerd	-8.0255
▁hierbij	-8.0302
▁onderkwab	-8.03095
▁had	-8.03343
▁longoedeem	-8.03468
▁kenmerken	-8.03846
▁foetus	-8.03926
▁hetgeen	-8.0463
▁naevocellularis	-8.04667
▁slecht	-8.05135
b	-8.05144
▁bevestigd	-8.05389
▁al	-8.0643
▁vaten	-8.06488
▁sterke	-8.06913
biopten	-8.07594
▁eerder	-8.0764
▁rug	-8.07688
▁linkerventrikel	-8.07693
▁ernstig	-8.08134
hypertrofie	-8.08171
▁peritonitis	-8.08596
▁uiteindelijk	-8.08707
▁s	-8.08878
▁verklaard	-8.09242
▁chronisch	-8.09804
▁pro	-8.10044
▁geweest	-8.10053
▁beginnende	-8.11008
▁situ	-8.11313
▁duidelijk	-8.11537
▁onvoldoende	-8.11907
▁geleid	-8.12603
▁reeds	-8.12735
▁weinig	-8.12932
▁vastgesteld	-8.13423
▁seborrhoica	-8.13574
▁gemetastaseerd	-8.14111
▁lijkt	-8.14297
ische	-8.14324
▁iii	-8.15353
▁pathologie	-8.1565
imale	-8.15666
▁gering	-8.15682
▁schade	-8.15742
▁dilatatie	-8.15823
▁doorgemaakte	-8.16057
▁cellen	-8.16699
▁daarbij	-8.16977
▁uitslag	-8.17168
▁tijdens	-8.17514
i	-8.1764
▁gevolgen	-8.17812
▁uitgesloten	-8.17912
▁adenoom	-8.18164
▁waarna	-8.18364
▁morbus	-8.18673
▁kon	-8.18884
▁ischemische	-8.19014
▁om	-8.19388
▁pla	-8.19421
▁uitbreiding	-8.19859
▁pulmonale	-8.20055
▁ma	-8.20872
▁solide	-8.20972
zie	-8.22332
▁helicobacter	-8.22793
▁ascites	-8.22963
▁weefsel	-8.23044
▁derhalve	-8.23363
▁cervi	-8.23386
▁specifieke	-8.23608
▁benigne	-8.23641
▁postmortaal	-8.24025
▁circa	-8.24502
▁intestinale	-8.24549
▁we	-8.24933
▁oesophagus	-8.25194
▁betrof	-8.25299
▁dermale	-8.25683
▁buik	-8.26005
▁behandeling	-8.26028
c	-8.26162
▁gebied	-8.26575
▁congenitale	-8.26654
▁uterus	-8.2667
▁boven	-8.26687
▁gedilateerd	-8.27088
▁blaas	-8.27186
ie	-8.27257
▁aspect	-8.28288
▁poliep	-8.28324
▁wand	-8.28788
▁zoals	-8.28814
▁perforatie	-8.29384
▁superficieel	-8.2959
▁hoogte	-8.29772
▁duodenum	-8.29914
▁thora	-8.30216
▁plaatselijk	-8.30364
▁neuropatholog	-8.30601
▁verslag	-8.30999
▁schildklier	-8.31334
▁hypo	-8.3183
▁fors	-8.3212
▁massale	-8.32222
▁u	-8.32248
▁atrofie	-8.32333
▁ongeveer	-8.32476
▁septum	-8.32626
▁p	-8.3294
▁evidente	-8.33547
▁pa	-8.33564
▁waarvan	-8.33658
▁bestaande	-8.33833
▁hals	-8.34099
▁litteken	-8.34329
▁n	-8.34406
geen	-8.34914
insufficientie	-8.3506
▁verklaring	-8.35269
▁minder	-8.35655
▁deel	-8.35723
▁o	-8.36628
▁gelegen	-8.36892
▁radicaal	-8.38122
▁cc	-8.38188
▁naast	-8.39194
▁copd	-8.39413
▁focus	-8.39566
▁hartfalen	-8.39674
▁rest	-8.397
▁rond	-8.39736
▁bovenkwab	-8.39959
▁diffuus	-8.40206
▁tussen	-8.40228
us	-8.40376
▁primaire	-8.40594
▁atherosclerot	-8.40879
▁pre	-8.40889
▁langer	-8.41096
▁m	-8.41515
▁hypertrofisch	-8.4218
▁primair	-8.42501
▁vocht	-8.42671
▁longembolieen	-8.42722
▁doorgankelijk	-8.42831
▁overwogen	-8.42974
▁cyste	-8.43119
▁bijzonderheden	-8.43549
▁sigmoid	-8.4388
▁gedacht	-8.44023
in	-8.44233
▁galblaas	-8.44625
▁atypische	-8.44754
▁bloedingen	-8.44887
▁reikend	-8.44981
▁licht	-8.45159
▁steatose	-8.45262
▁sinds	-8.45321
▁consult	-8.4584
▁syndroom	-8.46047
▁zal	-8.46723
▁wij	-8.46922
▁veroorzaakt	-8.47229
▁cardiomyopathie	-8.47681
▁hiervan	-8.4857
▁z	-8.48774
▁verspreid	-8.4901
▁verdacht	-8.49094
▁ontwikkelde	-8.49467
▁keratose	-8.5018
▁pylori	-8.50603
▁septische	-8.50756
▁coupes	-8.51088
▁diabetes	-8.51269
▁normale	-8.5129
▁abdominale	-8.51833
▁proces	-8.52147
▁punctie	-8.52765
▁delen	-8.52961
▁cabg	-8.52993
▁to	-8.53239
▁sclerose	-8.53282
▁sectie	-8.53297
▁falen	-8.53744
▁operatie	-8.53791
▁pleura	-8.54142
▁tractus	-8.54261
▁epitheel	-8.54327
▁definitief	-8.54498
▁ascendens	-8.54555
iii	-8.55007
▁carcinomatosa	-8.5542
▁voorwand	-8.55497
▁ischaemische	-8.55503
▁ruptuur	-8.55527
▁aortaklep	-8.55892
▁drie	-8.55998
▁inwendig	-8.56004
▁revisie	-8.56106
▁multi	-8.56123
▁beleid	-8.56188
▁alsmede	-8.56198
▁gecompliceerd	-8.5638
▁opgetreden	-8.56428
stoornissen	-8.5662
▁slechts	-8.56905
▁vetweefsel	-8.57026
▁samenvattend	-8.5707
▁thrombus	-8.57319
▁rectum	-8.57757
▁eerste	-8.57966
▁ml	-8.57986
▁gegevens	-8.58722
▁elders	-8.58805
▁differentiaal	-8.58818
▁longembolie	-8.58845
▁week	-8.5886
▁grootcellig	-8.59131
imaal	-8.59865
▁kleuring	-8.60235
▁coronairarterie	-8.60411
▁dissectie	-8.60483
▁moet	-8.60624
▁pancreatitis	-8.60634
▁aantoonbaar	-8.60869
▁maanden	-8.60969
r	-8.61612
▁micro	-8.61619
▁component	-8.61716
▁eveneens	-8.61758
▁gehele	-8.61826
▁cardiaal	-8.62051
▁l	-8.62197
▁invasieve	-8.62402
▁onderbeen	-8.62513
▁vanwege	-8.62561
▁laaggradige	-8.6343
▁diagnostisch	-8.6346
▁actinisch	-8.63626
▁nader	-8.63974
▁arterie	-8.6404
▁v	-8.64117
▁kleincellig	-8.64538
▁zijde	-8.64819
▁secundair	-8.65117
▁distale	-8.6527
▁papillair	-8.65273
▁hoog	-8.65295
▁volledig	-8.65434
▁snijvlakken	-8.65935
▁haarden	-8.66011
▁argumenten	-8.66058
▁vergroot	-8.6607
▁interstitiele	-8.66125
▁granulocyten	-8.66226
▁abdominalis	-8.66485
▁colitis	-8.66548
▁infarcten	-8.66772
▁emfyseem	-8.66991
▁concluderend	-8.66993
▁melanoom	-8.67142
▁marge	-8.67634
▁voorkeur	-8.68249
coronairarterien	-8.68262
▁ramus	-8.68415
▁mutatie	-8.68852
▁ulcus	-8.6922
▁recidief	-8.69264
▁ondanks	-8.69334
▁descendens	-8.6935
▁metastasering	-8.69625
▁re	-8.69829
▁wang	-8.69842
▁morfologisch	-8.70378
▁behouden	-8.70669
▁afwijkend	-8.71046
▁corpus	-8.71109
▁infiltrerend	-8.71142
▁sprieterig	-8.71219
▁toestemming	-8.71314
▁analyse	-8.7137
▁terminale	-8.71399
▁urine	-8.71615
▁mellitus	-8.71621
wangerschapsduur	-8.71738
▁causa	-8.72149
▁afkomstig	-8.72255
▁liter	-8.72392
▁uitgesproken	-8.72592
▁toename	-8.72594
▁nummer	-8.72762
▁lichte	-8.73241
de	-8.73345
▁basale	-8.73437
▁lumen	-8.73636
▁toch	-8.73829
▁tubulair	-8.74171
▁urotheelcel	-8.74184
▁weke	-8.74196
▁behandeld	-8.74419
▁vrijwel	-8.74456
on	-8.74568
▁beoordelen	-8.74812
▁bijnieren	-8.74841
▁stent	-8.75006
▁bilaterale	-8.75136
p	-8.7514
▁localisatie	-8.75215
▁hersenobductie	-8.75343
h	-8.75376
▁uitwendig	-8.75436
▁iv	-8.75465
▁opvallend	-8.75473
▁voorlopige	-8.75553
▁hoeveelheid	-8.75616
▁gestuwd	-8.75699
▁immuunhistochem	-8.75907
▁diagnostiek	-8.75937
▁digestivus	-8.76081
▁afsluiting	-8.7624
▁mortis	-8.76296
▁vorm	-8.76963
▁coronairen	-8.77081
▁plotseling	-8.77134
▁bekende	-8.77146
▁snijvlak	-8.77352
▁doch	-8.77722
al	-8.7775
▁her	-8.78253
▁ductaal	-8.78372
▁dyspnoe	-8.78533
▁perineurale	-8.79555
▁alveolaire	-8.7958
▁ldh	-8.79864
▁oppervlakkig	-8.80478
▁leeftijd	-8.80587
▁kort	-8.80681
▁ct	-8.80767
▁mammacarcinoom	-8.80865
▁zekerheid	-8.80965
▁eerdere	-8.80967
▁centraal	-8.81215
tirpatie	-8.81322
▁rca	-8.81458
▁best	-8.81966
▁later	-8.82096
▁arterien	-8.82243
▁distaal	-8.8233
▁samen	-8.82355
▁lateraal	-8.82675
▁temporaal	-8.82801
▁minimale	-8.83128
links	-8.833
▁blijkt	-8.83936
▁positieve	-8.84266
▁enig	-8.84678
l	-8.84713
▁ziekte	-8.84744
▁zeker	-8.84781
▁snede	-8.85008
▁necrotiserende	-8.85029
▁volgens	-8.85053
▁helder	-8.85179
▁aanvullende	-8.85286
▁schouwing	-8.85336
▁verhoogd	-8.85364
▁voorhoofd	-8.8599
▁pijn	-8.86264
▁gebieden	-8.86299
▁bovenstaande	-8.86304
▁vena	-8.86351
▁nieuwe	-8.86441
▁post	-8.8688
▁resectievlak	-8.86948
▁bovenbeen	-8.86982
▁waardoor	-8.87228
▁mediastinum	-8.87515
▁antrum	-8.87527
▁bijnier	-8.87569
▁samengestelde	-8.87603
wel	-8.87603
▁myocarditis	-8.87667
▁non	-8.87885
▁doorgroei	-8.87951
ues	-8.88673
▁zijwand	-8.88825
▁pulmonalis	-8.88838
▁reikt	-8.89249
▁darmen	-8.89821
▁daar	-8.89842
▁mannelijke	-8.89933
▁buikholte	-8.90186
▁pericard	-8.90478
▁trachea	-8.90922
▁bestond	-8.91152
▁koorts	-8.91553
ritmestoornissen	-8.91973
▁endocarditis	-8.92204
▁inklemming	-8.92368
▁hpv	-8.92373
arterioloscleros	-8.92406
▁pericarditis	-8.92705
▁anatomische	-8.92719
▁aanwijzing	-8.92731
▁lichaamsobducti	-8.92991
▁opvallende	-8.93152
▁beschreven	-8.93531
▁eventuele	-8.9368
▁hierin	-8.93877
diameter	-8.94002
▁hiervoor	-8.9404
▁specifiek	-8.94166
▁oesofagus	-8.94408
▁borst	-8.94478
▁ileum	-8.94562
er	-8.94744
▁rondom	-8.94747
▁cerebellum	-8.94757
cholecystectomie	-8.94804
▁trombus	-8.94971
▁circumfl	-8.95214
▁ulceratie	-8.95395
▁autolyse	-8.95496
▁oudere	-8.95576
▁slechte	-8.95726
▁schedelobductie	-8.9578
▁significante	-8.95976
▁klachten	-8.96258
▁cerebrale	-8.96277
▁purulente	-8.96602
▁h	-8.96642
▁kweken	-8.97051
▁progressieve	-8.97134
▁laterale	-8.97135
pneumonie	-8.97163
▁ruim	-8.97659
▁abdomen	-8.97863
▁pathologisch	-8.97905
▁totale	-8.98023
▁cd	-8.98263
▁dikke	-8.98335
▁decompensatie	-8.98809
▁gemacereerde	-8.98875
▁plaats	-8.99107
▁therapie	-8.99346
tra	-8.99489
▁doorgemaakt	-8.99585
▁invasief	-8.99872
thora	-9.00457
▁reactief	-9.00556
▁veneuze	-9.00664
▁laatste	-9.01067
▁beloop	-9.01167
▁bodem	-9.01171
▁vermeld	-9.01233
▁abstinerend	-9.01388
▁tenminste	-9.01469
▁iliaca	-9.01492
▁longcarcinoom	-9.01935
▁ards	-9.02035
▁vaatlijden	-9.0211
▁mate	-9.02183
▁biopsie	-9.02394
▁kweek	-9.02531
▁iets	-9.02545
▁vooral	-9.02944
cm	-9.03036
atie	-9.03192
slijmvlies	-9.03284
▁afwezig	-9.03728
▁hoe	-9.03736
▁para	-9.03749
▁coronairlijden	-9.03754
▁vergrote	-9.03756
▁verse	-9.03928
▁pt	-9.04343
▁jaren	-9.04754
▁resectievlakken	-9.0479
neu	-9.04818
▁frontaal	-9.05001
▁toto	-9.05013
▁schouder	-9.05213
▁overigens	-9.05435
▁ileus	-9.05533
▁hematoom	-9.05719
▁zwaar	-9.0577
▁cerebrum	-9.05889
▁totaal	-9.05925
biopt	-9.06001
▁maagslijmvlies	-9.06006
▁adne	-9.06225
▁cva	-9.06301
▁vrouwelijke	-9.06398
▁obstructie	-9.06859
▁ovarium	-9.06883
▁organiserende	-9.06897
▁mede	-9.07002
met	-9.07534
▁oppervlakkige	-9.07639
▁proliferatie	-9.08055
▁score	-9.08443
▁overtuigende	-9.08603
▁bijgedragen	-9.09024
▁ritmestoornis	-9.09208
▁dermatitis	-9.09351
▁geven	-9.09432
▁keratosis	-9.09597
▁chemotherapie	-9.09873
▁ontvangt	-9.10224
▁infiltratie	-9.10413
▁infarceringen	-9.10427
▁toestand	-9.1085
▁uitwendige	-9.11175
▁bijkomende	-9.11327
▁perifeer	-9.11723
f	-9.11767
▁inderdaad	-9.11876
▁colonslijmvlies	-9.11902
▁overwegend	-9.11999
▁maagbiopten	-9.1214
▁coecum	-9.1273
▁immunohistochem	-9.12808
▁waar	-9.12877
▁diagnosen	-9.12916
▁bowen	-9.12966
▁occlusie	-9.13179
▁algehele	-9.13218
▁beoordeling	-9.13239
heid	-9.1339
uteriene	-9.13583
▁geduid	-9.13603
▁voornamelijk	-9.13834
▁ik	-9.13866
▁eventueel	-9.13899
▁intact	-9.14128
▁verklaart	-9.14407
▁bespreking	-9.14444
ze	-9.14523
▁gleason	-9.14671
▁moleculaire	-9.14672
▁cytologisch	-9.14701
▁onderarm	-9.14724
bij	-9.14777
▁hoge	-9.14785
▁diverse	-9.14901
▁postoperatief	-9.14978
▁ingroei	-9.15346
▁schedelsectie	-9.15381
▁abcederende	-9.15418
▁neus	-9.15487
▁overleg	-9.15671
▁vast	-9.15792
▁nevenbevinding	-9.15864
▁kreeg	-9.15875
▁hypertroof	-9.1669
▁thoracale	-9.16715
▁bloedverlies	-9.16757
▁anterior	-9.16931
▁danwel	-9.17007
▁infiltraat	-9.17059
▁gecontraheerd	-9.17103
ue	-9.17127
▁gegeven	-9.17251
▁vooralsnog	-9.17285
▁toenemend	-9.17392
▁aanknopingspunt	-9.1754
▁lengte	-9.17565
▁transversum	-9.1757
▁diepe	-9.17659
▁arteriosclerose	-9.17659
▁oksel	-9.17738
preparaat	-9.17746
▁reactie	-9.17974
▁separaat	-9.18007
▁vanuit	-9.18147
ste	-9.18205
▁trivasculaire	-9.18245
▁bevinding	-9.18283
o	-9.18403
▁overgang	-9.18529
cel	-9.18622
▁actinica	-9.18785
▁onderging	-9.19132
▁haar	-9.19248
▁substraat	-9.19309
▁respiratoir	-9.1944
▁dieper	-9.19516
▁antibiotica	-9.19588
▁haardvormige	-9.19628
▁ontstond	-9.1967
▁ivm	-9.19724
▁nodulaire	-9.19874
▁vruchtdood	-9.20029
▁vasculitis	-9.20075
▁amyloid	-9.20153
▁groeiwijze	-9.20185
cisiepreparaat	-9.20249
▁medisch	-9.20278
▁afdeling	-9.20474
▁fi	-9.20563
▁lichaam	-9.20611
▁beoordeelbaar	-9.207
▁plaatsen	-9.20977
▁haard	-9.2104
▁pleuritis	-9.21079
▁harttamponade	-9.21085
▁directe	-9.21138
▁tumorcellen	-9.21199
metastasen	-9.21296
▁littekenweefsel	-9.21435
▁zichtbaar	-9.2161
▁ontvangen	-9.21688
hyperplasie	-9.218
naaldbiopten	-9.21831
▁snijranden	-9.21992
▁superior	-9.22083
▁circulatie	-9.22099
▁stolsels	-9.22513
▁ontbreken	-9.22583
▁levercirrose	-9.22805
▁waarop	-9.23064
af	-9.23083
▁bovenarm	-9.23122
of	-9.23206
▁septisch	-9.2338
▁focale	-9.23815
▁achteruitgang	-9.23899
▁mitralisklep	-9.24092
▁parenchym	-9.24124
▁failure	-9.24316
▁beperkte	-9.24376
▁macroscopie	-9.24698
resectie	-9.24815
materiaal	-9.24884
▁longstuwing	-9.2502
▁verleden	-9.25062
▁media	-9.25178
▁prostaatbiopten	-9.25226
▁carcinoma	-9.25268
▁ons	-9.25302
▁maturatie	-9.25559
▁hemorragische	-9.25619
▁wervelkolom	-9.25689
▁appendectomie	-9.25753
▁laat	-9.2591
▁zekere	-9.26169
▁tijd	-9.2618
▁kleuringen	-9.26189
▁oppervlak	-9.26192
▁origine	-9.26316
▁gedilateerde	-9.26487
▁asystolie	-9.26607
▁hersenstam	-9.26743
▁cin	-9.2686
▁perifere	-9.26896
▁zware	-9.2704
▁li	-9.27048
▁thuis	-9.2718
▁nu	-9.27186
▁prothese	-9.27224
mw	-9.27301
▁subendocardiale	-9.27405
▁midden	-9.27469
bevindingen	-9.2753
▁hoofd	-9.27562
embolieen	-9.27655
tern	-9.27724
▁diverticulitis	-9.27837
infarcering	-9.27926
orgaanfalen	-9.28089
▁gastritis	-9.2811
▁diafragma	-9.28248
▁aantal	-9.28341
▁afstand	-9.28509
▁longemfyseem	-9.28642
▁uren	-9.28812
▁granulomen	-9.28813
▁zagen	-9.28825
▁vonden	-9.28964
▁via	-9.28971
▁vers	-9.29185
▁besloten	-9.29204
▁ductus	-9.29245
het	-9.29316
▁dient	-9.29345
▁achter	-9.29405
▁open	-9.29446
▁thrombi	-9.29471
▁neutrofiele	-9.29652
▁middels	-9.29658
▁trombo	-9.30084
▁verminderde	-9.3027
▁dus	-9.30448
▁on	-9.30598
deze	-9.30703
▁gestuwde	-9.30838
▁geruptureerd	-9.30857
▁stadium	-9.30939
▁sluiten	-9.30958
▁atrium	-9.30988
▁shave	-9.31298
▁zover	-9.31558
▁leverstuwing	-9.31605
▁neuro	-9.3165
▁hooggradig	-9.31675
▁datum	-9.31848
▁eosinofiele	-9.31853
▁gaarne	-9.31858
▁melanocytair	-9.31972
aanvullend	-9.32115
▁thrombo	-9.32299
▁foci	-9.32434
▁ad	-9.32505
▁diep	-9.32508
▁corte	-9.32561
▁gekweekt	-9.32568
▁hepatitis	-9.32704
▁enkel	-9.32833
k	-9.32892
▁tweede	-9.32929
▁familie	-9.33003
▁ic	-9.33104
▁blanco	-9.33144
▁mesenterica	-9.3321
▁hartinfarct	-9.33232
▁onderkwabben	-9.33385
▁mediastinale	-9.33596
▁slap	-9.33685
▁bypass	-9.33907
▁rol	-9.33946
▁hyperplastische	-9.34
glomeruloscleros	-9.34079
▁bekken	-9.3424
▁witte	-9.34259
▁trombose	-9.34412
iv	-9.34666
▁naaldbiopten	-9.34751
▁zwelling	-9.34855
▁hersensectie	-9.35461
▁lies	-9.35607
wand	-9.35741
jaar	-9.35826
▁necrotisch	-9.35883
sinfiltraat	-9.35905
▁kliniek	-9.36546
▁liet	-9.36624
▁ontkleuring	-9.3678
▁ziekenhuis	-9.37068
▁poliepectomie	-9.37103
▁been	-9.37276
▁grond	-9.37286
▁coeur	-9.37384
▁moleculair	-9.37459
▁macrofagen	-9.37714
▁darmischemie	-9.37791
▁mucosa	-9.37814
▁abces	-9.37978
▁respectievelijk	-9.37989
▁onbekend	-9.38002
▁lijden	-9.38394
▁bronchus	-9.38467
▁invasie	-9.38472
ook	-9.38827
▁geschat	-9.39028
▁daarna	-9.3915
is	-9.39242
▁relatief	-9.39305
▁zouden	-9.39331
▁per	-9.39564
▁toegenomen	-9.39921
▁aanleiding	-9.39978
▁carotis	-9.40051
ing	-9.40133
▁gevuld	-9.40443
▁thrombose	-9.40462
▁oedemateus	-9.40785
▁beperkt	-9.41
▁waargenomen	-9.41087
▁opgegeven	-9.41313
▁celbeeld	-9.41662
rechts	-9.41874
▁rechterlong	-9.41928
fibrilleren	-9.41982
▁bevestigt	-9.42204
▁suggestief	-9.42327
voor	-9.4238
▁indien	-9.42403
▁postmortale	-9.42527
▁st	-9.42565
▁hemicolectomie	-9.42641
▁granulomateuze	-9.42676
▁emfysemateuze	-9.42774
▁fragmenten	-9.42821
▁nierfunctie	-9.42979
▁omentum	-9.42979
▁gestart	-9.43011
▁celrijk	-9.43106
▁ulcererende	-9.43153
▁iuvd	-9.43256
▁partiele	-9.43265
▁hersenonderzoek	-9.43412
rechterventrikel	-9.43446
▁fase	-9.43454
▁hodgkin	-9.43649
▁huidbiopsie	-9.43774
▁levercirrhose	-9.43839
▁lichen	-9.43941
▁abdominaal	-9.44101
▁ingreep	-9.4428
ma	-9.44293
▁cerebri	-9.444
▁snel	-9.44473
▁uitgevoerd	-9.44625
▁graft	-9.44664
▁zodat	-9.44957
▁appendi	-9.4501
▁kernen	-9.45169
▁eczeem	-9.45193
▁hartspier	-9.45619
▁laag	-9.4563
▁berusten	-9.45836
▁pyelonefritis	-9.4584
▁coupe	-9.45916
▁bestaan	-9.46075
▁alleen	-9.46119
▁noch	-9.46146
▁lymfocytaire	-9.46182
transplantatie	-9.46297
▁macroscopische	-9.46332
▁instantie	-9.4635
te	-9.46661
▁degeneratieve	-9.46673
▁direct	-9.46903
ontstekingsbeeld	-9.46953
▁hartkamer	-9.4698
▁onderzocht	-9.47152
▁vier	-9.47178
▁colonbiopten	-9.47857
▁retour	-9.48002
toevalsbevinding	-9.4809
▁volgen	-9.4813
▁oedemateuze	-9.48139
▁onduidelijk	-9.48279
▁systeem	-9.48335
▁procedure	-9.48395
ca	-9.48561
▁traject	-9.48609
▁richting	-9.48714
▁vet	-9.48724
▁bed	-9.48742
▁mesenterium	-9.48799
▁lichenoide	-9.48841
▁conditie	-9.49
▁coloncarcinoom	-9.49
▁doorsnede	-9.49038
▁epidermale	-9.49196
re	-9.49222
▁eosinofilie	-9.49331
▁bindweefsel	-9.49353
▁galwegen	-9.49379
▁bronchitis	-9.49413
invasieve	-9.4952
▁slokdarm	-9.4982
▁embolieen	-9.5004
▁littekens	-9.50194
▁gastro	-9.5043
▁folliculair	-9.50542
tal	-9.5056
▁hypertrofische	-9.50631
sche	-9.50706
▁maand	-9.50714
▁pr	-9.50727
▁resten	-9.50788
▁dubbelzijdige	-9.50983
▁multifocaal	-9.50989
normaal	-9.5114
laveiselepitheel	-9.51154
▁blijft	-9.51311
▁lymfocyten	-9.51588
▁betreffende	-9.51632
▁veranderd	-9.51756
▁arterio	-9.51855
▁bepaling	-9.51903
▁geconstateerd	-9.51916
▁ouderdom	-9.5197
▁peritoneum	-9.52311
▁bron	-9.524
retroperitoneaal	-9.52402
▁hierover	-9.52435
▁mitralis	-9.52476
▁diverticulose	-9.52512
▁virale	-9.52598
▁tumorweefsel	-9.52605
▁opnieuw	-9.52701
▁subendocardiaal	-9.52977
▁degeneratie	-9.52983
als	-9.53016
▁candida	-9.53055
▁haardjes	-9.53062
▁geboren	-9.53067
▁net	-9.53148
▁splenitis	-9.53279
gecompromitteerd	-9.53418
▁mediale	-9.53503
nevenbevindingen	-9.53705
▁huisarts	-9.53796
▁braken	-9.53968
▁cor	-9.54185
▁klep	-9.54428
▁cholelithiasis	-9.54502
▁superficiele	-9.54746
▁lymfangitis	-9.54794
▁gedaan	-9.54827
▁bloederig	-9.54901
▁voorlopig	-9.55024
▁uw	-9.55062
▁dermatofibroom	-9.55078
triumfibrilleren	-9.55221
▁contact	-9.55363
▁rand	-9.55599
▁dysplastische	-9.55634
▁ventrikels	-9.55702
▁plots	-9.55818
▁val	-9.55871
▁oor	-9.55891
▁haemorrhagische	-9.55955
▁radiotherapie	-9.55962
y	-9.56244
▁pancreaskop	-9.56378
▁doorbraak	-9.56429
▁vernauwing	-9.56753
▁verslechtering	-9.56771
▁talrijke	-9.56791
▁bacteriele	-9.56899
▁regio	-9.56914
onderzoek	-9.56998
▁voornaam	-9.57006
▁verschillende	-9.57111
▁pathologische	-9.57144
▁onwel	-9.57284
▁peri	-9.57328
▁buikpijn	-9.57376
uterien	-9.57394
▁duodenumbiopten	-9.57511
▁gespeeld	-9.57528
▁betekenis	-9.57552
▁ander	-9.57631
▁defect	-9.57632
▁systemische	-9.57984
▁uitgaande	-9.58189
▁dorsaal	-9.58219
▁gebruik	-9.58232
▁hippocampus	-9.58353
▁ureter	-9.58455
▁egfr	-9.58593
▁afgenomen	-9.58604
▁bifurcatie	-9.58612
▁kras	-9.59162
▁aureus	-9.59198
▁duiden	-9.59431
▁anastomose	-9.59548
▁dementie	-9.59986
▁ze	-9.60245
▁splenomegalie	-9.60362
veranderingen	-9.60538
▁linkerlong	-9.60576
gediagnosticeerd	-9.60598
▁lipoom	-9.60619
▁mediaal	-9.60666
▁navelstreng	-9.60757
▁ingezet	-9.60854
▁vlokatrofie	-9.6089
istente	-9.60914
▁tamponade	-9.6098
▁flank	-9.61196
▁meningitis	-9.61557
▁drietaks	-9.61625
▁communis	-9.6169
▁tubulusnecrose	-9.61739
▁cysten	-9.61862
status	-9.61904
▁trombi	-9.62114
▁naadlekkage	-9.62179
beeld	-9.62313
▁truncus	-9.62332
▁vervolgens	-9.62383
▁binnen	-9.62553
▁portale	-9.62786
▁beschouwd	-9.62952
▁barrett	-9.62957
op	-9.63205
▁secundaire	-9.63468
▁invasiediepte	-9.63661
▁nr	-9.63863
▁nodus	-9.63913
▁cholecystitis	-9.63939
▁bestaand	-9.63958
▁achtergrond	-9.63999
▁schimmels	-9.64167
▁onderwand	-9.64204
▁tegen	-9.64282
▁pipelle	-9.64419
▁pleuraholte	-9.64481
▁alzheimer	-9.64612
▁moment	-9.64687
▁recidiverende	-9.6471
▁samengevat	-9.64777
▁buikwand	-9.64812
▁terminaal	-9.64855
▁vriescoupe	-9.64857
▁haemorrhagisch	-9.64876
▁leukemie	-9.6488
▁coli	-9.64886
▁geval	-9.64893
▁beschadiging	-9.64917
tumorlokalisatie	-9.65017
▁infiltratiev	-9.65089
▁onderliggende	-9.65251
▁zelf	-9.65534
▁gestaakt	-9.65612
▁ontstoken	-9.65618
▁geplaatst	-9.65648
▁arrest	-9.65753
▁subtotale	-9.65808
▁atelectase	-9.65875
na	-9.65909
▁stroma	-9.65964
▁laaggradig	-9.66028
▁gereanimeerd	-9.66031
▁dermis	-9.66375
kleuring	-9.66412
▁hyper	-9.66692
▁classificeren	-9.66702
▁mogelijkheid	-9.66707
▁casus	-9.66715
▁lokaal	-9.66825
▁the	-9.6696
▁krap	-9.66988
conclusie	-9.67141
▁cirrhose	-9.67203
▁bloedvaten	-9.67284
diagnosen	-9.6747
▁mohs	-9.67578
▁tumoren	-9.67645
▁maagantrum	-9.67646
▁stof	-9.67716
▁leverfalen	-9.67955
mm	-9.67985
istent	-9.68112
▁ulcera	-9.68133
▁infectieuze	-9.68174
▁gewichten	-9.68272
▁verlies	-9.68291
▁coronairvaten	-9.68355
▁amenorroeduur	-9.68376
▁slijm	-9.68382
▁risico	-9.6841
▁pacemaker	-9.68412
▁lage	-9.68424
▁malaise	-9.68494
▁maceratie	-9.6853
▁hierna	-9.68611
uameuze	-9.68642
▁hypotensie	-9.68839
▁gehad	-9.68937
▁vele	-9.69104
▁interna	-9.69207
▁icterus	-9.69369
▁waaronder	-9.69371
▁ischemisch	-9.69538
▁aspergillus	-9.6961
▁ruiterembolus	-9.69818
▁thoracaal	-9.69886
▁tgv	-9.70362
▁level	-9.70397
▁massaal	-9.7054
▁even	-9.70545
▁oestrogeen	-9.7056
tumor	-9.70811
▁adipeuze	-9.70887
▁ree	-9.70905
▁organisatie	-9.70967
▁anemie	-9.71022
▁ging	-9.71121
▁concordant	-9.71225
▁uitspraak	-9.71361
▁classificatie	-9.71373
▁wisselende	-9.71458
▁aortaklepstenos	-9.71496
▁kwam	-9.71503
▁occipitaal	-9.71562
uor	-9.716
▁evident	-9.71703
▁basaal	-9.71786
▁kleppen	-9.71815
organismen	-9.71902
▁aspecifieke	-9.72033
▁ventrikelwand	-9.72102
▁pons	-9.72105
▁spierweefsel	-9.72208
▁gerelateerd	-9.72672
▁cardiac	-9.72676
▁centrale	-9.72989
▁voldoende	-9.7318
▁huidstukje	-9.73199
▁wijzen	-9.73219
▁volledige	-9.7338
▁fibrineuze	-9.73411
▁problematiek	-9.73725
▁blijken	-9.7373
▁amyloidose	-9.73765
▁concentrische	-9.73773
▁bleken	-9.73805
▁braf	-9.7383
▁low	-9.73953
▁vasculaire	-9.74317
▁transmurale	-9.74449
▁vragen	-9.74507
▁onderbuik	-9.74526
▁tm	-9.7454
parenchymateuze	-9.74553
▁posterior	-9.74906
infarct	-9.7518
▁vliezen	-9.75414
▁gepaard	-9.75483
▁hulp	-9.75484
▁komen	-9.75609
type	-9.75765
▁ape	-9.75969
▁grotendeels	-9.76064
▁tur	-9.76126
▁zo	-9.76171
▁calcificaties	-9.76232
▁lymfeklier	-9.7663
▁perivasculaire	-9.76669
▁choledochus	-9.76745
▁resectieranden	-9.76888
▁sneevlak	-9.77161
▁vitaal	-9.77172
▁complicaties	-9.772
▁intreden	-9.77231
▁preparaat	-9.77285
eerd	-9.77349
▁circulair	-9.77366
▁parietaal	-9.77387
▁origo	-9.77417
▁plasmacellen	-9.77433
▁panel	-9.77462
▁langdurige	-9.77487
▁fistel	-9.77634
achterwand	-9.77669
▁teken	-9.77815
▁struma	-9.77821
▁verkregen	-9.77854
▁cava	-9.78176
▁presenteerde	-9.78361
▁hypovolemische	-9.785
▁cardiogene	-9.78649
▁vlak	-9.7866
▁coronaria	-9.78689
▁aangezien	-9.78825
▁mesothelioom	-9.78874
▁bloedingsfocus	-9.78881
▁vorming	-9.78951
▁levermetastasen	-9.7899
▁gesteld	-9.7902
▁differentiatie	-9.79115
▁arm	-9.79284
▁relatie	-9.79371
▁evenmin	-9.79521
▁echo	-9.7962
▁alcohol	-9.79623
gediagnostiseerd	-9.79661
longen	-9.79691
▁infiltraten	-9.79696
▁aangegeven	-9.79879
▁transmuraal	-9.79883
▁etiologie	-9.80088
▁stolling	-9.80122
▁aankleuring	-9.80131
▁bacterien	-9.80136
▁gevolgd	-9.80223
cc	-9.80342
cisiebiopt	-9.80448
▁mutaties	-9.80587
▁hooguit	-9.80672
▁necrotische	-9.80679
▁daarin	-9.8087
pressie	-9.8091
▁disease	-9.81205
▁af	-9.81245
▁dna	-9.81301
▁hemangioom	-9.81313
▁leiomyoom	-9.81345
▁verkalkingen	-9.81444
▁laesies	-9.81461
▁foetale	-9.81507
▁subarachnoidale	-9.81702
▁auto	-9.81819
▁bleke	-9.8183
▁gelokaliseerd	-9.81848
▁cerebellaire	-9.81888
▁kleinere	-9.81942
▁epitheliale	-9.81959
▁geopereerd	-9.82002
▁lobulair	-9.82302
▁hemisfeer	-9.82347
▁progressief	-9.82471
necrose	-9.82485
afwijkingen	-9.82535
▁retroperitoneal	-9.8256
▁geassocieerd	-9.82712
▁komt	-9.8274
holte	-9.82798
▁middenkwab	-9.82879
▁ontwikkeld	-9.82954
dat	-9.83
▁pericardvocht	-9.83045
▁stenoserende	-9.83134
▁tuba	-9.83256
▁grootste	-9.83325
▁bovenbuik	-9.83377
▁moeilijk	-9.83401
▁genen	-9.83518
▁neurologische	-9.83573
▁representatief	-9.83652
lokalisatie	-9.83771
▁besproken	-9.83793
▁appendicitis	-9.83795
niercelcarcinoom	-9.83945
▁verklevingen	-9.84069
▁dcis	-9.84099
▁langs	-9.84116
▁ostium	-9.84192
▁bestaat	-9.84196
euze	-9.84388
▁oorzaken	-9.84396
sch	-9.84425
▁benen	-9.84435
▁trauma	-9.84446
▁endocervicale	-9.84488
▁verlittekening	-9.84544
▁maten	-9.84605
▁gezichtspunten	-9.84708
▁obv	-9.84747
▁microbiologisch	-9.84827
▁uitbreidend	-9.84888
▁hierdoor	-9.84898
▁zijdigheid	-9.85182
▁vraagstelling	-9.85289
▁cysteuze	-9.85297
▁basocellulair	-9.85401
▁bijvoorbeeld	-9.85472
▁pulmonaal	-9.85601
▁gaat	-9.85648
▁overlijdt	-9.85753
▁metastatisch	-9.85804
▁tumorproces	-9.85949
▁maaginhoud	-9.85981
▁aangelegd	-9.86103
▁aanvankelijk	-9.86117
▁sereus	-9.86349
▁bovendien	-9.86453
▁duodeni	-9.86459
▁longweefsel	-9.86513
▁vi	-9.86571
▁cardiovasculair	-9.86627
▁inferior	-9.8671
▁ovaria	-9.87061
▁muscularis	-9.87337
▁verbloeding	-9.87369
klinisch	-9.87499
▁haematoom	-9.87618
▁rectosigmoid	-9.87654
▁aldaar	-9.87687
▁aanduiding	-9.87735
▁beoordeeld	-9.87978
tweetal	-9.8799
▁algemene	-9.88115
▁care	-9.88164
▁negatieve	-9.88193
▁pigment	-9.88373
▁ok	-9.88402
lever	-9.88445
▁omdat	-9.88484
▁r	-9.88487
▁cmv	-9.88529
ardiorespiratoir	-9.88649
▁takken	-9.88652
▁zwangerschap	-9.89178
▁uitgenomen	-9.89301
▁buiten	-9.89358
▁bijna	-9.89377
▁laparotomie	-9.89388
▁vetnecrose	-9.89402
▁fibroserende	-9.89422
▁kahler	-9.89451
▁opnemen	-9.89497
▁plaveiselcellig	-9.8951
▁laryn	-9.89512
▁anteroseptaal	-9.8958
▁hand	-9.89581
▁ribfracturen	-9.89762
▁ventraal	-9.89784
▁nefrectomie	-9.90088
▁voet	-9.90353
▁slaap	-9.90368
▁druk	-9.90369
▁propria	-9.90621
▁seh	-9.90641
▁gelaat	-9.90644
▁hepato	-9.90718
▁lymfeklieren	-9.9077
▁cystitis	-9.90842
▁knie	-9.90884
▁afgesloten	-9.90938
▁aannemelijk	-9.90965
▁lymfadenopathie	-9.90972
orgaan	-9.9098
▁stolsel	-9.91085
▁hrhpv	-9.91122
▁bevond	-9.91208
▁rc	-9.91298
▁urosepsis	-9.9134
▁longparenchym	-9.91347
▁naad	-9.91408
lijmvliesbiopten	-9.9149
▁fibrine	-9.91595
▁prognose	-9.91624
▁juist	-9.91647
▁sarcoidose	-9.9171
▁onverwacht	-9.91778
▁nabij	-9.91808
▁hemorragisch	-9.91845
▁lekkage	-9.91918
▁ontwikkeling	-9.91988
weefsel	-9.92013
▁medicatie	-9.9203
▁beenmergbiopt	-9.92069
▁gaan	-9.92447
metastase	-9.92524
▁hoogrisico	-9.92605
▁adipositas	-9.92709
▁naaldbiopt	-9.92735
▁vinden	-9.92799
▁arteriele	-9.9284
▁glomeruli	-9.92859
▁nek	-9.92867
▁regressie	-9.92949
▁periode	-9.93185
▁grotere	-9.93226
▁gen	-9.93346
▁heup	-9.93553
aortaal	-9.93637
▁lis	-9.93723
▁output	-9.93829
▁collaps	-9.93888
▁pinpoint	-9.93945
▁cholestase	-9.93948
▁lentigo	-9.93956
▁alcoholabusus	-9.93964
▁pus	-9.93981
▁plaatsing	-9.9408
▁sub	-9.94388
▁teruggevonden	-9.94502
▁huidstans	-9.94534
▁bedraagt	-9.94612
▁coronaire	-9.94661
▁bevindt	-9.94682
▁onderliggend	-9.94709
mogelijk	-9.94728
▁bilateraal	-9.9474
▁stenosering	-9.94837
▁kunt	-9.95062
▁circulatoire	-9.95285
▁nb	-9.95287
▁hierop	-9.95306
▁verslechterde	-9.95362
▁et	-9.95486
▁ibd	-9.9589
▁ruimte	-9.95915
▁effect	-9.95938
▁aard	-9.96007
▁niveau	-9.96036
▁intraepithelial	-9.96099
z	-9.9626
▁pcr	-9.96367
▁anus	-9.96395
▁trad	-9.96619
▁hooggradige	-9.96738
▁epidermis	-9.96784
▁beginnend	-9.9697
▁folliculitis	-9.96992
hart	-9.97031
▁actief	-9.97077
▁nauwelijks	-9.97229
▁inhoud	-9.97484
▁longembolien	-9.97667
▁informatie	-9.97714
▁trivasculair	-9.97735
▁fibrosering	-9.97772
▁chirurgisch	-9.97807
▁bdz	-9.97871
▁zullen	-9.97975
▁intensive	-9.98072
▁adhesies	-9.98078
▁ongewijzigd	-9.98118
▁beademing	-9.98126
▁diarree	-9.98224
▁bot	-9.98255
▁leverde	-9.98351
▁centrum	-9.98559
▁troebel	-9.98703
▁wisselend	-9.98717
▁omgevend	-9.98841
▁afsluitende	-9.98935
▁minimaal	-9.9896
▁pas	-9.99025
▁cirrose	-9.99076
▁metabole	-9.99218
meer	-9.99414
▁insufficient	-9.99467
▁laten	-9.99605
uit	-9.99743
▁randen	-9.99786
▁stress	-9.99795
▁uteri	-9.99846
▁kapsel	-9.99922
▁pathogene	-9.99994
▁tubulovilleus	-10.0002
▁stroomgebied	-10.001
▁compleet	-10.0017
▁coronairsysteem	-10.0024
▁hydro	-10.0036
▁hb	-10.0039
▁beslag	-10.0045
▁neusrug	-10.005
▁longbeeld	-10.0052
▁immuun	-10.0076
sverschijnselen	-10.0086
▁subcutis	-10.0092
▁corticale	-10.0092
dometriumpoliep	-10.0093
▁profiel	-10.0098
cellymfoom	-10.0107
waarschijnlijk	-10.012
▁gefragmenteerd	-10.0122
▁fish	-10.0124
▁nigra	-10.0127
▁structuren	-10.0134
▁atypisch	-10.0145
▁bloedstolsels	-10.0146
▁stenosen	-10.015
invasie	-10.0152
▁staat	-10.0159
▁micronodulaire	-10.016
▁lumpectomie	-10.0177
▁neuroendocrien	-10.0186
▁nierfalen	-10.0205
▁massa	-10.0208
▁papilloom	-10.0219
▁curettage	-10.0222
▁fibreuze	-10.0226
▁hoofdstam	-10.0246
▁uitsluitend	-10.0252
▁staphylococcus	-10.0255
▁sinus	-10.0273
▁lymfocytose	-10.0274
▁bulleus	-10.028
uameus	-10.0282
▁verzoek	-10.0284
ad	-10.0288
▁geeft	-10.0311
▁vijf	-10.0311
▁oog	-10.0314
▁aandoening	-10.0325
▁enigszins	-10.0326
▁gedurende	-10.0334
▁consistentie	-10.0345
▁ambulance	-10.0346
▁and	-10.0353
▁classificerend	-10.0362
▁optreden	-10.0367
microscopisch	-10.0371
▁zone	-10.0376
▁milde	-10.0384
el	-10.0392
▁crohn	-10.0395
▁intern	-10.0397
▁pyelum	-10.0399
▁stoma	-10.0416
urineweginfectie	-10.0417
▁tezamen	-10.0427
▁verkleefd	-10.0431
▁persisterende	-10.0432
▁dominant	-10.0447
▁mucineus	-10.0448
▁interne	-10.0448
▁secretariaat	-10.0449
▁hydronefrose	-10.0494
▁instabiele	-10.0502
▁ischaemisch	-10.0506
▁inclusief	-10.051
▁leek	-10.0512
▁volgende	-10.0519
▁hernia	-10.0519
▁huidstansbiopt	-10.0527
▁renalis	-10.0542
▁longafwijkingen	-10.0546
▁lokalisaties	-10.055
▁verkleuring	-10.0551
▁lymfoide	-10.056
▁openen	-10.0562
▁soms	-10.0562
revisie	-10.0563
▁daarvan	-10.0577
graad	-10.0582
▁palliatief	-10.0598
▁achteruit	-10.06
▁ontstekingsrest	-10.0601
▁diepte	-10.0618
▁erosieve	-10.0621
huidbiopt	-10.0625
▁stellen	-10.0634
decompensatie	-10.0635
tische	-10.0639
▁microorganismen	-10.0647
▁situatie	-10.0662
▁dikte	-10.0671
▁radicaliteit	-10.0675
▁deposities	-10.0676
epitheel	-10.0677
▁hepatocellulair	-10.0689
▁melaena	-10.069
▁sigmoidresectie	-10.0697
▁grafts	-10.0712
▁volgde	-10.0722
▁lumina	-10.0723
▁urineblaas	-10.0724
▁minuten	-10.0726
▁waaraan	-10.0726
▁multipel	-10.0727
▁patroon	-10.0734
▁lokale	-10.0734
nb	-10.0738
nummer	-10.0748
▁intravasa	-10.075
▁verloop	-10.0757
▁maken	-10.0758
▁out	-10.0758
▁variant	-10.0759
setting	-10.0786
j	-10.0793
▁hierboven	-10.08
▁thoracalis	-10.0816
▁longfibrose	-10.0825
▁gemaakt	-10.0825
▁fibreus	-10.0841
▁onbekende	-10.0855
▁verandering	-10.0864
▁blokje	-10.0866
▁fractuur	-10.087
▁cachectische	-10.0883
▁functie	-10.0896
sreactie	-10.0903
um	-10.0918
▁aanleggen	-10.0923
▁weer	-10.0931
▁cache	-10.0939
▁kenmerkend	-10.0943
▁bijbehorend	-10.0945
▁serosa	-10.0955
▁multiple	-10.0958
▁dank	-10.0962
▁omgeving	-10.097
terna	-10.0984
▁neuropathologie	-10.0989
▁nadere	-10.0995
▁fibrotische	-10.1009
▁vulgaris	-10.1011
▁gesuperponeerd	-10.1022
▁hiermee	-10.1027
▁chirurgie	-10.1041
▁aftakkingen	-10.1048
▁infectieus	-10.1053
ritmestoornis	-10.1068
▁activiteit	-10.1081
▁intracerebrale	-10.1092
▁geboorte	-10.1102
▁telefonisch	-10.1103
▁aantoonbare	-10.1106
gesteronreceptor	-10.1113
▁atrofisch	-10.1125
▁klasse	-10.1126
▁varices	-10.1139
immuunhistochemi	-10.1142
▁craniaal	-10.1149
▁lastig	-10.1151
▁fle	-10.1154
▁bleef	-10.1169
▁compressie	-10.1197
bv	-10.1198
▁musculus	-10.1201
▁verwerkt	-10.1201
▁gecollabeerd	-10.1216
▁spongiotische	-10.1216
scan	-10.124
▁duidend	-10.1255
▁ver	-10.1256
▁gevallen	-10.1265
▁wond	-10.1265
▁kruin	-10.1288
▁hele	-10.1291
splenomegalie	-10.13
▁myeloide	-10.1324
▁drain	-10.1327
▁darmlissen	-10.1328
▁hepatomegalie	-10.1339
▁neuropatholoog	-10.1342
▁rode	-10.1344
▁hiernaast	-10.1359
▁medulla	-10.136
▁heldercellig	-10.1362
▁nefropathie	-10.1365
▁comple	-10.1366
▁verkalking	-10.1373
▁herkenbaar	-10.1374
▁uiting	-10.1389
▁patholoog	-10.1397
to	-10.14
▁darmslijmvlies	-10.1422
den	-10.1427
▁leven	-10.1429
▁lijken	-10.143
oom	-10.1444
▁hieraan	-10.1447
proliferatieve	-10.1465
▁grensvlak	-10.147
▁neuronen	-10.1473
▁lewy	-10.1476
▁huidshave	-10.1482
▁vitale	-10.1486
▁complicatie	-10.1488
▁giardia	-10.1489
▁papillairspier	-10.149
▁luchtwegen	-10.1491
▁gele	-10.1507
▁tpv	-10.1512
▁aanvrager	-10.1513
▁feit	-10.1536
▁staken	-10.156
gr	-10.156
▁holte	-10.1573
cellen	-10.1574
▁cerebraal	-10.1599
▁jejunum	-10.1605
▁succesvol	-10.1608
▁zes	-10.1613
▁vernauwd	-10.165
▁afwijkende	-10.1687
▁derden	-10.1689
▁graag	-10.1692
▁compact	-10.1711
▁subcutaan	-10.1711
▁alk	-10.1739
▁mid	-10.1739
klepvervanging	-10.1746
▁respons	-10.1747
▁bevat	-10.1747
▁verbetering	-10.175
u	-10.1769
▁alhier	-10.1777
▁mesenteriale	-10.1779
▁operatiegebied	-10.1781
aortale	-10.1785
▁noemenswaardig	-10.1798
▁tumorvrij	-10.1798
▁pseudomonas	-10.1808
▁genetisch	-10.1813
▁node	-10.1818
▁nefrosclerose	-10.1818
▁co	-10.1848
▁wellicht	-10.1852
▁maart	-10.1868
▁macro	-10.1871
▁ruggenmerg	-10.1871
positieve	-10.1888
▁dr	-10.1892
▁genomen	-10.1911
▁papmilt	-10.1913
▁astma	-10.1919
▁coeliacus	-10.1919
▁ecg	-10.1923
an	-10.1928
▁segment	-10.193
▁flow	-10.1936
▁hilus	-10.1939
▁beeldvorming	-10.1943
hyperkeratotisch	-10.1943
▁kin	-10.1947
▁leverparenchym	-10.1953
▁morfologie	-10.1953
▁typisch	-10.1957
▁lang	-10.1958
▁bijbevinding	-10.1964
▁geirriteerde	-10.1974
▁verhoornend	-10.1975
▁januari	-10.1977
▁purulent	-10.1987
▁structurele	-10.1994
▁lab	-10.1996
▁gedecompenseerd	-10.1999
▁geleden	-10.2002
▁onderlip	-10.2006
▁tel	-10.2008
ergens	-10.202
▁stenen	-10.2032
▁hospital	-10.2033
▁toegestaan	-10.2041
▁ulcererend	-10.2042
▁naden	-10.2046
▁intradermale	-10.2051
▁mitraalklep	-10.2051
▁interstitieel	-10.2054
linker	-10.2055
▁verwijd	-10.2061
▁brein	-10.2064
▁correlatie	-10.2074
▁aml	-10.2074
▁punctaat	-10.2076
▁geruptureerde	-10.2077
▁fraai	-10.2085
▁aanleg	-10.2095
▁poliepen	-10.2095
▁snelle	-10.2096
▁steatosis	-10.2097
▁langdurig	-10.2098
skenmerken	-10.2102
▁morfologische	-10.2109
▁hyperkeratose	-10.2117
▁gecombineerd	-10.2121
▁opruimreactie	-10.2122
▁behaard	-10.2128
▁longemboli	-10.2134
▁arteriolosclero	-10.2144
▁bronchi	-10.2157
▁leverfunctie	-10.2165
chorioamnionitis	-10.2166
▁buikklachten	-10.2166
▁dermaal	-10.217
▁gekend	-10.217
▁geslacht	-10.2171
▁receptor	-10.2175
ar	-10.2178
▁gliose	-10.2179
▁belangrijke	-10.2182
pt	-10.2182
▁restlumen	-10.219
▁reden	-10.2205
supraclaviculair	-10.2216
▁aankomst	-10.2217
▁ngs	-10.2218
▁onderzochte	-10.2225
▁leverhilus	-10.2238
▁intracraniel	-10.2242
▁neurologisch	-10.2244
▁granuloma	-10.2247
▁handrug	-10.225
▁dunnedarm	-10.2251
▁kond	-10.2263
▁fragment	-10.2266
▁epicard	-10.2276
▁geel	-10.2282
▁ondergaan	-10.2291
▁kg	-10.2296
▁caudaal	-10.23
▁klier	-10.2304
▁schors	-10.2323
▁dehydratie	-10.2326
▁ouder	-10.2354
▁bcel	-10.2366
▁ascitesvocht	-10.2373
▁ttf	-10.2377
niet	-10.2384
▁vertakkingen	-10.239
illa	-10.2393
▁plaveisel	-10.2393
▁bevatten	-10.2399
▁beste	-10.2403
▁embolus	-10.241
▁j	-10.2416
▁dissociatie	-10.2418
▁inspectie	-10.2418
w	-10.2423
▁scheur	-10.2429
▁ade	-10.2442
coronairlijden	-10.245
▁overwegingen	-10.2457
▁vond	-10.2463
▁gleasonscore	-10.2464
▁aa	-10.247
▁antibiotisch	-10.2473
ranulatieweefsel	-10.2475
▁hersenoedeem	-10.2498
▁hemodynamische	-10.2508
gebied	-10.2508
▁overgeplaatst	-10.2521
▁celarm	-10.2521
▁station	-10.2533
▁globale	-10.2552
▁sentinel	-10.2557
▁architectuur	-10.2566
▁laboratorium	-10.2571
▁tau	-10.2575
▁neoplasie	-10.2589
▁who	-10.259
▁acuta	-10.2599
tranodale	-10.26
▁maagcorpus	-10.26
▁epilepsie	-10.2611
intestinale	-10.2624
▁problemen	-10.2628
acerbatie	-10.2647
pathologie	-10.2648
▁literatuur	-10.2656
▁enterococcus	-10.2659
▁fibroadenoom	-10.266
▁thalamus	-10.2676
voorwand	-10.2676
▁plaatsgevonden	-10.2678
▁neusvleugel	-10.2679
▁hersen	-10.268
▁steatohepatitis	-10.2683
▁helft	-10.2684
▁schimmel	-10.2707
▁coeliakie	-10.2712
▁angio	-10.2713
▁stansbiopt	-10.2732
▁doorsnijdingen	-10.2735
▁ingenomen	-10.2737
▁overeen	-10.2745
▁thv	-10.275
ura	-10.2753
▁aanspreekbaar	-10.2761
▁sprieterige	-10.2768
▁rood	-10.2779
▁instabiel	-10.2797
▁overvulling	-10.2804
▁ulcerosa	-10.281
▁heb	-10.2811
▁herstel	-10.2813
▁wervel	-10.2815
▁resultaat	-10.2816
▁hemodynamisch	-10.2824
▁diabetische	-10.2832
▁dicht	-10.2836
▁hartfunctie	-10.2841
▁diverticulosis	-10.2842
▁inflammatoire	-10.2843
receptor	-10.2861
▁sinistra	-10.2863
▁retroperitoneum	-10.2869
▁diam	-10.2882
biopsie	-10.2889
gen	-10.289
▁spreidend	-10.289
▁spoedeisende	-10.289
▁dorsale	-10.29
▁adenomateuze	-10.2908
▁spier	-10.2922
ktegeschiedenis	-10.2923
▁immuno	-10.293
▁klieren	-10.293
▁darmwand	-10.2931
▁cll	-10.2934
▁huidbiopten	-10.2935
rest	-10.2941
▁letsel	-10.2942
▁opgestuurd	-10.295
▁beelden	-10.2956
▁romp	-10.298
▁antistolling	-10.2993
operatie	-10.2999
▁hartstilstand	-10.3006
van	-10.3006
▁verzocht	-10.3025
▁bevestiging	-10.3033
proliferatie	-10.3038
▁parotis	-10.3038
▁w	-10.3044
sis	-10.3044
▁geperforeerd	-10.3048
li	-10.3048
reactie	-10.3054
▁creutzfeldt	-10.3058
huide	-10.3061
▁tepel	-10.3063
▁myometrium	-10.3089
▁vegetaties	-10.3094
▁orgaan	-10.3123
▁nefritis	-10.3126
▁planus	-10.3135
▁cardiomyocyten	-10.3135
▁wijst	-10.3136
▁anatomisch	-10.3141
▁suspect	-10.3143
▁ribben	-10.3144
▁valt	-10.3148
rechter	-10.3155
▁myocardischemie	-10.3165
▁vaso	-10.3176
▁lymfangio	-10.3185
▁achterhalen	-10.319
voedingstoestand	-10.319
ehalve	-10.3195
▁mammaweefsel	-10.3197
▁men	-10.3199
▁embolie	-10.3202
prothese	-10.3225
flu	-10.3229
▁wenkbrauw	-10.3239
ten	-10.3245
▁staan	-10.3255
onwaarschijnlijk	-10.3256
bloeding	-10.3257
▁subcutane	-10.327
▁longkwabben	-10.3274
▁hoofdbronchus	-10.3275
▁shocknieren	-10.3295
▁postoperatieve	-10.3302
▁amplificatie	-10.3319
▁divertikel	-10.3324
▁lobectomie	-10.3337
▁parkinson	-10.3342
▁complete	-10.336
▁subduraal	-10.3362
▁samenhangend	-10.3364
▁uiteinden	-10.3376
amputatie	-10.3382
uate	-10.3386
▁bloedinkjes	-10.339
▁pericardholte	-10.3391
▁atherosclerosis	-10.3402
▁f	-10.3405
▁zogenaamd	-10.3408
▁circulaire	-10.3412
▁ernst	-10.3414
▁oblongata	-10.3414
▁kuit	-10.3423
▁th	-10.3429
coli	-10.3432
▁pneumothor	-10.3443
▁denken	-10.3446
▁schedel	-10.3451
▁aortadissectie	-10.3453
ectomie	-10.3459
▁vasoinvasie	-10.346
ter	-10.3463
▁pree	-10.3466
▁slijmvormend	-10.3477
coupes	-10.348
▁wijzend	-10.3496
▁correleren	-10.3508
▁rechtszijdig	-10.351
▁sarcoom	-10.3512
uentie	-10.3518
▁lucht	-10.3519
▁hepatis	-10.3526
▁palliatie	-10.3529
▁locatie	-10.3537
▁haardje	-10.3554
▁cavum	-10.3556
▁amputatie	-10.3557
▁evenwel	-10.3559
▁discrete	-10.356
▁nagenoeg	-10.3564
▁galstenen	-10.3567
▁anti	-10.3569
▁bil	-10.3571
▁infiltratief	-10.3572
▁verminderd	-10.3575
▁keratoacanthoom	-10.3589
▁bepaald	-10.3591
▁goedaardig	-10.3596
▁cholangitis	-10.3599
▁lange	-10.3606
▁april	-10.3609
▁vaat	-10.362
▁verkalkte	-10.3625
▁histologie	-10.3632
▁levercelverval	-10.3643
▁zondermeer	-10.3643
▁arts	-10.3645
▁oorschelp	-10.3659
▁mei	-10.3672
▁grootte	-10.3686
▁verval	-10.3699
▁afmeting	-10.3721
▁ligt	-10.3731
▁ingesloten	-10.374
▁betreffen	-10.3749
▁levert	-10.3769
▁petechien	-10.3772
▁betrekking	-10.3788
▁thymus	-10.3807
▁posteroseptaal	-10.3807
▁path	-10.3819
▁redelijk	-10.382
▁voorkomen	-10.3844
▁uiteinde	-10.3846
▁rib	-10.3849
▁urotheel	-10.3852
▁cysteus	-10.3858
▁ureteren	-10.3869
▁cardio	-10.3871
▁lumbaal	-10.3873
▁oesofagitis	-10.3878
stwaarschijnlijk	-10.3885
▁forward	-10.3892
▁willis	-10.3897
her	-10.39
ct	-10.3912
▁dezelfde	-10.3913
▁papil	-10.3928
consult	-10.3929
▁achterst	-10.3936
▁terug	-10.3946
▁onderrug	-10.3948
▁bovenlip	-10.3951
▁hemorrhagische	-10.3954
▁basilaris	-10.3954
▁immature	-10.3958
▁maakt	-10.3961
verantwoordelijk	-10.3966
▁vaak	-10.3966
▁rectumcarcinoom	-10.3985
sub	-10.3986
▁kwabben	-10.3987
lad	-10.3995
▁partus	-10.3997
▁substantia	-10.4004
infectie	-10.4008
▁huidresectie	-10.4011
▁fibro	-10.4023
▁acidose	-10.4045
▁influ	-10.4047
▁derde	-10.4051
▁beschouwen	-10.4057
▁februari	-10.4069
▁my	-10.4075
▁darmischaemie	-10.4088
▁lienalis	-10.409
▁infaust	-10.4118
taks	-10.4119
▁spontaan	-10.4137
▁bovengenoemde	-10.4154
▁pleuraholten	-10.4156
▁random	-10.4157
▁multinodulair	-10.4157
▁gedeelte	-10.4177
▁maagresectie	-10.418
▁berust	-10.4191
▁posterolateraal	-10.4192
diagnose	-10.4201
helaas	-10.4208
▁sternum	-10.4228
▁der	-10.4229
maal	-10.4232
▁simple	-10.4239
▁hepatica	-10.4244
▁anaplastisch	-10.425
filtratiediepte	-10.425
▁instabiliteit	-10.4255
▁eindstadium	-10.4257
▁voorwandinfarct	-10.4258
multiorgaanfalen	-10.4268
▁endocervicaal	-10.4271
▁sneevlakken	-10.4274
▁agonale	-10.4284
anat	-10.4286
▁bevestigen	-10.4301
▁belangrijks	-10.4316
sclerose	-10.432
▁geobjectiveerd	-10.4335
▁hersenbloeding	-10.4336
▁wie	-10.4341
abdominale	-10.4342
▁infect	-10.4346
▁nee	-10.435
hypertensieve	-10.4352
▁pleurale	-10.4364
▁vaatjes	-10.4372
▁korte	-10.4381
▁fatty	-10.4385
▁abcessen	-10.4392
▁dysmorf	-10.4394
▁stam	-10.4404
▁angiopathie	-10.4412
▁progressie	-10.4432
▁ruimten	-10.4438
▁frontale	-10.4442
▁rechternier	-10.4445
▁porta	-10.4455
▁k	-10.4456
▁obesitas	-10.4456
▁mediaan	-10.4469
▁destructie	-10.447
▁verdikte	-10.4472
▁los	-10.4475
▁scapula	-10.4481
▁lv	-10.4487
▁doorsneden	-10.4487
▁hyperplastisch	-10.4492
▁psoriasis	-10.4496
uitslag	-10.4497
sepsis	-10.4498
▁min	-10.4501
▁angina	-10.4502
▁subacute	-10.4505
▁blasten	-10.4519
▁streaks	-10.4523
▁lobaire	-10.4531
▁ontstane	-10.4536
▁merg	-10.4543
▁hersenarterien	-10.4551
▁palab	-10.4551
▁tumorload	-10.4552
▁oesophagitis	-10.4558
▁pols	-10.4558
▁stuwingsbeeld	-10.4559
▁transplantatie	-10.4559
▁resterende	-10.4569
▁factor	-10.4573
▁hpvnegatief	-10.4583
▁metaplastisch	-10.459
▁uitval	-10.46
score	-10.4603
▁verwekker	-10.461
lymfangioinvasie	-10.4612
▁plak	-10.4615
▁with	-10.4615
▁hadden	-10.4619
▁tak	-10.463
▁posterieur	-10.4638
▁ooghoek	-10.4646
▁kind	-10.4647
▁hydrocephalus	-10.4651
▁atrofische	-10.4656
▁geperforeerde	-10.4661
▁harthypertrofie	-10.4678
▁dubieus	-10.4682
▁backward	-10.4684
▁bewustzijn	-10.4686
▁consultatie	-10.4688
▁volume	-10.4692
▁voorste	-10.4696
▁resp	-10.4699
stoornis	-10.4703
cisies	-10.4706
▁papperig	-10.4708
rt	-10.4713
▁darmperforatie	-10.4713
▁alcoholische	-10.472
ontsteking	-10.4723
▁restant	-10.4726
▁juni	-10.473
▁aortaboog	-10.4742
▁groep	-10.4742
ovariumcarcinoom	-10.4744
▁hoogst	-10.4746
resectievlak	-10.476
immunohistochemi	-10.4763
eeds	-10.4768
omtrent	-10.4773
▁parietalis	-10.4776
▁middel	-10.4779
▁pretibiaal	-10.478
▁december	-10.4789
▁zin	-10.4793
fragmenten	-10.4796
▁lima	-10.4805
▁abusus	-10.4812
▁interpretatie	-10.4812
▁aantasting	-10.4813
▁simpel	-10.4814
pcl	-10.4815
▁bestraling	-10.4815
rechteronderkwab	-10.4815
▁hypoplasie	-10.4829
▁onderscheid	-10.4833
▁positiviteit	-10.4836
▁relevante	-10.484
▁behulp	-10.484
▁longlijden	-10.4844
▁atria	-10.4846
ale	-10.4853
▁conte	-10.4861
broekprothese	-10.4867
▁faecale	-10.4871
▁hematopoese	-10.4873
▁editie	-10.4873
▁gelocaliseerd	-10.4876
▁vaatwand	-10.4881
▁cristabiopt	-10.4881
▁erfelijke	-10.4899
▁subclavia	-10.4899
▁detrusor	-10.4906
▁belang	-10.4906
▁typering	-10.4907
▁verdikt	-10.4925
▁verwijding	-10.4933
aal	-10.4939
▁maagperforatie	-10.4951
▁vervetting	-10.4954
▁mesenteriaal	-10.4957
▁myeloom	-10.4972
▁premaligniteit	-10.4973
▁urethra	-10.4977
▁setting	-10.4977
▁micronodulair	-10.4978
▁keratine	-10.4985
▁peritoneale	-10.4985
▁testis	-10.499
▁mediastinaal	-10.4993
▁maagcarcinoom	-10.4996
▁maligna	-10.5005
▁verwijde	-10.5016
▁gaande	-10.5022
erwijl	-10.5031
▁hartdood	-10.5039
emie	-10.505
▁vagina	-10.5051
▁seniele	-10.5061
▁divertikels	-10.5068
▁tenslotte	-10.5075
▁collega	-10.5076
▁augustus	-10.5082
▁waarme	-10.5082
oesofagusbiopten	-10.5083
▁november	-10.5084
▁cel	-10.5089
▁verschijnselen	-10.5093
myocardischaemie	-10.5113
▁gerelateerde	-10.5114
▁vraag	-10.5118
coronairarterie	-10.5118
▁juli	-10.5118
▁vasculopathie	-10.5119
▁oktober	-10.5121
klierdissectie	-10.5121
▁bethesda	-10.5122
vi	-10.5125
enkele	-10.5126
▁dialyse	-10.5129
▁preauriculair	-10.514
vorming	-10.5153
stv	-10.5155
▁speekselklier	-10.5156
▁magere	-10.5172
▁afgezien	-10.5172
▁panummer	-10.5176
▁vermoeden	-10.518
▁prominente	-10.5185
embolus	-10.5188
punctie	-10.5189
▁perivasculair	-10.5189
▁femoralis	-10.5192
▁ck	-10.52
▁neuspunt	-10.5215
differentiatie	-10.5217
▁jonge	-10.5244
▁alho	-10.5247
▁pneumoniae	-10.5247
▁corpustype	-10.5249
▁stoornissen	-10.5267
▁top	-10.5267
▁virus	-10.5269
▁vlekkig	-10.5271
dit	-10.5272
▁amenorrhoeduur	-10.5277
▁sclerosus	-10.5279
▁misselijkheid	-10.5279
▁vulva	-10.529
▁opzichte	-10.5295
▁lymfogene	-10.5308
▁mc	-10.5317
▁membranen	-10.5336
▁doen	-10.5342
▁lichaamssectie	-10.5342
paraneoplastisch	-10.5344
▁whipple	-10.535
▁rechterzijde	-10.5353
ide	-10.5362
▁bloedkweek	-10.5364
hodgkinlymfoom	-10.5374
▁ieder	-10.5377
▁tumorhaarden	-10.539
▁leverbiopt	-10.5392
▁fre	-10.5394
▁kleur	-10.5401
st	-10.5402
betrouwbare	-10.5411
▁intima	-10.5443
▁ebv	-10.5452
▁georganiseerde	-10.5461
▁translocatie	-10.5462
▁ptca	-10.5465
▁stents	-10.5472
▁pectoris	-10.5477
▁mechanische	-10.5487
▁drainage	-10.5493
▁bradycardie	-10.5509
▁encefalopathie	-10.5511
▁herkend	-10.5515
▁oorsprong	-10.5517
circa	-10.554
▁controle	-10.5542
▁papillomatosus	-10.555
▁mammareductie	-10.555
▁verweking	-10.5551
tnm	-10.5553
▁cardia	-10.5558
adenocarcinoom	-10.5564
▁lc	-10.5579
▁overtuigend	-10.5595
tumorlocalisatie	-10.5595
▁trisomie	-10.5599
schimmelinfectie	-10.5604
sactiviteit	-10.5608
procedure	-10.5608
▁botbiopt	-10.5608
at	-10.5615
ano	-10.5619
▁glandulaire	-10.5623
▁geadviseerd	-10.5625
▁histopatholog	-10.5626
▁tp	-10.5626
▁lichtmicroscop	-10.5631
▁cholangio	-10.5634
▁gisten	-10.564
▁vater	-10.5657
▁hematomen	-10.5665
▁tubulus	-10.5666
▁multifocale	-10.5693
▁prostaatweefsel	-10.5702
▁hypofyse	-10.5705
▁linkerzijde	-10.5706
▁aortawand	-10.5708
▁vlekkerig	-10.5709
curettage	-10.5715
nt	-10.5717
▁verruc	-10.5724
▁tumorpositief	-10.5731
▁toen	-10.5731
▁geneesmiddelen	-10.5741
▁elkaar	-10.5744
▁bovenste	-10.5744
▁granulerende	-10.5746
▁klebsiella	-10.5753
▁wervels	-10.5757
▁venen	-10.5761
▁gaaf	-10.5763
▁anaemie	-10.5768
beensamputatie	-10.5782
▁variatie	-10.5786
▁bijnierschors	-10.5797
▁windingen	-10.5813
▁beta	-10.5814
jw	-10.5817
▁cell	-10.5818
▁dame	-10.5837
▁betrouwbaar	-10.5838
▁digitus	-10.5839
▁vergroeid	-10.584
▁ablatio	-10.5854
▁depositie	-10.5855
▁ritme	-10.5859
▁lymfoid	-10.5861
▁slijmvliesbiopt	-10.5869
▁pijnklachten	-10.5871
embolie	-10.5874
jarig	-10.5878
▁chromosomale	-10.5882
▁psoas	-10.5887
alveolaire	-10.5889
▁groeirestrictie	-10.5907
▁pulpa	-10.5907
▁myocardiale	-10.5907
▁granulocytair	-10.5909
▁gastropathie	-10.5914
▁gebarsten	-10.5917
▁hartkleppen	-10.5918
▁afname	-10.5925
▁enzymkleuring	-10.593
▁luchthoudend	-10.5934
▁endocervi	-10.5953
▁geinfecteerde	-10.5963
acte	-10.5964
▁overweging	-10.5972
▁ulceraties	-10.5974
▁nietkleincellig	-10.5976
hodgkin	-10.5986
operatief	-10.5996
▁tia	-10.6
▁perfusie	-10.6005
▁tubuli	-10.6016
▁encephalopathie	-10.6018
▁hypertrofe	-10.6019
▁bloederige	-10.6021
▁ros	-10.6045
▁submucosa	-10.6048
▁lieten	-10.605
cideerd	-10.6053
▁doet	-10.6053
▁stemband	-10.6058
▁fasciitis	-10.6058
▁rejectie	-10.6058
abdominaal	-10.6059
▁pin	-10.606
▁algemeen	-10.6061
▁cervicale	-10.6069
▁tweemaal	-10.6074
▁behoeve	-10.609
▁scalp	-10.609
▁bovenkwabben	-10.609
▁angioinvasie	-10.6093
▁compatibel	-10.6094
▁ondersteuning	-10.6106
▁therapeutisch	-10.6123
▁bowenoid	-10.6127
▁longvaten	-10.6129
▁leiomyomen	-10.6131
▁cave	-10.6133
syndroom	-10.6138
▁uitrijping	-10.614
▁tumoreus	-10.614
▁alles	-10.6141
▁streptococcus	-10.6143
▁transformatie	-10.6152
▁allen	-10.6158
▁factoren	-10.6165
▁resttumor	-10.6167
▁spoed	-10.6171
▁linkernier	-10.6173
▁leidend	-10.6181
▁woog	-10.6201
▁eigenlijk	-10.6201
▁visceralis	-10.6205
immuun	-10.6212
▁kleiner	-10.6213
▁cho	-10.6217
▁nacht	-10.6221
▁intubatie	-10.6223
▁av	-10.6264
▁carcinoid	-10.6277
▁darmpakket	-10.6282
▁verkleving	-10.6283
▁cirkel	-10.6286
▁solitaire	-10.6295
▁lymfocytair	-10.6301
▁minste	-10.6302
▁empyeem	-10.6306
▁vulling	-10.6313
▁aangevraagd	-10.6314
▁nierarterien	-10.6318
▁glad	-10.6321
▁hydrops	-10.6321
ventrikelsysteem	-10.6335
uitsluitend	-10.6336
▁begin	-10.6355
▁stentplaatsing	-10.6358
▁crista	-10.6364
incontinentie	-10.6372
rechterbovenkwab	-10.6376
punctaat	-10.6378
rh	-10.6378
▁autolytisch	-10.6384
▁gevoerd	-10.639
▁uitsluiting	-10.639
▁aangenomen	-10.6391
▁cardiopulmonale	-10.6394
▁bovenkwadrant	-10.64
▁bulbus	-10.6405
▁bijschildklier	-10.6416
▁reuscellen	-10.643
▁lok	-10.6431
▁clark	-10.6445
▁sclerotisch	-10.6447
diagnostisch	-10.6449
▁bcl	-10.645
▁wig	-10.6462
▁eenduidig	-10.6469
endocriene	-10.6471
▁flr	-10.6474
▁erosie	-10.6477
▁os	-10.6486
▁progesteron	-10.6509
istomorfologisch	-10.6516
▁vii	-10.6518
▁curettement	-10.6518
▁staven	-10.6549
ic	-10.6558
▁heli	-10.6563
▁regionale	-10.6565
verschuiving	-10.6572
▁dergelijke	-10.6574
▁herseninfarct	-10.6582
cochleaat	-10.6582
▁dissecans	-10.6582
▁stollings	-10.6585
▁biologisch	-10.6599
▁doorlopend	-10.6629
▁organ	-10.6635
▁colectomie	-10.6635
▁fatale	-10.6641
endocrien	-10.665
▁velden	-10.665
▁maagbloeding	-10.6658
▁mannelijk	-10.6658
▁emfysemateus	-10.666
▁renum	-10.666
▁pancreasstaart	-10.6661
▁longbloeding	-10.6663
▁ochtend	-10.6672
mortaal	-10.6685
▁stamcel	-10.6688
▁bemoeilijkt	-10.6699
▁gezwollen	-10.6704
lomerulonefritis	-10.6708
▁hypoperfusie	-10.6713
▁gewenst	-10.6718
▁onderooglid	-10.6722
▁pars	-10.6724
▁succes	-10.673
▁overwegen	-10.673
▁aneurysmatische	-10.6734
▁congestie	-10.6735
▁scheenbeen	-10.6744
▁circulatoir	-10.6751
▁meerkernige	-10.6751
▁echogeleid	-10.6755
▁hilaire	-10.6763
icatie	-10.6767
▁pseudo	-10.6767
▁nucle	-10.6769
▁tumormassa	-10.678
▁vol	-10.6788
▁buismaag	-10.6797
▁implantatie	-10.6803
▁prednison	-10.6817
▁hypercellulair	-10.6818
▁supra	-10.6819
▁poliepje	-10.6832
▁september	-10.6834
▁sporadisch	-10.6835
▁bovenrug	-10.684
▁fibrotisch	-10.6853
ocaal	-10.6857
▁atheromateuze	-10.6858
tremiteiten	-10.6859
▁stukje	-10.6865
▁schouderblad	-10.6876
▁richardson	-10.688
▁klierbuizen	-10.688
moleculair	-10.6886
icologisch	-10.6898
▁aortastenose	-10.6908
▁refractair	-10.6911
▁erytrocyten	-10.6915
▁sluit	-10.6926
▁dm	-10.6928
▁intacte	-10.6933
▁igg	-10.6938
▁mocht	-10.6938
▁ijzerstapeling	-10.694
aspiratie	-10.6946
onderwandinfarct	-10.6954
▁herpes	-10.698
▁ulceratieve	-10.6985
totaal	-10.6988
▁brca	-10.6989
▁mond	-10.6993
▁nieuw	-10.7
▁bronchien	-10.7
▁verwijdering	-10.7008
iteit	-10.7024
▁onderste	-10.7031
cholesterolemie	-10.7033
acute	-10.7037
▁icterische	-10.7046
▁nras	-10.7048
▁tong	-10.7054
▁genoemde	-10.7056
▁kappa	-10.706
tramedullair	-10.7061
nieren	-10.7062
▁beter	-10.7066
▁gemarkeerde	-10.7073
▁heel	-10.7073
▁groeit	-10.7078
▁veranderde	-10.708
▁geindiceerd	-10.71
▁nos	-10.7103
▁hypotensief	-10.7104
▁histomorfologi	-10.7107
▁bloom	-10.7113
▁bacteriemie	-10.7116
▁locus	-10.712
▁broncho	-10.7131
▁krapst	-10.7142
▁myomatosus	-10.7144
▁aangedaan	-10.7146
parenchym	-10.7152
▁bijkomend	-10.7152
▁gepigmenteerde	-10.7155
▁orgaanfalen	-10.7157
circumferentiele	-10.7161
kweek	-10.7166
▁contractieband	-10.7169
▁gewichtsverlies	-10.7182
▁overig	-10.7192
▁adenocarcinoma	-10.7193
veneuze	-10.7194
▁collabeerde	-10.7201
▁vene	-10.7206
▁brush	-10.7221
▁paramediaan	-10.7224
▁matuur	-10.7224
▁resulterend	-10.7227
▁idiopathische	-10.7227
▁alveoli	-10.7231
▁wederom	-10.7231
▁kamer	-10.7239
▁hp	-10.7243
▁ventrale	-10.7249
▁situs	-10.7255
▁hemorrhagisch	-10.7265
▁hoeverre	-10.7265
▁thrombotische	-10.7268
stenose	-10.7277
▁intestinaal	-10.7283
▁pleiomorf	-10.7287
▁tbc	-10.7291
lecystolithiasis	-10.7292
▁fibroom	-10.7292
it	-10.7293
▁verkalkt	-10.7293
carcinoma	-10.7294
▁arterietakken	-10.7299
▁scherp	-10.7307
▁ple	-10.7308
▁stoornis	-10.7312
▁pericentrale	-10.7315
▁pylorus	-10.7316
▁obductieverslag	-10.732
▁labium	-10.7323
onder	-10.733
▁mogelijkheden	-10.7332
▁radiologisch	-10.7342
long	-10.7349
alwaar	-10.7358
▁radicale	-10.7358
▁calcificatie	-10.7365
analyse	-10.7384
▁lymfatische	-10.7386
milt	-10.7388
aritmogene	-10.7391
▁samenvatting	-10.7391
▁onderbenen	-10.7396
▁blaaswand	-10.7397
aantal	-10.7418
▁art	-10.7418
▁vroege	-10.743
▁inclusies	-10.7444
▁aspecifiek	-10.7445
▁vervanging	-10.7445
▁fulminante	-10.7447
passend	-10.7447
▁longtumor	-10.7448
classificatie	-10.745
▁middelgro	-10.7452
curettement	-10.7453
▁msi	-10.7455
▁gedeeltelijk	-10.7455
▁adenomen	-10.7463
deels	-10.7473
▁blaasslijmvlies	-10.7478
▁tien	-10.7481
▁artritis	-10.7482
▁asfy	-10.7482
▁rok	-10.7496
oud	-10.7499
▁marginal	-10.7508
▁cytologie	-10.7508
▁iga	-10.751
▁recentere	-10.751
▁vermeldt	-10.7511
▁buitenzijde	-10.7518
▁chole	-10.7524
▁bypasses	-10.7535
poliep	-10.7538
▁relaparotomie	-10.7553
geproportioneerd	-10.7561
dr	-10.7561
mechanische	-10.7562
▁tuberculose	-10.757
▁cholesterol	-10.7576
▁duur	-10.7585
▁reanimeren	-10.7586
embolien	-10.7588
▁verzwaard	-10.759
papillairspieren	-10.7593
door	-10.76
▁ruime	-10.7601
▁hersenweefsel	-10.7604
▁buikaorta	-10.7605
▁thrombusvorming	-10.7606
▁urinewegen	-10.7606
▁littekenvorming	-10.7607
minstens	-10.7607
▁verdikking	-10.7609
▁vaatafwijkingen	-10.7611
▁autolytische	-10.7616
▁pap	-10.7633
adne	-10.7641
▁doorsnijden	-10.7648
▁nodularis	-10.765
ventrikelfunctie	-10.7651
▁striatum	-10.7657
▁vroeger	-10.7658
▁longembolus	-10.7658
▁leiden	-10.7661
▁maagwand	-10.7679
▁linkszijdig	-10.7684
▁betrokken	-10.7689
▁thrombosering	-10.7691
▁gekregen	-10.7693
▁gekomen	-10.7694
▁inzichten	-10.7695
▁gal	-10.7701
▁icd	-10.7718
pa	-10.772
▁myelodysplast	-10.772
travasatie	-10.7723
effect	-10.7731
vermoedelijk	-10.7731
▁necrotiserend	-10.7736
▁leverkwab	-10.7737
▁zijsnijvlak	-10.7737
▁osteoporose	-10.774
▁specificiteit	-10.774
▁inzage	-10.7745
▁ziektebeeld	-10.7772
▁mn	-10.7784
▁subpleuraal	-10.7785
▁ductale	-10.7812
▁kwab	-10.786
▁onzeker	-10.7864
▁kraakbeen	-10.7865
ta	-10.7877
▁blaascarcinoom	-10.7877
▁lumbale	-10.7879
▁subcapsulair	-10.7888
erbb	-10.789
dilatatie	-10.7899
▁verwikkelingen	-10.7913
▁pneumosepsis	-10.7918
▁plotse	-10.7919
▁clostridium	-10.7919
▁pdl	-10.792
▁jakob	-10.7924
▁voetlengte	-10.7936
▁symmetrisch	-10.7938
▁vormen	-10.7948
aortaklepprothes	-10.795
▁adhaesies	-10.7954
▁noodzakelijk	-10.7954
▁lymfogeen	-10.7956
▁serosale	-10.7962
▁spontane	-10.7967
▁elektro	-10.7971
▁alfa	-10.7977
▁erg	-10.7991
▁stase	-10.7992
▁episode	-10.7992
▁omliggend	-10.7999
▁eind	-10.8002
innemend	-10.8005
minder	-10.8006
▁eci	-10.8013
▁apicaal	-10.8014
▁hotspot	-10.8016
▁bloedkweken	-10.802
sgraad	-10.8032
▁beschadigd	-10.8034
▁gradering	-10.8037
▁normocellulair	-10.8046
▁onregelmatig	-10.8048
▁beschadigde	-10.8053
over	-10.8061
▁embolien	-10.8069
▁hyaliene	-10.8073
▁raakte	-10.8073
einde	-10.8073
▁gee	-10.8074
metastasering	-10.8077
▁hemato	-10.8086
▁enerzijds	-10.8089
hmh	-10.8089
as	-10.8092
▁breslow	-10.8092
▁collumfractuur	-10.8093
▁schimmeldraden	-10.8095
▁vat	-10.8095
▁paar	-10.8102
▁anders	-10.8122
▁daling	-10.8129
▁elleboog	-10.814
▁hypoplastisch	-10.814
▁ileusbeeld	-10.8146
▁clavicula	-10.8155
scomponent	-10.8155
▁microbiologie	-10.8157
▁lag	-10.8159
▁nm	-10.8173
▁daarmee	-10.8179
▁abcesvorming	-10.818
▁geraakt	-10.8182
▁thyreoiditis	-10.8186
▁geisoleerd	-10.8188
definitief	-10.8195
▁meningeoom	-10.8195
▁septaal	-10.8198
dissectie	-10.8216
cystolithiasis	-10.8223
▁mevrouw	-10.8225
▁sessiel	-10.8226
▁ijzerpigment	-10.8228
▁nasi	-10.823
▁geinfarceerd	-10.8233
▁topografie	-10.8236
diam	-10.8244
▁patiant	-10.8245
▁associatie	-10.8255
▁oorspronkelijke	-10.8259
▁vasculair	-10.8262
▁lamelleren	-10.8271
▁hpvpositief	-10.8271
▁linkeronderkwab	-10.8276
▁reeks	-10.828
▁annulare	-10.8282
▁achterzijde	-10.8283
▁compensatoire	-10.8287
occipitaal	-10.8288
dd	-10.8292
▁pulmonales	-10.8293
▁at	-10.8295
▁prostatectomie	-10.8296
▁varierend	-10.8297
▁nierbiopt	-10.8305
▁geinfecteerd	-10.8316
▁hartzakje	-10.8317
▁glandula	-10.8319
▁no	-10.8324
ag	-10.8332
▁slappe	-10.8346
voorlopig	-10.8346
▁antrumtype	-10.8349
▁ijzer	-10.837
▁patent	-10.8372
▁gyrus	-10.8372
▁gesloten	-10.8383
calcificaties	-10.8388
onderverdelingen	-10.8391
▁avond	-10.8406
▁snijrand	-10.8408
▁dankzegging	-10.841
▁tumorrest	-10.8411
▁persisterend	-10.8412
▁suboptimaal	-10.8416
▁emboli	-10.8417
▁hoesten	-10.8417
▁desondanks	-10.8418
▁verspreiding	-10.8418
▁tricuspidalis	-10.8425
▁oa	-10.8426
▁spongiose	-10.8427
▁mds	-10.8442
▁trombotische	-10.8449
ende	-10.8455
▁vreemdlichaams	-10.8457
▁hieruit	-10.8465
▁asymmetrische	-10.8468
▁diagnoses	-10.8468
▁verkleurd	-10.8472
▁rbk	-10.8479
▁bronchiolitis	-10.8488
▁bewijs	-10.8496
▁gestenoseerd	-10.8503
▁meisje	-10.8506
▁ret	-10.8511
▁zwak	-10.8525
▁gist	-10.8527
▁lamblia	-10.855
sproces	-10.855
▁vaker	-10.855
▁operatief	-10.8551
▁hartoor	-10.8554
▁erythema	-10.8555
▁prostatitis	-10.8555
▁parietale	-10.8555
gezien	-10.8557
▁contaminatie	-10.8567
▁hydropische	-10.8567
▁gaf	-10.8581
▁vernauwingen	-10.8586
am	-10.8593
▁sedatie	-10.8598
▁diafragmatica	-10.8598
▁segmental	-10.86
▁mediane	-10.86
▁echografisch	-10.8614
▁influenza	-10.8618
fluorescentie	-10.863
▁belangrijk	-10.864
▁zenuwstelsel	-10.8645
▁anderzijds	-10.8645
▁dyspneu	-10.8645
▁duidt	-10.8646
▁schrompelnieren	-10.8676
▁lytische	-10.8679
▁kalk	-10.868
▁coma	-10.8681
▁bepalen	-10.8682
▁zorg	-10.8683
▁dysplastisch	-10.8688
▁aeruginosa	-10.8693
▁grensvlaknaevus	-10.8693
▁alcoholgebruik	-10.8694
▁ademhaling	-10.8694
moleculaire	-10.8702
▁tumormetastasen	-10.8709
congestieve	-10.8729
▁nodi	-10.8731
▁mogen	-10.8742
kleincellig	-10.8745
▁mastectomie	-10.8748
▁ileostoma	-10.875
▁infarcthaarden	-10.8751
degeneratieve	-10.876
▁vaatverandering	-10.8764
▁endometriose	-10.8773
▁buisprothese	-10.8774
▁carotiden	-10.8797
▁genetica	-10.8797
▁getroffen	-10.8797
▁celrijke	-10.88
▁thoracotomie	-10.8805
ygenatie	-10.8812
localisatie	-10.8813
▁kans	-10.8815
▁wil	-10.8817
▁medicamenteuze	-10.8824
▁percentage	-10.8826
gleason	-10.8832
definitieve	-10.8832
adenoom	-10.8836
daling	-10.8837
▁bewezen	-10.8838
▁buikorganen	-10.8838
▁confluerende	-10.884
▁heupprothese	-10.8846
▁schrompelnier	-10.8852
▁plekke	-10.8854
schildwachtklier	-10.8857
▁nbt	-10.8858
▁aneurysmata	-10.886
▁macrovesiculair	-10.8882
▁longhypoplasie	-10.8888
▁steen	-10.889
▁broekprothese	-10.8892
▁daarvoor	-10.8893
▁viraal	-10.8893
ch	-10.8894
▁fibroepithelia	-10.8896
▁dergelijk	-10.8897
▁bcellymfoom	-10.8897
anvraagformulier	-10.8917
▁graads	-10.893
gram	-10.8932
dysplasie	-10.8935
▁genitalia	-10.8936
▁verwardheid	-10.8936
▁lichamelijk	-10.8939
▁asthma	-10.894
peripancreatisch	-10.894
▁inbrengen	-10.8943
▁obliteratie	-10.8944
▁bullae	-10.8947
snijvlak	-10.8948
▁buitenoppervlak	-10.8949
▁mesencephalon	-10.8951
▁acht	-10.8952
▁verstoorde	-10.8953
▁stenotisch	-10.8965
▁angioinvasieve	-10.8975
▁fragmentje	-10.8978
▁bevatte	-10.8984
▁begeleidend	-10.8985
▁daarom	-10.8986
▁jw	-10.8986
▁behorend	-10.8988
▁lupus	-10.8992
▁hun	-10.9007
▁voeten	-10.9012
samen	-10.9022
▁bloedstolsel	-10.9025
▁blokjes	-10.9026
▁breslowdikte	-10.9029
▁lobulaire	-10.9032
▁fibrinopurulent	-10.9035
▁retroauriculair	-10.9035
entree	-10.9044
▁ingebracht	-10.9045
▁archief	-10.9046
▁patchy	-10.9055
▁ap	-10.9059
▁enteritis	-10.9066
▁ja	-10.9069
ly	-10.9069
▁verstoring	-10.907
▁fragmentjes	-10.9072
▁endocard	-10.9077
▁cytoplasma	-10.9081
nieuwe	-10.9084
▁rectumbiopten	-10.9088
▁serrated	-10.9092
▁gebouwde	-10.9092
▁infrarenaal	-10.9108
▁uitgebreidheid	-10.9119
▁trans	-10.912
▁hersengewicht	-10.9125
beschadiging	-10.9128
▁colostoma	-10.9134
▁pupillen	-10.9134
▁aortakleppen	-10.9138
▁operaties	-10.9141
▁voorzijde	-10.9143
ring	-10.9146
th	-10.9146
▁pg	-10.9148
gebruik	-10.9148
lokalisaties	-10.9153
▁schildklierkwab	-10.9157
▁reticulair	-10.9161
▁aangrenzend	-10.9175
▁subtiele	-10.9178
▁melanoma	-10.9184
▁baten	-10.9185
▁geoccludeerd	-10.9188
tevens	-10.9189
▁albicans	-10.9192
▁spoelcellig	-10.9194
▁vergroeiingen	-10.9198
▁endometrioid	-10.9198
▁geinkte	-10.92
itis	-10.9204
▁opbouw	-10.9208
▁pleit	-10.9213
▁dilaterende	-10.9217
▁eerst	-10.9232
▁cerebellair	-10.9234
▁gezocht	-10.9235
▁termijn	-10.9235
▁aanwijsbaar	-10.9235
▁opgemerkt	-10.9237
▁grove	-10.9237
▁placentaire	-10.9245
▁septa	-10.9247
▁duodenums	-10.9252
zeer	-10.9255
▁half	-10.9264
▁mri	-10.9266
histologisch	-10.9268
▁leverweefsel	-10.9274
▁mucosale	-10.9275
▁aanvraag	-10.9277
mo	-10.9283
treme	-10.9286
▁onbegrepen	-10.9286
▁regelmatig	-10.9286
▁kortademigheid	-10.9288
▁lymfo	-10.9288
▁nodig	-10.929
▁puntjes	-10.9291
▁sputum	-10.9293
▁epileptisch	-10.9293
▁cystadenoom	-10.9293
▁overhecht	-10.9297
▁catheter	-10.9298
▁darmresectie	-10.9298
bls	-10.9299
▁verrukeu	-10.9326
corpusslijmvlies	-10.9327
▁artherosclerose	-10.9337
▁fecale	-10.9337
▁longmetastasen	-10.9338
▁stabiel	-10.9338
▁melena	-10.9344
▁gegaan	-10.9357
galblaasresectie	-10.9371
▁bloeddruk	-10.9376
▁liggen	-10.9378
▁afsluitingen	-10.9381
▁consolidatie	-10.9381
ml	-10.9385
▁uiterlijk	-10.9388
▁lichaamsgewicht	-10.9392
▁emphyseem	-10.9394
▁faeces	-10.9395
▁vruchtwater	-10.94
▁rectaal	-10.9401
▁lambda	-10.9408
▁activeren	-10.9408
▁donatie	-10.9422
▁into	-10.9436
▁temporalis	-10.9438
▁mesotheel	-10.9439
▁presentatie	-10.944
▁peroperatief	-10.9441
▁malen	-10.9442
▁kaak	-10.9443
▁cognitieve	-10.9447
racheobronchitis	-10.9448
lijn	-10.9449
▁delier	-10.9451
▁megakaryocyten	-10.9456
end	-10.9458
maag	-10.9458
▁hiv	-10.9459
sveranderingen	-10.9461
▁mitosen	-10.9472
▁localisaties	-10.9472
ga	-10.9488
▁hematogene	-10.9492
▁tengevolge	-10.9492
▁opgebouwd	-10.9493
▁interventie	-10.9493
▁advies	-10.9494
▁aspergillose	-10.9495
nier	-10.9498
▁onze	-10.9498
▁poging	-10.9503
▁decubitus	-10.9503
▁marsh	-10.9503
▁bijzonder	-10.9512
▁anamnese	-10.9514
▁debris	-10.952
▁insult	-10.9537
▁tumorhaard	-10.9538
versus	-10.9539
▁behoort	-10.9544
▁myofibrosis	-10.9544
▁toegeschreven	-10.9544
▁levenloos	-10.9544
▁fijn	-10.9544
▁natuurlijk	-10.9551
▁ingevroren	-10.9555
mede	-10.9555
▁dubbelbrekend	-10.9556
▁reuscelreactie	-10.958
▁braak	-10.9583
▁relatieve	-10.9583
▁neurofibroom	-10.959
ruptuur	-10.959
▁ingezonden	-10.9603
cd	-10.9614
▁locale	-10.9619
obstructief	-10.9623
alveolair	-10.9626
deel	-10.9628
▁endo	-10.9632
▁malformatie	-10.9632
▁localis	-10.9645
emboli	-10.9647
▁lamina	-10.9647
▁geldt	-10.9649
uiteraard	-10.9649
▁globaal	-10.965
rvangingsfibrose	-10.9656
▁kapseldoorbraak	-10.9658
▁lymf	-10.9661
terne	-10.9665
▁parakeratose	-10.9667
▁gestelde	-10.9668
conform	-10.9671
hyperpigmentatie	-10.9701
▁geabstineerd	-10.9701
gelegen	-10.9706
▁tubae	-10.9708
microscopie	-10.9717
▁lactaat	-10.9718
▁papperige	-10.972
▁prurigo	-10.9725
helft	-10.9725
▁nerv	-10.9725
▁tpn	-10.9728
fectieparameters	-10.973
▁opmerkelijk	-10.9736
▁kern	-10.9736
▁aanhoudend	-10.9737
ng	-10.9749
▁acinair	-10.9751
schimmelkleuring	-10.9753
cysteuze	-10.9754
▁lacunair	-10.9754
▁comateus	-10.9755
▁hepatocyten	-10.9755
▁daardoor	-10.9756
▁poliepeus	-10.9759
▁moeder	-10.9773
uur	-10.9787
specifieke	-10.9789
▁sepsisbeeld	-10.9798
▁reumato	-10.9802
▁indicatie	-10.9805
oezemfibrilleren	-10.9805
▁solair	-10.9809
uaat	-10.9809
▁electieve	-10.9814
▁spreken	-10.9814
▁scleroserende	-10.9815
▁lichaamsvreemd	-10.9816
▁breuk	-10.9816
▁myocardfibrose	-10.9822
regio	-10.9837
▁longhilus	-10.9844
▁anderhal	-10.9854
haarden	-10.9856
▁zuurstof	-10.9861
▁verwijderen	-10.9868
▁namelijk	-10.9882
▁sclerotische	-10.9882
receptorbepaling	-10.9884
▁hypovolemie	-10.9885
▁ostia	-10.9885
▁operatieve	-10.9891
▁intrauterien	-10.9898
▁gewijzigd	-10.9899
▁gecompromiteerd	-10.9909
oide	-10.9913
▁subarachnoidaal	-10.9916
▁damage	-10.9916
▁bruin	-10.9919
▁ontstaat	-10.9919
▁hoofdpijn	-10.9926
▁sufficient	-10.9929
▁grawitz	-10.9935
zymhistochemisch	-10.9935
▁patienten	-10.994
▁protocol	-10.9941
▁galgang	-10.9946
▁intimafibrose	-10.9951
▁borderline	-10.9955
▁putamen	-10.9962
pro	-10.9968
▁ondersteunt	-10.997
▁flegmoneuze	-10.997
▁foramen	-10.9976
▁cardiomegalie	-10.9976
▁binnenzijde	-10.9981
naaldbiopt	-10.9989
▁dad	-10.9993
▁ziet	-11.0002
▁kwaliteit	-11.0022
▁bijdrage	-11.0024
▁calcificerend	-11.0025
▁kaliber	-11.0025
nog	-11.0025
▁infecties	-11.0026
▁hetzelfde	-11.0027
▁gebruikte	-11.0031
▁gehandhaafd	-11.0033
▁wijde	-11.0035
▁uip	-11.0037
▁ophoping	-11.0039
▁hoger	-11.0059
luchtweginfectie	-11.006
oedeem	-11.0061
▁betrokkenheid	-11.0064
▁wanddikte	-11.0067
lo	-11.0071
▁rijping	-11.0076
▁gescleroseerd	-11.0079
▁majus	-11.008
▁aantonen	-11.0081
▁maternal	-11.0082
▁bijgaand	-11.0082
▁vezels	-11.0085
▁trombosering	-11.0091
▁dragen	-11.0108
▁parieto	-11.0111
▁toegezonden	-11.0135
▁oncogene	-11.0136
▁voorafgaand	-11.0136
▁mediastinitis	-11.0143
▁nietspecifiek	-11.015
▁apart	-11.0151
▁wandstandige	-11.0153
▁cea	-11.0155
▁mondbodem	-11.0159
▁bevonden	-11.0165
▁pci	-11.017
tot	-11.0179
▁verbinding	-11.0191
ngs	-11.0194
aanvullende	-11.0202
▁caudale	-11.0205
▁groter	-11.0206
▁zwart	-11.0207
▁ingehecht	-11.021
▁infarctjes	-11.0212
▁verweekt	-11.0212
dad	-11.0212
▁tangles	-11.0215
seudomembraneuze	-11.0227
▁last	-11.0233
▁katheter	-11.0239
lateraal	-11.024
▁autoimmuun	-11.0242
▁fracturen	-11.0246
▁geaspireerd	-11.0247
▁wanneer	-11.025
▁ooglid	-11.0252
▁pancytopenie	-11.0254
▁elastose	-11.0259
▁keer	-11.0259
▁plm	-11.0284
▁subcapsulaire	-11.0284
▁lca	-11.0287
▁haemodynamisch	-11.0303
▁aftakking	-11.0304
▁medicamenteus	-11.0307
▁daarop	-11.0308
▁high	-11.031
▁ziek	-11.0317
▁aaa	-11.032
component	-11.0321
shaarden	-11.0323
▁mij	-11.0325
▁familiaire	-11.033
▁troebele	-11.0338
▁ventriculaire	-11.0341
▁vrouwelijk	-11.0341
▁dig	-11.0348
▁capillair	-11.0354
▁inziens	-11.0364
▁pericentraal	-11.037
▁fibrineus	-11.0379
▁probleem	-11.0381
lymfklierpunctie	-11.039
▁populatie	-11.0401
ernstige	-11.0402
therosclerotisch	-11.0414
snijvlakken	-11.0416
ccr	-11.0416
▁ruggemerg	-11.0416
▁gekenmerk	-11.0416
▁orgaansystemen	-11.0416
cilinderepitheel	-11.0417
▁celmateriaal	-11.0418
▁inzendingen	-11.042
▁mai	-11.042
▁nst	-11.0421
▁groeipatroon	-11.0421
▁vergroeiing	-11.0424
ur	-11.0426
▁herkomst	-11.0427
▁verwijzing	-11.0429
fibrose	-11.0432
▁crp	-11.044
▁klassieke	-11.0456
doorgemaakte	-11.047
▁gallige	-11.0472
▁pyogenicum	-11.0473
▁multiforme	-11.0474
▁tumorgroei	-11.0477
datum	-11.0482
▁linkerbovenkwab	-11.0484
▁epidermiscyste	-11.0485
▁huidcurettage	-11.0486
▁klassiek	-11.0487
▁lbk	-11.05
test	-11.052
marge	-11.0526
▁morfine	-11.0527
▁tonsillen	-11.0531
▁doorgroeiend	-11.0534
▁myelo	-11.0535
▁bovenbeschreven	-11.0536
▁tensie	-11.0539
▁spectrum	-11.0541
▁dysfunctie	-11.0546
▁tijdstip	-11.0546
▁heart	-11.0551
▁conve	-11.0552
▁wur	-11.0553
▁geinduceerd	-11.0553
▁armen	-11.0565
▁grade	-11.0571
rb	-11.0578
resectievlakken	-11.058
▁femur	-11.0592
▁drs	-11.0592
▁voedselresten	-11.0595
▁werkdiagnose	-11.0602
▁amygdala	-11.0607
▁allergisch	-11.0616
▁omgeven	-11.0629
▁histiocytaire	-11.0634
ewel	-11.0641
▁collegialiter	-11.0647
▁voorafgaande	-11.0649
▁lynch	-11.0657
▁brief	-11.0667
▁bijdragend	-11.067
mutaties	-11.069
▁perforaties	-11.0692
▁bls	-11.0694
maligniteit	-11.0697
▁gevormd	-11.0701
beginnende	-11.0703
▁mijn	-11.071
mutatie	-11.071
ongeveer	-11.0721
▁hepatische	-11.073
▁concrementen	-11.0731
▁maagtype	-11.0742
▁geassocieerde	-11.0743
▁body	-11.0759
▁afmetingen	-11.076
▁ganglia	-11.0764
▁splenectomie	-11.0764
▁achtergebleven	-11.077
▁ebus	-11.0781
reuscelreactie	-11.0782
▁spieren	-11.0785
▁fundus	-11.0789
▁prolaps	-11.079
▁viel	-11.0794
illair	-11.0806
▁skelet	-11.0809
embolische	-11.0814
lg	-11.0818
drain	-11.0818
▁linkerhartkamer	-11.0823
▁aangeboden	-11.0824
▁coeruleus	-11.0827
▁puspockets	-11.0829
▁nierparenchym	-11.0831
zoals	-11.0845
ductaalcarcinoom	-11.0856
▁tumoreuze	-11.0865
▁afgesproken	-11.0883
▁trombusvorming	-11.0885
▁letsels	-11.0886
▁seder	-11.0889
▁intrapulmonale	-11.0892
▁inactief	-11.0893
▁halverwege	-11.0894
keursdiagnose	-11.0894
▁ontstekings	-11.0896
▁schouw	-11.0898
▁bovenpool	-11.0909
▁lijn	-11.0939
▁beschikbaar	-11.0944
▁solaris	-11.0946
▁naaldbiopsie	-11.0953
▁laparoscopisch	-11.0954
▁test	-11.0954
▁obstruerende	-11.0964
▁gedetecteerd	-11.0969
▁dun	-11.0971
pik	-11.0972
▁slokdarmbiopten	-11.0974
▁ware	-11.0975
angiopathie	-11.0975
▁tvu	-11.0976
▁wit	-11.0983
functieverlies	-11.0988
▁epi	-11.0991
or	-11.0995
▁blaasbiopten	-11.1
▁agonaal	-11.1001
▁mycose	-11.1003
▁kopie	-11.1007
▁vertebralis	-11.1014
ok	-11.1016
perforatie	-11.1019
huid	-11.102
▁mechanisch	-11.1029
▁symptomen	-11.1029
▁niveaus	-11.1036
▁liesbreuk	-11.1036
▁vlokken	-11.1039
▁late	-11.104
▁ovale	-11.1042
▁balkenblaas	-11.1046
▁mlh	-11.1051
▁botweefsel	-11.1065
▁blaashals	-11.1072
▁subpleurale	-11.1083
▁gebroken	-11.1087
▁vlekkige	-11.1089
▁talgklier	-11.1098
bespreking	-11.1103
▁wijd	-11.1115
▁faecium	-11.1124
▁ontbreekt	-11.1124
▁levercelnecrose	-11.1125
▁codon	-11.1128
dikte	-11.1129
uencing	-11.1135
▁ligament	-11.1136
▁spiervezels	-11.1139
▁paratracheaal	-11.1141
▁zegelringcel	-11.1144
▁gefi	-11.1145
▁sampling	-11.1156
achtige	-11.1173
stuwing	-11.1174
▁ontwikkelen	-11.1175
▁nabloeding	-11.1184
▁myelum	-11.1185
icodermie	-11.1186
▁papillomateuze	-11.1186
▁cardiopulmonaal	-11.1186
coronary	-11.1186
▁thans	-11.1186
▁versmalling	-11.119
▁faecaal	-11.1192
ischemische	-11.1192
▁gold	-11.1197
▁penis	-11.1202
formulier	-11.121
▁buikvocht	-11.1212
lymfklier	-11.1212
▁vierde	-11.1217
▁longfunctie	-11.1222
▁lesie	-11.1222
maanden	-11.1223
▁encefalitis	-11.1226
▁carina	-11.1227
actieve	-11.1237
▁ingestuurd	-11.1238
▁resterend	-11.1243
▁infarctlitteken	-11.1243
▁bijgewoond	-11.1247
▁herhalen	-11.1248
▁overgenomen	-11.1248
▁herhaling	-11.1248
▁zuurvaste	-11.1251
patroon	-11.1279
▁huidig	-11.1285
▁temporale	-11.1292
▁alveolair	-11.1295
ig	-11.1296
▁loop	-11.13
▁punt	-11.1301
ol	-11.1302
▁curvatuur	-11.1309
▁benauwd	-11.1312
▁fibrosis	-11.1322
▁haarfollikel	-11.1327
▁msh	-11.1328
▁syndrome	-11.1329
▁chromosoom	-11.1331
▁adenoid	-11.1332
▁berichten	-11.1334
▁hoofdhuid	-11.1373
▁fibrosehaarden	-11.1381
▁geanalyseerd	-11.1381
kd	-11.1389
▁snoergroeven	-11.1389
▁tnm	-11.1397
▁ileocoecaal	-11.1399
▁stromal	-11.1409
▁kop	-11.1434
▁tamelijk	-11.1435
▁wekedelen	-11.1435
▁cutane	-11.1441
scellen	-11.1446
▁paranasaal	-11.1447
▁rechterwang	-11.145
▁anurie	-11.1452
▁occluderende	-11.1457
▁arterieen	-11.146
▁bloedvat	-11.146
▁screening	-11.1468
▁vermoed	-11.147
pdl	-11.1483
▁tachycardie	-11.1485
cs	-11.1498
▁sigmoideum	-11.1499
▁ano	-11.15
▁postuur	-11.15
▁darmziekte	-11.1501
▁percutane	-11.1505
▁onderpool	-11.1511
▁coronarialijden	-11.1527
▁corticaal	-11.153
▁afhankelijk	-11.1531
recidief	-11.1538
troffen	-11.154
zij	-11.1543
▁belasting	-11.1545
▁interesse	-11.1562
▁orgaangewichten	-11.1562
leeftijdsconform	-11.1562
pr	-11.1563
▁erythrocyten	-11.1565
▁ingevuld	-11.157
treft	-11.1572
ts	-11.1584
js	-11.1587
▁vroeg	-11.1591
▁vaatwanden	-11.1593
▁abnormale	-11.1604
klasse	-11.1616
klachten	-11.1618
▁angiogram	-11.1618
▁obstructieve	-11.1621
▁sigmoad	-11.1625
giegie	-11.1626
traprostatisch	-11.1626
▁benauwdheid	-11.1627
▁gedegenereerd	-11.1628
getwijfeld	-11.1628
co	-11.1633
▁belaste	-11.1634
▁hyaline	-11.164
pre	-11.1642
▁wegener	-11.1644
▁hypertrofi	-11.1644
▁eiwit	-11.1655
▁fascie	-11.1657
▁bronchusbiopten	-11.1661
▁stv	-11.1666
eren	-11.1667
▁stomp	-11.167
▁dilatatio	-11.1686
▁sh	-11.1688
generation	-11.1691
▁nogmaals	-11.1691
sereuz	-11.1696
▁craniale	-11.1698
▁villitis	-11.17
▁endoprothese	-11.1703
gt	-11.1704
▁heen	-11.1705
plastiek	-11.1718
▁gebiedjes	-11.172
zijde	-11.1721
▁deficientie	-11.1727
▁arterioscleroti	-11.1734
▁pan	-11.1736
▁lacunaire	-11.1744
▁mutatieanalyse	-11.1745
▁optrad	-11.1746
▁erosies	-11.1746
prostaat	-11.1748
▁retro	-11.175
foto	-11.1751
▁necroticans	-11.1755
▁lentigineuze	-11.1755
▁adenomyosis	-11.1762
▁uitsluiten	-11.1765
▁anterolateraal	-11.177
esophagusvarices	-11.1775
▁fusie	-11.1777
▁scrotum	-11.1778
ldh	-11.1779
▁eindstandig	-11.1801
ischaemische	-11.1817
advies	-11.1818
nr	-11.1819
▁neonaat	-11.1821
▁lekker	-11.1821
▁bekleed	-11.1821
▁geneticus	-11.1821
▁controleren	-11.1821
▁mi	-11.1822
▁evaluatie	-11.1822
▁verlaagd	-11.1825
▁abcedering	-11.1825
▁sacculair	-11.1828
▁behandelend	-11.1833
▁lvad	-11.1834
▁grof	-11.1834
▁perioden	-11.1836
▁pneumectomie	-11.1836
▁longbloedingen	-11.1843
▁ala	-11.1853
▁gericht	-11.1855
▁doorbloeding	-11.1859
▁bacterie	-11.1863
▁zeven	-11.1864
▁verrichten	-11.1866
▁traumatische	-11.1878
hartspierweefsel	-11.1883
auriculair	-11.1884
▁graviditeit	-11.1886
▁aanmerking	-11.1887
▁bovenvermeld	-11.1887
▁cholesterolose	-11.1887
▁groen	-11.1887
▁holtevorming	-11.1887
okselkliertoilet	-11.1888
▁grondslag	-11.1891
bronchusspoeling	-11.1892
▁mmr	-11.1893
coupe	-11.1893
▁insulten	-11.1899
tekens	-11.1901
▁cf	-11.1902
▁communicans	-11.1904
▁gestold	-11.1904
▁overgangscel	-11.1937
▁verergerd	-11.1942
▁idh	-11.1945
▁roken	-11.1951
▁achterhoofd	-11.1953
▁myoom	-11.1954
▁voorkomende	-11.1954
▁bewijzend	-11.1955
▁tubulo	-11.1956
geringe	-11.1957
▁aansluitend	-11.1958
▁hypertrophi	-11.1961
▁karakter	-11.1962
▁imponerend	-11.1963
▁aangrenzende	-11.1966
▁stukjes	-11.197
▁overgroei	-11.1972
▁dyspnoeisch	-11.1975
▁astrocytoom	-11.1975
▁verslechterd	-11.1982
▁blauw	-11.1983
▁handen	-11.1989
▁overal	-11.199
slijmvliesbiopt	-11.1997
md	-11.1997
▁fibrilleren	-11.2
ingroei	-11.2002
▁innemend	-11.201
▁geidentificeerd	-11.202
▁obese	-11.202
▁myelofibrose	-11.202
▁fragmentatie	-11.2023
▁kortdurend	-11.2024
▁tracheostoma	-11.2024
▁herkenba	-11.2025
beiderzijds	-11.2026
▁chemo	-11.2029
▁hartlijden	-11.2037
biopsiemateriaal	-11.2048
▁zwangerschaps	-11.2053
▁chroniciteit	-11.2055
▁rv	-11.2057
▁sporadische	-11.2065
obductie	-11.2067
▁inotropie	-11.2067
sbaar	-11.2074
▁papel	-11.2078
je	-11.2083
▁beschrijving	-11.2086
▁hemopericard	-11.2087
▁geoblitereerd	-11.2087
▁ongecompliceerd	-11.2087
▁hoofdtakken	-11.2087
▁dominante	-11.2096
▁fibroblasten	-11.2098
blaas	-11.2099
▁opsnijden	-11.2101
▁linkerwang	-11.2104
▁preparaten	-11.2104
gastrointestinal	-11.2114
▁stenoserend	-11.2114
septische	-11.2117
▁gevorderd	-11.2119
▁neutrofielen	-11.2119
▁arterieel	-11.2124
▁lip	-11.2133
▁vriescoupes	-11.2135
▁foto	-11.2144
▁faecalis	-11.2154
▁thrombusmassa	-11.2155
ia	-11.2158
necrologie	-11.216
endometriumbiopt	-11.2162
▁markers	-11.2171
all	-11.2172
▁ileumbiopten	-11.2186
invasief	-11.2217
▁knapte	-11.2219
aat	-11.2219
epitheliaal	-11.2219
▁bevinden	-11.2221
▁hersensektie	-11.2222
▁optimaal	-11.2223
▁overlegd	-11.2223
▁mastopathisch	-11.2224
▁veroudering	-11.2226
▁voedsel	-11.2226
structuren	-11.2228
jes	-11.2229
europathologisch	-11.2231
▁inverte	-11.2233
▁mucineuze	-11.2235
▁ihc	-11.2238
▁hechting	-11.2239
▁mammabiopt	-11.2245
▁event	-11.2249
ua	-11.2252
▁bestonden	-11.2253
▁gebracht	-11.226
▁verdringing	-11.2272
▁peritoneaal	-11.2278
om	-11.2279
▁saturatie	-11.2281
▁tensiedaling	-11.2281
▁conservatief	-11.2291
▁meningen	-11.2294
▁enorm	-11.2303
▁interstitial	-11.2303
▁dentatus	-11.2304
▁ontlasting	-11.2304
▁sp	-11.2305
▁arteriolo	-11.2309
zijdigheid	-11.2313
jejunostomie	-11.2315
▁neiging	-11.2316
ntractietoestand	-11.2322
▁viii	-11.2324
▁nemen	-11.2329
▁capillairen	-11.2332
▁ercp	-11.2332
▁ao	-11.2341
ischemie	-11.2343
▁cerebro	-11.2355
flow	-11.2357
▁geintubeerd	-11.236
▁idem	-11.236
▁zijsnijranden	-11.238
▁minus	-11.2382
▁marges	-11.2382
▁cornea	-11.2384
neren	-11.2385
pogingen	-11.2393
▁inpa	-11.2394
▁coccen	-11.2395
▁onverwachts	-11.2398
▁pneumonia	-11.2414
therapie	-11.242
▁inflammatoir	-11.2423
▁rondkernig	-11.2423
lectromechanisch	-11.2428
▁rechterschouder	-11.2429
▁chemoradiatie	-11.2429
▁trilineair	-11.2429
▁orienterend	-11.2429
▁aortawortel	-11.243
▁aanzien	-11.2432
▁destijds	-11.2434
▁hematurie	-11.2434
▁ondersteund	-11.2434
▁dermatose	-11.2434
▁adventitia	-11.2449
broncho	-11.245
▁apocriene	-11.2451
▁ganglion	-11.2452
▁ijzerhoudend	-11.2455
▁marfan	-11.2459
▁for	-11.2468
▁zekerheidshalve	-11.2471
▁kit	-11.2482
▁uitstrijk	-11.2483
▁lagen	-11.2495
hangt	-11.2498
▁gelijktijdig	-11.2499
▁familieleden	-11.2499
▁beenvaten	-11.25
▁aortabifurcatie	-11.2501
▁myocardschade	-11.2502
▁mural	-11.2506
▁plastiek	-11.2509
▁vergelijkba	-11.2518
▁blue	-11.2522
ak	-11.2523
▁aortaprothese	-11.2526
▁terecht	-11.2538
▁donker	-11.2556
▁navel	-11.2558
▁gland	-11.2559
▁veroorzaken	-11.256
▁eigen	-11.2569
▁geconcludeerd	-11.257
▁small	-11.257
▁anderszins	-11.257
▁hersenparenchym	-11.257
▁hartspiervezels	-11.2571
▁verstrekte	-11.2576
▁administratie	-11.2577
zonder	-11.2578
ventrikelzijwand	-11.2579
▁erysipelas	-11.2583
▁state	-11.2584
▁arthritis	-11.2588
▁ab	-11.2592
▁grijze	-11.2599
▁brede	-11.26
waarvoor	-11.26
▁subtype	-11.2605
▁tekening	-11.2607
▁usual	-11.2624
▁blijven	-11.263
▁mee	-11.2635
▁streng	-11.2637
▁deferens	-11.264
▁invullen	-11.264
▁pigmentosus	-11.264
▁gyri	-11.2641
▁niercysten	-11.2645
▁beoordeelbare	-11.2645
▁verslaglegging	-11.2645
▁inspanning	-11.2646
▁gevoelig	-11.265
▁beeldvormend	-11.2651
interstitiele	-11.2651
▁hartoren	-11.2661
▁anastomosen	-11.2662
▁assay	-11.2662
▁submucosaal	-11.2662
activiteit	-11.2663
▁herniatie	-11.2666
▁rip	-11.2668
▁functionele	-11.2671
enteritis	-11.2673
▁ligging	-11.268
out	-11.2681
▁onsteking	-11.2684
▁plusminus	-11.2704
▁steun	-11.2706
▁princip	-11.2712
▁slikklachten	-11.2712
▁moest	-11.2712
▁intramuraal	-11.2722
achtig	-11.2727
▁vacuolair	-11.2733
▁cdk	-11.2734
▁epicarditis	-11.2735
▁sarcomatoid	-11.2743
▁lu	-11.2745
▁significant	-11.2748
zowel	-11.2749
▁tauopathie	-11.2749
▁correctie	-11.2755
▁cervicaal	-11.2761
▁bodies	-11.2766
natieve	-11.2769
▁embolisatie	-11.2777
▁uitrijpend	-11.2784
▁infectiefocus	-11.2785
▁glioblastoma	-11.2791
▁hematopoiese	-11.2794
▁turprostaat	-11.2795
▁jongen	-11.28
geschat	-11.2808
▁spoeling	-11.2822
▁bloedend	-11.2832
▁gemeten	-11.2833
▁hsv	-11.2835
▁verwacht	-11.2838
▁rdp	-11.2844
▁circumferente	-11.2845
▁verlopen	-11.2846
▁stond	-11.2846
▁occipitale	-11.2846
▁iliacale	-11.2849
▁renale	-11.285
▁gestopt	-11.2856
▁beademd	-11.2856
▁mesenchymal	-11.2858
recent	-11.2858
▁dichtstbijzijnd	-11.2861
▁neocort	-11.2861
▁jugularis	-11.2864
▁dis	-11.2864
▁mandibula	-11.287
▁voorlip	-11.2873
▁nadien	-11.2874
▁vessel	-11.2874
▁gna	-11.2888
▁elk	-11.2895
▁stijging	-11.2902
▁kunstklep	-11.2905
▁pta	-11.292
▁death	-11.293
▁alveolar	-11.2933
▁neo	-11.2934
▁fundic	-11.2934
▁haemangioom	-11.2949
▁hartventrikel	-11.2954
▁enterobacter	-11.2958
stadium	-11.2962
▁granuloom	-11.2968
▁gekleurd	-11.2971
▁negen	-11.2977
▁noduli	-11.2979
▁intravasculaire	-11.298
zijwand	-11.2986
▁ac	-11.2991
▁hemolytisch	-11.2995
▁irreversibele	-11.3002
▁drukverhoging	-11.3003
▁hersenvaten	-11.3003
▁wandlagen	-11.3003
pclpcl	-11.3003
▁voorgrond	-11.3006
▁escherichia	-11.3007
▁vormt	-11.3008
▁veld	-11.3009
▁wogen	-11.301
▁longinfarct	-11.3018
▁paralytisch	-11.3032
klinische	-11.3032
▁groepjes	-11.3041
▁verzwaarde	-11.3042
jakob	-11.3052
▁vaatinvasie	-11.3052
hpv	-11.3053
organ	-11.3062
▁sirs	-11.3065
erende	-11.307
▁hartplak	-11.307
▁verlittekend	-11.3073
▁celrijkdom	-11.3077
▁intestinaaltype	-11.3078
▁douglasi	-11.3078
perifolliculitis	-11.3079
▁ziekten	-11.308
▁isthmus	-11.3081
sclerotische	-11.3086
▁trombolyse	-11.3088
▁von	-11.3089
▁ingrepen	-11.3097
▁anterieur	-11.3099
▁verbeterde	-11.3101
▁porte	-11.3104
stilstand	-11.3105
▁genetische	-11.312
▁encephalitis	-11.3121
respiratoire	-11.3132
ul	-11.3133
▁reconstructie	-11.3139
▁fecaal	-11.315
operatieve	-11.3151
▁korrelig	-11.3152
▁ecmo	-11.3152
▁vochtrijk	-11.3153
▁gereviseerd	-11.3156
▁pigmentatie	-11.3157
▁doorgeschoten	-11.3164
▁tonsil	-11.3166
▁episoden	-11.3167
▁pneumococcen	-11.3168
▁resultaten	-11.3168
▁agenesie	-11.3178
▁circumferent	-11.318
▁darmbiopten	-11.3203
drietal	-11.3217
▁vallen	-11.322
▁pityriasi	-11.3227
▁losliggend	-11.3227
▁caudatus	-11.3231
▁ontstonden	-11.3233
▁palatum	-11.3233
▁peribronchiale	-11.3238
▁geulcereerd	-11.3241
▁receptoren	-11.3243
▁gastroscopie	-11.3247
▁intermediair	-11.3253
▁patch	-11.3267
▁dik	-11.3272
▁weefselfragment	-11.3278
▁samenhang	-11.3286
▁collageen	-11.3302
▁geclassificeerd	-11.3302
▁geinterpreteerd	-11.3302
▁hemoptoe	-11.3302
▁leidde	-11.3302
▁allogene	-11.3302
▁aanzienlijk	-11.3303
▁jongetje	-11.3304
▁osteomyelitis	-11.3307
antrumslijmvlies	-11.3307
▁cs	-11.3316
▁ogend	-11.3317
▁tweeling	-11.3319
▁gescleroseerde	-11.3325
▁subdurale	-11.3341
▁semi	-11.3345
cardiale	-11.3355
tensie	-11.336
▁mof	-11.336
amyloid	-11.3365
▁zijsnijrand	-11.3369
▁gelu	-11.3374
bvdw	-11.3379
▁uitgesneden	-11.338
periappendicitis	-11.3381
▁welk	-11.3384
▁voorgaande	-11.3386
▁bloedingsresten	-11.3386
▁immatuur	-11.3387
▁peg	-11.3388
▁jicht	-11.339
▁miltstuwing	-11.339
▁paraffine	-11.3391
▁serositis	-11.3397
▁intravasculair	-11.3404
▁grens	-11.3405
▁maagmucosa	-11.3414
▁inductie	-11.342
▁mo	-11.3433
lijk	-11.3435
▁huis	-11.3441
▁vin	-11.3443
▁geisoleerde	-11.3445
▁galsteen	-11.3455
▁fibromusculair	-11.3456
▁geinfiltreerd	-11.3456
▁accreditatie	-11.3456
▁leeg	-11.3457
hartgewicht	-11.3459
matig	-11.3464
▁dreigende	-11.3464
▁hysterectomie	-11.3467
▁onregelmatige	-11.3469
▁repair	-11.3476
▁cribriform	-11.3476
onale	-11.3496
▁gesneden	-11.3496
▁myc	-11.3497
▁criteria	-11.3512
▁blauwe	-11.3513
▁infarctje	-11.3516
▁gepigmenteerd	-11.3518
▁evt	-11.352
▁geneesmiddel	-11.3528
▁basalioom	-11.3533
▁dyspnoisch	-11.3533
▁trombopenie	-11.3533
▁aangewezen	-11.3535
▁gestoord	-11.3538
▁tunica	-11.3538
▁overeenkomstig	-11.3538
▁overeenkomend	-11.3541
▁dura	-11.3546
▁bewaard	-11.3551
▁fossa	-11.3567
▁longontsteking	-11.3567
▁morbid	-11.3569
cl	-11.3573
▁koa	-11.3595
▁afloop	-11.3605
profiel	-11.3608
▁hypothyreoidie	-11.3611
treem	-11.3611
▁vaststellen	-11.3611
▁spierlaag	-11.3611
▁aldus	-11.3613
▁vreemdlichaam	-11.3617
▁hartafwijking	-11.3617
restanten	-11.3619
▁vingers	-11.362
▁achterlip	-11.3626
▁lymfklierbiopt	-11.3628
▁immunologisch	-11.3632
▁port	-11.3632
▁opening	-11.3632
▁hepatorenaal	-11.3633
proces	-11.3635
▁resectierand	-11.3638
▁serologisch	-11.3645
▁cis	-11.3653
▁vergelijking	-11.3655
▁colonresectie	-11.3657
▁functioneel	-11.366
▁start	-11.3661
oude	-11.3682
▁zat	-11.3685
▁bronchustakken	-11.369
▁bricker	-11.3691
▁heupoperatie	-11.3694
▁geopend	-11.3698
aorta	-11.37
▁maagulcus	-11.37
▁jbz	-11.3702
▁stage	-11.3702
▁nierarterie	-11.3702
▁recentelijk	-11.3702
▁okseltop	-11.3717
▁verlopende	-11.372
▁potje	-11.372
▁anamnestisch	-11.373
oid	-11.3732
aan	-11.3741
chronische	-11.3748
▁myofibrose	-11.3769
▁doorgebroken	-11.3771
▁miljoen	-11.3771
▁aangebracht	-11.3772
▁hartgewicht	-11.3775
▁bepalingen	-11.3775
▁ventrikelseptum	-11.3777
▁kolonies	-11.3781
infarcten	-11.3786
postinflammatoir	-11.3786
▁partieel	-11.3794
▁prikkeling	-11.3817
erend	-11.3835
▁abstineren	-11.3841
ricuspidalisklep	-11.3849
bulleuze	-11.3849
▁handelen	-11.3849
▁neoplasma	-11.385
▁rugpijn	-11.385
▁longvelden	-11.3851
ueruptuur	-11.3851
▁sneeranden	-11.3855
▁uitgezette	-11.3856
enzymkleuring	-11.3856
▁multiorgaan	-11.3857
▁naevi	-11.3858
▁hartziekte	-11.3859
▁pussig	-11.3865
▁vas	-11.3868
▁arcus	-11.3868
▁bi	-11.3869
▁stapeling	-11.3883
▁antistoffen	-11.3888
alk	-11.389
▁bolle	-11.39
▁myopathie	-11.3901
lijden	-11.3904
ver	-11.3914
breidt	-11.3927
resten	-11.3928
▁snoergroeve	-11.3928
▁pubis	-11.393
▁inotropica	-11.393
▁dwarslaesie	-11.393
avd	-11.3935
jth	-11.3935
▁perirenale	-11.3939
lc	-11.3939
pleuravocht	-11.394
weken	-11.3941
hersenen	-11.3942
▁aorto	-11.3948
▁slanke	-11.395
▁colorectaal	-11.3955
▁tijde	-11.3967
veelal	-11.3968
▁cellulair	-11.3972
▁tr	-11.3979
ards	-11.3992
▁hemi	-11.3994
rug	-11.3995
▁teen	-11.4006
▁lichaamslengte	-11.4006
negatieve	-11.4006
▁deletie	-11.401
terventricularis	-11.4011
▁sommige	-11.4011
▁overeenstemming	-11.4011
▁angiosarcoom	-11.4012
▁zijrand	-11.4013
▁subfrenisch	-11.402
▁bewerking	-11.402
▁plasmocytose	-11.4021
▁centrolobulair	-11.4023
hondrodermatitis	-11.4026
▁neuronale	-11.4026
▁epicardiale	-11.4027
▁variaties	-11.4035
▁fgf	-11.4047
sm	-11.4049
▁gemacereerd	-11.4057
bbl	-11.406
▁referentie	-11.4063
▁tcel	-11.4075
▁verdeling	-11.4077
▁colloid	-11.4082
▁conclusief	-11.4084
ransformatiezone	-11.4086
▁helicobacters	-11.4091
▁obstipatie	-11.4093
▁urogenitalis	-11.4093
▁cornu	-11.4094
weefselversterf	-11.4094
iswaar	-11.4095
▁bekledend	-11.4095
bepaling	-11.4095
▁linkerschouder	-11.4099
▁submucosale	-11.4102
who	-11.411
trahepatische	-11.4113
gb	-11.4121
▁shunt	-11.4121
▁stevig	-11.4127
pitheeldysplasie	-11.4128
▁lichaampjes	-11.4128
bronchiectasieen	-11.4131
uent	-11.4139
▁vulvabiopt	-11.4139
▁glomerulair	-11.4139
▁emv	-11.414
▁ophopingen	-11.414
jr	-11.414
ose	-11.4143
▁indruk	-11.4152
recente	-11.4154
▁ogen	-11.4163
mucosa	-11.4164
cisiebiopsie	-11.417
braak	-11.4174
▁procent	-11.4176
▁umbilicalis	-11.4176
▁afdoende	-11.4176
▁heupfractuur	-11.4176
▁mucoid	-11.4176
▁sufheid	-11.4177
▁prolifererend	-11.4178
▁gespannen	-11.4188
▁drietakslijden	-11.4189
▁processen	-11.4193
▁gemeld	-11.4195
level	-11.4199
▁tekst	-11.4223
▁relevant	-11.4242
▁urticaria	-11.4257
▁weefsels	-11.4258
▁hoeveelheden	-11.4259
▁verte	-11.4262
▁cutaan	-11.4264
▁circulus	-11.4265
▁kennelijk	-11.4265
obstructie	-11.4266
▁leiomyosarcoom	-11.4268
▁streptococcen	-11.4268
▁cirrhotisch	-11.4271
▁darminhoud	-11.4273
▁aandoeningen	-11.4274
patient	-11.4274
▁forensisch	-11.4275
▁inflammatie	-11.4275
▁glioblastoom	-11.4278
▁linkermamma	-11.428
▁allel	-11.4281
doodsoorzaak	-11.4284
▁nsclc	-11.4292
▁vsd	-11.4294
▁mbv	-11.43
▁nauw	-11.4312
fractuur	-11.4315
▁fulminant	-11.4316
▁intrahepatische	-11.4322
vii	-11.4335
uitgebreide	-11.4337
▁accident	-11.4339
iciteit	-11.434
▁geinformeerd	-11.4343
▁zodanig	-11.4343
▁blaarvorming	-11.4343
▁schedelbasis	-11.4343
▁uiterst	-11.4344
hmhhmh	-11.4344
▁sprietig	-11.4345
▁bicuspide	-11.4348
▁wijten	-11.4353
▁infarctgebied	-11.4357
▁botmetastasen	-11.4357
▁trofoblast	-11.438
▁renaalcel	-11.438
▁gebruikt	-11.4381
▁linkszijdige	-11.4389
pla	-11.4412
▁ratio	-11.4418
▁hemorragie	-11.442
▁zwakke	-11.4426
▁zeggen	-11.4428
▁syndromale	-11.4428
▁neoadjuvant	-11.4428
▁haematomen	-11.4428
▁klepafwijkingen	-11.4433
▁intracerebraal	-11.4439
shock	-11.4443
▁psa	-11.445
niveau	-11.4452
▁miltinfarct	-11.4458
epitheliale	-11.448
▁contractie	-11.4486
▁longbiopt	-11.4491
▁baby	-11.4513
▁hemochromatose	-11.4514
▁dwarsgestreept	-11.4514
▁getromboseerd	-11.4519
▁rheumatoid	-11.4519
▁kidney	-11.4519
▁losse	-11.4525
▁stuk	-11.4533
andere	-11.454
sn	-11.4542
▁tb	-11.4542
▁haemato	-11.4567
▁zelfs	-11.4575
coronairsclerose	-11.4576
hersenmetastasen	-11.4576
▁ascenderende	-11.4577
▁veno	-11.4581
▁verkeerde	-11.4587
ani	-11.4589
▁tenen	-11.459
▁gronden	-11.4593
▁decidua	-11.4594
▁oorspronkelijk	-11.4594
▁levermetastase	-11.4595
▁huidlaesie	-11.4596
panel	-11.4597
ischaemie	-11.4599
▁corpora	-11.46
▁geresulteerd	-11.46
▁nodosum	-11.46
▁bereikt	-11.46
▁verscheiden	-11.46
▁colonmucosa	-11.4606
▁voorgelegd	-11.4607
▁sondevoeding	-11.4609
▁microthrombi	-11.4613
hals	-11.4614
▁konklusie	-11.4616
▁intraductal	-11.4617
▁plasmacel	-11.4619
▁bal	-11.462
▁scan	-11.4622
▁enterocolitis	-11.4623
▁maal	-11.4631
▁transfusie	-11.4631
▁species	-11.4641
▁drains	-11.4659
non	-11.4664
▁epitheliaal	-11.4669
▁verliep	-11.4676
▁tumortje	-11.4679
▁vindt	-11.4689
▁geleidelijk	-11.4689
▁overplaatsing	-11.4689
▁opties	-11.4695
▁renales	-11.47
▁duodenumbiopt	-11.4705
fragment	-11.4706
▁buizen	-11.471
▁preterminale	-11.472
▁denk	-11.472
▁vesicula	-11.473
midden	-11.4731
▁genoemd	-11.4735
▁jonger	-11.4737
▁atelectatisch	-11.4746
▁ingesteld	-11.4746
safbreking	-11.4755
▁prominent	-11.4762
▁structuur	-11.4767
▁gang	-11.4774
▁tongrand	-11.4775
▁pleurabladen	-11.4775
▁aberrant	-11.4776
▁myocyten	-11.4777
mediadegeneratie	-11.4784
▁galgangen	-11.479
▁volvulus	-11.4791
▁wonden	-11.4791
▁occlusies	-11.4792
villeus	-11.4794
▁fenomeen	-11.4795
▁temperatuur	-11.4798
▁harthelft	-11.4799
▁blanke	-11.4812
▁ossale	-11.4813
onderwand	-11.4817
intestinaal	-11.4823
micro	-11.4827
▁as	-11.4833
▁afd	-11.4852
▁embryonal	-11.4863
▁vertoont	-11.4863
▁irritatie	-11.4867
▁solutio	-11.4869
▁klaagde	-11.4876
▁lipomateu	-11.488
▁uitend	-11.4885
▁vegetatie	-11.4893
gie	-11.4894
ap	-11.49
▁lymforeticulair	-11.4905
▁voorbij	-11.491
anamnese	-11.4913
▁nachts	-11.4913
acuut	-11.4914
abdomen	-11.4915
▁corpusbiopten	-11.4915
▁prion	-11.4919
▁microsatelliet	-11.4926
litteken	-11.4936
no	-11.4943
▁mitotisch	-11.4952
▁arteriopathie	-11.4953
▁vaatstructuren	-11.4953
▁cutaneum	-11.4953
▁drievats	-11.4954
▁toilet	-11.4957
▁mismatch	-11.4958
▁polypeus	-11.4958
▁linkerbeen	-11.4959
baar	-11.496
▁mengflora	-11.4962
▁verwachten	-11.4964
▁gezamenlijk	-11.4964
fibrillaire	-11.4965
▁leptomeningeale	-11.4969
vocht	-11.4972
▁viscerale	-11.4973
dermatitis	-11.499
▁dubieu	-11.4992
▁scopie	-11.5007
▁an	-11.5008
▁em	-11.5013
▁vervangen	-11.5022
▁cti	-11.503
▁gegroeid	-11.5042
▁strengileus	-11.5042
▁monochoriale	-11.5042
▁onopvallend	-11.5042
▁uitgaand	-11.5044
▁altijd	-11.5044
▁hormonale	-11.5048
▁lichaams	-11.5051
▁frontoparietaal	-11.5052
▁longarterien	-11.5052
▁gevraagd	-11.5056
▁inclusiecyste	-11.5059
▁cirrotisch	-11.5059
▁bijpassend	-11.5075
▁reductie	-11.5078
▁autosomaal	-11.5078
▁defecten	-11.5086
▁cells	-11.5089
▁omvang	-11.5089
reconstructie	-11.5091
▁tesamen	-11.5097
tenminste	-11.5102
▁ondersteunen	-11.5114
rechteronderbeen	-11.5122
▁bovenooglid	-11.5126
uebloeding	-11.5127
colon	-11.5127
▁callosum	-11.5133
▁epilepticus	-11.5133
▁toezending	-11.5133
▁hemiparese	-11.5133
▁polyposis	-11.5133
▁leukemische	-11.5134
mantelcellymfoom	-11.5135
▁rechterbeen	-11.5136
cp	-11.5136
▁obturatorius	-11.5137
▁pneumonitis	-11.5138
▁steel	-11.5138
▁zit	-11.5139
▁liposarcoom	-11.5139
▁parasieten	-11.5147
▁maakte	-11.5148
▁basocellulare	-11.5153
typeslijmvlies	-11.5156
omateuze	-11.5162
▁caput	-11.5162
▁bacteriologisch	-11.5165
▁geb	-11.5177
aire	-11.5181
▁pseudocyste	-11.5183
cor	-11.52
bi	-11.5203
▁hartkamers	-11.5212
stuitlengte	-11.5213
▁ha	-11.5219
▁ata	-11.522
▁verpleeghuis	-11.5224
▁berichtgeving	-11.5225
▁leken	-11.5229
▁getracht	-11.5231
oesofagusvarices	-11.5231
▁ablatie	-11.5233
▁tov	-11.5235
▁teratoom	-11.5236
lichaamsarterien	-11.5236
▁rechtermamma	-11.5243
▁aanvoelend	-11.5247
▁verbreding	-11.5256
ck	-11.5256
▁purkinje	-11.5257
▁ossaal	-11.5257
▁stabiele	-11.5262
▁opstijgend	-11.5262
▁gvhd	-11.5266
▁prostaatbiopt	-11.5284
skh	-11.5295
▁bioprothese	-11.5296
▁ontslag	-11.5308
▁centimeter	-11.5309
▁mastopathie	-11.5318
▁voelde	-11.5318
▁droog	-11.5318
▁heupkop	-11.5318
▁vals	-11.5318
▁samenhangen	-11.532
▁reageerde	-11.5323
▁funiculitis	-11.5323
▁twaalf	-11.5323
▁haargrens	-11.5324
▁plekken	-11.5325
▁nicotine	-11.5327
▁bijmenging	-11.5331
▁nvt	-11.5332
▁insuline	-11.5339
▁afplatting	-11.5343
▁lymfomen	-11.535
▁medebeoordeeld	-11.535
▁hyperkaliemie	-11.5354
septum	-11.5354
▁tumormetastase	-11.5355
▁radiatie	-11.5357
▁nootmuskaat	-11.537
▁recidiverend	-11.5379
nucleaire	-11.5381
infarctlittekens	-11.54
overige	-11.54
▁hartmann	-11.5402
▁adenose	-11.5407
▁uitgezet	-11.5409
▁perianaal	-11.5411
▁opgevraagd	-11.5413
▁effecten	-11.5414
sinfiltraten	-11.5416
▁hematogeen	-11.5416
▁bursa	-11.5417
▁tubectomie	-11.5417
cin	-11.5421
▁ontregeling	-11.5421
▁arachnoidea	-11.5421
▁blastaire	-11.5428
▁irradicaal	-11.5429
onen	-11.544
▁eiwitten	-11.5443
▁kant	-11.5449
▁sclerodermie	-11.5455
▁georganiseerd	-11.5465
ewustzijnsdaling	-11.5469
▁proliferatief	-11.5471
▁beklemd	-11.5478
carcinomen	-11.5478
sigmoid	-11.5482
plaveiselcel	-11.549
lymfoom	-11.5499
ens	-11.5505
▁aanwijsba	-11.5505
▁dientengevolge	-11.5505
▁haematurie	-11.5505
▁plaatsvinden	-11.5505
kalenderleeftijd	-11.5505
▁lumenvernauwing	-11.5506
hemihepatectomie	-11.5506
▁biventriculair	-11.5506
▁caverneus	-11.5508
▁pneumocystis	-11.5508
▁linkeronderbeen	-11.5514
▁weten	-11.5515
uitstrijk	-11.5518
▁hormoonreceptor	-11.5526
▁bcc	-11.5529
▁mg	-11.5531
▁lager	-11.5538
▁restlumina	-11.5539
▁ruimer	-11.5542
pitheelcarcinoom	-11.5546
▁pleksgewij	-11.5549
▁ochtends	-11.5552
▁miss	-11.5554
▁nav	-11.5557
uurs	-11.5557
▁geacht	-11.5558
arterien	-11.5562
▁abortus	-11.5572
▁begrensde	-11.5575
kwaliteit	-11.5588
▁poliepjes	-11.559
▁sle	-11.5594
stent	-11.5596
▁antracose	-11.5599
▁aangetast	-11.5601
▁toegediend	-11.5601
▁hemisferen	-11.5601
▁cardioloog	-11.5601
▁radiculair	-11.5601
▁weegt	-11.5601
sudaat	-11.5602
▁host	-11.5604
▁fisteling	-11.5606
▁varianten	-11.5608
circumferentieel	-11.5609
▁anterieure	-11.5609
▁annulus	-11.5611
▁mammapunctie	-11.5614
▁dubbel	-11.5623
▁reuscel	-11.5623
▁pitting	-11.5626
▁leverfibrose	-11.5629
▁augmentin	-11.563
▁studie	-11.5631
▁acanthose	-11.5632
epitheelcellen	-11.5638
▁water	-11.5643
itiele	-11.5648
▁eosinofielen	-11.5648
▁huidafwijkingen	-11.5655
▁colonbiopt	-11.5662
▁transurethra	-11.5674
▁biliaire	-11.5674
naar	-11.5676
▁gemodificeerde	-11.5677
▁vu	-11.5682
▁bouw	-11.5687
▁buikoperatie	-11.5696
▁betekent	-11.5697
▁oorzakelijk	-11.5697
▁restrictie	-11.5697
▁femurfractuur	-11.5697
▁duodenitis	-11.5697
▁renis	-11.5697
▁cardiologie	-11.5698
▁birads	-11.5702
▁massieve	-11.5703
▁rosacea	-11.5703
▁frontotemporale	-11.5703
▁beiden	-11.5706
▁ontslagen	-11.5707
▁niets	-11.5717
▁laceratie	-11.5728
▁vinger	-11.5732
▁athero	-11.5737
▁motor	-11.5755
▁sporen	-11.5757
▁bijbevindingen	-11.576
stage	-11.5764
▁adeno	-11.5774
▁norm	-11.5774
▁pat	-11.5784
▁gebouwd	-11.5794
▁bewerkt	-11.5794
▁bovinum	-11.5794
▁hemodialyse	-11.5794
▁vertonen	-11.5794
spondylodiscitis	-11.5794
▁gezorgd	-11.5794
▁plaatsvond	-11.5794
▁alpha	-11.5804
▁orchidectomie	-11.5804
▁sonde	-11.5817
▁schatting	-11.584
vaatproliferatie	-11.585
tenzij	-11.587
▁weg	-11.5887
▁huidafwijking	-11.589
afstand	-11.589
▁gepland	-11.5892
▁ledematen	-11.5892
▁ongewoon	-11.5892
▁helicis	-11.5892
▁oplevert	-11.5892
▁aritmie	-11.5895
tumordiameter	-11.5898
▁initieel	-11.5898
▁microkalk	-11.5898
▁opgesneden	-11.5899
▁bloedstuwing	-11.59
▁overhechting	-11.5902
pleuraholte	-11.5906
▁niercyste	-11.5909
▁cellulitis	-11.5914
terminale	-11.5916
▁apc	-11.5916
▁risk	-11.5916
▁paraaortaal	-11.5917
centrische	-11.5925
▁vf	-11.5928
▁endocardiale	-11.5931
▁septale	-11.5937
▁fuhrman	-11.5939
hartspiernecrose	-11.5945
▁inter	-11.5952
▁toediening	-11.5965
▁adherente	-11.5965
▁condyloma	-11.5969
▁emd	-11.5978
cyste	-11.5979
▁paro	-11.5981
tie	-11.5982
▁rechtercoronair	-11.5987
▁pomp	-11.5988
▁kortademig	-11.599
▁okselvet	-11.5991
▁sjogren	-11.5993
▁haematopoese	-11.5993
grote	-11.5994
▁rontgen	-11.5994
▁patia	-11.5997
▁coprostase	-11.5997
▁tri	-11.6001
▁loopt	-11.6001
▁breed	-11.6004
▁hv	-11.6006
▁maagcardia	-11.6009
▁huidcurettement	-11.601
▁ki	-11.6013
▁adherent	-11.6013
▁schouderbladen	-11.6016
naast	-11.602
▁geleverd	-11.6023
▁hartritme	-11.6027
▁verlengde	-11.6033
▁gedissemineerde	-11.6047
▁synovium	-11.6052
▁bloedingsrest	-11.6055
▁cellulariteit	-11.6059
mi	-11.6059
vormige	-11.6072
▁iliacaal	-11.6078
thromboembolieen	-11.608
▁puntje	-11.6081
▁huntington	-11.6091
▁begonnen	-11.6091
▁vruchtholte	-11.6091
hotr	-11.6092
▁arteriolen	-11.6092
▁chronicus	-11.6093
▁doorgesneden	-11.6093
▁zelfde	-11.6097
tjes	-11.61
▁gedraineerd	-11.6101
▁lichenoad	-11.6102
▁inoperabel	-11.6105
▁subacuut	-11.6106
▁weefselverval	-11.611
▁pl	-11.6113
▁lichtmicroscopi	-11.6114
▁toeval	-11.6115
▁opmerkelijke	-11.6126
▁serologie	-11.6126
▁aspiraat	-11.6131
▁begrensd	-11.6132
haardjes	-11.6139
oppervlak	-11.6141
▁oren	-11.6144
▁maagbiopt	-11.6153
▁microangiopathi	-11.6162
isatie	-11.617
egfr	-11.6174
▁ptag	-11.6176
▁ongoing	-11.6176
traject	-11.6179
▁smal	-11.6187
cbd	-11.619
▁zichtbare	-11.6192
▁lengtematen	-11.6192
▁legionella	-11.6194
▁periporta	-11.6195
▁gestuurd	-11.6195
▁linkerbovenbeen	-11.6198
celpercentage	-11.62
▁onderkaak	-11.6201
verslag	-11.6204
virus	-11.6206
▁polymorfe	-11.6206
▁midline	-11.6207
behandeling	-11.6207
▁episodes	-11.6215
▁ruiter	-11.6216
▁uitname	-11.6217
erzorgingsgebied	-11.6217
▁hilair	-11.6221
rijgingstechniek	-11.6224
▁mitraal	-11.6227
▁liep	-11.6227
afwijking	-11.6234
▁kuur	-11.6235
ms	-11.624
▁degeneratief	-11.6252
▁atn	-11.6257
rand	-11.6263
ra	-11.6272
▁krabeffect	-11.6284
▁duim	-11.6287
▁celpopulatie	-11.6288
▁chemisch	-11.6291
▁transuretra	-11.6294
▁lactaatacidose	-11.6294
▁ingedikt	-11.6294
▁afgegeven	-11.6294
▁prostatica	-11.6295
▁wigvormig	-11.6295
▁avitaal	-11.6295
▁cysticus	-11.6296
▁side	-11.6297
strogeenreceptor	-11.6298
ventrikel	-11.63
▁epiglottis	-11.63
▁pea	-11.6301
▁gladde	-11.6302
▁verondersteld	-11.6303
▁gemengd	-11.6304
▁neuroom	-11.6306
▁asd	-11.6306
gradering	-11.6309
nefrosclerose	-11.6309
▁krabeffecten	-11.631
▁pancreasweefsel	-11.6315
volgens	-11.6325
▁histiocytoom	-11.6326
localisaties	-11.6327
cholesterolaemie	-11.633
▁alsnog	-11.6332
▁eosinofiel	-11.6333
ps	-11.6341
▁vertoonde	-11.6343
lima	-11.6344
▁spoelvocht	-11.6345
▁vats	-11.6349
infarceringen	-11.6366
ogene	-11.6369
▁lijnen	-11.637
▁restlokalisatie	-11.6373
amnionitis	-11.6377
tussen	-11.6385
▁overgangse	-11.6386
▁puspocket	-11.6387
▁centrilobulaire	-11.6389
▁lytisch	-11.6391
erd	-11.6391
▁componenten	-11.6392
infiltratie	-11.6395
▁discreet	-11.6397
▁verbreed	-11.6397
▁voorhanden	-11.6397
rca	-11.6397
▁hybridisatie	-11.6399
▁heftige	-11.6404
▁presternaal	-11.6408
▁vaatstelsel	-11.6412
empyeem	-11.6413
▁nasolabiaal	-11.6416
▁shift	-11.6416
gly	-11.6417
longoedeem	-11.6418
sh	-11.642
▁hypercalciemie	-11.6422
ro	-11.6426
▁hashimoto	-11.6433
▁aj	-11.6445
buisprothese	-11.6451
▁snijden	-11.6456
▁longbiopten	-11.6456
avs	-11.6459
bloedingen	-11.6464
celcarcinoom	-11.6464
lopend	-11.6465
▁aangevuld	-11.647
▁geconsolideerd	-11.6481
▁obstruerend	-11.6487
▁maagcorpustype	-11.6488
▁beinvloed	-11.649
loge	-11.6494
ren	-11.6495
▁verward	-11.65
▁rekanalisatie	-11.6501
▁kleplijden	-11.6502
▁knieprothese	-11.6503
mvg	-11.6505
▁longziekte	-11.6506
▁preputium	-11.6508
▁ongebruikelijk	-11.6508
▁zijsnijvlakken	-11.651
▁hoofdbronchien	-11.6511
klierweefsel	-11.6512
▁ventriculi	-11.6512
▁purpura	-11.6513
im	-11.6514
▁aangeboren	-11.6514
▁separate	-11.6516
▁longtop	-11.6518
macroscopisch	-11.6525
▁placentabed	-11.6531
eleidingssysteem	-11.6533
▁trap	-11.6538
bn	-11.6543
▁cystectomie	-11.6546
nl	-11.6551
synucleine	-11.6566
▁tumornecrose	-11.6574
▁hoogste	-11.6582
▁angiografie	-11.6589
▁contusie	-11.6592
spoliep	-11.6603
▁gave	-11.6605
mplise	-11.6606
▁betrekkelijk	-11.6606
▁lichaamsmaten	-11.6606
▁aansluiting	-11.6608
▁mdo	-11.6609
▁gastric	-11.6609
▁vrijgegeven	-11.6609
uevorming	-11.661
▁basaalmembraan	-11.6613
▁opgelopen	-11.6614
▁fibrosehaardjes	-11.6615
▁fibrinoide	-11.6618
▁afgedekt	-11.6621
▁hamartoom	-11.6621
▁voortgeschreden	-11.6622
▁insufficiente	-11.6623
▁mors	-11.6626
▁geinduceerde	-11.6628
▁kleinst	-11.663
▁serie	-11.6631
rw	-11.6633
▁krappe	-11.6637
▁verhouding	-11.6647
membraneuze	-11.6647
▁elektronen	-11.6648
fibrillatie	-11.6658
ken	-11.6674
medicamenteuze	-11.6678
laesie	-11.6683
▁onderzoeken	-11.6684
▁blijvende	-11.6692
▁hoofdbronchi	-11.6702
▁reiken	-11.6704
▁werk	-11.6705
mamma	-11.6706
▁pulmonair	-11.6711
▁levernaaldbiopt	-11.6712
▁gesteeld	-11.6713
▁herkennen	-11.6713
▁stigmata	-11.6713
▁langzaam	-11.6713
▁schizofrenie	-11.6713
loze	-11.6713
▁pancreaticus	-11.6713
▁novo	-11.6713
▁concentrisch	-11.6713
▁merendeel	-11.6713
▁celgroepen	-11.6714
▁darmlis	-11.6716
mn	-11.6717
▁zlijn	-11.6717
▁aanvragend	-11.6718
▁darmlijden	-11.6719
▁cystewand	-11.6735
▁levernecrose	-11.6737
▁depressie	-11.6738
▁reperfusie	-11.6741
▁nierweefsel	-11.6745
hospital	-11.6747
fibroserende	-11.6747
aanwijzingen	-11.6748
▁hartafwijkingen	-11.675
transplantaat	-11.6752
▁pompfunctie	-11.6756
pathologisch	-11.6767
▁lineaire	-11.6767
▁uitslagen	-11.6789
▁hem	-11.6795
▁traumatisch	-11.6803
bronchopneumonie	-11.6804
▁mucocele	-11.682
▁liezen	-11.682
▁vaginatop	-11.6821
▁bijdragende	-11.6821
▁vaatspasmen	-11.6821
▁hoornmateriaal	-11.6821
▁universitair	-11.6823
▁limbisch	-11.6824
▁error	-11.6826
▁ontwikkelt	-11.6827
▁thrombopenie	-11.6827
▁rectumamputatie	-11.6828
▁nodosa	-11.6832
▁coronairstenose	-11.6833
▁tumordoorgroei	-11.6841
▁pms	-11.6845
wille	-11.6846
positief	-11.6847
uterine	-11.6848
▁hematologische	-11.6848
verlies	-11.6849
darm	-11.685
▁straat	-11.6853
▁gemiddeld	-11.6854
cisiemateriaal	-11.6855
▁by	-11.6855
vanwege	-11.6859
▁hechtingen	-11.6865
periventriculair	-11.6865
▁galweg	-11.6868
▁stuit	-11.6875
▁eeg	-11.6879
hoog	-11.6897
▁nsaid	-11.6913
val	-11.6917
▁huidree	-11.692
▁littekengebied	-11.6922
▁target	-11.6925
▁verhaal	-11.6929
▁rectumstomp	-11.693
▁rubriek	-11.6932
▁risicofactoren	-11.6934
verk	-11.6936
▁optimal	-11.6938
beenmergaspiraat	-11.6939
▁onderkwadrant	-11.6941
hypo	-11.695
▁intraductaal	-11.6956
oma	-11.6956
▁granulair	-11.6957
▁clonale	-11.6959
reanimatiepoging	-11.696
▁intramurale	-11.696
▁adrenaline	-11.6963
cll	-11.6965
▁micrografi	-11.6969
id	-11.6978
▁staart	-11.6982
ering	-11.699
▁plus	-11.6993
dien	-11.7003
▁zwarte	-11.7007
iale	-11.7013
aemie	-11.7016
▁dubbelzijdig	-11.7019
▁pet	-11.7026
▁ms	-11.7031
▁angioom	-11.7033
▁verloren	-11.7039
▁angiolipoom	-11.7039
▁myelodysplasie	-11.7039
▁invloed	-11.704
▁interpreteren	-11.7042
▁dysmorfieen	-11.7043
▁bied	-11.7043
▁darmmucosa	-11.7046
▁geimplanteerd	-11.705
▁tevoren	-11.705
▁submandibulair	-11.705
▁neurologie	-11.7051
▁cytokeratine	-11.7055
bs	-11.7063
▁celverval	-11.7067
▁meningo	-11.7067
▁kaakhoek	-11.7069
▁gelijk	-11.707
graft	-11.7072
slecht	-11.7077
diffuse	-11.7088
▁bronchiale	-11.7088
pulmonale	-11.709
▁parese	-11.71
▁stasis	-11.7102
va	-11.7104
der	-11.7105
ria	-11.7129
▁plek	-11.7139
▁behandelen	-11.7145
▁instrumenta	-11.715
▁achterhaald	-11.715
▁diathese	-11.715
▁eortc	-11.715
▁obliterans	-11.715
▁paravertebraal	-11.715
▁hyperaemie	-11.7151
▁rustig	-11.7151
▁ho	-11.7152
▁streptokokken	-11.7153
ziekte	-11.7153
▁fna	-11.7156
▁uitgelokt	-11.7157
▁endometriosis	-11.7157
▁verschijnsel	-11.7157
problematiek	-11.7158
▁waarde	-11.7165
gerelateerde	-11.7165
tis	-11.7171
▁parkinsonisme	-11.7171
▁rou	-11.7172
▁vaster	-11.7173
▁epitheelcellen	-11.7175
▁monotypisch	-11.7176
▁schoon	-11.7178
▁protocollair	-11.7181
▁vera	-11.7181
verschijnselen	-11.7182
behoeftig	-11.7183
▁mycotisch	-11.7185
bethesda	-11.7204
radicaal	-11.7204
tvu	-11.7205
▁transplantaat	-11.7215
focaal	-11.7229
▁second	-11.723
boven	-11.7235
▁stand	-11.7237
▁systemisch	-11.7238
▁bovenstaand	-11.7249
▁bv	-11.7251
▁mola	-11.7254
▁cloacae	-11.7257
ventrikelwand	-11.7257
▁gevoed	-11.726
thrombose	-11.7261
▁atheromatose	-11.7262
▁delirant	-11.7262
▁valvula	-11.7262
▁distress	-11.7262
▁locoregional	-11.7262
▁binnengebracht	-11.7263
▁cytonucleair	-11.7263
▁arterietak	-11.7263
▁overgaand	-11.7264
▁src	-11.7265
matige	-11.7269
▁postero	-11.7271
▁pyelitis	-11.7272
granuloomvorming	-11.7273
▁hematemesis	-11.7274
▁smalle	-11.7275
▁grijs	-11.7282
pathogene	-11.7285
▁gebaseerd	-11.7288
dra	-11.7289
▁capsula	-11.7289
▁baso	-11.7291
▁ain	-11.7291
▁acantholytische	-11.7297
▁junction	-11.73
▁pancreatico	-11.7307
▁tps	-11.7311
spoelvocht	-11.7314
▁zones	-11.7319
▁oplopend	-11.7321
▁hpf	-11.7329
▁chorio	-11.7331
rectumslijmvlies	-11.734
▁functionerend	-11.7357
▁hieromheen	-11.7376
▁mesencefalon	-11.7376
▁zonbeschadigd	-11.7376
▁nefrolithiasis	-11.7376
▁daags	-11.7376
▁pericardzakje	-11.7376
▁braaksel	-11.7376
▁massawerking	-11.7376
▁herhaaldelijk	-11.7376
▁paratracheale	-11.7377
▁parameters	-11.7377
▁nieman	-11.7379
derdegraads	-11.7379
▁reagerend	-11.7386
▁tweetaks	-11.7389
teuze	-11.7393
implantatie	-11.7393
▁blaasbiopt	-11.7404
▁elastisch	-11.7414
▁longpathologie	-11.7416
▁inclusie	-11.7417
satypie	-11.7422
▁vloeistof	-11.7431
▁symmetrische	-11.7434
▁vlekkerige	-11.7435
▁pati	-11.7439
decompensatio	-11.7442
zover	-11.7442
▁lyse	-11.7444
▁halve	-11.7451
▁shavebiopt	-11.7454
▁rechteratrium	-11.7457
▁clonaliteits	-11.7457
oesophagus	-11.7474
deposities	-11.7478
functie	-11.7485
▁paget	-11.749
▁herhaald	-11.749
▁insectenbeet	-11.7491
▁polyneuropathie	-11.7491
▁ontbinding	-11.7491
▁afgewerkt	-11.7491
▁leversteatose	-11.7493
▁haemorrhagie	-11.7495
▁placentarest	-11.7495
▁kuren	-11.7498
▁streptococ	-11.7498
▁gebiopteerd	-11.7498
gebieden	-11.7503
▁perirenaal	-11.7504
▁beenvenen	-11.7505
▁point	-11.7514
▁longinfarcten	-11.752
▁zichzelf	-11.7522
▁compartiment	-11.7525
▁aangepast	-11.7532
▁sn	-11.7534
▁mat	-11.7538
▁medullair	-11.754
cerebellaire	-11.7541
lengte	-11.7541
septaal	-11.7551
lichaampjes	-11.7553
middenkwab	-11.7561
jaren	-11.7562
naad	-11.7563
net	-11.7565
ondermeer	-11.7568
del	-11.7575
lymfklieren	-11.758
▁clon	-11.7584
▁aangeleverde	-11.7599
revisiemateriaal	-11.7599
▁left	-11.76
▁duct	-11.7606
▁echtgenote	-11.7607
▁eetlust	-11.7607
▁makkelijk	-11.7607
▁oedemen	-11.7607
▁luidt	-11.7607
▁geweld	-11.7607
▁respiratorius	-11.7607
▁crusta	-11.7609
▁subserosale	-11.7609
▁haematopoiese	-11.761
▁verslechterend	-11.7612
erbloedingsshock	-11.7612
▁kanaal	-11.7615
▁cancer	-11.7623
▁cocaine	-11.7624
▁dorsum	-11.7624
▁endometroid	-11.7624
▁tracheitis	-11.7624
▁prepylorisch	-11.7625
aneurysmavorming	-11.7628
▁kaakrand	-11.7629
▁groeide	-11.7638
▁loslating	-11.7639
▁intake	-11.764
▁hevige	-11.7641
▁ileumslijmvlies	-11.7645
▁shockbeeld	-11.7646
into	-11.7647
pathologische	-11.7654
blokjes	-11.7654
▁portae	-11.7654
tro	-11.7658
aneurysma	-11.7667
▁zgn	-11.7678
▁zijresectievlak	-11.768
▁dehiscentie	-11.7683
macrofagen	-11.7683
cabg	-11.7683
iliacale	-11.7684
dh	-11.7695
▁herzfehler	-11.7698
▁brengen	-11.7709
▁polycysteu	-11.7711
▁abcesholte	-11.7716
▁eus	-11.772
anatomische	-11.7721
▁zag	-11.7721
▁gemelli	-11.7725
▁geobstrueerd	-11.7725
▁gepresenteerd	-11.7725
gehypertrofieerd	-11.7725
▁mycosis	-11.7725
▁tegenstelling	-11.7725
▁sternumfractuur	-11.7725
▁daaropvolgend	-11.7725
tekening	-11.7726
▁parahippocampal	-11.7726
▁rhabdomyolyse	-11.7728
▁ubi	-11.7728
▁intracranial	-11.7729
▁consistent	-11.7729
▁monoclonale	-11.773
▁formaline	-11.7731
▁gliale	-11.7731
▁euthanasie	-11.7732
cerebrovasculair	-11.7732
▁ontkleurd	-11.7733
spatroon	-11.7737
▁zijranden	-11.774
chien	-11.7743
▁leuko	-11.7744
▁vermis	-11.7744
▁precieze	-11.7747
▁infarctgebieden	-11.7747
▁tumorembolieen	-11.775
▁respiratory	-11.7752
embolisatie	-11.7754
▁positie	-11.7758
ns	-11.7759
▁icterisch	-11.7763
▁catecholamine	-11.7767
▁bestraald	-11.7767
uenties	-11.7767
indweefselziekte	-11.7768
▁vriesmateriaal	-11.7772
cytologie	-11.7774
len	-11.7775
▁nsip	-11.7776
▁aneurysmatisch	-11.778
▁ontwikkelings	-11.7782
▁blok	-11.7794
▁blaastumor	-11.7796
▁verslagen	-11.7801
vacuolair	-11.7808
▁somatisch	-11.781
▁tumordiameter	-11.7811
inde	-11.7817
vats	-11.782
▁bekleding	-11.7824
▁pleurabiopten	-11.7832
uren	-11.7837
mb	-11.7842
▁gesuggereerd	-11.7844
▁ontdekt	-11.7844
▁orale	-11.7845
▁afgeplat	-11.7847
▁urotheelcellen	-11.7847
▁regeneratie	-11.7848
▁lung	-11.7851
▁eilandjes	-11.7852
▁reusceltumor	-11.7853
▁tumorlengte	-11.7856
▁hartschade	-11.7856
▁leukocytose	-11.7856
▁utero	-11.7857
▁vermelden	-11.7864
▁cnv	-11.7864
▁collageneuze	-11.7866
▁sepsismilt	-11.7871
tr	-11.7875
▁uterusresectie	-11.7877
▁cyanose	-11.7878
▁cag	-11.7885
▁ffpe	-11.7887
▁arteriitis	-11.7889
▁wilde	-11.7891
ph	-11.7894
▁gedissemineerd	-11.79
▁hoorn	-11.7902
▁ruimtes	-11.7907
▁lysis	-11.7908
▁grocott	-11.7911
▁gemengdcellig	-11.7912
kenmerken	-11.7914
tje	-11.7921
▁afm	-11.7925
preparaten	-11.7929
▁vaginale	-11.7934
▁belemmering	-11.7935
▁secretoir	-11.7936
▁evar	-11.7939
treffen	-11.794
▁microsatellitos	-11.7942
beenmerg	-11.7961
▁verbloed	-11.7964
▁borgstb	-11.7964
▁hobbelig	-11.7964
▁galsteenlijden	-11.7965
▁bleven	-11.7965
▁ulcusbodem	-11.7965
infrarenale	-11.7966
▁fistelvorming	-11.7966
▁fungoides	-11.7967
▁conjunctiva	-11.7972
▁geneeskunde	-11.7972
▁mw	-11.7976
▁fiets	-11.7977
▁pneumokokken	-11.7977
▁tongbasis	-11.7977
laterale	-11.7978
▁kerato	-11.7979
▁vloeibaar	-11.7981
▁demyelinisatie	-11.7982
▁bovenop	-11.7987
▁ductcarcinoom	-11.7988
▁schwannoom	-11.7992
▁shocklever	-11.7996
▁technisch	-11.7998
mortale	-11.8006
▁superficiale	-11.8009
▁ra	-11.801
▁histochemisch	-11.801
▁bio	-11.8022
▁poly	-11.8023
▁jong	-11.8028
microsatellieten	-11.8034
▁pasd	-11.8042
▁pten	-11.8046
▁opmerking	-11.8047
▁naschrift	-11.805
schoon	-11.8057
defect	-11.8058
▁ong	-11.8059
▁porto	-11.8069
▁ar	-11.8071
▁reageren	-11.8076
▁gebiedje	-11.8083
name	-11.8083
ri	-11.8083
▁sinusoiden	-11.8086
▁suggereert	-11.8086
▁myelopoese	-11.8086
▁fataal	-11.8086
oesofageale	-11.8086
▁ziekelijk	-11.8087
▁krijgt	-11.8087
▁stoppen	-11.8087
▁hemibeeld	-11.8087
▁achterblijvend	-11.8089
▁bijnieradenoom	-11.809
▁bejaarde	-11.8094
▁geschikt	-11.8097
▁all	-11.8104
sonde	-11.8107
sparameters	-11.8114
▁trigonum	-11.8119
▁overgevoelig	-11.8123
▁y	-11.8124
▁infra	-11.8132
▁eku	-11.8135
▁preterminaal	-11.8136
rechterbovenbeen	-11.8143
ootmuskaataspect	-11.8154
▁ih	-11.8163
fi	-11.8178
▁concentratie	-11.818
flr	-11.8186
▁aanvoelende	-11.8189
mv	-11.8199
ige	-11.8204
▁or	-11.8209
▁minuscu	-11.821
▁disarray	-11.821
▁onwelwording	-11.821
▁panniculitis	-11.821
▁premature	-11.821
▁psoriasiform	-11.821
▁verstuurd	-11.821
▁claudicatio	-11.821
mvdr	-11.821
▁bronchusbiopt	-11.8213
▁complicerende	-11.8217
drie	-11.8219
▁longembolisatie	-11.822
▁verbred	-11.8221
▁vetembolieen	-11.8223
▁infarcthaardjes	-11.8223
peri	-11.8227
▁veldjes	-11.8228
▁ingeblokt	-11.8228
systeem	-11.8229
like	-11.8231
▁onderscheiden	-11.8232
▁aspergilloom	-11.8233
▁essentie	-11.8235
fre	-11.8237
▁pneumonisch	-11.8237
▁anatomie	-11.8238
▁coiling	-11.8243
▁mammanaaldbiopt	-11.8244
▁splitsing	-11.8248
aangedane	-11.8249
▁subepithelia	-11.8253
▁sta	-11.8257
▁med	-11.8271
mal	-11.8272
aa	-11.8272
kleuringen	-11.8285
kweken	-11.8287
▁stereotactische	-11.8297
▁draden	-11.8302
problemen	-11.8307
portale	-11.8311
sneevlakken	-11.8313
bacteriele	-11.8316
▁houden	-11.832
haard	-11.832
▁stenoses	-11.8322
▁lopend	-11.8323
▁verwikkeling	-11.8325
▁inhechting	-11.8327
shaardjes	-11.8328
▁major	-11.8329
▁typeren	-11.8332
▁elastine	-11.8335
▁diarrhee	-11.8335
▁gebleken	-11.8335
▁gethromboseerd	-11.8335
▁weerhouden	-11.8335
▁cholesterolosis	-11.8335
▁krijgen	-11.8335
▁dieptegroei	-11.8335
▁genherschikking	-11.8335
▁vaatmalformatie	-11.8335
▁molle	-11.8336
▁hypocellulair	-11.8336
▁overgrijpend	-11.8339
▁leverkapsel	-11.8341
▁nabijheid	-11.8342
nnb	-11.8356
aj	-11.8357
▁zoon	-11.8357
▁kolonisatie	-11.8358
▁consolidaties	-11.836
▁afwachten	-11.8363
▁cvvh	-11.8364
▁bestralings	-11.8367
▁herhaalde	-11.8369
▁ika	-11.8376
▁maagdarmkanaal	-11.8379
up	-11.8383
▁donor	-11.8389
vloedbelemmering	-11.8389
gezette	-11.8395
▁additionel	-11.8397
vw	-11.8398
▁drukken	-11.8398
darmslijmvlies	-11.8408
▁iatrogeen	-11.8416
▁dundarm	-11.8418
laparotomie	-11.8421
▁groepen	-11.8428
▁ingehechte	-11.8429
▁medenem	-11.8442
▁echt	-11.8446
ff	-11.8448
diverticulitis	-11.8448
geheel	-11.8449
▁soort	-11.8452
▁va	-11.8453
anteriorresectie	-11.8454
▁circum	-11.8458
ast	-11.8459
▁endotheel	-11.846
▁geinjiceerd	-11.8461
▁vimentine	-11.8461
▁right	-11.8462
▁minuscuul	-11.8462
jwng	-11.8462
▁voetrug	-11.8462
▁bedreigd	-11.8463
▁puntvormig	-11.8463
trombose	-11.8467
▁doorgegeven	-11.8467
▁intraepidermal	-11.8468
▁zeldzaam	-11.8468
▁onderling	-11.847
▁insula	-11.8474
▁scoliose	-11.8475
▁dermat	-11.8475
▁angiodysplasie	-11.8477
▁wanden	-11.8478
▁bloedrijk	-11.8479
▁la	-11.8483
▁malformaties	-11.8486
▁hemorrhagie	-11.8489
▁recanalisatie	-11.849
▁intrekkingen	-11.8491
▁regeneratieve	-11.8492
▁herstelde	-11.8495
▁werkgroep	-11.8496
▁voorstel	-11.8507
▁gelig	-11.8515
▁meso	-11.8516
placenta	-11.852
▁nhl	-11.8534
▁pn	-11.8556
negatief	-11.8568
▁irregulaire	-11.8569
tumoruitbreiding	-11.8569
▁ontwikkelende	-11.8577
▁versie	-11.8577
▁ontving	-11.858
virale	-11.8581
▁infiltreert	-11.859
▁lavage	-11.859
▁seminales	-11.859
▁correlaat	-11.859
▁hemofagocytair	-11.859
▁hypothermie	-11.859
▁hartezakje	-11.859
▁onverdacht	-11.859
▁leptomeningen	-11.859
▁schaal	-11.859
▁familieanamnese	-11.8591
▁blaasspoeling	-11.8591
▁colloides	-11.8592
myloiddeposities	-11.8592
▁waarden	-11.8592
▁alopecia	-11.8593
▁collagene	-11.8594
oestrogeen	-11.8594
functiestoornis	-11.8595
illaris	-11.8595
▁pneumatosis	-11.8598
▁onstaan	-11.8598
▁rechterlies	-11.8598
▁speelt	-11.8598
vervanging	-11.8603
▁renaal	-11.8604
▁interstitium	-11.8605
▁gevoel	-11.8606
▁geprikkeld	-11.8607
▁identiek	-11.8608
oa	-11.861
▁irregulair	-11.861
▁proteus	-11.8614
▁flowcytometrie	-11.8619
▁vaf	-11.8621
▁gefibroseerd	-11.8633
▁gastrisch	-11.8634
jv	-11.8639
▁lopen	-11.8644
▁bronchioli	-11.8645
▁pogingen	-11.866
bronchoalveolair	-11.8663
▁fronto	-11.8665
▁mild	-11.8667
▁omringende	-11.8667
klep	-11.8671
▁dikkedarm	-11.8678
▁intrahepatisch	-11.8678
▁biopsies	-11.8681
trauterien	-11.8687
▁insufficienti	-11.869
▁insertie	-11.8693
brengen	-11.8701
septumdefect	-11.8702
▁keratocyste	-11.8713
lichaamsgewicht	-11.8713
metaplasie	-11.8717
▁foveolair	-11.872
▁solitus	-11.872
▁submandibularis	-11.872
▁coloscopie	-11.872
▁remissie	-11.872
▁mollusc	-11.872
▁gebloed	-11.872
▁bedroeg	-11.872
▁amorf	-11.8721
uitine	-11.8721
host	-11.8722
▁intraanaal	-11.8722
▁tube	-11.8726
▁omstandigheden	-11.8728
▁intramucosaal	-11.8733
▁sanguinolent	-11.8739
▁vaatbed	-11.8739
sv	-11.874
lateraalsclerose	-11.8746
▁cystisch	-11.8752
▁vnl	-11.8758
temporaal	-11.8764
▁icu	-11.8773
ao	-11.8774
▁atresie	-11.8781
▁seminoom	-11.8782
▁ingestelde	-11.8785
heidsreactie	-11.8785
atrofie	-11.8792
▁waterscheidings	-11.8816
essentiele	-11.8824
▁hyperthyreoidie	-11.8851
▁immaturus	-11.8851
▁toegepast	-11.8851
▁gelukt	-11.8851
cochleatie	-11.8851
▁artery	-11.8851
▁binnenkomst	-11.8851
cuses	-11.8852
▁promotor	-11.8852
▁intrathoracaal	-11.8854
ploratie	-11.8862
▁details	-11.8872
▁colonpoliep	-11.8879
▁incomplet	-11.8896
▁ingezette	-11.8899
▁pleiten	-11.8911
▁map	-11.8914
▁loh	-11.8916
▁stroomgebieden	-11.8916
▁fenotype	-11.892
inmiddels	-11.892
▁cystoprostat	-11.8925
▁ion	-11.8927
▁ontregeld	-11.8928
▁jl	-11.8931
para	-11.8936
per	-11.8938
▁canule	-11.8942
▁koude	-11.8948
sgerelateerde	-11.8954
▁ph	-11.8964
os	-11.8966
▁luchtweg	-11.8969
▁pneumoniebeeld	-11.897
▁anaerobe	-11.898
▁suicide	-11.8984
synucleinopathie	-11.8984
▁compound	-11.8984
▁erytrocyturie	-11.8984
▁gehoorgang	-11.8984
▁intramusculair	-11.8984
▁seminalis	-11.8984
▁treitz	-11.8984
▁verdwenen	-11.8984
▁contagiosum	-11.8984
▁mastocytose	-11.8984
▁onverklaard	-11.8984
▁tangentieel	-11.8985
▁neurogene	-11.8985
antitrypsine	-11.8985
▁agv	-11.8986
▁spelen	-11.8986
▁dvt	-11.8987
▁glomerulopathie	-11.8988
▁dosis	-11.8988
▁doorheen	-11.8991
▁kweekuitslagen	-11.8991
cerebrum	-11.8992
perineurale	-11.8992
verder	-11.8993
waarbij	-11.8993
▁pallidum	-11.8993
▁duinen	-11.8993
bloedingsneiging	-11.8995
▁hepatogeen	-11.9002
▁bekeken	-11.9004
klier	-11.9008
▁haemorragische	-11.9009
la	-11.9017
▁debulking	-11.9021
tekenen	-11.9025
▁di	-11.9026
▁leukocytoclas	-11.903
▁rmk	-11.9032
▁therapiekeuze	-11.9035
▁coagulatie	-11.9038
▁dikwandige	-11.904
ventriculaire	-11.9051
▁cam	-11.9051
▁vervet	-11.9055
▁group	-11.906
▁fraaie	-11.906
sterke	-11.9062
▁villi	-11.9064
▁voeren	-11.9067
pl	-11.9068
▁enzym	-11.9071
▁hersenmetastase	-11.9074
▁hersteld	-11.9076
gering	-11.9088
▁contrast	-11.9093
▁avr	-11.9099
cys	-11.9114
▁portio	-11.9115
▁vlakke	-11.9116
▁band	-11.9118
cadherine	-11.912
▁epididymis	-11.912
▁gebraakt	-11.912
▁lymfomenpanel	-11.912
bare	-11.912
▁drievatslijden	-11.912
meckels	-11.9121
stollingsneiging	-11.9121
▁intestinalis	-11.9121
▁vergroting	-11.9122
vrij	-11.9122
▁direkte	-11.9122
▁tubair	-11.9122
blokje	-11.9124
▁tibia	-11.9125
oesophageale	-11.9125
renale	-11.9126
▁crypten	-11.9128
▁architecture	-11.9129
▁plooi	-11.9131
respectievelijk	-11.9133
▁doorgegroeid	-11.9134
▁incompleet	-11.9134
▁rechtzijdig	-11.9134
▁metend	-11.9136
▁dienen	-11.9138
▁regionaal	-11.914
▁plaatepitheel	-11.9141
▁erosief	-11.9143
▁aggregaten	-11.9145
doende	-11.915
ih	-11.915
▁onvolledig	-11.9151
▁immunofenotype	-11.9151
▁igm	-11.9153
▁retentie	-11.9158
▁steentjes	-11.9165
▁gebrek	-11.9174
▁alveolitis	-11.9196
corticosteroiden	-11.9198
sklachten	-11.9208
post	-11.9209
▁hoek	-11.9212
▁pleuraal	-11.9218
▁dalende	-11.9219
▁slank	-11.9223
▁types	-11.9225
▁ongeval	-11.9227
▁antero	-11.9235
varices	-11.9239
▁zitten	-11.9243
placentaire	-11.9245
▁bulla	-11.9246
▁belast	-11.9247
▁vervolg	-11.9252
▁acuminatum	-11.9257
▁genoeg	-11.9257
▁moeizaam	-11.9257
▁soepel	-11.9257
▁gecomprimeerd	-11.9257
▁taai	-11.9257
imab	-11.9257
▁bedekt	-11.9257
▁verdient	-11.9257
▁amyloidosis	-11.9257
▁nierstenen	-11.9258
▁uitgaat	-11.9258
▁cristabiopsie	-11.9258
▁intrathoracale	-11.9259
▁vervallen	-11.926
▁myocardvezels	-11.926
▁diuretica	-11.9262
▁mesocolon	-11.9265
tamponade	-11.9266
▁verschil	-11.9268
▁suboptimale	-11.9268
▁neusslijmvlies	-11.9269
▁special	-11.9271
▁ovariectomie	-11.9271
▁rectus	-11.9271
▁psychiatrische	-11.9276
▁schuimig	-11.9277
▁arterietakjes	-11.9278
aw	-11.9281
▁geslaagd	-11.9282
▁neuropathie	-11.9283
peritoneaalholte	-11.9284
▁nefro	-11.9285
▁medebeoordeling	-11.9289
lymfklierweefsel	-11.929
▁frontotemporaal	-11.9293
ple	-11.9294
zelfde	-11.9294
▁darmnecrose	-11.9297
▁gastrale	-11.9303
air	-11.9325
▁inleiding	-11.9333
▁fibroma	-11.9338
▁marker	-11.9345
▁spina	-11.9347
▁hartklep	-11.9354
▁hoogstand	-11.9358
vooral	-11.9363
▁neoplastisch	-11.9363
▁lms	-11.9368
▁huidfragment	-11.938
▁fibrinoid	-11.9381
▁merkelcel	-11.9384
▁solitair	-11.9386
wond	-11.9387
▁cachectisch	-11.939
traventriculaire	-11.9392
middels	-11.9394
▁kritisch	-11.9395
▁trimester	-11.9395
▁verknepen	-11.9395
▁capitis	-11.9396
▁daaromheen	-11.9396
▁triploidie	-11.9396
▁erythematosus	-11.9396
▁neuritische	-11.9396
▁darmkanker	-11.9396
▁vervaardigd	-11.9396
▁zn	-11.9399
▁hypovolaemische	-11.9401
dieringsvoorstel	-11.9402
▁linkeronderarm	-11.9403
▁babygram	-11.9405
dedifferentieerd	-11.9407
▁gesampled	-11.941
▁omphalocele	-11.941
▁avital	-11.9412
▁levercyste	-11.9415
▁gingiva	-11.942
rdp	-11.9421
▁noo	-11.9425
mc	-11.9427
▁desmoplastisch	-11.9427
▁serum	-11.9427
▁radio	-11.9428
▁centro	-11.9431
▁wens	-11.9436
lw	-11.9441
ik	-11.9446
▁miltkweek	-11.9458
▁wv	-11.9463
plaats	-11.9471
▁jak	-11.9471
minimale	-11.9477
comple	-11.9485
▁eenzelfde	-11.9496
▁langerhans	-11.9509
karakteristieken	-11.9528
▁bentall	-11.9531
tur	-11.9536
▁warthin	-11.9536
▁cylindrisch	-11.9536
▁dusdanig	-11.9536
▁preventie	-11.9536
▁puntbloedinkjes	-11.9536
▁wrsch	-11.9536
▁gebeld	-11.9536
▁afgelopen	-11.9536
▁oorlel	-11.9536
▁zoster	-11.9537
▁verkrijgen	-11.9537
▁thrombolyse	-11.9537
▁apical	-11.9537
▁subcorticale	-11.9538
▁hemolyse	-11.9538
retrograde	-11.9538
▁zwakte	-11.9541
glu	-11.9542
bronchusbrush	-11.9543
▁linkerbovenarm	-11.9544
▁tensies	-11.9545
▁scleroserend	-11.9545
▁graden	-11.9546
▁cystic	-11.9547
▁voorkomt	-11.9547
darmkanaal	-11.955
▁inguinalis	-11.9551
▁mammaparenchym	-11.9552
▁genereren	-11.9555
▁adenos	-11.9557
▁sulci	-11.9557
▁humerus	-11.9562
▁neutrofiel	-11.9564
▁fo	-11.9565
duodenum	-11.9566
ouderdom	-11.9568
inclusief	-11.9568
▁middermaal	-11.9569
ustom	-11.9569
abortusmateriaal	-11.9573
▁adhesie	-11.9575
longgewicht	-11.9576
kans	-11.958
▁atheroomcyste	-11.9581
▁turblaas	-11.9585
▁tumoraal	-11.9587
▁tumorpercentage	-11.9591
vasculaire	-11.9616
▁adult	-11.9616
▁stadiering	-11.9621
▁harde	-11.9636
▁gedekte	-11.964
myocard	-11.9642
angioinvasie	-11.9646
▁ectocervi	-11.9649
▁donkere	-11.966
▁dys	-11.9661
ci	-11.9663
wonden	-11.9667
▁lesion	-11.9669
bloed	-11.9672
achter	-11.9678
▁colli	-11.9678
▁twijfel	-11.9679
▁spitz	-11.9679
▁epiduraal	-11.9679
▁erytropoese	-11.9679
▁etiologisch	-11.9679
▁ventilatie	-11.9679
▁markerpatroon	-11.9679
▁panischemie	-11.9679
▁lichtstijve	-11.968
▁longvaatbed	-11.968
nasolabiaalplooi	-11.968
▁cysteinhoud	-11.968
▁suprapubisch	-11.9682
▁tumorvolume	-11.9683
anale	-11.9685
▁mogelijkerwijs	-11.9686
▁operatiewond	-11.9687
▁siderofagen	-11.9688
▁cystenieren	-11.969
▁hieronder	-11.9692
▁ductaaltype	-11.9693
▁trabeculair	-11.9694
▁verergering	-11.9694
wervelmetastasen	-11.9699
▁elastosis	-11.97
▁echografie	-11.97
▁aanliggend	-11.97
▁heldergeel	-11.9701
▁epitheloid	-11.9703
▁pv	-11.9705
overgang	-11.9708
▁histiocyten	-11.971
▁spermatozoa	-11.9712
▁gereseceerd	-11.9713
doorsnede	-11.9714
tak	-11.9714
echter	-11.9715
veel	-11.9716
laaggradig	-11.9719
▁bijgevoegd	-11.9721
▁clear	-11.9728
plak	-11.9731
mma	-11.9735
▁haematogen	-11.9736
▁celarme	-11.9739
▁gemengde	-11.9741
▁aortitis	-11.9747
▁recenter	-11.9751
▁zijdelings	-11.9754
▁nl	-11.9756
▁bloedingsbron	-11.9757
▁karakteristiek	-11.976
▁anthracose	-11.9762
plaatsing	-11.9767
▁bloedig	-11.9771
▁thoraco	-11.9777
▁ht	-11.9787
mode	-11.9795
▁afvloed	-11.9809
act	-11.981
wanddikte	-11.9816
uamo	-11.9823
▁cinguli	-11.9824
▁imponeert	-11.9824
▁myocytolyse	-11.9824
▁naruke	-11.9824
▁retardatie	-11.9824
▁veralgemeend	-11.9824
▁verleend	-11.9824
▁proficient	-11.9824
▁flora	-11.9824
▁polypeuze	-11.9824
▁slikstoornissen	-11.9825
▁bloedbraken	-11.9825
stapelingsziekte	-11.9826
▁cilindrisch	-11.9827
▁impetiginisatie	-11.9827
▁halscyste	-11.9828
▁gea	-11.9831
darmtractus	-11.9832
▁mv	-11.9837
verstoring	-11.984
▁monoklonal	-11.9851
ingen	-11.9855
▁gehecht	-11.9857
▁myositis	-11.9857
▁toelichting	-11.9857
▁mycobacterium	-11.9857
▁nogal	-11.9859
▁reuma	-11.986
rectum	-11.9861
buikpijnklachten	-11.9864
▁locaties	-11.9876
▁breedte	-11.9876
groei	-11.988
tisch	-11.9881
▁stop	-11.9881
▁occlusiev	-11.9949
▁ontstekingen	-11.9953
▁maagantrumtype	-11.9965
▁bii	-11.9967
▁mdm	-11.9971
arachnoidale	-11.9971
▁paracetamol	-11.9971
▁astrocyten	-11.9971
▁circumvallata	-11.9971
▁oncocytoom	-11.9971
▁waldenstrom	-11.9971
▁verstreken	-11.9971
▁show	-11.9971
▁toepassing	-11.9971
hiellengte	-11.9971
▁polypectomie	-11.9971
▁bifida	-11.9971
▁trombocytopenie	-11.9972
▁tepelvocht	-11.9972
▁heropname	-11.9972
▁micrometastase	-11.9973
▁subtotaal	-11.9973
▁liver	-11.9973
fokaal	-11.9975
▁ervan	-11.9975
▁douglas	-11.9978
▁inguinaal	-11.998
▁leucocytose	-11.998
▁gebleven	-11.9981
▁sacrum	-11.9981
▁suf	-11.9984
▁necrosehaarden	-11.9985
▁meyenburg	-11.9987
mh	-11.9988
▁vettig	-11.9991
▁incisiebiopt	-11.9999
tbo	-12.0001
▁leverlijden	-12.0002
▁ohca	-12.001
▁uitgroei	-12.0013
▁bijmilt	-12.0015
▁nierziekte	-12.0018
iliacaal	-12.002
achtergrond	-12.0023
morbus	-12.0023
casus	-12.0023
encefalitis	-12.0023
▁duidelijkheid	-12.0024
voorts	-12.0025
▁intensieve	-12.0027
▁ch	-12.0031
▁vt	-12.0041
▁residu	-12.0049
▁ein	-12.0059
pero	-12.006
▁kwamen	-12.0068
resistente	-12.007
mbr	-12.007
eld	-12.0074
▁slechter	-12.0078
▁oesophagusbiopt	-12.0079
▁radi	-12.0081
▁tracheo	-12.0081
meest	-12.0082
▁korter	-12.0083
▁onderverdeling	-12.0086
▁pal	-12.0088
▁rea	-12.0106
▁artefact	-12.0106
▁screenen	-12.011
▁erop	-12.0112
iatrogene	-12.012
▁bijkomstig	-12.012
▁circulatorius	-12.012
▁mucositis	-12.012
▁sectum	-12.012
▁verwijzen	-12.012
▁afasie	-12.012
▁geevalueerd	-12.012
▁wervellichamen	-12.012
▁behandeladvies	-12.012
▁vacuolisatie	-12.012
▁sleeve	-12.0121
▁onsuccesvol	-12.0121
▁mentale	-12.0121
reading	-12.0121
▁fal	-12.0121
cylinderepitheel	-12.0121
▁subita	-12.0121
▁overgebracht	-12.0121
▁stromaceltumor	-12.0121
▁ectocervicaal	-12.0122
from	-12.0123
▁daaraan	-12.0123
▁voren	-12.0123
bronchusspoelsel	-12.0124
▁myoclonieen	-12.0124
▁ingeklemd	-12.0129
nd	-12.0129
asp	-12.0129
ir	-12.013
▁uitgeblust	-12.013
▁verbakken	-12.013
▁vliezig	-12.013
▁hippocampi	-12.013
▁genese	-12.013
▁saturatiedaling	-12.0131
▁pompfalen	-12.0136
▁nasofaryn	-12.0137
▁pericardial	-12.014
▁noradrenaline	-12.0142
▁kristallen	-12.0147
ros	-12.0156
▁pneumonieen	-12.0159
▁gecombineerde	-12.0162
▁hypereosinofili	-12.0165
▁drugs	-12.0172
▁urticarie	-12.0175
▁naald	-12.0178
ascites	-12.018
cell	-12.0189
▁sternotomie	-12.0192
▁artefacten	-12.0193
tollingsstoornis	-12.0193
▁antrumbiopten	-12.0196
driemaal	-12.0198
▁nonhodgkin	-12.0203
uitbreiding	-12.0204
▁code	-12.0209
ac	-12.021
▁gas	-12.0217
▁blow	-12.0219
▁dien	-12.0229
luchthoudendheid	-12.0234
sta	-12.024
▁okselklier	-12.0244
hypertensie	-12.0248
▁adjuvant	-12.0248
▁gefibroseerde	-12.025
▁draad	-12.025
▁peptische	-12.0253
vriescoupe	-12.0254
▁idiopathisch	-12.0258
▁nierbekken	-12.0262
▁casu	-12.0264
renaal	-12.0265
▁kno	-12.0266
do	-12.0268
▁bradycard	-12.0269
ofytisch	-12.0272
pliciet	-12.0272
▁astrogliose	-12.0272
▁geindureerd	-12.0272
▁perimusculair	-12.0272
▁uitzondering	-12.0272
▁uremie	-12.0272
▁systematisch	-12.0272
▁hersenvliezen	-12.0272
▁hypocampus	-12.0272
▁mucostase	-12.0272
▁endoscopisch	-12.0272
hechten	-12.0272
▁epicardiaal	-12.0272
▁meerlagig	-12.0273
▁breidde	-12.0275
▁graciel	-12.0275
▁funiculus	-12.0275
▁ductectasieen	-12.0277
stens	-12.0278
▁opgave	-12.0279
▁hersentumor	-12.0279
▁clearcell	-12.0282
▁overvuld	-12.0284
ureter	-12.0286
▁oncocytair	-12.0288
▁geruim	-12.0288
▁inzending	-12.0291
aandoening	-12.0291
▁continue	-12.0297
▁borstkas	-12.0298
▁amyotrofisch	-12.0301
▁starten	-12.0303
▁keel	-12.0304
▁gangreneuze	-12.0307
▁hangen	-12.0311
blok	-12.0313
▁detecteert	-12.0313
▁mammatumor	-12.0319
ui	-12.0319
▁virusinfectie	-12.032
▁maagcorpusbiopt	-12.0322
▁flardjes	-12.0324
▁symptomatisch	-12.0324
▁elementen	-12.0327
▁onderzijde	-12.0327
geschiedenis	-12.0332
viii	-12.0334
pancreas	-12.0338
fish	-12.0339
▁leverbiopten	-12.0342
spoliepen	-12.0343
▁restmateriaal	-12.0344
▁capillaire	-12.0344
▁hartoperatie	-12.0344
▁zegelring	-12.0344
▁sca	-12.0349
tumortype	-12.035
▁commissie	-12.0351
▁conus	-12.0353
twee	-12.0366
basaalcel	-12.0367
▁inkt	-12.0371
▁littekenbreuk	-12.0378
▁dlbcl	-12.0383
▁sigmoidbiopten	-12.0386
▁ante	-12.0392
ling	-12.0396
▁nen	-12.0398
▁gemedieerd	-12.041
▁elektrolyt	-12.0416
▁matur	-12.0424
▁follow	-12.0426
▁aanbevolen	-12.0426
▁biopsy	-12.0426
▁periferie	-12.0426
▁marginaal	-12.0426
cobas	-12.0426
▁melanocyten	-12.0427
▁intramyocardial	-12.0427
▁linkerbijnier	-12.0427
▁behoefte	-12.0429
▁hyponatriemie	-12.0429
men	-12.0432
▁leverabces	-12.0432
▁maagsonde	-12.0433
▁nierloge	-12.0434
▁grenzend	-12.0435
▁hyalinose	-12.0436
▁hygroma	-12.0436
▁actinomyces	-12.0436
▁nierinfarct	-12.0441
▁steriel	-12.0442
▁lymfkliertjes	-12.0442
▁vorige	-12.0444
man	-12.0447
▁perineum	-12.0455
▁paskleuring	-12.0458
▁proef	-12.0459
▁neuron	-12.0462
▁zenuw	-12.0468
hiel	-12.0468
▁gesproken	-12.0474
goed	-12.0484
trauma	-12.0491
▁stans	-12.0492
▁gedrag	-12.0496
cervi	-12.05
langer	-12.05
sl	-12.0514
▁recht	-12.0518
▁crypt	-12.0528
▁uitgebreider	-12.0532
▁grijswit	-12.0533
fragmentjes	-12.0555
ob	-12.0557
▁congorood	-12.0567
▁archer	-12.0572
▁organiserend	-12.0574
▁meerder	-12.0579
▁continuitatem	-12.0582
▁contracturen	-12.0582
▁prematuur	-12.0582
▁mestcellen	-12.0582
▁gepositioneerd	-12.0582
▁ectopisch	-12.0583
▁vervette	-12.0584
▁tumornodi	-12.0586
▁onrijpe	-12.0588
▁roodheid	-12.0588
▁satellieten	-12.0589
▁leed	-12.0589
▁cns	-12.059
▁intracavitair	-12.0593
▁mycobacterien	-12.0596
▁voetzool	-12.0598
▁plantaardig	-12.0598
▁ileocoecaalhoek	-12.0598
▁outflow	-12.0599
rc	-12.0603
▁endovasculair	-12.0606
▁haarfollikels	-12.0608
▁overliggend	-12.061
▁wondbed	-12.061
▁rapport	-12.0611
▁carcinomen	-12.0612
▁troponine	-12.0612
▁cytoplasmatisch	-12.0613
▁ondersteunend	-12.0615
▁productie	-12.0616
erasmus	-12.0617
toename	-12.0617
▁micrometastasen	-12.0618
▁temporaalkwab	-12.062
▁herseninfarcten	-12.0623
tende	-12.0623
tricuspidaalklep	-12.0625
acanthoom	-12.0627
▁ademhalings	-12.0627
sarcoom	-12.063
▁etc	-12.0631
catheter	-12.0638
▁aanhechting	-12.0639
cn	-12.0642
▁taks	-12.0648
▁verkleuringen	-12.0656
▁anca	-12.0656
▁impressie	-12.0657
if	-12.0662
elders	-12.0662
protocol	-12.0663
▁radiologische	-12.067
dna	-12.0675
▁segmenten	-12.0682
▁waarom	-12.0683
multipele	-12.0683
▁sudden	-12.0684
arteriele	-12.0684
▁depletie	-12.0685
▁uitgebreidere	-12.0686
▁like	-12.0694
▁oppervlakte	-12.07
▁thromboembolie	-12.0701
mg	-12.0702
ut	-12.0706
keren	-12.0725
▁echtgenoot	-12.0741
▁leidt	-12.0741
▁inzender	-12.0741
▁humerusfractuur	-12.0741
▁perisplenitis	-12.0741
▁bovenbenen	-12.0741
▁psoasloge	-12.0741
▁uitermate	-12.0741
▁raad	-12.0741
▁spoedig	-12.0741
▁normosome	-12.0744
▁stafylococc	-12.0745
▁gekeken	-12.0751
▁bacteriaemie	-12.0751
▁cauterisatie	-12.0752
▁overmatig	-12.0753
▁lege	-12.0754
pulmonaal	-12.0755
▁afgerond	-12.0756
▁dermoidcyste	-12.0757
▁nagel	-12.076
heli	-12.0761
weg	-12.0761
▁craniotomie	-12.0764
▁am	-12.0764
▁tumoringroei	-12.0769
io	-12.077
▁zeldzame	-12.0771
▁meconium	-12.0772
groeiachterstand	-12.0772
▁cake	-12.0772
▁iso	-12.0774
▁grawitztumor	-12.079
maken	-12.0792
volume	-12.0793
▁cilindercel	-12.0799
▁sd	-12.0802
▁fa	-12.0805
▁rsi	-12.081
lymfocyten	-12.0812
trombusmateriaal	-12.082
▁schildwacht	-12.0823
intra	-12.0823
adhesies	-12.0825
oit	-12.0826
▁paratubaire	-12.0827
failure	-12.0827
▁wegen	-12.0831
▁prof	-12.0836
▁ba	-12.0838
▁oncologie	-12.0839
cytologisch	-12.0841
▁nauwe	-12.0842
▁avonds	-12.0846
tt	-12.0847
ab	-12.0848
▁tcellymfoom	-12.085
laire	-12.0857
▁boog	-12.0859
▁diepreikende	-12.0862
▁ntrk	-12.0876
takken	-12.0876
▁myocardial	-12.0877
▁misselijk	-12.0901
▁uitputting	-12.0902
▁gezegd	-12.0902
▁groeivertraging	-12.0902
▁lingula	-12.0902
▁vertakkend	-12.0902
▁opinion	-12.0902
▁plasmocytoom	-12.0902
▁chemokuur	-12.0902
▁orofaryn	-12.0902
dying	-12.0902
cbdcbd	-12.0902
▁onrustig	-12.0902
▁perifolliculair	-12.0902
▁siliconen	-12.0902
▁lasi	-12.0902
▁intradermaal	-12.0904
eniso	-12.0904
▁microvesiculair	-12.0905
▁longembolen	-12.0905
▁chronica	-12.0906
klein	-12.0906
▁ppi	-12.0906
jsl	-12.0907
▁opgevuld	-12.0909
▁vermoeidheid	-12.0913
▁stops	-12.0913
▁turp	-12.0919
▁bronchoscopie	-12.0919
▁hieromtrent	-12.0921
▁intakt	-12.0922
▁uncus	-12.0926
▁conse	-12.0928
▁tijdelijk	-12.093
▁md	-12.0932
tumorale	-12.0942
▁follikel	-12.0948
terventriculaire	-12.0949
kk	-12.095
▁partijen	-12.0953
refle	-12.0956
▁omental	-12.0959
▁levercel	-12.0973
▁bauhini	-12.0974
▁omstrengeling	-12.0987
▁ben	-12.0988
▁behoeftig	-12.0994
thoracaal	-12.0995
pakketten	-12.0996
kl	-12.0997
bijvoorbeeld	-12.0999
benigne	-12.0999
vaten	-12.1
indien	-12.1002
radiologisch	-12.1002
kras	-12.1004
arteria	-12.1009
reactieve	-12.101
▁lesies	-12.1012
▁verwezen	-12.1014
tentoriele	-12.1016
lab	-12.1034
▁pussige	-12.1035
▁lichenoides	-12.1041
▁gelaagde	-12.1042
sw	-12.1044
hand	-12.1055
▁darmtype	-12.1056
wustzijnsverlies	-12.1059
▁leukocyten	-12.106
▁minor	-12.106
▁ingrijpen	-12.1063
accredit	-12.1066
▁akute	-12.1066
▁dermatoloog	-12.1066
▁hechtdraad	-12.1066
▁peesschede	-12.1066
▁ilium	-12.1066
▁ijzerdepositie	-12.1066
▁gallekkage	-12.1066
▁bichoriale	-12.1066
▁trombusmassa	-12.1067
▁verruceus	-12.1067
▁lacunes	-12.107
▁opgeleverd	-12.1073
▁wandruptuur	-12.1074
▁insturen	-12.1076
▁horizontale	-12.1076
▁bloedbijmenging	-12.1077
▁spoortje	-12.108
▁metabool	-12.1083
▁tonsillectomie	-12.1083
▁aankleurend	-12.1084
▁hallu	-12.1086
▁zijnde	-12.1091
▁spirocheten	-12.1097
▁congenitaal	-12.1097
sterk	-12.1098
▁incidentie	-12.1099
▁pdgfra	-12.1099
sel	-12.1107
▁mondhoek	-12.1111
vraag	-12.1118
segment	-12.112
▁haemolytische	-12.1127
▁gallig	-12.1127
▁afsluitend	-12.1132
▁erfelijk	-12.1139
▁receptorstatus	-12.1143
▁knieholte	-12.1144
▁vlok	-12.1144
▁acanthoom	-12.1151
laag	-12.1152
rond	-12.1153
▁strengen	-12.1159
▁leversegment	-12.1161
cf	-12.1164
beide	-12.1171
linkszijdig	-12.1171
cz	-12.1196
▁langerbestaande	-12.1204
nm	-12.1208
il	-12.1219
▁genezen	-12.1222
▁ontbrak	-12.1223
▁motorische	-12.123
▁urineweg	-12.123
▁bewusteloos	-12.1231
▁trichilemm	-12.1232
columnair	-12.1233
▁egfrtki	-12.1233
▁gekozen	-12.1233
▁pijnstilling	-12.1233
▁praktisch	-12.1233
▁ehbo	-12.1233
▁agens	-12.1233
▁gevalideerd	-12.1233
▁pulmonum	-12.1233
cfng	-12.1233
▁ziektebeloop	-12.1233
bacteriekolonies	-12.1233
▁adenomyose	-12.1233
▁individuel	-12.1233
▁blaasdak	-12.1233
▁posterolateral	-12.1233
▁mediaanlijn	-12.1234
swl	-12.1234
▁bloedvaatjes	-12.1234
▁rethoracotomie	-12.1234
▁predisponerend	-12.1235
▁hoefijzernier	-12.1237
▁vastzittend	-12.1237
▁mesenchymaal	-12.1243
▁trabekelblaas	-12.1243
▁macronodulaire	-12.1244
ted	-12.1245
▁thromboembolien	-12.1247
▁genitalis	-12.125
▁peribronchiaal	-12.125
▁bovenkaak	-12.1251
▁beentumoren	-12.1254
opathie	-12.1256
▁membraan	-12.1257
▁besluit	-12.1259
▁grieperig	-12.1263
▁tumorrecidief	-12.1264
▁versterkte	-12.1269
▁reeksen	-12.1269
▁hilusgebied	-12.1269
▁eccrien	-12.1271
▁chondrosarcoom	-12.1271
▁resistent	-12.1271
hr	-12.1272
▁overnam	-12.1274
▁un	-12.1274
▁skin	-12.1281
▁bacterieen	-12.1282
▁bvo	-12.1283
▁lenskern	-12.1285
▁linkerkamer	-12.1291
▁tdp	-12.1292
▁lymfklierpakket	-12.1295
▁diafragmakoepel	-12.1308
letsel	-12.131
▁cml	-12.132
opname	-12.1326
▁immuuncytochemi	-12.1336
▁beademings	-12.1338
thoracotomie	-12.1344
vb	-12.1347
▁verweekte	-12.1355
sp	-12.136
▁deviatie	-12.1363
▁tumorvrije	-12.1363
▁anusbiopt	-12.1367
▁chirurg	-12.1369
bus	-12.1372
▁continu	-12.1374
tvb	-12.1388
bed	-12.1392
▁groet	-12.1392
sistente	-12.1394
▁afgeronde	-12.1396
nvenve	-12.1402
tetrazoliumproef	-12.1402
▁oligohydramnion	-12.1402
▁aterosclerose	-12.1402
▁ontslagbrief	-12.1402
▁hemithyreoid	-12.1402
▁fibrinebeslag	-12.1402
▁leukopenie	-12.1402
▁ribfractuur	-12.1403
▁purkinjecellen	-12.1403
arg	-12.1403
▁cruris	-12.1403
▁uitlokkend	-12.1403
▁ggd	-12.1404
▁mondholte	-12.1404
oomoom	-12.1405
▁aftakkend	-12.1405
▁dof	-12.1406
richoepithelioom	-12.1406
▁myeline	-12.1406
▁intrapulmonaal	-12.1406
cardia	-12.1407
▁durend	-12.1407
▁longafwijking	-12.1408
▁klepbladen	-12.1409
▁mmol	-12.1419
▁lipomatose	-12.142
▁voeding	-12.1421
▁fibers	-12.1421
tpn	-12.1422
ant	-12.1424
▁wervelfractuur	-12.1428
chirurgie	-12.1436
▁tubahoeken	-12.1436
▁hypotensieve	-12.1442
ontstekingshaard	-12.1443
▁uurs	-12.1459
ihc	-12.1462
eert	-12.1463
▁eten	-12.1464
▁bloedingshaard	-12.1468
▁duran	-12.1475
▁colontype	-12.149
▁ouders	-12.1493
smacelpopulatie	-12.1496
groep	-12.1506
maligne	-12.1508
opening	-12.1513
eloproliferatief	-12.1516
omtrek	-12.1519
meerdere	-12.1528
▁liggend	-12.1529
▁blind	-12.1532
▁verlopend	-12.1535
kleppen	-12.154
▁beschadigingen	-12.1546
ment	-12.1546
positie	-12.155
▁ring	-12.1551
logie	-12.1554
▁glucose	-12.1556
▁straal	-12.1556
voorstel	-12.1559
▁nam	-12.1561
▁winding	-12.1565
▁faryn	-12.1572
▁dubbelloops	-12.1573
▁opheff	-12.1574
anthoom	-12.1574
▁moeizame	-12.1575
▁piriformis	-12.1575
▁proctitis	-12.1575
▁rekening	-12.1575
▁verzonden	-12.1575
▁mirabilis	-12.1575
▁verzwakt	-12.1575
▁waarneembaar	-12.1575
▁adenomateus	-12.1575
▁hyalinisatie	-12.1575
▁schedelgroeve	-12.1575
▁graderen	-12.1575
▁koilocytose	-12.1575
▁hypothalamus	-12.1575
▁kernhoudend	-12.1576
▁betroffen	-12.1577
▁gedocumenteerd	-12.1579
▁groeiretardatie	-12.1579
bloedtransfusies	-12.1579
▁seborroisch	-12.1579
▁clusters	-12.1579
▁metalen	-12.158
tracapillair	-12.1581
▁kransslagaderen	-12.1583
pcr	-12.1585
▁placentadeel	-12.1586
▁mechanisme	-12.1588
▁functioneren	-12.1589
morfologisch	-12.1591
▁glioom	-12.1593
▁vasectomie	-12.1593
▁uitbreidt	-12.1594
▁buikoperaties	-12.1594
▁knoop	-12.1595
▁activatie	-12.1595
▁compensatoir	-12.1598
▁dukes	-12.1599
▁blaar	-12.16
▁hepatisatie	-12.16
fs	-12.1601
▁eenmalig	-12.1603
▁galblaaswand	-12.161
embolisch	-12.1611
▁ductulair	-12.1614
▁bronchiaal	-12.1616
arterie	-12.1621
▁rechterkamer	-12.1621
▁vreemd	-12.1628
▁cause	-12.1633
▁nierafwijkingen	-12.1634
▁lithiasis	-12.1638
centraal	-12.1643
▁spiegel	-12.1658
▁pericolische	-12.1659
cardio	-12.1665
endometrium	-12.1666
sie	-12.1668
lys	-12.1669
arm	-12.1683
ras	-12.1684
▁zijden	-12.1685
ll	-12.1686
▁gemethyleerd	-12.1687
risk	-12.1696
▁satellitose	-12.1702
ongeval	-12.1704
▁myodegenerati	-12.1704
resultaat	-12.1705
uaduct	-12.1705
candida	-12.1707
voornamelijk	-12.1707
onvoldoende	-12.1708
invasiediepte	-12.1708
▁palpabele	-12.1711
mail	-12.1718
▁rna	-12.1721
oorzaak	-12.1739
▁millimeter	-12.174
etale	-12.1745
▁planopilaris	-12.175
▁verhoorning	-12.175
▁anafyla	-12.175
▁monoclonaal	-12.175
▁mortus	-12.175
▁verkavelend	-12.175
▁alcoholmisbruik	-12.175
▁venosus	-12.175
▁ruber	-12.175
▁nabestaanden	-12.175
▁hepatoduodenale	-12.175
▁longtoppen	-12.1751
▁standsafwijking	-12.1751
▁celgroepjes	-12.1753
▁zijkant	-12.1754
▁heparine	-12.1755
▁mesangia	-12.176
▁wernicke	-12.1761
▁gedateerd	-12.1768
▁hypokaliemie	-12.1768
▁serratia	-12.1769
▁endometrial	-12.1769
▁naevoid	-12.177
necrotiserende	-12.1775
▁linkerhand	-12.1779
▁dubbele	-12.1782
▁gynaecomastie	-12.1783
▁gerapporteerd	-12.1783
▁indolent	-12.1783
▁geconsolideerde	-12.1784
▁stille	-12.1784
▁aortaruptuur	-12.1786
▁petechieen	-12.179
▁insnijden	-12.179
▁overhechten	-12.1792
▁probe	-12.1796
▁brain	-12.1798
oronairangiogram	-12.1798
pon	-12.1802
▁myd	-12.1802
▁spinal	-12.1809
ntie	-12.1818
▁veneus	-12.1819
▁secreet	-12.182
▁reepje	-12.1823
▁cystes	-12.1826
▁malt	-12.1835
▁hemo	-12.1836
▁suggestie	-12.1836
▁ectocervica	-12.1864
▁maagantrumbiopt	-12.1865
iforme	-12.1868
▁coecumcarcinoom	-12.1871
pas	-12.1873
tumorinfiltratie	-12.1875
buik	-12.1879
▁mondslijmvlies	-12.1887
oorgankelijkheid	-12.1889
point	-12.189
side	-12.1894
low	-12.1896
uip	-12.1903
▁mammabiopsie	-12.1907
▁steatotisch	-12.1908
▁haemorragisch	-12.1915
▁ptnm	-12.1922
▁optredend	-12.1923
wat	-12.1926
▁afdalend	-12.1929
▁choriaalplaat	-12.1929
▁funisitis	-12.1929
▁gespecificeerd	-12.1929
▁instituut	-12.1929
▁omslagplooi	-12.1929
▁precies	-12.1929
▁thymoom	-12.1929
▁bilobectomie	-12.1929
▁enterococcen	-12.1929
▁tracheostomie	-12.1929
▁senilis	-12.1929
▁cutis	-12.1929
▁overeenkomt	-12.1929
▁fibrinethrombi	-12.1929
▁trombosebeen	-12.1929
▁vaatprothese	-12.1931
▁dystrofische	-12.1932
▁discrepant	-12.1933
▁theoretisch	-12.1933
▁capd	-12.1934
▁wondinfectie	-12.1934
▁sclerosering	-12.1936
▁ontlastend	-12.1936
geinduceerde	-12.1938
arts	-12.1939
▁premortaal	-12.1939
▁word	-12.1941
dg	-12.1942
▁clinico	-12.1942
▁linkerflank	-12.1943
▁def	-12.1945
rrent	-12.1947
▁resttoestand	-12.1949
sproblemen	-12.1955
▁cerad	-12.1955
▁histotype	-12.1955
▁buisjes	-12.1957
▁hepaticus	-12.1963
▁reactivatie	-12.1963
intraperitoneaal	-12.1965
basale	-12.1966
▁invaginatie	-12.1973
▁mgus	-12.1974
aha	-12.1974
schildklier	-12.1981
▁grenzen	-12.1987
▁bijwerking	-12.1989
▁groene	-12.1997
▁redenen	-12.2
sstoornis	-12.2003
▁abc	-12.2004
▁huidshavebiopt	-12.2014
▁pulmonar	-12.2019
▁bezoek	-12.2023
▁geschoten	-12.203
▁overgangs	-12.2036
▁basaloide	-12.2039
lencarcinoom	-12.204
▁vs	-12.2043
▁verstoord	-12.205
kant	-12.2057
▁eber	-12.2058
▁blijk	-12.2062
ls	-12.2067
corpus	-12.207
▁doormaakte	-12.2075
basis	-12.208
maar	-12.2082
lu	-12.2084
▁cystadeno	-12.2086
langs	-12.2087
ulceratie	-12.2088
ti	-12.209
▁macrometastase	-12.209
▁stelsel	-12.2098
▁con	-12.2101
▁neusbijholte	-12.2106
▁turt	-12.2109
▁streptokok	-12.211
▁kaposi	-12.211
loyloy	-12.211
▁gedestrueerd	-12.211
▁haematemesis	-12.211
▁haemoptoe	-12.211
▁hematopoetisch	-12.211
▁intraluminaal	-12.211
▁neutropenie	-12.211
▁omkapseld	-12.211
▁onmiddellijk	-12.211
▁onscherp	-12.211
▁uitsnijdatum	-12.211
▁uremisch	-12.211
▁bespreken	-12.211
▁beduidend	-12.211
▁beladen	-12.211
▁mucopurulent	-12.211
▁skeletdysplasie	-12.2111
▁maagretentie	-12.2111
▁ganglioncellen	-12.2111
▁meneer	-12.2112
▁hras	-12.2112
▁infarcthaard	-12.2112
jbe	-12.2113
▁gecauteriseerd	-12.2115
▁constrictiva	-12.2115
▁laatstgenoemde	-12.2115
▁congestief	-12.2116
▁vaginawand	-12.2116
▁ventrikelfalen	-12.2117
▁cryptabcessen	-12.2122
▁ijzerdeposities	-12.2122
tranodaal	-12.2124
▁aangeleverd	-12.2127
▁asymmetrisch	-12.2129
▁papilloma	-12.2129
▁linkeroor	-12.2129
▁centimeters	-12.2131
stroomgebied	-12.2132
trinsiek	-12.2133
▁belemmerd	-12.2137
▁verbindingen	-12.2143
▁infuus	-12.2144
▁occult	-12.2145
▁platzbauch	-12.2145
▁vernauwde	-12.2147
ila	-12.2161
po	-12.2163
top	-12.2165
▁familiair	-12.2167
▁sish	-12.2169
▁overbelasting	-12.2169
▁gehouden	-12.2175
▁verkalkende	-12.2178
▁endocardiaal	-12.2183
▁volgend	-12.2189
▁centrilobulair	-12.219
geassocieerde	-12.2191
▁poli	-12.2195
▁sab	-12.22
▁nierschors	-12.2203
▁fra	-12.2208
ium	-12.2239
▁tavi	-12.2239
sing	-12.2242
▁perforerende	-12.2249
abusus	-12.2255
▁ia	-12.2257
samenstelling	-12.2259
▁adem	-12.2267
immuunhistochem	-12.2269
atherosclerose	-12.2274
elijk	-12.2274
▁subepiderma	-12.2275
tegen	-12.2278
▁embryonaal	-12.2279
▁halsklier	-12.2283
▁weefselstukje	-12.2292
▁neusbrug	-12.2296
▁vergeleken	-12.2296
▁malperfusie	-12.2296
▁gebeuren	-12.2296
▁habitus	-12.2296
▁lijkschouwer	-12.2296
▁subclaviculair	-12.2296
▁thuissituatie	-12.2296
▁ldt	-12.2296
▁bolvormig	-12.2296
▁hepatogene	-12.2296
▁herbeoordeeld	-12.2296
▁spieratrofie	-12.2296
▁pneumocyten	-12.2296
▁order	-12.2297
▁asymmetrie	-12.2297
▁semirecent	-12.2297
cylinders	-12.2298
vcm	-12.2299
less	-12.2299
▁vloeibare	-12.23
▁objectiveren	-12.23
▁rechterbovenarm	-12.2303
▁bloeddrukdaling	-12.2304
▁kaar	-12.2305
▁daadwerkelijk	-12.2307
▁locoregionaal	-12.2307
▁multinodulaire	-12.2308
grootcellig	-12.2309
▁tumornegatief	-12.2313
▁ven	-12.2315
▁bijzijn	-12.2319
▁subcarinaal	-12.2323
▁cardioversie	-12.233
▁thermisch	-12.233
▁genitaal	-12.2332
▁zoek	-12.2333
▁macronodulair	-12.2334
▁acanthotisch	-12.2336
▁circumscripte	-12.2337
▁ileo	-12.2344
▁niertumor	-12.2346
▁antilichamen	-12.2346
sa	-12.2349
▁fysiologisch	-12.2354
▁mono	-12.2355
▁anhydramnion	-12.2362
kleine	-12.2365
▁vader	-12.2369
▁representatie	-12.2375
▁dwars	-12.238
hepatische	-12.2388
▁gewricht	-12.2391
▁slot	-12.2396
forse	-12.2408
▁metastases	-12.242
▁rad	-12.242
ous	-12.2426
▁gb	-12.2446
▁anal	-12.2447
▁vermeldde	-12.2448
▁block	-12.245
▁rheuma	-12.2451
▁geprikkelde	-12.2459
▁uitblijven	-12.2462
knoop	-12.2466
medicamenteus	-12.2466
▁mitose	-12.2466
corte	-12.2469
alzheimer	-12.2469
gaarne	-12.247
voorhoofd	-12.247
ablatie	-12.2475
delen	-12.2476
stig	-12.2479
reeds	-12.248
▁ana	-12.2482
▁staphylococcen	-12.2484
▁doorwoekerd	-12.2484
▁gestorven	-12.2484
▁gladwandig	-12.2484
▁hoofdzakelijk	-12.2484
▁kernbasofilie	-12.2484
▁overleefd	-12.2484
▁parotidectomie	-12.2484
▁suggereren	-12.2484
▁tandenrij	-12.2484
▁buurt	-12.2484
▁polikliniek	-12.2484
▁hartactie	-12.2484
▁hersendood	-12.2484
▁donkerrood	-12.2484
duodenectomie	-12.2484
endarteriectomie	-12.2484
▁cryptitis	-12.2484
▁sectio	-12.2484
▁flink	-12.2484
▁internist	-12.2485
▁slijmerig	-12.2485
▁opleveren	-12.2485
▁moeheid	-12.2485
proeflaparotomie	-12.2486
▁passagere	-12.2487
▁evenwicht	-12.2487
▁reticuline	-12.2488
▁kinderen	-12.2488
▁distributie	-12.2489
▁onrijp	-12.249
▁pcp	-12.249
▁hematoomvorming	-12.2491
glandulaire	-12.2492
▁paars	-12.2493
▁eenderde	-12.2495
▁electronen	-12.2496
▁gecorrigeerd	-12.2496
rd	-12.2497
▁diameters	-12.25
▁klierbuis	-12.2502
▁vasculitisbeeld	-12.2503
▁competent	-12.2504
▁hemangiomen	-12.2504
▁colorectal	-12.2504
▁slijmvliezen	-12.2504
▁infiltraatjes	-12.2508
▁do	-12.2509
▁tumorhaardjes	-12.251
nbt	-12.2512
▁nevus	-12.2512
▁stenting	-12.2512
▁mitochondrial	-12.2513
▁geamplificeerd	-12.252
cisiebiopten	-12.2526
peritonitis	-12.2527
▁cystevorming	-12.2529
▁hiel	-12.2541
▁ijzerkleuring	-12.2542
▁verwekkers	-12.2545
▁stembanden	-12.2547
prerenale	-12.2559
lp	-12.2566
▁daaren	-12.2575
secundair	-12.2585
ehe	-12.2593
tg	-12.2596
punt	-12.2596
primaire	-12.2597
▁droge	-12.2602
▁vesiculair	-12.2607
▁sperma	-12.2609
ss	-12.2619
▁anaal	-12.2629
abces	-12.2633
▁spierwand	-12.2635
▁lymfoompanel	-12.2635
dis	-12.2638
pigment	-12.2642
parietaal	-12.2653
min	-12.2653
▁glazig	-12.2656
lang	-12.2656
▁laatst	-12.2664
spieren	-12.2667
oesofagitis	-12.2669
totale	-12.2671
▁daalde	-12.2672
▁lymfkliertje	-12.2675
hypertrofisch	-12.2675
▁leptomenin	-12.2675
▁onrust	-12.2676
pectatief	-12.2677
▁alienum	-12.2677
▁meldde	-12.2677
▁pilonidalis	-12.2677
▁versneld	-12.2677
▁handpalm	-12.2677
▁coagulase	-12.2677
▁pseudomelanosis	-12.2677
▁oproep	-12.2677
▁galstase	-12.2677
▁afstrijkbaar	-12.2677
▁foetalis	-12.2677
▁feitelijk	-12.2677
▁differentieren	-12.2677
▁buikomvang	-12.2677
▁subserosaal	-12.2678
▁mitraliskleppen	-12.2678
▁peracuut	-12.2678
▁concrement	-12.2679
▁willen	-12.2679
▁leuco	-12.2679
▁uitnemen	-12.2679
▁uitzaaiingen	-12.2681
▁dysplasia	-12.2681
▁dyspnoeklachten	-12.2681
▁three	-12.2682
▁wegrakingen	-12.2683
▁rugklachten	-12.2686
▁paraaortale	-12.2686
▁oropharyn	-12.2688
▁pemphigoid	-12.2689
▁hypofaryn	-12.269
▁regel	-12.269
▁littekenreactie	-12.2694
▁tricuspidaal	-12.2694
myocarditis	-12.2695
▁celtype	-12.2696
urie	-12.2696
▁inzicht	-12.2697
▁neutropene	-12.2697
▁nash	-12.2701
inflammatoire	-12.2702
uitstortingen	-12.2704
▁mortaal	-12.2706
▁halsvaten	-12.2708
zone	-12.2711
▁spoor	-12.2711
▁schrompeling	-12.2713
epicrise	-12.2713
▁presenteer	-12.2715
lig	-12.272
▁transsudaat	-12.272
tijd	-12.2723
▁littekenachtig	-12.2729
neus	-12.2748
lis	-12.2748
tachycardie	-12.2751
▁hsil	-12.2753
▁amiodarone	-12.2753
▁dunwandige	-12.2753
▁geheugen	-12.2756
▁vv	-12.2761
▁fragiel	-12.2761
▁banal	-12.2769
▁amnion	-12.277
▁bacterieel	-12.2772
▁luchthoudende	-12.2774
▁wer	-12.2776
hb	-12.2779
▁knieen	-12.2781
▁kweekuitslag	-12.279
▁cataract	-12.2793
ser	-12.2793
▁mortem	-12.2794
pen	-12.2801
▁vaatstuwing	-12.2811
▁segmentkernige	-12.2812
bifemorale	-12.2813
▁immunokleuring	-12.2817
▁tal	-12.2824
angio	-12.2828
trioventriculair	-12.2828
stk	-12.2834
▁mucine	-12.2837
▁leverbiopsie	-12.2851
pharyn	-12.2854
▁hr	-12.2856
▁dosering	-12.2863
variant	-12.2863
▁spierbiopt	-12.2864
ysma	-12.2869
uadriceps	-12.2873
▁gedaald	-12.2873
▁gedenudeerd	-12.2873
▁hemosiderose	-12.2873
▁omschreven	-12.2873
▁uitvoerig	-12.2873
▁stilstaand	-12.2873
▁kwast	-12.2873
▁tracheotomie	-12.2873
▁epigastrio	-12.2873
▁schedeldak	-12.2873
▁thyroiditis	-12.2873
▁gearriteerd	-12.2873
▁passieve	-12.2873
▁notch	-12.2873
▁frontalis	-12.2873
▁klepslippen	-12.2873
▁afspraak	-12.2873
ablatio	-12.2873
▁verwijs	-12.2874
radiotherapie	-12.2874
encephalopathie	-12.2874
▁neemt	-12.2875
atelectase	-12.2875
helder	-12.2876
halve	-12.2876
▁realti	-12.2877
▁hypercapnie	-12.2877
intestinalis	-12.2877
▁blaasmucosa	-12.2879
▁avl	-12.288
▁ondervulling	-12.2881
inklemmingsbeeld	-12.2885
▁vergroenend	-12.2885
▁linkerlies	-12.2889
▁enteropathie	-12.2893
▁sintrom	-12.2893
gemedieerde	-12.2893
▁longemphyseem	-12.2894
▁decidual	-12.2895
▁rechterhand	-12.2898
▁heer	-12.2899
▁dijbeen	-12.2902
▁ventriculitis	-12.2902
levergewicht	-12.2902
▁passageklachten	-12.291
zegelringceltype	-12.2912
▁anomalie	-12.2917
vlak	-12.2917
▁verblijf	-12.2918
hoofdstamstenose	-12.2926
ni	-12.2926
▁brickers	-12.2927
▁oogt	-12.2934
dometriumpipelle	-12.2934
▁longgewicht	-12.2935
▁koud	-12.2937
▁mag	-12.2942
▁emc	-12.2946
▁aaaa	-12.2951
▁atm	-12.2962
▁thrombocytopeni	-12.2964
centrum	-12.2977
schade	-12.2983
▁vacuum	-12.2992
▁kh	-12.3
send	-12.3002
▁tip	-12.301
▁mesotheliomen	-12.3012
▁gevormde	-12.3015
▁spanningspneumo	-12.3018
▁myo	-12.3023
▁data	-12.3035
▁klierweefsel	-12.3037
▁microglia	-12.3045
▁therapieeffect	-12.3051
▁parvo	-12.3055
▁risicofactor	-12.3063
taal	-12.3069
▁aanvragen	-12.3072
▁ulceroflegmoneu	-12.3073
▁geloosd	-12.3073
▁gezakt	-12.3073
▁seborrhoisch	-12.3073
▁gemeentelijk	-12.3073
cbdmma	-12.3073
▁miniem	-12.3073
flowcytometrisch	-12.3073
▁puntbloedingen	-12.3073
▁weerstand	-12.3073
▁overgegaan	-12.3073
▁kransslagader	-12.3074
▁eindigend	-12.3075
smaceldyscrasie	-12.3075
▁galblaasbed	-12.3075
▁spiercellen	-12.3076
▁longcirculatie	-12.3078
▁vergevorderde	-12.3079
▁ejectiefractie	-12.308
▁dichtbij	-12.3081
▁ketens	-12.3081
▁rechteronderarm	-12.3081
papilloom	-12.3082
tezamen	-12.3082
restlumen	-12.3082
ruiterembolus	-12.3082
▁pyela	-12.3085
▁hypoglycaemie	-12.3085
▁zonodig	-12.3085
▁carcinosarcoom	-12.3085
dagen	-12.3088
▁premalign	-12.3094
▁mengbeeld	-12.3094
uebloedingen	-12.3097
▁pral	-12.3099
▁rechtsfalen	-12.3103
ductale	-12.3103
▁bronchuss	-12.3111
cisiepreparaten	-12.3112
▁herschikking	-12.3116
sen	-12.3117
▁pocket	-12.3117
▁biamniotische	-12.3119
▁ondervelden	-12.3125
▁rb	-12.3128
▁pool	-12.313
▁omtrek	-12.3133
▁atrial	-12.3136
pi	-12.3137
▁littekentjes	-12.3137
sinushistiocytos	-12.3139
▁stadia	-12.3145
▁delay	-12.3146
▁indirect	-12.315
▁bruine	-12.3159
▁vermindering	-12.3161
▁chemotherapeuti	-12.3166
▁incontinentie	-12.317
▁overgangstype	-12.3173
▁oligo	-12.3175
▁leucocyten	-12.3179
▁optie	-12.318
gecompromiteerde	-12.3187
▁passage	-12.3195
▁junctione	-12.3207
▁versmald	-12.3213
▁dens	-12.3218
db	-12.3222
▁plaatste	-12.3226
dus	-12.3226
die	-12.3232
pleura	-12.3232
▁versterkt	-12.3233
▁circumscript	-12.3236
▁gezond	-12.3239
▁wandstandig	-12.324
▁renal	-12.3241
▁akt	-12.3243
kwab	-12.3244
▁zon	-12.3245
angiogram	-12.3248
ven	-12.3249
kan	-12.3249
▁plasma	-12.3261
scheur	-12.3262
▁uitsluit	-12.3266
▁aortakunstklep	-12.3272
▁uitbreidde	-12.3274
▁gezicht	-12.3276
effort	-12.3277
▁aanbeveling	-12.3277
▁acantholyse	-12.3277
▁stemplooi	-12.3277
▁strikt	-12.3277
▁woning	-12.3277
▁verwondingen	-12.3277
occlusive	-12.3277
▁grofdruppelig	-12.3277
▁immunoloog	-12.3277
▁selectieve	-12.3277
▁schedelomtrek	-12.3277
▁cerebelli	-12.3277
▁hysteroscopisch	-12.3278
▁pneumonectomie	-12.3278
▁subtypering	-12.3278
reperfusieschade	-12.3279
▁abnormaal	-12.3279
▁nt	-12.3279
boog	-12.328
wa	-12.3283
arteriosclerosis	-12.3283
was	-12.3283
afdeling	-12.3285
▁tkis	-12.3287
▁rechterflank	-12.3289
▁vg	-12.3292
lumen	-12.3292
structuur	-12.3293
body	-12.3293
worden	-12.3294
laboratorium	-12.3294
waaronder	-12.3295
merg	-12.3295
postmortale	-12.3295
minimaal	-12.3296
▁fibromatose	-12.3298
▁leukostase	-12.3298
▁romphuidtype	-12.3299
▁ta	-12.3305
▁micropapillair	-12.3309
▁polymorf	-12.3311
▁multicentrisch	-12.3314
▁rectumbiopt	-12.3317
▁postmortem	-12.3325
▁detubatie	-12.3325
▁vd	-12.333
▁chorionitis	-12.3332
▁vaginaal	-12.3334
▁sinusoidal	-12.3337
rood	-12.3345
▁lokatie	-12.3346
▁tumorresten	-12.335
iaal	-12.3364
dm	-12.3366
aard	-12.3367
▁loc	-12.3374
▁bank	-12.3376
▁digiti	-12.3379
aspect	-12.339
pneumoniehaarden	-12.3391
rde	-12.3393
▁ypt	-12.3396
▁ni	-12.3404
▁circumferentie	-12.3408
lise	-12.3411
▁eczemateu	-12.3436
▁hard	-12.3437
emfyseem	-12.3452
▁wangslijmvlies	-12.3456
anknopingspunten	-12.3462
▁fistelgang	-12.3465
▁eerstegraads	-12.3467
▁berustte	-12.3474
▁nodule	-12.3474
▁element	-12.3475
▁opkomende	-12.3475
▁sneden	-12.3476
pathie	-12.3476
▁tki	-12.3483
enterostomie	-12.3484
▁brunners	-12.3485
ytoca	-12.3485
▁autopsie	-12.3485
▁autopsy	-12.3485
▁chorionvlokken	-12.3485
▁coccoide	-12.3485
▁cyanotisch	-12.3485
▁glanzend	-12.3485
▁verslijmend	-12.3485
▁wakker	-12.3485
▁pallidus	-12.3485
▁verenigbaar	-12.3485
nen	-12.3485
▁ileopsoas	-12.3485
▁standaard	-12.3485
▁afsplitsing	-12.3485
▁breukzak	-12.3485
▁mononier	-12.3485
▁turner	-12.3485
▁parasternaal	-12.3485
▁chemie	-12.3486
▁atroof	-12.3486
▁markeronderzoek	-12.3486
▁omentalis	-12.3486
▁slotte	-12.3487
▁naevocellulares	-12.3488
▁mbt	-12.3489
▁bijzonderheid	-12.3489
jwo	-12.3491
▁dystrofie	-12.3493
femorale	-12.3494
soorzaak	-12.3495
▁longarts	-12.3496
▁addison	-12.3498
▁zenuwen	-12.3498
▁somscore	-12.3499
▁ovariumcyste	-12.3499
▁binnenste	-12.3501
falen	-12.3503
ry	-12.3503
tumorgrootte	-12.3504
▁tumorkenmerken	-12.3506
ovarieel	-12.3506
▁groepje	-12.3506
▁embolectomie	-12.3507
▁verstikking	-12.3507
▁contusio	-12.3507
▁vitamine	-12.3507
weke	-12.3508
sproduct	-12.3508
motiliteit	-12.351
lekkage	-12.3511
positiviteit	-12.3511
▁radiologie	-12.3516
▁meningeale	-12.3516
sinds	-12.3518
▁fotos	-12.3518
spier	-12.3518
ptnm	-12.3519
▁getuige	-12.352
▁hernieuwd	-12.3525
▁bypassoperatie	-12.3528
▁ingesneden	-12.3529
▁mening	-12.3533
▁thoracolumba	-12.3537
encefalopathie	-12.3544
▁mlpa	-12.3551
▁large	-12.3554
druk	-12.3554
▁sterfte	-12.3554
▁ema	-12.3555
chronisch	-12.3568
▁buis	-12.3577
▁markering	-12.3584
fase	-12.3585
▁ingestuurde	-12.3603
▁hodgkinlymfoom	-12.3606
alis	-12.3622
▁terme	-12.3625
cardiaresectie	-12.363
▁cholestatische	-12.3633
stase	-12.3636
vet	-12.3657
▁br	-12.3663
▁not	-12.3675
▁peritoneumbiopt	-12.3684
▁vochtcollectie	-12.3687
sporadische	-12.3691
organisme	-12.3692
▁synovia	-12.3693
▁gere	-12.3695
▁lithium	-12.3698
▁gefuseerd	-12.3698
▁geobserveerd	-12.3698
▁partner	-12.3698
▁schrijven	-12.3698
▁verstandelijk	-12.3698
▁uitgerijpt	-12.3698
mithyroidectomie	-12.3698
▁ewing	-12.3698
▁basillaris	-12.3698
▁cardiologisch	-12.3698
▁scannen	-12.3698
▁autonom	-12.3698
▁myomen	-12.3698
▁coronarius	-12.3698
▁comorbiditeit	-12.3698
▁blastentoename	-12.3698
▁lvaw	-12.3698
▁pyogenes	-12.3699
▁digniteit	-12.3699
▁achterliggend	-12.3699
▁aetiologie	-12.37
▁vaatpathologie	-12.37
jli	-12.3702
▁aangemerkt	-12.3702
▁huiddefect	-12.3702
▁onmogelijk	-12.3709
amyloiddepositie	-12.3709
volumepercentage	-12.371
▁globu	-12.371
▁mt	-12.3711
▁sluitend	-12.3712
▁rillingen	-12.3712
▁tijdelijke	-12.3712
▁hepatico	-12.3713
herzfehlercellen	-12.3713
ln	-12.3714
▁leverschade	-12.3716
▁grillige	-12.3718
▁chromogranine	-12.372
▁spierzwakte	-12.372
▁vakantie	-12.372
▁pacemakerdraad	-12.3721
▁borstwand	-12.3724
▁sclerae	-12.3725
reikend	-12.3727
parenchymateus	-12.3728
conisatie	-12.3728
degeneratie	-12.3729
adjuvant	-12.3731
concentratie	-12.3732
angiografie	-12.3732
▁klepvegetaties	-12.3733
▁mallory	-12.3747
▁reaktie	-12.3756
▁paralyse	-12.3757
▁obstructies	-12.3761
▁cystevocht	-12.3764
▁verklarend	-12.3768
▁specimen	-12.3772
▁vaatziekten	-12.3775
ieve	-12.3775
ingsstoornissen	-12.3783
▁lissen	-12.3783
uente	-12.3783
▁staafvormige	-12.3791
erde	-12.3795
uze	-12.3797
▁ont	-12.3798
▁vezel	-12.3801
▁helderen	-12.3815
primair	-12.3816
▁satelliet	-12.3818
▁remmers	-12.382
uitgebreid	-12.3824
vervullingsbeeld	-12.383
laesies	-12.3833
respons	-12.3833
ctische	-12.3836
▁follikels	-12.3841
wal	-12.3842
▁grauw	-12.3858
▁inname	-12.3864
receptoren	-12.3876
▁polyp	-12.3883
want	-12.3884
ho	-12.3892
osis	-12.3893
gegeneraliseerde	-12.3894
dunne	-12.3897
stand	-12.3903
▁manifestatie	-12.3908
hippocampale	-12.3913
stermijn	-12.3915
▁angulus	-12.3915
▁hartmassage	-12.3915
▁intermittens	-12.3915
▁longhili	-12.3915
▁activity	-12.3915
▁pemfigoid	-12.3915
▁kilo	-12.3915
▁unci	-12.3915
▁afvallen	-12.3915
▁palga	-12.3915
▁jongeman	-12.3916
▁vaatsysteem	-12.3916
▁cmyc	-12.3916
▁superinfectie	-12.3916
▁warthintumor	-12.3916
▁vetlaag	-12.3916
▁bloedingsplaats	-12.3916
▁frontaalkwab	-12.3916
▁gemicro	-12.3917
▁hage	-12.3917
▁electric	-12.3917
▁adenosis	-12.3917
▁botvorming	-12.3918
▁nucleoli	-12.392
geel	-12.3921
▁redelijke	-12.3921
▁duodenummucosa	-12.3922
fd	-12.3924
▁ontbraken	-12.3928
▁petechiale	-12.3929
klepplastiek	-12.3932
▁rechteroor	-12.3934
▁skintag	-12.3936
▁cordarone	-12.3938
▁pleurazwoerd	-12.3938
▁heden	-12.394
▁gecalcificeerde	-12.394
▁ccu	-12.394
▁fenotypisch	-12.394
fc	-12.394
ulcus	-12.3945
▁linkerarm	-12.3949
▁sturen	-12.395
▁partial	-12.3952
▁fibroadipeu	-12.3953
▁reeel	-12.3953
insertie	-12.3959
gc	-12.3959
infectieuze	-12.3962
rechterhemisfeer	-12.3962
▁palpabel	-12.3964
▁clips	-12.3965
massale	-12.3965
▁dystrof	-12.3965
▁miltinfarcten	-12.3966
▁mss	-12.3966
hepatitis	-12.397
hoe	-12.397
tracapsulair	-12.3976
▁tert	-12.3976
▁ingevangen	-12.3981
▁there	-12.3983
▁bas	-12.3989
▁leverhaarden	-12.399
▁reversibele	-12.3993
▁recto	-12.3993
▁mib	-12.3996
▁falend	-12.4001
▁wandverdikking	-12.4001
▁asbest	-12.4022
▁stembandpoliep	-12.4023
leu	-12.4027
▁semen	-12.403
intern	-12.403
▁pneumo	-12.4041
▁stevige	-12.4046
stations	-12.4049
▁inwerking	-12.4052
ocytaire	-12.4054
peritonitisbeeld	-12.4059
los	-12.4063
infiltraat	-12.4067
satelliethaarden	-12.4072
olithiasis	-12.4073
▁immuunsuppressi	-12.4079
▁gaand	-12.4079
coronair	-12.4087
belemmering	-12.409
▁ventriculair	-12.4092
duodenale	-12.4104
diepte	-12.4108
kamer	-12.4116
▁cyto	-12.4117
▁miniscu	-12.4137
iparine	-12.4137
▁apoptose	-12.4137
▁discontinu	-12.4137
▁erythematodes	-12.4137
▁geretourneerd	-12.4137
▁geschrompeld	-12.4137
▁krachtsverlies	-12.4137
▁volumineus	-12.4137
▁hemofagocytose	-12.4137
▁justitie	-12.4137
▁voortschrijdend	-12.4137
▁losmazig	-12.4137
▁secretiefase	-12.4137
▁cerebrospinalis	-12.4137
▁erythropoiese	-12.4137
▁platform	-12.4137
▁schimmelsporen	-12.4138
▁arteritis	-12.4138
▁nefrotisch	-12.4138
▁crisis	-12.4138
▁tonsillair	-12.4138
▁coecumbodem	-12.4138
▁biochemisch	-12.4138
▁laryngectomie	-12.4138
▁doodsoorzaken	-12.4139
▁linkerhemisfeer	-12.414
▁niersteen	-12.414
morbiditeit	-12.4141
▁contusiehaarden	-12.4141
hvd	-12.4142
▁thromboembolus	-12.4143
▁ziehl	-12.4144
▁foeto	-12.4145
▁perinatal	-12.4146
resp	-12.4149
tweelingplacenta	-12.4149
▁abruptio	-12.4152
▁duizeligheid	-12.4152
▁peritonei	-12.4153
▁nierlijden	-12.4153
▁levercysten	-12.4156
▁vochtig	-12.4157
▁lukte	-12.4159
▁achteraf	-12.416
▁interval	-12.416
▁bap	-12.4161
▁paracolisch	-12.4162
ris	-12.4162
▁sputumkweek	-12.4162
▁verplaatsing	-12.4165
▁substantiel	-12.4165
................	-12.4167
grade	-12.4168
▁nierinfarcten	-12.4168
▁verklaarbaar	-12.417
▁ams	-12.4174
▁verwekingshaard	-12.4175
sc	-12.4176
▁rectumresectie	-12.4177
▁navelbreuk	-12.4179
▁hersenhemisfeer	-12.418
▁prostaticus	-12.418
opmerking	-12.4182
defecten	-12.4187
▁hersenbasis	-12.4189
papmilt	-12.4194
differentiaal	-12.4194
distale	-12.4194
aanwezigheid	-12.4195
gleasonscore	-12.4195
myocardinfarct	-12.4195
▁gestegen	-12.4198
rr	-12.4202
▁middelen	-12.4206
▁chop	-12.4209
▁hemosiderine	-12.4211
nodale	-12.4212
slechts	-12.4215
▁homogeen	-12.4218
papillair	-12.422
resectieranden	-12.4229
▁pakket	-12.4238
neuro	-12.4239
▁case	-12.4242
ft	-12.4245
illaire	-12.425
▁verklaringen	-12.426
bacter	-12.4262
▁rectale	-12.427
ander	-12.4272
▁fundustype	-12.4276
terminaal	-12.4284
formatie	-12.4285
rode	-12.43
lb	-12.43
spiegels	-12.4302
che	-12.4302
▁micr	-12.4303
sus	-12.4306
▁rechtsonder	-12.4309
▁ontstolling	-12.4314
▁pd	-12.432
sdiagnose	-12.4325
▁atheroom	-12.433
bloeduitstorting	-12.4334
▁area	-12.4339
▁granulatie	-12.4346
▁verkleurde	-12.4347
▁beland	-12.4352
zijn	-12.4354
▁plekje	-12.4355
proliferatief	-12.4355
▁doorsnijding	-12.4357
dissecteerde	-12.436
▁biometrie	-12.436
kleuringspatroon	-12.4364
▁dermatomycose	-12.4365
▁fumigatus	-12.4365
▁hallucinaties	-12.4365
▁imbibitie	-12.4365
▁verbonden	-12.4365
ydase	-12.4365
▁evalueren	-12.4365
▁gescand	-12.4365
▁anteroseptale	-12.4365
▁disseminatie	-12.4365
sanders	-12.4365
▁junctie	-12.4365
▁gliosis	-12.4365
▁leucaemie	-12.4365
▁vulnerabel	-12.4365
▁afgebroken	-12.4365
cbdehe	-12.4365
▁rontgenfoto	-12.4365
▁keratinocyten	-12.4365
▁endstage	-12.4365
▁sinussen	-12.4365
▁anisocorie	-12.4366
▁ongemarkeerd	-12.4366
▁infectiebron	-12.4367
▁overlap	-12.4367
▁diagnosis	-12.4367
▁uitdrukbaar	-12.4367
▁pigmenthoudend	-12.4369
▁floride	-12.437
▁megakaryopoese	-12.437
▁verhoging	-12.437
▁aantallen	-12.4372
▁lymfangiectasie	-12.4372
▁bovenzijde	-12.4374
si	-12.4376
az	-12.4378
▁haemophil	-12.4379
▁prionziekte	-12.4379
▁gespaard	-12.4379
▁polycythaemi	-12.4379
onbehandelbare	-12.4379
▁maagklachten	-12.4385
gist	-12.4385
▁ecchymosen	-12.4389
▁nood	-12.4391
▁verlittekende	-12.4392
tubulaire	-12.4392
deficientie	-12.4393
hoeft	-12.4394
tel	-12.4396
▁begeleid	-12.4396
ymfohistiocytair	-12.4398
▁gevoeld	-12.4398
▁grover	-12.4404
▁serosaal	-12.4405
▁pouch	-12.4408
▁intrekking	-12.4408
▁dermatomyositis	-12.4408
▁tubulusatrofie	-12.4408
▁assistent	-12.4411
▁dyskeratose	-12.4413
▁wijze	-12.4415
▁stoel	-12.4417
▁morfea	-12.4417
▁apneu	-12.442
thoracale	-12.442
▁zoom	-12.4421
▁kamers	-12.4422
somatisch	-12.443
fatty	-12.4432
chemotherapie	-12.4432
hi	-12.4434
groeiwijze	-12.4434
alcoholische	-12.4434
▁smo	-12.4434
alleen	-12.4436
copd	-12.4438
▁diepste	-12.4439
schouderblad	-12.4441
▁stilstand	-12.4443
mel	-12.4458
houdende	-12.4458
premortale	-12.4465
▁maagoperatie	-12.4467
▁total	-12.4469
▁contralatera	-12.447
anaal	-12.4472
▁punten	-12.4473
sgroep	-12.4474
▁afgekapseld	-12.4475
ers	-12.4487
▁pseudodecidual	-12.4488
hetgeen	-12.4488
▁weker	-12.449
▁loge	-12.4496
▁pericolisch	-12.4499
fa	-12.4504
thr	-12.4505
septumruptuur	-12.4514
▁uitzichtlo	-12.4517
▁signaal	-12.4524
tumoren	-12.4525
dia	-12.4532
witte	-12.4535
▁aansnijding	-12.4539
▁restlaesie	-12.4549
▁diastolisch	-12.4549
▁ps	-12.457
stomp	-12.4571
cave	-12.4574
▁zuurstofbehoeft	-12.4576
histiocytaire	-12.4578
kh	-12.4582
▁parametria	-12.4584
licht	-12.4585
▁klepblad	-12.4588
▁thal	-12.459
▁systeemziekte	-12.4595
▁bedlegerig	-12.4596
heidshalve	-12.4597
▁afstrijkba	-12.4597
▁ascal	-12.4597
clusionem	-12.4597
elaatsdysmorfien	-12.4597
rachiocephalicus	-12.4597
▁cirrhosis	-12.4597
▁decursus	-12.4597
▁pirads	-12.4597
▁spliet	-12.4597
▁strangulatie	-12.4597
▁trabeculatie	-12.4597
▁vascularisatie	-12.4597
▁verdrinking	-12.4597
▁granulopoiese	-12.4597
▁voelen	-12.4597
▁losgelaten	-12.4597
▁obturatoria	-12.4597
▁microcytaire	-12.4597
▁perirectale	-12.4597
▁lateralis	-12.4597
▁kapseldoorgroei	-12.4598
▁array	-12.4598
▁zegelringcellen	-12.4598
▁nates	-12.4598
▁uitgegaan	-12.4599
▁mammasparend	-12.4601
▁hyperemie	-12.4602
▁sporten	-12.4603
▁aangesneden	-12.4605
▁femorales	-12.4605
▁lymfvaten	-12.4607
▁chordae	-12.4609
sgewijze	-12.461
▁cervicitis	-12.4612
▁angiomyolipoom	-12.4612
▁ontlast	-12.4613
▁voorvoet	-12.4614
▁hypereosinofiel	-12.4614
▁steunt	-12.4618
▁tromboembolieen	-12.462
▁microvasculair	-12.4622
▁bekkenwand	-12.4622
▁oncologisch	-12.4622
▁concha	-12.4622
▁tuberculosis	-12.4622
▁apnoe	-12.4622
▁overgangsgebied	-12.4623
lag	-12.4626
▁intraperitoneal	-12.463
proliferatiefase	-12.463
zen	-12.4631
▁teveel	-12.4631
▁myocardruptuur	-12.4631
▁bridging	-12.4632
▁gangreen	-12.4632
▁lp	-12.4634
▁vaatlaesie	-12.4636
▁buikspoelvocht	-12.4637
▁organismen	-12.4638
ans	-12.4638
▁hematopericard	-12.464
besproken	-12.4648
beoordeling	-12.4649
spoeling	-12.4649
▁orbita	-12.465
zins	-12.4653
thrombi	-12.4655
▁verbleking	-12.4656
▁immunologische	-12.4657
▁pica	-12.4658
tractie	-12.4659
organiserende	-12.466
▁support	-12.4664
▁necrosehaardjes	-12.4673
naschrift	-12.4674
▁ber	-12.4675
helicobacter	-12.4676
▁linkerzijwand	-12.4684
▁reele	-12.4687
▁wal	-12.4688
▁plaat	-12.4691
personeel	-12.4696
▁leveren	-12.4699
▁reinfarcering	-12.471
▁pockets	-12.4712
▁fimbriae	-12.4719
▁superficial	-12.4721
pan	-12.4725
rsc	-12.4734
▁immunocytochemi	-12.4735
▁beperking	-12.4743
onderkwab	-12.4744
cardiaal	-12.4758
▁microsc	-12.476
▁apocrien	-12.4761
▁placentair	-12.4767
▁aplastische	-12.4768
gegevens	-12.4779
▁histo	-12.4781
hy	-12.4787
respiratoir	-12.48
nh	-12.4803
▁gereseceerde	-12.4804
▁mycobacterie	-12.4808
▁additione	-12.4816
gangsepitheelcel	-12.4822
▁glia	-12.4823
▁gat	-12.4823
▁bol	-12.4824
▁opheldering	-12.4825
▁strek	-12.4827
volgende	-12.4828
▁mislukt	-12.4828
▁correct	-12.4829
▁meckel	-12.4833
▁lymfoma	-12.4834
▁pijnlijke	-12.4834
▁griep	-12.4834
▁objectiveerba	-12.4835
entorhinal	-12.4835
▁pilomatri	-12.4835
▁epidurale	-12.4835
▁gesitueerd	-12.4835
▁hyperthermie	-12.4835
▁marcescens	-12.4835
▁mortons	-12.4835
▁perfringens	-12.4835
▁uitwijzen	-12.4835
▁volumineuze	-12.4835
▁condyloom	-12.4835
▁endometritis	-12.4835
parathyreoidie	-12.4835
▁aanvoerend	-12.4835
▁ballonpomp	-12.4835
▁detecteerbaar	-12.4835
cflp	-12.4835
▁mooi	-12.4835
▁staafjes	-12.4835
▁generaliseerde	-12.4836
▁slijmstase	-12.4836
▁gebruikelijk	-12.4837
▁omheen	-12.4837
▁periportaal	-12.4839
▁voorstelbaar	-12.4839
▁anore	-12.4839
▁botten	-12.4839
▁slijmvorming	-12.484
▁placentavolume	-12.484
kwabsbronchus	-12.4841
▁behandelopties	-12.4841
▁stafylokokken	-12.4841
▁rechterovarium	-12.4842
▁loopstoornissen	-12.4843
▁lekkend	-12.4844
▁cauda	-12.4845
vr	-12.4845
▁uitbreiden	-12.4847
snede	-12.4848
▁borstholte	-12.4849
komen	-12.485
▁niessen	-12.4851
▁parametrium	-12.4851
▁behandel	-12.4852
rg	-12.4853
gerelateerd	-12.4854
▁are	-12.4857
bruin	-12.4858
▁afweer	-12.4859
▁glans	-12.4861
▁neuroloog	-12.4861
toestand	-12.4862
▁sup	-12.4865
▁proliferaties	-12.4865
ica	-12.4866
▁aanhangend	-12.4868
▁remmer	-12.4871
▁polydactylie	-12.4871
pijn	-12.4873
mis	-12.4877
wang	-12.4877
stijging	-12.4877
▁keten	-12.488
▁cp	-12.4884
congofiele	-12.4887
sonderzoek	-12.4889
▁opportunistisch	-12.489
▁longkweek	-12.489
▁centroblastair	-12.4891
▁hepatisch	-12.4891
▁red	-12.4892
angiomateuze	-12.4893
▁kl	-12.4893
▁blaasresectie	-12.4898
operatielitteken	-12.4906
▁verloopt	-12.4907
afhankelijk	-12.491
▁groenig	-12.4911
double	-12.4915
▁adenomyomateu	-12.4921
betreffende	-12.4924
reanimatie	-12.4925
nefropathie	-12.4926
galblaas	-12.4926
daarnaast	-12.4926
ymfoplasmacytair	-12.4926
▁bioklep	-12.4928
vrijwel	-12.4929
▁matri	-12.493
▁klatskin	-12.4931
▁retina	-12.4935
varianten	-12.4937
ymfoplasmocytair	-12.4938
▁lymfvat	-12.4939
▁dak	-12.494
▁spoelsel	-12.4942
ptr	-12.4942
▁aanvallen	-12.4964
ation	-12.4966
▁cryptogen	-12.4972
bodem	-12.4978
scopie	-12.4985
▁old	-12.4985
vl	-12.4989
▁linkercoronair	-12.4992
situ	-12.5
▁gerangschikt	-12.501
▁naam	-12.5011
▁reserve	-12.5013
▁intermitterend	-12.5024
▁gelijkende	-12.5024
gressief	-12.5025
▁overhechte	-12.5026
nav	-12.5026
timahyperplasie	-12.5031
▁perihilaire	-12.5053
▁wavy	-12.5053
▁routine	-12.5055
ventrale	-12.5065
▁pectoralis	-12.5067
▁longmetastase	-12.5067
▁msr	-12.5068
▁unit	-12.5068
▁bewijzen	-12.507
massa	-12.5072
▁bronchiaalboom	-12.5074
▁bloedtransfusie	-12.5074
▁femoro	-12.5079
neelsen	-12.5079
▁desalniettemin	-12.5079
▁diurese	-12.5079
▁epidermidis	-12.5079
▁glabella	-12.5079
▁glabrata	-12.5079
▁intervillositis	-12.5079
▁malleolus	-12.5079
▁melding	-12.5079
▁planocellulair	-12.5079
▁polycythemi	-12.5079
▁stricturerend	-12.5079
▁stridor	-12.5079
▁iugr	-12.5079
▁cystoscopie	-12.5079
▁bijtfibroom	-12.5079
▁veertien	-12.5079
▁aktieve	-12.5079
▁supraglottisch	-12.5079
▁beneden	-12.5079
▁wenselijk	-12.5079
▁hechtmateriaal	-12.5079
▁intracranieel	-12.508
▁hersenschade	-12.508
▁lichaamshelft	-12.508
▁neusgang	-12.508
▁erytroid	-12.508
▁hoofdstammen	-12.508
▁dako	-12.508
▁prerenaal	-12.5083
▁catheterisatie	-12.5084
▁aangeven	-12.5085
▁necrologie	-12.5086
▁weigerde	-12.5087
▁resulteerde	-12.5087
▁abceshaarden	-12.5089
macrotest	-12.5089
▁avs	-12.5092
▁inmonding	-12.5093
▁slokdarmbiopt	-12.5093
▁papillomatose	-12.5095
▁pelvien	-12.5095
▁psoasbloeding	-12.5096
pansie	-12.5096
▁lethale	-12.5096
waarde	-12.5096
▁zinvol	-12.5096
▁maagfundus	-12.5101
▁cast	-12.5102
▁darmdeel	-12.5103
▁stijgende	-12.5105
▁doorgebeld	-12.5105
▁samenhangt	-12.5105
▁vitium	-12.5105
▁duiding	-12.5106
▁steatotische	-12.5108
ureterectomie	-12.5109
▁mucosaal	-12.5115
▁cvp	-12.5116
▁amo	-12.5117
▁rima	-12.5118
▁homozygot	-12.5118
▁ulceratief	-12.5118
▁verrichting	-12.5135
▁ontkalking	-12.5135
kt	-12.5138
thrombo	-12.5141
▁schil	-12.5141
▁miliaire	-12.5142
ire	-12.5143
afs	-12.515
ip	-12.5152
▁lues	-12.5155
▁placentagewicht	-12.5158
sneevlak	-12.516
▁embolietjes	-12.5163
gelijk	-12.5164
antrum	-12.5168
▁acra	-12.517
encephalitis	-12.5172
▁opge	-12.5176
mortem	-12.5176
ileus	-12.5177
▁claviculair	-12.5177
▁mediagebied	-12.5178
pericard	-12.5182
uterus	-12.5183
frontaal	-12.5184
▁tag	-12.5186
▁du	-12.5189
▁thromboemboli	-12.5192
▁gynaecologische	-12.5197
vasculair	-12.5203
▁fibroblast	-12.5204
▁neurogeen	-12.5205
▁wk	-12.5218
▁portaal	-12.5219
▁oesophaguss	-12.5221
▁echte	-12.5222
ypt	-12.523
▁msa	-12.5231
▁bind	-12.5233
▁secretoire	-12.5234
oor	-12.5244
liter	-12.5249
isup	-12.5255
▁afvoer	-12.5255
▁ovariumtumor	-12.5256
▁longinfarcering	-12.5259
lv	-12.5262
gal	-12.5264
ash	-12.5274
▁sick	-12.5275
rende	-12.5286
▁ovarieel	-12.5303
▁medio	-12.5306
▁car	-12.5308
correctie	-12.5322
▁glycogeen	-12.5322
▁stug	-12.5323
▁thrombotisch	-12.5328
▁drug	-12.5328
▁jump	-12.5328
▁tentamen	-12.5329
▁calcium	-12.5329
▁down	-12.5329
▁getypeerd	-12.5329
▁rabdomyolyse	-12.5329
▁schatten	-12.5329
▁varicella	-12.5329
▁verwaarlozing	-12.5329
▁granulomateus	-12.5329
▁bloedingsfoci	-12.5329
▁subthalamicus	-12.5329
▁gazen	-12.5329
▁brochopneumonie	-12.5329
▁enzymproef	-12.5329
▁meegenomen	-12.5329
▁motiel	-12.5329
▁review	-12.5329
▁subcorticaal	-12.5329
▁descenderend	-12.533
▁zenuwweefsel	-12.533
▁slokdarmvarices	-12.533
▁myocardinfact	-12.5331
▁groeven	-12.5332
terter	-12.5332
▁klompvoeten	-12.5333
▁mgl	-12.5333
▁vasopressie	-12.5334
▁substantie	-12.5334
▁retroplacentair	-12.5336
▁zijtakken	-12.5336
▁gelige	-12.5337
▁uterina	-12.5337
▁incident	-12.5338
▁tussenliggend	-12.5338
▁kapjes	-12.534
▁significantie	-12.534
clonaal	-12.5343
▁rechterbijnier	-12.5344
▁tachypneu	-12.5345
▁gasvorming	-12.5346
▁vervolgen	-12.5346
▁corresponderend	-12.5347
▁rechtervoet	-12.535
▁ducten	-12.5351
▁abortusrest	-12.5353
▁nierkapsel	-12.5356
▁stichting	-12.5356
▁medium	-12.5356
loos	-12.5357
▁pericardiaal	-12.5359
▁entree	-12.536
poliepje	-12.536
▁calcinosis	-12.5362
▁urinekweek	-12.5366
▁immunologie	-12.5367
▁granulo	-12.5371
▁uitge	-12.5376
littekens	-12.5376
vers	-12.5384
▁uitlopers	-12.5385
▁stel	-12.5386
prostaatresectie	-12.5386
longproblematiek	-12.5388
scopisch	-12.5396
▁kapje	-12.5408
welke	-12.5409
▁voorheen	-12.541
cerebrale	-12.541
▁acta	-12.541
▁atelectatische	-12.5412
bo	-12.5412
▁costa	-12.5416
▁polyclonale	-12.5423
▁kratervormige	-12.5423
▁holten	-12.5424
▁endoresectie	-12.5424
werking	-12.5425
inhoud	-12.5426
▁fietsen	-12.5429
ton	-12.5432
assistent	-12.5434
wi	-12.5438
zak	-12.5439
richardson	-12.5445
kanaal	-12.5445
destructie	-12.5445
tweede	-12.5445
▁techniek	-12.5448
koa	-12.5449
dcis	-12.5451
▁ttp	-12.5453
▁hd	-12.5456
▁klepprothese	-12.5458
▁roze	-12.5467
lr	-12.5468
cellulair	-12.548
▁ingang	-12.5485
▁perivesica	-12.5489
terale	-12.5492
▁tumorcel	-12.5493
behouden	-12.5498
▁revalidatie	-12.5499
▁osteo	-12.55
let	-12.5502
▁ventrikeldrain	-12.5507
poliepectomie	-12.5513
plm	-12.5516
uire	-12.5518
▁uitte	-12.5518
▁naadlekkages	-12.5519
msa	-12.5526
▁ureters	-12.5526
ruim	-12.5538
▁defibrillatie	-12.5538
▁einde	-12.5543
▁duodenale	-12.5544
cus	-12.5546
▁ami	-12.5547
this	-12.5558
▁tumoremboli	-12.5567
ostose	-12.557
▁whi	-12.5574
▁gezet	-12.5574
▁middag	-12.5576
▁somber	-12.5584
▁vaatrijk	-12.5585
▁botalli	-12.5586
▁dwangstand	-12.5586
▁insectensteek	-12.5586
▁lijkstijfheid	-12.5586
▁obducent	-12.5586
▁rupturering	-12.5586
▁synaptofysine	-12.5586
▁genummerd	-12.5586
▁adipeus	-12.5586
▁nefrostomie	-12.5586
▁verdrongen	-12.5586
▁alcoholabuses	-12.5586
▁oligurie	-12.5586
▁brickerblaas	-12.5586
infraclaviculair	-12.5586
immunoblastair	-12.5586
megakaryocytaire	-12.5586
▁thrombosebeen	-12.5586
▁pinpointlumen	-12.5586
▁steenlijden	-12.5586
▁vaattekening	-12.5586
epitheliomateuze	-12.5586
▁intraveneus	-12.5586
ultrastructureel	-12.5586
▁olijfkernen	-12.5587
▁microtrombi	-12.5587
myelomonocytaire	-12.5587
▁microcirculatie	-12.5587
▁stoten	-12.5587
▁organoid	-12.5591
▁milthilus	-12.5592
▁bloedinkje	-12.5592
▁haematogeen	-12.5593
▁lcis	-12.5593
▁vaatafsluiting	-12.5594
▁bijdragen	-12.5595
▁klepring	-12.5598
▁bronchieen	-12.5599
▁kransslagaders	-12.5599
▁temporo	-12.5599
▁buitenaf	-12.56
vaatverbindingen	-12.5602
effecten	-12.5602
▁carinii	-12.5602
▁diffuze	-12.5602
▁elektrolyten	-12.5602
▁mastoid	-12.5602
▁vlakbij	-12.5603
lymf	-12.5609
▁elektrisch	-12.5613
▁morfometrisch	-12.5613
▁perivenulair	-12.5613
▁chromosomen	-12.5614
▁iel	-12.5616
▁nierdysplasie	-12.5616
▁blaasbodem	-12.5618
teerd	-12.5621
▁ovarie	-12.5622
▁fem	-12.5622
▁krabben	-12.5624
▁ileitis	-12.5624
▁parasitaire	-12.5629
▁gruis	-12.5635
bloedvoorziening	-12.5638
pulmonalistakken	-12.5641
▁bronchiolo	-12.5644
▁puncties	-12.5644
▁gemarkeerd	-12.5652
▁mgmt	-12.5654
▁afstands	-12.5655
voet	-12.566
focus	-12.5668
celrijk	-12.5668
arotisbifurcatie	-12.5669
▁raakt	-12.5674
progesteron	-12.568
▁gewrichten	-12.568
▁antistollings	-12.5685
uitval	-12.5689
▁schorsatrofie	-12.569
voorkeur	-12.5698
anamnestisch	-12.5699
rmatopathologie	-12.5709
block	-12.5713
▁miltweefsel	-12.5713
schildklierkwab	-12.5715
▁system	-12.5716
bevestigd	-12.5716
weinig	-12.5716
verdenking	-12.5716
postmortaal	-12.5717
ramus	-12.5734
stoma	-12.5735
▁vesiculae	-12.5737
▁pulmonalisklep	-12.5742
bio	-12.5757
▁granulaire	-12.5762
ba	-12.5764
so	-12.5768
staart	-12.577
▁sterker	-12.5772
▁miltkapsel	-12.5778
▁hoofdwond	-12.5785
doorgroei	-12.5791
br	-12.5802
▁verrichtte	-12.5808
▁hy	-12.5809
specifiek	-12.581
▁zaad	-12.5827
sstoornissen	-12.5829
▁wild	-12.5831
solide	-12.5835
coriatie	-12.5838
▁femurkop	-12.5839
hoofd	-12.584
▁amenorrhoe	-12.584
vitaliteit	-12.5841
▁subserosa	-12.5843
▁overgrijpen	-12.5844
▁verzep	-12.5847
▁asphy	-12.5848
▁kauk	-12.5849
amethason	-12.5849
ploreerd	-12.5849
▁beademen	-12.5849
▁interface	-12.5849
▁klepvitia	-12.5849
▁profylactisch	-12.5849
▁skipping	-12.5849
▁voelt	-12.5849
▁website	-12.5849
▁grijsroze	-12.5849
▁knik	-12.5849
▁abscederend	-12.5849
▁reads	-12.5849
▁trombectomie	-12.5849
▁dodelijk	-12.5849
▁schedelomvang	-12.5849
▁afgevallen	-12.5849
▁onveranderd	-12.5849
mof	-12.5849
▁poststenotisch	-12.5849
▁stroge	-12.5849
▁bronchopneumie	-12.585
▁strooihaarden	-12.5852
▁changes	-12.5852
▁slijmig	-12.5853
▁comedo	-12.5853
▁wondgebied	-12.5853
ontstekingsfocus	-12.5853
homonas	-12.5855
▁anthracotisch	-12.5855
▁testes	-12.5855
galwegobstructie	-12.5856
▁puscollecties	-12.5859
▁opgezet	-12.586
▁pleurapunctie	-12.5864
▁configuratie	-12.5866
▁immobilisatie	-12.5866
▁spermatogenese	-12.5866
▁verontreiniging	-12.5866
▁omentectomie	-12.5866
▁detectie	-12.5866
▁lymfadenitis	-12.5866
yl	-12.5868
▁huiddefecten	-12.587
▁linkeroksel	-12.5871
▁cps	-12.5874
▁mpo	-12.5876
▁iliopsoas	-12.5877
▁wervellichaam	-12.5877
▁antilichaam	-12.5877
▁haemochromatose	-12.5877
▁torsie	-12.5877
▁geprepareerd	-12.5878
▁tumordeposities	-12.5879
▁zaten	-12.5882
▁bieden	-12.5885
▁kalium	-12.5888
▁jukbeen	-12.5888
▁dochter	-12.5891
▁events	-12.5892
gehandeld	-12.5892
▁auramine	-12.5893
schildkliernodus	-12.5893
▁ref	-12.5895
▁sleutelbeen	-12.5899
▁transpositie	-12.5899
▁hersenhelft	-12.5901
▁clip	-12.5904
▁venosta	-12.5906
▁gelijkend	-12.5909
▁manipulatie	-12.591
▁herbeoordeling	-12.5912
▁diepreikend	-12.5916
▁glomerulo	-12.5921
▁cathetereffect	-12.5921
▁faillure	-12.5921
▁kleuren	-12.5926
▁lichenoid	-12.5928
zeker	-12.593
▁spoelcel	-12.5931
▁epitheelcyste	-12.5932
▁vage	-12.5933
▁triple	-12.5938
▁celproliferatie	-12.5938
borst	-12.5943
sectie	-12.5944
▁zijner	-12.5945
agonale	-12.5946
vin	-12.595
▁blijvend	-12.5952
▁bloedbeeld	-12.5953
▁smad	-12.5954
basaal	-12.5958
▁methylation	-12.5965
▁mut	-12.5971
ulcera	-12.5971
thrombus	-12.5973
cli	-12.5973
spraak	-12.5977
voorbehandeling	-12.5981
tracheale	-12.5986
ondanks	-12.5994
stuit	-12.5995
▁periodes	-12.5996
prolaps	-12.5998
cellig	-12.6005
ping	-12.6007
▁wenst	-12.6008
sr	-12.6016
poliepen	-12.6022
▁embolisch	-12.6038
▁eenzijdig	-12.6046
▁keloid	-12.605
▁plaveiselepithe	-12.6056
ys	-12.6063
▁load	-12.6066
▁alv	-12.6075
jn	-12.6078
▁oesofaguss	-12.6078
▁emr	-12.608
com	-12.6081
naal	-12.6084
▁resorberende	-12.609
mber	-12.609
duur	-12.6099
▁heftig	-12.6102
▁behoren	-12.6104
kin	-12.6108
▁puscollectie	-12.6109
▁overeenkomen	-12.6111
takslijden	-12.6115
▁spoelvormige	-12.6115
▁cross	-12.6119
▁neuropil	-12.6119
▁begon	-12.6119
oplasmocellulair	-12.6119
presentativiteit	-12.6119
▁afgewacht	-12.6119
▁evidence	-12.6119
▁feochromocytoom	-12.6119
▁geriatrie	-12.6119
▁geserreerd	-12.6119
▁graves	-12.6119
▁hyperventilatie	-12.6119
▁ombouw	-12.6119
▁ongeschikt	-12.6119
▁pyoderm	-12.6119
▁vertrouwend	-12.6119
▁laminectomie	-12.6119
▁tongbeet	-12.6119
▁pericardeffusie	-12.6119
▁abstinatie	-12.6119
▁kiemceltumor	-12.6119
▁vaatsteel	-12.6119
▁onderhuids	-12.6119
▁pigmentosa	-12.6119
▁donornier	-12.6119
▁hyperemisch	-12.612
▁periorbitaal	-12.612
hyperchromatisch	-12.612
▁vaststelling	-12.612
▁bekkenorganen	-12.612
▁acetabulum	-12.612
zelb	-12.612
▁arterialisatie	-12.6121
▁epitheelatypie	-12.6121
▁osas	-12.6121
▁concrete	-12.6121
▁oorrand	-12.6121
▁spits	-12.6121
▁smarc	-12.6122
▁zwaarder	-12.6122
loy	-12.6123
▁rosea	-12.6125
▁dvin	-12.6126
▁objectiveerbaar	-12.6126
▁plaveiselcellen	-12.6127
▁mislukte	-12.6128
▁adenoma	-12.6129
▁hiertussen	-12.6129
pn	-12.613
▁buikhuid	-12.6131
▁sessie	-12.6131
▁macula	-12.6135
▁hypoventilatie	-12.6136
▁trigger	-12.6136
▁uitdroging	-12.6137
▁macrometastasen	-12.6137
▁multifactorieel	-12.6137
▁weefselreactie	-12.6146
▁hereditaire	-12.6148
▁hoofdcarina	-12.6148
▁ventricular	-12.6148
▁uitmonding	-12.6149
ces	-12.6154
▁oro	-12.6155
▁beenmergbiopsie	-12.6158
▁alcian	-12.6159
▁microbioloog	-12.6159
▁verbening	-12.6159
▁insteekopening	-12.616
▁nstemi	-12.616
▁laagstand	-12.616
▁bont	-12.6164
▁afzetting	-12.6165
▁transit	-12.6169
▁optreedt	-12.6171
▁amfetamine	-12.6178
▁tumortype	-12.6179
▁tientallen	-12.6182
▁boop	-12.6183
intramyocardiaal	-12.6184
▁discordant	-12.6191
▁neurodegenerati	-12.6192
▁kloon	-12.6194
▁epithelioid	-12.6195
▁dmv	-12.62
▁translocaties	-12.62
▁koepel	-12.6205
▁up	-12.6209
nsip	-12.6216
▁subtiel	-12.6217
▁waterhouse	-12.6217
ion	-12.6222
▁omringend	-12.623
▁abcederend	-12.6238
vulling	-12.6238
▁patientje	-12.6239
▁mobiel	-12.624
stapeling	-12.6245
▁waviness	-12.6251
artefacten	-12.6251
▁mk	-12.6253
atypische	-12.6254
▁motiliteit	-12.6254
▁uigebreide	-12.6255
ib	-12.6257
▁imponeerde	-12.6257
lytische	-12.6259
sentinel	-12.6269
medullair	-12.6269
▁bauhin	-12.6274
braf	-12.6274
tangles	-12.6276
anastomose	-12.6277
verwijderd	-12.6277
sparend	-12.6277
coecum	-12.6279
partiele	-12.6279
morfologie	-12.628
grootste	-12.628
hyper	-12.6281
di	-12.6282
zwelling	-12.6282
▁hypertensief	-12.6282
dieper	-12.6286
tio	-12.6287
▁hormoon	-12.6289
▁basaloid	-12.629
mucosale	-12.6292
▁hetero	-12.6293
▁predictie	-12.6296
yh	-12.6307
▁boezem	-12.6316
bna	-12.6316
▁anastomoses	-12.6331
immunohistochem	-12.6338
rotisch	-12.6341
▁ecto	-12.6343
▁indefinite	-12.6343
▁vn	-12.6344
kuur	-12.6345
pta	-12.636
▁lek	-12.6365
lijke	-12.6371
▁itp	-12.6371
▁cusp	-12.6372
▁orgaandonatie	-12.6378
fu	-12.638
immuunziekte	-12.6382
rsi	-12.6382
pel	-12.6383
▁idiopatische	-12.6385
ziekten	-12.6385
▁continuiteit	-12.6392
▁schock	-12.6397
▁entero	-12.6397
▁pupil	-12.6397
icilline	-12.6397
conservatieve	-12.6397
▁candidiasis	-12.6397
▁gedetubeerd	-12.6397
▁gelamelleerd	-12.6397
▁gepoogd	-12.6397
▁invalshoek	-12.6397
▁mortuus	-12.6397
▁opgesomd	-12.6397
▁parakeratotisch	-12.6397
▁borrelia	-12.6397
▁chromofo	-12.6397
▁moeite	-12.6397
▁uitsluitsel	-12.6397
▁cholestasis	-12.6397
▁maltophilia	-12.6397
▁livores	-12.6397
▁urogenitaal	-12.6397
▁schouwarts	-12.6397
▁feces	-12.6397
▁uicc	-12.6397
▁nocardia	-12.6397
▁distensie	-12.6397
treedt	-12.6398
▁mucus	-12.6398
▁lowrisk	-12.6398
▁roodbruin	-12.6398
▁immunoprofiel	-12.6398
▁kransarterien	-12.6398
▁azn	-12.64
▁kerngebieden	-12.64
▁harttamponnade	-12.64
▁heterogeen	-12.6402
▁buikwond	-12.6402
▁ophoesten	-12.6402
▁vaatgerelateerd	-12.6403
▁difficile	-12.6403
▁pityrosporum	-12.6403
▁tengere	-12.6404
▁lymphklieren	-12.6404
▁wegraking	-12.6405
▁woekeringen	-12.6405
▁verbrokkeld	-12.6405
▁vetcellen	-12.6406
▁enucleatie	-12.6408
▁restmaligniteit	-12.6408
▁avsd	-12.641
▁stenotrop	-12.6415
▁cycline	-12.6415
▁vriendelijk	-12.6415
▁enzymatisch	-12.6415
▁longziekten	-12.6417
▁cardiogenetisch	-12.6418
▁acth	-12.6422
▁balk	-12.6426
▁ulcerende	-12.6427
▁complement	-12.6427
▁pathology	-12.6428
▁adenovirus	-12.6432
cyt	-12.6433
nodulair	-12.6436
▁bk	-12.6437
▁gehalte	-12.6437
▁splijting	-12.6438
▁bleomycine	-12.6438
bekend	-12.6439
▁braakstadium	-12.6439
cvu	-12.6448
▁bph	-12.6449
▁gelaten	-12.645
▁buikbeeld	-12.645
▁aantreffen	-12.6452
granulomateuze	-12.6458
▁bilirubine	-12.646
anatomisch	-12.6483
▁leucocytoclas	-12.6484
pot	-12.6486
▁afwacht	-12.6488
nek	-12.6488
sgebied	-12.649
▁resistentie	-12.6492
ventrikelmyocard	-12.6495
▁laceraties	-12.6504
▁mononucleair	-12.6511
▁huidweefsel	-12.6512
beleid	-12.6514
▁mr	-12.652
voorlopige	-12.6522
ler	-12.6531
▁prepareren	-12.6545
verkalking	-12.6562
infect	-12.6565
iliaca	-12.657
grawitz	-12.6572
lambda	-12.6572
pomp	-12.6573
hotspot	-12.6573
infiltrerend	-12.6574
▁bipo	-12.6574
doorbraak	-12.6574
wur	-12.6574
anti	-12.6575
ttf	-12.6575
binnen	-12.6576
complicaties	-12.6576
verminderd	-12.6577
toont	-12.6577
drainage	-12.6579
▁his	-12.658
onderbeen	-12.6582
parietotemporaal	-12.6583
abdominalis	-12.6583
▁cyst	-12.659
▁bloedige	-12.659
▁uniloculaire	-12.6592
▁pieken	-12.6594
▁ducti	-12.6594
overgevoeligheid	-12.6604
▁ker	-12.6616
vaat	-12.6621
▁ecoli	-12.6622
▁tetra	-12.663
▁chronic	-12.6634
▁intercostaal	-12.6635
▁abstinentie	-12.6642
▁darmstelsel	-12.6656
via	-12.6662
probleem	-12.6665
▁partu	-12.6668
▁vertakking	-12.6669
▁vooraf	-12.6674
derhalve	-12.6679
schimmen	-12.6682
▁bezocht	-12.6683
▁circulerend	-12.6683
▁decollete	-12.6683
▁elastica	-12.6683
▁gebeurd	-12.6683
▁gecorreleerd	-12.6683
▁gemakkelijk	-12.6683
▁genaamd	-12.6683
▁gevlekt	-12.6683
▁introitus	-12.6683
▁knappen	-12.6683
▁negativiteit	-12.6683
▁opknapte	-12.6683
▁pijpbeenderen	-12.6683
▁ojb	-12.6683
▁fallot	-12.6683
▁fusiform	-12.6683
▁postmenopauza	-12.6683
▁toegevoegd	-12.6683
▁venster	-12.6683
herhalingsrisico	-12.6683
▁mesothelial	-12.6683
▁tentorium	-12.6683
wetenschappelijk	-12.6683
▁politie	-12.6683
entana	-12.6683
▁heropgenomen	-12.6683
▁linkeratrium	-12.6683
▁leucopenie	-12.6683
▁temporaalpool	-12.6683
▁sprieten	-12.6683
▁orgaanschade	-12.6683
▁arteriosus	-12.6684
▁kindje	-12.6684
▁retrograad	-12.6684
▁hyperacuut	-12.6685
▁cwz	-12.6685
▁hmc	-12.6685
▁daarboven	-12.6686
▁fibrosehaard	-12.6686
▁zaken	-12.6686
▁huidpons	-12.6687
▁vestibul	-12.6689
▁gynaecoloog	-12.6689
▁darmlumen	-12.669
▁krasgen	-12.669
cisieranden	-12.6691
▁steroiden	-12.6691
▁benige	-12.6693
falan	-12.6694
▁littekenfibrose	-12.6695
▁waa	-12.6695
▁klierstation	-12.6696
▁rechtsdominant	-12.6697
▁linkerslaap	-12.67
▁diapedese	-12.6701
▁massief	-12.6701
dic	-12.6702
▁lymfomato	-12.6703
tp	-12.6709
▁sebaceus	-12.6714
cti	-12.6716
halsprothese	-12.6718
▁levend	-12.672
▁restafwijkingen	-12.6724
▁umbilical	-12.6724
▁mammaria	-12.6725
▁dorsolateraal	-12.6725
▁ileocaecaal	-12.6726
▁involutieve	-12.6726
leg	-12.6728
crypthyperplasie	-12.673
hoop	-12.6733
▁ammoniak	-12.6733
▁longkweken	-12.6735
▁kleurt	-12.6737
longonderkwabben	-12.6738
dig	-12.6739
▁longhaarden	-12.6739
sb	-12.6741
▁ontbrekend	-12.6742
▁aplasie	-12.6744
cmv	-12.6746
▁tamponnade	-12.675
▁duodenumwand	-12.6752
vasculitis	-12.6754
▁abcesjes	-12.6754
bloedingshaarden	-12.6758
▁posterosepta	-12.676
flo	-12.6761
cerebri	-12.6762
histochemisch	-12.6762
▁ingroeiend	-12.6763
▁thp	-12.677
off	-12.677
gew	-12.6771
▁bundel	-12.6772
bronchussnijvlak	-12.6777
▁leiomyoma	-12.6778
bel	-12.6782
posterior	-12.6783
▁oesofagusbiopt	-12.6789
▁voorgesteld	-12.6795
apicaal	-12.6801
▁achtig	-12.6802
▁bloedonderzoek	-12.6802
▁ib	-12.681
▁multiresistent	-12.6816
▁kaderen	-12.6821
▁tuber	-12.6823
caudaal	-12.683
▁ptc	-12.6833
▁poplitea	-12.6835
eerder	-12.6842
▁rechterknie	-12.6843
▁achtige	-12.6845
▁ponsbloeding	-12.6862
▁teleangiectasie	-12.6869
▁trial	-12.687
breuk	-12.6871
▁ras	-12.6876
disease	-12.6876
iuvd	-12.6877
autolyse	-12.6877
distaal	-12.6877
gemetastaseerd	-12.6877
heart	-12.6877
mediaal	-12.6878
oesofagus	-12.6878
gevolg	-12.6878
cardiomyopathie	-12.6879
abl	-12.6879
hooggradig	-12.6881
cy	-12.6896
▁opruiming	-12.6899
ning	-12.6906
line	-12.6912
ther	-12.6915
▁linkerknie	-12.6917
▁acantholytisch	-12.6918
▁arvc	-12.6921
zet	-12.6936
▁hevig	-12.6953
▁aanlegstoornis	-12.6954
▁haemo	-12.6956
▁chiari	-12.6959
nodaal	-12.6959
▁overlijd	-12.6961
carcinoid	-12.6961
▁ductectasie	-12.6962
erig	-12.6965
nu	-12.6965
▁cassette	-12.6966
▁insnoering	-12.6966
▁liggende	-12.6969
▁laser	-12.6975
▁maagulcera	-12.6975
▁embryo	-12.6977
▁dupuytren	-12.6977
▁lusoria	-12.6977
▁merkwaardig	-12.6977
▁monoclonaliteit	-12.6977
▁mucokele	-12.6977
▁polymyalgia	-12.6977
▁sinister	-12.6977
▁sterilisatie	-12.6977
▁suppuratie	-12.6977
▁tyrosine	-12.6977
▁verdwijnen	-12.6977
▁verschrompeld	-12.6977
▁arterosclerose	-12.6977
▁constrictieve	-12.6977
▁fijnblazig	-12.6977
▁intraluminal	-12.6977
▁leptomeningitis	-12.6977
▁hartklepdonatie	-12.6977
▁zuurstofgebrek	-12.6977
▁odontogene	-12.6977
▁submammair	-12.6977
▁opvalt	-12.6977
▁atriumflutter	-12.6977
▁sondeerbaar	-12.6977
▁drukconus	-12.6977
▁lauw	-12.6977
areolair	-12.6977
▁adenocarcinomen	-12.6977
▁pacemakerdraden	-12.6977
▁drugsgebruik	-12.6977
▁postpylorisch	-12.6977
ponto	-12.6977
▁tempi	-12.6977
▁paravalvulair	-12.6977
▁tracheacanule	-12.6977
▁bowenoad	-12.6977
▁hersenarterieen	-12.6978
▁supracoronair	-12.6978
irritatiefibroom	-12.6978
▁pigmentlaesie	-12.6978
▁buikwanddefect	-12.6978
tc	-12.6979
▁other	-12.6979
▁snurkend	-12.698
▁thyreoidectomie	-12.698
▁npm	-12.698
▁medicijnen	-12.698
▁giardiasis	-12.6981
traventriculair	-12.6982
▁geregistreerd	-12.6984
orens	-12.6984
aangaande	-12.6985
▁ges	-12.6985
▁rechteroksel	-12.6986
▁longabces	-12.6986
komst	-12.6987
embolietjes	-12.6991
▁tangentiel	-12.6991
▁linkeroog	-12.6991
▁dysmorfie	-12.6991
bronchusepitheel	-12.6992
▁vind	-12.6993
▁opliep	-12.6993
▁curatie	-12.6995
▁pyelonephritis	-12.6996
▁orientatie	-12.6996
▁intensiteit	-12.6996
▁effusie	-12.6997
nodulaire	-12.6998
▁syndromen	-12.7
▁zijventrikel	-12.7003
▁verdunning	-12.7007
reactiviteit	-12.7008
▁beschikking	-12.7008
▁lijkvlekken	-12.7008
▁hartweefsel	-12.7011
▁transfusies	-12.7012
▁ventriculo	-12.7016
art	-12.7016
▁goedmatig	-12.7016
▁ileumresectie	-12.7017
▁circumcisie	-12.7019
▁progredient	-12.7021
▁pankeratine	-12.7021
▁hematologie	-12.7021
▁hyfen	-12.7021
mmuundeficientie	-12.7021
▁saturaties	-12.7021
▁pancreatisch	-12.7025
▁lymfoade	-12.7027
neuropathologica	-12.7032
▁plana	-12.7036
▁hypoglycemie	-12.7041
▁bb	-12.7043
▁gescheurd	-12.7045
▁infestatie	-12.7046
▁spino	-12.7047
▁leverbeeld	-12.7048
▁gamma	-12.7049
ding	-12.7057
▁verschuiving	-12.7058
▁verdachts	-12.7062
auto	-12.7063
▁matje	-12.7065
▁ko	-12.7066
▁bevattend	-12.7068
▁nierbiopsie	-12.7074
fibrinedepositie	-12.7078
▁neerslagen	-12.7078
oagulatienecrose	-12.7079
▁zacht	-12.7087
ascreen	-12.7087
▁sdh	-12.7088
atus	-12.7098
ors	-12.7101
ala	-12.7106
ting	-12.711
▁gew	-12.7117
ret	-12.7128
doch	-12.7133
un	-12.7139
lyse	-12.7143
▁bloedophoping	-12.7145
mediale	-12.7146
gele	-12.7148
▁nf	-12.7149
▁mesenterii	-12.7149
▁urineretentie	-12.7154
▁anusslijmvlies	-12.7156
hier	-12.7172
fistel	-12.7179
▁tubulusepitheel	-12.7185
snijranden	-12.7186
eosinofiele	-12.7186
cg	-12.7186
cutane	-12.7187
bloom	-12.7189
verhoornend	-12.7189
coeur	-12.7189
circumfl	-12.7189
diffuus	-12.7189
aangetoond	-12.7189
▁tracti	-12.7192
▁linksonder	-12.7196
▁brokkelig	-12.7204
tubulointerstiti	-12.7211
bronchus	-12.7211
▁behandelingen	-12.7219
▁artrose	-12.7225
▁mf	-12.723
▁lymfoad	-12.7233
▁doorsnedes	-12.7234
pericarditis	-12.7235
▁dwarse	-12.7235
▁hyalien	-12.7236
▁bovengenoemd	-12.7237
cho	-12.7252
bewaking	-12.7257
▁rs	-12.727
▁topklier	-12.727
▁veldje	-12.727
▁entiteit	-12.7271
▁electrolyt	-12.7272
▁subchoria	-12.7278
oplasmose	-12.728
▁afstoting	-12.728
▁afzonderlijk	-12.728
▁bifurcatio	-12.728
▁calretinine	-12.728
▁gedialyseerd	-12.728
▁genecrotiseerd	-12.728
▁herpetiformis	-12.728
▁hidradenitis	-12.728
▁huisartsenpost	-12.728
▁hypoglykemie	-12.728
▁kwabjesbouw	-12.728
▁melkgang	-12.728
▁percentiel	-12.728
▁spermatozoon	-12.728
▁spiraal	-12.728
▁centrifugum	-12.728
▁fasciotomie	-12.728
▁vruchteloos	-12.728
▁breedspectrum	-12.728
▁immaturiteit	-12.728
▁irresectabel	-12.728
▁dysmaturiteit	-12.728
▁verregaand	-12.728
▁follikelcentrum	-12.728
gewisseld	-12.728
▁anterolaterale	-12.728
▁research	-12.728
▁ontaarding	-12.728
▁frontobasaal	-12.728
pected	-12.728
▁sonderen	-12.728
▁klierbuisjes	-12.728
▁communes	-12.728
jwlp	-12.728
▁pseudomy	-12.728
▁pijpje	-12.7281
▁adnectomie	-12.7281
▁lichaamsectie	-12.7281
▁vaatingroei	-12.7281
▁macrofoto	-12.7282
cytomorfologisch	-12.7282
▁plastica	-12.7282
▁holtevormend	-12.7282
▁staaf	-12.7282
▁weefselschade	-12.7284
▁life	-12.7285
▁gaspend	-12.7285
haardje	-12.7287
▁commissuur	-12.7287
▁formulation	-12.7287
obturatoriusloge	-12.7287
light	-12.7288
▁anaeroben	-12.7289
▁leverabcessen	-12.7292
sll	-12.7294
▁sella	-12.7294
panelbeoordeling	-12.7297
▁bijderzijds	-12.7297
▁millimeters	-12.7298
▁fsgs	-12.7299
▁capillaritis	-12.7299
▁melanosis	-12.7299
▁emfysema	-12.7299
voedselaspiratie	-12.7306
▁intraabdominaal	-12.731
▁cipro	-12.7312
▁henoch	-12.7312
▁ademstilstand	-12.7312
▁pseudolymfoom	-12.7313
▁enterococ	-12.7314
▁blaasretentie	-12.7315
▁iiia	-12.7318
▁infact	-12.7318
▁mensen	-12.7321
▁linksfalen	-12.7324
▁betreffend	-12.7331
▁nfi	-12.7334
▁breuken	-12.7337
▁resorptie	-12.7338
beperkte	-12.7338
▁afbraak	-12.734
linkerventrikel	-12.7341
▁ingeschat	-12.7341
ker	-12.7341
▁stromatumor	-12.7342
▁miltparenchym	-12.7348
▁staminfarct	-12.735
▁dichtheid	-12.7353
▁lobu	-12.7356
▁elastische	-12.736
rie	-12.7367
▁gemist	-12.7371
▁tumorembolien	-12.7377
tic	-12.7382
▁bloc	-12.7383
rijk	-12.7387
adeno	-12.7395
galgangcarcinoom	-12.7395
▁zetten	-12.7401
for	-12.7402
▁potters	-12.7412
▁vullen	-12.7413
▁da	-12.7415
▁holtes	-12.7422
▁dehydrogenase	-12.7429
oksellymfklieren	-12.7429
chop	-12.7429
bw	-12.743
pseudo	-12.7434
▁bis	-12.7444
his	-12.7448
▁afgekapselde	-12.7449
▁pontien	-12.7459
centrale	-12.7465
▁acm	-12.7466
▁formaties	-12.7474
▁datering	-12.748
▁figo	-12.7482
▁staande	-12.749
spiegel	-12.7496
membraneus	-12.7498
mat	-12.7502
dysfunctie	-12.7502
▁formatie	-12.7502
technisch	-12.7509
ohca	-12.7509
kleur	-12.751
overwegend	-12.7512
epidermaal	-12.7512
▁neven	-12.7517
compressie	-12.7522
▁gewrichts	-12.7526
▁liters	-12.7537
▁collectie	-12.7538
▁acc	-12.7544
rose	-12.7549
trans	-12.755
▁pharyn	-12.7551
dorsaal	-12.7562
▁geprononceerde	-12.7563
▁broer	-12.7566
cysten	-12.7567
fibrileren	-12.7569
▁geoccludeerde	-12.7569
▁hersenafwijking	-12.7572
vorm	-12.7581
▁report	-12.7582
▁ossificatie	-12.7582
▁vergevorderd	-12.7583
handelingen	-12.7583
tensive	-12.7584
▁strak	-12.7587
▁direkt	-12.7587
▁potentie	-12.7592
althans	-12.7592
▁antibioticum	-12.7592
▁apoptotisch	-12.7592
▁corrigeren	-12.7592
▁guillain	-12.7592
▁hamoen	-12.7592
▁heelkunde	-12.7592
▁ingezakt	-12.7592
▁oesophago	-12.7592
▁opgeheven	-12.7592
▁papillomateus	-12.7592
▁recurrent	-12.7592
▁versiebeheer	-12.7592
▁verslikking	-12.7592
▁hoornlamellen	-12.7592
▁hiatus	-12.7592
▁mamillaria	-12.7592
▁schimmelhyfen	-12.7592
▁geweten	-12.7592
ksfjsl	-12.7592
▁geerodeerd	-12.7592
▁ws	-12.7592
▁pancolitis	-12.7592
▁achteruitgegaan	-12.7592
▁cellijnen	-12.7592
▁schuimend	-12.7592
▁dotterprocedure	-12.7592
▁immunotypering	-12.7592
bblbbl	-12.7593
▁omstanders	-12.7593
meijer	-12.7593
rechterhartkamer	-12.7593
▁omsneden	-12.7593
▁substantieel	-12.7593
▁driehoekjes	-12.7593
▁oductie	-12.7593
▁pathologen	-12.7594
▁placentavlokken	-12.7594
▁bekkenvaten	-12.7594
histocytologisch	-12.7594
▁brij	-12.7594
▁erythrocyt	-12.7594
▁dubbeltumor	-12.7594
▁tumorcelkernen	-12.7594
▁daartoe	-12.7595
▁mesotheelcellen	-12.7595
▁parailiacaal	-12.7595
▁leukemisch	-12.7595
▁laminaire	-12.7595
▁congo	-12.7596
▁medicamenten	-12.7596
▁polymorfie	-12.7597
▁cystennieren	-12.7597
▁normaalwaarden	-12.7598
▁opgelost	-12.7598
▁hidrocystoom	-12.76
▁omgekeerd	-12.76
▁salmonella	-12.76
▁longvenen	-12.76
▁linkerborst	-12.76
▁verhevenheid	-12.76
▁slid	-12.7601
▁aangezicht	-12.7602
▁tumornodus	-12.7602
▁voorgeschreven	-12.7608
▁lvh	-12.7609
▁bse	-12.7609
▁psychose	-12.7609
▁fusietranscript	-12.7612
▁inflammator	-12.7612
▁vaatboom	-12.7612
▁verscheuring	-12.7613
ksf	-12.7614
ertijd	-12.762
nierbiopt	-12.7621
▁aortabroek	-12.7624
▁osteosynthese	-12.7626
▁commentaar	-12.7626
▁osteochondroom	-12.7626
▁leucostase	-12.7626
eroanamnestisch	-12.7628
▁plat	-12.7628
▁lymphoma	-12.7629
▁oogde	-12.7631
▁actue	-12.7632
▁normal	-12.7634
ologisch	-12.7638
▁burkitt	-12.7639
▁mandard	-12.7639
▁nasopharyn	-12.7639
▁toppen	-12.764
▁pink	-12.7642
▁methylerings	-12.765
▁signalen	-12.7652
lling	-12.7652
▁opticus	-12.7652
▁verteerd	-12.7652
▁impactie	-12.7653
▁kwaliteits	-12.7655
▁vulvabiopten	-12.766
▁infarkt	-12.7661
cu	-12.7661
▁diastase	-12.7666
▁stoffen	-12.7666
▁aanval	-12.7668
ryptarchitectuur	-12.7668
atypie	-12.7673
▁darmweefsel	-12.7678
racheobronchiale	-12.7681
veld	-12.7686
▁polipectomie	-12.7692
▁giant	-12.7692
▁gemerkt	-12.7693
▁dienst	-12.7694
▁toevals	-12.7704
nde	-12.7713
▁waaromhe	-12.7714
vormende	-12.7715
▁fusies	-12.7715
▁injectie	-12.7717
▁vasa	-12.7725
▁stimulatie	-12.7732
rmate	-12.7736
zo	-12.774
▁diabet	-12.774
▁spraak	-12.7748
ster	-12.7754
▁dikker	-12.7755
erwijs	-12.7769
▁bleekheid	-12.777
tieve	-12.7771
immuno	-12.7772
oli	-12.7778
▁clonaliteit	-12.7786
illo	-12.7788
drains	-12.7789
▁fistels	-12.7797
▁dic	-12.7802
pace	-12.7808
▁longinfectie	-12.7809
lies	-12.7809
dominant	-12.7809
▁personeel	-12.7811
▁restlocalisatie	-12.7821
▁granulocyt	-12.7827
peritoneum	-12.7837
senbasisarterien	-12.784
boop	-12.7841
▁lh	-12.7841
▁zijtak	-12.7843
ruiter	-12.7843
elastose	-12.7844
oesophagitis	-12.7845
vooralsnog	-12.7845
abcederende	-12.7845
systemische	-12.7845
sinus	-12.7851
genetisch	-12.7853
verval	-12.7861
sgebieden	-12.7865
▁musculaire	-12.7865
abcesjes	-12.7866
▁immunofenotyp	-12.7868
rwv	-12.7869
▁geulcereerde	-12.7872
▁ju	-12.7881
▁wilson	-12.7882
oesophageaal	-12.7883
oksel	-12.7884
depressie	-12.7888
voer	-12.7888
bovenkwab	-12.7895
go	-12.7895
▁plasmacellulair	-12.7896
▁electro	-12.7902
▁carcino	-12.7904
▁neusgat	-12.7905
▁decubituswond	-12.7905
aminati	-12.7905
naaldbiopsie	-12.7906
▁haemopericard	-12.7914
▁akinesie	-12.7915
▁amylacea	-12.7915
▁bechterew	-12.7915
▁cheilitis	-12.7915
▁geinverteerd	-12.7915
▁getransformeerd	-12.7915
▁isocoor	-12.7915
▁verplaatst	-12.7915
▁verschaffen	-12.7915
▁verzending	-12.7915
▁zygoma	-12.7915
▁geandiceerd	-12.7915
▁lymfbanen	-12.7915
▁cytogenetisch	-12.7915
▁fusion	-12.7915
begrip	-12.7915
▁gangrenosum	-12.7915
rhabdomyosarcoom	-12.7915
induced	-12.7915
▁biologie	-12.7915
▁ezh	-12.7915
▁hoornlaag	-12.7915
▁submuceus	-12.7915
▁hypercoiling	-12.7915
▁werkelijk	-12.7915
▁noteren	-12.7915
▁flt	-12.7915
▁bacteriegroei	-12.7915
▁retentieblaas	-12.7915
▁kophalsprothese	-12.7915
▁uitstralend	-12.7915
▁lippen	-12.7915
▁working	-12.7915
▁vermeend	-12.7915
▁ribbenboog	-12.7915
▁ongewone	-12.7915
▁comedonecrose	-12.7915
▁recessieve	-12.7916
▁blaaskoepel	-12.7916
▁echoscopisch	-12.7916
▁galstuwing	-12.7916
▁libr	-12.7916
▁telken	-12.7916
ievelijk	-12.7916
▁brandwonden	-12.7917
▁halsribjes	-12.7917
▁gestent	-12.7917
uorpunctie	-12.7921
▁pleuraempyeem	-12.7921
▁muscul	-12.7922
▁subvalvulair	-12.7923
▁waterig	-12.7924
▁stugge	-12.7924
▁sep	-12.7927
▁longschade	-12.793
▁predominant	-12.7935
▁tricoronair	-12.7935
▁hercep	-12.7936
▁differentiated	-12.7936
▁margo	-12.7936
▁rapportage	-12.7936
▁strictuur	-12.7936
▁uitpuilend	-12.7938
cal	-12.7938
rp	-12.7938
bra	-12.7938
▁vl	-12.7948
▁melan	-12.7949
▁denkbaar	-12.795
▁uitloper	-12.7951
▁perihilair	-12.7951
ernstig	-12.7953
▁peptisch	-12.7957
▁harthelften	-12.7958
▁oedeemvorming	-12.7958
▁tensiedalingen	-12.7962
▁pjp	-12.7963
▁polymyositis	-12.7963
▁urokinase	-12.7963
circulatie	-12.7964
▁huidlaesies	-12.7966
▁longmaligniteit	-12.7967
▁oordeel	-12.7967
▁nestjes	-12.7968
▁navraag	-12.7968
alcoholic	-12.797
▁miltruptuur	-12.7972
weefselstukjes	-12.7973
▁voortgezet	-12.7976
▁lym	-12.7977
▁ptld	-12.7978
▁swk	-12.7978
tumornegatieve	-12.7986
abuis	-12.7988
ouder	-12.7989
▁darmresecties	-12.8001
oi	-12.8003
▁morgen	-12.8005
▁controles	-12.8005
rs	-12.8007
purulente	-12.8008
▁afge	-12.8011
▁telling	-12.8014
my	-12.8019
▁mar	-12.8021
maagbiopten	-12.8023
▁artikel	-12.8025
▁enzymen	-12.8027
fgang	-12.8032
mp	-12.8032
holten	-12.8039
pap	-12.8041
sotheliomenpanel	-12.8041
din	-12.8043
uro	-12.8045
▁femorale	-12.8045
fle	-12.8045
amo	-12.8046
ocriene	-12.8046
rechterbovenbuik	-12.805
cardiatype	-12.805
centieonderzoek	-12.8051
bot	-12.8055
▁anthracosilicos	-12.806
rok	-12.8068
bijv	-12.807
▁wortel	-12.8076
▁sing	-12.8078
titis	-12.808
▁uitstroom	-12.8082
pulmonalis	-12.8091
aml	-12.81
▁pathol	-12.8104
medicatie	-12.8113
▁bovenbuiks	-12.8113
uele	-12.8114
▁tma	-12.8117
beenmergbiopt	-12.8118
satellietstabiel	-12.8119
kop	-12.8125
▁ild	-12.8126
ary	-12.813
▁vrucht	-12.8133
bijschildklieren	-12.8135
▁slokdarms	-12.8137
schouder	-12.8139
pancreatisch	-12.8147
peritoneale	-12.8148
rf	-12.8148
dag	-12.8149
str	-12.8152
plooi	-12.8157
dermaal	-12.8157
▁bo	-12.8162
▁cholecyst	-12.8164
▁bp	-12.8166
able	-12.8174
divertikel	-12.8176
gehalte	-12.8178
▁hypertrophie	-12.8178
mk	-12.8181
▁houdend	-12.8181
groot	-12.8187
kristallen	-12.8188
sprieterig	-12.8189
red	-12.8189
proef	-12.8189
perifeer	-12.819
ileum	-12.819
gold	-12.8191
▁postobstructie	-12.8192
▁cardiomyocyt	-12.8195
▁nasal	-12.8195
media	-12.8196
mai	-12.8202
ogg	-12.821
markers	-12.8212
▁pen	-12.8215
▁amyotrof	-12.8218
inclusies	-12.822
▁slik	-12.8225
tia	-12.8226
▁membran	-12.8227
▁bypassen	-12.8233
▁stressulcera	-12.8233
▁pipellebiopt	-12.8237
inke	-12.8237
▁tubulovilleu	-12.8238
▁vaatanomalie	-12.8238
▁vaatafwijking	-12.8239
▁card	-12.824
▁atrof	-12.824
res	-12.8242
▁migratie	-12.8244
▁arteries	-12.8244
▁ass	-12.8246
▁defintie	-12.8247
▁sarcoma	-12.8248
▁enkels	-12.8248
brachiocephalica	-12.8248
▁acardiacus	-12.8248
▁cheyne	-12.8248
▁darmsegment	-12.8248
▁fallopii	-12.8248
▁geconsulteerd	-12.8248
▁geestelijk	-12.8248
▁hypothese	-12.8248
▁mineralisatie	-12.8248
▁miskraam	-12.8248
▁papillotomie	-12.8248
▁uitstraling	-12.8248
▁alternatiev	-12.8248
▁erytheem	-12.8248
▁furosemide	-12.8248
▁granulopoese	-12.8248
▁hechtdraden	-12.8248
▁spierdystrofie	-12.8248
▁stratum	-12.8248
▁sweet	-12.8248
▁difuus	-12.8248
▁schedellichting	-12.8248
▁spermaticus	-12.8248
▁urolithiasis	-12.8248
▁iabp	-12.8248
▁anencephalie	-12.8248
▁observatie	-12.8248
ksfmma	-12.8248
▁femoris	-12.8248
▁chemokuren	-12.8248
▁siderose	-12.8248
▁chondroid	-12.8248
▁collegial	-12.8248
▁wezenlijk	-12.8248
▁sinusritme	-12.8248
▁naaddehiscentie	-12.8248
▁spreading	-12.8248
▁endofytisch	-12.8248
▁weefselstukken	-12.8249
▁backwardfailure	-12.8249
▁hnp	-12.8249
▁randsinus	-12.8249
▁crustavorming	-12.8249
▁buikligging	-12.8249
▁borstbeen	-12.8249
▁lijnsepsis	-12.825
▁voortzettend	-12.825
▁lymfangioom	-12.825
tracerbatie	-12.825
▁vhl	-12.825
▁hoofdtak	-12.825
neocorticale	-12.8251
▁hydrocele	-12.8252
▁gastroenteritis	-12.8252
▁transitie	-12.8252
▁volair	-12.8253
▁nierhilus	-12.8253
▁radius	-12.8253
▁inzendend	-12.8254
▁sulcus	-12.8254
▁ziekteproces	-12.8254
▁only	-12.8255
enzeventig	-12.8255
▁distinct	-12.8256
erfelijke	-12.8256
▁dia	-12.8257
ismaal	-12.8257
▁voorgedaan	-12.8259
▁treden	-12.8259
▁ant	-12.8263
▁longfalen	-12.8263
▁haemorrhagien	-12.8263
▁interstie	-12.8263
▁uiteen	-12.8269
▁laparoscopie	-12.827
▁urothelial	-12.827
aantasting	-12.8273
▁uteruscurettage	-12.8273
▁adenomatoid	-12.8273
▁antigeen	-12.8274
▁myocardlijden	-12.828
▁fistelend	-12.8283
fem	-12.8284
▁infacering	-12.8284
[...]
