<unk>	0
<s>	0
</s>	0
[PAD]	0
[UNK]	0
[CLS]	0
[MASK]	0
[C-SEP]	0
C	-3.60753
F	-3.61179
]	-3.63598
RL	-3.6498
e	-3.76429
[	-3.97364
▁met	-4.02425
▁van	-4.16476
▁een	-4.19909
▁Geen	-4.29524
▁en	-4.377
▁	-4.51637
▁de	-4.65249
▁geen	-4.65274
▁in	-4.66009
▁voor	-4.67199
▁maligniteit	-4.74724
▁het	-4.81729
▁[	-4.85366
▁rechts	-4.90496
▁links	-4.91107
▁bij	-4.93789
▁ontsteking	-5.07014
carcinoom	-5.131
▁is	-5.17696
▁beeld	-5.17948
▁Huidexcisie	-5.26416
▁dysplasie	-5.31252
▁I	-5.32537
▁of	-5.34003
▁zonder	-5.43467
▁niet	-5.49565
▁aanwijzingen	-5.51815
▁basaalcel	-5.5222
s	-5.52981
▁Huidbiopt	-5.55666
en	-5.65273
le	-5.78008
▁afwijkingen	-5.80046
▁passend	-5.80786
▁op	-5.81271
II	-5.82742
▁chronische	-5.8982
▁T	-5.92745
▁vrij	-5.93518
▁naevus	-6.01341
▁geringe	-6.03574
▁te	-6.06285
▁kan	-6.07445
▁veranderingen	-6.09097
▁materiaal	-6.10777
▁actieve	-6.11383
▁waarin	-6.13464
▁biopten	-6.14331
▁1	-6.14694
▁reactieve	-6.15805
▁linker	-6.16469
▁dd	-6.17468
▁rechter	-6.18793
▁biopt	-6.18947
▁zijn	-6.19592
▁De	-6.20355
1	-6.21986
▁mm	-6.23325
2	-6.23355
▁adenocarcinoom	-6.24331
▁tot	-6.2457
Aanvulling	-6.26364
▁onderzoek	-6.26873
▁2	-6.27151
biopten	-6.28819
▁worden	-6.33138
▁passen	-6.3347
▁dit	-6.35696
▁cm	-6.39136
▁laesie	-6.39243
▁verruca	-6.40084
▁3	-6.41835
▁tumor	-6.4274
▁verwijderd	-6.43192
▁metaplasie	-6.43204
▁atypie	-6.44942
▁Huid	-6.46055
▁nodulair	-6.46385
▁II	-6.46394
▁Het	-6.4827
▁Excisie	-6.48418
▁naevocellularis	-6.48882
▁excisie	-6.49154
al	-6.51124
▁groeiend	-6.51751
▁Biopten	-6.52096
▁groei	-6.52478
▁type	-6.55379
▁seborrhoica	-6.55539
▁carcinoom	-6.58765
t	-6.59563
▁lokalisatie	-6.61664
▁deels	-6.62408
▁volgt	-6.62749
▁wordt	-6.62861
▁lymfklier	-6.63449
▁In	-6.63772
▁Er	-6.63777
ze	-6.66158
▁goed	-6.67458
▁rug	-6.68393
▁huid	-6.68551
▁negatief	-6.69698
▁intestinale	-6.69739
ve	-6.72102
▁plaveiselcel	-6.72397
▁dermale	-6.73388
▁focaal	-6.73548
▁waar	-6.73578
▁onder	-6.74143
A	-6.74311
▁colon	-6.7482
▁Helicobacter	-6.75318
▁endometrium	-6.75466
▁metastase	-6.77294
▁conclusie	-6.77375
de	-6.78903
▁hyperplasie	-6.80611
▁maligne	-6.80955
▁na	-6.82044
▁mamma	-6.82307
▁aan	-6.82493
▁ook	-6.82583
▁past	-6.82822
▁mogelijk	-6.84217
L	-6.85092
gedifferentieerd	-6.86003
▁poliep	-6.88695
▁4	-6.89206
▁uit	-6.92644
▁benigne	-6.9314
▁keratose	-6.93349
▁pylori	-6.94246
▁kenmerken	-6.94559
▁adenoom	-6.96616
▁diagnose	-6.98632
III	-6.99046
▁Biopt	-6.99532
▁conform	-6.99861
▁slijmvlies	-7.0102
▁aanvullend	-7.01472
▁cellen	-7.02158
▁superficieel	-7.0241
tekenen	-7.04581
▁als	-7.06087
▁aanwezig	-7.06567
slijmvlies	-7.0679
▁aangetroffen	-7.06926
▁uitgebreide	-7.07084
▁positief	-7.07911
▁epitheel	-7.0897
▁actinisch	-7.09771
▁enkel	-7.09793
▁uitslag	-7.09979
▁5	-7.10145
▁laaggradige	-7.10302
▁atypische	-7.10452
▁er	-7.12807
3	-7.13004
▁cyste	-7.13139
▁gezien	-7.13421
▁specifieke	-7.15764
▁C	-7.16662
▁hals	-7.17217
▁maag	-7.18666
▁uur	-7.19834
▁matig	-7.19892
▁aangetoond	-7.2
▁graad	-7.20512
▁ter	-7.21541
▁solide	-7.23922
▁huidexcisie	-7.25696
▁mutatie	-7.26909
▁huidbiopt	-7.28067
histochemisch	-7.29057
▁resectie	-7.29324
▁wang	-7.29742
▁corpus	-7.29881
bij	-7.3019
▁weefsel	-7.30371
▁antrum	-7.3045
▁HPV	-7.31753
▁samengestelde	-7.32141
▁morbus	-7.32349
▁atrofie	-7.33243
▁kunnen	-7.34503
▁afwijking	-7.34689
▁naar	-7.35436
▁chronisch	-7.35537
▁dat	-7.35787
▁voorkeur	-7.36094
Geen	-7.364
▁nog	-7.36797
▁werd	-7.37183
CR	-7.37249
▁A	-7.37396
▁klinisch	-7.38055
▁klinische	-7.38102
▁argumenten	-7.38118
▁boven	-7.38171
▁delen	-7.38915
▁zie	-7.38941
▁door	-7.39378
▁diameter	-7.39804
▁III	-7.39899
▁neus	-7.40081
▁onderbeen	-7.40655
▁bericht	-7.40656
▁tubulair	-7.40802
▁onvoldoend	-7.4089
▁Resectie	-7.41432
▁prostaat	-7.41557
▁geheel	-7.43098
▁reikend	-7.43633
▁perineural	-7.43755
▁G	-7.44265
▁invasieve	-7.44783
▁marge	-7.46323
▁deze	-7.46328
▁hoog	-7.47753
▁enige	-7.48393
▁dan	-7.48551
▁6	-7.49972
E	-7.50553
ing	-7.50588
▁maar	-7.51039
▁Zie	-7.51256
el	-7.51282
▁dermatitis	-7.51309
▁toont	-7.51863
▁nummer	-7.52312
▁voorhoofd	-7.53299
▁zeer	-7.53379
▁bovenbeen	-7.54802
▁radicaal	-7.54949
n	-7.54951
▁basis	-7.55053
▁rest	-7.55333
▁lymfklieren	-7.55377
▁lymfoom	-7.55524
▁over	-7.55765
▁histologisch	-7.56085
▁kader	-7.56805
▁cervix	-7.56832
▁sprieterig	-7.57062
I	-7.57511
▁weinig	-7.57566
▁colitis	-7.57763
▁hooggradig	-7.57958
▁immuun	-7.57972
▁situ	-7.59004
▁analyse	-7.59166
a	-7.59189
▁uitgesloten	-7.5939
▁gevonden	-7.59394
▁exon	-7.59643
d	-7.59748
▁melanoom	-7.60075
▁7	-7.60732
▁aanwezigheid	-7.61098
▁volgen	-7.61402
▁Onvoldoen	-7.6158
▁beide	-7.6184
▁pre	-7.61956
▁punctie	-7.63074
biopsie	-7.63242
▁waarschijnlijk	-7.63254
▁pathologie	-7.63585
▁gering	-7.638
▁overwogen	-7.63944
▁fibrose	-7.64221
▁duodenum	-7.64641
▁Revisie	-7.65415
▁Teven	-7.65808
▁betreft	-7.66301
▁acute	-7.66619
▁proliferatie	-7.66951
▁schouder	-7.68283
▁long	-7.68349
▁duidelijke	-7.68352
▁moleculair	-7.69367
▁eventue	-7.70102
▁onderarm	-7.70153
▁microscopie	-7.70263
▁verdacht	-7.70347
▁Punctie	-7.71355
preparaat	-7.71411
▁best	-7.7142
▁reactief	-7.71743
▁Urine	-7.72287
f	-7.72303
▁matige	-7.72557
▁snijvlak	-7.72572
▁c	-7.7258
▁keratosis	-7.72833
▁melanocytair	-7.72954
▁oppervlakkig	-7.73228
▁rectum	-7.7347
▁kleine	-7.73644
▁litteken	-7.73675
▁Endometrium	-7.73679
▁temporaal	-7.73751
▁P	-7.7442
4	-7.74605
▁12	-7.74675
▁echter	-7.75297
van	-7.75326
Deze	-7.75701
▁zeker	-7.76426
De	-7.77189
▁Bowen	-7.77283
▁reikt	-7.77361
▁actinica	-7.77474
▁bovenarm	-7.77735
▁wat	-7.77992
▁bodem	-7.78118
▁CIN	-7.78349
▁zou	-7.7913
▁celbeeld	-7.79232
▁ascendens	-7.79705
▁component	-7.81087
▁specifiek	-7.81203
B	-7.81343
▁wel	-7.82309
▁classificeren	-7.82602
▁Moleculair	-7.83518
▁oppervlakkige	-7.83755
▁alle	-7.84403
▁S	-7.84505
▁minimal	-7.84942
▁snijvlakken	-7.85019
▁lichen	-7.85626
▁beoordelen	-7.85695
▁lateraal	-7.85715
▁t	-7.85725
▁10	-7.85823
▁diagnostiek	-7.85964
▁bekende	-7.8597
▁Aanvullend	-7.86092
▁lichenoide	-7.86645
▁eczeem	-7.86817
▁Beeld	-7.86893
▁coeur	-7.86954
▁u	-7.87094
um	-7.87239
▁eerder	-7.87722
▁Een	-7.87942
▁Maagbiopten	-7.88093
▁M	-7.88857
▁kleuring	-7.89881
▁meer	-7.91154
▁diagnostisch	-7.91159
▁daar	-7.9216
▁groeiwijze	-7.92459
▁0	-7.92741
V	-7.93082
epitheel	-7.93297
▁sigmoid	-7.93394
▁vermeld	-7.93542
IV	-7.93804
▁aanwijzing	-7.93865
▁afkomstig	-7.93945
▁verder	-7.94083
▁15	-7.94464
▁g	-7.94871
▁epidermale	-7.95201
▁name	-7.95486
▁klein	-7.95502
re	-7.95908
▁B	-7.95914
materiaal	-7.96043
▁resectievlak	-7.96216
▁Snijvlakken	-7.9629
▁minder	-7.96578
▁colonslijmvlies	-7.97557
▁midden	-7.98029
▁beenmerg	-7.98549
▁toto	-7.98809
▁fragmenten	-7.98911
▁eosinofiele	-7.9915
▁dieper	-7.99497
▁8	-7.99564
▁beoordeelbaar	-7.99726
▁score	-7.99835
▁hyperplastische	-7.99933
▁V	-8.00089
▁ulceratie	-8.00132
▁dermatofibroom	-8.00733
▁invasief	-8.01254
▁granulomen	-8.0178
▁urotheelcel	-8.021
Voor	-8.0225
▁ten	-8.028
wel	-8.03035
▁vlokatrofie	-8.03256
▁oesofagus	-8.04225
us	-8.04386
▁ileum	-8.04386
▁zijde	-8.04515
▁bekend	-8.04895
▁snijranden	-8.0547
▁Voor	-8.05492
▁EGFR	-8.05492
▁littekenweefsel	-8.05886
▁hoofd	-8.0601
▁Gleason	-8.06495
▁ca	-8.06622
▁differentiaal	-8.07252
In	-8.0794
▁volledig	-8.08513
▁KRAS	-8.08621
Het	-8.08672
▁oksel	-8.0876
▁maagslijmvlies	-8.09502
▁tm	-8.0996
▁die	-8.09978
▁overige	-8.1008
▁centraal	-8.10581
▁Mohs	-8.10744
▁superficie	-8.11007
▁afwezig	-8.11508
▁eosinofilie	-8.11537
▁transversum	-8.1155
▁papillair	-8.11834
▁contact	-8.11948
▁elders	-8.12228
biopt	-8.12278
▁borst	-8.12883
▁sterk	-8.13012
▁cytologisch	-8.13026
▁toename	-8.13716
▁BRAF	-8.13901
▁zo	-8.13915
naaldbiopten	-8.14145
▁Pleuravocht	-8.14263
▁oesophagus	-8.14358
▁normaal	-8.14716
▁plaveisel	-8.14717
Zie	-8.14782
▁Naaldbiopt	-8.14981
bv	-8.15167
▁lateral	-8.15654
▁beiderzijds	-8.16038
▁evident	-8.16057
▁status	-8.16105
▁H	-8.16206
Conclusie	-8.17015
▁coupes	-8.17072
▁ge	-8.17153
▁IV	-8.17258
▁consult	-8.17266
▁celrijk	-8.17763
mw	-8.17764
▁lipoom	-8.17932
neu	-8.1837
▁weke	-8.18412
weefsel	-8.18446
▁vetweefsel	-8.1847
▁eerdere	-8.18515
▁aanknopingspunt	-8.18661
▁ductaal	-8.18793
▁overwegend	-8.18999
▁aspecifiek	-8.19373
▁diepe	-8.19672
▁immuno	-8.19809
▁fors	-8.19887
▁onbekend	-8.2004
▁verdenking	-8.20045
▁tenminste	-8.20217
▁Consult	-8.20245
▁gedacht	-8.20401
▁reexcisie	-8.20459
▁Diagnostiek	-8.21109
▁risico	-8.21268
Aanvullend	-8.21628
▁p	-8.21721
▁Barrett	-8.21728
▁concordant	-8.22018
▁genen	-8.22297
▁overtuigend	-8.22377
▁patient	-8.22426
▁kleincellig	-8.22765
▁aantoonbaar	-8.23106
risico	-8.23671
▁ernstige	-8.23677
▁respectievelijk	-8.24032
T	-8.24068
▁resectievlakken	-8.2417
▁opnemen	-8.24205
▁pT	-8.24292
▁om	-8.24756
▁9	-8.25422
▁biopsie	-8.25741
aarne	-8.26236
▁dysplastische	-8.26343
▁plaatse	-8.26678
▁CD	-8.27953
▁dermis	-8.2799
id	-8.28052
▁HER	-8.28108
▁nodulaire	-8.28158
excisie	-8.28332
▁11	-8.2859
▁flank	-8.28855
6	-8.28871
▁kun	-8.28962
▁Colonbiopten	-8.2906
▁zijdigheid	-8.29136
resectie	-8.29415
P	-8.29828
▁oor	-8.29889
▁Conclusie	-8.30563
▁gelegen	-8.30654
▁mutaties	-8.31288
▁plaatselijk	-8.31525
▁zwelling	-8.31527
▁beperkt	-8.319
▁derhalve	-8.31989
▁eerste	-8.32291
▁gastritis	-8.32516
▁Pipelle	-8.32689
▁mediaal	-8.32731
c	-8.32857
53	-8.32868
▁20	-8.33159
▁infiltrerend	-8.33327
M	-8.33681
S	-8.33716
▁tumorcellen	-8.33969
▁invasie	-8.34067
▁buik	-8.34125
▁blaas	-8.34239
▁intraepithelial	-8.34298
▁twee	-8.34597
▁Poliepectomie	-8.34607
▁bespreking	-8.34802
▁stroma	-8.34816
hyperplasie	-8.34828
vragen	-8.35654
▁andere	-8.35687
▁shaveexcisie	-8.35983
▁Dit	-8.36
ontstekingsbeeld	-8.36131
▁revisie	-8.36429
rug	-8.36656
te	-8.36674
▁dien	-8.37052
5	-8.37829
▁IBD	-8.37876
▁microscopische	-8.37972
alsnog	-8.38237
▁level	-8.38762
▁secretariaat	-8.38929
▁folliculitis	-8.38949
▁lijkt	-8.39145
▁grootcellig	-8.39165
R	-8.39365
▁m	-8.39966
Cholecystectomie	-8.40007
▁betreffende	-8.40155
▁Huidstukje	-8.40224
▁100	-8.40425
16	-8.40425
▁descendens	-8.4045
▁granulomateu	-8.41237
D	-8.41433
▁hier	-8.41798
▁folliculair	-8.42004
▁primaire	-8.42054
▁maagantrum	-8.42064
▁25	-8.42204
0	-8.42234
12	-8.42359
▁beginnend	-8.42438
▁mediale	-8.42464
NB	-8.42777
i	-8.428
Er	-8.42922
▁dorsaal	-8.43341
▁h	-8.43594
▁dunne	-8.43765
▁zekerheid	-8.43801
lijk	-8.44075
x	-8.44343
is	-8.44395
▁Appendectomie	-8.44453
▁Mamma	-8.44599
▁squameu	-8.4473
▁coecum	-8.44991
▁slecht	-8.45189
▁lies	-8.45243
▁perivasculaire	-8.45741
▁plaveiselcellig	-8.4588
▁fronta	-8.45883
▁hrHPV	-8.46035
▁Hoog	-8.46135
▁appendicitis	-8.46266
Huidbiopt	-8.46552
▁tussen	-8.46563
tevens	-8.46737
▁lymfoid	-8.46806
▁papilloom	-8.47063
ie	-8.4732
▁panel	-8.47366
▁beoordeling	-8.47554
▁verricht	-8.47564
▁Op	-8.47858
▁endocervicale	-8.47916
▁infiltratie	-8.48148
▁invasiediepte	-8.48393
▁intern	-8.48541
▁bepaling	-8.48802
tal	-8.49036
▁spongiotische	-8.49109
▁extern	-8.49321
▁hemangioom	-8.49552
▁darm	-8.49857
p	-8.49964
▁uitbreiding	-8.50066
▁ovarium	-8.50301
▁O	-8.50356
▁lymfocytose	-8.50529
▁R	-8.50785
▁mucosa	-8.50854
Revisie	-8.50872
▁hoeveelhe	-8.50986
▁infectie	-8.50994
▁granulocyten	-8.51023
▁sterke	-8.51332
▁epitheliale	-8.51428
▁schildklier	-8.51447
▁verwerkt	-8.51718
▁Voorts	-8.52084
▁placenta	-8.52162
▁retour	-8.52206
▁vulgaris	-8.52206
▁lentigo	-8.52206
▁Her	-8.52306
▁schimmels	-8.52322
▁overgang	-8.52598
▁gen	-8.53845
▁Lymfklier	-8.54098
▁blokje	-8.54286
▁sprieterige	-8.54555
▁vasoinvasie	-8.55189
▁N	-8.55545
▁FISH	-8.55582
▁pathogene	-8.55753
▁bevindingen	-8.55778
▁NGS	-8.55869
ste	-8.55883
at	-8.55965
nummer	-8.56099
G	-8.56189
▁representatief	-8.56222
▁bloed	-8.56396
▁derden	-8.56464
ectomie	-8.56538
▁uterus	-8.56695
▁laaggradig	-8.57023
▁Bcel	-8.57203
▁naast	-8.57283
▁poliepectomie	-8.57587
▁kleuringen	-8.57673
▁Duodenum	-8.57703
▁epidermis	-8.57725
▁13	-8.58036
▁Prostaatbiopten	-8.58213
▁ALK	-8.58307
▁Bij	-8.58407
▁Giardia	-8.5852
▁Duodenumbiopt	-8.58598
ast	-8.58917
▁rand	-8.59036
▁grensvlak	-8.59047
▁classificatie	-8.59438
name	-8.59848
▁sprake	-8.59858
▁geirriteerde	-8.59875
▁nader	-8.60189
▁DNA	-8.60486
in	-8.60692
▁DD	-8.61187
▁morfologisch	-8.61189
▁bijbehorend	-8.617
▁veel	-8.61707
▁tel	-8.61986
▁micro	-8.62067
▁sluiten	-8.6209
Definitieve	-8.6224
▁E	-8.62373
l	-8.62378
▁regio	-8.62469
▁diep	-8.62727
▁ventraal	-8.63101
▁microorganismen	-8.63339
▁doorgemaakte	-8.63442
b	-8.63676
▁30	-8.63872
▁PR	-8.63877
▁thorax	-8.63894
▁angioinvasie	-8.63939
▁bestaand	-8.64039
▁bindweefsel	-8.64465
veranderingen	-8.64511
▁primair	-8.64634
▁14	-8.64744
▁granuloma	-8.65077
▁origine	-8.65574
▁distale	-8.6561
uw	-8.6574
7	-8.65796
▁krap	-8.66028
▁hyperkeratose	-8.66121
▁ontstoken	-8.66384
▁lymfeklier	-8.66606
▁dermaal	-8.66744
▁localisatie	-8.66792
▁vermoedelijk	-8.66957
o	-8.67213
▁terminale	-8.67546
▁Biopsie	-8.6758
▁Cervixbiopt	-8.67797
▁opvallend	-8.67804
Huidexcisie	-8.67909
▁diepte	-8.68154
▁recidief	-8.6843
▁nek	-8.68434
▁hoogte	-8.69114
▁slokdarm	-8.69126
ok	-8.69216
▁uitgebreid	-8.69303
▁maxima	-8.69311
▁lever	-8.69567
▁Niet	-8.69787
▁proces	-8.70197
▁maagcorpus	-8.70255
▁Conform	-8.70286
▁Cytologisch	-8.70361
▁achter	-8.70382
zijde	-8.70651
▁knie	-8.71001
▁gefragmenteerd	-8.71002
▁deel	-8.71516
▁behaard	-8.71603
▁Weke	-8.71687
▁ER	-8.71838
▁planus	-8.71894
hyperkeratotisch	-8.72307
▁reactie	-8.72417
uit	-8.72494
▁prostaatbiopten	-8.7262
ezien	-8.72639
an	-8.72663
▁fibroadenoom	-8.72813
▁nr	-8.72868
Moleculair	-8.72912
▁zoal	-8.73128
▁pigment	-8.73136
▁vasculitis	-8.73148
ver	-8.7327
▁i	-8.73382
▁Huidstansbiopt	-8.73543
▁urine	-8.73614
▁kliniek	-8.73715
▁intradermale	-8.74013
▁positieve	-8.74124
▁meest	-8.74317
▁regressie	-8.75939
punctie	-8.76024
▁Prostaat	-8.76312
▁Colonslijmvlies	-8.7661
▁ulcererend	-8.76789
▁handrug	-8.76849
▁vriescoupe	-8.76925
▁achtergrond	-8.7699
receptor	-8.76999
▁Huidstans	-8.77006
▁carcinoma	-8.77214
▁necrose	-8.77331
▁correlatie	-8.77431
▁nieuwe	-8.7756
▁01	-8.77723
K	-8.77816
▁gegevens	-8.77871
▁D	-8.77871
▁onderlip	-8.78154
▁licht	-8.7826
op	-8.78284
▁multifocaal	-8.78357
▁HPVnegatief	-8.78364
▁leiomyoom	-8.78368
of	-8.78852
▁PA	-8.79218
▁MET	-8.79416
▁therapie	-8.7965
ed	-8.7967
▁focus	-8.7968
▁erosie	-8.7983
▁coeliakie	-8.79964
▁distaal	-8.79968
▁nodus	-8.79994
▁TUR	-8.80014
v	-8.80186
mm	-8.80195
▁inflammatoir	-8.80386
▁Hier	-8.80654
▁arm	-8.80752
▁50	-8.80797
▁neuroendocrien	-8.80935
▁Snijvlak	-8.80998
lip	-8.81095
geen	-8.81119
▁bovenkwab	-8.81448
▁amplificatie	-8.81522
▁lymfocyten	-8.81635
m	-8.81663
▁keratoacanthoom	-8.81926
▁bloeding	-8.81998
dikte	-8.82094
▁PAlab	-8.82247
g	-8.82288
▁station	-8.82297
▁squameus	-8.82493
▁DCIS	-8.82611
▁parotis	-8.82941
▁mammacarcinoom	-8.82966
11	-8.82987
AANVULLEND	-8.83149
▁premaligniteit	-8.83263
▁40	-8.83461
▁PAnummer	-8.8427
▁slaap	-8.84345
▁Bethesda	-8.84552
▁16	-8.84825
▁onderzocht	-8.84927
▁bas	-8.8496
▁05	-8.84962
▁subcutis	-8.85047
▁plaveiselepithe	-8.85284
▁klasse	-8.8535
▁Huidshave	-8.85403
▁slechts	-8.85887
▁diffuus	-8.85956
▁ontstekingsrest	-8.86007
▁onderrug	-8.86145
eer	-8.86341
10	-8.86417
▁focal	-8.86668
▁Cervix	-8.86886
curettage	-8.86968
▁dank	-8.87012
stantie	-8.87325
▁hierin	-8.87371
Na	-8.87581
▁wenkbrauw	-8.88059
▁degeneratie	-8.88073
heid	-8.88187
▁tonen	-8.88382
▁preauriculair	-8.88392
▁meerder	-8.88516
▁fragmentje	-8.88713
▁syndroom	-8.88795
▁22	-8.89087
▁Crohn	-8.89088
▁celarm	-8.89088
▁ontvangen	-8.89099
▁lymfocytaire	-8.89384
▁Differentiaal	-8.89518
ocellulair	-8.89525
▁uteri	-8.89768
▁axilla	-8.89831
▁neoplasie	-8.89879
▁atypisch	-8.89985
▁ulcus	-8.90164
Biopten	-8.90365
Bij	-8.90455
▁kin	-8.90582
▁lichte	-8.90619
▁bl	-8.90734
▁35	-8.90758
▁tuba	-8.90946
▁Mogelijk	-8.90966
▁18	-8.91236
▁oog	-8.9124
▁naaldbiopten	-8.91272
▁nee	-8.91674
13	-8.91808
▁verruceu	-8.9196
▁craniaal	-8.91981
dometriumpoliep	-8.92021
▁cholecystitis	-8.92325
skenmerken	-8.92347
▁Foca	-8.92734
▁Gleasonscore	-8.92739
▁WHO	-8.92765
H	-8.92784
on	-8.92969
▁TP	-8.93107
ic	-8.93338
▁afwijkend	-8.93438
▁Placenta	-8.93445
naast	-8.93461
▁corpustype	-8.9386
▁onderkwab	-8.93948
▁anus	-8.94365
▁ulcerosa	-8.94543
▁ontvangt	-8.9455
▁gewicht	-8.9469
▁weken	-8.94696
▁Maagslijmvlies	-8.94761
▁vorm	-8.94812
N	-8.94813
▁nietkleincellig	-8.94954
▁tubulovilleu	-8.95296
aagt	-8.95303
▁doorsnijdingen	-8.95333
▁Uitslag	-8.95568
▁drie	-8.95724
▁verslag	-8.95778
▁definitieve	-8.96057
Mutatie	-8.96094
w	-8.96122
▁normal	-8.96445
▁variant	-8.96451
erende	-8.96542
▁beste	-8.96543
▁bot	-8.96735
▁Galblaas	-8.96806
▁sclerosus	-8.96811
▁onderliggend	-8.96857
▁binnen	-8.97206
▁correleren	-8.97218
▁caudaal	-8.97231
▁Maag	-8.97245
▁infiltraat	-8.97275
gediagnosticeerd	-8.97324
▁Indi	-8.97419
▁scapula	-8.97881
▁19	-8.97908
▁bil	-8.97958
ijft	-8.98022
Consult	-8.98062
▁ROS	-8.98147
▁gelaat	-8.98353
▁pretibiaal	-8.98353
aal	-8.98376
▁23	-8.984
filtratiediepte	-8.98425
▁casus	-8.98459
er	-8.98526
▁editie	-8.98738
sche	-8.98832
▁resectieranden	-8.98872
▁totaal	-8.99112
▁random	-8.99139
▁Verder	-8.99251
TNM	-8.99525
nvasiediepte	-8.99576
▁neusvleugel	-8.99589
▁actief	-8.99592
▁psoriasis	-8.99613
▁adnex	-8.99673
▁oorschelp	-8.99913
▁profiel	-8.99915
▁via	-8.99922
▁darmslijmvlies	-8.99999
▁romp	-9.00304
▁papillomatosus	-9.00314
▁mediaan	-9.00329
▁gastropathie	-9.00367
▁gebied	-9.00385
▁Beenmergbiopt	-9.00388
▁adenomateu	-9.00594
▁fragment	-9.00851
▁behandeling	-9.00919
▁galblaas	-9.0112
▁plasmacellen	-9.01521
diagnose	-9.01525
proliferatie	-9.01609
▁bedr	-9.01652
▁ver	-9.01719
▁uitspraak	-9.01945
18	-9.02026
▁schouderblad	-9.0205
8	-9.02192
▁tepel	-9.02334
▁hand	-9.02341
▁Tumor	-9.02391
▁sereus	-9.02796
▁preparaat	-9.02985
▁differentiatie	-9.03013
▁mid	-9.03076
▁scalp	-9.03125
▁voet	-9.03175
▁suggestie	-9.03539
▁Diameter	-9.04035
▁zal	-9.04079
▁Z	-9.04154
uze	-9.04466
▁Slijmvliesbiopt	-9.04593
▁aspect	-9.04768
▁curettage	-9.04822
▁Daarna	-9.05218
sinfiltraat	-9.05219
▁spierweefsel	-9.05232
▁NRAS	-9.0534
▁Bronchus	-9.05568
▁duodenumbiopten	-9.05572
▁lastig	-9.05616
▁fibroserend	-9.05701
▁proximaal	-9.06018
19	-9.06065
▁geruptureerd	-9.06438
▁klier	-9.06921
oupes	-9.07155
▁BRCA	-9.07306
▁beschadigd	-9.07709
▁endocervicaal	-9.07709
fragmenten	-9.07755
▁Gering	-9.07776
▁ruim	-9.08059
▁abcederende	-9.08182
▁verkregen	-9.08228
▁mammaweefsel	-9.08404
▁betrouwba	-9.08575
▁metaplastisch	-9.08582
lymfangioinvasie	-9.0862
▁laag	-9.08647
▁kuit	-9.08675
]2	-9.09048
20	-9.0905
▁translocatie	-9.09087
type	-9.09232
reticulair	-9.0943
▁pleuravocht	-9.09437
▁schade	-9.09543
▁PDL	-9.09747
▁cholelithiasis	-9.09864
▁uitgesproken	-9.09889
vlakken	-9.09893
▁appendix	-9.10298
▁PCR	-9.10564
▁locatie	-9.10797
▁bovenrug	-9.10892
▁veranderd	-9.11237
▁IN	-9.11425
▁welk	-9.11457
▁opruimreactie	-9.1164
▁multipel	-9.11645
▁Ascites	-9.11688
▁onderverdeling	-9.11697
▁ooghoek	-9.12088
ranulatieweefsel	-9.12096
▁tumorvrij	-9.12162
▁helix	-9.1226
▁radicaliteit	-9.12515
VI	-9.12645
AA	-9.1275
▁a	-9.12906
▁virale	-9.12962
▁tegen	-9.13101
▁expressie	-9.13108
▁Met	-9.13601
▁interstitie	-9.13707
▁U	-9.13741
▁plaats	-9.13856
▁ingreep	-9.13878
▁Liquor	-9.13898
▁CMV	-9.13948
vocht	-9.13991
▁aantal	-9.14079
▁been	-9.14267
▁z	-9.14672
▁bijzonderheden	-9.14784
▁neuspunt	-9.1479
▁metastasen	-9.14997
15	-9.15109
▁lab	-9.15233
▁uitgevoerd	-9.15236
▁HPVpositief	-9.15242
▁detrusor	-9.15299
▁danwel	-9.15408
▁speekselklier	-9.15506
sactiviteit	-9.15548
▁vulva	-9.15582
▁gaarn	-9.15762
▁CONCLUSIE	-9.15835
▁pancreas	-9.16126
▁basale	-9.1619
over	-9.16219
Neu	-9.16381
▁re	-9.16646
▁shave	-9.1672
▁17	-9.16858
▁Huidresectie	-9.16923
▁paramediaa	-9.17311
▁atrofisch	-9.1757
▁oesofagitis	-9.17603
▁ingroei	-9.17734
▁af	-9.1794
▁helicobacter	-9.18104
▁digitus	-9.1851
▁variatie	-9.18681
y	-9.18778
▁Slijmvlies	-9.18833
▁relatie	-9.18874
▁Deze	-9.18889
▁zijsnijvlak	-9.18979
▁nodularis	-9.18991
▁lobulair	-9.19048
mucosa	-9.19427
▁beoordeeld	-9.19461
▁uiteinden	-9.19523
▁punctaat	-9.19549
eeft	-9.19908
▁spreidend	-9.19942
▁context	-9.19942
eerd	-9.20043
▁uitsluiten	-9.20137
▁structuren	-9.203
▁transformatie	-9.20454
▁stansbiopt	-9.20454
▁thoracaal	-9.20487
NTAL	-9.2079
▁gepigmenteerd	-9.2091
▁oorzaak	-9.2091
Stv	-9.20914
34	-9.21231
▁was	-9.21389
▁gehe	-9.21463
▁vet	-9.21567
14	-9.21577
curettement	-9.21656
▁uiteinde	-9.21848
▁secundair	-9.21896
▁Bcellymfoom	-9.21915
reactie	-9.22029
tumor	-9.22115
raag	-9.22149
▁Echogeleid	-9.22432
▁behoe	-9.22474
punctaat	-9.22693
▁maligna	-9.22876
▁toegenomen	-9.22879
▁segment	-9.23039
▁03	-9.23071
▁lamblia	-9.23373
▁annulare	-9.23373
supraclaviculair	-9.23457
▁lengte	-9.23458
▁scheenbeen	-9.23513
▁VI	-9.2357
▁necrotiserende	-9.23617
vm	-9.239
▁oedeem	-9.23919
▁HP	-9.24253
▁90	-9.2431
▁simplex	-9.24376
▁bronchus	-9.24398
▁aangegeven	-9.24405
▁ERBB	-9.24474
▁hypertrofische	-9.24586
▁fibroepithelia	-9.24754
▁nier	-9.25149
voor	-9.25181
▁poliepen	-9.25312
▁compact	-9.25397
▁extra	-9.25443
▁hiervan	-9.25488
▁micronodulair	-9.25651
atie	-9.25789
▁BERICHT	-9.25899
▁ongewijzigd	-9.25899
▁oppervlak	-9.25925
ale	-9.2612
▁antrumtype	-9.263
incontinentie	-9.26325
r	-9.26382
▁activ	-9.26397
▁proximale	-9.26412
▁wisselend	-9.26415
▁onderooglid	-9.26443
▁02	-9.26601
▁grensvlaknaevus	-9.26929
▁lumbaal	-9.2695
▁chirurgie	-9.26954
▁Breslow	-9.2711
▁aanvulling	-9.27152
▁v	-9.27214
▁cho	-9.27261
▁21	-9.27313
ALE	-9.27484
▁Radicaal	-9.27585
▁grote	-9.27827
▁interpretatie	-9.2797
▁matuur	-9.2797
▁besproken	-9.2801
▁DEFINITIEF	-9.28055
▁groot	-9.28474
dvies	-9.28478
▁labium	-9.28505
aire	-9.28973
▁bovenkwadrant	-9.29025
▁duidelijk	-9.29221
lecystolithiasis	-9.2955
▁vagina	-9.29667
▁Na	-9.29856
▁Bronchusspoel	-9.30042
▁sessiel	-9.30081
▁nasi	-9.30084
▁biologisch	-9.30091
▁topografie	-9.30122
▁overwegingen	-9.30354
▁sinus	-9.30586
▁tumorpositief	-9.30632
▁duiden	-9.30637
▁Shaveexcisie	-9.3066
▁Reexcisie	-9.30665
21	-9.30789
▁70	-9.30892
▁serrated	-9.31149
▁granulerend	-9.3124
▁RET	-9.31296
▁maagtype	-9.31301
▁diffus	-9.31691
▁bevestigd	-9.31734
▁massa	-9.3177
▁04	-9.31784
▁Materiaal	-9.3217
▁slijm	-9.32226
▁ongev	-9.32238
▁NM	-9.32258
▁06	-9.32326
▁gr	-9.32334
▁BCL	-9.32461
▁iliaca	-9.32799
▁zone	-9.32955
▁normocellulair	-9.3333
▁TTF	-9.33408
▁24	-9.33473
▁tubae	-9.33565
▁enig	-9.33762
verband	-9.33847
▁retroauriculair	-9.33882
▁Centrum	-9.33882
▁tractus	-9.33883
▁Pathologie	-9.33921
▁onderscheid	-9.3398
▁Histologisch	-9.34019
▁80	-9.34306
▁Lisexcisie	-9.34488
▁GEEN	-9.34748
Aanvullende	-9.34924
▁Oesofagusbiopt	-9.34927
▁Snijranden	-9.35078
▁verrukeu	-9.35143
▁pipelle	-9.3534
▁activiteit	-9.35521
▁cel	-9.35546
▁et	-9.35627
▁nietspecifiek	-9.35665
Op	-9.35696
▁lymfo	-9.35978
▁net	-9.36
▁immunohistochem	-9.36012
▁W	-9.36017
23	-9.36083
▁beschouwen	-9.36123
▁compleet	-9.36133
beeld	-9.36305
▁node	-9.36434
invasieve	-9.36458
▁geadviseerd	-9.36691
plooi	-9.36692
▁doorsnijden	-9.36698
▁apex	-9.36707
▁Celrijk	-9.36819
▁glandula	-9.37193
▁adnexen	-9.37209
dysplasie	-9.3723
▁aankleuring	-9.37344
▁oude	-9.37836
Nieuw	-9.37899
▁richting	-9.37928
h	-9.38029
▁b	-9.38212
heel	-9.38253
huid	-9.38395
▁extranoda	-9.38418
▁Oppervlakkig	-9.38431
fluorescentie	-9.38553
onderzoek	-9.38645
Biopt	-9.38721
▁middels	-9.38731
▁patiAnt	-9.38974
hyperpigmentatie	-9.38996
▁ontbreken	-9.39
▁oesophagitis	-9.39019
▁pleiomorf	-9.39019
▁NST	-9.39026
▁fibroom	-9.39046
▁ischemie	-9.39057
▁ingezet	-9.39059
▁parakeratose	-9.39102
17	-9.39197
Uterusextirpatie	-9.39459
▁verzoek	-9.39581
▁Curettage	-9.39585
▁ronde	-9.39765
▁Is	-9.40074
35	-9.40095
▁behouden	-9.4018
▁klierbuizen	-9.40218
▁minimaal	-9.40218
▁lisexcisie	-9.4025
baar	-9.40337
Invasie	-9.40577
▁Marsh	-9.40777
▁Whipple	-9.40778
▁ml	-9.41023
▁Oesophagusbiopt	-9.41145
▁eveneens	-9.41357
▁separaat	-9.41359
600	-9.41365
▁Hodgkin	-9.41371
▁perforatie	-9.4138
▁architectuur	-9.41402
▁prurigo	-9.41425
▁Kan	-9.4143
▁verrichte	-9.41851
▁afstand	-9.41963
▁celmateriaal	-9.41992
▁onderbuik	-9.42018
▁Maagantrum	-9.42119
nt	-9.42382
▁60	-9.4249
▁EBUS	-9.42674
▁verhoornend	-9.42707
▁al	-9.43113
▁progesteron	-9.43164
▁ontstaan	-9.43188
AANVULLING	-9.43267
▁dr	-9.43278
▁naaldbiopt	-9.43359
▁randen	-9.43518
▁pyogenicum	-9.43773
▁voldoende	-9.43777
▁ischemisch	-9.43809
▁Dunne	-9.43817
▁Cristabiopt	-9.43819
O	-9.43856
itis	-9.44101
▁opzicht	-9.44432
▁kapsel	-9.44515
▁Klinisch	-9.44562
▁mucineus	-9.44583
▁urotheel	-9.44869
▁hebben	-9.45004
▁verspreid	-9.45004
▁kruin	-9.45021
▁pleura	-9.45024
ER	-9.45052
▁myometrium	-9.45076
▁Colon	-9.45168
immuunhistochemi	-9.4524
▁vanwege	-9.45349
analyse	-9.4552
▁mediastinum	-9.45625
▁solair	-9.45625
▁acuta	-9.45626
▁typering	-9.45819
GA	-9.45896
▁elleboog	-9.45962
▁33	-9.4604
▁endometriose	-9.46135
▁juist	-9.4625
▁gram	-9.46278
▁verlies	-9.46358
▁Uterus	-9.46403
Uitslag	-9.46421
▁34	-9.46442
▁indien	-9.46464
dat	-9.46643
▁doch	-9.46877
▁rond	-9.4697
▁pols	-9.47022
zone	-9.47058
u	-9.47282
▁poliepje	-9.47285
IK	-9.47286
▁per	-9.47403
▁hypercellulair	-9.47513
▁typisch	-9.47537
▁sneevlak	-9.47574
▁geven	-9.47597
ontsteking	-9.47701
rh	-9.47757
▁AD	-9.47941
▁nadere	-9.47949
▁goedaardig	-9.48149
▁specificiteit	-9.48149
ren	-9.48232
NGS	-9.48339
67	-9.48408
▁45	-9.48415
Excisie	-9.48501
sreactie	-9.4874
GIEGIE	-9.4879
▁interesse	-9.4879
▁respons	-9.4885
ura	-9.48908
▁overwegen	-9.49362
▁fibreus	-9.49435
▁rectosigmoid	-9.49436
▁circa	-9.49437
▁hierover	-9.49466
▁erythema	-9.49536
▁Punctaat	-9.49553
▁resten	-9.49565
▁08	-9.50005
▁stemband	-9.50064
▁lupus	-9.50085
▁hematopoese	-9.50085
▁perifeer	-9.50089
zijwand	-9.50228
PDL	-9.50324
▁overleg	-9.50698
▁necrotisch	-9.50759
▁beenmergbiopt	-9.50766
▁reflux	-9.51086
▁Ge	-9.5111
▁Marge	-9.51174
▁sigmoAd	-9.51396
▁ziekenhuis	-9.51447
▁inzendingen	-9.51521
▁Beenmerg	-9.51582
▁mede	-9.51626
▁on	-9.51649
▁grond	-9.517
ls	-9.51718
cilinderepitheel	-9.51824
HER	-9.52037
▁krapst	-9.52038
▁neurofibroom	-9.52058
▁07	-9.52095
▁blasten	-9.52114
▁non	-9.52133
▁milde	-9.52288
chter	-9.52339
▁haarfollikel	-9.52342
▁voorlopig	-9.52394
▁calcificaties	-9.52481
▁IgA	-9.52725
▁propria	-9.52729
▁peri	-9.52919
▁hierbij	-9.5293
▁hyperplastisch	-9.531
▁Immuun	-9.53161
▁clavicula	-9.53292
▁Poliep	-9.5332
▁mesotheel	-9.53389
Next	-9.53396
▁oncogene	-9.53396
▁acinair	-9.53408
▁poliepeus	-9.5343
▁IgG	-9.53438
▁pG	-9.53544
▁prostaatweefsel	-9.53629
rhalve	-9.53668
▁microsatelliet	-9.54002
▁betekenis	-9.54078
▁bijschildklier	-9.54104
▁MSI	-9.54132
door	-9.54337
groei	-9.54348
▁cervixbiopt	-9.54585
▁geduid	-9.54752
▁cav	-9.54897
▁afdel	-9.549
▁coupe	-9.55075
eration	-9.5514
▁peritoneum	-9.55443
▁MMR	-9.55514
▁IDH	-9.55577
▁overweging	-9.55915
▁aanvraag	-9.55923
▁Nodulair	-9.56127
▁endocervix	-9.56127
▁musculus	-9.56151
▁para	-9.56186
▁infectieuze	-9.56187
▁papillomateu	-9.56253
▁aspiratie	-9.5636
toch	-9.56429
tische	-9.56495
ar	-9.5674
▁ja	-9.56796
▁subcutaan	-9.56844
▁metastatisch	-9.5752
▁sentinel	-9.57534
▁gaat	-9.57543
Bls	-9.57564
gezonden	-9.57637
adenocarcinoom	-9.57652
▁extirpatie	-9.5769
▁sub	-9.57702
▁pathologisch	-9.57704
CA	-9.5782
▁Door	-9.57871
▁glomeruli	-9.58212
▁restant	-9.58245
▁subcutane	-9.5829
clusief	-9.58383
▁foetal	-9.58459
▁gerelateerd	-9.58501
▁gevolg	-9.58539
25	-9.5885
▁gezichtspunten	-9.58934
▁darmziekte	-9.58951
▁dubieus	-9.58975
▁talgklier	-9.59048
▁sarcoom	-9.59071
▁lymfeklieren	-9.59129
▁Huidcurettage	-9.59257
bovenbeen	-9.59279
▁hotspot	-9.59355
▁oud	-9.59499
▁discre	-9.59648
▁exact	-9.59654
ne	-9.59662
▁consultatie	-9.59686
▁heup	-9.59699
▁MLH	-9.59715
▁laesies	-9.60064
air	-9.60358
▁komt	-9.60367
▁dikke	-9.60368
▁sarcoidose	-9.60368
▁rondom	-9.60373
▁vier	-9.60377
▁bulbus	-9.60395
cm	-9.60399
slijmvliesbiopt	-9.60522
▁vaten	-9.60555
iding	-9.60574
▁geneesmiddelen	-9.60613
▁laboratorium	-9.60634
▁middel	-9.60879
▁Mammareductie	-9.61092
▁geisoleerd	-9.61092
▁grotendee	-9.61098
▁sponta	-9.61104
▁verlittekening	-9.61109
▁Definitief	-9.61256
wang	-9.61259
▁papel	-9.61294
▁gebruik	-9.61456
istomorfologisch	-9.61602
▁wand	-9.61617
▁total	-9.6168
lokalisatie	-9.61738
▁combinatie	-9.61826
▁uitsluiting	-9.61831
▁suboptimaal	-9.61847
▁gemarkeerd	-9.61858
▁morfologie	-9.61889
▁inactief	-9.61932
k	-9.61995
tex	-9.62018
▁mogelijkheid	-9.62046
▁submucosa	-9.62267
PCLPCL	-9.62558
▁solaris	-9.6257
▁TURprostaat	-9.62589
pv	-9.626
▁gedetecteerd	-9.62643
▁infiltratief	-9.62697
▁Excisiebiopt	-9.62757
calcificaties	-9.63043
▁wegen	-9.63089
▁mycose	-9.63299
▁beschouwd	-9.63303
▁GNA	-9.63319
lijn	-9.6334
▁toxicodermie	-9.63346
▁geeft	-9.63353
▁chroniciteit	-9.63443
GT	-9.63643
sel	-9.63805
▁partie	-9.63863
cellen	-9.63922
▁TUMOR	-9.63981
▁intestinaal	-9.64044
▁abdomen	-9.64044
▁herhalen	-9.64044
▁aanduiding	-9.64057
▁inverte	-9.6411
ut	-9.64129
resectievlak	-9.64493
▁dunnedarm	-9.64556
or	-9.64591
▁Vriescoupe	-9.64707
▁leiomyomen	-9.64796
▁Representatief	-9.64875
▁Oesophagus	-9.65183
▁mesothelioom	-9.65356
▁elastose	-9.65555
▁paranasaal	-9.65557
euze	-9.65569
▁gedilateerd	-9.65586
▁epidermiscyste	-9.65617
▁09	-9.65639
▁recente	-9.65714
▁rechterwang	-9.65769
▁be	-9.65926
▁kaak	-9.65977
88	-9.66163
▁n	-9.66215
9	-9.66247
▁aangevraagd	-9.66318
▁dermatose	-9.6633
▁Appendix	-9.66362
▁testis	-9.66406
▁gland	-9.67029
▁mutatieanalyse	-9.67217
▁puntjes	-9.67296
parenchym	-9.67389
holte	-9.67509
▁cs	-9.67568
mmuunhistochemie	-9.67712
▁autoimmuun	-9.6776
Ontstekingsbeeld	-9.67862
▁tumoren	-9.67923
▁Schildklier	-9.67927
▁Tuba	-9.67941
▁Sigmoid	-9.67943
▁curettement	-9.68052
X	-9.68206
▁ureter	-9.68337
▁lymfangio	-9.68548
▁uitstrijk	-9.68552
▁parietaal	-9.68624
▁gisten	-9.6869
kleuring	-9.68892
▁dorsal	-9.69028
▁snijrand	-9.69072
Een	-9.69136
Her	-9.6916
▁receptor	-9.69367
▁Ter	-9.69392
▁crista	-9.69401
▁digestivus	-9.69452
▁opsnijden	-9.69482
▁spongiose	-9.69552
▁minste	-9.69793
▁toe	-9.70129
▁inzage	-9.70224
▁lentigineu	-9.70224
▁miljoen	-9.70229
▁gescleroseerd	-9.70246
▁MSH	-9.70261
▁Botbiopt	-9.70334
ARD	-9.70382
js	-9.70415
rand	-9.70516
▁man	-9.70535
▁pseudo	-9.70561
▁fusie	-9.70662
▁ziekte	-9.71023
▁omentum	-9.71062
▁negatie	-9.71295
actieve	-9.71315
▁kwaliteit	-9.71416
ide	-9.71441
▁verandering	-9.71525
▁brush	-9.71782
▁dankzegging	-9.7183
▁pityriasi	-9.7183
anks	-9.71831
▁bovenstaande	-9.72187
ische	-9.72367
diagnostisch	-9.72373
▁fund	-9.72611
▁blauw	-9.72643
▁ductus	-9.7266
▁zich	-9.72664
gen	-9.72766
af	-9.72813
▁geassocieerd	-9.72815
▁hart	-9.72846
▁percentage	-9.7317
▁patiente	-9.7321
▁aanle	-9.73337
▁Aan	-9.73418
▁Accreditatie	-9.73463
▁sequencing	-9.73464
▁temporalis	-9.73465
▁Lynch	-9.73485
▁volgende	-9.73503
▁doorgroei	-9.7354
▁fase	-9.73563
celcarcinoom	-9.73655
▁apocriene	-9.74101
▁basaal	-9.74287
▁melanoma	-9.7429
▁staat	-9.74292
▁reed	-9.7432
Z	-9.74336
▁tong	-9.74362
iteit	-9.74483
▁28	-9.7458
▁glandulair	-9.74585
▁algeme	-9.74697
▁nabij	-9.74721
gang	-9.74762
▁38	-9.74804
▁schimmel	-9.74909
maal	-9.7499
periappendicitis	-9.7517
perifolliculitis	-9.75171
▁Matig	-9.75174
▁axillair	-9.75201
▁daarin	-9.75237
vorming	-9.75284
▁procedure	-9.75371
▁daarbij	-9.75545
ala	-9.75565
▁longcarcinoom	-9.75608
▁deposities	-9.75617
Huidshaveexcisie	-9.75649
MD	-9.75655
onder	-9.757
▁variaties	-9.75825
▁Twee	-9.75849
▁27	-9.75878
mede	-9.75894
▁vasculair	-9.75929
▁resulta	-9.75959
HMHHMH	-9.75964
▁buikwand	-9.75987
▁achterzijde	-9.76011
▁Pap	-9.7606
▁beschreven	-9.76061
▁geassocieerde	-9.76122
ns	-9.76225
▁Daar	-9.76229
▁gevolge	-9.76461
▁Q	-9.76514
ge	-9.76632
▁heldercellig	-9.76811
▁codon	-9.76812
▁onregelmatig	-9.76834
▁Voorkeur	-9.76872
▁Tcel	-9.76937
79	-9.76983
▁36	-9.77014
▁perivasculair	-9.77055
▁breuk	-9.77059
niercelcarcinoom	-9.77206
▁Bowenoid	-9.7737
Tumor	-9.77424
wand	-9.77476
Ale	-9.77523
spoelvocht	-9.7758
▁flex	-9.77659
▁ooglid	-9.77666
▁erytrocyten	-9.77668
▁hiervoor	-9.77703
▁verwijzing	-9.77704
▁even	-9.77728
▁frequentie	-9.77748
▁Overige	-9.7806
den	-9.78169
▁huidbiopten	-9.7828
▁K	-9.78302
maligniteit	-9.78351
▁uitrijpend	-9.78528
▁bovenbuik	-9.78533
▁therapeutisch	-9.78542
▁Hoe	-9.78572
▁Medisch	-9.7858
extirpatie	-9.78584
iets	-9.78595
▁onzeker	-9.78689
▁cardia	-9.78742
▁cell	-9.79112
klasse	-9.79183
bovenarm	-9.79185
▁voorlip	-9.79281
▁reuscelreactie	-9.79358
ul	-9.79363
▁MYC	-9.79417
▁FGFR	-9.7946
▁Reactie	-9.80212
▁vetnecrose	-9.8028
▁kappa	-9.80299
▁betrouwbaar	-9.80307
pas	-9.80359
▁zien	-9.8038
Met	-9.80423
▁adequa	-9.80616
▁IHC	-9.80696
ende	-9.80912
▁capillair	-9.8113
BBL	-9.8115
▁muscularis	-9.81161
▁geinkt	-9.81161
▁porta	-9.81222
▁bulleu	-9.81292
▁granuloom	-9.81626
▁cysteus	-9.81685
▁Mammabiopt	-9.81715
Snijvlak	-9.81858
▁uitrijping	-9.8193
▁sternum	-9.82077
▁leukemie	-9.82109
randen	-9.82236
rt	-9.82632
▁vreemdlichaams	-9.82799
IN	-9.82877
▁rechterschouder	-9.82907
▁TVU	-9.82953
▁rejectie	-9.82953
▁nasolabiaal	-9.82962
▁oestrogeen	-9.82968
▁flegmoneuze	-9.82973
▁deletie	-9.83109
▁mate	-9.834
▁patroon	-9.83523
▁aorta	-9.83675
30	-9.83776
▁cytologie	-9.83827
na	-9.83847
▁mammareductie	-9.83862
▁moet	-9.83862
▁adenomyosis	-9.83868
▁blue	-9.83908
▁PIN	-9.8391
▁penis	-9.83918
▁Leverbiopt	-9.83933
▁arteri	-9.84301
▁hyper	-9.84313
zelf	-9.84608
dermatitis	-9.84677
▁HRHPV	-9.84781
▁achterlip	-9.84826
▁Benigne	-9.84866
▁neutrofiele	-9.84882
▁Slokdarmbiopten	-9.85006
▁preexistente	-9.8509
38	-9.85321
▁tweede	-9.85444
Teven	-9.85563
Galblaasresectie	-9.85591
▁tumorweefsel	-9.85638
▁histologie	-9.85705
▁meerkernige	-9.85705
▁bevestiging	-9.85732
▁AP	-9.85824
▁occipitaal	-9.85826
neer	-9.86081
▁zwangerschaps	-9.86139
hondrodermatitis	-9.86372
HPV	-9.86497
▁gelijktijdi	-9.8664
Skh	-9.86642
▁geanalyseerd	-9.86666
▁potje	-9.86678
▁merg	-9.86678
▁Wel	-9.86818
▁intra	-9.8714
▁Dieper	-9.87201
▁linkerschouder	-9.87548
▁geexcideerd	-9.87583
▁foci	-9.87583
▁trilineair	-9.87586
▁spoelcellig	-9.87596
▁kraakbeen	-9.87596
▁KIT	-9.87612
▁urticaria	-9.87628
▁Maligne	-9.8763
▁beschadiging	-9.8763
▁letsel	-9.87682
▁Nader	-9.87738
Endometriumbiopt	-9.88004
▁o	-9.8812
groep	-9.88394
poliep	-9.88538
▁idiopathisch	-9.88538
▁anastomose	-9.88539
▁lamina	-9.88568
▁groeipatroon	-9.88618
▁kleiner	-9.88923
▁St	-9.89135
kd	-9.89453
Dit	-9.89457
▁serosa	-9.89497
▁leeftijd	-9.89513
▁gegeven	-9.89653
▁37	-9.89715
▁anders	-9.89768
oom	-9.89864
▁populatie	-9.89959
▁dig	-9.90154
▁par	-9.90303
▁wan	-9.90352
▁lobulaire	-9.90426
▁MC	-9.9053
▁volume	-9.90544
▁langer	-9.90545
▁congenitale	-9.90557
▁VIN	-9.90599
▁amyloid	-9.9064
VII	-9.90783
▁zijsnijrand	-9.91088
trum	-9.91111
Lymfklierpunctie	-9.91223
▁hoge	-9.91368
▁kalk	-9.91447
IFICATIE	-9.91448
▁JBZ	-9.91448
▁microscopisch	-9.91451
▁moeilijk	-9.91451
▁significant	-9.91454
▁jaar	-9.91459
▁vraagstelling	-9.91476
▁etiologie	-9.91478
▁bestaat	-9.91484
▁obductie	-9.91682
▁vriescoupes	-9.91705
▁Oesofagus	-9.91739
bijzijn	-9.91743
tumorlokalisatie	-9.92
▁aantoonba	-9.92432
▁noemenswaardig	-9.92439
▁suspect	-9.92439
▁Brush	-9.92477
▁effect	-9.92647
▁EM	-9.93076
▁genomen	-9.93132
▁hele	-9.93207
onderbeen	-9.93307
excochleaat	-9.93348
▁lage	-9.9337
ANDER	-9.93439
▁aldaar	-9.93439
GREE	-9.93441
▁pigmentosus	-9.93457
▁erfelijk	-9.93466
50	-9.93515
▁stase	-9.93582
▁periana	-9.93682
▁lichenoAd	-9.93983
▁preexistent	-9.94147
▁Long	-9.94172
▁Zij	-9.94266
▁at	-9.94427
▁archief	-9.94449
▁LYMFKLIEREN	-9.9445
INVASIE	-9.94465
▁plasmacel	-9.94559
sch	-9.94573
▁achterwand	-9.94597
▁vital	-9.94645
▁externa	-9.94666
om	-9.94737
Ad	-9.94811
metastase	-9.95146
22	-9.9516
▁marges	-9.952
▁irritatie	-9.95307
▁th	-9.95352
▁Rectum	-9.95393
▁administratie	-9.95469
▁graviditeit	-9.95469
▁gehandhaafd	-9.95469
▁cholesterolose	-9.9547
▁onduidelijk	-9.9547
80	-9.95482
▁overlijden	-9.95487
▁inclusiecyste	-9.95506
▁allel	-9.95544
▁macrofagen	-9.95599
▁voorkeurs	-9.95649
▁spier	-9.95688
▁32	-9.95736
▁26	-9.96043
▁nu	-9.96129
▁blijk	-9.96406
techniek	-9.96421
▁mond	-9.96438
▁behoort	-9.965
▁compatibel	-9.96503
▁hepatica	-9.9651
▁cutaneum	-9.96529
▁CDKN	-9.96534
▁opgestuurd	-9.96546
15189	-9.96583
Klinische	-9.96605
_	-9.97179
▁Stansbiop	-9.97217
▁decidua	-9.97286
▁myelo	-9.97429
▁DEFINITIEVE	-9.97434
q	-9.97481
▁gedaan	-9.97542
▁schimmeldraden	-9.97542
▁prolifererend	-9.97542
▁intestinaaltype	-9.97558
▁navelstreng	-9.97559
▁geschat	-9.97574
▁parasieten	-9.97576
▁varianten	-9.97592
▁mandibula	-9.97605
JC	-9.97742
▁Panel	-9.97763
▁beh	-9.97882
▁nav	-9.98047
▁fibrine	-9.98139
▁spec	-9.98283
▁Cervixbiopten	-9.98368
▁Alle	-9.98404
▁Gen	-9.98555
EGFR	-9.98568
waliteit	-9.98592
▁bekle	-9.98594
▁BEVINDINGEN	-9.98594
▁oorspronkelijk	-9.98594
▁cribriform	-9.98594
▁paraffine	-9.98597
▁haargrens	-9.98612
▁dichtst	-9.98619
▁post	-9.98644
▁chronicus	-9.98654
▁hersenen	-9.98709
celpercentage	-9.98722
ol	-9.98955
Huid	-9.99024
epitheelcellen	-9.99333
▁margina	-9.99512
▁ventra	-9.9954
stom	-9.99573
▁steatose	-9.99659
▁familie	-9.99673
▁CIS	-9.99674
▁Richardson	-9.99699
▁ganglion	-9.99728
▁hv	-9.99731
▁resp	-9.9978
▁dus	-9.99846
▁bacterien	-9.99861
uurs	-9.99893
▁f	-9.99975
▁proliferatief	-9.99976
schimmelinfectie	-9.99995
▁slijmvliesbiopt	-10.0021
▁Nierbiopt	-10.0039
anwege	-10.0072
▁geindiceerd	-10.0073
▁acanthose	-10.0073
ken	-10.0073
▁atherosclerose	-10.0073
▁cornu	-10.0074
▁Zlijn	-10.0075
▁inzichten	-10.0075
▁urethra	-10.0078
LASS	-10.0081
▁ware	-10.0085
▁Cave	-10.0104
▁loka	-10.0106
▁MD	-10.0109
rest	-10.0117
▁bepalingen	-10.013
ma	-10.0142
▁zijrand	-10.0146
▁Weefsel	-10.017
▁histiocytair	-10.0173
▁beoordeelba	-10.0181
ulp	-10.0182
▁geval	-10.0182
▁rosacea	-10.0182
▁Derma	-10.0182
▁NOS	-10.0182
profiel	-10.0183
ALK	-10.0184
▁bevestigt	-10.0184
▁pigmentatie	-10.0185
▁Enkel	-10.0189
▁EUS	-10.0191
▁krabeffecten	-10.0216
graad	-10.0251
▁os	-10.0251
▁hoe	-10.0281
antal	-10.0288
▁helicis	-10.0292
▁referentie	-10.0292
▁ductale	-10.0293
▁denken	-10.0293
▁reden	-10.0293
▁gemaakt	-10.0294
▁neuroom	-10.0294
▁endometrioid	-10.0294
▁behandelend	-10.0295
▁medisch	-10.0296
klierdissectie	-10.0307
▁maagcorpustype	-10.035
CT	-10.0355
met	-10.0355
▁Voorlopig	-10.0396
▁choledochus	-10.0403
▁mastopathisch	-10.0404
▁perifer	-10.0404
▁Ampli	-10.0405
▁bovenooglid	-10.0406
worden	-10.0406
▁ablatio	-10.0422
▁middenkwab	-10.0425
spoliep	-10.0443
ring	-10.0455
▁ovaria	-10.0476
tov	-10.0481
▁leverbiopt	-10.0482
tie	-10.0501
dissectie	-10.0503
istopathologisch	-10.0504
ard	-10.0505
▁vaat	-10.0509
▁zijresectievlak	-10.0509
seq	-10.0512
▁sprietig	-10.0515
nstrumenta	-10.0515
▁target	-10.0516
▁myeloom	-10.0516
▁condyloma	-10.0516
Schimmelkleuring	-10.0518
cytologie	-10.052
▁purulent	-10.052
▁Corpus	-10.0522
▁reuscellen	-10.0522
▁vlokken	-10.0524
▁Bloom	-10.0527
▁gevoelig	-10.0531
▁TPS	-10.0543
▁FNA	-10.0548
fstand	-10.0549
▁95	-10.0552
mee	-10.0563
laveiselepitheel	-10.0565
▁ingenomen	-10.0584
▁zwak	-10.0592
▁we	-10.0596
regio	-10.0597
TYP	-10.0629
chorioamnionitis	-10.0629
MOLECULAIR	-10.0634
reuscelreactie	-10.0635
▁buiten	-10.0635
ISO	-10.0636
▁doorsneden	-10.0638
▁Adnex	-10.0638
▁pGly	-10.0642
Overige	-10.0646
▁spoeling	-10.0669
scomponent	-10.0678
▁BCC	-10.0679
▁micronodulaire	-10.0693
▁weefselfragment	-10.0708
▁gradering	-10.0709
63	-10.0724
histiocytaire	-10.0729
▁complete	-10.0744
▁deferens	-10.0744
▁fragmentatie	-10.0747
▁stukje	-10.0748
brush	-10.0751
Blokje	-10.0751
Snijvlakken	-10.0752
▁pneumonie	-10.0752
▁gewenst	-10.0753
▁lambda	-10.0754
▁EBV	-10.0764
▁Levernaaldbiopt	-10.0796
EN	-10.0805
▁verstoring	-10.0816
▁krabeffect	-10.0826
▁Lever	-10.0833
▁39	-10.0837
▁nierbiopt	-10.0838
erkrijgings	-10.0858
▁LBK	-10.086
▁vitaal	-10.086
▁sampling	-10.0865
▁hepatitis	-10.0877
gv	-10.0882
activiteit	-10.0907
▁vorming	-10.0911
▁PAS	-10.0923
jes	-10.0926
▁depositie	-10.0949
▁Partie	-10.097
extraprostatisch	-10.0974
▁BIRADS	-10.0976
▁vrouw	-10.0978
▁geneticus	-10.0978
ancer	-10.0978
▁adenose	-10.0978
▁RBK	-10.0979
▁ROK	-10.0983
▁macroscopisch	-10.0984
▁diverticulitis	-10.0986
TUMOR	-10.0987
▁Eventue	-10.0988
▁nefropathie	-10.0993
▁fibro	-10.0999
▁grade	-10.1014
ekerheidshalve	-10.1019
▁Crista	-10.1028
▁VII	-10.1061
▁geneesmiddel	-10.1061
▁CNV	-10.1071
▁MDS	-10.1074
cyste	-10.1074
▁Vulvabiopt	-10.1079
▁ernstig	-10.1084
W	-10.1092
Appendixresectie	-10.1096
▁zonbeschadigd	-10.1097
▁anterieur	-10.1097
▁tijdens	-10.1097
▁doorgesneden	-10.1097
▁vijf	-10.1098
▁repair	-10.1099
▁cystadenoom	-10.11
▁fistel	-10.1102
▁max	-10.1106
age	-10.1118
▁CTI	-10.112
naaldbiopt	-10.1128
▁Vagina	-10.1137
risk	-10.1154
oa	-10.1163
radiculair	-10.1163
▁gebieden	-10.1207
▁hypertrof	-10.1217
▁Borgstb	-10.1217
▁high	-10.1217
▁prolaps	-10.1217
▁Plaatselijk	-10.1221
▁scleroserend	-10.1224
DEFINITIEVE	-10.123
Bethesda	-10.123
▁diagnosen	-10.123
▁Minima	-10.1236
▁bijnier	-10.124
uitslag	-10.1254
rale	-10.1261
▁groep	-10.129
ris	-10.1304
▁cervixpoliep	-10.1304
laesie	-10.1334
del	-10.1338
▁EORTC	-10.1339
▁FFPE	-10.1339
▁mismatch	-10.1339
▁peritonitis	-10.1339
▁eku	-10.1339
jr	-10.134
▁aangeleverd	-10.134
▁mechanisch	-10.134
▁obturatorius	-10.134
▁opgesneden	-10.1342
ig	-10.1343
▁sclerose	-10.1346
▁AIN	-10.1348
▁Klein	-10.1348
neevlakken	-10.1351
Materiaal	-10.1354
▁langs	-10.1387
▁acantholytische	-10.14
▁embryona	-10.1452
▁31	-10.146
▁herhaling	-10.1463
▁transmura	-10.1463
▁Dikke	-10.1463
▁achterhoofd	-10.1463
▁ascites	-10.1464
▁tongrand	-10.1464
▁hoornmateriaal	-10.1466
aat	-10.1467
An	-10.1471
▁Radicaliteit	-10.1475
119	-10.1489
98	-10.1528
▁her	-10.1536
▁Oestrogeen	-10.1551
▁LE	-10.1557
▁wekedelen	-10.1585
▁acu	-10.1585
lomerulonefritis	-10.1588
▁verklaring	-10.1588
▁insectenbeet	-10.1588
▁gedegenereerd	-10.1588
▁chromosoom	-10.1588
▁overleden	-10.1589
▁mitosen	-10.1591
▁Klass	-10.1593
▁celgroepen	-10.1594
40	-10.1597
▁nonHodgkin	-10.1608
▁colonpoliep	-10.1608
▁keratocyste	-10.1629
45	-10.1629
▁Over	-10.1656
eel	-10.1664
aan	-10.1673
▁infarcering	-10.1688
onHodgkinlymfoom	-10.1694
oup	-10.1709
jwng	-10.1714
▁subtiel	-10.1715
▁bowenoid	-10.1716
▁adenoid	-10.1716
▁urotheelcellen	-10.1717
▁littekenvorming	-10.1721
▁PTEN	-10.1722
▁uitgaand	-10.1722
▁cave	-10.1728
score	-10.1735
]3	-10.1758
▁huidafwijking	-10.1777
09	-10.1785
▁kenmerkend	-10.1791
▁29	-10.1797
▁ons	-10.18
▁osti	-10.1805
ose	-10.1809
▁MDO	-10.1844
▁adenomen	-10.1844
uitstrijk	-10.1845
▁Tubectomie	-10.1845
▁VAF	-10.1846
nieuw	-10.1862
▁hal	-10.1868
rw	-10.1881
bodem	-10.1881
▁transplantatie	-10.1884
▁cerebr	-10.1888
▁botbiopt	-10.189
test	-10.19
▁dors	-10.193
▁placentarest	-10.1937
▁x	-10.1944
ETER	-10.1958
▁Shave	-10.1972
▁betrekk	-10.1973
▁maakt	-10.1973
▁microkalk	-10.1973
▁genherschikking	-10.1975
▁amenorroeduur	-10.1976
gezien	-10.1978
sverschijnselen	-10.1979
▁gekend	-10.1979
▁simp	-10.1983
▁myeloide	-10.1984
▁waargenomen	-10.1986
▁lumpectomie	-10.1989
▁excisiebiopt	-10.1992
▁subtype	-10.2004
▁lymfocytair	-10.2005
▁therapiekeuze	-10.2008
▁laatste	-10.2017
inflammatoire	-10.2026
ALIS	-10.2037
eerde	-10.2046
▁LOK	-10.2062
▁tonsil	-10.2088
▁clon	-10.2091
cutaan	-10.2092
▁bewijs	-10.2104
▁micrografi	-10.2104
▁herkenbaar	-10.2104
▁beter	-10.2105
▁intraanaal	-10.2105
▁hemorragisch	-10.2106
▁kon	-10.2107
claviculair	-10.211
▁vaatinvasie	-10.2115
▁cystewand	-10.2117
kenmerken	-10.2123
king	-10.2128
Naaldbiopt	-10.2129
aanwijzingen	-10.213
▁intraepithelia	-10.2134
min	-10.2142
▁stadium	-10.2147
▁55	-10.2159
▁336	-10.2179
ATIE	-10.2195
▁veneu	-10.2195
schimmelkleuring	-10.2196
stel	-10.2218
▁glad	-10.2226
TK	-10.2233
▁Excochlea	-10.2237
▁palatum	-10.2237
▁polyposis	-10.2238
▁avita	-10.2238
▁diepreikend	-10.2239
▁lichaamsvreemd	-10.224
▁superficiA	-10.2245
▁cysten	-10.2247
▁EIN	-10.2249
yelodysplastisch	-10.225
▁arts	-10.2252
ts	-10.2257
▁Endocervica	-10.2257
▁reeks	-10.2265
pT	-10.2299
ook	-10.2307
▁ventrikel	-10.231
▁angioom	-10.2366
▁anterior	-10.2373
▁fibreuze	-10.2373
▁telefonisch	-10.2373
▁caudale	-10.2374
▁trofoblast	-10.2375
▁solitair	-10.2376
▁assay	-10.2376
▁collageneuze	-10.2379
omatisch	-10.2379
▁cellulariteit	-10.2379
▁trauma	-10.238
▁cutane	-10.2382
TA	-10.2383
▁lesie	-10.2384
▁ruime	-10.2387
▁aandoening	-10.2388
▁controle	-10.239
klierweefsel	-10.2391
▁MAP	-10.2393
▁Chronisch	-10.2399
▁anti	-10.2412
▁toxisch	-10.2414
dom	-10.2444
AG	-10.2466
ca	-10.2473
▁Rectumbiopt	-10.249
aj	-10.2509
▁schedel	-10.2509
▁minuscu	-10.251
▁PMS	-10.251
▁steun	-10.251
▁top	-10.251
tubulointerstiti	-10.2514
craniale	-10.2514
evel	-10.2514
▁milt	-10.2515
▁Gefragmenteerd	-10.2516
▁positiviteit	-10.2516
▁eiwitten	-10.252
▁huidlaesie	-10.2524
▁Hotspot	-10.253
▁bijvoor	-10.2568
▁groter	-10.2583
56	-10.2623
glandulaire	-10.2625
ad	-10.2625
▁TNM	-10.2635
▁laat	-10.2647
▁angiolipoom	-10.2648
▁materna	-10.2648
▁essentie	-10.2649
▁UITSLAG	-10.2649
▁VOORLOPIGE	-10.2649
▁dicht	-10.2652
▁geld	-10.2652
▁vastgesteld	-10.2655
90	-10.2657
Vw	-10.2662
▁WE	-10.2669
▁coloncarcinoom	-10.2671
ir	-10.2686
▁mola	-10.2709
US	-10.2711
▁clonal	-10.2717
PR	-10.2755
cum	-10.2763
cq	-10.2774
▁ab	-10.2783
JTH	-10.2788
▁bepalen	-10.2789
▁promotor	-10.2789
▁psoriasiform	-10.2789
▁Verruca	-10.2789
▁extensie	-10.2789
▁extrauterien	-10.2789
gediagnostiseerd	-10.2789
▁resultaten	-10.279
▁minus	-10.2791
valt	-10.2793
szins	-10.2794
▁borderline	-10.2798
mamma	-10.2801
satypie	-10.2802
▁polypeu	-10.281
▁ander	-10.2813
▁flardje	-10.2817
▁ileumbiopten	-10.2827
▁radiologisch	-10.2842
▁klassiek	-10.2844
necrose	-10.2853
▁prominente	-10.2859
▁los	-10.2894
▁lip	-10.2906
▁darmtype	-10.2932
▁acuminatum	-10.2932
▁presternaal	-10.2933
▁maj	-10.2934
▁Huidreexcisie	-10.2935
▁navel	-10.294
▁onderkaak	-10.2941
▁vanuit	-10.2958
▁teken	-10.2959
GROEI	-10.2967
▁CTN	-10.2971
gelegen	-10.2972
▁NA	-10.2976
▁2016	-10.2984
Immuun	-10.2994
ten	-10.3005
▁Re	-10.3021
▁complexe	-10.3035
▁linkerzijde	-10.3036
▁sluit	-10.304
asus	-10.3073
Y	-10.3074
ZIJDIGHEID	-10.3077
▁bepaald	-10.3077
▁teratoom	-10.3077
▁toezending	-10.3077
▁posterior	-10.3078
▁pubis	-10.3079
▁zijsnijvlakken	-10.3079
▁hematurie	-10.308
▁intact	-10.308
▁lijken	-10.308
▁definitief	-10.3083
▁TURblaas	-10.3083
▁histiocytoom	-10.3084
▁middermaal	-10.3085
gebied	-10.3109
▁2014	-10.313
▁zijsnijranden	-10.3134
▁gesteld	-10.3145
▁puntje	-10.3184
263	-10.3187
▁crypt	-10.3188
preparaten	-10.3201
afwijkingen	-10.3206
structuren	-10.3215
▁apica	-10.3224
▁proficient	-10.3224
▁naevi	-10.3224
▁synovium	-10.3225
▁duodeni	-10.3225
▁overeen	-10.3225
▁genereren	-10.3229
Tumordiameter	-10.323
snijvlak	-10.3239
▁infectieus	-10.3244
cytochemisch	-10.3247
▁informatie	-10.3247
▁cin	-10.3249
Variant	-10.3258
▁kans	-10.326
▁SP	-10.3264
▁overgevoe	-10.328
▁longen	-10.3284
tenzij	-10.3301
top	-10.3317
panel	-10.3331
▁read	-10.3334
▁and	-10.3335
▁fundus	-10.3354
▁gereviseerd	-10.3373
▁spermatozoa	-10.3374
▁cysteinhoud	-10.3374
▁reusceltumor	-10.3374
▁alopecia	-10.3374
▁gastrisch	-10.3376
▁antistoffen	-10.3378
▁Lumpectomie	-10.3383
▁segmental	-10.34
differentiatie	-10.3416
▁intraepiderma	-10.3416
ligheidsreactie	-10.3431
▁parenchym	-10.3435
▁levert	-10.3444
▁Helicobacters	-10.3446
▁doe	-10.346
▁Immuno	-10.3463
▁Mutatie	-10.3464
het	-10.3496
61	-10.3499
PS	-10.3499
cute	-10.3502
▁Blaas	-10.3504
vaatproliferatie	-10.3523
▁direct	-10.3525
▁macroscopie	-10.3525
▁crusta	-10.3525
▁reductie	-10.3525
▁blaashals	-10.3525
51	-10.3526
▁reage	-10.3526
▁co	-10.3535
▁maken	-10.3536
▁niveaus	-10.3555
Oestrogeen	-10.3569
Q	-10.357
▁vooral	-10.3575
▁Lymfklierbiopt	-10.3577
07	-10.358
▁inder	-10.3607
orbus	-10.3615
▁2013	-10.3633
aad	-10.3634
▁duct	-10.3661
▁MOLECULAIR	-10.3672
uterusextirpatie	-10.3672
▁Krap	-10.3679
▁erythematosus	-10.3679
▁liquor	-10.3679
▁sclerotisch	-10.3679
▁behandeladvies	-10.3679
▁lineaire	-10.3679
▁haematurie	-10.3679
▁mesenchymal	-10.3679
▁irradicaal	-10.3679
▁cylindrisch	-10.3679
▁tumorlengte	-10.368
▁sneevlakken	-10.368
▁advies	-10.3682
daad	-10.3684
08	-10.3689
▁pTaG	-10.3691
▁ruptuur	-10.3692
▁collagene	-10.3693
▁megakaryocyten	-10.3693
▁debris	-10.3696
▁fibrotisch	-10.3707
kans	-10.3732
▁Lokalisatie	-10.3757
▁recidiverend	-10.3767
IM	-10.3778
it	-10.3785
▁Cytologi	-10.3795
▁globa	-10.3804
uur	-10.3817
▁betreffen	-10.3818
▁rsi	-10.3835
▁verhoogd	-10.3835
▁beschrijving	-10.3835
▁mucocele	-10.3835
▁kaakrand	-10.3836
▁PASD	-10.3838
▁detecteert	-10.3843
sond	-10.3844
Tumortype	-10.3847
▁epitheelcellen	-10.3856
▁Maxima	-10.3865
vasculaire	-10.3867
▁nieuw	-10.3877
noch	-10.3881
fragment	-10.3884
oksel	-10.3888
text	-10.3914
▁vast	-10.3919
▁afge	-10.3922
▁75	-10.3924
▁vol	-10.3952
▁kern	-10.3958
74	-10.3959
▁war	-10.3981
▁Resectievlak	-10.3985
▁vas	-10.3985
urettement	-10.3987
▁vroege	-10.3993
OOM	-10.3993
genomen	-10.3993
▁inflammatie	-10.3994
▁peptisch	-10.3994
▁Tcellymfoom	-10.3994
▁zuurv	-10.3994
▁duodenitis	-10.3994
▁buizen	-10.3998
▁halscyste	-10.4004
▁hoorn	-10.4004
▁leverweefsel	-10.4009
▁NTRK	-10.4011
▁pV	-10.4012
▁helft	-10.4012
▁mammaparenchym	-10.4016
isatie	-10.4023
ine	-10.4027
carcinoma	-10.4046
achtergrond	-10.4046
LOK	-10.4048
▁Uitgebreide	-10.4052
▁eosinofielen	-10.4059
ur	-10.4067
la	-10.4068
ng	-10.4085
▁dysplastisch	-10.4086
▁eczemateu	-10.41
▁text	-10.4105
▁overgangs	-10.4111
▁preparaten	-10.4113
▁papil	-10.412
▁klieren	-10.4131
▁huidadnextumor	-10.4143
▁datum	-10.4143
tis	-10.4145
▁Mammanaaldbiopt	-10.4151
▁contagiosum	-10.4155
▁mastopathie	-10.4155
▁veroorzaakt	-10.4155
CBDCBD	-10.4155
▁foveolair	-10.4155
▁maxilla	-10.4161
▁ingesloten	-10.4163
▁PASkleuring	-10.4165
▁zwart	-10.4167
postinflammatoir	-10.4171
ENEN	-10.4172
▁LOH	-10.4174
▁neo	-10.4175
▁rechtermamma	-10.4179
ber	-10.4181
▁nos	-10.4188
isch	-10.4189
▁behorend	-10.4191
▁Archer	-10.4194
▁Progesteron	-10.4208
exon	-10.421
68	-10.4214
▁43	-10.4234
▁tumorrest	-10.4237
▁clonaliteits	-10.4239
snijvlakken	-10.4245
▁moll	-10.425
▁hypertrofisch	-10.4252
je	-10.4277
▁Volledig	-10.4295
▁huidstansbiopt	-10.4305
ruke	-10.4317
accredit	-10.4319
▁Rand	-10.4319
▁squamo	-10.4319
▁ondersteunt	-10.4319
▁src	-10.4319
▁onderkwadrant	-10.4319
▁bekken	-10.432
▁myxoid	-10.432
▁darmlijden	-10.432
▁paravertebraal	-10.4321
▁voorgelegd	-10.4321
▁radical	-10.4321
▁Wekedelen	-10.4324
▁regeneratie	-10.4333
▁immatur	-10.4334
Type	-10.4358
▁tubair	-10.436
athogene	-10.4362
Angioinvasie	-10.4371
coba	-10.4372
▁pl	-10.4372
▁gastrointestina	-10.4384
▁Ileumbiopt	-10.4415
granuloomvorming	-10.4417
Resectie	-10.4419
eld	-10.4431
▁lipomateu	-10.4446
▁KIN	-10.4463
▁Nieuw	-10.4468
cel	-10.4481
oldoende	-10.4485
▁candida	-10.4486
▁EGFRTKI	-10.4486
▁error	-10.4486
▁getroffen	-10.4486
▁posterieur	-10.4486
cfng	-10.4486
▁cilindrisch	-10.4486
pool	-10.4486
▁opgevraagd	-10.4486
▁mogelijkheden	-10.4487
▁leiomyosarcoom	-10.4487
▁impetiginisatie	-10.4487
▁intraductaal	-10.4488
▁toonde	-10.4489
▁femur	-10.449
▁Clark	-10.449
▁flowcytometrie	-10.449
▁Sponta	-10.4505
▁Morfologisch	-10.4506
▁insufficientie	-10.4508
onwaarschijnlijk	-10.451
▁Stadiering	-10.4513
▁circulatie	-10.4524
▁hoogste	-10.4535
▁krappe	-10.454
component	-10.4542
fibroserend	-10.4548
▁keratine	-10.4565
▁voorlopige	-10.4569
▁losse	-10.459
▁oorl	-10.4591
▁secretoir	-10.46
▁rechterzijde	-10.4605
99	-10.4651
NVENVE	-10.4655
▁gecombineerd	-10.4655
▁gelokaliseerd	-10.4655
▁submandibulair	-10.4655
▁basaalmembraan	-10.4655
▁perifolliculair	-10.4655
OOMOOM	-10.4655
▁mucineu	-10.4656
▁colloid	-10.4656
▁verklaren	-10.4656
▁bekledend	-10.4656
▁hybridisatie	-10.4656
▁Antrum	-10.4657
▁huidbiopsie	-10.4657
▁hechting	-10.4659
▁schwannoom	-10.466
▁mondbodem	-10.466
▁colorectaal	-10.4662
▁ISO	-10.4667
▁thoraxwand	-10.4667
▁zes	-10.4678
▁Kleuring	-10.4684
▁traject	-10.4698
▁junctione	-10.4737
basaalcel	-10.4739
st	-10.475
▁afd	-10.4766
▁subepithelia	-10.4769
▁externe	-10.4791
▁cilindercel	-10.4803
patroon	-10.4812
▁granulatie	-10.4817
▁48	-10.4825
SNIJVLAK	-10.4827
▁Assay	-10.4827
▁toelichting	-10.4827
▁endometriosis	-10.4828
▁gastrale	-10.4828
▁gevalideerd	-10.4829
▁hemicolectomie	-10.483
▁Basaal	-10.483
▁Normaal	-10.4832
▁monotypisch	-10.4832
▁endo	-10.4833
▁kaakhoek	-10.4833
▁PDGFRA	-10.484
▁Spoel	-10.4843
▁linkeronderarm	-10.4843
▁Blaasspoel	-10.4847
▁insturen	-10.4847
▁lichenoides	-10.4851
▁regiona	-10.4856
▁snijden	-10.4869
verstoring	-10.4871
hoek	-10.4887
metaplasie	-10.4894
▁coli	-10.4895
▁arterie	-10.4904
31	-10.491
▁werk	-10.4915
▁GE	-10.4916
als	-10.4947
▁studie	-10.4961
▁celpopulatie	-10.4963
ige	-10.4969
▁haard	-10.4985
▁cauterisatie	-10.499
▁Spitz	-10.4996
aarschijnlijk	-10.5001
▁PPI	-10.5003
▁geulcereerd	-10.5003
▁submandibularis	-10.5003
▁herkomst	-10.5003
▁regelmatig	-10.5003
▁communis	-10.5003
▁meerlagig	-10.5003
▁BVO	-10.5004
TOT	-10.5005
LYMFANGIO	-10.5006
▁gebiopteerd	-10.5006
aste	-10.5009
▁daarom	-10.5009
▁Beide	-10.5012
rechteronderbeen	-10.5012
resectievlakken	-10.5013
▁NB	-10.5013
MET	-10.5022
▁vinger	-10.5029
▁44	-10.5036
▁BAL	-10.5037
▁subacut	-10.5049
▁interna	-10.5053
Resulta	-10.507
▁vocht	-10.5074
▁onderste	-10.5087
▁Ki	-10.5108
▁omgevend	-10.5116
▁poliepjes	-10.5131
▁sequentie	-10.5133
▁huidexcisies	-10.5135
▁zij	-10.5136
▁56	-10.5157
69	-10.5161
proces	-10.5162
▁bacterie	-10.5173
▁later	-10.5174
▁mogelijke	-10.5176
▁Warthin	-10.5181
▁imponerend	-10.5182
▁planopilaris	-10.5182
▁galgang	-10.5182
▁geschikt	-10.5182
MYD	-10.5182
▁fibromusculair	-10.5182
hun	-10.5182
▁maanden	-10.5185
▁atheroomcyste	-10.5189
▁Wigexcisie	-10.5193
▁genetisch	-10.5194
1799	-10.5199
▁stromal	-10.5202
▁ileumslijmvlies	-10.5203
▁cu	-10.5227
▁zijranden	-10.5242
▁maagantrumtype	-10.5242
stoornissen	-10.5253
tatus	-10.5254
Punctie	-10.5254
omateuze	-10.5258
ase	-10.5259
▁molle	-10.526
maals	-10.5269
▁extravasatie	-10.5269
▁junction	-10.5269
▁follikel	-10.5285
FISH	-10.5288
▁Coupe	-10.5321
▁myocard	-10.5321
product	-10.5327
▁huidig	-10.5328
▁der	-10.5332
VIII	-10.5341
▁Maagbiopt	-10.5342
LOYLOY	-10.5363
▁collega	-10.5363
▁intrauterien	-10.5363
▁verknepen	-10.5363
▁dermatoloog	-10.5363
▁lymfatisch	-10.5363
▁panniculitis	-10.5363
▁lavage	-10.5363
▁acanthoom	-10.5363
▁Torre	-10.5363
▁meningeoom	-10.5363
▁hepatocellulair	-10.5364
▁plaatepitheel	-10.5364
▁details	-10.5366
▁dubbelbrekend	-10.5368
▁mycosis	-10.5368
▁tweemaal	-10.537
▁serie	-10.5371
▁urticarie	-10.5373
▁traumatisch	-10.5379
▁haardje	-10.5387
▁soms	-10.5391
▁Deel	-10.5394
▁ex	-10.5394
richoepithelioom	-10.5408
▁klep	-10.5411
▁lange	-10.5435
emicolectomie	-10.5445
▁derde	-10.5456
epelvocht	-10.5488
reikend	-10.5502
▁GROEI	-10.5503
▁verbred	-10.5528
▁LDT	-10.5549
▁aangeboden	-10.5549
▁compound	-10.5549
▁defect	-10.5549
▁preputium	-10.5549
▁stellen	-10.5549
▁diverticulose	-10.5549
▁multiforme	-10.5549
▁viraal	-10.5549
▁HRAS	-10.5549
▁anaplastisch	-10.5549
▁bevatten	-10.5549
▁fungoides	-10.555
▁usual	-10.5552
▁paraaortaal	-10.5552
▁Bodem	-10.5556
▁maturatie	-10.5556
▁aspiraat	-10.5558
▁chemotherapie	-10.5558
▁Celarm	-10.556
▁schildklierkwab	-10.5568
spoliepen	-10.557
effect	-10.557
▁ductectasieen	-10.5571
▁RNA	-10.5576
▁gemengd	-10.5579
▁colontype	-10.5591
▁1213	-10.5592
▁marker	-10.5596
▁vlak	-10.5596
▁wij	-10.5598
kaak	-10.5616
VCM	-10.5626
gens	-10.5668
▁Longbiopt	-10.5678
cylinderepitheel	-10.5681
biopsiemateriaal	-10.5688
▁stolsel	-10.5696
svoorste	-10.57
▁inzending	-10.5704
▁blaasslijmvlies	-10.5706
zijdig	-10.5707
▁gestelde	-10.5727
▁duim	-10.5731
JSL	-10.5737
▁staven	-10.5737
▁oedemateu	-10.5737
▁gemodificeerd	-10.5738
▁pancreaskop	-10.5738
▁mediastinale	-10.5738
▁omgeving	-10.574
▁seborroisch	-10.5743
▁central	-10.575
▁GEWIJZIGD	-10.5753
▁therapieeffect	-10.5754
gegeven	-10.5762
▁biopsies	-10.5769
▁RIP	-10.5772
▁verwijde	-10.5784
▁epithelia	-10.5801
75	-10.5811
bovenkwab	-10.5818
Conform	-10.582
▁TERT	-10.5828
▁the	-10.5841
▁haarfollikels	-10.5852
▁polyp	-10.5862
▁lis	-10.5876
▁shavebiopt	-10.5879
all	-10.5908
▁ijzer	-10.5916
▁ano	-10.5927
AHA	-10.5929
▁architecture	-10.5929
▁gehoor	-10.5929
▁siliconen	-10.5929
▁beschikbaar	-10.593
▁alhier	-10.593
▁irregulair	-10.593
▁isthmus	-10.593
▁villitis	-10.593
▁Verwijdering	-10.5931
columnair	-10.5932
▁hypertensie	-10.5933
▁tekst	-10.5933
▁hematoom	-10.5933
▁cristabiopt	-10.594
▁disease	-10.5941
▁stenose	-10.5944
▁protocol	-10.5946
▁gericht	-10.595
▁blijvende	-10.5951
▁vreemdlichaam	-10.5966
flank	-10.5995
▁restmateriaal	-10.6003
▁Zo	-10.6015
pipelle	-10.6016
GEEN	-10.6017
borst	-10.6017
Beeld	-10.6017
Mamma	-10.6053
lis	-10.606
173	-10.607
am	-10.6084
▁recent	-10.6089
▁infarct	-10.6114
▁perine	-10.6119
roep	-10.6121
▁Demodex	-10.6126
▁lienalis	-10.6126
▁curvatuur	-10.6126
▁systematisch	-10.6126
▁rode	-10.6126
▁incidentie	-10.6126
▁losliggend	-10.6126
▁with	-10.6126
Differentiatie	-10.6126
▁hormona	-10.6127
▁intraductal	-10.6129
RING	-10.6129
▁skintag	-10.6131
▁verwijdering	-10.6132
▁nvt	-10.6133
▁stabiel	-10.6136
▁ao	-10.6137
ly	-10.6143
▁allergisch	-10.6149
Bovenstaand	-10.6151
▁inhoud	-10.6155
epitheliale	-10.6156
131	-10.617
▁naaldbiopsie	-10.6174
▁test	-10.6177
▁CK	-10.6193
▁basaloide	-10.6199
▁Lymfeklier	-10.6203
▁maagbiopt	-10.6209
▁l	-10.6218
▁supra	-10.6226
▁65	-10.6238
▁TB	-10.6254
26	-10.6259
▁voorste	-10.6261
ter	-10.6264
beoordeling	-10.6283
even	-10.6289
lomerulosclerose	-10.632
▁niveau	-10.632
▁aangrenzend	-10.6326
▁ingeblokt	-10.6326
▁mitotisch	-10.6326
▁systemisch	-10.6326
CBDMMA	-10.6326
▁voorhanden	-10.6326
▁onverdacht	-10.6326
▁adenomyose	-10.6326
▁urineblaas	-10.6326
▁vries	-10.6326
▁darmkanker	-10.6326
▁steel	-10.6326
Perineura	-10.6327
▁geArriteerd	-10.6327
▁tangentieel	-10.6328
▁leverparenchym	-10.633
▁elektronen	-10.6331
▁nefritis	-10.6331
▁Transurethra	-10.6333
▁order	-10.6333
▁reepje	-10.6333
▁chirurgisch	-10.6335
▁diafragma	-10.6336
▁ectocervicaal	-10.6336
microscopie	-10.6337
▁Total	-10.6337
▁wigexcisie	-10.6339
▁HSIL	-10.6346
fragmentje	-10.6346
▁JAK	-10.6347
vraag	-10.6349
wangerschapsduur	-10.6351
Cys	-10.6352
U	-10.6356
▁gemethyleerd	-10.6356
AM	-10.6362
J	-10.6377
▁w	-10.6383
▁Intern	-10.6394
▁persisterend	-10.6399
▁li	-10.6413
carcinomen	-10.6418
▁elk	-10.642
138	-10.642
▁overigen	-10.6424
bijmenging	-10.6425
melijk	-10.6428
plaveiselcel	-10.6428
ING	-10.643
karakteristieken	-10.6437
mutatie	-10.6456
▁foet	-10.6462
grootte	-10.6468
▁bovenst	-10.6472
receptorbepaling	-10.6496
▁Colonbiopt	-10.6504
▁risk	-10.6511
▁rijping	-10.6529
einig	-10.653
▁tandenrij	-10.653
▁vliezen	-10.653
GRADE	-10.653
▁malperfusie	-10.653
▁neig	-10.653
▁stenen	-10.653
▁geweest	-10.6531
▁melanocyten	-10.6533
OR	-10.6534
▁linkeroor	-10.6535
▁genoemd	-10.6536
▁nevus	-10.6538
PCL	-10.6539
▁Beperkt	-10.6542
▁Polyp	-10.6551
▁glomerulair	-10.6554
211	-10.6565
▁MARGE	-10.6565
▁leukocytoclas	-10.6566
▁TKIs	-10.6567
37	-10.6584
▁inkt	-10.6584
komende	-10.6586
▁huidresectie	-10.659
PCR	-10.6592
punt	-10.6604
▁membraneu	-10.6608
▁circumferentie	-10.6628
behandeling	-10.6629
▁no	-10.663
▁microinvasie	-10.6649
z	-10.6678
NM	-10.6702
▁Klinische	-10.6705
Asp	-10.6707
▁Dep	-10.6707
▁X	-10.6714
▁resectierand	-10.672
GC	-10.6727
▁bevat	-10.6735
▁trichilemm	-10.6737
▁geprikkeld	-10.6738
▁rubriek	-10.6738
▁microsatellitos	-10.6738
▁immunoloog	-10.6738
▁diam	-10.6738
▁eenduidig	-10.6738
▁Slokdarm	-10.6739
▁infiltraten	-10.6739
▁gemengdcellig	-10.674
▁bevonden	-10.6741
▁chronica	-10.6741
▁serositis	-10.6742
▁pylorus	-10.6746
▁glioblastoom	-10.6746
▁High	-10.6749
▁uitbreidend	-10.6749
▁tibia	-10.6751
▁betrokkenheid	-10.6751
▁bloedvaten	-10.6758
▁kristallen	-10.676
▁galwegen	-10.6767
▁maagmucosa	-10.6772
▁relevant	-10.6772
228	-10.6783
100	-10.6784
▁2015	-10.6796
▁pseudodecidual	-10.683
ante	-10.6834
KRAS	-10.6838
Door	-10.6842
Cytologisch	-10.6846
▁Tubulair	-10.6858
▁Maagcorpus	-10.6874
pathologie	-10.6898
▁di	-10.6901
▁haar	-10.6914
▁bevinding	-10.6919
voorgeschiedenis	-10.692
152	-10.6935
▁progressie	-10.6947
nterpretatie	-10.6949
▁ONDERZOEK	-10.6951
▁fibroxanthoom	-10.6951
▁inguinaal	-10.6951
▁pemphigoid	-10.6951
▁Paget	-10.6951
▁geloosd	-10.6951
▁Superficie	-10.6951
time	-10.6951
▁vaatjes	-10.6952
▁amyloidose	-10.6952
▁voetzool	-10.6952
▁componenten	-10.6953
▁61	-10.6955
▁gingiva	-10.6957
db	-10.6958
▁sporadisch	-10.6959
▁Adnexextirpatie	-10.696
▁conclusief	-10.6961
▁ATM	-10.6962
▁Delen	-10.6966
▁gesneden	-10.6968
▁SISH	-10.6969
▁verkalkingen	-10.697
▁resttumor	-10.6974
▁doen	-10.6979
▁schildwacht	-10.6983
▁aard	-10.6985
adenoom	-10.6987
▁Blaasbiopten	-10.6998
▁artefacten	-10.7
▁kernen	-10.7
▁fibromatose	-10.7009
Marge	-10.7023
▁fibroma	-10.7026
Lymfklierexcisie	-10.703
kwab	-10.7033
132	-10.7036
24	-10.7041
▁abces	-10.7047
expressie	-10.7054
Lokalisatie	-10.7058
Pleuravocht	-10.7059
classificatie	-10.706
Laesi	-10.7066
pTNM	-10.7068
adequaat	-10.7095
▁mucine	-10.7103
▁TKI	-10.7128
PON	-10.7135
▁divertikel	-10.7138
70	-10.7138
achtige	-10.714
▁reiken	-10.7145
▁Subcutis	-10.715
▁myoom	-10.7158
▁beteken	-10.7166
▁Ontsteking	-10.7168
▁koilocytose	-10.7168
▁intradermaal	-10.7168
▁dwarsgestreept	-10.7168
▁blaarvorming	-10.7169
▁Warthintumor	-10.7169
▁Transuret	-10.7169
▁acanthotisch	-10.7171
▁Slecht	-10.7172
ocalisatie	-10.7174
▁caverneu	-10.7174
▁tumorpercentage	-10.7179
▁alveolair	-10.7183
182	-10.7209
▁endometrial	-10.7225
tisch	-10.7236
▁crypten	-10.7237
lc	-10.7239
▁510	-10.7257
77	-10.7259
ot	-10.7268
ro	-10.7285
NA	-10.7292
▁Th	-10.731
▁he	-10.7318
schildwachtklier	-10.7358
▁Mede	-10.7365
▁Wat	-10.7388
scannen	-10.739
▁basalioom	-10.739
▁prostatitis	-10.739
▁struma	-10.739
▁uitgeblust	-10.739
▁IUVD	-10.739
▁liposarcoom	-10.739
▁platform	-10.739
▁toepassing	-10.739
▁infra	-10.739
▁protocollair	-10.739
▁immunologisch	-10.7391
▁LMS	-10.7391
▁cryptitis	-10.7392
▁ondersteuning	-10.7392
▁spirocheten	-10.7392
▁septum	-10.7393
▁zijdelings	-10.7394
▁reuscel	-10.7394
154	-10.7396
▁Low	-10.7397
▁villeu	-10.7397
▁plaque	-10.7397
▁vacuolair	-10.7398
▁naevoid	-10.7398
▁vergelijking	-10.7402
▁fotos	-10.7403
▁We	-10.7404
▁cellulair	-10.7411
▁Bericht	-10.7412
▁uurs	-10.7413
▁huidshave	-10.7419
▁duodenumbiopt	-10.742
▁ingestuurd	-10.7422
▁Adenocarcinoom	-10.7425
▁Galblaasresect	-10.743
iepreparaat	-10.7451
marge	-10.746
deel	-10.7461
▁OP	-10.7462
▁58	-10.7468
ostinflammatoire	-10.7477
AT	-10.7505
populatie	-10.7507
▁loc	-10.7511
Voorts	-10.7516
AD	-10.7525
▁me	-10.7534
▁41	-10.754
sie	-10.7545
▁zwangerschap	-10.7552
▁endometri	-10.7565
▁doorsnede	-10.7572
▁ruimte	-10.7579
▁sereu	-10.759
▁karakteristiek	-10.7598
idectomie	-10.7602
203	-10.7608
2014	-10.7608
▁nauwe	-10.7613
150	-10.7614
▁cytonucleair	-10.7618
▁organiserend	-10.7618
▁pilonidalis	-10.7618
▁scrotum	-10.7618
▁talrijk	-10.7618
CBDEHE	-10.7618
▁borstkas	-10.7618
▁ectocervix	-10.7618
groepjes	-10.7619
▁multifocal	-10.7619
▁ulcusbodem	-10.762
TUMORDI	-10.762
▁MSS	-10.762
▁waarde	-10.7621
▁bewerkt	-10.7621
▁zoek	-10.7621
▁cryptabcessen	-10.7622
▁mesenterium	-10.7622
▁hierboven	-10.7623
▁dissectie	-10.7624
▁medebeoordeeld	-10.7624
▁optimaal	-10.7625
▁Litteken	-10.7626
▁Ovarium	-10.7627
▁gegroeid	-10.7634
▁Sentinel	-10.7634
▁excochleaat	-10.7638
▁hilair	-10.7642
▁verdikt	-10.7644
▁low	-10.7646
▁stuwing	-10.7647
▁voorwand	-10.7655
43	-10.7672
117	-10.7682
ROS	-10.7697
ct	-10.7699
▁punt	-10.7701
end	-10.7704
IX	-10.7716
onderarm	-10.772
▁47	-10.7721
▁premalign	-10.7727
verwege	-10.7732
diameter	-10.7732
genoeg	-10.7735
keratine	-10.774
▁retro	-10.7748
▁Om	-10.7758
▁klassieke	-10.7766
cervicale	-10.7767
180	-10.7769
epel	-10.779
▁Nier	-10.7803
▁calcificatie	-10.781
laas	-10.7838
BP	-10.7845
▁vlakke	-10.7845
▁epicrise	-10.785
▁peesschede	-10.785
▁proctitis	-10.785
▁ogend	-10.785
▁fossa	-10.785
▁Aspiratie	-10.785
▁stem	-10.785
▁bewijzend	-10.785
▁pemfigoid	-10.785
▁zijkant	-10.785
▁lymfomenpanel	-10.785
▁bloederig	-10.7851
▁NOTCH	-10.7852
▁gecauteriseerd	-10.7852
▁graderen	-10.7852
▁uitgaa	-10.7852
▁bloedbijmenging	-10.7852
▁Dunnedarm	-10.7852
▁myelofibrose	-10.7854
▁larynx	-10.7854
▁myomatosus	-10.7854
▁BAP	-10.7855
▁Stereotactisch	-10.7857
▁Enig	-10.7859
▁eerst	-10.7862
▁conjunctiva	-10.7865
▁criteria	-10.787
AL	-10.7875
▁bloedingsresten	-10.7883
amengestelde	-10.789
▁NIEUW	-10.7891
▁bekleding	-10.7902
▁pTa	-10.7914
specifieke	-10.7915
▁papilloma	-10.7929
▁linkszijdig	-10.7943
▁aanvragen	-10.7945
147	-10.795
jarig	-10.7973
▁voorkomen	-10.7978
220	-10.7978
▁gronden	-10.798
DNA	-10.7982
▁HPF	-10.7987
ion	-10.7999
▁immunofenotype	-10.8004
rine	-10.8007
tje	-10.8015
▁stasis	-10.8039
57	-10.8051
▁blaar	-10.8063
ry	-10.8067
▁herbeoorde	-10.8068
230	-10.8086
HMH	-10.8088
cflp	-10.8088
handpalm	-10.8088
▁PIRADS	-10.8088
▁biopsy	-10.8088
▁correlaat	-10.8088
▁dermatomycose	-10.8088
▁herkend	-10.8088
▁serologie	-10.8088
▁sleeve	-10.8088
▁verslaglegging	-10.8088
▁neusbijholte	-10.8088
▁gemic	-10.8088
▁Sjogren	-10.8088
▁leversegment	-10.8089
▁haemangioom	-10.809
▁zekerheidshalve	-10.8093
Opmerking	-10.8095
▁gaan	-10.8096
▁CLL	-10.8096
▁hematopoiese	-10.8098
▁wervel	-10.81
▁Uterusresectie	-10.8101
▁eccrien	-10.8103
gr	-10.8108
men	-10.8124
▁media	-10.813
▁Metastase	-10.8132
CD	-10.8132
▁subepiderma	-10.8139
▁fundustype	-10.814
▁typeren	-10.8144
▁markers	-10.8161
▁hypertrofie	-10.8161
▁haarden	-10.8169
ra	-10.817
▁Vas	-10.8179
▁erg	-10.8183
▁interstiti	-10.8185
▁eind	-10.8185
arm	-10.8207
▁geleide	-10.8215
loge	-10.8222
Hoog	-10.8223
papilloom	-10.8223
Onvoldoen	-10.8223
IHC	-10.8224
ari	-10.826
▁karakter	-10.8266
mucosale	-10.8276
lies	-10.8281
aar	-10.8285
Vb	-10.8287
vena	-10.8291
130	-10.8307
125	-10.8312
dagen	-10.8312
▁tumorvolume	-10.8319
1821	-10.8322
VEN	-10.8325
ompleet	-10.8327
angulus	-10.8332
▁ANALYSE	-10.8332
▁artritis	-10.8332
▁condyloom	-10.8332
▁steatohepatitis	-10.8332
rodissect	-10.8332
▁erytrocyturie	-10.8332
▁ieder	-10.8332
▁probe	-10.8332
Groeiwijze	-10.8332
▁intracavitair	-10.8332
▁semen	-10.8332
▁buitenoppervlak	-10.8332
▁slijmvormend	-10.8333
▁gedeeltelijk	-10.8333
▁GIST	-10.8334
▁Hysteroscopisch	-10.8334
▁Orchidectomie	-10.8336
▁voorafgaand	-10.8338
▁cervicaal	-10.8344
▁ratio	-10.8353
▁Ileum	-10.8356
▁aantasting	-10.8358
▁Klier	-10.8364
▁pR	-10.8365
▁overgangstype	-10.8367
▁RB	-10.8373
▁Naaldbiopsie	-10.8377
▁zelf	-10.8379
▁nodig	-10.8389
175	-10.8402
mammair	-10.8405
Nav	-10.8407
▁2017	-10.8414
▁groepje	-10.8421
▁Als	-10.8422
cylinders	-10.8425
▁trombus	-10.8433
totaal	-10.844
▁2020	-10.8447
▁42	-10.8461
146	-10.8471
aanvulling	-10.8473
helix	-10.8473
ta	-10.8481
▁MA	-10.8489
224	-10.8502
▁bewerking	-10.8531
afw	-10.8533
2015	-10.8535
▁onsteking	-10.8539
▁gele	-10.8551
ering	-10.8551
▁VIII	-10.8556
AKT	-10.8557
▁ontstekings	-10.8557
eoordeling	-10.858
reventie	-10.858
neeranden	-10.8582
MBR	-10.8582
▁Laboratorium	-10.8582
▁NSCLC	-10.8582
▁Vermoedelijk	-10.8582
▁clear	-10.8582
▁ilium	-10.8582
▁keratinocyt	-10.8582
▁serologisch	-10.8582
▁trimester	-10.8582
▁acantholyse	-10.8582
▁bijtfibroom	-10.8582
▁groen	-10.8582
▁zogenaamd	-10.8582
RADICA	-10.8582
cholecystectomie	-10.8582
TERTER	-10.8582
▁oncocytair	-10.8582
▁paratubair	-10.8582
▁hypocellulair	-10.8583
▁motiel	-10.8583
▁Vater	-10.8583
▁fibrocysteu	-10.8583
▁prostatectomie	-10.8583
▁arteriitis	-10.8584
▁ileocoecaal	-10.8586
▁periadnexa	-10.8587
222	-10.8591
▁desmoplastisch	-10.8593
omtrent	-10.8593
▁ulceroflegmoneu	-10.8594
▁anaal	-10.8596
▁CDK	-10.8608
▁villi	-10.8609
xtraprostatisch	-10.8611
▁pan	-10.8625
▁neuro	-10.8636
gebl	-10.8647
72	-10.8653
▁AANVULLEND	-10.8654
▁rechterhand	-10.8664
paard	-10.8665
ND	-10.867
▁pL	-10.8673
▁ruimer	-10.8675
kant	-10.8685
▁DA	-10.8689
▁Cp	-10.8697
▁bestaan	-10.8702
eert	-10.8703
oide	-10.8704
sn	-10.872
▁2018	-10.8723
dak	-10.8727
Vriescoupe	-10.8729
Helicobacter	-10.873
infiltratie	-10.8731
▁verminderd	-10.8736
datum	-10.8745
183	-10.8745
Indi	-10.8756
▁rectumbiopten	-10.8758
▁NSAID	-10.8779
▁k	-10.878
▁AA	-10.879
poiese	-10.8797
▁bloedingsrest	-10.8799
174	-10.8802
▁klierweefsel	-10.8805
TU	-10.882
▁lymf	-10.8823
▁mitose	-10.8833
ouble	-10.8838
▁Endocervix	-10.8839
▁evt	-10.8839
▁macronodulair	-10.8839
▁pustel	-10.8839
▁Hyperplastisch	-10.8839
▁prepylorisch	-10.8839
▁fibroadipeu	-10.884
▁tubuli	-10.884
rechterbovenkwab	-10.8842
▁sarcomatoid	-10.8843
▁radiotherapie	-10.8844
▁thermisch	-10.885
▁darmmucosa	-10.885
juv	-10.885
▁celgroepjes	-10.8853
▁restlokalisatie	-10.8858
02	-10.8859
▁satellieten	-10.8862
▁Tonsillectom	-10.8866
IA	-10.8888
zien	-10.889
▁onze	-10.889
858	-10.8897
▁placentair	-10.8897
▁medicamenteuze	-10.8898
▁prostaatbiopt	-10.8898
▁dyskeratose	-10.8903
anwezigheid	-10.8909
▁linkerhand	-10.8914
invasie	-10.8914
▁DE	-10.8919
ziekte	-10.8922
Immuunhistochemi	-10.8924
161	-10.8929
233	-10.8938
190	-10.8939
geschiedenis	-10.894
lymfklier	-10.8945
▁vraag	-10.8985
blokje	-10.8987
anamnes	-10.8991
betreffende	-10.8993
1702	-10.9002
volgende	-10.9003
27	-10.9014
▁lat	-10.9025
IAM	-10.9037
▁zoda	-10.9045
▁galweg	-10.9062
niet	-10.9074
handeld	-10.9101
▁collageen	-10.9102
▁gesteeld	-10.9102
▁skipping	-10.9102
▁Heupkop	-10.9102
▁galstenen	-10.9102
▁gezamenlijk	-10.9102
▁lingula	-10.9102
▁morfea	-10.9102
classificeerd	-10.9102
▁mestcellen	-10.9102
adhe	-10.9102
rigon	-10.9102
▁Mortons	-10.9102
▁lymfomen	-10.9102
▁hematopoetisch	-10.9102
▁seborrhoisch	-10.9103
▁verschillen	-10.9106
▁centrum	-10.9107
▁hypofyse	-10.9107
▁echogeleid	-10.9108
▁nerv	-10.9108
EPT	-10.9109
▁intimafibrose	-10.9109
▁Random	-10.911
▁Nefrectomie	-10.9112
▁zin	-10.9113
▁aanzien	-10.9114
▁pulmonale	-10.912
▁herschikking	-10.9123
▁remmers	-10.913
▁kh	-10.9131
▁Extern	-10.9133
STA	-10.9137
▁Bot	-10.9138
OLD	-10.9138
▁Candida	-10.9142
localisatie	-10.9145
▁SMA	-10.915
▁mesangia	-10.9155
▁IK	-10.9155
▁Voorlopige	-10.9156
▁tijd	-10.9168
▁excisies	-10.9172
▁REC	-10.9173
▁groepen	-10.9182
▁se	-10.9183
163	-10.9187
▁zegelringcel	-10.9213
▁kwab	-10.9238
negatief	-10.924
Glu	-10.9253
▁strek	-10.9259
93	-10.9263
▁for	-10.9265
▁HE	-10.9275
179	-10.928
▁beeldvorming	-10.9284
▁Anus	-10.9298
opathie	-10.9305
▁wijzen	-10.932
▁IEL	-10.9336
790	-10.9347
ctieve	-10.9353
168	-10.9355
dien	-10.9364
tes	-10.9365
urie	-10.937
meld	-10.9372
▁dikkedarm	-10.9372
▁erythematodes	-10.9372
▁gemetastaseerd	-10.9372
▁gespecificeerd	-10.9372
▁ligament	-10.9372
▁Goed	-10.9372
▁aanbevolen	-10.9372
▁nodosum	-10.9372
▁chorionvlokken	-10.9372
▁cholangio	-10.9372
▁Douglas	-10.9372
▁satellitose	-10.9372
▁prostatica	-10.9372
▁opgebouwd	-10.9373
▁gelocaliseerd	-10.9374
▁peritoneale	-10.9374
▁hoofdbronchus	-10.9374
▁epithelioid	-10.9374
▁Diagnos	-10.9375
▁prikkeling	-10.938
▁fibrosering	-10.9384
▁veldje	-10.9385
positieve	-10.9389
as	-10.9394
▁inter	-10.9394
▁AML	-10.9395
▁erythrocyten	-10.9395
▁bloedingen	-10.9399
clinicopathologi	-10.9402
▁partieel	-10.9403
▁malformatie	-10.9408
06	-10.9414
▁46	-10.9417
ese	-10.9426
▁innemend	-10.944
▁gemedieerd	-10.9441
▁2019	-10.9443
cus	-10.9447
85	-10.9458
▁pE	-10.9462
▁lymfoAde	-10.9472
RAD	-10.9472
▁secretoire	-10.9477
Immunohistochemi	-10.9481
▁Bronchusbiopt	-10.949
▁waarna	-10.9502
TG	-10.9511
status	-10.9516
gerelateerd	-10.9517
eenmergaspiraat	-10.9535
NEUR	-10.9535
PERI	-10.9538
gewicht	-10.9541
210	-10.9556
histiocytose	-10.9587
▁maagcardia	-10.9591
]4	-10.9594
▁85	-10.9601
▁52	-10.9604
165	-10.9608
ysplasie	-10.9616
▁nagel	-10.9616
2020	-10.9623
▁ma	-10.963
ek	-10.9635
ommissie	-10.9645
niversit	-10.9646
Sc	-10.9646
equencing	-10.9649
screen	-10.965
EUZE	-10.965
▁erytropoese	-10.965
▁millimeter	-10.965
DIFFERENT	-10.965
▁DLBCL	-10.965
▁dVIN	-10.965
▁ischaemie	-10.965
▁endocarditis	-10.965
▁blastentoename	-10.965
▁cystitis	-10.965
▁SMARC	-10.9651
▁major	-10.9651
▁Fuhrman	-10.9652
▁Goedaardig	-10.9652
▁thoracal	-10.9652
ke	-10.9652
ullen	-10.9654
atus	-10.9654
▁dijbeen	-10.9655
▁MGMT	-10.9656
▁glans	-10.9656
▁rechteroor	-10.9657
▁Pylori	-10.9658
206	-10.9658
▁astrocytoom	-10.9661
▁fimbriae	-10.9661
▁geamplificeerd	-10.9664
▁rood	-10.9667
▁ductaaltype	-10.9668
▁347	-10.967
▁horizontal	-10.9673
▁strip	-10.9676
▁wangslijmvlies	-10.9677
been	-10.9677
▁ectocervica	-10.9683
▁blastair	-10.9689
▁Sterk	-10.9705
▁reads	-10.9726
station	-10.9733
▁prothese	-10.9733
▁daarvan	-10.9741
co	-10.9744
▁tumortje	-10.9744
162	-10.9747
▁holte	-10.9766
sproces	-10.9767
lymfoom	-10.9782
▁verminderde	-10.9796
28	-10.9813
▁grootte	-10.9817
pen	-10.982
▁Cyste	-10.9825
verwijderd	-10.9827
▁bevind	-10.9827
▁Maligniteit	-10.9829
96	-10.9844
▁littekenachtig	-10.9849
rmatopathologie	-10.9852
atypie	-10.9869
bepaling	-10.9872
chronische	-10.9879
▁IX	-10.9886
▁angio	-10.9892
▁pleit	-10.9898
▁En	-10.99
licht	-10.99
73	-10.9911
straal	-10.9914
▁markering	-10.9926
01	-10.9927
ubcutane	-10.9928
▁infect	-10.9933
▁matur	-10.9933
▁adnexa	-10.9933
JBE	-10.9935
ebru	-10.9936
entana	-10.9936
▁genitalis	-10.9936
Sperma	-10.9936
▁POSITIEF	-10.9936
▁noodzakelijk	-10.9936
▁rosea	-10.9936
▁insectensteek	-10.9936
▁plasmocytose	-10.9936
VAN	-10.9936
▁dilatatie	-10.9936
▁cirrose	-10.9936
▁tongbasis	-10.9936
boog	-10.9936
kbeen	-10.9936
EHE	-10.9937
▁Gewijzigd	-10.9937
streek	-10.9938
▁trombose	-10.994
▁special	-10.9942
▁overexpressie	-10.9943
▁krabben	-10.9944
▁blaaswand	-10.9944
▁KRASgen	-10.9947
▁hilus	-10.9947
▁diverse	-10.9948
▁aanleg	-10.9949
▁CPS	-10.9956
▁Primair	-10.9957
▁indefinite	-10.9967
▁SI	-10.9982
▁Pleura	-11.0046
me	-11.0055
toe	-11.0058
▁submucosale	-11.0061
teuze	-11.0076
▁ont	-11.0087
derde	-11.0101
▁lesion	-11.0103
Arg	-11.0108
radiologisch	-11.012
laboratorium	-11.012
Poliepectomie	-11.0121
zen	-11.0128
RES	-11.0135
oesofagea	-11.0142
lymfklierpunctie	-11.0143
dreig	-11.0145
typeslijmvlies	-11.0173
microscopisch	-11.0203
▁snede	-11.0205
▁mal	-11.0206
▁translocaties	-11.0208
lux	-11.0221
usculus	-11.0226
▁keloid	-11.0228
▁bulla	-11.0229
▁Erytrocyturie	-11.023
▁carcinoid	-11.023
▁interface	-11.023
▁ligging	-11.023
▁digniteit	-11.023
▁nefrectomie	-11.023
▁juli	-11.023
▁adenocarcinoma	-11.023
▁intramusculair	-11.023
▁heupkop	-11.023
▁epididymis	-11.023
▁uiterst	-11.0231
▁Bronchoalveol	-11.0231
▁aansnijding	-11.0232
▁goedmatig	-11.0232
▁eiwit	-11.0234
▁overliggend	-11.0235
▁hiermee	-11.0236
▁reumato	-11.0237
▁dermoidcyste	-11.0237
▁pyelum	-11.0238
160	-11.0239
▁stembandpoliep	-11.0239
▁Diepte	-11.0242
▁samen	-11.0254
brug	-11.0255
oid	-11.0259
eus	-11.0259
▁duodenummucosa	-11.026
BRAF	-11.026
▁Receptoren	-11.0262
▁linkerflank	-11.0262
140	-11.0264
▁embryonaal	-11.0266
aN	-11.0268
▁spoelcel	-11.0271
▁st	-11.0276
ogene	-11.028
excisiepreparaat	-11.0293
▁apocrien	-11.0298
▁UI	-11.0301
gaand	-11.0303
▁ki	-11.0308
48	-11.0319
170	-11.0326
▁maagresectie	-11.0343
▁67	-11.0352
▁ond	-11.0354
▁adeno	-11.0356
onderkwab	-11.0367
▁parasterna	-11.039
66	-11.0393
gestelde	-11.0401
▁Abortus	-11.0405
▁histomorfologi	-11.0417
atuur	-11.0419
▁NET	-11.042
42	-11.0426
▁vesicula	-11.0427
Val	-11.0444
proliferatief	-11.0447
▁pro	-11.0448
▁colonbiopt	-11.0468
ijdigheid	-11.0475
derma	-11.0482
143	-11.0488
▁snel	-11.0501
▁ductectasie	-11.0503
▁plasma	-11.0505
▁Arteri	-11.0528
vormige	-11.053
▁Micro	-11.053
jwlp	-11.0533
▁Keratos	-11.0533
▁Kras	-11.0533
▁antracose	-11.0533
▁cholangitis	-11.0533
▁geserreerd	-11.0533
▁glabella	-11.0533
▁mucokele	-11.0533
▁opbouw	-11.0533
▁seminales	-11.0533
▁NIET	-11.0533
▁begeleid	-11.0533
▁oorzaken	-11.0533
▁senilis	-11.0533
▁vruchtdood	-11.0533
▁discontinu	-11.0533
▁hechtdraad	-11.0533
▁pseudomelanosis	-11.0533
▁reAxcisie	-11.0533
▁adenosis	-11.0533
▁amorf	-11.0533
▁spermatozoon	-11.0533
▁periorbitaal	-11.0533
▁minor	-11.0533
▁bursa	-11.0534
▁Bauhin	-11.0534
Multipel	-11.0534
▁subtypering	-11.0534
▁zaad	-11.0535
▁Speekselklier	-11.0535
▁dysplasia	-11.0535
▁okt	-11.0535
▁vestibul	-11.0535
lijks	-11.0536
▁abortusrest	-11.0537
▁cerebro	-11.0537
▁lig	-11.0537
▁excoriatie	-11.0538
▁Verrichting	-11.0538
05	-11.0538
▁significantie	-11.054
▁motiliteit	-11.0542
▁macrometastase	-11.0543
▁sepsis	-11.0545
METASTASEN	-11.0547
▁obstructie	-11.0552
tubulaire	-11.0555
coupes	-11.0566
▁MK	-11.057
▁verbre	-11.0572
nd	-11.0575
▁infarcten	-11.0589
LT	-11.0607
▁PL	-11.0607
▁lokal	-11.0618
195	-11.0626
spinal	-11.063
▁jicht	-11.0647
209	-11.0652
▁small	-11.0654
▁opmerking	-11.0657
▁XII	-11.0664
li	-11.0668
beenmergaspiraat	-11.0672
▁Incisiebiopt	-11.0677
PM	-11.0679
▁like	-11.0712
Breslow	-11.0739
geassocieerde	-11.0742
▁rub	-11.075
2013	-11.0763
schouderblad	-11.0764
▁coronair	-11.0768
▁89	-11.0789
ker	-11.0808
207	-11.081
▁wond	-11.0813
▁locaties	-11.0818
▁element	-11.0824
mateuze	-11.0826
86	-11.0827
klier	-11.0828
▁wig	-11.0842
Lys	-11.0843
BM	-11.0843
▁incomplet	-11.0844
verantwoordelijk	-11.0845
▁bevestigen	-11.0845
▁concha	-11.0845
▁gewijzigd	-11.0845
presentativiteit	-11.0845
▁keten	-11.0845
▁elastosis	-11.0845
KSFJSL	-11.0845
▁cystoscopie	-11.0845
▁galsteenlijden	-11.0845
▁mastocytose	-11.0845
▁aortaklep	-11.0846
▁parasitair	-11.0846
STE	-11.0846
▁vaatlaesie	-11.0846
▁predictie	-11.0847
BBLBBL	-11.0847
▁Kahler	-11.0847
▁Actinisch	-11.0847
▁plana	-11.0847
▁fusietranscript	-11.0851
▁sleutelbeen	-11.0851
▁vasculopathie	-11.0851
▁pQ	-11.0851
▁Hemithyro	-11.0851
▁monoklonal	-11.0853
▁huidfragment	-11.0854
▁Beentumoren	-11.0854
▁fenotype	-11.0854
▁lymfoompanel	-11.0856
▁onvolledig	-11.0858
▁ju	-11.0869
▁Ongewijzigd	-11.0872
▁tw	-11.0873
il	-11.0875
tjes	-11.0881
▁Onderzoek	-11.0886
▁sept	-11.0891
▁HR	-11.0901
rechteronderkwab	-11.0905
▁hormoonreceptor	-11.0913
▁acra	-11.0917
▁BV	-11.0929
dd	-11.093
▁lichenoid	-11.0938
Sw	-11.0939
alis	-11.0946
▁naad	-11.0949
225	-11.095
len	-11.0965
eerdere	-11.0972
resten	-11.0977
ulaire	-11.0982
▁fusies	-11.1006
liggend	-11.1016
▁tub	-11.1017
poliepen	-11.1028
bespreking	-11.103
deling	-11.1035
▁trans	-11.104
▁2021	-11.1042
▁date	-11.1043
ISUP	-11.1054
carina	-11.1056
Intern	-11.1058
▁data	-11.1061
histologisch	-11.1071
▁Pleurabiopt	-11.1086
oAde	-11.1096
houdend	-11.1104
229	-11.1106
▁kopie	-11.1131
▁Slokdarmbiopt	-11.1136
▁termina	-11.1138
bewa	-11.1167
▁MUT	-11.1168
▁afmeting	-11.1168
▁centimeter	-11.1168
▁decollete	-11.1168
▁gescand	-11.1168
▁parakeratotisch	-11.1168
▁centrifugum	-11.1168
▁december	-11.1168
▁lumen	-11.1168
▁fronto	-11.1168
▁hidrocystoom	-11.1168
▁romphuidtype	-11.1168
▁papillomatose	-11.1168
IATIEGRAAD	-11.1169
▁neoplastisch	-11.117
▁fibrinoid	-11.117
▁odontogen	-11.1172
▁glioom	-11.1173
▁Rest	-11.1179
ub	-11.1181
▁ANCA	-11.1182
▁Serologisch	-11.1184
▁PZ	-11.1185
ries	-11.1185
▁HSV	-11.1188
▁vezels	-11.119
▁pN	-11.1192
▁KM	-11.1206
▁gevallen	-11.1207
▁Buikspoel	-11.1207
▁tonsill	-11.122
▁NR	-11.1221
▁parti	-11.1225
33	-11.1234
lymfklierexcisie	-11.1234
spoeling	-11.1238
▁spoel	-11.124
MIN	-11.1241
▁ZN	-11.1249
CBD	-11.125
500	-11.1257
▁TBC	-11.1263
ap	-11.1264
▁zwakke	-11.1275
▁complex	-11.1281
der	-11.1284
▁ko	-11.129
▁hersen	-11.1291
▁Terminal	-11.1293
44	-11.1297
celtumor	-11.1304
▁SN	-11.1318
MN	-11.1319
178	-11.1326
181	-11.1328
133	-11.1328
crypthyperplasie	-11.133
▁operatie	-11.1331
200	-11.1332
▁CS	-11.1343
▁bijkomende	-11.1344
clonaal	-11.1347
54	-11.1347
otaal	-11.1353
eps	-11.1368
▁digiti	-11.1383
verschuiving	-11.1385
Progesteron	-11.1392
aspiratie	-11.1392
▁BA	-11.1396
▁Coecum	-11.1401
▁klierbuis	-11.1416
stadium	-11.1423
transplantatie	-11.1426
▁ME	-11.1432
▁RAS	-11.1458
invasief	-11.1459
▁doorsnijding	-11.1467
Schildwachtklier	-11.1467
▁Fibro	-11.148
enetisch	-11.1488
▁Ureter	-11.149
▁fascie	-11.15
KSFMMA	-11.1501
▁augustus	-11.1501
▁geAndiceerd	-11.1501
▁herpetiformis	-11.1501
▁inferior	-11.1501
▁jejunum	-11.1501
▁myelopoese	-11.1501
▁periporta	-11.1501
▁SMO	-11.1501
▁anemie	-11.1501
▁Fors	-11.1501
▁subserosa	-11.1501
▁lymfadenopathie	-11.1501
▁ongemarkeerd	-11.1501
▁clearcell	-11.1501
▁valvula	-11.1501
▁Aangevuld	-11.1501
▁alienum	-11.1501
flr	-11.1502
▁myocarditis	-11.1503
mail	-11.1504
scellen	-11.1504
ch	-11.1505
▁Ingeblokt	-11.1507
▁aangewezen	-11.1507
▁abortus	-11.151
▁medenem	-11.1511
▁IgM	-11.1511
▁haardvormig	-11.1515
▁pariAtaal	-11.1516
▁patholoog	-11.1518
▁instabiliteit	-11.1518
▁Lab	-11.1521
▁immunokleuring	-11.1522
▁hecht	-11.1524
▁vel	-11.1526
▁lobectomie	-11.1526
▁velden	-11.1528
▁Fragment	-11.1528
▁min	-11.1531
▁littekenreactie	-11.1532
▁hoger	-11.1537
▁EBER	-11.1537
osquameus	-11.154
▁labia	-11.1544
32	-11.1554
▁vulvabiopt	-11.1559
▁patiAnte	-11.1561
▁wijs	-11.1563
KO	-11.1566
2022	-11.1568
lie	-11.1575
alhoe	-11.1578
▁lytisch	-11.1591
dr	-11.1594
nvasieve	-11.1599
▁59	-11.1604
▁vroeg	-11.1614
lo	-11.1631
no	-11.1638
po	-11.1639
▁Sub	-11.1644
2018	-11.1676
kin	-11.1685
▁Invasie	-11.1693
221	-11.1697
▁nemen	-11.1704
erzijds	-11.172
142	-11.1722
▁lymfoAd	-11.1723
esproken	-11.1729
▁gastro	-11.1731
Weke	-11.1737
temporaal	-11.1737
Dieper	-11.1737
▁He	-11.1746
like	-11.1746
▁toxische	-11.1749
▁vlok	-11.176
▁tumorcel	-11.1769
▁dermatopath	-11.1774
OE	-11.1778
DR	-11.179
▁staan	-11.1791
NEU	-11.1794
135	-11.181
▁contra	-11.1825
satellietstabiel	-11.1829
▁vl	-11.183
abortusmateriaal	-11.1834
reactieve	-11.184
studi	-11.1843
▁Actinomyces	-11.1846
▁april	-11.1846
▁hidradenitis	-11.1846
▁ontbreekt	-11.1846
▁Solid	-11.1846
▁gallig	-11.1846
▁myopathie	-11.1846
▁cholesterolosis	-11.1846
▁epitheloid	-11.1846
▁Grover	-11.1846
▁pouch	-11.1846
▁neoplasma	-11.1847
▁herkenba	-11.1847
▁exostose	-11.1848
▁organismen	-11.1849
▁tag	-11.185
▁PATHOLOGI	-11.1851
▁uterina	-11.1852
▁FSGS	-11.1852
▁organen	-11.1852
koa	-11.1853
▁maagcorpusbiopt	-11.1854
▁stoma	-11.1855
▁celproliferatie	-11.1856
▁intermediair	-11.1857
▁sclerodermie	-11.1859
▁POLE	-11.186
▁kloon	-11.186
▁vervett	-11.1861
▁trombi	-11.1861
▁Hart	-11.1862
▁verwachten	-11.1863
▁naevocellulares	-11.1865
AAL	-11.1866
196	-11.1868
▁fractuur	-11.1871
▁laesiona	-11.1875
▁gladde	-11.1876
Long	-11.1877
ning	-11.1878
▁mediane	-11.188
▁plek	-11.1883
▁Atypisch	-11.1884
2573	-11.1895
▁terug	-11.1895
▁amputatie	-11.1897
allergische	-11.1898
▁gestuurd	-11.1903
▁cystic	-11.1911
reolair	-11.1911
angiomateuze	-11.1912
▁HMC	-11.1913
ember	-11.1921
▁dag	-11.1922
▁alles	-11.1923
▁PT	-11.193
▁index	-11.194
erifeer	-11.1944
▁Spier	-11.1947
ak	-11.1953
▁voorgaand	-11.1957
55	-11.1964
191	-11.1965
▁ouder	-11.1977
▁rondkernig	-11.1979
52	-11.1983
212	-11.1987
▁lymfklierbiopt	-11.1989
stelling	-11.1995
lex	-11.2002
▁darmresectie	-11.2011
TP	-11.2025
525	-11.2042
▁digit	-11.2042
els	-11.2043
SRC	-11.208
Gleason	-11.2094
CONCLUSIE	-11.2094
Verder	-11.2094
750	-11.2095
Daarna	-11.2101
versus	-11.2102
aanwezigheid	-11.2102
▁huidsnijvlak	-11.2102
194	-11.2113
coli	-11.2119
erend	-11.212
ryptarchitectuur	-11.2122
ij	-11.2124
ZH	-11.2125
ster	-11.2147
mmunohistochemie	-11.2152
84	-11.2165
▁Blaasbiopt	-11.2174
▁medi	-11.2176
va	-11.2178
▁pa	-11.2183
FD	-11.2185
▁verlo	-11.2188
▁meso	-11.2191
▁Vulva	-11.2192
▁macula	-11.2198
olipectomie	-11.22
Concentratie	-11.2203
▁Merkelcel	-11.2203
▁THERAPIE	-11.2203
▁contaminatie	-11.2203
▁fecaal	-11.2203
▁gedenudeerd	-11.2203
▁geretourneerd	-11.2203
▁imponeer	-11.2203
Mandard	-11.2203
Neelsen	-11.2203
▁detecteerbaar	-11.2203
▁inzender	-11.2203
▁Ziehl	-11.2203
KSFEHE	-11.2203
▁rectosigmoAd	-11.2203
▁secretiefase	-11.2203
▁zsm	-11.2203
▁pilomatrixoom	-11.2203
▁quadr	-11.2203
▁introitus	-11.2203
▁NSAIDgebruik	-11.2203
▁ijzerpigment	-11.2203
_0005465	-11.2203
▁gynaecomastie	-11.2203
▁schaam	-11.2203
CBDJSL	-11.2203
▁evaluatie	-11.2203
▁transit	-11.2203
▁resistentie	-11.2204
▁midline	-11.2204
▁pigmentosa	-11.2204
▁VHL	-11.2204
TPN	-11.2205
▁Preputium	-11.2205
▁hydropisch	-11.2205
▁aggregaten	-11.2206
▁vals	-11.2206
▁samenhangend	-11.2206
▁spermatogenese	-11.2207
▁monoclonal	-11.2209
▁RMK	-11.2209
mantelcellymfoom	-11.2209
▁gevraagd	-11.2209
▁sneeranden	-11.221
▁Verspreid	-11.2213
▁sebaceus	-11.2214
▁LP	-11.2214
49	-11.2217
▁Bcellen	-11.2223
▁naam	-11.2224
▁ejaculaat	-11.2225
▁protonpomp	-11.2232
▁volair	-11.2241
▁d	-11.2243
▁ypT	-11.2246
EERDE	-11.2246
▁Hals	-11.2246
enzij	-11.2262
volumepercentage	-11.2265
▁kleur	-11.2269
libra	-11.2289
1400	-11.2291
▁CT	-11.2299
cardiatype	-11.2299
▁99	-11.2299
klierstation	-11.23
Mutatieanalyse	-11.2305
eren	-11.2315
SCH	-11.2318
▁teleangiectasie	-11.2325
▁cor	-11.2328
sequentieanalyse	-11.2331
▁respiratoir	-11.2333
▁J	-11.2337
103	-11.2351
04	-11.2355
Lymfklier	-11.2358
▁cyto	-11.2367
▁pseudoepitheli	-11.2369
▁do	-11.2373
Endometrium	-11.238
Immuno	-11.2394
▁mee	-11.2395
▁kwaliteits	-11.2407
▁anal	-11.2408
orbitaal	-11.2417
202	-11.2419
procedure	-11.2424
▁nodule	-11.2426
▁verrichten	-11.2441
maag	-11.2442
heidshalve	-11.2444
boven	-11.246
▁rondes	-11.2461
prothese	-11.2461
breuk	-11.2462
indicatie	-11.2462
▁Mammaexcisie	-11.2463
conform	-11.2465
▁inclusie	-11.2465
proliferatiefase	-11.2467
tussen	-11.2467
▁teen	-11.247
ko	-11.2487
▁pyo	-11.252
▁Pas	-11.252
▁korte	-11.2537
▁bilateral	-11.2542
▁remmer	-11.2548
▁ad	-11.2549
bi	-11.2556
▁PI	-11.2558
▁macro	-11.256
Sl	-11.2563
193	-11.2568
sonderzoek	-11.2569
▁Brunners	-11.257
▁LSIL	-11.2571
▁LYMFKLIER	-11.2573
Protocol	-11.2573
▁LVSI	-11.2573
▁ethmoid	-11.2573
▁sporen	-11.2573
▁sprieten	-11.2573
▁verstoord	-11.2573
▁zygoma	-11.2573
▁indolent	-11.2573
▁seminoom	-11.2574
▁overeenkomstig	-11.2574
▁superi	-11.2574
iteratuur	-11.2574
▁herpes	-11.2574
▁skin	-11.2574
▁pseudolymfoom	-11.2574
▁anderszins	-11.2574
▁bloedverlies	-11.2575
▁diabetisch	-11.2576
▁identiek	-11.2576
▁bacteriAn	-11.2576
▁weefselstukje	-11.2576
▁verklaard	-11.2576
▁mesotheelcellen	-11.2577
▁vorig	-11.2577
▁pGln	-11.2585
▁IFTA	-11.2588
▁promoter	-11.2588
▁Grade	-11.2588
▁gerapporteerd	-11.2588
▁kl	-11.2588
▁wild	-11.2589
▁MRI	-11.2589
irritatiefibroom	-11.2589
▁restlaesie	-11.259
▁chondrosarcoom	-11.2592
▁genetica	-11.2592
ag	-11.2592
▁signaal	-11.2593
▁oppervlakte	-11.2594
▁linkerslaap	-11.2594
▁discordant	-11.2594
▁gewricht	-11.26
▁tekening	-11.26
ologiebespreking	-11.2604
▁gelijkend	-11.2605
▁klierparenchym	-11.2607
afhankelijk	-11.2607
▁or	-11.2608
▁COMPONENT	-11.2614
▁HN	-11.262
rende	-11.2625
▁longbiopt	-11.2628
▁kort	-11.2638
MAX	-11.2645
Placenta	-11.2645
495	-11.2656
▁pH	-11.2657
83	-11.2659
▁lager	-11.266
ia	-11.2669
ans	-11.2671
▁relatieve	-11.2674
141	-11.2681
▁lymfoplasmacyt	-11.2683
▁rectumcarcinoom	-11.2703
▁2022	-11.2724
Graderings	-11.273
▁Anusbiopt	-11.2736
▁ante	-11.2745
2017	-11.2753
▁ven	-11.2759
▁feite	-11.2763
grote	-11.2766
IP	-11.2784
let	-11.28
▁IA	-11.2802
slaap	-11.2827
82	-11.2832
▁adenoma	-11.2838
1618	-11.2848
hypertrofie	-11.2848
scheenbeen	-11.2849
midden	-11.2849
▁naald	-11.2855
Ala	-11.2875
eikend	-11.2883
71	-11.2892
▁som	-11.2907
▁cluster	-11.2918
▁vervolg	-11.2918
▁chronic	-11.293
▁polymorf	-11.2933
▁peroperatie	-11.2945
requentie	-11.2953
auriculair	-11.2954
globuline	-11.2956
iformis	-11.2958
▁BUITEN	-11.2958
▁Dikkedarm	-11.2958
▁Laaggradig	-11.2958
▁bronchopneumoni	-11.2958
▁gangren	-11.2958
▁geAxcideerd	-11.2958
▁mesenchymaal	-11.2958
▁scabies	-11.2958
▁tyrosine	-11.2958
BRONCH	-11.2958
▁monoclonaal	-11.2958
▁reticuline	-11.2958
▁eigen	-11.2958
opy	-11.2958
▁excochleatie	-11.2958
▁nasofarynx	-11.2958
▁precie	-11.2958
▁interscapulair	-11.2958
▁hoornlaag	-11.2958
▁bloedstolsel	-11.2958
▁PSA	-11.2958
▁ischaemisch	-11.2959
▁mastectomie	-11.2959
▁dun	-11.2959
▁luidt	-11.296
▁interpreteren	-11.2961
▁aangesneden	-11.2961
▁medebeoordeling	-11.2961
VANT	-11.2962
▁drug	-11.2962
▁recht	-11.2962
▁MZH	-11.2962
ity	-11.2963
MMA	-11.2963
▁Drie	-11.2965
▁CIC	-11.2969
▁medicatie	-11.2969
▁osteochondroom	-11.2969
▁rib	-11.2969
STR	-11.2969
JU	-11.297
▁wildtype	-11.297
▁colectomie	-11.297
▁Distal	-11.2973
▁CEA	-11.2976
▁inhibitors	-11.2978
▁behandeld	-11.298
▁bewaard	-11.2981
▁Lymfocytose	-11.2982
▁mondslijmvlies	-11.2991
▁invaginatie	-11.2991
▁PAP	-11.2994
▁adenomyomateu	-11.3004
▁grens	-11.3015
entraal	-11.302
167	-11.3021
▁virus	-11.3035
▁polyclonal	-11.3036
▁global	-11.3037
ABL	-11.304
▁Hemithyreoid	-11.3044
▁vergelijk	-11.3052
▁2000	-11.3059
64	-11.3061
ire	-11.3063
▁infarceringen	-11.3071
nucle	-11.3071
osis	-11.3076
▁maagantrumbiopt	-11.3077
ocaal	-11.3077
205	-11.3093
▁mammapunctie	-11.3098
▁herhaald	-11.3107
2300	-11.3116
▁No	-11.312
▁anamnes	-11.3124
nzeker	-11.3125
RET	-11.3127
▁ha	-11.3128
ling	-11.3151
81	-11.3173
214	-11.3181
▁cover	-11.3197
out	-11.3199
▁vers	-11.3216
▁geA	-11.3224
AB	-11.3225
prostaat	-11.3228
▁residu	-11.3233
155	-11.3237
227	-11.3242
DCIS	-11.3248
Radicaal	-11.3249
toont	-11.3256
LE	-11.3256
dermaal	-11.3261
▁lymfoplasm	-11.3265
213	-11.3275
IS	-11.3278
1800	-11.3282
Lymfklieren	-11.3286
▁ecto	-11.3289
EM	-11.3304
▁bloedvat	-11.3308
▁NEO	-11.3319
zicht	-11.3325
▁plekke	-11.3326
▁verkalking	-11.3329
▁kapje	-11.3329
tro	-11.3348
nalyse	-11.3352
▁representatie	-11.3354
▁Hyster	-11.3358
Bevindingen	-11.3358
dedifferentieerd	-11.3358
▁Dupuytren	-11.3358
▁bespreken	-11.3358
▁exofytisch	-11.3358
▁geinverteerd	-11.3358
▁hypoxie	-11.3358
▁ongeschikt	-11.3358
▁opmerkelijk	-11.3358
▁osteomyelitis	-11.3358
▁parietale	-11.3358
▁periapica	-11.3358
▁desmoid	-11.3358
1⁄4	-11.3358
▁melanosis	-11.3358
▁spoelcellipoom	-11.3358
zakelijk	-11.3358
▁biologie	-11.3358
▁ileitis	-11.3358
▁megakaryopoe	-11.3358
▁LCIS	-11.3358
▁vervallen	-11.3358
▁interfase	-11.3358
▁rechterknie	-11.3358
▁belangrijk	-11.3358
▁comedonecrose	-11.3358
▁beslag	-11.3358
▁dysmorfie	-11.3359
▁durum	-11.3359
▁vaatstructuren	-11.3359
unica	-11.336
▁lokatie	-11.336
▁apoptotisch	-11.3361
▁omliggend	-11.3361
▁intramucosaal	-11.3362
▁verdr	-11.3364
FNA	-11.3364
▁voetrand	-11.3364
▁Subcutaan	-11.3365
▁aangevuld	-11.3366
▁tangentiel	-11.3366
▁mesothelia	-11.3367
▁HLA	-11.3371
▁dominant	-11.3372
zak	-11.3372
▁448	-11.3374
▁Genom	-11.3376
ctie	-11.3379
▁hierop	-11.3387
▁gelijk	-11.3389
▁linkerlies	-11.3394
▁kapjes	-11.3399
▁schatt	-11.3406
▁degeneratief	-11.3411
▁sturen	-11.3411
derende	-11.3411
bronchusspoeling	-11.3417
▁ontwikkeling	-11.342
1801	-11.342
Twee	-11.3426
▁komen	-11.3428
▁54	-11.3429
inder	-11.3437
ARAF	-11.3437
▁PAL	-11.3441
▁insnijden	-11.3445
▁satelliet	-11.3447
▁decidual	-11.3453
▁ducten	-11.3455
47	-11.3457
▁cyst	-11.3478
▁zon	-11.3479
▁indicatie	-11.348
▁Peritoneumbiopt	-11.3487
▁methylerings	-11.3493
oard	-11.3499
▁Huidfragment	-11.3506
▁mb	-11.3517
AP	-11.3546
nl	-11.3556
▁anusslijmvlies	-11.3556
▁stoornissen	-11.3609
▁receptoren	-11.3617
▁vacuum	-11.362
59	-11.3623
▁megakaryocyt	-11.3633
dermale	-11.3642
▁separa	-11.3642
▁huidadnex	-11.3648
arterioloscleros	-11.365
segment	-11.3657
▁nieren	-11.366
VE	-11.3661
▁Lymfklieren	-11.3662
2021	-11.3663
volledig	-11.3664
index	-11.3664
Mogelijk	-11.3666
Niet	-11.3666
klep	-11.3667
passend	-11.3672
iaire	-11.3682
vlak	-11.3684
eit	-11.3689
fibrose	-11.3691
▁72	-11.3698
▁trachea	-11.3716
MA	-11.3717
▁casu	-11.3735
▁erythrocyt	-11.3747
colon	-11.3754
▁granul	-11.3755
▁verslagen	-11.376
▁blijven	-11.376
▁reuma	-11.3767
positief	-11.377
emarkeerd	-11.3771
▁colorecta	-11.3773
▁lamel	-11.3774
▁neotermina	-11.3775
eimpetiginiseerd	-11.3775
▁Extirpatie	-11.3775
▁Giemsa	-11.3775
▁Kapsel	-11.3775
▁alopecie	-11.3775
▁cheilitis	-11.3775
▁gegeneraliseerd	-11.3775
▁melanofagen	-11.3775
▁november	-11.3775
▁purpura	-11.3775
▁sialoadenitis	-11.3775
▁wervelkolom	-11.3775
▁chemie	-11.3775
▁postmenopauza	-11.3775
▁zenuwvezel	-11.3775
▁kratervormige	-11.3775
schacht	-11.3775
▁teruggevonden	-11.3775
▁schimmelhyfen	-11.3775
▁Disclaimer	-11.3775
▁homogeen	-11.3775
▁stans	-11.3775
▁Borrelia	-11.3775
▁incompleet	-11.3775
▁Ep	-11.3776
pace	-11.3777
▁koud	-11.3777
▁circumscript	-11.3777
▁endometroid	-11.3777
▁transitie	-11.3777
ldb	-11.3779
▁mei	-11.378
▁web	-11.3782
▁Normal	-11.3782
▁hyalinose	-11.3782
▁Licht	-11.3782
▁beloop	-11.3782
▁subcarinaal	-11.3785
▁lithiasis	-11.3787
▁humerus	-11.3787
deposities	-11.3788
▁Ond	-11.3792
▁Bi	-11.3792
▁entiteit	-11.3792
▁Nog	-11.3795
▁hamartoom	-11.3796
▁Hersen	-11.3799
tr	-11.3805
elbeeld	-11.3809
▁Gly	-11.3809
797	-11.3809
▁plaveiselcellen	-11.3811
▁trial	-11.3822
stoornis	-11.3824
▁Thy	-11.3832
231	-11.3833
▁erosief	-11.3834
2016	-11.3835
witte	-11.3837
▁myo	-11.3838
145	-11.3845
▁66	-11.3846
192	-11.3848
▁2012	-11.3863
▁dens	-11.3863
stand	-11.3865
stens	-11.3878
2102	-11.388
▁bind	-11.3882
▁Middels	-11.3883
gelbed	-11.3894
▁mijn	-11.3915
▁Ileumslijmvlies	-11.392
▁Gene	-11.3925
haardjes	-11.3927
▁cardiale	-11.3931
232	-11.3937
AX	-11.3943
▁kop	-11.3953
▁overal	-11.3955
2040	-11.3965
▁lesiona	-11.397
▁dergelijk	-11.397
▁hydro	-11.3974
scapulair	-11.3974
185	-11.3982
tracht	-11.3992
zonder	-11.4015
29	-11.4016
wangerschapsrest	-11.4028
234	-11.4037
78	-11.4049
SO	-11.4057
Zij	-11.4059
lijden	-11.4089
iPA	-11.4095
bronchus	-11.4097
Middels	-11.4098
gemedieerd	-11.4099
tijd	-11.4099
traject	-11.41
scapula	-11.41
verhoornend	-11.41
aanvullend	-11.4101
verslag	-11.4101
Ter	-11.4105
kuit	-11.411
Maagbiopten	-11.4117
meer	-11.4126
kl	-11.413
cellige	-11.4132
1902	-11.4141
gene	-11.4147
▁tr	-11.4154
▁oesophagusbiopt	-11.4155
metastasen	-11.4162
ph	-11.417
SS	-11.4178
▁overlap	-11.419
Aan	-11.419
▁pericard	-11.4198
▁vera	-11.4203
reparaten	-11.4205
▁uitloper	-11.4206
wenst	-11.4207
▁zenuw	-11.4207
▁commiss	-11.4209
▁WDP	-11.4209
▁additione	-11.4209
▁CVU	-11.4209
▁Pityrosporum	-11.4209
▁chemoradiatie	-11.4209
▁migrans	-11.4209
▁thyreoiditis	-11.4209
▁Hirschsprung	-11.421
▁carcinomatosa	-11.421
▁graft	-11.421
▁rearrangement	-11.421
▁voorgrond	-11.421
▁Bcl	-11.421
▁Bench	-11.421
▁gestuwd	-11.421
▁parametri	-11.421
▁gangrenosum	-11.421
▁steenlijden	-11.421
▁miniem	-11.421
mamillair	-11.421
▁myocardinfarct	-11.421
▁afwachten	-11.421
▁funiculus	-11.421
▁epidermoidcyste	-11.421
▁TMB	-11.421
▁second	-11.421
▁IgAdeficientie	-11.421
▁ectopisch	-11.421
▁chromosomale	-11.421
▁doorgevoerd	-11.421
xtracapsulair	-11.421
▁endoscopisch	-11.421
▁Vocht	-11.4211
NOD	-11.4214
▁comedo	-11.4215
▁plekje	-11.4216
▁multiple	-11.4217
▁Loka	-11.4217
▁heterogen	-11.4221
▁Keratine	-11.4223
▁Mucosa	-11.4224
▁gedeelte	-11.4225
▁BRAFgen	-11.4226
lateraal	-11.4227
▁uVIN	-11.4228
▁array	-11.4232
pathologisch	-11.4235
▁ac	-11.4236
▁Congorood	-11.4237
▁epitheelcyste	-11.4241
▁antrumbiopt	-11.4242
▁techniek	-11.4244
delen	-11.4247
▁Linker	-11.4247
▁Methylation	-11.4248
▁bp	-11.4253
stroma	-11.4255
▁437	-11.4257
▁Ner	-11.4259
▁chemisch	-11.4261
▁Obductie	-11.4267
ti	-11.4267
▁jun	-11.4271
▁hepat	-11.4272
inds	-11.4274
▁subtota	-11.4278
oging	-11.4281
▁Weefselfragment	-11.4282
▁vergelijkba	-11.4284
▁structuur	-11.4302
laaggradig	-11.4309
158	-11.4321
maligne	-11.4336
nr	-11.4354
▁carina	-11.4362
▁r	-11.4366
005	-11.4367
GP	-11.4373
▁omgeven	-11.4373
heen	-11.4376
waar	-11.441
snijden	-11.442
▁dergelijke	-11.4455
1633	-11.4461
▁linkeroog	-11.4466
▁AB	-11.4469
▁papillomateus	-11.4471
achten	-11.4478
265	-11.4484
huidbiopt	-11.4486
man	-11.4487
171	-11.4506
afwijking	-11.4506
▁Ver	-11.4506
ert	-11.4517
naevus	-11.4532
spraak	-11.454
iv	-11.4541
184	-11.4542
dm	-11.4544
LETZ	-11.4552
lateral	-11.4553
obductie	-11.4554
Archer	-11.4554
Histologisch	-11.4557
▁retroperitonea	-11.4564
136	-11.4566
naad	-11.4571
▁methylering	-11.4586
atief	-11.4588
oment	-11.4596
▁dermatologie	-11.4597
visc	-11.4598
CW	-11.4606
▁Diepe	-11.4618
▁pseudocyste	-11.4621
▁vaatwand	-11.4622
▁sh	-11.4623
76	-11.4625
▁zwar	-11.463
▁bo	-11.4632
▁mons	-11.4649
46	-11.4649
rijk	-11.4652
▁CM	-11.4653
reslow	-11.4656
▁lymfomato	-11.4661
BREID	-11.4664
hvd	-11.4664
wwwMolOncoPathnl	-11.4664
▁penetr	-11.4664
CROMETASTASEN	-11.4664
Elektronen	-11.4664
RESECTIEVLAK	-11.4664
clitor	-11.4664
▁DIAGNOSTIEK	-11.4664
▁Jessner	-11.4664
▁Sputum	-11.4664
▁TUMORCELLEN	-11.4664
▁bijeenkomst	-11.4664
▁chalazion	-11.4664
▁continu	-11.4664
▁endofytisch	-11.4664
▁fasciitis	-11.4664
▁geperforeerd	-11.4664
▁gynaecoloog	-11.4664
▁januari	-11.4664
▁micronoduli	-11.4664
▁pijpje	-11.4664
▁verdwijn	-11.4664
▁MICROMETASTASEN	-11.4664
▁arterioveneu	-11.4664
▁papulose	-11.4664
▁dmv	-11.4664
▁subcornea	-11.4664
▁associatie	-11.4664
geboren	-11.4664
▁zichtbaar	-11.4664
▁truncus	-11.4664
▁merendeel	-11.4664
▁syringoom	-11.4664
▁angiosarcoom	-11.4664
helder	-11.4664
▁mannelijk	-11.4664
▁vaatrijk	-11.4664
matofibrosarcoma	-11.4665
▁PeIN	-11.4665
STRO	-11.4665
▁Hodgkinlymfoom	-11.4665
▁Melan	-11.4665
▁prog	-11.4665
▁crustavorming	-11.4666
neemt	-11.4666
Eerst	-11.4666
▁Vrij	-11.4666
▁conventione	-11.4667
▁aanvrager	-11.4667
▁diabetes	-11.4667
▁zenuwweefsel	-11.4667
setting	-11.4669
▁tumorcelkernen	-11.4669
▁vaginawand	-11.4669
▁AIS	-11.4672
▁gemeten	-11.4672
▁spoelvormig	-11.4673
▁condylomateuze	-11.4674
hof	-11.4675
▁membraan	-11.4677
▁kapseldoorbraak	-11.4677
▁bodemsnijvlak	-11.4677
▁Vacuum	-11.4679
▁doorgegeven	-11.4679
▁CDX	-11.468
bN	-11.4685
▁erytroid	-11.4687
ty	-11.469
huidexcisie	-11.4692
▁maagcarcinoom	-11.4701
▁Sneevlak	-11.4701
1516	-11.4705
▁insertie	-11.4708
PT	-11.4709
▁acht	-11.471
DK	-11.4711
▁loop	-11.4712
Vm	-11.4715
▁62	-11.4716
]5	-11.4718
▁Van	-11.4718
ous	-11.4719
cytomorfologisch	-11.4719
▁huidstans	-11.4721
▁resterend	-11.4734
▁clusters	-11.4736
▁deficientie	-11.4737
▁pVal	-11.4742
th	-11.4751
kop	-11.4756
▁waarden	-11.4762
▁OS	-11.4767
▁thymus	-11.4767
vergrot	-11.4786
▁haemato	-11.4787
▁ic	-11.481
plasmacellulair	-11.4811
Af	-11.4815
klierprocedure	-11.4819
215	-11.482
able	-11.4849
▁bal	-11.4856
His	-11.4858
Abortuscurettage	-11.486
144	-11.486
fronta	-11.4873
neoplasie	-11.4873
▁linkerventrikel	-11.4873
▁portio	-11.4877
▁mesenteria	-11.4888
rom	-11.4891
▁feit	-11.49
▁talgklieren	-11.4906
▁acantholytisch	-11.4908
▁51	-11.4908
▁prominent	-11.4912
steed	-11.4916
▁AM	-11.4919
pt	-11.492
immuno	-11.4925
▁corpusbiopt	-11.4959
▁Betref	-11.4963
waarschijnlijk	-11.4965
nier	-11.4965
RON	-11.4968
tukje	-11.4971
▁achtig	-11.4979
nale	-11.4987
kt	-11.499
dometriosecyste	-11.4997
▁Adeno	-11.5
os	-11.5008
▁68	-11.5019
litteken	-11.5019
medicamenteuze	-11.503
lhoe	-11.503
circulatie	-11.503
nodig	-11.503
Definitief	-11.5031
atrofie	-11.5031
diagnostiek	-11.5031
Diameter	-11.5031
psoriasis	-11.5031
Celrijk	-11.5031
endometrium	-11.5032
OG	-11.5032
pols	-11.5032
▁iP	-11.5044
Vl	-11.5047
vo	-11.5049
▁Vaso	-11.5051
134	-11.5053
151	-11.5056
▁Neusslijmvlies	-11.5057
▁helicobacters	-11.507
▁grenzen	-11.5087
ep	-11.5098
▁EZ	-11.5099
▁femor	-11.51
dup	-11.5104
▁grove	-11.5122
▁optima	-11.5125
▁patholog	-11.5126
▁Extra	-11.5127
▁glomerul	-11.5135
enemen	-11.5135
148	-11.5138
ctive	-11.5139
esluit	-11.5139
▁cholesterol	-11.514
▁transuret	-11.514
Lymfangioinvasie	-11.514
▁37151821	-11.514
▁Lobectomie	-11.514
▁PARPremmers	-11.514
▁acuminata	-11.514
▁antibod	-11.514
▁bemoeilijkt	-11.514
▁cervicitis	-11.514
▁diastase	-11.514
▁etmoid	-11.514
▁geinterpreteerd	-11.514
▁homozygo	-11.514
▁instrumentatie	-11.514
▁lymfangiectasie	-11.514
▁oncocytoom	-11.514
▁parietalis	-11.514
▁uitwendig	-11.514
▁vergeleken	-11.514
▁vitiligo	-11.514
▁flow	-11.514
▁gemiddeld	-11.514
▁gerangschikt	-11.514
▁ingevroren	-11.514
▁scopie	-11.514
▁adenomatoid	-11.514
▁hyperkeratotica	-11.514
▁endotheel	-11.514
▁porokeratose	-11.514
▁hepatocyten	-11.514
▁belang	-11.514
▁linkerknie	-11.514
gevangen	-11.514
▁tripl	-11.514
ml	-11.514
▁georganiseerd	-11.514
▁poroom	-11.5141
myxoma	-11.5141
▁tru	-11.5141
rova	-11.5142
▁EN	-11.5142
▁klierbuisjes	-11.5142
▁Urineblaas	-11.5142
▁verwijderen	-11.5142
▁verdien	-11.5142
▁ganglioncellen	-11.5143
▁acetabulum	-11.5143
▁protuberans	-11.5143
▁stimulatie	-11.5143
124	-11.5144
▁Circumcisie	-11.5145
▁codeleti	-11.5145
▁MAR	-11.5146
▁abcessen	-11.5148
Cw	-11.5149
▁Afwijking	-11.5154
AAn	-11.5159
▁SWK	-11.5159
▁VRI	-11.5161
retroperitoneaal	-11.5161
▁synoviale	-11.5162
▁tubulusatrofie	-11.5165
hypermethylering	-11.517
stein	-11.5176
▁Microscopisch	-11.5182
▁Risk	-11.5187
▁73	-11.5188
▁Rechter	-11.519
▁Rechts	-11.5192
▁va	-11.5194
▁concentratie	-11.5198
▁pTis	-11.5199
1823	-11.5204
sneden	-11.5206
▁medicamenteus	-11.5209
▁obturatori	-11.521
ica	-11.5214
▁Patient	-11.5215
▁orbita	-11.522
▁incisiebiopt	-11.5222
▁Ulceratie	-11.5225
▁Diagnostisch	-11.5227
omheen	-11.5228
schildkliernodus	-11.523
149	-11.5234
▁hypo	-11.5239
nvasief	-11.5244
▁uitslagen	-11.5249
kleuringspatroon	-11.5249
▁MM	-11.5255
eci	-11.5261
pathogene	-11.5266
ekenen	-11.5274
ist	-11.5274
Tota	-11.5284
level	-11.5287
▁Longspoel	-11.5291
▁XI	-11.5306
kel	-11.5307
▁longtumor	-11.5319
ary	-11.5338
201	-11.5348
95	-11.5353
▁verlittekend	-11.5354
fenotypisch	-11.536
▁immuuncytochemi	-11.5371
▁abdominal	-11.5378
▁urothelial	-11.5399
komen	-11.54
▁Bijnier	-11.5414
Mammabiopt	-11.5436
rend	-11.5458
fs	-11.5464
545	-11.5478
gave	-11.5498
ier	-11.5499
Maag	-11.5503
Amplificatie	-11.5524
▁Buik	-11.5525
homogen	-11.5525
innemend	-11.553
kapsel	-11.5531
verkregen	-11.5531
overweging	-11.5531
Biopsie	-11.5531
Differentiaal	-11.5531
consult	-11.5531
vasculitis	-11.5531
719	-11.5532
Beenmergbiopt	-11.5533
MMR	-11.5533
▁pas	-11.5535
ZN	-11.5536
micro	-11.5541
542	-11.5551
poliepje	-11.556
bekleding	-11.5562
icrocalcificatie	-11.5578
▁wil	-11.5583
▁late	-11.5583
▁ovari	-11.5591
204	-11.5593
▁vesikel	-11.5597
▁ziekenhui	-11.56
▁lymfoplasmocyt	-11.5611
61014	-11.5625
▁PDGFR	-11.5628
▁sign	-11.5629
03	-11.5633
Basal	-11.5634
▁structure	-11.5635
redictie	-11.5637
erdacht	-11.5638
staart	-11.5639
econd	-11.564
▁intima	-11.564
rangschik	-11.564
MOTILITEIT	-11.564
Concluderend	-11.564
jwz	-11.564
▁Eczeem	-11.564
▁Fusion	-11.564
▁appendectomie	-11.564
▁carcinosarcoom	-11.564
▁exantheem	-11.564
▁gemist	-11.564
▁geregistreerd	-11.564
▁getromboseerd	-11.564
▁ingescand	-11.564
▁lepidisch	-11.564
▁ongebruikelijk	-11.564
▁pleuritis	-11.564
▁ribben	-11.564
▁substr	-11.564
▁zweetklier	-11.564
▁Meest	-11.564
▁fijn	-11.564
▁netto	-11.564
DUCT	-11.564
KLINI	-11.564
▁necrobios	-11.564
▁orofarynx	-11.564
▁myxoom	-11.564
▁aberrant	-11.564
▁junctie	-11.564
cfz	-11.564
▁followup	-11.564
▁Overwegen	-11.5641
▁cMYC	-11.5641
neerslag	-11.5641
▁Sweet	-11.5641
▁FOX	-11.5641
▁host	-11.5641
Als	-11.5642
splitsing	-11.5643
▁Cystevocht	-11.5643
▁INTERPRETATIE	-11.5643
▁infestatie	-11.5643
▁Alcian	-11.5643
▁Administratie	-11.5643
▁agens	-11.5644
▁myelodysplasie	-11.5645
ift	-11.5645
▁pGlu	-11.5646
▁versie	-11.5646
▁Littekenweefsel	-11.5647
▁placentavlokken	-11.565
▁radiatie	-11.565
▁gynaecologi	-11.5652
▁mycobacterien	-11.5655
▁functione	-11.5656
▁buikholte	-11.5656
▁Tlymfocyten	-11.5656
▁inactivatie	-11.5659
▁stopcodon	-11.566
▁rechterbil	-11.5661
▁vasectomie	-11.5661
▁predominant	-11.5661
▁ablatie	-11.5662
▁uiteindelijk	-11.5663
▁Resulta	-11.5663
▁fibroglandulair	-11.5665
▁geinduceerd	-11.5666
▁nasal	-11.5667
grade	-11.5667
▁Protocollair	-11.5672
▁restmaligniteit	-11.5672
GK	-11.5674
▁biopteren	-11.5675
123	-11.5684
▁EXTRA	-11.5689
▁biopsiename	-11.5692
▁Links	-11.5695
▁grenzend	-11.5696
▁Naast	-11.5697
▁ABC	-11.5703
▁patienten	-11.5721
bronchi	-11.5724
▁Aspecifiek	-11.5729
60	-11.5729
▁excisieranden	-11.573
best	-11.5735
157	-11.5743
satelliethaarden	-11.575
▁Lu	-11.5754
leol	-11.5755
Duodenum	-11.5768
Bronchus	-11.5768
▁megakaryo	-11.5769
91	-11.5772
pi	-11.5787
▁out	-11.5788
▁57	-11.5789
vrij	-11.5793
▁im	-11.5805
sis	-11.5813
159	-11.5814
▁gaand	-11.5831
00	-11.5831
▁process	-11.584
▁Num	-11.5842
eur	-11.5845
bil	-11.5864
2019	-11.5871
3000	-11.5886
▁tumordikte	-11.5901
278	-11.5907
1500	-11.5909
gemeen	-11.5909
genoemde	-11.5915
SH	-11.5917
▁Maagcorpusbiopt	-11.5925
TB	-11.5927
▁pTNM	-11.5951
▁Synovium	-11.5954
bed	-11.596
▁Incisie	-11.5968
▁retroa	-11.5977
EVE	-11.5978
intestinale	-11.6
rechts	-11.6006
2023	-11.6008
▁MP	-11.6013
pl	-11.6019
gebruik	-11.6026
039	-11.6031
Colon	-11.6039
ton	-11.6042
▁subacu	-11.6043
reerde	-11.6046
▁84	-11.6048
reeks	-11.6053
verval	-11.6053
structuur	-11.6055
Panel	-11.6057
hotspot	-11.6057
IDH	-11.6057
elleboog	-11.6057
variatie	-11.6057
WHO	-11.6057
sprieterig	-11.6058
▁neusga	-11.6058
toename	-11.6063
Ser	-11.6081
▁flard	-11.6089
Leu	-11.614
ovarium	-11.6146
epidermaal	-11.615
nomen	-11.6157
▁Wig	-11.6157
ubulovilleu	-11.6163
enminste	-11.6163
169	-11.6163
ericardvocht	-11.6164
innen	-11.6164
erwerkt	-11.6166
▁aangepast	-11.6167
PGMProton	-11.6167
schappe	-11.6167
▁CHPv	-11.6167
▁Laparoscopisch	-11.6167
▁decalvans	-11.6167
▁farynx	-11.6167
▁funisitis	-11.6167
▁intramura	-11.6167
▁paracolisch	-11.6167
▁reanimatie	-11.6167
▁sterilisatie	-11.6167
▁subcapsulair	-11.6167
▁traumatisatie	-11.6167
▁tuberculose	-11.6167
▁verbrokkeld	-11.6167
▁verwantschap	-11.6167
▁database	-11.6167
▁tubulopathie	-11.6167
▁bijnierschors	-11.6167
▁brede	-11.6167
▁buismaag	-11.6167
▁giardiasis	-11.6167
▁xanthogranulo	-11.6167
▁erythropoiese	-11.6167
▁wijsvinger	-11.6167
10121516	-11.6167
▁arteriosclerose	-11.6167
▁microbiologisch	-11.6167
▁cyclus	-11.6167
kalib	-11.6167
▁alveolaris	-11.6167
▁twijfel	-11.6167
▁implicaties	-11.6167
▁lues	-11.6167
▁glioblastoma	-11.6167
▁medullair	-11.6167
▁kiemceltumor	-11.6167
▁paratracheaal	-11.6167
▁Bijschildklier	-11.6167
falan	-11.6167
▁naschrift	-11.6167
Samenvattend	-11.6168
cryptinvolvement	-11.6168
▁Vaginatop	-11.6168
▁destructie	-11.6168
ROGE	-11.6168
199	-11.6169
▁fistelgang	-11.6169
▁zeven	-11.617
▁afgegeven	-11.617
▁Diffu	-11.617
▁apoptose	-11.617
▁bekeken	-11.617
▁schimmelsporen	-11.617
▁tenosynovia	-11.617
▁zenuwschede	-11.617
Prognostisch	-11.617
▁pleomorf	-11.6171
▁splijting	-11.6171
▁Zoon	-11.6171
▁nierparenchym	-11.6174
▁Reed	-11.6174
▁Controle	-11.6174
xtra	-11.6174
▁botvorming	-11.6175
▁Grocott	-11.6176
▁gevormd	-11.6176
▁microbiologie	-11.6176
▁cytogenetica	-11.6176
▁Uteruscurettage	-11.6179
226	-11.618
▁Subtota	-11.6181
▁hieronder	-11.6181
▁rechtervoet	-11.6182
▁Word	-11.6183
▁littekengebied	-11.6183
▁pArg	-11.6187
▁perirena	-11.6191
Sr	-11.6192
▁cryptabcesje	-11.6192
▁lymfohistiocyt	-11.6193
eosinofiele	-11.6193
▁Regiona	-11.6194
▁extracapillair	-11.6197
▁neg	-11.6197
137	-11.62
▁Ander	-11.6207
▁celhyperplasie	-11.6213
▁vat	-11.6215
▁dermatitisbeeld	-11.622
▁blaastumor	-11.6222
086	-11.6226
dan	-11.6231
gedrag	-11.6237
▁ileumbiopt	-11.6238
do	-11.6248
BI	-11.6252
197	-11.6254
Volledigheid	-11.6267
▁sigmoidresectie	-11.6269
elders	-11.6275
iliaire	-11.6289
▁ga	-11.6311
▁lang	-11.6323
▁lymfoepithelia	-11.6324
normaal	-11.6332
j	-11.6342
1913	-11.6345
▁Stans	-11.6346
pre	-11.6349
erd	-11.635
▁blaasbiopt	-11.6356
▁geel	-11.6359
itie	-11.6372
17146	-11.6373
▁radi	-11.6383
Mede	-11.6384
1047	-11.6386
▁PERI	-11.6386
og	-11.6388
344	-11.6391
2001	-11.6399
235	-11.6399
601	-11.6422
▁levernaaldbiopt	-11.6427
buisjes	-11.6443
lyse	-11.6448
ERBB	-11.6453
▁Pancreas	-11.6476
▁bovenstaand	-11.6487
▁doorgemaakt	-11.6488
▁Lichen	-11.6495
gebracht	-11.6504
zie	-11.6507
▁Gradering	-11.6512
208	-11.6517
infectie	-11.6519
▁differentiat	-11.6524
sluiten	-11.6536
▁Omentum	-11.6539
EE	-11.6544
▁gebruikt	-11.6555
▁Perife	-11.6563
sarcoom	-11.6563
ASS	-11.6573
br	-11.6573
▁Volume	-11.6578
achtig	-11.6588
vaten	-11.6589
site	-11.659
waarde	-11.659
kleur	-11.6593
laag	-11.6597
▁histo	-11.6603
1410	-11.6604
Steel	-11.6607
falen	-11.661
virus	-11.6611
Sterk	-11.6612
keratose	-11.6612
Maxima	-11.6612
EBUS	-11.6613
revisie	-11.6613
moleculair	-11.6613
recidief	-11.6613
mogelijk	-11.6613
regressie	-11.6614
basis	-11.6614
▁vagin	-11.6614
126	-11.6615
CMV	-11.6615
necrotiserende	-11.6617
nek	-11.6631
MP	-11.6633
pigment	-11.6637
2113	-11.6646
2301	-11.6649
enkel	-11.6657
poelvocht	-11.666
typen	-11.6667
▁emfysemateu	-11.6678
58	-11.6679
▁lichaam	-11.6681
tadium	-11.6681
▁Nerv	-11.669
ntraepidermal	-11.6711
918	-11.6719
050	-11.6722
▁amyloAd	-11.6722
▁suppurati	-11.6722
centrifug	-11.6722
▁tricholemma	-11.6722
▁dysmegakaryopo	-11.6722
epiglottis	-11.6722
troebel	-11.6722
▁Kliniek	-11.6722
▁Malherbe	-11.6722
▁cholesteatoom	-11.6722
▁fraai	-11.6722
▁grillig	-11.6722
▁inversum	-11.6722
▁verstuurd	-11.6722
▁methylatie	-11.6722
Bacterie	-11.6722
▁parailiaca	-11.6722
▁atroficus	-11.6722
▁aantonen	-11.6722
▁MPNST	-11.6722
POT	-11.6722
▁dikwandig	-11.6722
746_	-11.6722
▁MALTlymfoom	-11.6722
▁vaak	-11.6722
▁presentatie	-11.6722
▁atrium	-11.6722
▁Variati	-11.6722
▁Parotis	-11.6723
▁thymoom	-11.6723
for	-11.6723
ositeit	-11.6723
▁week	-11.6723
▁acne	-11.6723
▁parotidectomie	-11.6724
▁intens	-11.6724
▁somatisch	-11.6724
▁breedte	-11.6725
▁cutis	-11.6725
▁placentabed	-11.6725
▁vaginalis	-11.6725
▁MOHS	-11.6726
▁vrouwelijk	-11.6726
▁CDLE	-11.6726
▁testisparenchym	-11.6727
▁gastric	-11.6727
▁preventie	-11.6729
▁jaren	-11.6729
KEN	-11.6729
▁antrumcorpus	-11.673
▁oorschelprand	-11.6731
▁Radical	-11.6731
▁fixatie	-11.6732
▁expansie	-11.6732
▁organisatie	-11.6732
▁gebouwd	-11.6732
▁to	-11.6732
Seq	-11.6733
▁rechterlong	-11.6733
260	-11.6733
▁immunotherapie	-11.6733
▁2467	-11.6734
▁darmwand	-11.6736
▁HEcoupe	-11.6737
decidualis	-11.6737
258	-11.6738
▁flor	-11.674
delins	-11.6741
▁cardiomyopathie	-11.6743
▁Uitstrijk	-11.6744
▁nestje	-11.6744
nh	-11.6744
▁apart	-11.6745
och	-11.6745
▁biopsielitteken	-11.6748
GG	-11.6749
▁Volgen	-11.6751
leverhilus	-11.6753
▁nierweefsel	-11.6755
▁tumornegatief	-11.6757
▁Atypie	-11.6758
▁nodi	-11.6758
ppendicitis	-11.6762
]20160	-11.6767
▁overlegd	-11.6767
▁Fibrose	-11.6768
▁verdeling	-11.6769
▁trombo	-11.677
▁scherp	-11.6771
zij	-11.6775
254	-11.6775
▁Ec	-11.6777
▁Proxima	-11.6777
Leverbiopt	-11.6778
ium	-11.6782
▁biliaire	-11.6788
39	-11.6788
aalf	-11.6789
▁aanvragend	-11.6796
IE	-11.6796
2000	-11.6802
▁linksrechts	-11.6804
▁pyoge	-11.6805
733	-11.6808
866	-11.6811
core	-11.6812
ystectomie	-11.6819
21415	-11.6823
▁Reik	-11.6827
sgraad	-11.6839
▁Non	-11.6841
▁prep	-11.6842
rogressief	-11.6843
▁con	-11.6843
▁tumorgroei	-11.6845
▁PD	-11.6849
▁celpopulaties	-11.6855
▁53	-11.6857
▁specie	-11.6892
ga	-11.6895
▁Mond	-11.6904
▁than	-11.6905
▁graderings	-11.6926
▁polypoide	-11.6927
lagen	-11.6929
lever	-11.6939
▁Gele	-11.6942
▁cortical	-11.6943
▁Tepel	-11.6965
▁capillairen	-11.6967
ies	-11.6972
116	-11.6982
oma	-11.6987
▁dist	-11.6993
otiliteit	-11.7003
▁imm	-11.7007
▁MCL	-11.7017
▁86	-11.7022
ontactallergisch	-11.7024
aden	-11.7024
IEN	-11.7029
▁buisje	-11.7031
▁col	-11.7035
▁ov	-11.7052
ill	-11.7053
che	-11.7057
▁bi	-11.7065
▁multinodulair	-11.7068
▁VCM	-11.7068
lders	-11.707
804	-11.7083
gere	-11.7089
▁74	-11.7092
▁respiratoire	-11.7098
240	-11.7101
tot	-11.7105
2214	-11.7105
▁PET	-11.7111
▁renal	-11.7141
268	-11.7147
188	-11.7148
▁bronchusspoel	-11.7158
_00	-11.7165
▁vesiculae	-11.7179
Prostaat	-11.7183
▁Maagantrumbiopt	-11.7184
degeneratie	-11.7184
▁darmbiopt	-11.7188
TRK	-11.7191
▁capillaire	-11.7196
Microscopie	-11.7197
gemerkt	-11.7198
gewricht	-11.7199
1514	-11.7201
Punctaat	-11.7201
middenkwab	-11.7201
schade	-11.7201
conclusie	-11.7201
▁AANVULLING	-11.7207
▁IP	-11.721
▁Trans	-11.7211
ISIE	-11.7214
naar	-11.722
Prostaatbiopten	-11.722
ature	-11.723
▁areola	-11.7242
▁gest	-11.7243
107	-11.7244
Web	-11.7249
1710	-11.7258
CTI	-11.7259
eling	-11.7263
▁pustul	-11.7267
▁Cu	-11.7272
nb	-11.7275
typering	-11.7276
101	-11.7277
iment	-11.7278
▁gist	-11.7279
▁pulmona	-11.7279
▁glaasje	-11.728
▁ijzerdepositie	-11.728
▁aneurysma	-11.7283
▁weg	-11.7283
▁cerebell	-11.7289
▁cytoplasma	-11.729
▁Ex	-11.7293
▁flegmoneu	-11.7298
gevuld	-11.7299
▁dys	-11.73
▁breed	-11.7308
verwogen	-11.7308
itosen	-11.7308
atellitose	-11.731
▁regel	-11.731
Hyperkeratotisch	-11.731
asmaceldyscrasie	-11.731
udeerd	-11.731
zamen	-11.731
▁Chisholm	-11.731
▁Sturm	-11.731
▁angiokeratoom	-11.731
▁architectural	-11.731
▁bloedvaatje	-11.731
▁cholestase	-11.731
▁geinfarceerd	-11.731
▁gesuggereerd	-11.731
▁getraumatiseerd	-11.731
▁graftversushost	-11.731
▁ihk	-11.731
▁omslagplooi	-11.731
▁pemfigus	-11.731
▁pink	-11.731
▁potentie	-11.731
▁sommige	-11.731
▁stereotactisch	-11.731
▁submuceu	-11.731
Vraagstelling	-11.731
▁classifier	-11.731
▁richtlijn	-11.731
▁spreken	-11.731
large	-11.731
▁SDH	-11.731
▁aplastisch	-11.731
▁funiculitis	-11.731
▁hemorroid	-11.731
▁cicatrici	-11.731
▁klonale	-11.731
▁ijzerstapeling	-11.731
myxofibrosarcoom	-11.731
Histocytologisch	-11.7311
▁histiocyten	-11.7311
▁mesotheliomen	-11.7311
▁begrensd	-11.7311
▁immunologie	-11.7311
▁glia	-11.7311
embol	-11.7311
▁stam	-11.7311
▁phyllodestumor	-11.7311
▁intramammair	-11.7312
▁thrombus	-11.7312
▁ulnair	-11.7312
▁spermati	-11.7312
▁Genetica	-11.7312
▁Beck	-11.7313
▁genfusie	-11.7313
▁only	-11.7313
▁MEK	-11.7313
Receptorstatus	-11.7313
oduodenal	-11.7314
▁gefibroseerd	-11.7314
▁slijmnap	-11.7314
▁Zou	-11.7314
▁bronchiaal	-11.7315
▁pericardvocht	-11.7315
▁mucoid	-11.7319
▁detectie	-11.7321
▁lymffollikel	-11.7321
▁vezel	-11.7321
▁leiomyomatos	-11.7321
▁NHL	-11.7322
▁linkerlong	-11.7322
2010	-11.7322
▁capillaritis	-11.7322
▁Hierdoor	-11.7324
▁pir	-11.7327
▁hematopoAse	-11.7328
flux	-11.7328
176	-11.7329
kwabben	-11.7334
▁MLPA	-11.7334
▁Ewing	-11.7334
middels	-11.7334
▁daarna	-11.7335
▁zijresectierand	-11.7335
▁cystisch	-11.7338
▁technisch	-11.734
Vr	-11.7342
▁2008	-11.7343
223	-11.7344
65	-11.7346
▁ingesneden	-11.735
▁bv	-11.7351
▁neuspoliepen	-11.7352
▁septal	-11.7358
cor	-11.7363
▁2009	-11.7365
im	-11.7368
▁Schildwacht	-11.7372
▁linea	-11.7375
▁intravasculair	-11.7383
▁bestralings	-11.7384
▁voorvoet	-11.7391
▁lamellen	-11.7396
▁marginaal	-11.7397
Buikvocht	-11.7398
▁Cervixbiopsie	-11.7399
▁Pipellebiopt	-11.7402
cr	-11.7408
anitis	-11.7412
▁incontinentie	-11.7412
tracheaal	-11.7413
vi	-11.7413
Tel	-11.7417
▁mammabiopt	-11.7429
▁AS	-11.7433
▁On	-11.744
▁maagcardiatype	-11.7456
overgangs	-11.7472
ocatie	-11.7478
RIP	-11.7485
cal	-11.7498
▁hoogst	-11.7506
▁hepatic	-11.7509
▁stations	-11.7509
320	-11.7514
▁Lip	-11.7523
TUR	-11.7526
▁Vulvabiopten	-11.7531
▁jonge	-11.7552
▁Synoviumbiopt	-11.7555
1530	-11.7557
2110	-11.756
▁effecten	-11.7577
2215	-11.7578
toi	-11.7582
89	-11.7586
▁loge	-11.7591
2116	-11.7607
▁erytro	-11.7626
tation	-11.7631
▁osteo	-11.7631
snijranden	-11.7642
▁Vriescoupes	-11.7644
▁PCC	-11.7646
▁82	-11.7652
zo	-11.7663
ypering	-11.7664
1415	-11.767
KT	-11.767
▁overig	-11.7691
artefacten	-11.77
▁halsklier	-11.7702
▁geleid	-11.7705
▁basaloid	-11.771
▁Lipbiopt	-11.7733
245	-11.7734
▁radio	-11.7737
▁Mondslijmvlies	-11.7738
uin	-11.774
gl	-11.7751
▁MED	-11.7759
choriale	-11.7764
Lever	-11.7765
028	-11.7766
236	-11.7768
edebeoordeling	-11.7777
▁sperm	-11.7782
syndroom	-11.7789
▁verm	-11.7798
▁jugul	-11.7798
▁RIC	-11.7802
▁orient	-11.7812
105	-11.7814
▁2004	-11.782
459	-11.7822
Ulceratie	-11.7824
vital	-11.7824
Metastase	-11.7825
NIEUW	-11.7825
relevant	-11.7825
MARGE	-11.7825
Kleuring	-11.7826
actief	-11.7826
Botbiopt	-11.7826
niveau	-11.7826
DEFINITIEF	-11.7826
buis	-11.7826
▁retroperitone	-11.7828
Nierbiopt	-11.7828
▁111	-11.7832
focaal	-11.7834
Blaas	-11.7837
bedr	-11.7839
▁dik	-11.7843
▁polycyth	-11.7849
▁erythemateu	-11.7856
per	-11.7862
▁200	-11.7863
▁Groot	-11.7875
assing	-11.7876
▁78	-11.7877
▁chr	-11.7878
bo	-11.7879
vol	-11.7887
1612	-11.7887
2203	-11.7898
▁vergro	-11.7898
ci	-11.7899
XI	-11.7912
▁tangentie	-11.7916
172	-11.7919
operatieve	-11.792
rad	-11.7922
delingse	-11.7927
▁samenhang	-11.793
▁chirurg	-11.793
▁verklaar	-11.793
elefonisch	-11.7931
▁phyllodes	-11.7934
▁pancreatico	-11.7935
legmoneuze	-11.7935
▁orchidectomie	-11.7935
ICULA	-11.7935
SPECIMEN	-11.7935
termijn	-11.7935
▁Breu	-11.7935
▁Dermatofibroom	-11.7935
▁MGUS	-11.7935
▁PASdiastase	-11.7935
▁SjAgren	-11.7935
▁Sprieterig	-11.7935
▁fibrinopurulent	-11.7935
▁hemorrhagisch	-11.7935
▁lipomatosus	-11.7935
▁mastoid	-11.7935
▁mediastinaal	-11.7935
▁miniscu	-11.7935
▁sectio	-11.7935
▁urachus	-11.7935
▁adhesie	-11.7935
▁androgenetica	-11.7935
▁inwendig	-11.7935
▁variabel	-11.7935
KSFJBE	-11.7935
▁Waldenstrom	-11.7935
▁angioleiomyoom	-11.7935
▁hysterectom	-11.7935
▁zijwaarts	-11.7935
▁seminalis	-11.7935
▁ATR	-11.7935
▁accessoir	-11.7935
▁LBQ	-11.7935
▁Aanwijzing	-11.7936
▁renaal	-11.7936
▁staafjes	-11.7936
▁blanco	-11.7936
▁glomerulopathie	-11.7936
▁thrombose	-11.7936
▁geinc	-11.7936
flowcytometrisch	-11.7936
▁strikt	-11.7936
▁Diepteinvasie	-11.7936
▁synoviitis	-11.7936
▁Myometrium	-11.7936
▁tubulitis	-11.7936
EPIC	-11.7937
▁ZNkleuring	-11.7937
▁mix	-11.7937
▁haren	-11.7937
▁Gram	-11.7937
VOLG	-11.7937
▁bekkenwand	-11.7938
▁LAD	-11.7938
▁excideren	-11.7939
▁Ileocoecaal	-11.7939
▁antilichaam	-11.7939
▁Secundair	-11.7939
▁nevenbevinding	-11.7939
▁lymfangioom	-11.7939
▁antrumgastritis	-11.794
bevindingen	-11.794
▁ovarieel	-11.794
▁verhevenheid	-11.7941
▁monoto	-11.7941
▁bod	-11.7943
469	-11.7945
▁telken	-11.7946
▁Rectosigmoid	-11.7946
▁MIB	-11.7947
▁signalen	-11.7947
▁immuuncomplex	-11.7948
▁CISH	-11.7948
mark	-11.7951
▁indruk	-11.7952
▁puncties	-11.7952
▁doel	-11.7953
▁Even	-11.7954
▁rapport	-11.7954
▁hiel	-11.7954
▁vasculitisbeeld	-11.7954
▁epitheelatypie	-11.7955
jwjs	-11.7955
▁Latera	-11.7957
768	-11.7959
▁rustig	-11.7961
▁genamplificatie	-11.7962
car	-11.7962
▁tonsillair	-11.7962
▁Prostaatbiopt	-11.7962
epithelioom	-11.7965
▁poli	-11.7968
▁ophoping	-11.7968
gevoeligheid	-11.7969
▁Barrettmucosa	-11.7973
▁subepidermaal	-11.7977
▁band	-11.7979
▁glaasjes	-11.7979
▁lichaams	-11.7982
vormend	-11.7983
▁MCP	-11.7985
▁pla	-11.7985
▁kind	-11.7985
▁systeem	-11.7987
156	-11.7989
465	-11.7994
216	-11.7995
▁bn	-11.7998
nesten	-11.8
tumoren	-11.8001
▁BK	-11.801
Cervixlisexcisie	-11.8012
musculair	-11.8012
aemi	-11.8013
▁Hp	-11.8015
▁peritoneumbiopt	-11.8015
▁tien	-11.8016
TRU	-11.8016
vul	-11.8022
nische	-11.803
▁transplantaat	-11.8032
▁63	-11.8039
verlies	-11.8044
▁an	-11.8045
▁zegelring	-11.806
▁tumormateriaal	-11.8062
ocytose	-11.8066
leangiectaticum	-11.8082
▁mammatumor	-11.8084
011	-11.8087
▁LETZ	-11.8094
▁ta	-11.8094
ET	-11.8098
▁erosies	-11.8105
▁Dens	-11.8107
308	-11.8109
handrug	-11.8112
dit	-11.8113
▁as	-11.8124
▁verse	-11.8128
microscopische	-11.8138
▁mesangio	-11.8149
ac	-11.8153
1413	-11.8154
▁initie	-11.8157
▁cylinder	-11.8159
vraagformulier	-11.8163
678	-11.8167
▁blijken	-11.8175
040	-11.8175
uitbreiding	-11.8177
250	-11.8185
cc	-11.8186
LAB	-11.8189
▁sinonasa	-11.8189
713	-11.8197
ntestinale	-11.8205
▁tumoraal	-11.8217
▁craniolater	-11.8228
oesophagus	-11.8248
rose	-11.8251
▁bloc	-11.8257
Str	-11.8276
▁CINII	-11.8278
sb	-11.8281
ond	-11.8283
▁lymfaden	-11.8288
line	-11.8291
▁clonaliteit	-11.8292
PA	-11.8312
329	-11.8337
ted	-11.8345
▁Fa	-11.8348
overgang	-11.8356
▁polypoid	-11.8362
▁nod	-11.8363
gestuurd	-11.8364
▁Neus	-11.8364
▁mild	-11.8367
▁rechteroog	-11.8368
▁Graa	-11.8382
atypische	-11.8387
242	-11.8387
ablatio	-11.8388
▁septa	-11.8393
2235	-11.8398
ha	-11.8418
▁tri	-11.8426
ichting	-11.8427
Cervix	-11.8441
methylering	-11.8449
▁lipoma	-11.8454
▁poly	-11.8456
▁Ar	-11.8457
▁up	-11.8467
▁men	-11.8469
inke	-11.8471
wijze	-11.8473
▁granulomateus	-11.8474
tumorlocalisatie	-11.8476
rectum	-11.848
sperm	-11.849
NRAS	-11.849
▁hormoon	-11.849
Stadiering	-11.8492
neusvleugel	-11.8493
aangetoond	-11.8493
bacterien	-11.8493
perineural	-11.8493
zwelling	-11.8493
onderverdeling	-11.8494
formatie	-11.8494
Hier	-11.8495
Nader	-11.8498
morbus	-11.85
▁du	-11.8504
▁RA	-11.8504
164	-11.8505
Bcel	-11.8509
ob	-11.8513
▁proliferaties	-11.8519
▁Voorna	-11.8523
▁ik	-11.8523
▁condylomat	-11.8528
▁teleangiectati	-11.8528
▁mening	-11.8534
merking	-11.8553
121	-11.8554
kingsonderzoek	-11.8554
▁testisbiopt	-11.8566
▁Colonpoliep	-11.8567
▁dubieu	-11.8574
IG	-11.8575
▁vormen	-11.8577
capillaire	-11.8578
▁uitbreiden	-11.8578
▁kristal	-11.8582
▁baso	-11.8583
▁lingua	-11.8584
DERM	-11.8585
pm	-11.8587
▁Barret	-11.8588
▁1020	-11.8592
▁behandelen	-11.8593
_004985	-11.8593
ikte	-11.8594
spatroon	-11.8596
rocedure	-11.8597
▁metastasering	-11.8598
▁lymfkliertje	-11.86
▁trilin	-11.8601
entigo	-11.8602
▁follow	-11.8602
▁vrucht	-11.8602
▁Normospermie	-11.8602
▁Navelstreng	-11.8602
▁ameloblastoom	-11.8602
▁congorood	-11.8602
▁daadwerkelijk	-11.8602
▁destijds	-11.8602
▁donor	-11.8602
▁fysiologisch	-11.8602
▁juveniel	-11.8602
▁panitumumab	-11.8602
▁preexsistent	-11.8602
▁serum	-11.8602
▁zeggen	-11.8602
▁auramine	-11.8602
▁overheers	-11.8602
▁patch	-11.8602
▁lipoidica	-11.8602
▁pilaris	-11.8602
▁cetuximab	-11.8602
pakket	-11.8602
▁Transplantaat	-11.8602
▁standaard	-11.8602
▁berichtgeving	-11.8602
▁morphaea	-11.8602
▁radiologie	-11.8602
▁qua	-11.8602
▁follikelcentrum	-11.8602
▁subpleura	-11.8602
▁hidradenoom	-11.8602
▁occlusie	-11.8602
▁benigna	-11.8602
▁recurrent	-11.8602
CBDJBE	-11.8602
▁Burkitt	-11.8602
▁Lipoom	-11.8603
▁reaktie	-11.8603
eAxcisie	-11.8603
▁huidstukje	-11.8603
▁aldus	-11.8603
▁trombosering	-11.8603
▁Tumorpercentage	-11.8603
▁methode	-11.8603
▁pancreasstaart	-11.8603
▁DIP	-11.8605
▁moment	-11.8606
▁immuuntherapie	-11.8606
▁omsneden	-11.8606
▁myopathisch	-11.8607
▁tussenliggend	-11.8607
▁chondroid	-11.8607
▁Vries	-11.8609
▁Hormoonreceptor	-11.8609
keuze	-11.861
▁epi	-11.861
STAT	-11.8611
▁artefact	-11.8611
▁ontwikkeld	-11.8611
▁osteoporose	-11.8611
▁akti	-11.8613
▁AANGEPAST	-11.8614
▁Macroscopisch	-11.8614
▁vaatmalformatie	-11.8614
▁genitaal	-11.8614
▁melanose	-11.8614
▁mutant	-11.8614
▁overeenkomend	-11.8615
▁Fib	-11.8619
▁differentieren	-11.862
▁markeringshecht	-11.8621
▁2030	-11.8621
▁telling	-11.8621
▁vervezeling	-11.8622
▁strat	-11.8622
▁tubulairadenoom	-11.8623
▁Negatief	-11.8625
transplantaat	-11.8626
pons	-11.8628
▁Concordant	-11.8629
▁EGFRgen	-11.863
duodenectomie	-11.8631
▁Sertoli	-11.8634
▁Stemband	-11.8636
celnaevus	-11.8638
SMA	-11.8641
▁antral	-11.8642
▁omental	-11.8642
▁contralatera	-11.8644
▁Geschat	-11.8646
▁cornea	-11.8646
ongo	-11.8647
▁ijzerdeposities	-11.8649
▁intratubulair	-11.865
▁lumina	-11.8653
▁Tnummer	-11.866
▁condylomateu	-11.8662
▁tumorproces	-11.8666
2104	-11.8667
bevol	-11.8668
▁ulcusmateriaal	-11.8672
flat	-11.8675
▁IGH	-11.8677
▁spitzoide	-11.8679
▁scha	-11.868
1624	-11.8684
▁bu	-11.869
▁Bespreking	-11.87
▁cystebeeld	-11.8703
▁opname	-11.8704
DCIScomponent	-11.8712
▁punten	-11.8714
100000	-11.8715
ovula	-11.8717
▁ingebracht	-11.8724
percentage	-11.8729
▁gemerkt	-11.8732
▁opgenomen	-11.8738
▁differenti	-11.875
▁vertegenwoordig	-11.8758
▁Naald	-11.8766
overgevoeligheid	-11.8768
▁Poliepje	-11.8769
▁alsnog	-11.8772
41	-11.8773
werken	-11.8777
283	-11.8781
▁por	-11.8783
▁leveren	-11.879
▁IIII	-11.88
ria	-11.8804
1215	-11.8823
▁myofibroblast	-11.8825
adnex	-11.8834
952	-11.885
otje	-11.8867
1910	-11.8882
ATS	-11.8885
▁conclusieI	-11.8895
oraal	-11.891
isie	-11.8921
▁sinusoida	-11.8942
cN	-11.8947
2320	-11.8956
1954	-11.8957
3140	-11.8975
assiste	-11.8985
▁ondersteunen	-11.8991
pect	-11.8993
▁excisiebiopsie	-11.8995
▁opge	-11.8996
halve	-11.8998
247	-11.9001
▁vene	-11.9006
TS	-11.9024
right	-11.9027
▁Ca	-11.9028
266	-11.9038
▁alb	-11.9053
818	-11.9059
▁gebiedje	-11.9059
etrof	-11.9063
▁redelijk	-11.9066
▁micropapillair	-11.9067
596	-11.907
voet	-11.9075
▁negati	-11.9085
inding	-11.9089
▁generati	-11.9102
▁BR	-11.9105
hoofd	-11.911
cyten	-11.911
091	-11.9114
Oesofagusbiopt	-11.9142
▁grof	-11.9144
osa	-11.9148
▁BCLL	-11.915
▁Pro	-11.9176
ctomie	-11.9176
ONS	-11.918
504	-11.9189
2210	-11.919
duct	-11.919
2002	-11.9198
geleide	-11.92
lekkage	-11.9201
melanoom	-11.9202
placenta	-11.9202
rond	-11.9202
Regressie	-11.9202
UIT	-11.9203
Patient	-11.9204
deficientie	-11.9204
cyt	-11.9205
Candida	-11.9206
Sigmoid	-11.9206
hals	-11.9206
vinger	-11.9206
gemethyleerd	-11.9206
▁MT	-11.9207
▁Larynxbiopt	-11.9207
Hotspot	-11.9207
massa	-11.9207
Ascites	-11.9207
distale	-11.9207
aangetroffen	-11.9207
wordt	-11.9207
sigmoid	-11.9208
links	-11.9208
rij	-11.9212
▁lijn	-11.9213
aard	-11.9217
casus	-11.922
ingroei	-11.9227
▁too	-11.9227
node	-11.9231
Colonbiopten	-11.9233
177	-11.9233
IRE	-11.9239
▁Intra	-11.9242
pH	-11.9247
▁Onder	-11.9249
wezigheid	-11.9252
Cervixbiopt	-11.9258
▁125	-11.9262
▁bra	-11.9268
cula	-11.927
1900	-11.9271
iseerd	-11.9272
▁synovia	-11.9272
Vulvabiopt	-11.9274
▁1520	-11.9275
▁vari	-11.9276
▁naevocellulare	-11.9276
Regio	-11.9278
ish	-11.9281
geringe	-11.9282
zonden	-11.9285
▁divers	-11.9285
dragen	-11.9291
▁klin	-11.9294
824	-11.9296
weemaal	-11.93
viteit	-11.9301
▁sy	-11.9302
▁atrof	-11.9304
▁foto	-11.9306
▁oesofagusbiopt	-11.9306
▁00	-11.9309
▁verwacht	-11.9309
receptoren	-11.9309
aevus	-11.931
functie	-11.931
rostatectomie	-11.9312
TUMP	-11.9312
▁periost	-11.9313
allopi	-11.9313
dyl	-11.9314
edacht	-11.9314
hylation	-11.9314
▁tatoeage	-11.9316
▁giardia	-11.9316
▁abnormal	-11.9316
ladderwash	-11.9316
▁Ultra	-11.9316
▁afbraak	-11.9316
▁glomustumor	-11.9316
Consensus	-11.9316
druppel	-11.9316
pyloriorganismen	-11.9316
▁Bulbus	-11.9316
▁SAMPUS	-11.9316
▁gasthuis	-11.9316
▁guttata	-11.9316
▁papillomatosis	-11.9316
▁peritonei	-11.9316
▁perniones	-11.9316
▁primers	-11.9316
▁slijmbekercel	-11.9316
▁spirochetose	-11.9316
▁verhoorning	-11.9316
▁versicolor	-11.9316
▁verwant	-11.9316
▁volvulus	-11.9316
▁weefselpijpje	-11.9316
FIGO	-11.9316
▁reepithelialis	-11.9316
▁left	-11.9316
▁loslat	-11.9316
▁polipeu	-11.9316
▁research	-11.9316
KSFMBR	-11.9316
▁discrepant	-11.9316
▁beleid	-11.9316
▁omkapseld	-11.9316
▁elastine	-11.9316
▁eerstelijns	-11.9316
▁vezeltoename	-11.9316
▁anatomisch	-11.9316
pecific	-11.9316
▁suppurativa	-11.9316
▁virusinfectie	-11.9316
▁TRG	-11.9316
▁bereikt	-11.9317
oncoloog	-11.9317
▁Beta	-11.9317
▁MALT	-11.9317
▁mucinose	-11.9317
komstig	-11.9317
▁commentaar	-11.9317
▁intermammair	-11.9317
▁bewezen	-11.9317
cfjs	-11.9317
▁glycogen	-11.9317
▁spierlaag	-11.9317
▁kleppen	-11.9317
▁plaatsgevonden	-11.9317
▁Melanoom	-11.9317
▁lymfadenitis	-11.9317
▁doorgebeld	-11.9317
CORE	-11.9318
▁aangemaakt	-11.9318
▁Onderlip	-11.9318
Immunologisch	-11.9318
▁celblok	-11.9318
iskraam	-11.9318
▁ingeschat	-11.9319
leucocyten	-11.9319
▁pelvien	-11.9319
▁meng	-11.9319
_0052283	-11.932
plg	-11.932
▁longorigine	-11.932
▁STUMP	-11.932
▁conus	-11.9321
▁eos	-11.9321
▁bowenoAd	-11.9321
▁CONSULT	-11.9321
▁langdurig	-11.9321
▁Fibroadenoom	-11.9322
▁keratotisch	-11.9322
▁HRD	-11.9323
▁cysticus	-11.9323
▁VOORLOPIG	-11.9324
187	-11.9326
▁aanleveren	-11.9326
▁Onze	-11.9326
▁ulcerend	-11.9327
▁weer	-11.9327
▁MTP	-11.9327
▁neuspoliep	-11.9329
▁aankleurend	-11.9329
▁pericolisch	-11.9329
▁hyalien	-11.9329
▁zaadje	-11.933
▁lymfvat	-11.9332
coronairsclerose	-11.9332
▁vinden	-11.9334
microangiopathie	-11.9335
UI	-11.9336
DI	-11.9337
glomeruloscleros	-11.9337
▁secretie	-11.9337
▁Passend	-11.9337
upus	-11.9338
▁hyfen	-11.9339
626	-11.9342
▁warm	-11.9344
▁DISH	-11.9347
▁bijdragend	-11.9348
uitval	-11.935
▁gezicht	-11.9351
eductie	-11.9354
▁blaasmucosa	-11.9354
▁CINI	-11.9358
1703	-11.9358
▁leukoplakie	-11.9362
plica	-11.9362
▁OVERIG	-11.9363
▁uitgenomen	-11.9364
▁gevolgd	-11.937
▁stapeling	-11.9371
cellig	-11.9381
Sb	-11.9383
▁cut	-11.9383
ik	-11.9386
▁uurszijde	-11.9386
▁cytoplasmatisch	-11.9388
▁lymfkliertjes	-11.9392
▁Loc	-11.9392
▁Transcervica	-11.9399
▁tumornecrose	-11.9403
833	-11.9409
forme	-11.941
▁uitge	-11.942
slag	-11.942
▁gal	-11.9425
▁nietatypisch	-11.9432
erde	-11.9434
oven	-11.9437
085	-11.9454
▁Duodenumbiopsie	-11.9454
▁Endo	-11.9455
▁The	-11.9457
gebrek	-11.9457
▁Of	-11.946
▁Pan	-11.9461
▁Peri	-11.9466
▁site	-11.9467
strijk	-11.9468
iale	-11.9479
▁rectumbiopt	-11.9483
▁cylindercel	-11.9488
itt	-11.9494
▁lijden	-11.9507
amputatie	-11.9518
rondcell	-11.952
Rectumslijmvlies	-11.9523
Slijmvliesbiopt	-11.9529
oche	-11.9536
1903	-11.9538
331	-11.9538
▁implant	-11.954
740	-11.9548
mgl	-11.9552
▁EI	-11.9557
426	-11.9563
acellulair	-11.9566
914	-11.9566
041	-11.957
uren	-11.9585
▁coronairarterie	-11.9598
mb	-11.9599
▁histiocytose	-11.9614
ESS	-11.9617
▁multinodulaire	-11.9621
▁spierinvasie	-11.9623
▁rete	-11.9628
▁dura	-11.9631
leden	-11.9633
▁Niets	-11.9635
ps	-11.964
vriescoupe	-11.9642
▁ant	-11.9651
2200	-11.9658
nis	-11.9669
▁Ductu	-11.9676
otheel	-11.9682
▁77	-11.9687
769	-11.9689
Longbiopt	-11.9693
458	-11.9704
baard	-11.9709
▁sp	-11.9715
stase	-11.9722
▁150	-11.9729
▁Colorecta	-11.9739
▁vlakken	-11.9741
▁verlitteken	-11.9741
HP	-11.9754
▁naresectie	-11.9756
PL	-11.9769
fin	-11.9772
pje	-11.9773
▁sinonasal	-11.9785
Excisiebiopt	-11.979
▁Vet	-11.9791
▁samengesteld	-11.9803
503	-11.9807
classificeren	-11.9813
mis	-11.9815
vloed	-11.9816
273	-11.9816
elproliferatie	-11.9816
290	-11.9822
218	-11.9824
▁satelliethaard	-11.9828
▁voorz	-11.9833
▁Uitgebreid	-11.9848
▁necrotiserend	-11.9851
375	-11.9851
▁laatst	-11.9852
cher	-11.9856
▁Peritoneum	-11.9859
▁69	-11.9866
]20150	-11.9872
ief	-11.9883
▁verdachts	-11.9886
▁segmenten	-11.9887
veer	-11.9892
▁tricho	-11.9895
grens	-11.9914
286	-11.9919
_000	-11.9924
2122	-11.9935
celveranderingen	-11.9935
▁Pa	-11.9937
1804	-11.9941
▁incisie	-11.9953
lopen	-11.9962
▁83	-11.9962
Bespreking	-11.9973
lamellen	-11.9973
medicamenteus	-11.9974
controle	-11.9976
trauma	-11.9976
patiAnt	-11.9976
translocatie	-11.9977
bericht	-11.9977
hooggradig	-11.9977
differentiaal	-11.9977
voorkeur	-11.9977
ulcus	-11.9978
RNA	-11.9984
chi	-11.9985
Cave	-12.0001
sinusoida	-12.0015
455	-12.0019
ation	-12.0021
delijke	-12.0029
blastair	-12.0034
▁naevo	-12.0039
1651	-12.0042
eparaat	-12.0043
▁paraffinecoupe	-12.0044
▁celgroepje	-12.0046
▁METASTASE	-12.0049
DE	-12.0051
diagnosticeerd	-12.0053
▁podocyt	-12.006
▁seborro	-12.0061
dag	-12.0061
844	-12.0065
▁maagfundus	-12.0067
▁peribronchia	-12.007
▁paraaorta	-12.0071
▁fix	-12.0073
▁bacteriA	-12.008
▁verwijz	-12.008
▁follicular	-12.0083
▁VER	-12.0083
▁atro	-12.0085
arrest	-12.0085
cytoplasm	-12.0085
▁oligo	-12.0085
▁agarcyto	-12.0086
▁bhband	-12.0086
MORFOLOGI	-12.0086
▁Bartholin	-12.0086
▁LORDtrial	-12.0086
▁aangedaan	-12.0086
▁aspergillus	-12.0086
▁celtelling	-12.0086
▁coelia	-12.0086
▁criterium	-12.0086
▁erytheem	-12.0086
▁geidentificeerd	-12.0086
▁gemacereerd	-12.0086
▁gepunch	-12.0086
▁hemorragie	-12.0086
▁palmair	-12.0086
▁versneld	-12.0086
amenteuze	-12.0086
interpreteerbaar	-12.0086
▁Positief	-12.0086
▁cryptdestructie	-12.0086
▁doodsoorzaak	-12.0086
▁korstvorming	-12.0086
▁rommelig	-12.0086
▁COPD	-12.0086
▁EWSR	-12.0086
▁hypofarynx	-12.0086
▁merkelcel	-12.0086
▁stervormig	-12.0086
▁Beiderzijds	-12.0086
akke	-12.0086
▁transitione	-12.0086
▁lamellair	-12.0086
▁mitosefiguren	-12.0086
▁plasmocytoom	-12.0086
▁productie	-12.0086
▁paratrabeculair	-12.0086
▁endometrioAd	-12.0086
▁hyalinis	-12.0086
▁screening	-12.0086
▁side	-12.0086
▁intralumina	-12.0086
▁calcinosis	-12.0086
INVASIEDIEPTE	-12.0086
▁Onge	-12.0086
▁hypoxisch	-12.0086
▁Doorsnijding	-12.0086
▁Myoom	-12.0086
▁thyreoidectomie	-12.0086
sensitiviteit	-12.0086
▁rubra	-12.0086
▁cytogenetisch	-12.0086
▁decidualisatie	-12.0086
▁vaattoename	-12.0086
▁forni	-12.0086
▁kernhoudend	-12.0086
▁hemithyreo	-12.0086
WERK	-12.0087
▁selectie	-12.0087
▁LAM	-12.0087
▁myeloblasten	-12.0087
▁MPN	-12.0088
▁ijzerkleuring	-12.0089
▁CMYC	-12.0089
▁middenoor	-12.0089
▁uterussegment	-12.0089
▁Gewrichts	-12.0091
▁intraabdomina	-12.0091
▁Chirurgisch	-12.0091
▁obliteratie	-12.0091
▁sacrum	-12.0091
▁stadiAring	-12.0091
▁pSer	-12.0091
▁bioptlengte	-12.0092
welling	-12.0092
▁genese	-12.0092
▁unc	-12.0092
IgH	-12.0092
▁SLE	-12.0094
▁Ectocervica	-12.0095
▁varierend	-12.0095
▁ERPR	-12.0095
▁GCB	-12.0096
▁BTG	-12.0096
wij	-12.0099
lijnen	-12.0099
▁gemuteerd	-12.0099
▁Serologie	-12.0099
▁gereseceerd	-12.0099
▁Immunologie	-12.01
▁hypoplasie	-12.01
▁Morfologi	-12.01
2302	-12.0103
▁PSC	-12.0104
▁Fragmentje	-12.0106
▁Plaveiselcel	-12.0106
▁temp	-12.0108
▁trabeculair	-12.0108
▁Additione	-12.0108
▁Geadviseerd	-12.0108
▁kwadrant	-12.0109
▁myeloAd	-12.011
mediadegeneratie	-12.0111
▁Opvallend	-12.0118
▁matrix	-12.0118
▁reconstructie	-12.0118
▁Lymfoom	-12.0118
▁gekleurd	-12.0118
▁autoimmuniteit	-12.0118
▁ch	-12.0119
▁Colonresectie	-12.0119
MSP	-12.0124
▁inhibitor	-12.0124
▁WT	-12.0125
▁tepelvocht	-12.0125
▁dichtbij	-12.0126
deels	-12.0126
▁streng	-12.0126
▁spr	-12.013
▁radiair	-12.0134
▁overgrijpen	-12.0135
focus	-12.0136
▁concrement	-12.0137
▁onrijpe	-12.0137
▁Nv	-12.0138
▁pustulos	-12.0142
▁entero	-12.0146
406	-12.015
cf	-12.0151
▁granulair	-12.0152
zing	-12.0154
▁vi	-12.0154
▁leiomyomateu	-12.0155
360	-12.0156
1310	-12.0157
▁volledigheid	-12.0159
▁DDR	-12.016
scop	-12.0162
▁BH	-12.0166
2114	-12.0168
▁Acu	-12.017
▁Langerhans	-12.017
▁huidadnexen	-12.0171
▁Myc	-12.0172
▁la	-12.0178
▁elementen	-12.018
▁mit	-12.0181
▁middermal	-12.0181
▁SOC	-12.0184
aq	-12.0185
▁spiercel	-12.0191
▁insitu	-12.0198
wandig	-12.0206
▁ontv	-12.0206
▁neusw	-12.0216
cystectomie	-12.0219
GE	-12.0221
▁huidfragmentje	-12.0222
846	-12.0223
▁bijzonder	-12.0223
1115	-12.0225
▁uiteen	-12.0225
bloeding	-12.0235
▁isolat	-12.0239
▁mycobacterie	-12.0252
ias	-12.0255
HPF	-12.0259
▁ongevoelig	-12.0261
295	-12.0264
peritoneum	-12.0269
ORI	-12.0273
standig	-12.0274
037	-12.028
▁amplificaties	-12.0286
▁Per	-12.0291
▁oment	-12.0294
▁Barretts	-12.0296
▁bioptisch	-12.0298
dia	-12.0307
ated	-12.031
1311	-12.0319
genen	-12.0322
▁LO	-12.0338
▁ulceratief	-12.0341
gd	-12.0347
ijkt	-12.0347
992	-12.0352
97	-12.0353
sternaal	-12.0358
▁79	-12.0362
haarden	-12.0374
lob	-12.0383
▁Pr	-12.0392
120	-12.0397
▁Morb	-12.04
▁Uit	-12.0412
dige	-12.0413
▁Ev	-12.0415
MR	-12.0415
▁96	-12.0423
epidermale	-12.0429
▁Immuunhistochem	-12.0437
▁bovengenoemd	-12.0445
▁inge	-12.0449
▁LC	-12.0449
AS	-12.0453
sstoornissen	-12.0456
307	-12.0476
MAP	-12.0479
▁Af	-12.0486
hyroidectomie	-12.049
▁nefro	-12.0495
VO	-12.0497
▁Al	-12.0514
▁liggen	-12.0524
▁Bloed	-12.0526
thoracaal	-12.053
▁carcinomen	-12.0537
reexcisie	-12.0539
zijn	-12.0562
]20170	-12.0569
87	-12.0569
Nier	-12.0574
rp	-12.0581
010	-12.0588
bei	-12.0596
614	-12.0598
ner	-12.0604
bst	-12.061
▁mucosaal	-12.0612
METgen	-12.0617
▁spin	-12.062
▁dorso	-12.062
741	-12.0624
1303	-12.0646
▁bundel	-12.0646
2103	-12.0647
282	-12.065
▁mag	-12.066
1810	-12.0661
oor	-12.0666
▁gede	-12.0666
1616	-12.0667
Levernaaldbiopt	-12.067
673	-12.0672
239	-12.0676
▁atypi	-12.0678
▁Du	-12.0685
staande	-12.0704
cho	-12.0717
2313	-12.0722
ntat	-12.0726
▁Hemithyreo	-12.0731
aankleuring	-12.0733
▁RO	-12.0734
folliculair	-12.0734
infiltraat	-12.0736
▁Ib	-12.0739
hele	-12.0742
nierbiopt	-12.0747
AƒA	-12.0759
▁ger	-12.0761
ov	-12.0763
kleincellig	-12.0768
Pot	-12.0772
ini	-12.0773
▁spierbiopt	-12.0779
2310	-12.0779
ZO	-12.0781
nodulair	-12.0781
▁halslymfklier	-12.0784
061	-12.0787
kanaal	-12.079
atio	-12.0796
466	-12.0799
1712	-12.08
Beenmerg	-12.08
5961	-12.0802
Vergelijk	-12.0803
parameters	-12.0803
Pleura	-12.0803
recht	-12.0804
Lymfeklier	-12.0806
axilla	-12.0806
Volume	-12.0807
sturen	-12.0807
Obductie	-12.0808
granulomen	-12.0808
Onderzoek	-12.0808
94	-12.0809
gemengd	-12.0809
extravasatie	-12.0809
insufficientie	-12.0809
Ander	-12.0809
lumpectomie	-12.0809
Minima	-12.0809
nefropathie	-12.0809
Klier	-12.0809
macrofagen	-12.081
occipitaal	-12.081
bindweefsel	-12.081
melanocytair	-12.081
radicaal	-12.081
superficieel	-12.081
dorsaal	-12.0811
▁IIV	-12.0813
Gering	-12.0817
stuwing	-12.0817
DQ	-12.0817
▁clinico	-12.0825
▁term	-12.0826
▁thyreo	-12.083
▁MS	-12.0837
▁liesklier	-12.0838
Halsklier	-12.084
infarct	-12.0842
198	-12.0844
sme	-12.0848
▁bestraling	-12.0849
PAS	-12.0852
ax	-12.0852
lymfocyten	-12.0853
▁stri	-12.0853
▁dy	-12.0856
575	-12.0858
VS	-12.086
Is	-12.0863
TO	-12.0864
▁pipellebiopt	-12.0867
006	-12.087
▁denud	-12.0875
1314	-12.0876
▁proce	-12.088
BCL	-12.088
▁okselklier	-12.0882
▁inzenden	-12.0891
1414	-12.0893
▁heteroge	-12.0897
▁Blokje	-12.0897
▁Tumorvolume	-12.09
oxicodermie	-12.09
▁mantelcel	-12.0904
▁suboptima	-12.0904
tm	-12.0906
▁subcarina	-12.0906
▁rijp	-12.091
oont	-12.0911
▁ring	-12.0911
▁deficient	-12.0914
ermate	-12.0915
elvien	-12.0916
▁ulna	-12.0916
schelp	-12.0916
amniotisch	-12.0917
▁begin	-12.0918
▁combin	-12.0918
▁lymfang	-12.0919
MULTIFOCA	-12.0919
▁AGEP	-12.0919
▁Kaak	-12.0919
▁Laser	-12.0919
▁Morgagni	-12.0919
▁achterhalen	-12.0919
▁geautoriseerd	-12.0919
▁gekeken	-12.0919
▁gesampled	-12.0919
▁onderbouw	-12.0919
▁oxyuren	-12.0919
▁pancreatitis	-12.0919
▁plaatsvinden	-12.0919
INFILTRATIE	-12.0919
Sign	-12.0919
UNIC	-12.0919
ecompleteerd	-12.0919
rhabdomyosarcoom	-12.0919
▁Behcet	-12.0919
▁Bindweefsel	-12.0919
▁COVID	-12.0919
▁Darier	-12.0919
▁Dubieu	-12.0919
▁PLEVA	-12.0919
▁atrophicans	-12.0919
▁carun	-12.0919
▁consistent	-12.0919
▁fibrolipoom	-12.0919
▁geAnkt	-12.0919
▁gefixeerd	-12.0919
▁interfereren	-12.0919
▁kolonisatie	-12.0919
▁levercirrose	-12.0919
▁luteum	-12.0919
▁opbrengst	-12.0919
▁ossificatie	-12.0919
▁papilliferum	-12.0919
▁seromucineu	-12.0919
▁vertonen	-12.0919
▁wenselijk	-12.0919
spleet	-12.0919
▁ascen	-12.0919
▁congestie	-12.0919
▁morfometri	-12.0919
▁papillomen	-12.0919
▁paraganglioom	-12.0919
▁ringsideroblast	-12.0919
▁shock	-12.0919
▁breid	-12.0919
▁CAVE	-12.0919
▁enteritis	-12.0919
ligospermie	-12.0919
▁geopend	-12.0919
▁enchondroom	-12.0919
▁glanspenis	-12.0919
▁miljml	-12.0919
▁palpab	-12.0919
▁Clin	-12.0919
▁presacra	-12.0919
▁buccaal	-12.0919
▁perivilleu	-12.0919
▁basaloAd	-12.0919
▁neuroblastoom	-12.0919
▁cytodiagnostiek	-12.0919
▁idem	-12.0919
▁ondersteund	-12.0919
▁synovitis	-12.0919
Klassiek	-12.0919
▁ileus	-12.0919
▁spiervezel	-12.0919
▁tumid	-12.0919
▁drainage	-12.0919
▁decompensati	-12.0919
▁tradition	-12.0919
▁agar	-12.0919
▁configuratie	-12.0919
▁nucleair	-12.092
▁normaalwaarden	-12.092
▁hartfalen	-12.092
▁Lymfoid	-12.092
_0333602	-12.092
_0043334	-12.092
▁zegelringcellen	-12.092
▁verleden	-12.092
▁granular	-12.092
▁umc	-12.0921
▁longarts	-12.0922
gezet	-12.0922
▁aantallen	-12.0922
▁biamniotisch	-12.0922
latuur	-12.0924
▁sarcoAdose	-12.0924
▁Urethra	-12.0924
▁Intracavitair	-12.0924
▁CTgeleid	-12.0925
Gastric	-12.0926
4646	-12.0926
▁Hooggradig	-12.0926
Nano	-12.0926
▁Corpustype	-12.0928
▁SNP	-12.0928
▁nietafwijkend	-12.0928
zende	-12.093
▁endothelial	-12.0931
▁echt	-12.0932
NIS	-12.0933
▁Relatie	-12.0934
_224	-12.0934
▁DIAGNOSE	-12.0934
▁Histologi	-12.0934
oc	-12.0936
▁TNF	-12.0936
▁progestageen	-12.0937
▁dystrofisch	-12.094
▁genezen	-12.0941
▁maagfundustype	-12.0942
▁myoma	-12.0946
▁vaatafwijkingen	-12.0946
ologie	-12.0947
▁ontst	-12.0947
wezen	-12.095
▁Ernstig	-12.0954
▁banal	-12.0954
▁geboorte	-12.0954
▁myositis	-12.0954
▁sectie	-12.0954
▁cerebellair	-12.0955
▁EUSFN	-12.0961
▁verkrijgings	-12.0961
▁pr	-12.0965
nasaal	-12.0973
▁JNI	-12.0974
449	-12.0976
▁ur	-12.0976
2303	-12.0983
▁rechterbeen	-12.0985
▁overgroei	-12.0989
▁verdikking	-12.0989
2240	-12.0989
ostomie	-12.0993
▁pilair	-12.0993
▁WGS	-12.0994
▁1015	-12.0996
841	-12.0997
▁naevuscel	-12.1
Thr	-12.1005
▁Okselklier	-12.1005
002	-12.1009
▁vulvair	-12.1009
▁hematologische	-12.101
▁spina	-12.101
agus	-12.1015
▁instabiel	-12.1016
▁Aorta	-12.1018
▁OM	-12.102
▁plan	-12.1021
▁025	-12.1028
uid	-12.1032
▁Maagbiopsie	-12.1034
groeiend	-12.1041
con	-12.1047
oo	-12.105
▁agressie	-12.1059
ius	-12.1059
▁pectoral	-12.1065
fractie	-12.1072
▁136	-12.1076
▁Microscopie	-12.1084
▁divertikels	-12.1084
eking	-12.1085
iaal	-12.1088
▁verval	-12.109
▁1115	-12.1096
▁cast	-12.1098
2011	-12.1099
▁stolsels	-12.111
315	-12.1113
▁Regressie	-12.1113
▁pus	-12.1114
▁arteriol	-12.1132
▁1011	-12.1139
elling	-12.1147
2574	-12.1167
828	-12.1168
724	-12.1168
cell	-12.1169
cervix	-12.1192
751	-12.1196
buisstructuren	-12.1203
1650	-12.1204
▁TAM	-12.122
oloog	-12.1225
anale	-12.1225
tief	-12.1228
ment	-12.1231
000	-12.1249
low	-12.1255
2201	-12.1258
▁146	-12.1259
▁lichtmicroscopi	-12.1263
▁acro	-12.1264
2205	-12.1272
2120	-12.1286
Duodenumbiopt	-12.1291
Coupe	-12.1291
europathologisch	-12.1295
fase	-12.1297
▁tubulus	-12.1299
chemisch	-12.1303
794	-12.1315
nig	-12.1315
art	-12.1316
Slijmvlies	-12.132
uitstrijkje	-12.1322
diepte	-12.1328
▁ovarie	-12.1353
1450	-12.1358
▁recidiveren	-12.1359
625	-12.136
Pro	-12.1364
begre	-12.1369
▁slokdarmbiopt	-12.1373
▁abdomina	-12.1375
fluxoesofagitis	-12.1376
▁buis	-12.1377
▁stom	-12.1378
▁cava	-12.1381
circumferentieel	-12.139
cephal	-12.1397
Over	-12.1401
1716	-12.1403
1326	-12.1404
1828	-12.1406
ging	-12.1426
▁hemo	-12.1428
276	-12.1439
▁1112	-12.1444
CONC	-12.1447
▁jong	-12.1459
▁uitsluit	-12.1459
eratie	-12.146
▁OR	-12.1483
1050	-12.1483
han	-12.1484
▁130	-12.1487
246	-12.1488
▁bijv	-12.1489
TZ	-12.1496
▁atherosclero	-12.1503
▁exoge	-12.1507
▁eosinofiel	-12.1544
doende	-12.1549
536	-12.1555
▁RE	-12.1561
▁verkalkt	-12.158
▁cilinder	-12.1582
▁lik	-12.1588
▁verwijd	-12.1591
alisatie	-12.1594
546	-12.1594
▁fibromatos	-12.1595
▁intestinal	-12.16
▁sn	-12.1602
opoese	-12.1612
▁Spierbiop	-12.1614
au	-12.1615
▁pA	-12.162
▁schimmelinfect	-12.1627
▁mat	-12.1628
1300	-12.1636
▁hyp	-12.1637
849	-12.1638
uwelijk	-12.1644
MIS	-12.166
volume	-12.1666
hi	-12.167
▁ductepitheel	-12.167
kan	-12.1675
586	-12.1677
hand	-12.1687
Poliep	-12.1688
granuloom	-12.1696
1997	-12.1702
geven	-12.1702
822	-12.1709
▁Boven	-12.1709
608	-12.171
helft	-12.1712
psi	-12.1712
752	-12.1714
origine	-12.1714
Oud	-12.1714
concentratie	-12.1716
gevallen	-12.1717
diep	-12.1717
Extern	-12.1718
Sponta	-12.1718
LOH	-12.1718
aandoening	-12.1718
Morfologisch	-12.1719
hepatitis	-12.1719
parietaal	-12.1719
beschreven	-12.1719
gedetecteerd	-12.1719
prurigo	-12.1719
trusor	-12.1719
Pipelle	-12.1719
actinisch	-12.1719
volgt	-12.1719
evident	-12.1719
wn	-12.172
Snijranden	-12.1721
infiltrerend	-12.1722
ypT	-12.1725
▁auto	-12.1728
Mohs	-12.173
histiocyt	-12.173
Diagnostisch	-12.1734
EI	-12.1742
747	-12.1747
1549	-12.1748
myometrium	-12.1748
lab	-12.1748
Non	-12.1751
▁granulocyt	-12.1754
2034	-12.1755
▁Mono	-12.1755
pancreatisch	-12.1756
EUS	-12.1757
acht	-12.1761
560	-12.1765
Th	-12.1767
protonpompremmer	-12.1769
loos	-12.1771
ocht	-12.1773
rechter	-12.1774
mtrent	-12.1777
oppervlakkige	-12.1779
ugine	-12.1785
granulomateu	-12.179
238	-12.1794
pG	-12.1797
2100	-12.18
▁incl	-12.1803
336	-12.1807
▁multi	-12.1807
1914	-12.1812
▁Infiltratie	-12.1817
arcinoom	-12.1821
▁015	-12.1822
▁Broncho	-12.1823
cytaire	-12.1824
▁schuim	-12.1824
241	-12.1824
auhin	-12.1824
arotidectomie	-12.1825
erminderd	-12.1825
erdenking	-12.1825
ambda	-12.1826
ificatie	-12.1826
_000038	-12.1826
▁betrokken	-12.1827
▁inactiv	-12.1827
ormocellulair	-12.1827
trekk	-12.1828
▁sarcoid	-12.1828
streken	-12.1828
▁Portio	-12.1828
sdu	-12.1828
▁vermoed	-12.1828
▁NKX	-12.1828
▁geevalueerd	-12.1828
▁myelomonocyt	-12.1828
icopathologisch	-12.1828
▁CHEK	-12.1828
▁SANO	-12.1828
▁abcedering	-12.1828
▁absolu	-12.1828
▁choriaalplaat	-12.1828
▁demodex	-12.1828
▁ontaarding	-12.1828
▁plusminus	-12.1828
TRATIE	-12.1828
Therapeutisch	-12.1828
schraap	-12.1828
▁Cervica	-12.1828
▁DICER	-12.1828
▁Epidermis	-12.1828
▁Gecombineerd	-12.1828
▁Gingiva	-12.1828
▁Milex	-12.1828
▁accuminatum	-12.1828
▁adenosquameus	-12.1828
▁adventiti	-12.1828
▁anulare	-12.1828
▁atroficans	-12.1828
▁beduidend	-12.1828
▁clavus	-12.1828
▁effluvium	-12.1828
▁formaline	-12.1828
▁gekweekt	-12.1828
▁gemelli	-12.1828
▁getypeerd	-12.1828
▁hypoplastisch	-12.1828
▁inklemming	-12.1828
▁mozai	-12.1828
▁nevocellularis	-12.1828
▁olecran	-12.1828
▁pendulum	-12.1828
▁plantaardig	-12.1828
▁plasmacytos	-12.1828
▁purpuri	-12.1828
▁pyelonefritis	-12.1828
▁rontgen	-12.1828
▁solutio	-12.1828
▁stadiering	-12.1828
▁therapy	-12.1828
▁uitgerijpt	-12.1828
▁zeldzaam	-12.1828
ecrospermie	-12.1828
▁PTLD	-12.1828
▁cordis	-12.1828
▁Translocatie	-12.1828
▁cylindroom	-12.1828
▁spiradenoom	-12.1828
▁traanklier	-12.1828
poAse	-12.1828
▁artrose	-12.1828
▁supraglottisch	-12.1828
▁Vital	-12.1828
▁AIH	-12.1828
▁behandelaar	-12.1828
▁retroplacentair	-12.1828
▁onveranderd	-12.1828
fysi	-12.1828
▁angiofibroom	-12.1828
▁hormoongebruik	-12.1828
▁areata	-12.1828
▁parapemphigus	-12.1828
ngioendothelioom	-12.1828
▁stagering	-12.1828
▁koilocyto	-12.1828
▁lichteruptie	-12.1828
▁systeemziekte	-12.1828
▁hernia	-12.1828
▁insitucomponent	-12.1828
▁tubulusnecrose	-12.1828
▁collageenrijk	-12.1828
▁perfor	-12.1828
▁ongewone	-12.1829
▁NASH	-12.1829
akjes	-12.1829
▁calcificerend	-12.1829
▁reperfusie	-12.1829
partum	-12.1829
▁torsio	-12.1829
▁aanbev	-12.1829
load	-12.1829
▁extraovarie	-12.1829
▁emfyseem	-12.1829
▁meegereseceerd	-12.1829
▁nummula	-12.183
▁SCLC	-12.183
▁BPH	-12.183
▁melanomenpanel	-12.183
▁CMVinfectie	-12.183
hav	-12.183
▁trombusvorming	-12.183
▁pigmentverlies	-12.183
Naschrift	-12.1831
▁abcesvorming	-12.1831
▁wijziging	-12.1832
▁EEM	-12.1833
▁ALKbreuk	-12.1833
stelsel	-12.1833
▁vlg	-12.1833
▁discordantie	-12.1834
▁EPICRISE	-12.1834
▁dermatomyositis	-12.1834
▁impetigo	-12.1834
▁polyklonale	-12.1834
▁Conjunctiva	-12.1834
▁urticariAle	-12.1834
▁Glandula	-12.1834
lectronen	-12.1834
▁paraffineblokje	-12.1835
▁hersenweefsel	-12.1836
▁neona	-12.1836
kiemcelneoplasie	-12.1837
▁Verru	-12.1838
▁Nabothi	-12.1839
▁peroperatief	-12.1839
▁corpora	-12.184
chrom	-12.184
▁pieken	-12.1841
▁frictie	-12.1841
▁vetcellen	-12.1841
▁CMVkleuring	-12.1842
▁ontstekingsg	-12.1842
▁endocapillair	-12.1843
▁leukocyten	-12.1844
▁Irradicaal	-12.1845
▁kweek	-12.1845
▁partikels	-12.1845
▁ATP	-12.1846
▁commissie	-12.1849
▁infundibulair	-12.1849
klinische	-12.185
tieve	-12.1851
▁blaarziekte	-12.1852
▁vervalt	-12.1852
▁cirro	-12.1855
▁Hematologie	-12.1855
▁capsul	-12.1856
▁granuloompje	-12.1856
▁linkervoet	-12.1857
▁diagnosis	-12.1858
▁suprabasa	-12.186
▁Negatie	-12.1861
▁aanliggend	-12.1862
▁Lis	-12.1862
▁Sporadisch	-12.1866
▁dood	-12.1867
104	-12.1867
219	-12.1871
▁Niertransplanta	-12.1871
▁fusiegen	-12.1873
blatio	-12.1875
▁schouw	-12.1877
2478	-12.1882
▁pLeu	-12.1882
1305	-12.1887
▁IRF	-12.1889
ella	-12.1893
ZE	-12.1894
OS	-12.1894
1950	-12.1898
▁vervaardigd	-12.1898
▁draad	-12.1899
▁nage	-12.19
845	-12.1902
▁PAX	-12.1907
062016	-12.1909
▁Postmorta	-12.1911
2006	-12.1916
▁Ox	-12.1917
emurkop	-12.192
wer	-12.1922
▁microcysteu	-12.1922
▁opening	-12.1924
LAR	-12.193
▁Antrumtype	-12.1932
▁gegaan	-12.1933
extramura	-12.1935
129	-12.1942
1607	-12.1942
▁OK	-12.1944
▁Oud	-12.1944
▁comm	-12.1947
1609	-12.1952
488	-12.1954
1809	-12.1954
▁DQ	-12.1964
403	-12.1975
NEC	-12.1979
Per	-12.1982
▁Granulomateu	-12.1984
▁harde	-12.1989
wangerschapsafbr	-12.1999
▁2010	-12.2001
igniteit	-12.2011
339	-12.2016
omen	-12.2019
▁MMReiwit	-12.202
038	-12.2025
alwaar	-12.2027
cre	-12.203
▁459	-12.2033
430	-12.2034
▁crusteu	-12.2038
atoire	-12.2039
649	-12.2044
und	-12.2046
cilinders	-12.2047
▁granulo	-12.2052
itspraak	-12.2058
▁64	-12.2061
376	-12.2067
▁uiter	-12.2089
▁lopend	-12.2092
rot	-12.2094
conisatie	-12.2095
▁jugular	-12.2106
249	-12.2106
985	-12.2111
671	-12.2111
▁76	-12.2112
900	-12.2137
627	-12.2138
▁forme	-12.215
915	-12.2154
2007	-12.2165
iet	-12.2166
▁ISUP	-12.2167
956	-12.2169
▁verheven	-12.2174
port	-12.2175
473	-12.2186
emie	-12.2212
]25	-12.2213
593	-12.2213
kanker	-12.2214
▁pap	-12.2217
oude	-12.2218
veil	-12.222
laaggradige	-12.2241
io	-12.2243
▁eczemat	-12.225
110	-12.2251
▁Val	-12.2271
SOC	-12.2276
Motilit	-12.2277
Lymfklierbiopt	-12.2287
765	-12.2296
▁heen	-12.2303
▁Pn	-12.2311
387	-12.2312
tica	-12.2324
▁sana	-12.233
eck	-12.2331
1953	-12.234
▁karakteristieke	-12.2349
ervixpoliep	-12.236
▁005	-12.236
2306	-12.2363
ieve	-12.2365
2243	-12.237
▁monocyt	-12.2372
▁cf	-12.2378
289	-12.238
114	-12.2383
▁are	-12.24
uitgang	-12.2408
▁bronchusbiopt	-12.2409
pro	-12.2418
139	-12.2421
form	-12.2424
1929	-12.2427
564	-12.2431
▁1214	-12.2454
Ade	-12.2473
2012	-12.2474
▁elleboogs	-12.248
IST	-12.2497
▁Angioinvasie	-12.2501
2106	-12.2509
pon	-12.2517
42014	-12.2517
443	-12.2526
therapie	-12.2527
cardia	-12.2529
bronchusepitheel	-12.2542
nodus	-12.2546
cer	-12.2547
▁81	-12.255
▁035	-12.255
DD	-12.2551
▁verrukeus	-12.2556
▁cortica	-12.2562
1911	-12.2565
genmutatie	-12.2566
fibrinedepositie	-12.2567
Gr	-12.2569
▁immunofluores	-12.2581
928	-12.259
erytrocyten	-12.2593
Onder	-12.2597
▁Lymfeklierbiopt	-12.2608
▁Midde	-12.2617
mediaal	-12.2617
628	-12.262
▁KI	-12.2622
524	-12.2626
2304	-12.2626
▁SE	-12.2627
▁j	-12.2627
parakeratose	-12.2634
▁pectora	-12.2655
▁arterio	-12.2655
oppervlak	-12.2656
662	-12.2658
365	-12.266
1721	-12.2667
▁2011	-12.2678
065	-12.2683
1123	-12.2687
510	-12.2687
447	-12.2695
ureter	-12.2696
smo	-12.2696
Slokdarm	-12.2698
SPEC	-12.2699
buik	-12.2701
corpus	-12.2701
llen	-12.2704
▁adenomyo	-12.2706
spier	-12.2707
Overweging	-12.2709
gastritis	-12.2711
gegaan	-12.2714
Myc	-12.2715
Groot	-12.2715
sneevlak	-12.2716
Huidstans	-12.2716
aantasting	-12.2716
Links	-12.2716
COMPONENT	-12.2717
EBER	-12.2717
Fragment	-12.2717
IGH	-12.2717
aanwezig	-12.2718
kristallen	-12.2718
hilair	-12.2718
JAK	-12.2718
gevonden	-12.2718
subtype	-12.2718
schildklierkwab	-12.2718
HSIL	-12.2718
gericht	-12.2718
varianten	-12.2719
Bloom	-12.2719
villi	-12.2719
Echogeleid	-12.2719
subcutis	-12.2719
granulocyten	-12.2719
ischemie	-12.2719
verminderd	-12.272
pGly	-12.272
Urine	-12.272
Gleasonscore	-12.2721
verruca	-12.2721
letsel	-12.2721
NTRK	-12.2721
Huidstansbiopt	-12.2722
weken	-12.2723
TTF	-12.2723
Representatief	-12.2723
▁Oksel	-12.2725
drie	-12.2726
acute	-12.2727
kh	-12.2728
420	-12.2729
ford	-12.2731
▁Myo	-12.2734
896	-12.2742
uba	-12.2746
▁EGFRKRAS	-12.2751
▁HUI	-12.2752
Mx	-12.2756
SAR	-12.2756
▁polyclona	-12.276
▁stuk	-12.2767
Kan	-12.2775
▁ontvang	-12.2779
Sem	-12.2779
▁PartiA	-12.2779
cysten	-12.2784
KLE	-12.2786
638	-12.2786
641	-12.2788
▁dystrof	-12.2788
VAT	-12.2789
nodu	-12.279
ceme	-12.28
▁ho	-12.28
capsula	-12.2801
uctie	-12.2801
▁celgroep	-12.2801
bekende	-12.2802
▁erythro	-12.2806
Classificati	-12.2809
membranen	-12.2811
ilocytair	-12.2811
Voorlopige	-12.2812
plasti	-12.2812
Nx	-12.2813
▁bowen	-12.2814
ircumcisie	-12.2817
ellient	-12.2823
richomonas	-12.2823
Representatie	-12.2823
▁Differenti	-12.2823
▁kiemcentr	-12.2823
ohs	-12.2824
eucocyten	-12.2824
▁teloge	-12.2825
▁PPP	-12.2826
pressie	-12.2826
etreffende	-12.2826
Tyr	-12.2826
zoospermie	-12.2827
bothi	-12.2827
hepatisch	-12.2827
trikt	-12.2828
▁drain	-12.2828
canth	-12.2828
▁spermakwaliteit	-12.2828
TNO	-12.2828
▁pathognom	-12.2828
elopbrengst	-12.2828
emorcelleerd	-12.2828
gunstig	-12.2828
▁Brunt	-12.2828
▁Folliculair	-12.2828
▁LINKS	-12.2828
▁MSIhigh	-12.2828
▁Mirena	-12.2828
▁Peyer	-12.2828
▁STIC	-12.2828
▁SigmoAd	-12.2828
▁achillespees	-12.2828
▁actinomyces	-12.2828
▁botombouw	-12.2828
▁cardiomyocyten	-12.2828
▁consensus	-12.2828
▁dundarm	-12.2828
▁ectatisch	-12.2828
▁klievingsvlak	-12.2828
▁milium	-12.2828
▁monotypie	-12.2828
▁mucositis	-12.2828
▁mutMb	-12.2828
▁nascens	-12.2828
▁ongewoon	-12.2828
▁ontkalking	-12.2828
▁partijen	-12.2828
▁restrictie	-12.2828
▁transgender	-12.2828
▁trombocytose	-12.2828
▁Cycline	-12.2828
▁Hoofd	-12.2828
▁intervillositis	-12.2828
▁morphea	-12.2828
▁Marker	-12.2828
▁weggebiopteerd	-12.2828
▁Hun	-12.2828
▁endoectocervica	-12.2828
▁polytypisch	-12.2828
▁Onverdacht	-12.2828
▁genomisch	-12.2828
▁geteld	-12.2828
▁Epiderma	-12.2828
▁blinde	-12.2828
▁partus	-12.2828
▁trombopenie	-12.2828
NEX	-12.2828
▁CNS	-12.2828
▁elektronendicht	-12.2828
stapelingsziekte	-12.2828
▁glandulo	-12.2828
▁integra	-12.2828
▁intracornea	-12.2828
▁melaninepigment	-12.2828
▁transurethra	-12.2828
▁organoid	-12.2828
manchet	-12.2828
▁afgekapseld	-12.2828
▁chromo	-12.2828
▁pulmonalisklep	-12.2828
▁verdeeld	-12.2828
▁plomp	-12.2828
▁psoriatiform	-12.2828
▁bleek	-12.2828
▁Alth	-12.2828
▁hoornschilfer	-12.2828
▁alcohol	-12.2828
▁pangastritis	-12.2828
▁cocco	-12.2828
▁voldoe	-12.2828
▁trombocytemie	-12.2828
sich	-12.2828
▁gestatione	-12.2828
▁zinvol	-12.2828
lance	-12.2828
▁pulmonalis	-12.2828
▁intradermalis	-12.2828
FORM	-12.2828
▁fibroadenomato	-12.2828
▁eerstgenoemde	-12.2828
Microsatelliet	-12.2828
▁slow	-12.2828
▁specificatie	-12.2828
▁epidermoid	-12.2829
▁PPIgebruik	-12.2829
▁invade	-12.2829
▁monocytose	-12.2829
bonden	-12.2829
shy	-12.2829
▁xanthogranuloom	-12.2829
rdg	-12.2829
▁tuberculosis	-12.2829
sthenospermie	-12.2829
ncompleet	-12.2829
▁Onco	-12.2829
▁beentumoren	-12.2829
▁Alk	-12.2829
▁PPIeffect	-12.283
▁bcl	-12.283
▁lisnecrose	-12.283
▁jl	-12.283
▁diathermisch	-12.283
sparen	-12.283
▁nodulus	-12.283
▁Fibreu	-12.2831
▁beta	-12.2831
91011	-12.2831
▁pThr	-12.2831
▁Giardiasis	-12.2832
▁Fallopi	-12.2832
▁abdominalis	-12.2833
▁botinvasie	-12.2833
▁immunotypering	-12.2833
▁IKN	-12.2834
▁TME	-12.2834
▁FSH	-12.2834
1915	-12.2834
▁atypia	-12.2835
▁folliculorum	-12.2835
▁Beginnend	-12.2835
▁Kappa	-12.2835
▁hemosiderine	-12.2835
▁malignancy	-12.2835
▁pseudojicht	-12.2835
▁multiorgaan	-12.2835
▁rabdomyosarcoom	-12.2835
▁Johnson	-12.2835
▁Mill	-12.2835
▁opgetreden	-12.2836
▁4811	-12.2838
▁kiemcel	-12.2838
reef	-12.2838
▁verkrijgen	-12.2838
ction	-12.284
▁UIP	-12.284
▁slijmkleuring	-12.2841
▁bifurcati	-12.2843
▁neur	-12.2843
▁Hypertrofisch	-12.2844
▁lan	-12.2845
▁fibroblastair	-12.2845
▁naaldvormig	-12.2846
Laag	-12.2846
▁antilichamen	-12.2846
▁PTaG	-12.2846
▁herbiopteren	-12.2846
▁gekerfd	-12.2846
▁monomorf	-12.2846
▁Loss	-12.2848
▁steen	-12.2848
▁by	-12.2848
▁po	-12.2848
orale	-12.2849
▁enteropathie	-12.285
ack	-12.2851
▁cartilagineu	-12.2851
▁Ruime	-12.2851
▁immun	-12.2852
▁intrapulmona	-12.2854
▁EX	-12.2854
▁1973	-12.2856
▁synovi	-12.2857
▁Eerder	-12.2859
▁dermat	-12.2859
▁chorionitis	-12.2859
▁099	-12.2861
▁JA	-12.2863
diagnosen	-12.2863
▁zg	-12.2864
▁halo	-12.2865
▁melanoompanel	-12.2865
▁tumorstroma	-12.2868
plasie	-12.2868
lymfklieren	-12.2869
▁pil	-12.2869
189	-12.2869
▁vreemd	-12.287
▁2003	-12.287
▁voeren	-12.2872
erg	-12.2875
▁Lymfocyt	-12.2878
vloe	-12.288
▁UD	-12.2882
362	-12.2883
▁Mycobacteri	-12.2883
▁spierbundel	-12.2883
▁CLLSLL	-12.2895
dus	-12.2895
ating	-12.2897
▁infiltr	-12.2898
▁uterien	-12.2899
▁eczeembeeld	-12.2903
keer	-12.2903
▁Percentage	-12.2907
▁grijs	-12.2907
080	-12.2909
mentin	-12.2913
remmergebruik	-12.2915
rium	-12.2921
eferentie	-12.2921
▁HPVgeassocieerd	-12.2925
embolieen	-12.2925
1798	-12.2927
048	-12.2928
2045	-12.2932
▁noo	-12.2936
asie	-12.2941
kn	-12.2943
erwijzing	-12.2944
einde	-12.2948
UP	-12.2955
▁berusten	-12.2955
▁myoepithelia	-12.2957
▁Kit	-12.296
bc	-12.2962
▁2007	-12.2968
384	-12.2969
lbla	-12.2971
cutane	-12.2972
▁afgeronde	-12.2974
528	-12.2979
▁fenotypisch	-12.2982
▁eruptie	-12.2992
▁digital	-12.2998
▁mi	-12.2999
1701	-12.3005
▁inductie	-12.3016
kers	-12.3018
580	-12.3019
▁doorsnedes	-12.3021
535	-12.3022
▁2023	-12.303
▁105	-12.3035
▁falen	-12.3043
producten	-12.3047
▁Steel	-12.3049
▁vo	-12.3057
▁300	-12.3057
proportion	-12.3074
1505	-12.3076
955	-12.3076
394	-12.3082
▁optie	-12.3085
▁plasmacellulair	-12.3087
▁lymfklierbeeld	-12.3087
spoliepje	-12.3093
529	-12.3095
ab	-12.3097
▁rijk	-12.3098
▁149	-12.3102
▁sc	-12.3115
▁vlokje	-12.3116
eaktie	-12.3137
▁placentaresten	-12.3144
▁pancreaticobil	-12.3153
1837	-12.3155
bene	-12.3155
▁micrometastase	-12.3156
▁rheumat	-12.3158
▁MEDI	-12.3162
erozygosit	-12.3163
1713	-12.3163
1606	-12.3173
iz	-12.3178
▁Gr	-12.3179
loop	-12.3187
▁Ala	-12.3193
▁Classificati	-12.3202
SP	-12.3203
186	-12.3204
▁020	-12.3206
opt	-12.3206
act	-12.3228
2101	-12.3228
tage	-12.3233
075	-12.3234
culaire	-12.3238
912	-12.3242
1920	-12.3249
▁sperma	-12.3256
▁membran	-12.326
bb	-12.3267
1617	-12.3271
937	-12.3274
1803	-12.3281
naevuscellularis	-12.3288
roken	-12.329
UM	-12.3291
emia	-12.3295
959	-12.3302
▁dak	-12.3307
675	-12.3308
lij	-12.331
ulair	-12.3311
322	-12.3321
ichenoide	-12.3325
aesie	-12.3325
926	-12.3328
▁mammanaaldbiopt	-12.3338
359	-12.3344
▁genoeg	-12.3358
2025	-12.3359
1912	-12.3359
▁Lym	-12.336
736	-12.3374
Methylatie	-12.3379
565	-12.338
▁uitstrijkje	-12.3385
▁mesenteri	-12.3392
▁onderscheiden	-12.3395
▁Polypeu	-12.3403
2204	-12.3408
▁Cristabeenmerg	-12.3426
morfologisch	-12.3428
GR	-12.3437
▁stromacel	-12.3438
mber	-12.3441
729	-12.3461
and	-12.3463
857	-12.3466
743	-12.3478
366	-12.3479
881	-12.3479
long	-12.3492
male	-12.3493
cavaal	-12.35
▁vaste	-12.35
▁mammaablati	-12.3502
malig	-12.3506
▁coagulatie	-12.3507
ongbiopt	-12.3516
1523	-12.3516
▁pos	-12.3518
▁rondkernige	-12.3524
erig	-12.3528
basaal	-12.3528
REN	-12.3529
opmerkingen	-12.3529
maagovergang	-12.3543
centraal	-12.3549
lassificatie	-12.3551
foo	-12.3554
464	-12.3558
▁kale	-12.356
ffen	-12.356
▁Vaginabiopt	-12.3567
edeem	-12.3572
fusie	-12.3574
oordeel	-12.3574
▁musc	-12.3575
ESE	-12.3582
coronairarterien	-12.3584
994	-12.3585
letie	-12.3585
1437	-12.359
We	-12.3593
1406	-12.3599
▁Consultcoupe	-12.3607
1852	-12.3622
▁EMA	-12.3629
herapiekeuzetest	-12.3629
Uit	-12.3629
lair	-12.3631
preparaatje	-12.3658
817	-12.3666
centieonderzoek	-12.3677
577	-12.3678
589	-12.3685
▁plantair	-12.3687
1700	-12.3688
Ten	-12.3689
264	-12.3691
aris	-12.3691
lisexcisie	-12.3708
tain	-12.3708
ncreaticobiliair	-12.371
osum	-12.3712
884	-12.3713
▁Was	-12.3714
solide	-12.3714
2109	-12.3718
▁Clon	-12.3721
310	-12.3722
lg	-12.3727
erwij	-12.3734
▁stra	-12.3739
▁betreffend	-12.3743
▁ra	-12.3755
▁ileo	-12.3759
916	-12.376
folliculitis	-12.3762
mus	-12.3763
544	-12.3763
1752	-12.3774
681	-12.3779
▁bronch	-12.3784
icus	-12.3784
▁Granuloma	-12.3787
▁hemat	-12.3791
▁tumordeposit	-12.3793
Imm	-12.3794
▁Epitheel	-12.3797
bulleu	-12.3804
▁verander	-12.3804
ppen	-12.3808
▁Pre	-12.3815
blaas	-12.3817
sprake	-12.3817
870	-12.382
snede	-12.3821
1517	-12.3823
lobulaire	-12.3824
lichaampje	-12.3824
MMReiwit	-12.3824
EXTRA	-12.3827
Rechts	-12.3828
Risk	-12.3828
insertie	-12.3828
Rechter	-12.3829
Incisiebiopt	-12.3829
Bericht	-12.3829
urotheelcel	-12.3829
stenose	-12.3829
Radicaliteit	-12.383
Benigne	-12.383
hoorn	-12.383
Uterus	-12.383
primair	-12.383
endocervicale	-12.383
respons	-12.383
lymfocytose	-12.383
MLH	-12.383
uitgebreide	-12.383
parotis	-12.383
onderbuik	-12.3831
ulceratie	-12.3831
colitis	-12.3831
klein	-12.3831
duodenum	-12.3832
fhankelijk	-12.3833
Atypisch	-12.3833
tumorvrij	-12.3837
▁leiomyoma	-12.3838
▁71	-12.384
filtraat	-12.3843
frequentie	-12.3844
Maagslijmvlies	-12.3854
depositie	-12.3855
576	-12.3855
Alle	-12.3861
bas	-12.3866
2044	-12.3874
retin	-12.3875
chte	-12.3879
Wel	-12.3887
vula	-12.3894
ondom	-12.3895
▁silic	-12.39
▁lint	-12.3904
▁klonaliteit	-12.3904
▁embryo	-12.3905
orme	-12.3905
▁Snijrand	-12.3911
adem	-12.3913
▁AR	-12.3914
▁Trauma	-12.3915
system	-12.3916
ANGIOINVASIE	-12.3919
▁Synovia	-12.3923
▁duoden	-12.3923
▁Naboth	-12.3927
condyl	-12.3929
▁haema	-12.3929
iferi	-12.393
▁sessi	-12.393
1502	-12.3932
ood	-12.3933
▁kernp	-12.3933
splits	-12.3933
fasci	-12.3934
eirriteerde	-12.3936
▁leucocytoclas	-12.3936
otiel	-12.3937
▁Mass	-12.3938
▁steato	-12.3938
▁epidermotro	-12.3939
▁dubbel	-12.3939
EURA	-12.3939
▁Leishmania	-12.3939
▁staple	-12.3939
▁prostate	-12.3939
▁LauwILA	-12.3939
▁Apex	-12.3939
▁EXTERN	-12.3939
▁GRO	-12.3939
▁LDH	-12.3939
▁Neusbijholte	-12.3939
▁Psoriasi	-12.3939
▁malignteit	-12.3939
drempel	-12.3939
▁Adnectomie	-12.3939
▁Apart	-12.3939
▁Atrofisch	-12.3939
▁Dysplastisch	-12.3939
▁Identi	-12.3939
▁Kweldamcfk	-12.3939
▁Lauren	-12.3939
▁Omgevend	-12.3939
▁Prurigo	-12.3939
▁Secretoir	-12.3939
▁Suboptima	-12.3939
▁Teratospermie	-12.3939
▁aangeraden	-12.3939
▁afstoting	-12.3939
▁besmetting	-12.3939
▁bilirubinostas	-12.3939
▁bruin	-12.3939
▁caudo	-12.3939
▁contour	-12.3939
▁cryptdistorsie	-12.3939
▁dyshematopoe	-12.3939
▁faeca	-12.3939
▁geconsulteerd	-12.3939
▁georienteerd	-12.3939
▁heftig	-12.3939
▁helices	-12.3939
▁hydatide	-12.3939
▁involutie	-12.3939
▁levend	-12.3939
▁nuchae	-12.3939
▁pilomatrixoma	-12.3939
▁plasmacytoid	-12.3939
▁salpingitis	-12.3939
▁toxiciteit	-12.3939
▁verhouding	-12.3939
▁vlekkig	-12.3939
nadering	-12.3939
ocrien	-12.3939
▁JDA	-12.3939
▁Mediastinum	-12.3939
▁verdw	-12.3939
Retroperitonea	-12.3939
▁fototoxisch	-12.3939
▁monoklonaal	-12.3939
glutamin	-12.3939
▁ASCUS	-12.3939
Huidexcochleatie	-12.3939
soleerd	-12.3939
▁abortion	-12.3939
▁verlaagd	-12.3939
▁Complete	-12.3939
▁polysomie	-12.3939
▁significance	-12.3939
▁staaf	-12.3939
▁seminoma	-12.3939
▁melanine	-12.3939
▁neuropatholoog	-12.3939
▁Conus	-12.3939
Herceptest	-12.3939
▁Aortaklep	-12.3939
▁culicosis	-12.3939
▁dysmaturiteit	-12.3939
▁GATA	-12.3939
▁antracosilicose	-12.3939
▁Schonlein	-12.3939
▁mycobacteriAn	-12.3939
▁periduct	-12.3939
▁spits	-12.3939
▁epiploica	-12.3939
▁chondroom	-12.3939
▁IPMN	-12.3939
▁mucoepidermoid	-12.394
▁perivesica	-12.394
▁epidermotropi	-12.394
▁ALCL	-12.394
▁haarschacht	-12.394
▁spoelcelnaevus	-12.394
fici	-12.394
▁imbalance	-12.394
▁metabo	-12.394
▁reaction	-12.394
▁stent	-12.394
▁ReTUR	-12.394
▁haematopoe	-12.394
▁normo	-12.394
▁temporal	-12.394
▁schedelobductie	-12.394
▁oncologisch	-12.394
▁KIAA	-12.394
▁hemithyroid	-12.394
▁luchtweg	-12.3941
▁Papillair	-12.3941
▁gastraal	-12.3941
▁intron	-12.3941
▁acini	-12.3941
▁LAMN	-12.3941
▁Ovaria	-12.3941
▁onafhankelijk	-12.3942
▁Let	-12.3942
▁placentavolume	-12.3942
▁Obturatorius	-12.3942
▁chorion	-12.3942
▁cellymfoom	-12.3943
▁geacht	-12.3943
sgewij	-12.3943
▁Endoresectie	-12.3943
mitralisklep	-12.3943
▁cito	-12.3944
▁bloedrijk	-12.3944
▁semin	-12.3944
LOW	-12.3944
▁bied	-12.3945
cystadenofibroom	-12.3945
▁Hashimoto	-12.3945
▁multicysteu	-12.3945
ramus	-12.3945
▁KRASNRAS	-12.3946
▁bandvormig	-12.3946
▁Graves	-12.3947
▁ontwikkelend	-12.3947
▁Infiltrerend	-12.3947
▁System	-12.3947
▁gesuperponeerd	-12.3947
▁cirrhose	-12.3947
▁palatina	-12.3947
▁fibroadenomateu	-12.3947
272	-12.3947
▁aortawand	-12.3947
▁intervill	-12.3947
▁Vier	-12.3948
▁lymfk	-12.3948
▁retentiecyste	-12.3949
▁Herzien	-12.3949
▁EMonderzoek	-12.395
▁GPA	-12.395
▁sacrouterien	-12.395
▁paar	-12.395
color	-12.3952
▁retina	-12.3953
▁appendixwand	-12.3955
▁adenoompje	-12.3956
moAd	-12.3956
▁opruim	-12.3957
▁dysmorf	-12.3958
1418	-12.3959
Anaal	-12.3959
▁optreden	-12.396
▁Basis	-12.396
▁PMID	-12.396
▁extramedullair	-12.396
▁fenomeen	-12.396
▁doorbraak	-12.396
▁Uitsluiten	-12.396
▁amyloAdose	-12.3961
▁FN	-12.3961
BU	-12.3962
▁pY	-12.3963
993	-12.3963
iare	-12.3963
▁craniomedia	-12.3963
▁mosaicisme	-12.3963
ako	-12.3965
▁Bilatera	-12.3965
gastrooesophagea	-12.3967
▁leesbaar	-12.3967
▁fibroblasten	-12.397
▁progressief	-12.3971
perfusie	-12.3973
▁druk	-12.3974
anced	-12.3975
656	-12.3976
▁chondromatose	-12.3976
▁lymfoblastair	-12.3977
▁BIRADSIV	-12.3977
ARC	-12.3978
368	-12.3979
▁neurovasculair	-12.398
▁huma	-12.3983
▁210	-12.3984
▁MITO	-12.3984
2125	-12.3987
▁gevorderd	-12.3987
▁tumormetastasen	-12.3988
posit	-12.3989
150260	-12.399
▁mor	-12.399
▁Herhaling	-12.3991
▁etc	-12.3993
▁030	-12.3993
▁zuur	-12.3993
▁ain	-12.3994
1510	-12.3994
830	-12.3997
Vk	-12.4
stations	-12.4
▁paraffinecoupes	-12.4003
097	-12.4003
604	-12.4003
▁Anders	-12.4004
▁follikelcyste	-12.4004
▁grover	-12.4007
▁overeenkom	-12.4009
987	-12.401
▁plus	-12.4011
▁Uitbreid	-12.4014
▁Verslag	-12.4015
▁KE	-12.4015
▁prostatisch	-12.4016
▁Blaasslijmvlies	-12.4017
▁spongieu	-12.4017
▁Cor	-12.4018
risatie	-12.402
haald	-12.402
HM	-12.4021
spierweefsel	-12.4027
▁Afmeting	-12.4028
▁Mediastina	-12.4028
▁stag	-12.403
SZO	-12.403
caudaal	-12.4032
1309	-12.4033
ness	-12.4033
▁stof	-12.4034
EP	-12.4039
▁nefroge	-12.4046
▁CML	-12.4047
21208	-12.4048
597	-12.4048
▁pK	-12.405
Al	-12.4054
▁lichaampje	-12.4056
▁collectie	-12.4061
▁uterusresectie	-12.4061
2327	-12.4066
ping	-12.4067
▁rectumpoliep	-12.4068
REG	-12.407
400	-12.4072
▁superficiale	-12.4073
ESD	-12.4073
hemihepatectomie	-12.4074
558	-12.4076
957	-12.4078
▁MGMTpromot	-12.4089
▁fractie	-12.4093
ntogen	-12.4101
058	-12.4103
egatie	-12.4103
▁pS	-12.4108
▁tt	-12.4108
uele	-12.4109
▁117	-12.4111
iant	-12.4115
118	-12.4116
▁NV	-12.4118
mucus	-12.4118
▁lekkage	-12.4125
morfologie	-12.4125
▁stromatumor	-12.4127
amine	-12.413
tien	-12.4131
▁NSAIDs	-12.4132
▁VE	-12.4142
▁immunocytochemi	-12.4144
▁ISH	-12.4147
▁ong	-12.415
2315	-12.4153
▁ag	-12.4164
▁TRK	-12.4167
Sm	-12.417
▁wijzend	-12.4174
1627	-12.4181
sclerose	-12.4182
1847	-12.4185
mon	-12.4185
▁hematologie	-12.4189
rde	-12.4199
▁polyps	-12.4201
oedeem	-12.4205
▁homogen	-12.4211
▁huidbeeld	-12.4217
▁Tong	-12.4218
▁Zijsnijvlak	-12.4222
▁mitochondria	-12.4224
▁IKA	-12.4226
acter	-12.4228
oAd	-12.4229
▁317	-12.423
otinib	-12.4238
▁pericentra	-12.4238
subcutane	-12.424
icum	-12.4244
1909	-12.4246
ligodendroglioom	-12.4246
▁verkalkte	-12.4254
ju	-12.4254
HL	-12.4255
AƒAd	-12.4259
karakteris	-12.4261
cardiaresectie	-12.4261
▁huidcurettement	-12.4262
▁gef	-12.4273
475	-12.4297
CNVanalys	-12.4303
▁017	-12.431
coom	-12.4313
cto	-12.4315
front	-12.4318
rota	-12.4326
ito	-12.4329
▁vacuolis	-12.4336
matie	-12.4341
▁abcesje	-12.4341
_0	-12.4342
esloten	-12.4343
2060	-12.4354
int	-12.436
lb	-12.4366
fer	-12.4369
▁HCC	-12.4377
096	-12.4388
583	-12.4391
▁exc	-12.4391
910	-12.44
sion	-12.4414
358	-12.4415
2003	-12.4415
oesofagitis	-12.4416
▁IVI	-12.4426
zegelringceltype	-12.4429
ION	-12.4429
089	-12.4435
▁012	-12.4436
▁not	-12.4437
128	-12.4445
920	-12.4447
436	-12.445
035	-12.4467
964	-12.447
18017	-12.4474
gressief	-12.4474
0108	-12.4478
profiling	-12.448
▁Bo	-12.4482
297	-12.4483
122	-12.4489
▁radial	-12.4505
650	-12.4508
2212	-12.4516
follikels	-12.4517
▁miss	-12.4522
▁sublingual	-12.4523
22018	-12.4528
▁lobu	-12.4535
876	-12.454
land	-12.454
1957	-12.4542
▁jarig	-12.4546
▁195	-12.455
haard	-12.4551
lad	-12.4552
1328	-12.4553
▁percentages	-12.4558
cd	-12.4561
resectieranden	-12.4575
796	-12.4582
924	-12.4593
lymfo	-12.4602
1528	-12.4604
VG	-12.4618
446	-12.4623
439	-12.4628
▁papels	-12.4638
▁Result	-12.464
nduidelijk	-12.4665
▁LA	-12.4668
ONT	-12.468
KM	-12.4687
▁herhaalde	-12.4699
riaal	-12.4701
dep	-12.4703
▁115	-12.4704
▁ek	-12.4715
▁persisteren	-12.472
acd	-12.4725
▁TERTpromot	-12.4731
markers	-12.4735
094	-12.4746
▁Glu	-12.4756
1718	-12.4757
▁Nu	-12.4759
▁vacuol	-12.4766
082014	-12.477
org	-12.4773
▁cohesie	-12.4791
▁periora	-12.4797
300	-12.4797
055	-12.48
772	-12.4801
myofibroblastair	-12.4811
▁hoek	-12.4821
chronisch	-12.4843
1306	-12.4853
1340	-12.4854
plantaat	-12.4865
859	-12.4881
onisatie	-12.4883
▁bc	-12.4885
776	-12.4889
1426	-12.4891
▁Variant	-12.4892
22035	-12.4894
PD	-12.4894
470	-12.4894
217	-12.4895
RI	-12.4913
▁expert	-12.4916
1925	-12.4921
▁extr	-12.4922
▁Bevestig	-12.493
▁benig	-12.4939
olorectaal	-12.495
▁bijkomend	-12.4951
▁hyperplasi	-12.4955
602	-12.4957
▁au	-12.4961
lytische	-12.4962
▁chroniciteits	-12.4972
▁necro	-12.4981
▁angiomato	-12.5
1421	-12.5006
395	-12.501
872	-12.5017
349	-12.5025
▁Diep	-12.503
fibroom	-12.5033
cystevorming	-12.5033
transversum	-12.5038
1603	-12.5046
060	-12.5049
643	-12.5059
▁frontal	-12.5059
2550	-12.506
pping	-12.5063
▁Darm	-12.5064
nog	-12.5064
plaats	-12.5066
ASTI	-12.5068
▁Testisbiopt	-12.5069
hyoid	-12.5071
▁mini	-12.5071
coiling	-12.5072
spoel	-12.5072
collectie	-12.5072
protocol	-12.5073
ossa	-12.5074
WGS	-12.5076
samen	-12.5076
opening	-12.5076
criteria	-12.5078
insitu	-12.5078
Microscopisch	-12.5078
Linker	-12.5078
laesiona	-12.5078
myelo	-12.5078
invaginatie	-12.5078
hoog	-12.5078
Ongewijzigd	-12.5079
Methylation	-12.5079
Adnex	-12.5079
GEWIJZIGD	-12.5079
thorax	-12.5079
ruptuur	-12.508
Eventue	-12.508
infarcering	-12.508
EBV	-12.508
minimaal	-12.508
MSI	-12.508
bevestigd	-12.508
achterwand	-12.508
klierbuizen	-12.508
focal	-12.508
maxima	-12.508
wenkbrauw	-12.508
beoordeelbaar	-12.508
beoordelen	-12.508
minimal	-12.508
goed	-12.508
Lisexcisie	-12.5081
regeneratie	-12.5081
scherp	-12.5081
deletie	-12.5081
grootcellig	-12.5081
SISH	-12.5081
lambda	-12.5081
wit	-12.5083
hoogte	-12.5083
markering	-12.5083
besproken	-12.5087
beste	-12.5088
vezel	-12.5088
littekenweefsel	-12.5088
Receptoren	-12.5091
Endocervica	-12.5093
1025	-12.5093
antrum	-12.5094
uurszijde	-12.5098
CTN	-12.5098
TV	-12.5103
1615	-12.5105
bot	-12.5106
Om	-12.5113
rag	-12.5122
▁Stembandbiopt	-12.5124
▁duid	-12.5125
arts	-12.5126
▁ani	-12.513
tting	-12.5131
brek	-12.5133
▁corne	-12.5135
lende	-12.5139
▁211	-12.514
▁word	-12.5143
292	-12.5143
▁schimmeldraad	-12.5143
ITEIT	-12.5147
pan	-12.5147
▁diagnosi	-12.5148
werd	-12.5148
jwj	-12.5148
995	-12.5149
▁tubulo	-12.5151
▁vaatafwijking	-12.5153
805	-12.5159
invasiediepte	-12.5159
▁exclusi	-12.5162
LYM	-12.5165
houd	-12.5166
840	-12.5166
plaatst	-12.5166
peritoneaal	-12.517
333	-12.5173
▁Hemi	-12.5173
▁gezonde	-12.5176
498	-12.5176
▁Overgang	-12.5177
▁veld	-12.5177
▁bron	-12.5179
▁class	-12.5182
▁sarcom	-12.5183
different	-12.5183
genome	-12.5184
enduidig	-12.5187
uscularis	-12.5187
oeilijk	-12.5187
ehouden	-12.5187
embolieAn	-12.5187
▁subglottis	-12.5188
▁aankleur	-12.5188
irca	-12.5188
gewone	-12.5188
DIEPTE	-12.5189
▁Bronchi	-12.5189
▁dilat	-12.5189
handeling	-12.5189
▁melanomen	-12.5189
▁kiembaan	-12.5189
oscopie	-12.5189
eticuline	-12.5189
▁galsteen	-12.5189
▁ruiter	-12.5189
▁exsudati	-12.5189
weefselopbrengst	-12.5189
▁AITL	-12.5189
▁conflue	-12.5189
▁implic	-12.5189
▁inflammation	-12.5189
▁pathogeniciteit	-12.5189
eclampsie	-12.5189
nkno	-12.5189
ultidisciplinair	-12.5189
▁Brain	-12.5189
▁Coeliakie	-12.5189
▁Hailey	-12.5189
▁Hyperkeratos	-12.5189
▁Lengte	-12.5189
▁MPGN	-12.5189
▁Myocardbiopt	-12.5189
▁Recidief	-12.5189
▁Specifiek	-12.5189
▁Systematisch	-12.5189
▁Urotheel	-12.5189
▁accentu	-12.5189
▁afzetting	-12.5189
▁balloon	-12.5189
▁bdz	-12.5189
▁breekpunt	-12.5189
▁fissuur	-12.5189
▁gecalcificeerd	-12.5189
▁geclusterd	-12.5189
▁geconstateerd	-12.5189
▁geformuleerd	-12.5189
▁gehyaliniseerd	-12.5189
▁germinal	-12.5189
▁herkennen	-12.5189
▁hydrosalpinx	-12.5189
▁ileostoma	-12.5189
▁mastoAd	-12.5189
▁meningotheli	-12.5189
▁necrobiotisch	-12.5189
▁nierschors	-12.5189
▁normospermie	-12.5189
▁omvormd	-12.5189
▁overeenkomsten	-12.5189
▁palmaris	-12.5189
▁pedikel	-12.5189
▁plasmacytoom	-12.5189
▁profylactisch	-12.5189
▁prognose	-12.5189
▁raadzaam	-12.5189
▁samenvatt	-12.5189
▁sample	-12.5189
▁soort	-12.5189
▁subungua	-12.5189
▁trapeziu	-12.5189
▁verhoging	-12.5189
▁wanordelijk	-12.5189
▁Foet	-12.5189
▁erysipel	-12.5189
▁abruptio	-12.5189
▁pemphigus	-12.5189
▁pedis	-12.5189
▁GAVE	-12.5189
▁ctDNA	-12.5189
▁fecal	-12.5189
▁accreditatie	-12.5189
▁cycline	-12.5189
▁incipiens	-12.5189
▁opstijgend	-12.5189
▁acrochordon	-12.5189
▁Sleeve	-12.5189
▁nauwkeurig	-12.5189
▁Enterob	-12.5189
▁cytomorfologie	-12.5189
▁adenofibroom	-12.5189
▁specificeren	-12.5189
▁EDU	-12.5189
▁bichoriale	-12.5189
▁prepatella	-12.5189
▁msCRC	-12.5189
▁GCNIS	-12.5189
▁kiembaanmutatie	-12.5189
▁fiber	-12.5189
▁glycogeen	-12.5189
▁cellulitis	-12.5189
▁lymphoma	-12.5189
▁Discre	-12.5189
▁Ontstekingsrest	-12.5189
▁vulvectomie	-12.5189
▁humora	-12.519
▁arterietakken	-12.519
▁deposits	-12.519
▁hypertroof	-12.519
▁vue	-12.519
▁myxoAd	-12.519
▁eilandje	-12.519
▁intralaesiona	-12.519
▁paravesica	-12.519
▁toegevoegd	-12.519
▁umbilicalis	-12.519
▁BerE	-12.519
▁paragranuloom	-12.519
▁schuimcellen	-12.519
▁tertiair	-12.519
▁inframammair	-12.519
▁gebaseerd	-12.519
▁MBowen	-12.519
▁CCND	-12.5191
▁pleuraingroei	-12.5191
▁Masson	-12.5191
▁FNH	-12.5191
▁kalkdeposities	-12.5191
▁dermoid	-12.5191
▁Lies	-12.5191
▁koper	-12.5191
▁SLI	-12.5191
▁refractair	-12.5191
▁INTER	-12.5192
vascular	-12.5192
oprostatectomie	-12.5192
▁submentaal	-12.5192
▁correct	-12.5192
▁plaveiepitheel	-12.5192
▁categori	-12.5193
▁brugvorming	-12.5193
inhibitie	-12.5193
▁haemorrhagisch	-12.5194
▁Blaaswand	-12.5194
▁bouw	-12.5194
heidsonderzoek	-12.5194
▁longoedeem	-12.5195
▁ECL	-12.5195
▁venectasie	-12.5195
▁Uro	-12.5195
▁longembolieen	-12.5195
▁retromola	-12.5196
▁fistelvorming	-12.5196
▁Will	-12.5197
▁sur	-12.5197
schreven	-12.5198
▁verdrongen	-12.5198
▁Microbiologie	-12.5198
▁ontkalkt	-12.5198
▁osteosarcoom	-12.5198
▁weefselvolume	-12.5199
▁fibrosis	-12.52
groeve	-12.52
▁myoepitheel	-12.52
herhalingsrisico	-12.52
arbo	-12.52
steek	-12.52
▁MMB	-12.5201
▁pLys	-12.5202
▁alge	-12.5202
▁pigmentcel	-12.5202
classifi	-12.5204
Nota	-12.5205
vascul	-12.5206
▁ependymoom	-12.5207
oorgemaakte	-12.5208
▁sv	-12.5209
▁seroom	-12.5212
polym	-12.5212
▁Stolsel	-12.5213
▁exsudaat	-12.5213
▁psoas	-12.5213
▁problem	-12.5213
▁stolling	-12.5213
▁ovariumcyste	-12.5213
▁kapseldoorgroei	-12.5214
tip	-12.5214
kristalurie	-12.5214
1515	-12.5216
stukken	-12.5216
▁celtype	-12.5217
▁synoviaal	-12.5219
▁duur	-12.522
▁bioptvolume	-12.522
▁tegenover	-12.5222
▁Grote	-12.5222
▁gastr	-12.5222
▁COL	-12.5224
▁Vacu	-12.5224
▁Maagmucosa	-12.5227
▁spot	-12.5228
▁Ileocaecaal	-12.5228
▁Aangepast	-12.5228
▁Rosen	-12.5228
itieve	-12.5229
▁wekedelentumor	-12.5229
036	-12.523
▁tumorbed	-12.523
Component	-12.5233
1754	-12.5235
▁laryngea	-12.5237
▁posterolatera	-12.524
▁250	-12.524
▁3040	-12.5243
▁Eind	-12.5244
estant	-12.5244
immu	-12.5245
▁granulocytair	-12.5245
▁pericellul	-12.5246
▁pees	-12.5249
▁rechternier	-12.525
orrelatie	-12.5252
499	-12.5253
ratio	-12.5254
▁SNPs	-12.5254
▁weing	-12.5259
lling	-12.5261
toevalsbevinding	-12.5262
1408	-12.5263
▁HM	-12.5263
▁thromb	-12.5265
▁activatie	-12.527
▁schilfer	-12.5275
lesie	-12.5278
▁septisch	-12.5287
▁aangenomen	-12.5287
▁hyperparakerato	-12.5288
▁Best	-12.5289
▁AZ	-12.5289
ette	-12.529
peripancreatisch	-12.529
ijk	-12.529
▁chip	-12.5291
HUID	-12.5291
▁IU	-12.5292
beet	-12.5296
▁staal	-12.5296
niti	-12.5298
▁cons	-12.5299
861	-12.53
▁Paneth	-12.5301
1308	-12.5303
ledig	-12.531
Oesophagusbiopt	-12.5315
neden	-12.5318
immunohistochemi	-12.5319
462	-12.5319
▁vervolgen	-12.5327
032016	-12.533
▁370	-12.5332
▁ossa	-12.5334
▁maagovergang	-12.5336
▁JL	-12.5344
▁kopieen	-12.5346
839	-12.5351
▁placentaweefsel	-12.5352
▁frequent	-12.5352
▁uitgroei	-12.5355
emming	-12.5363
▁pleiten	-12.5367
Va	-12.5369
▁parameters	-12.537
keren	-12.5377
▁bul	-12.5384
vat	-12.5384
▁Larynx	-12.5389
spir	-12.5397
▁IELs	-12.5397
bB	-12.5399
▁vor	-12.54
VD	-12.5407
▁SPE	-12.541
▁ru	-12.5413
▁hepato	-12.5413
1826	-12.5418
▁UIT	-12.5424
1512	-12.5427
bul	-12.5428
XII	-12.5436
▁file	-12.544
TX	-12.5446
▁thromboemboli	-12.5447
▁400	-12.5454
mid	-12.5457
▁exper	-12.547
elanomenpanel	-12.5474
▁HD	-12.5476
940	-12.5484
▁350	-12.5485
oon	-12.5485
1715	-12.5487
darmfragment	-12.5488
980	-12.5488
▁Amplificatie	-12.5497
827	-12.5498
Ase	-12.5508
▁studies	-12.5513
700	-12.5517
teerde	-12.552
908	-12.553
▁meet	-12.5531
▁197	-12.5532
up	-12.5539
1216	-12.5541
▁Infectie	-12.5549
verdikking	-12.5549
▁pseudomembrane	-12.5549
Ki	-12.5552
eldysplasie	-12.5561
▁129	-12.557
607	-12.5577
▁syringo	-12.5587
▁Ser	-12.5598
cord	-12.5612
▁abc	-12.5615
az	-12.562
▁menstrue	-12.5621
▁010	-12.5623
633	-12.5627
XIV	-12.563
ator	-12.563
vrije	-12.5634
▁residua	-12.5645
▁micropapillaire	-12.5657
▁redelijke	-12.5657
▁verschuiving	-12.566
olumepercentage	-12.5662
▁borstel	-12.5667
▁137	-12.5671
764	-12.5673
▁periappendic	-12.5677
962	-12.5685
306	-12.569
blasten	-12.5693
bol	-12.5697
▁zijden	-12.57
▁cre	-12.57
22017	-12.5708
indingen	-12.5722
▁Arg	-12.5729
1725	-12.5729
▁nodul	-12.5732
correleer	-12.5738
excisiebiopt	-12.5741
1930	-12.5741
ineaire	-12.5743
STS	-12.5746
▁CON	-12.5749
2316	-12.5755
iese	-12.5756
▁NEUR	-12.5758
PAN	-12.576
935	-12.576
▁lok	-12.5773
2208	-12.5775
architectuur	-12.5782
▁EML	-12.579
759	-12.579
▁car	-12.58
▁ondersteunend	-12.5802
sequentie	-12.5803
dermis	-12.5806
1601	-12.581
▁bilatera	-12.5811
▁165	-12.5813
1411	-12.5814
Bronchusspoel	-12.5828
▁134	-12.5832
1840	-12.5839
ziekten	-12.5842
▁nest	-12.5858
▁RAF	-12.5858
1831	-12.589
718	-12.5893
▁misse	-12.5905
903	-12.5905
1120	-12.5912
wegen	-12.5914
1539	-12.5917
▁area	-12.5926
973	-12.5933
1443	-12.5933
ingsstoornissen	-12.594
997	-12.594
peroxidase	-12.5947
1112	-12.595
phal	-12.5967
▁Endomyocard	-12.5972
derzijds	-12.5976
tak	-12.5976
1939	-12.5979
ioom	-12.599
med	-12.5994
diagnosestelling	-12.5995
947	-12.5996
2236	-12.6011
▁mo	-12.602
▁gecorr	-12.602
2335	-12.6026
verdeling	-12.6033
▁IIb	-12.6035
ander	-12.6051
2312	-12.6057
2220	-12.6085
837	-12.6091
acte	-12.6099
ost	-12.6108
ff	-12.6113
sterkte	-12.6114
ISCH	-12.6117
▁sup	-12.6121
▁sta	-12.6128
2323	-12.6129
262	-12.6129
▁loss	-12.6134
plet	-12.6137
systeem	-12.614
▁markerings	-12.6145
705	-12.6147
▁fissur	-12.6149
592	-12.6153
▁MO	-12.6176
hym	-12.6184
▁cryptarchitectu	-12.619
1332	-12.6197
0319	-12.6199
ilinderepitheel	-12.6203
377	-12.6205
uclea	-12.6213
Pl	-12.6219
23017	-12.6222
ISH	-12.6225
▁leiden	-12.624
1337	-12.6242
▁subcutisexcisie	-12.6242
Oesophagus	-12.6244
▁93	-12.6244
2225	-12.6245
1806	-12.6246
927	-12.6251
▁kerato	-12.6257
antitr	-12.626
Flowcytometrisch	-12.6261
raal	-12.6263
▁vergroot	-12.6266
▁013	-12.6267
▁HA	-12.627
Klinisch	-12.6274
▁eindsta	-12.6303
2009	-12.6309
22003	-12.6317
stiek	-12.6319
570	-12.6327
869	-12.6331
636	-12.6334
rige	-12.634
▁toest	-12.634
inoom	-12.6341
0048	-12.6341
▁bijbevinding	-12.635
▁liggend	-12.6352
eiwitten	-12.6352
▁su	-12.636
unt	-12.6361
9600	-12.6364
xcisie	-12.6366
iatie	-12.6368
ruim	-12.6374
▁Anusslijmvlies	-12.6382
▁spongiotisch	-12.6384
omateus	-12.6385
MGMT	-12.6385
▁invasi	-12.6387
oot	-12.639
2248	-12.6391
▁geirriteerd	-12.6393
▁hard	-12.6395
594	-12.6398
schatt	-12.6399
294	-12.6404
▁milia	-12.6404
lichen	-12.6411
▁immunofenotyp	-12.6419
gesneden	-12.6424
Consultcoupe	-12.6426
uunhistochemisch	-12.6431
760	-12.6433
schildklier	-12.6434
plasma	-12.6441
vagina	-12.6446
▁neutrofiel	-12.6455
Barrett	-12.6465
slecht	-12.6466
artefact	-12.6469
patient	-12.647
▁139	-12.6471
Clon	-12.6474
▁spongios	-12.6478
infiltr	-12.6478
Diagnos	-12.6479
inkt	-12.6479
1525	-12.6479
band	-12.6479
CNV	-12.6483
heup	-12.6486
▁Li	-12.6489
follikelepitheel	-12.649
angioinvasie	-12.6492
DOOR	-12.6499
villus	-12.6499
wortel	-12.65
stapeling	-12.6502
Mediastina	-12.6502
Afmeting	-12.6502
Percentage	-12.6503
grijs	-12.6503
539	-12.6503
weke	-12.6504
lumina	-12.6504
jugul	-12.6505
mediale	-12.6506
▁fil	-12.6506
vlokken	-12.6507
Primair	-12.6507
Rest	-12.6508
Sentinel	-12.6508
pTaG	-12.6508
fractuur	-12.6508
cytologisch	-12.6508
Voorkeur	-12.6508
FGFR	-12.6508
Dunne	-12.6508
Corpus	-12.6509
Pathologie	-12.6509
Liquor	-12.6509
fibroadenoom	-12.6509
representatief	-12.6509
Appendectomie	-12.6509
micronodulair	-12.6509
klierparenchym	-12.6509
ganglion	-12.6509
naevocellularis	-12.6509
mucineus	-12.6509
Klein	-12.6509
Shaveexcisie	-12.6509
intra	-12.6509
betreft	-12.6509
TERT	-12.651
argumenten	-12.651
diverticulitis	-12.651
pneumonie	-12.651
gewenst	-12.651
correlatie	-12.6512
negatie	-12.6512
Tuba	-12.6513
overwogen	-12.6513
maken	-12.6515
debris	-12.6515
waarin	-12.6515
overgangstype	-12.6519
2381	-12.6521
doorgroei	-12.6525
werk	-12.6525
voorwand	-12.6525
entaal	-12.6527
urine	-12.653
hyperplastische	-12.6531
chip	-12.6537
▁88	-12.6543
patienten	-12.6545
gegroeid	-12.6545
▁Sertolicel	-12.6547
verschijnselen	-12.6547
kort	-12.6547
▁reserve	-12.655
stof	-12.655
lobectomie	-12.6551
▁tubaovarie	-12.6565
onderd	-12.6565
snijding	-12.6567
lymfocytaire	-12.6569
thyre	-12.6569
▁ulcera	-12.6571
578	-12.6575
▁syn	-12.6576
▁plaat	-12.6578
▁chorio	-12.6579
▁allergi	-12.658
▁vind	-12.6581
▁plavei	-12.6583
433	-12.6584
▁aggregaat	-12.659
istof	-12.659
1724	-12.6594
▁resect	-12.6594
20128	-12.6594
para	-12.6595
▁142	-12.6595
Naast	-12.6597
SD	-12.66
celkernen	-12.6601
cortica	-12.6603
▁paravertebra	-12.6603
plugg	-12.6604
cient	-12.6604
▁retentie	-12.6607
HD	-12.6608
▁ritmestoornis	-12.6608
atiek	-12.6608
oblastoom	-12.6609
▁Receptor	-12.661
▁neutrofi	-12.6611
prolifer	-12.6611
Aanvull	-12.6611
omegalie	-12.6611
vleugel	-12.6612
▁wijzig	-12.6612
▁neoplasm	-12.6612
▁Genetic	-12.6613
▁nasolabia	-12.6613
▁inflammato	-12.6613
ornu	-12.6614
oalveolair	-12.6614
epaling	-12.6614
RCA	-12.6615
lue	-12.6615
▁visceral	-12.6616
aureola	-12.6616
ndri	-12.6616
▁semi	-12.6616
▁nodular	-12.6616
VIN	-12.6616
keurig	-12.6617
ymo	-12.6617
▁schimm	-12.6617
gevoegd	-12.6617
▁Liqu	-12.6617
verweeg	-12.6617
ntstoken	-12.6617
uniculus	-12.6617
pongiotische	-12.6617
▁scler	-12.6617
▁spitz	-12.6617
▁lymfomonocyt	-12.6617
▁ernst	-12.6617
entigineu	-12.6617
hydr	-12.6617
esearch	-12.6618
tuximab	-12.6618
▁Kaposi	-12.6618
mfyse	-12.6618
genitale	-12.6618
▁BEWERKING	-12.6618
▁Brunn	-12.6618
fertiliteit	-12.6618
Medebeoordeeld	-12.6618
_0025244	-12.6618
musculatuur	-12.6618
richofolliculoom	-12.6618
▁Aangrenzend	-12.6618
▁Agendia	-12.6618
▁Bartonella	-12.6618
▁Dubreuilh	-12.6618
▁Feitelijk	-12.6618
▁Hemangioom	-12.6618
▁Hurthlecel	-12.6618
▁IMMUNOHISTOCHEM	-12.6618
▁KNO	-12.6618
▁NSIP	-12.6618
▁ONGEWIJZIGD	-12.6618
▁PUNLMP	-12.6618
▁RECHTS	-12.6618
▁Respectievelijk	-12.6618
▁Sampling	-12.6618
▁aangehecht	-12.6618
▁acanto	-12.6618
▁astrocytair	-12.6618
▁atrophy	-12.6618
▁calcaneus	-12.6618
▁change	-12.6618
▁cholestatisch	-12.6618
▁collum	-12.6618
▁epulis	-12.6618
▁exanthemateu	-12.6618
▁gecompliceerd	-12.6618
▁gelukt	-12.6618
▁gepland	-12.6618
▁gezocht	-12.6618
▁hospita	-12.6618
▁hypergranulos	-12.6618
▁iatroge	-12.6618
▁isomerism	-12.6618
▁jodium	-12.6618
▁kattenkrab	-12.6618
▁macrofaag	-12.6618
▁macrovesiculair	-12.6618
▁nonsemino	-12.6618
▁oxalaat	-12.6618
▁pattern	-12.6618
▁perivenulair	-12.6618
▁pityrosporum	-12.6618
▁porfyrie	-12.6618
▁posttraumatisch	-12.6618
▁prolactine	-12.6618
▁retromammillair	-12.6618
▁sateliet	-12.6618
▁schors	-12.6618
▁sfenoAd	-12.6618
▁slank	-12.6618
▁sputum	-12.6618
▁stigmata	-12.6618
▁subdigastrisch	-12.6618
▁suggereer	-12.6618
▁temporo	-12.6618
▁thrombotisch	-12.6618
▁vermicularis	-12.6618
▁xanthelasma	-12.6618
▁ACTH	-12.6618
▁Aspergillus	-12.6618
▁Jejunum	-12.6618
▁Weefselstukje	-12.6618
▁brokkelig	-12.6618
▁complement	-12.6618
▁costa	-12.6618
▁extensor	-12.6618
▁gezegd	-12.6618
▁laser	-12.6618
▁sediment	-12.6618
▁sekwester	-12.6618
▁subdura	-12.6618
RESECTIERAND	-12.6618
▁Profylactisch	-12.6618
▁kindsdelen	-12.6618
▁rekening	-12.6618
▁diverticulosis	-12.6618
▁dyserytropo	-12.6618
▁huis	-12.6618
▁orgaan	-12.6618
▁tzt	-12.6618
▁bullosa	-12.6618
▁spaarza	-12.6618
klonaal	-12.6618
▁angiomyolipoom	-12.6618
▁circulair	-12.6618
▁rectal	-12.6618
▁synoviosarcoom	-12.6618
▁trichoblastoom	-12.6618
zuig	-12.6618
▁Palatum	-12.6618
▁neurinoom	-12.6618
▁verleng	-12.6618
▁apert	-12.6618
▁retetestis	-12.6618
▁CMML	-12.6618
▁omringend	-12.6618
▁Schneideria	-12.6618
▁Sinus	-12.6618
▁tinea	-12.6618
▁ventrocaudaal	-12.6618
▁Probe	-12.6618
▁lymfocytosis	-12.6618
▁papule	-12.6618
▁zuurvormend	-12.6618
▁hormoontherapie	-12.6618
uscelarteriitis	-12.6618
▁Lymfomenpanel	-12.6618
▁fibrolipomateu	-12.6618
papillomatotisch	-12.6618
▁Burs	-12.6618
▁dermalis	-12.6618
▁wormen	-12.6618
▁Verruceu	-12.6618
▁broek	-12.6618
▁staplenaad	-12.6618
▁halonaevus	-12.6618
▁individue	-12.6618
▁nodosa	-12.6618
▁wrat	-12.6618
▁hippocamp	-12.6618
▁reumanodus	-12.6618
dition	-12.6618
▁echoarm	-12.6618
Marges	-12.6618
▁aansluitend	-12.6618
▁sliert	-12.6618
▁field	-12.6618
▁linksversch	-12.6618
omo	-12.6618
▁dubbelzijdig	-12.6618
▁leeg	-12.6618
▁onbetrouwbaar	-12.6618
▁desmoAd	-12.6618
▁intraossa	-12.6618
▁reactivatie	-12.6618
▁mucinosis	-12.6618
▁pushing	-12.6618
▁geschampt	-12.6618
▁Mild	-12.6618
▁lipomen	-12.6618
▁zeldzame	-12.6618
somie	-12.6618
organi	-12.6618
▁merker	-12.6619
▁pinealis	-12.6619
▁verwisseld	-12.6619
▁ultrastructure	-12.6619
▁naakt	-12.6619
▁cryoglobulinemi	-12.6619
▁randsinus	-12.6619
▁carotis	-12.6619
bkb	-12.6619
▁double	-12.6619
▁ILVEN	-12.6619
itinib	-12.6619
▁adenocarcinomen	-12.6619
▁monocytaire	-12.6619
▁vlokstructuren	-12.6619
▁inguinal	-12.6619
▁fundusklier	-12.6619
profile	-12.6619
▁aplasie	-12.6619
TUBUL	-12.662
▁patella	-12.662
▁Focus	-12.662
▁amyloidosis	-12.662
▁lymfevat	-12.662
▁pijnlijk	-12.662
▁visceralis	-12.662
▁lymphocyt	-12.662
▁echo	-12.662
▁mucino	-12.662
▁monoclonaliteit	-12.662
▁IUD	-12.662
▁kapselnaevus	-12.662
▁verbetering	-12.6621
▁bullavorming	-12.6621
▁plasmablastair	-12.6621
▁leiomyoompje	-12.6621
042019	-12.6621
▁peesweefsel	-12.6621
▁fimbrie	-12.6621
zig	-12.6621
▁Mediaal	-12.6621
▁receptorstatus	-12.6621
_0000385	-12.6622
▁cmyc	-12.6622
▁immuunfenotype	-12.6622
▁overeenstem	-12.6622
servatie	-12.6622
▁biopsievolume	-12.6622
uste	-12.6623
RSF	-12.6623
▁gecon	-12.6623
▁6070	-12.6623
Plus	-12.6623
▁intraduraal	-12.6624
OPM	-12.6624
▁hidradeno	-12.6624
▁tand	-12.6625
beh	-12.6625
▁Wigresectie	-12.6625
▁leukemisch	-12.6626
MGMTpromot	-12.6626
▁weefselstukken	-12.6626
thal	-12.6627
onisch	-12.6627
755	-12.6628
ritmestoornissen	-12.6628
▁Squameu	-12.6628
▁dyskeratotisch	-12.6628
▁endometroAd	-12.6628
▁ganglioglioom	-12.6628
▁gescoord	-12.6628
▁endothelitis	-12.6628
▁involvement	-12.6628
▁invasiviteit	-12.6628
neuropathie	-12.6628
▁thyroiditis	-12.6629
▁Exp	-12.6629
▁restmelanoom	-12.6629
BIR	-12.663
▁polipectomie	-12.663
▁RAI	-12.6631
▁daaromheen	-12.6631
▁kaakholte	-12.6631
▁Huidcurretage	-12.6632
▁5060	-12.6632
1625	-12.6632
▁Geneesmiddelen	-12.6633
imensi	-12.6633
▁glios	-12.6634
▁relevantie	-12.6635
▁verkleving	-12.6635
JM	-12.6636
▁KCL	-12.6636
032013	-12.6638
▁HPkleuring	-12.6638
NxMx	-12.6638
proxima	-12.6639
▁linkertuba	-12.664
▁laparoscopisch	-12.664
▁koilocyt	-12.664
▁universit	-12.664
1829	-12.664
▁pCys	-12.664
▁linkerheup	-12.6641
17017	-12.6641
▁CU	-12.6641
▁PASH	-12.6641
ectasieen	-12.6644
veneens	-12.6644
troch	-12.6644
ruimt	-12.6645
▁Ontvang	-12.6645
▁Cribriform	-12.6645
▁Preexistent	-12.6645
022015	-12.6645
▁stenoserend	-12.6646
ctocervix	-12.6648
▁hematomorfologi	-12.6648
▁peribronchiaal	-12.6648
interfolliculair	-12.665
▁opsnijding	-12.665
reuscelgranuloom	-12.6653
492	-12.6656
penie	-12.6656
▁nivo	-12.6658
▁pulp	-12.666
▁bijmilt	-12.666
▁MammaPrint	-12.6663
▁dsDNA	-12.6663
▁cardiac	-12.6664
▁Tumorlengte	-12.6664
1506	-12.6664
▁PROX	-12.6665
▁mesorecta	-12.6666
▁botfragmenten	-12.6667
peri	-12.6669
0806	-12.6674
▁klonaliteits	-12.6674
▁SU	-12.6674
egelmatig	-12.6675
▁cryoglobuline	-12.6677
▁pijn	-12.6679
▁afvoergang	-12.6681
▁linkerovarium	-12.6682
MPR	-12.6684
▁dystrofie	-12.6685
▁arteriolen	-12.6685
▁Sigmoidbiopt	-12.6686
chien	-12.669
SEN	-12.669
▁substantie	-12.6693
▁anorecta	-12.6694
reparaat	-12.6695
▁Tonsil	-12.6697
▁producerend	-12.67
▁ingeleverd	-12.6705
▁Leydigcel	-12.6707
▁oncologie	-12.671
Name	-12.6711
span	-12.6711
▁chromosome	-12.6711
▁heden	-12.6717
▁lintje	-12.6722
matige	-12.6726
▁perirecta	-12.6726
mechanismen	-12.6728
vervang	-12.673
riton	-12.6735
▁wortel	-12.6736
▁elastic	-12.6739
▁AK	-12.674
astectomie	-12.6742
pper	-12.6743
plak	-12.6744
▁pP	-12.6748
▁inzendend	-12.6752
odont	-12.6753
▁coiling	-12.6755
▁Subcutisexcisie	-12.6755
▁Testis	-12.676
855	-12.6766
▁postmorta	-12.6769
▁014	-12.6769
▁snelle	-12.6788
▁Ov	-12.679
LAE	-12.68
vlies	-12.6802
112015	-12.6802
AAT	-12.6804
▁055	-12.6807
2218	-12.6807
▁blaasresectie	-12.6814
▁irritatieve	-12.6815
▁seg	-12.6818
▁poliepvorming	-12.682
3548	-12.6821
▁KLE	-12.6825
▁pD	-12.6827
▁Cho	-12.6827
bare	-12.6829
072014	-12.6831
osus	-12.6834
595	-12.6837
1513	-12.6839
▁Pie	-12.6843
▁clip	-12.6845
▁450	-12.6846
drade	-12.6853
730	-12.6854
▁fibros	-12.6854
▁2006	-12.6856
▁papeltje	-12.6857
autoimmuunziekte	-12.6864
olair	-12.6865
▁135	-12.6868
ologisch	-12.6869
▁EB	-12.687
SIE	-12.6875
▁cilinders	-12.6876
▁inclusies	-12.6877
isme	-12.6879
ceratie	-12.6882
▁delings	-12.6885
HET	-12.6886
▁parabasa	-12.6892
▁heterolo	-12.6897
832	-12.6898
cavitair	-12.6899
tuba	-12.69
▁910	-12.6906
878	-12.6913
▁orienteren	-12.6917
1632	-12.692
▁testen	-12.6927
603	-12.6932
Niertransplanta	-12.6933
22019	-12.6937
KW	-12.6942
▁gleason	-12.6946
oegenomen	-12.6959
NR	-12.6964
▁Test	-12.697
RD	-12.6972
▁star	-12.6986
▁plantaire	-12.6986
▁chil	-12.6987
▁bodembiopt	-12.6994
81417	-12.6996
▁CO	-12.6998
894	-12.6999
▁Si	-12.7002
823	-12.7006
062015	-12.7019
▁kwa	-12.7023
1706	-12.7023
mer	-12.7024
izati	-12.7024
▁cystadeno	-12.7028
▁chondro	-12.7035
▁art	-12.7051
oth	-12.7058
▁Vira	-12.7069
691	-12.7073
bry	-12.7082
▁87	-12.7082
old	-12.7083
MM	-12.7084
1820	-12.7087
▁aandoend	-12.7088
▁Cer	-12.7091
▁Endometriose	-12.7094
▁resectiemarge	-12.7098
▁lipo	-12.7106
▁Vergelijk	-12.7106
uitvloed	-12.7107
1815	-12.7108
OX	-12.7116
tine	-12.7116
hit	-12.7118
047	-12.7119
▁dunnedarmtype	-12.712
gesproken	-12.7121
1550	-12.7137
2129	-12.7141
648	-12.7141
▁aanv	-12.7146
004	-12.7146
▁delenresectie	-12.7155
1307	-12.7172
_0000	-12.7199
▁hemi	-12.7209
til	-12.7212
▁cap	-12.7216
▁NT	-12.7218
papillaire	-12.7223
En	-12.7237
▁Omentumbiopt	-12.7243
▁133	-12.7244
ZI	-12.7247
▁verb	-12.7269
immuun	-12.727
623	-12.7271
1605	-12.7272
▁Mid	-12.7274
▁muco	-12.7278
differ	-12.7281
991	-12.7304
▁pu	-12.7323
▁500	-12.733
draad	-12.734
▁Anal	-12.7343
22022	-12.7351
Tx	-12.7354
uff	-12.7356
tumoruitbreiding	-12.7359
▁event	-12.7365
1350	-12.7366
▁doorvoer	-12.7367
▁geg	-12.7367
▁49	-12.7372
2273	-12.7375
▁NE	-12.7376
▁glute	-12.7377
▁wi	-12.7385
709	-12.7385
▁syndrome	-12.7395
▁173	-12.7395
2164	-12.7395
1588	-12.7401
▁ureteren	-12.7409
rd	-12.7409
cyst	-12.7411
hemicol	-12.7412
1062	-12.7416
▁thyroid	-12.7418
▁SSA	-12.7435
1680	-12.7448
2389	-12.7452
▁Duct	-12.7453
23001	-12.7457
ki	-12.7474
ervixuitstrijk	-12.7475
891	-12.7486
490	-12.7493
348	-12.7494
984	-12.7502
stromal	-12.7504
zeker	-12.7509
754	-12.7511
587	-12.7512
ylindercelatypie	-12.752
▁levermetastase	-12.7524
▁pseudodecidua	-12.7526
1476	-12.7528
▁tubulusepitheel	-12.7533
2454	-12.7537
cellularis	-12.7537
ld	-12.7541
OD	-12.7549
1940	-12.7553
▁170	-12.7555
652	-12.7574
▁veno	-12.7578
701	-12.7584
▁oesofagusmaag	-12.7587
▁local	-12.7597
970	-12.7605
758	-12.761
▁endomyocard	-12.7617
aspecifiek	-12.7617
epithelia	-12.7633
AME	-12.7634
1533	-12.7647
papillair	-12.765
▁fl	-12.7653
1441	-12.7667
nguinal	-12.7668
formulier	-12.7671
▁HG	-12.7678
▁174	-12.7684
▁link	-12.7688
▁smal	-12.7701
▁subco	-12.7713
2232	-12.7715
2226	-12.7731
▁mar	-12.7736
maagslijmvlies	-12.774
1850	-12.7751
1503	-12.7757
put	-12.7758
▁ui	-12.7758
▁1075	-12.7763
▁Tonsilbiopt	-12.7782
ijns	-12.7785
▁APAS	-12.779
▁gedi	-12.7795
KRASBRAF	-12.78
middel	-12.7802
2005	-12.7805
919	-12.782
1704	-12.7824
▁voetjes	-12.7824
ypsi	-12.7825
20010	-12.784
▁intramucosa	-12.7841
matig	-12.7842
▁Mammaablati	-12.7843
zekerheid	-12.7848
1608	-12.7861
▁factor	-12.7863
19033	-12.7865
▁mycobacteri	-12.7868
▁ortho	-12.7868
▁zona	-12.7875
18000	-12.7886
▁behoren	-12.7892
reak	-12.7897
seffect	-12.7902
059	-12.7904
hersen	-12.7913
ndige	-12.7917
▁ulcer	-12.7918
ater	-12.7923
ntrale	-12.7927
2326	-12.7928
klinisch	-12.7931
ida	-12.7936
marker	-12.7936
261	-12.7945
▁EP	-12.7946
lastische	-12.7946
axi	-12.7946
IGE	-12.7952
anknopingspunten	-12.7955
cysteus	-12.7955
▁leuko	-12.7957
▁Oor	-12.7961
▁nierbiopsie	-12.7967
559	-12.7974
nende	-12.7986
▁geb	-12.799
marges	-12.8006
1951	-12.8011
▁obturator	-12.8016
922	-12.8017
prostatisch	-12.8024
▁latero	-12.8026
▁Ruim	-12.8037
ST	-12.8038
oglossus	-12.8038
ERDE	-12.8038
▁erupti	-12.8038
beide	-12.8039
bu	-12.8039
▁afgerond	-12.8039
▁coxart	-12.8045
▁malformati	-12.8047
▁lengt	-12.8051
▁metaplasi	-12.8051
▁proliferati	-12.8057
▁lopen	-12.8058
599	-12.8074
situ	-12.8074
emihepatectomie	-12.8079
568	-12.8083
sduur	-12.8088
346	-12.809
259	-12.809
▁Daarom	-12.8097
axillair	-12.8115
▁Langerhanscel	-12.8127
buiten	-12.8128
082016	-12.8129
lang	-12.8129
kenmerk	-12.813
727	-12.813
2340	-12.813
sure	-12.8131
2108	-12.8135
▁dermo	-12.8136
897	-12.8138
verandering	-12.8139
Cytologi	-12.8143
stans	-12.8144
2096	-12.8151
obstructie	-12.8151
lymf	-12.8155
passen	-12.8155
1855	-12.8156
ijzer	-12.8157
uiteinde	-12.8158
1634	-12.816
ocalis	-12.8161
Diep	-12.8162
6_	-12.8163
crescentisch	-12.8166
ovarie	-12.8166
schilfer	-12.8168
Verslag	-12.8169
Uitbreid	-12.8169
CLLSLL	-12.817
▁Cav	-12.8171
JNI	-12.8171
OVERIG	-12.8172
cytoplasmatisch	-12.8172
concrement	-12.8172
beenmerg	-12.8172
instabiel	-12.8173
▁centr	-12.8173
Protocollair	-12.8173
Congorood	-12.8173
Test	-12.8173
geleverd	-12.8173
Lymfocytose	-12.8173
discordant	-12.8173
ejaculaat	-12.8174
HSV	-12.8174
Maagantrum	-12.8174
▁Methylatie	-12.8174
eccrien	-12.8174
betrokkenheid	-12.8174
Beperkt	-12.8174
disease	-12.8174
▁HV	-12.8175
Uitgebreide	-12.8175
recidiverend	-12.8175
Lumpectomie	-12.8175
borderline	-12.8175
secretoir	-12.8175
tibia	-12.8175
reuscellen	-12.8175
Medisch	-12.8175
Enkel	-12.8175
Matig	-12.8175
IgG	-12.8175
onderooglid	-12.8175
slokdarm	-12.8175
kliniek	-12.8175
respectievelijk	-12.8175
Celarm	-12.8176
linker	-12.8176
correleren	-12.8176
mandibula	-12.8176
PTEN	-12.8177
Spierbiop	-12.8177
uitgesloten	-12.8177
verricht	-12.8177
pericard	-12.8178
▁Leydig	-12.818
Reexcisie	-12.8181
verdacht	-12.8181
stabiel	-12.8183
rood	-12.8183
staal	-12.8184
uitspraak	-12.8184
sterke	-12.8186
pVal	-12.8186
Pap	-12.8189
▁lu	-12.8194
▁cryptabces	-12.8199
treden	-12.8199
▁wit	-12.82
tumorcellen	-12.8201
papillary	-12.8205
zenden	-12.8206
toxicodermie	-12.8206
BAL	-12.8207
▁granulaircel	-12.8207
▁omentumbiopt	-12.8208
Volledig	-12.821
mut	-12.8211
testis	-12.8211
2217	-12.8212
▁94	-12.8212
utane	-12.8213
enfusie	-12.8218
dragend	-12.8223
▁Neuro	-12.8228
▁cardio	-12.8232
abc	-12.8232
muller	-12.8233
▁270	-12.8236
▁glan	-12.8239
lig	-12.8244
▁clo	-12.8244
ectasie	-12.8245
▁lymklier	-12.8245
▁beantwoord	-12.8246
▁progestage	-12.8247
▁elder	-12.8247
▁argument	-12.8249
▁lymfocyt	-12.8249
Rec	-12.8251
▁stollings	-12.8252
vesica	-12.8252
clon	-12.8254
▁alveol	-12.8254
▁mijt	-12.8255
▁maand	-12.8257
▁acantho	-12.8258
▁chemo	-12.826
▁intraparenchyma	-12.8261
1114	-12.8263
▁leid	-12.8263
prostaatbiopten	-12.8263
▁techn	-12.8267
▁positie	-12.8268
▁Hypertrof	-12.8269
lastose	-12.8269
▁toenem	-12.827
▁postero	-12.8271
mondho	-12.8272
▁laryng	-12.8272
gebreid	-12.8274
ythema	-12.8275
_005228	-12.8276
▁spermatozo	-12.8277
▁Herhal	-12.8279
rriteerde	-12.8279
▁burs	-12.8279
▁antisto	-12.8279
atroon	-12.828
ategori	-12.828
elblok	-12.828
ynapto	-12.828
ilindrisch	-12.828
angentieel	-12.828
lagig	-12.8281
▁brugvorm	-12.8281
▁lympho	-12.8281
circumferenti	-12.8281
sprong	-12.8282
vertuigend	-12.8282
pididymis	-12.8282
iforme	-12.8282
eosinofili	-12.8282
▁Uiteinde	-12.8282
gulatie	-12.8282
echanisch	-12.8282
icrokalk	-12.8282
ULUS	-12.8282
▁rectu	-12.8282
▁resistent	-12.8282
ypercellulair	-12.8282
Mesotheli	-12.8282
▁pancreatic	-12.8282
▁cystosco	-12.8283
▁homo	-12.8283
▁torsi	-12.8283
small	-12.8283
▁faci	-12.8283
▁waa	-12.8283
fgedraaid	-12.8283
Voldoe	-12.8283
▁Medic	-12.8283
▁rim	-12.8284
eiland	-12.8284
mamilla	-12.8284
▁colloAd	-12.8284
arcoidose	-12.8284
▁Synov	-12.8284
ofarynx	-12.8284
isselend	-12.8284
RMATI	-12.8284
▁insecten	-12.8284
▁milj	-12.8284
zaam	-12.8284
TDO	-12.8284
arheidsinterval	-12.8284
▁Minuscu	-12.8284
▁chordoom	-12.8284
▁megaloblast	-12.8284
▁pauci	-12.8284
delinsTT	-12.8284
▁SLLCLL	-12.8284
▁accreta	-12.8284
▁amenor	-12.8284
▁endosalpingiose	-12.8284
▁knobbel	-12.8284
▁medicijn	-12.8284
▁nasopharynx	-12.8284
▁stress	-12.8284
▁surfac	-12.8284
Gedilateerd	-12.8284
LATERAL	-12.8284
NDINGEN	-12.8284
PORTEC	-12.8284
Spermatozoa	-12.8284
abdomyoblastair	-12.8284
eAmpetiginiseerd	-12.8284
fibrille	-12.8284
podermatoscleros	-12.8284
quet	-12.8284
ternoclaviculair	-12.8284
trabekel	-12.8284
vertakking	-12.8284
▁Amyloid	-12.8284
▁Array	-12.8284
▁Diathermisch	-12.8284
▁Folliculitis	-12.8284
▁Ganglion	-12.8284
▁Hematurie	-12.8284
▁Hypofyse	-12.8284
▁KLHL	-12.8284
▁KRASEGFRBRAF	-12.8284
▁Keratoacanthoom	-12.8284
▁Nasofarynx	-12.8284
▁Pityriasi	-12.8284
▁Pityrosporon	-12.8284
▁Radika	-12.8284
▁Schamberg	-12.8284
▁Segment	-12.8284
▁Urticari	-12.8284
▁VERSLAG	-12.8284
▁Vacora	-12.8284
▁Wertheim	-12.8284
▁afgeplat	-12.8284
▁afgewerkt	-12.8284
▁afwisselend	-12.8284
▁angiomyxoom	-12.8284
▁annulaire	-12.8284
▁antifosfolipide	-12.8284
▁aortitis	-12.8284
▁baby	-12.8284
▁benoemen	-12.8284
▁betacatenin	-12.8284
▁cancerisatie	-12.8284
▁cytometrie	-12.8284
▁deciduitis	-12.8284
▁dyskeratoom	-12.8284
▁eosinophili	-12.8284
▁fecoliet	-12.8284
▁fulminant	-12.8284
▁geinvolueerd	-12.8284
▁gelobuleerd	-12.8284
▁geprik	-12.8284
▁getransformeerd	-12.8284
▁hemofagocyt	-12.8284
▁historie	-12.8284
▁hormonen	-12.8284
▁hypopigmentatie	-12.8284
▁hysteroscopisch	-12.8284
▁material	-12.8284
▁melanofagocytos	-12.8284
▁mononucleair	-12.8284
▁multiloculair	-12.8284
▁onychomycose	-12.8284
▁parieto	-12.8284
▁pemphigoAd	-12.8284
▁pilomatricoom	-12.8284
▁plasmocellulair	-12.8284
▁potential	-12.8284
▁preAxistent	-12.8284
▁reversibel	-12.8284
▁stroomgebied	-12.8284
▁toegepast	-12.8284
▁vaststellen	-12.8284
▁vellushaar	-12.8284
▁vlekkerig	-12.8284
▁zelflimiterend	-12.8284
Fraai	-12.8284
Genotypering	-12.8284
_1982532	-12.8284
lactatie	-12.8284
▁Color	-12.8284
▁Etiologie	-12.8284
▁FACS	-12.8284
▁UPJ	-12.8284
▁angiolipomen	-12.8284
▁atrophicus	-12.8284
▁callus	-12.8284
▁choroid	-12.8284
▁consequenties	-12.8284
▁hypoechoge	-12.8284
▁mastitis	-12.8284
▁paraproteine	-12.8284
▁parasitose	-12.8284
▁repet	-12.8284
▁verzocht	-12.8284
Dichtst	-12.8284
inistra	-12.8284
▁HiX	-12.8284
▁PARP	-12.8284
▁slijmmeren	-12.8284
▁RTPCR	-12.8284
▁dysfunctione	-12.8284
▁erythropoe	-12.8284
▁fibromyxo	-12.8284
▁adenocarcinooom	-12.8284
INTRA	-12.8284
▁omvang	-12.8284
Mutation	-12.8284
▁autorisatie	-12.8284
▁BHband	-12.8284
▁VAIN	-12.8284
▁athero	-12.8284
▁verkeerd	-12.8284
ncytiotrofoblast	-12.8284
▁longemfyseem	-12.8284
▁polyklonaal	-12.8284
woeker	-12.8284
▁bolvormig	-12.8284
▁zonbeschadiging	-12.8284
▁fibroelastose	-12.8284
▁villusatrofie	-12.8284
Duidelijk	-12.8284
Glaasje	-12.8284
▁uitgestreken	-12.8284
▁sclerosis	-12.8284
▁empyeem	-12.8284
▁harttamponade	-12.8284
▁tubulusschade	-12.8284
donatie	-12.8284
▁heterotopi	-12.8285
▁semenmonster	-12.8285
▁hartkleppen	-12.8285
▁Stroma	-12.8285
tophus	-12.8285
▁klepblad	-12.8285
▁vallecula	-12.8285
▁chorangiose	-12.8285
▁zenuwtakjes	-12.8285
▁BloomRichardson	-12.8285
▁asbest	-12.8285
▁AZU	-12.8285
▁Micronodulair	-12.8285
▁astma	-12.8285
▁zenuwtakken	-12.8285
▁zijsneerand	-12.8285
Hurthle	-12.8285
▁splen	-12.8285
▁huidpunten	-12.8285
▁Onderbeen	-12.8285
▁seriesnede	-12.8285
▁pAsn	-12.8285
gonad	-12.8285
▁zitten	-12.8285
▁krab	-12.8285
▁triploid	-12.8285
▁vatinvasie	-12.8285
▁overweeg	-12.8285
▁trilhaar	-12.8285
▁extrathyreoid	-12.8285
747_	-12.8285
NNO	-12.8285
▁seroomholte	-12.8285
▁intrahepatisch	-12.8285
▁nasopalatinus	-12.8285
▁break	-12.8285
▁lepr	-12.8285
▁verwisseling	-12.8285
▁kno	-12.8285
▁glomangioom	-12.8285
▁kracht	-12.8285
▁galganglijden	-12.8286
▁afgedraaid	-12.8286
210273	-12.8286
▁kwantitatie	-12.8286
sieke	-12.8286
BLS	-12.8286
▁faciale	-12.8286
▁DPAM	-12.8286
▁mislukt	-12.8286
▁encefal	-12.8286
▁zorg	-12.8286
▁splice	-12.8286
▁dij	-12.8286
▁HPgastritis	-12.8286
▁report	-12.8286
Phe	-12.8286
▁fibroompje	-12.8286
▁ingu	-12.8286
▁asthenospermie	-12.8286
osacea	-12.8287
cellonly	-12.8287
letz	-12.8287
OLO	-12.8287
▁pharynx	-12.8287
▁nierfunctie	-12.8287
▁Pathologisch	-12.8287
▁oorsprong	-12.8287
NCLUSIE	-12.8287
▁fascia	-12.8287
▁Para	-12.8287
▁adenoAd	-12.8287
▁MPO	-12.8288
CHT	-12.8288
▁neuroma	-12.8288
SKP	-12.8288
▁barrett	-12.8288
▁bont	-12.8289
21924	-12.8289
▁prefibrotisch	-12.8289
▁transbronchia	-12.8289
▁topklier	-12.8289
avage	-12.8289
▁seniel	-12.8289
Overal	-12.8289
▁poliepskintag	-12.8289
▁asymmetrisch	-12.8289
▁Borg	-12.829
▁gehouden	-12.829
▁progr	-12.829
▁hemangioompje	-12.829
anter	-12.829
phic	-12.829
▁zonelymfoom	-12.829
▁herstel	-12.829
▁Cystebeeld	-12.829
tepel	-12.829
▁HMB	-12.829
▁pPro	-12.8291
▁LW	-12.8291
▁MUM	-12.8291
▁hoort	-12.8291
▁TCRG	-12.8291
alfa	-12.8291
▁circu	-12.8291
▁UMC	-12.8292
▁nierziekte	-12.8292
▁pagetoid	-12.8292
▁ovarii	-12.8293
▁RSH	-12.8293
▁Max	-12.8293
▁aortocava	-12.8294
ocele	-12.8294
▁duiding	-12.8294
▁nood	-12.8295
▁dominantie	-12.8295
▁extremiteiten	-12.8295
122016	-12.8295
▁radius	-12.8296
▁zenuwbundels	-12.8296
▁voorloper	-12.8296
pylorisch	-12.8296
▁geactiveerd	-12.8296
▁katheter	-12.8296
▁scabiAs	-12.8296
▁Radiologisch	-12.8296
▁MMRproficient	-12.8296
▁manifestatie	-12.8297
▁melanocytoom	-12.8297
▁prostaathelft	-12.8297
OP	-12.8297
▁hoornplug	-12.8297
richt	-12.8298
▁granulomatos	-12.8298
▁brisk	-12.8299
▁monochoria	-12.8299
▁HRM	-12.8299
▁tubahoek	-12.83
▁bif	-12.83
▁doorlopen	-12.83
▁glandularis	-12.83
stromacelsarcoom	-12.83
▁zoster	-12.83
▁hieromtrent	-12.8302
defini	-12.8302
figuren	-12.8302
model	-12.8302
▁editiepT	-12.8303
Light	-12.8303
▁scheen	-12.8304
▁disseminat	-12.8306
▁pHis	-12.8307
▁combinatiebeeld	-12.8307
▁180	-12.8308
▁begren	-12.8308
▁SLL	-12.8308
▁chromosomen	-12.8309
▁Pub	-12.8311
▁zetten	-12.8311
▁cavernosu	-12.8311
IgK	-12.8312
llips	-12.8313
▁ingedikt	-12.8313
▁NRASgen	-12.8313
▁sco	-12.8314
domin	-12.8317
bp	-12.8317
ney	-12.8317
▁secreet	-12.8317
▁Milt	-12.8317
▁verka	-12.8317
▁Nummer	-12.8318
▁Onderliggend	-12.8318
▁sacra	-12.8318
▁verkleuring	-12.8318
▁femoralis	-12.8318
ransbronchia	-12.8318
▁DIN	-12.8318
15315	-12.8318
▁cervixuitstrijk	-12.8319
▁strookje	-12.8319
▁hybrid	-12.8321
▁Anastomose	-12.8323
▁beantwoorden	-12.8323
▁mijten	-12.8324
▁fibrillair	-12.8325
▁ALL	-12.8325
▁naevocell	-12.8326
▁ADH	-12.8326
aliseerd	-12.8327
▁aggregaatje	-12.8329
▁plaveis	-12.8329
892	-12.8332
steking	-12.8333
▁piece	-12.8333
23016	-12.8337
dermatopatholoog	-12.8337
▁Nacurettage	-12.8338
▁aut	-12.8338
▁Extranoda	-12.8339
▁expositie	-12.8339
▁Auramine	-12.8339
▁oesophagea	-12.8339
▁ANA	-12.8341
LITEIT	-12.8342
▁linkeradnex	-12.8342
▁prematu	-12.8342
723	-12.8345
▁papilloompje	-12.8345
]20180	-12.8345
▁endoresectie	-12.8346
monster	-12.8346
Inzending	-12.8347
1654	-12.8348
emd	-12.8349
▁overgenomen	-12.835
▁FISHonderzoek	-12.835
▁sarcomateu	-12.8352
LUM	-12.8354
myc	-12.8354
▁kenmerk	-12.8355
curretage	-12.8356
▁retrospectie	-12.8357
▁opties	-12.836
▁parenchymateus	-12.836
▁irregularit	-12.8361
▁CIRCUMFER	-12.8361
▁Bulle	-12.8361
▁aneurysmatisch	-12.8368
▁uitlopertje	-12.837
meerder	-12.8373
inpo	-12.8373
▁zwaar	-12.8373
▁dog	-12.8376
effecten	-12.8376
▁mediocrania	-12.8379
▁vlek	-12.838
▁Epicrise	-12.8382
▁plex	-12.8383
epithelioAd	-12.8384
rus	-12.8385
518	-12.8385
orum	-12.8386
CALC	-12.8386
1547	-12.8386
thromb	-12.8388
▁pot	-12.8389
uitenoppervlak	-12.8393
nost	-12.8397
▁py	-12.8398
ther	-12.8401
▁pancreasweefsel	-12.8404
▁versch	-12.8404
112017	-12.8406
▁Dat	-12.8407
1720	-12.8409
▁immuunkleuring	-12.8413
▁kinder	-12.8417
bjz	-12.8418
▁Zwar	-12.8418
▁debul	-12.8421
▁villus	-12.8426
▁DOOR	-12.8426
613	-12.8427
▁will	-12.8431
uurt	-12.8432
maturiteit	-12.8433
▁vaatwanden	-12.8438
▁vesikels	-12.8439
▁Colonbiopsie	-12.8441
Lab	-12.8442
mediastinoscopie	-12.8443
ussen	-12.8444
AMO	-12.8448
▁hyoid	-12.845
▁my	-12.845
▁mog	-12.8453
▁004	-12.8455
▁ED	-12.8455
▁sho	-12.8457
▁Partieel	-12.8459
664	-12.8461
978	-12.8463
▁derm	-12.8463
1839	-12.8468
▁lb	-12.8479
sni	-12.8479
ruimingsreactie	-12.8479
uitmonding	-12.848
epatica	-12.8489
▁97	-12.8491
▁047	-12.8492
▁Overweging	-12.8492
▁gewrichts	-12.8495
1966	-12.8498
mmunotypering	-12.8498
1435	-12.8503
▁autoly	-12.8503
▁ileocol	-12.8508
▁syndroma	-12.8511
derhalve	-12.8512
▁daarop	-12.8513
ELE	-12.8516
003	-12.8525
▁LM	-12.8526
▁ner	-12.8526
▁cranio	-12.8527
▁weefselverband	-12.8529
▁polycythemi	-12.8532
1548	-12.8536
▁036	-12.8536
IKA	-12.8537
1822	-12.8537
▁Adenomateu	-12.8538
▁parietaalcel	-12.8541
▁gb	-12.8543
584	-12.8544
▁bb	-12.8546
▁KINII	-12.8547
assen	-12.8551
uni	-12.8556
immuundeposities	-12.8564
22021	-12.8566
kni	-12.8571
1014	-12.8571
8689	-12.8577
689	-12.8578
erlies	-12.858
▁epithelioma	-12.8583
▁AMA	-12.8585
gegevens	-12.8589
875	-12.8591
▁tumormetastase	-12.8597
ngemarkeerd	-12.8601
ordeel	-12.8604
423	-12.8613
aud	-12.8616
2276	-12.8616
▁340	-12.8617
799	-12.8619
tweelingplacenta	-12.8626
1327	-12.8627
Vasoinvasie	-12.8636
ming	-12.8639
1390	-12.8652
▁Zijsnijrand	-12.8655
ility	-12.8658
GEN	-12.8663
954	-12.8665
oscopisch	-12.8666
▁aortacava	-12.8671
EIN	-12.8672
▁myxopapilla	-12.8673
▁Sem	-12.8673
▁gebracht	-12.8675
▁perichondri	-12.8678
▁186	-12.8682
1904	-12.8683
1967	-12.8687
2371	-12.8689
▁schi	-12.8691
stasisdermatitis	-12.8695
▁caus	-12.8704
▁cy	-12.8706
▁LK	-12.8709
PASkleuring	-12.8713
1945	-12.8714
▁wijze	-12.8737
▁fi	-12.874
▁dur	-12.874
theliale	-12.8741
0800	-12.8754
pneumon	-12.8763
▁halve	-12.8779
regiona	-12.879
20000	-12.8792
craniaal	-12.8792
▁fibroblast	-12.8793
factoren	-12.8798
▁MAT	-12.8803
1770	-12.8805
1714	-12.8815
1542	-12.8816
1731	-12.8829
heden	-12.8831
▁dichts	-12.8838
▁adn	-12.884
▁lin	-12.8844
378	-12.8874
▁neuropathologi	-12.8877
▁spi	-12.8884
ocyten	-12.8886
Graa	-12.8898
▁paracava	-12.8904
otomie	-12.891
lut	-12.8911
mutatieanalyse	-12.8918
latum	-12.8923
659	-12.8923
▁epitheli	-12.893
487	-12.8935
757	-12.8943
▁bevinden	-12.8952
18512	-12.8965
▁140	-12.8973
032017	-12.8975
[...]
