<unk>	0
<s>	0
</s>	0
[PAD]	0
[UNK]	0
[CLS]	0
[MASK]	0
[C-SEP]	0
.	-2.6266
:	-3.48981
C	-3.77
F	-3.80025
RL	-3.8147
]	-3.91835
,	-3.93153
[	-4.03205
▁met	-4.21122
▁van	-4.35233
▁(	-4.35947
▁een	-4.38367
▁	-4.42367
▁Geen	-4.47764
▁en	-4.56158
e	-4.57629
▁geen	-4.84202
▁de	-4.84355
-	-4.86213
▁voor	-4.88017
▁in	-4.88514
▁maligniteit	-4.92989
▁het	-5.01449
▁rechts	-5.12419
▁bij	-5.12761
▁links	-5.13012
▁ontsteking	-5.25517
carcinoom	-5.31071
):	-5.31348
)	-5.34408
▁is	-5.35578
▁beeld	-5.36228
▁[	-5.44411
▁Huidexcisie	-5.44962
▁dysplasie	-5.49535
▁of	-5.52639
▁I	-5.55793
▁zonder	-5.6204
▁niet	-5.63289
▁aanwijzingen	-5.7007
▁basaalcel	-5.7083
▁Huidbiopt	-5.7541
II	-5.95049
▁afwijkingen	-5.98262
▁passend	-5.99464
/	-6.01516
▁*******	-6.02545
▁op	-6.06132
;	-6.06908
▁chronische	-6.0799
▁vrij	-6.12416
d	-6.15437
▁naevus	-6.19978
▁geringe	-6.21902
s	-6.24193
▁te	-6.2502
▁kan	-6.26228
▁veranderingen	-6.27321
▁T	-6.28527
▁materiaal	-6.29236
▁actieve	-6.29983
).	-6.30693
▁waarin	-6.31721
▁d	-6.33817
▁biopten	-6.33942
▁reactieve	-6.34209
en	-6.34982
▁zijn	-6.37982
le	-6.38812
▁De	-6.3971
▁tot	-6.40114
▁biopt	-6.41139
▁mm	-6.42067
▁adenocarcinoom	-6.43193
Aanvulling	-6.44739
A	-6.45318
▁onderzoek	-6.45805
▁passen	-6.51559
▁worden	-6.51887
▁dit	-6.54437
▁cm	-6.57548
▁laesie	-6.58022
▁verruca	-6.58395
▁rechter	-6.59802
▁metaplasie	-6.61423
▁linker	-6.62295
▁atypie	-6.6331
▁verwijderd	-6.6408
▁tumor	-6.64173
▁Excisie	-6.66641
▁nodulair	-6.66731
▁naevocellularis	-6.67104
▁Het	-6.67317
▁groeiend	-6.70011
▁Biopten	-6.70414
▁groei	-6.70644
▁II	-6.72673
▁excisie	-6.7287
▁seborrhoica	-6.73761
▁type	-6.76465
▁carcinoom	-6.77629
▁1	-6.78972
▁In	-6.80559
▁volgt	-6.81044
▁2	-6.81227
▁wordt	-6.81602
▁Er	-6.8209
▁Huid	-6.82377
▁lymfklier	-6.82561
▁deels	-6.83348
2	-6.84092
1	-6.84184
▁3	-6.84404
▁goed	-6.85225
▁huid	-6.87386
t	-6.87656
▁intestinale	-6.8838
▁lokalisatie	-6.88729
▁negatief	-6.8883
▁plaveiselcel	-6.91036
▁dermale	-6.91752
▁focaal	-6.92436
▁Helicobacter	-6.93828
▁endometrium	-6.94487
▁conclusie	-6.96005
▁metastase	-6.96971
biopten	-6.98674
▁onder	-6.98924
▁hyperplasie	-6.98976
▁maligne	-6.99627
▁rug	-6.99755
▁aan	-7.00786
▁past	-7.01275
▁ook	-7.02273
▁mamma	-7.03465
gedifferentieerd	-7.04347
▁mogelijk	-7.07523
▁na	-7.0898
▁colon	-7.09601
us	-7.1064
▁uit	-7.10942
▁keratose	-7.1158
III	-7.11815
▁pylori	-7.12017
▁kenmerken	-7.12777
▁benigne	-7.12788
▁poliep	-7.13386
T	-7.13939
▁adenoom	-7.15106
excisie	-7.15796
▁diagnose	-7.16935
▁HPV	-7.17306
▁Biopt	-7.18217
▁slijmvlies	-7.19298
▁4	-7.20416
▁cellen	-7.20487
▁aanvullend	-7.205
▁conform	-7.20761
▁superficieel	-7.2128
tekenen	-7.21856
▁als	-7.24551
▁aangetroffen	-7.25207
▁uitgebreide	-7.25305
▁positief	-7.26519
▁/	-7.27363
▁epitheel	-7.27559
▁actinisch	-7.28171
▁uitslag	-7.28579
▁atypische	-7.29486
▁laaggradige	-7.29639
▁aanwezig	-7.29878
▁er	-7.30934
▁specifieke	-7.33928
▁gezien	-7.33954
al	-7.35856
v	-7.37683
I	-7.37952
▁uur	-7.38269
▁aangetoond	-7.40088
▁matig	-7.40268
▁t	-7.40442
▁cyste	-7.42108
▁mutatie	-7.43084
slijmvlies	-7.43135
?	-7.43459
▁solide	-7.43806
▁p	-7.44235
▁B	-7.44367
▁huidexcisie	-7.44388
m	-7.45278
▁hals	-7.45908
▁huidbiopt	-7.46695
▁ter	-7.46982
▁weefsel	-7.47595
▁enkele	-7.49036
▁resectie	-7.50013
▁dan	-7.50068
▁graad	-7.50721
▁samengestelde	-7.50873
▁atrofie	-7.51617
histochemisch	-7.52255
▁morb	-7.52585
▁kunnen	-7.52876
▁afwijking	-7.53791
pre	-7.53893
▁naar	-7.53938
3	-7.5415
Geen	-7.54833
▁chronisch	-7.55308
▁dat	-7.55437
▁nog	-7.55645
▁werd	-7.56027
▁wang	-7.56327
▁argumenten	-7.56339
▁klinische	-7.56489
▁voorkeur	-7.56757
▁delen	-7.5697
▁5	-7.58215
▁bericht	-7.59119
p	-7.59624
▁onvoldoende	-7.59764
▁tubulair	-7.60128
▁prostaat	-7.60173
▁door	-7.60303
B	-7.60729
▁maag	-7.60821
▁geheel	-7.61393
a	-7.61695
▁perineurale	-7.62809
),	-7.62817
▁reikend	-7.62875
L	-7.63759
▁invasieve	-7.64115
▁deze	-7.64268
de	-7.65449
▁C	-7.65685
▁onderbeen	-7.65774
▁waarbij	-7.66289
▁enige	-7.66536
b	-7.66967
▁*******,	-7.68787
▁corpus	-7.69398
▁dermatitis	-7.6954
▁Zie	-7.70072
▁toont	-7.70178
▁zeer	-7.72345
▁antrum	-7.72402
▁radicaal	-7.73174
▁lymfklieren	-7.73512
▁lymfoom	-7.73837
▁nummer	-7.74031
▁maar	-7.74287
▁III	-7.74402
▁marge	-7.7455
G	-7.7472
▁basis	-7.74967
▁histologisch	-7.74975
▁kader	-7.75027
▁over	-7.75348
▁A	-7.76286
▁colitis	-7.76661
▁sprieterig	-7.77083
▁situ	-7.77359
▁weinig	-7.77435
▁uitgesloten	-7.77613
▁klinisch	-7.77618
in	-7.78044
▁melanoom	-7.78398
▁6	-7.78864
▁cervix	-7.79019
▁gevonden	-7.79079
▁analyse	-7.79117
V	-7.7929
▁aanwezigheid	-7.79407
▁Onvoldoende	-7.79904
▁bovenbeen	-7.80359
▁overwogen	-7.82268
▁punctie	-7.82724
]*******	-7.82876
▁fibrose	-7.83098
▁volgen	-7.83492
▁rest	-7.83529
▁diameter	-7.83756
▁beide	-7.8384
▁g	-7.83976
▁gering	-7.84181
▁Tevens	-7.84231
▁betreft	-7.84733
▁Revisie	-7.85038
▁waarschijnlijk	-7.853
▁pathologie	-7.85453
▁acute	-7.85476
n	-7.85654
ze	-7.86065
▁duidelijke	-7.8623
ve	-7.86614
▁voorhoofd	-7.8673
▁Resectie	-7.86954
▁verdacht	-7.87797
▁microscopie	-7.88819
E	-7.89011
▁eventue	-7.8931
▁matige	-7.8936
preparaat	-7.89692
▁Punctie	-7.89803
▁immuun	-7.90125
▁moleculair	-7.90795
▁reactief	-7.90853
▁snijvlak	-7.91022
▁keratosis	-7.9116
▁best	-7.91405
▁Endometrium	-7.9169
▁Urine	-7.91831
▁kleine	-7.92149
▁melanocytaire	-7.92301
▁duodenum	-7.92607
▁schouder	-7.92693
▁onderarm	-7.9301
Deze	-7.9373
▁P	-7.93845
▁litteken	-7.93996
▁echter	-7.9491
▁oppervlakkig	-7.95267
▁hoog	-7.95344
wel	-7.95383
▁intra	-7.95492
▁actinica	-7.95696
▁reikt	-7.95935
(	-7.96007
▁c	-7.96054
De	-7.96888
▁Bowen	-7.97085
▁wat	-7.97108
▁celbeeld	-7.9745
▁boven	-7.97455
▁bodem	-7.9811
▁-	-7.98863
▁component	-7.99665
▁temporaal	-8.0007
«	-8.00199
▁rectum	-8.00812
▁specifiek	-8.00819
▁classificeren	-8.0083
▁proliferatie	-8.01239
▁oppervlakkige	-8.01356
▁wel	-8.01814
biopt	-8.01815
▁Moleculair	-8.0252
▁bovenarm	-8.02623
c	-8.02782
▁bekende	-8.03122
▁snijvlakken	-8.03341
▁long	-8.03441
▁beoordelen	-8.03916
▁diagnostiek	-8.0457
IV	-8.04699
▁zie	-8.0513
▁zou	-8.05186
▁Beeld	-8.0525
▁eczeem	-8.05426
▁lichenoide	-8.06186
▁Een	-8.06322
▁lichen	-8.06354
▁minimale	-8.06362
4	-8.06399
▁u	-8.06504
▁eerder	-8.08187
▁kleuring	-8.09275
▁lateraal	-8.09582
▁+	-8.09607
▁waarvan	-8.09872
el	-8.09883
epitheliale	-8.09982
▁diagnostisch	-8.10072
▁Maagbiopten	-8.10227
▁groeiwijze	-8.10676
▁daar	-8.11204
▁EGFR	-8.11923
▁afkomstig	-8.1244
▁verder	-8.12442
▁ascendens	-8.12495
▁aanwijzing	-8.12546
▁7	-8.13277
invasieve	-8.13775
▁re	-8.1384
>	-8.13994
▁epidermale	-8.14228
▁name	-8.14313
▁vermeld	-8.14371
▁Snijvlakken	-8.14523
▁exon	-8.14617
▁resectievlak	-8.14747
▁colonslijmvlies	-8.15343
nummer	-8.15447
▁S	-8.15546
o	-8.16283
re	-8.1651
▁toto	-8.17094
▁klein	-8.17211
▁beenmerg	-8.17346
▁fragmenten	-8.17421
▁hyperplastische	-8.17864
▁neus	-8.17997
cel	-8.18063
▁beoordeelbaar	-8.18094
▁eosinofiele	-8.18688
▁dieper	-8.18816
▁micro	-8.19345
▁urotheelcel	-8.19921
▁granulomen	-8.20007
▁invasief	-8.20127
▁shave	-8.20321
▁dermatofibroom	-8.20747
▁midden	-8.21128
▁KRAS	-8.21278
R	-8.21295
▁vlokatrofie	-8.21479
▁zijde	-8.21726
▁meer	-8.21812
▁oesofagus	-8.21893
▁coeur	-8.23068
▁ten	-8.23147
f	-8.23277
D	-8.23427
▁12	-8.23605
▁Gleason	-8.23742
▁M	-8.23948
▁snijranden	-8.23977
▁littekenweefsel	-8.24249
In	-8.24353
Het	-8.24573
▁bekend	-8.24579
▁minder	-8.24965
materiaal	-8.25597
*******/	-8.25902
▁alle	-8.25979
▁differentiaal	-8.26268
▁ileum	-8.26395
▁die	-8.26402
▁volledig	-8.26914
▁maagslijmvlies	-8.27228
▁score	-8.28304
Voor	-8.28619
▁BRAF	-8.29046
N	-8.29394
▁superficiele	-8.29598
M	-8.29624
▁eosinofilie	-8.29921
▁overige	-8.29974
naaldbiopten	-8.30297
▁ge	-8.30801
▁oksel	-8.30984
▁contact	-8.31616
▁10	-8.31891
Zie	-8.32221
▁cytologisch	-8.32424
▁toename	-8.3244
▁Pleuravocht	-8.32492
▁papillair	-8.32531
▁;	-8.32778
▁oesophagus	-8.32889
S	-8.33275
▁ulceratie	-8.33361
▁G	-8.33464
rechts	-8.33755
▁zo	-8.3383
▁normaal	-8.33977
▁centraal	-8.34009
▁sterk	-8.34031
▁elders	-8.34159
▁evident	-8.3428
ing	-8.34401
▁(*******	-8.34601
Conclusie	-8.35134
▁weke	-8.35292
▁sigmoid	-8.35433
▁V	-8.35851
mw	-8.36024
epitheel	-8.36085
links	-8.36535
▁eerdere	-8.36547
▁lipoom	-8.3671
▁aanknopingspunt	-8.36931
▁beiderzijds	-8.37237
▁vetweefsel	-8.37394
neu	-8.37588
▁verdenking	-8.38437
▁Aanvullend	-8.38562
▁gedacht	-8.38616
▁ductaal	-8.38634
▁diepe	-8.38727
▁Barrett	-8.38867
▁nodulaire	-8.39194
HPV	-8.39215
▁Diagnostiek	-8.39331
▁Consult	-8.39339
▁ca	-8.3944
▁risico	-8.39594
Aanvullend	-8.40012
▁concordant	-8.40241
▁overwegend	-8.40521
▁overtuigend	-8.40594
▁zekere	-8.40645
▁onbekend	-8.40805
▁transversum	-8.41301
▁aantoonbaar	-8.41324
risico	-8.41419
▁Mohs	-8.41837
▁patient	-8.42158
▁resectievlakken	-8.42389
▁opnemen	-8.42427
▁borst	-8.42544
▁genen	-8.42563
▁ernstige	-8.42805
▁IV	-8.42845
▁PA	-8.43204
▁*******/	-8.43259
6	-8.43927
▁H	-8.44442
▁om	-8.4459
▁dysplastische	-8.446
](	-8.44848
▁hooggradig	-8.44863
▁stroma	-8.44921
▁tenminste	-8.44946
▁biopsie	-8.4559
▁immuno	-8.4576
invasie	-8.46065
▁dermis	-8.46417
▁Voor	-8.46447
▁lateral	-8.46893
resectie	-8.47023
▁kun	-8.47163
▁Colonbiopten	-8.4724
▁consult	-8.47352
▁plaatse	-8.47904
▁afwezig	-8.48327
▁mutaties	-8.48476
▁Huidbiopsie	-8.48628
rechter	-8.48705
▁hoofd	-8.48803
▁gelegen	-8.48848
▁Conclusie	-8.48902
53	-8.48939
▁coupes	-8.49112
zie	-8.49707
▁pT	-8.49747
▁dd	-8.49795
▁kleincellig	-8.49955
g	-8.50035
CIN	-8.50126
linker	-8.50306
P	-8.50886
▁gastritis	-8.50943
▁plaatselijk	-8.50957
▁zwelling	-8.50968
▁8	-8.51473
▁oor	-8.51486
▁status	-8.51622
▁derhalve	-8.51965
▁hooggradige	-8.52021
laveiselepitheel	-8.52066
]-	-8.52177
▁infiltrerend	-8.52374
▁flank	-8.52845
▁bespreking	-8.53239
▁eerste	-8.53274
▁Pipelle	-8.53394
i	-8.53408
▁tumorcellen	-8.53417
▁Poliepectomie	-8.53452
▁forse	-8.53534
▁andere	-8.53675
▁HER	-8.53698
hyperplasie	-8.53943
▁invasie	-8.53955
▁twee	-8.53967
▁Dit	-8.54243
ontstekingsbeeld	-8.54333
▁Gaarne	-8.55347
▁CD	-8.55736
0	-8.56102
▁vragen	-8.56516
▁Duodenumbiopten	-8.56822
▁secret	-8.5692
▁9	-8.56923
ariaa	-8.5704
▁IBD	-8.57173
▁folliculitis	-8.57225
▁TUR	-8.57652
▁lijkt	-8.57797
Cholecystectomie	-8.58228
▁mediaal	-8.58353
▁Huidstukje	-8.58445
▁granulomateuze	-8.59807
12	-8.59982
▁aspecifieke	-8.59984
16	-8.60177
PA	-8.60275
▁betreffende	-8.60323
w	-8.60589
▁primaire	-8.608
▁maagantrum	-8.61403
Er	-8.61749
▁O	-8.61881
▁zekerheid	-8.61986
▁dunne	-8.62216
▁respectievelijk	-8.62258
te	-8.62611
-1	-8.62664
▁Appendectomie	-8.62676
▁squameu	-8.63153
▁11	-8.63556
▁revisie	-8.63729
▁papilloom	-8.63917
▁perivasculaire	-8.64073
Huidbiopt	-8.64197
▁Hoog	-8.6432
▁dorsaal	-8.64322
▁appendicitis	-8.64671
ient	-8.65438
▁slecht	-8.65469
▁level	-8.65572
▁plaveisel	-8.65625
▁i	-8.65811
5	-8.65842
▁beoordeling	-8.65984
▁endocervicale	-8.66134
▁Op	-8.66241
▁descendens	-8.6647
▁infiltratie	-8.66559
Revisie	-8.66578
▁tevens	-8.66842
x	-8.66982
maligniteit	-8.67015
▁bepaling	-8.67216
tal	-8.67273
▁spongiotische	-8.6731
r	-8.67333
▁sterke	-8.67756
▁panel	-8.67953
▁microscopische	-8.67989
▁hemangioom	-8.68015
▁lies	-8.68125
▁uitbreiding	-8.68532
▁verricht	-8.68763
▁Lymfklier	-8.68772
▁folliculair	-8.6898
▁hoeveelheid	-8.69215
▁lymfocytose	-8.69241
▁granulocyten	-8.69243
weefsel	-8.69273
▁gen	-8.69357
▁sprieterige	-8.6938
▁pre	-8.69469
▁tussen	-8.69507
ale	-8.69528
▁infectie	-8.69712
▁schimmels	-8.69768
▁ovarium	-8.69773
▁verwerkt	-8.69939
l	-8.70123
▁schildklier	-8.70163
▁m	-8.70219
▁Voorts	-8.70315
▁retour	-8.70427
▁hier	-8.70606
▁vulgaris	-8.70672
▁placenta	-8.70856
▁buik	-8.7088
▁fibro	-8.70993
▁lentigo	-8.71675
lijk	-8.7176
ast	-8.7178
▁N	-8.718
1,	-8.72015
▁Naaldbiopten	-8.72141
▁invasiediepte	-8.72239
▁extern	-8.72887
▁frontaal	-8.72997
▁mediale	-8.73101
▁epitheliale	-8.73122
▁bloed	-8.7339
▁̄d	-8.73712
▁bevindingen	-8.74248
ver	-8.74532
▁15	-8.74655
▁CIN	-8.74678
▁derden	-8.74683
▁celrijk	-8.74709
▁overgang	-8.74839
▁vaso	-8.75023
'	-8.75031
▁ALK	-8.75482
op	-8.75877
▁representatief	-8.76002
▁kleuringen	-8.76091
▁epidermis	-8.76199
ie	-8.7624
▁Giardia	-8.7674
▁uterus	-8.76906
▁Bij	-8.77263
8	-8.77579
▁grootcellig	-8.77621
▁=	-8.77797
▁grensvlak	-8.778
uw	-8.77861
▁classificatie	-8.77923
▁sprake	-8.78085
▁poliepectomie	-8.78127
▁20	-8.78236
▁naast	-8.78529
negatief	-8.79133
▁pathogene	-8.79723
nt	-8.79767
▁bijbehorend	-8.79921
7	-8.8009
▁morfologisch	-8.80232
▁sluiten	-8.80293
▁nader	-8.80546
▁rand	-8.8055
▁tel	-8.80646
▁Her	-8.80977
▁Huidshave	-8.8098
▁veel	-8.81588
rug	-8.81802
▁Prostaatbiopten	-8.81976
organismen	-8.82247
▁DNA	-8.82295
▁therapie	-8.82438
▁angio	-8.82531
▁FISH	-8.82652
▁bindweefsel	-8.82689
▁mucosa	-8.82982
veranderingen	-8.82999
▁blaas	-8.83093
H	-8.83965
▁coecum	-8.84251
▁hyperkeratose	-8.84324
▁origine	-8.84366
▁PR	-8.84412
bij	-8.84711
▁laaggradig	-8.84892
▁geirriteerde	-8.84965
▁Niet	-8.85383
▁dermaal	-8.85538
▁R	-8.85646
exon	-8.85695
Huidexcisie	-8.85751
▁ontstoken	-8.85756
▁Biopsie	-8.85807
▁primair	-8.85892
▁diep	-8.85994
of	-8.86027
▁Cervixbiopt	-8.86206
▁ventraal	-8.86387
▁lymfeklier	-8.86742
▁1.	-8.86876
▁distale	-8.86974
▁%	-8.87138
20	-8.87306
mm	-8.87424
▁NGS	-8.87828
▁granuloma	-8.87845
▁peri	-8.88062
▁doorgemaakte	-8.88484
▁proces	-8.88928
▁Cytologisch	-8.88975
2-	-8.89015
ok	-8.89071
behaarde	-8.89224
▁Mamma	-8.89252
▁ER	-8.89551
▁Conform	-8.89717
voor	-8.89775
name	-8.89797
ezien	-8.90074
▁planus	-8.90116
▁Weke	-8.90228
hyperkeratotisch	-8.90413
▁prostaatbiopten	-8.90774
▁reactie	-8.90799
▁krap	-8.90846
▁0	-8.91206
▁vasculitis	-8.91328
1;	-8.91629
▁Huidstansbiopt	-8.9165
▁hoogte	-8.91747
▁urine	-8.9179
u	-8.91945
Moleculair	-8.91947
▁regio	-8.92236
▁waar	-8.9228
▁uitgebreid	-8.92304
▁vooralsnog	-8.92544
▁DD	-8.92647
▁maagcorpus	-8.92695
▁fibroadenoom	-8.9286
▁terminale	-8.9292
▁localisatie	-8.92999
▁positieve	-8.9329
▁darm	-8.93416
▁intradermale	-8.93781
▁regressie	-8.94066
lab	-8.94137
▁nr	-8.94185
▁kliniek	-8.94427
▁vermoedelijk	-8.94502
▁Definitieve	-8.94554
▁Colonslijmvlies	-8.94555
▁lever	-8.94611
PCL	-8.9469
▁MET	-8.94789
▁nek	-8.94856
▁thorax	-8.94875
▁a	-8.95089
▁deel	-8.95131
receptor	-8.952
▁achtergrond	-8.95232
▁carcinoma	-8.95247
▁zeker	-8.95258
▁meest	-8.95363
▁correlatie	-8.95654
lokalisatie	-8.9574
▁14	-8.95801
▁neusrug	-8.95837
▁Prostaat	-8.95879
▁necrose	-8.95919
▁non	-8.96082
▁*******)	-8.96297
▁gegevens	-8.9667
▁licht	-8.96897
▁enkel	-8.96938
▁nieuwe	-8.97105
on	-8.97243
GIE	-8.97539
▁multifocaal	-8.97858
▁leiomyoom	-8.97878
▁recidief	-8.98088
lijmvliesbiopten	-8.98117
▁coeliakie	-8.98186
▁maagbiopten	-8.98292
diameter	-8.98744
▁Hier	-8.9888
▁nodus	-8.98886
▁Snijvlak	-8.99258
▁lymfocyten	-8.99305
▁pigment	-8.9954
▁squameus	-9.0058
▁zoals	-9.00612
▁beginnende	-9.0062
▁blokje	-9.00789
▁amplificatie	-9.00965
);	-9.00981
▁beperkte	-9.01105
▁diepte	-9.01336
naast	-9.0137
▁vriescoupe	-9.01412
eer	-9.01562
▁mammacarcinoom	-9.01709
▁bovenkwab	-9.0181
▁19	-9.01979
▁bloeding	-9.0238
na	-9.02524
2,	-9.02861
▁slokdarm	-9.0305
CBD	-9.03151
▁parotis	-9.03207
▁bestaande	-9.03401
y	-9.03464
▁achter	-9.03576
ic	-9.03702
▁handrug	-9.04337
kleincellig	-9.04361
10	-9.04429
NB	-9.04495
13	-9.04513
▁subcutis	-9.04601
▁arm	-9.0475
▁ontstekingsrest	-9.04954
▁extra	-9.05012
▁dank	-9.05247
▁onderlip	-9.05335
▁maxima	-9.05572
K	-9.0564
type	-9.05688
▁hierin	-9.05962
▁1,5	-9.05994
▁station	-9.06182
Biopten	-9.06225
▁slechts	-9.06617
▁tonen	-9.06626
▁instantie	-9.06955
▁tuba	-9.06964
▁diffuus	-9.06987
▁focus	-9.06992
cellymfoom	-9.07325
▁syndroom	-9.07374
▁knie	-9.07383
▁slaap	-9.07404
▁uteri	-9.07474
▁Crohn	-9.07665
mateuze	-9.07697
▁Differentiaal	-9.07746
▁lichte	-9.0775
Na	-9.07801
Bij	-9.07804
▁neoplasie	-9.08115
antrum	-9.08186
HMH	-9.08376
▁neuro	-9.08405
▁16	-9.08733
▁beste	-9.08877
at	-9.09018
▁lymfocytaire	-9.09064
▁Mogelijk	-9.09196
▁13	-9.09444
▁30	-9.09455
14	-9.09532
▁atypisch	-9.09916
▁Placenta	-9.09916
▁naaldbiopten	-9.10018
▁nee	-9.10066
auriculair	-9.10102
▁ulcus	-9.10229
skenmerken	-9.1023
▁meerdere	-9.10232
▁focale	-9.10271
▁cholecystitis	-9.10546
▁wenkbrauw	-9.10612
▁opvallende	-9.1083
▁zijdigheid	-9.10872
▁ontvangen	-9.10952
▁klasse	-9.11081
▁Re	-9.112
▁DCIS	-9.11251
tumor	-9.11273
hooguit	-9.11318
graad	-9.11371
TNM	-9.11486
17	-9.117
Coupes	-9.11915
mmuunhistochemie	-9.12024
▁v	-9.12206
dometriumpoliep	-9.12281
▁adeno	-9.12391
▁afwijkend	-9.12465
▁corpustype	-9.12471
▁Maag	-9.12515
ste	-9.12614
▁Maagslijmvlies	-9.12684
biopsie	-9.12751
▁ulcerosa	-9.12764
▁weken	-9.12849
▁onderkwab	-9.13171
▁doorsnijdingen	-9.13534
▁h	-9.13859
2/	-9.14144
▁bas	-9.14217
▁Uitslag	-9.14234
▁ontvangt	-9.14275
sche	-9.14333
▁vorm	-9.14344
▁axilla	-9.14389
▁verslag	-9.1458
ocellulair	-9.14639
▁editie	-9.14651
Consult	-9.14741
normale	-9.14887
▁onderrug	-9.14924
met	-9.1494
▁sclerosus	-9.15033
▁definitieve	-9.15049
geen	-9.15071
▁distaal	-9.15266
▁oog	-9.15309
▁Galblaas	-9.15436
▁correleren	-9.15442
▁infiltraat	-9.15494
▁inflammatoire	-9.16333
▁ulcererende	-9.16423
▁blijft	-9.16574
▁TP	-9.16659
▁onderliggend	-9.16822
▁resectieranden	-9.17041
gen	-9.17194
▁25	-9.17286
▁anus	-9.17292
▁Foca	-9.17325
curettage	-9.17415
▁Cervix	-9.17521
▁darmslijmvlies	-9.17667
▁psoriasis	-9.17781
▁Verder	-9.17881
Mutatie	-9.17957
▁Tumor	-9.17987
▁ROS	-9.18017
▁<	-9.18128
▁E	-9.18229
fragmenten	-9.18265
filtratiediepte	-9.18414
▁gastropathie	-9.18535
▁Beenmergbiopt	-9.18584
▁actief	-9.18614
▁profiel	-9.18619
▁variant	-9.18806
▁totaal	-9.18852
▁behandeling	-9.1916
ranulatieweefsel	-9.19336
▁variatie	-9.19619
▁Shave	-9.1969
▁plasmacellen	-9.20133
▁uitspraak	-9.20167
positief	-9.2043
▁lymfoide	-9.20436
▁craniaal	-9.20694
18	-9.20831
▁Aanvullende	-9.20851
▁papillomatosus	-9.20967
▁bedraagt	-9.21016
▁differentiatie	-9.2126
▁D	-9.21395
▁fragment	-9.21515
zijdigheid	-9.22212
▁Diameter	-9.22266
▁tubulovilleu	-9.22325
▁zal	-9.22622
▁preparaat	-9.22833
▁gelaat	-9.23068
▁laag	-9.23076
▁NRAS	-9.23118
▁gebied	-9.23155
kleuring	-9.23173
▁celarm	-9.23194
▁aspect	-9.23404
▁spierweefsel	-9.23411
▁galblaas	-9.23424
sinfiltraat	-9.23438
▁sereus	-9.23477
▁neusvleugel	-9.23547
▁casus	-9.23586
▁Ge	-9.23783
▁CMV	-9.23926
er	-9.24018
▁̄de	-9.24135
15	-9.24198
O	-9.24321
▁scapula	-9.24399
▁reexcisie	-9.2454
▁kin	-9.24806
ter	-9.24914
▁gefragmenteerd	-9.24919
verruceuze	-9.25085
▁0,5	-9.25179
▁caudaal	-9.25262
▁Huidstans	-9.25267
VI	-9.25341
klinisch	-9.25407
▁suggestief	-9.25514
ng	-9.25943
▁endocervicaal	-9.25954
▁lastig	-9.25974
▁Gering	-9.25998
▁hand	-9.2609
▁abcederende	-9.26358
▁mammaweefsel	-9.26515
▁fibroserende	-9.26695
▁bovenlip	-9.26968
+	-9.27196
▁romp	-9.27328
▁duodenumbiopten	-9.27668
▁schade	-9.27822
▁translocatie	-9.2796
▁cholelithiasis	-9.28086
▁uitgesproken	-9.28112
▁verkregen	-9.28193
▁pretibiaal	-9.28205
▁22	-9.2835
▁U	-9.28369
▁17	-9.29106
▁21	-9.29278
▁betrouwba	-9.29396
▁veranderd	-9.29402
▁appendix	-9.29412
▁curettage	-9.29415
▁drie	-9.29824
▁opruimreactie	-9.29863
▁BRCA	-9.299
▁Invasiediepte	-9.29996
rest	-9.30171
▁2.	-9.30378
▁tumorvrij	-9.30455
▁mediaan	-9.3064
19	-9.30832
curettement	-9.30892
Resectievlakken	-9.30953
▁Bethesda	-9.31113
▁ruim	-9.3117
▁Z	-9.31171
▁radicaliteit	-9.31185
]2	-9.31187
deels	-9.31272
▁Met	-9.31311
eerd	-9.31374
▁tegen	-9.31399
▁multipel	-9.3168
▁tepel	-9.31695
▁expressie	-9.31713
▁lymfangio	-9.31825
plaveiselcellige	-9.31891
▁adnex	-9.31968
▁virale	-9.321
▁gaarn	-9.32117
▁ooghoek	-9.32128
▁Indi	-9.3213
▁18	-9.32161
▁ingreep	-9.3256
▁Daarna	-9.32595
onder	-9.32597
▁bil	-9.32778
is	-9.32783
▁PCR	-9.32809
Neu	-9.32852
specifieke	-9.32886
-)	-9.33034
▁pleuravocht	-9.33051
▁kuit	-9.331
▁oorschelp	-9.33104
h	-9.33309
▁bijzonderheden	-9.33465
▁speekselklier	-9.33465
▁detrusor	-9.33509
▁proximaal	-9.33586
beeld	-9.33775
▁lab	-9.33815
▁vet	-9.33866
▁welke	-9.33965
▁aantal	-9.34099
▁via	-9.34124
sactiviteit	-9.34249
▁klier	-9.34416
▁metastasen	-9.34479
▁plaveiselcellig	-9.34864
▁basale	-9.34867
▁geruptureerde	-9.34964
▁CONCLUSIE	-9.34999
▁PAS	-9.35069
▁Huidresectie	-9.35101
▁bovenrug	-9.35476
▁Slijmvlies	-9.35734
▁colonbiopten	-9.35754
▁oesofagitis	-9.35782
▁uitgevoerd	-9.35784
▁cho	-9.35813
AANVULLEND	-9.35962
AA	-9.36069
punctie	-9.36309
analyse	-9.36436
.(	-9.36522
▁helicobacter	-9.3653
▁ingroei	-9.36621
11	-9.36676
▁Deze	-9.36738
actieve	-9.36925
▁been	-9.37037
▁nodularis	-9.37214
▁1:	-9.3733
▁zijsnijvlak	-9.3768
▁Liquor	-9.37711
k	-9.37765
▁punctaat	-9.37881
reactie	-9.37919
▁spreidend	-9.38163
▁context	-9.38163
▁atrofisch	-9.38181
▁uitsluiten	-9.38198
▁uiteinden	-9.38201
▁Slijmvliesbiopt	-9.38477
▁(2)	-9.38514
▁structuren	-9.38564
▁relatie	-9.38641
9	-9.38941
▁onderzochte	-9.39069
▁oorzaak	-9.39132
Stv	-9.39141
▁was	-9.39164
▁Gleasonscore	-9.39233
▁Klinisch	-9.39274
▁scalp	-9.39363
25	-9.39433
punctaat	-9.39448
▁beoordeeld	-9.39673
▁bot	-9.39708
▁random	-9.39934
▁kerato	-9.40019
▁vulva	-9.40037
23	-9.40145
▁uiteinde	-9.40162
ALE	-9.40438
▁Echogeleid	-9.40659
▁schouderblad	-9.40701
▁acti	-9.40733
ge	-9.40946
▁toegenomen	-9.411
22	-9.41111
acanthoom	-9.41389
▁HP	-9.41473
▁annulare	-9.41595
▁lamblia	-9.41595
▁maligna	-9.41595
supraclaviculair	-9.41606
▁behoe	-9.4168
onderzoek	-9.41738
▁pati	-9.41743
▁(1)	-9.4179
▁necrotiserende	-9.42272
raag	-9.42378
▁pancreas	-9.42403
▁poliepen	-9.42533
▁aangegeven	-9.42602
▁gehe	-9.42612
▁oedeem	-9.42649
▁(8	-9.4276
▁coupe	-9.43102
▁simplex	-9.43102
or	-9.43185
▁lymfo	-9.43323
▁hiervan	-9.43624
Oesofagusbiopten	-9.43658
▁mid	-9.4369
▁stansbiopt	-9.43701
▁BERICHT	-9.4412
▁oppervlak	-9.44172
▁lobulair	-9.44193
▁nier	-9.44194
▁bronchus	-9.44423
incontinentie	-9.44445
▁Naaldbiopt	-9.44617
NTAL	-9.4463
▁helix	-9.44738
2;	-9.44792
▁grensvlaknaevus	-9.45152
▁W	-9.45644
▁chirurgie	-9.45668
▁locatie	-9.45705
rs	-9.45806
▁thoracaal	-9.45819
▁Radicaal	-9.4582
▁besproken	-9.46236
▁maagtype	-9.46262
▁VI	-9.46442
34	-9.46619
▁Is	-9.46677
▁heeft	-9.46712
▁matuur	-9.46713
▁scheenbeen	-9.46859
▁aanvulling	-9.46981
▁digitus	-9.47388
▁lengte	-9.47424
21	-9.47507
NGS	-9.4756
ectomie	-9.47593
▁interpretatie	-9.47766
▁bovenkwadrant	-9.47768
lecystolithiasis	-9.47768
▁ongewijzigd	-9.47808
▁hypertrofische	-9.48147
▁sessiel	-9.48302
▁nasi	-9.48317
▁biologisch	-9.48353
▁metaplastisch	-9.4836
▁antrumtype	-9.48423
▁overwegingen	-9.48434
▁*******:	-9.48468
verende	-9.48869
▁beperkt	-9.48974
▁duidelijk	-9.49174
▁serrated	-9.49371
▁duiden	-9.4938
▁erosieve	-9.49396
▁proximale	-9.49439
▁DEFINITIEF	-9.4951
▁tumorpositief	-9.49546
over	-9.49746
HER	-9.49789
▁tubae	-9.49871
▁zone	-9.50094
▁RET	-9.50125
▁2,5	-9.50265
▁onderooglid	-9.50306
▁intern	-9.50423
▁diffuse	-9.50455
▁granulerende	-9.50478
▁grote	-9.5077
hals	-9.50907
▁Materiaal	-9.5099
▁degeneratieve	-9.51049
▁Ascites	-9.51064
▁sinus	-9.51077
▁voet	-9.5112
▁cysteuze	-9.51495
▁normocellulair	-9.51552
▁bevestigd	-9.5162
onderverdelingen	-9.51663
▁micronodulair	-9.51677
chemische	-9.51928
dysplasie	-9.5196
▁onderscheid	-9.52019
OOM	-9.52103
▁Centrum	-9.52103
▁tractus	-9.52107
▁Histologisch	-9.52246
▁massa	-9.52282
▁interstitiele	-9.52408
▁Lisexcisie	-9.52717
▁lumbaal	-9.52783
▁Hodgkin	-9.52866
▁Bronchus	-9.53084
▁(3	-9.5316
▁Snijranden	-9.53296
▁neuspunt	-9.53487
▁activiteit	-9.53713
03	-9.53756
▁verband	-9.5378
Op	-9.53907
Biopt	-9.54116
▁GEEN	-9.54123
"	-9.54251
BBL	-9.54344
▁beschouwen	-9.54344
▁compleet	-9.54352
▁node	-9.54362
▁labium	-9.54458
▁geadviseerd	-9.54912
▁waarop	-9.54942
▁adnexen	-9.55133
▁ERBB	-9.55176
endocriene	-9.55206
▁slijm	-9.55263
▁hetgeen	-9.55336
▁aankleuring	-9.55455
▁doorsnijden	-9.5549
▁BCL	-9.55751
▁af	-9.55833
▁verrukeuze	-9.56059
hr	-9.56335
▁b	-9.56523
▁extranoda	-9.5664
▁Oppervlakkig	-9.56654
▁verrichte	-9.56762
fluorescentie	-9.56769
histiocytaire	-9.56784
▁1).	-9.57015
ER	-9.57208
hyperpigmentatie	-9.57218
▁ontbreken	-9.57218
▁parakeratose	-9.57219
▁oesophagitis	-9.57242
▁ingezet	-9.57269
-2	-9.57275
▁24	-9.57465
▁Curettage	-9.57803
▁verzoek	-9.57803
▁IgA	-9.57804
▁pleiomorf	-9.57835
▁ischemie	-9.57876
600	-9.5823
score	-9.58335
▁segment	-9.58335
Invasie	-9.58351
▁glandula	-9.58376
marge	-9.58387
▁klierbuizen	-9.58444
▁lymfoid	-9.58528
▁et	-9.58643
van	-9.58705
aal	-9.59264
▁PD	-9.59427
▁behouden	-9.59578
ontsteking	-9.59587
▁Kan	-9.59652
▁ongev	-9.59697
▁z	-9.59714
▁fibroom	-9.59741
▁Maagantrum	-9.59802
Uterusextirpatie	-9.59891
▁ml	-9.59943
▁plaats	-9.6014
▁eveneens	-9.60177
ro	-9.60197
▁celmateriaal	-9.602
▁perforatie	-9.60209
▁Whipple	-9.60231
▁WHO	-9.60468
▁net	-9.6063
proliferatie	-9.60671
▁randen	-9.60759
▁separaat	-9.60781
Nieuwe	-9.60793
▁architectuur	-9.60823
▁minimaal	-9.60863
▁richting	-9.60912
04	-9.61089
▁beschadigde	-9.61212
micro	-9.61286
▁al	-9.61374
jw	-9.61389
▁compact	-9.61558
▁Uterus	-9.61705
▁oude	-9.6171
▁o	-9.61778
ne	-9.618
88	-9.61808
▁progesteron	-9.61995
▁pyogenicum	-9.61995
prostaat	-9.62025
▁Cristabiopt	-9.62041
▁Dunne	-9.62042
▁prurigo	-9.62102
lymf	-9.62245
▁Colon	-9.62322
▁voldoende	-9.62609
AANVULLING	-9.62625
reticulaire	-9.62634
▁doch	-9.62634
▁opzicht	-9.6265
▁verhoornend	-9.62797
▁gepigmenteerde	-9.62823
▁kapsel	-9.62831
▁MMR	-9.62852
Aanvullende	-9.63055
▁ontstaan	-9.63276
▁apex	-9.63349
maal	-9.63376
se	-9.63437
rh	-9.63621
▁K	-9.63723
▁acuta	-9.63847
IK	-9.63855
Uitslag	-9.63907
Her	-9.63929
▁Pathologie	-9.64001
▁EBUS	-9.64015
vasculaire	-9.64195
▁hebben	-9.64472
▁gram	-9.64474
▁myometrium	-9.64513
▁solair	-9.6453
▁typering	-9.64715
▁on	-9.64724
▁endometriose	-9.64747
▁pipelle	-9.6497
▁sneevlak	-9.65222
30	-9.6525
cf	-9.6528
ul	-9.65407
▁nadere	-9.65592
▁hypercellulair	-9.65744
▁geven	-9.65751
▁hr	-9.65789
▁typisch	-9.65806
▁verlies	-9.65816
intern	-9.65821
voorhoofd	-9.65822
▁elleboog	-9.65836
▁mucineus	-9.65852
▁urotheel	-9.6606
▁specificiteit	-9.6637
▁mediastinum	-9.66397
▁juist	-9.6642
adenocarcinoom	-9.66444
sreactie	-9.6656
Excisie	-9.66619
glandulaire	-9.66726
▁stemband	-9.66801
▁naaldbiopt	-9.66878
▁interesse	-9.67012
▁Oesophagusbiopt	-9.67042
▁respons	-9.67077
Bethesda	-9.67112
▁ronde	-9.67217
▁overwegen	-9.67421
js	-9.67627
▁Punctaat	-9.67785
▁hematopoese	-9.68306
gewicht	-9.68423
▁lisexcisie	-9.68526
an	-9.68541
▁overleg	-9.68741
▁Immuun	-9.68964
um	-9.68968
▁fibreus	-9.68972
▁hierover	-9.68981
▁resten	-9.69007
▁NST	-9.69146
heid	-9.69528
▁ziekenhuis	-9.69618
▁erythema	-9.69638
▁lupus	-9.69645
▁geA	-9.69689
metastase	-9.69715
▁afstand	-9.69745
tische	-9.69888
ar	-9.6989
cilinderepitheel	-9.69928
09	-9.69959
door	-9.70099
▁indien	-9.701
▁grond	-9.7011
▁fragmentjes	-9.7011
▁pleura	-9.70243
▁inzendingen	-9.70335
▁beenmergbiopt	-9.70371
▁immunohistochem	-9.70515
▁TUMOR	-9.70531
▁0,1	-9.70593
▁50%	-9.70767
▁haarfollikel	-9.70768
▁per	-9.7082
▁gewicht	-9.70828
▁propria	-9.70946
▁neurofibroom	-9.70948
▁blasten	-9.71031
▁verspreid	-9.71039
▁vanwege	-9.715
▁para	-9.71521
▁oncogene	-9.71618
▁pseudo	-9.71623
▁poliepeus	-9.71629
itis	-9.71641
▁necrotisch	-9.71663
▁milde	-9.7172
▁prostaatweefsel	-9.71758
▁26	-9.71769
▁pols	-9.71775
aire	-9.72087
▁calcificaties	-9.72106
2)	-9.7219
▁27	-9.72225
▁mesotheel	-9.72288
▁afdeling	-9.72296
▁bijschildklier	-9.72328
▁hierbij	-9.72333
para	-9.7252
▁hyperplastisch	-9.72623
▁auto	-9.72717
▁Poliep	-9.72858
ediagnosticeerde	-9.729
▁middels	-9.72903
eds	-9.72938
▁reflux	-9.72977
▁betekenis	-9.72994
▁perifeer	-9.73054
▁poliepje	-9.73101
08-	-9.73256
toch	-9.73287
▁mede	-9.73352
▁sigmoA	-9.73598
angio	-9.73701
▁IgG	-9.73754
▁HR	-9.73791
▁IDH	-9.73804
▁MSI	-9.7383
▁onderbuik	-9.73915
▁overweging	-9.74335
▁Nodulair	-9.74348
▁geduid	-9.74377
z	-9.74578
EN	-9.74649
▁23	-9.74812
▁35	-9.74884
▁infectieuze	-9.75044
▁glomeruli	-9.75044
▁paramediaan	-9.75133
▁Oesophagus	-9.75136
anaal	-9.75213
ring	-9.75218
ca	-9.75499
▁ja	-9.75733
Next	-9.75742
Bls	-9.75742
gezonden	-9.75744
▁gaat	-9.75763
▁clavicula	-9.75819
▁extirpatie	-9.75845
lijn	-9.75915
ISO	-9.76107
▁chroniciteit	-9.76357
08	-9.7641
00	-9.76415
▁papillomateuze	-9.76468
▁Huidbiopten	-9.76523
baar	-9.7661
▁Door	-9.76625
Advies	-9.76667
▁Marge	-9.76689
▁aspiratie	-9.76723
▁rond	-9.76848
▁lymfeklieren	-9.76877
▁aanvraag	-9.76955
3/*******/	-9.7697
▁papel	-9.77012
▁s	-9.77123
▁gezichtspunten	-9.77155
codon	-9.77155
▁darmziekte	-9.77159
▁combinatie	-9.77186
cm	-9.77277
▁sarcoom	-9.7734
▁Huidcurettage	-9.77354
▁Breslow	-9.77386
▁pathologisch	-9.77442
▁3)	-9.77468
?)	-9.77548
▁1,2	-9.77719
clusief	-9.77809
▁(2	-9.77865
▁consultatie	-9.77888
▁cervixbiopt	-9.77932
eration	-9.77971
▁cel	-9.78462
ische	-9.7849
▁metastatisch	-9.78623
▁subcutaan	-9.78656
▁musculus	-9.78663
▁vaten	-9.78665
▁Daar	-9.78749
?).	-9.78833
calcificaties	-9.78881
resectievlak	-9.78892
▁talgklier	-9.7891
▁laesies	-9.79029
▁vagina	-9.79063
ND	-9.79064
▁gebruik	-9.79099
▁TTF	-9.79105
▁Mammareductie	-9.79315
▁verlittekening	-9.79316
▁dubieus	-9.79334
▁foetal	-9.79344
13-	-9.79387
▁alleen	-9.79457
▁(0	-9.79942
▁zwangerschaps	-9.80042
▁sarcoidose	-9.80044
inverted	-9.80044
▁uitsluiting	-9.80045
▁rondom	-9.80047
▁suboptimaal	-9.80048
▁peritoneum	-9.80061
▁iliaca	-9.80063
▁heup	-9.80074
▁Derhalve	-9.80127
▁inactief	-9.80137
▁mogelijkheid	-9.80138
▁morfologie	-9.80145
▁acinair	-9.80163
▁laboratorium	-9.80339
79	-9.80622
▁komt	-9.80779
▁solaris	-9.80779
▁groten	-9.80806
▁dikke	-9.8081
▁cavum	-9.80821
partiele	-9.80838
▁infiltratief	-9.80862
▁gedetecteerd	-9.80863
q	-9.80896
▁geneesmiddelen	-9.80941
▁Excisiebiopt	-9.81092
cellen	-9.8113
▁gevolg	-9.81212
50	-9.81225
PD	-9.81328
▁tumoren	-9.81397
▁oud	-9.81411
▁geeft	-9.81524
▁subcutane	-9.8164
▁NM	-9.81926
immuun	-9.81947
st	-9.81972
▁krapst	-9.82052
▁29	-9.82055
cs	-9.8206
iding	-9.8224
▁fragmentje	-9.82257
▁beschouwd	-9.82266
▁herhalen	-9.82266
▁mycose	-9.82267
▁aanduiding	-9.8228
▁Echter	-9.82325
▁toxicodermie	-9.82325
▁ver	-9.82534
▁proliferatieve	-9.82582
▁(1	-9.82721
W	-9.8289
▁geisoleerd	-9.83018
heel	-9.83042
▁2)	-9.83061
▁AD	-9.83133
▁preauriculair	-9.83139
▁Vriescoupe	-9.83168
poliep	-9.83202
▁Definitief	-9.8325
▁40	-9.8343
▁>	-9.8358
3):	-9.8369
dat	-9.83757
▁dunnedarm	-9.83764
▁elastose	-9.83775
▁wegen	-9.83848
1-	-9.83849
▁(*******):	-9.83862
▁Representatief	-9.83871
uteriene	-9.83934
diagnose	-9.83946
▁rectosigmoid	-9.83991
▁kruin	-9.84073
▁100%	-9.84083
coeur	-9.84116
▁binnen	-9.84457
40	-9.8448
Vooralsnog	-9.84539
▁dermatose	-9.84554
▁testis	-9.84588
▁epidermiscyste	-9.84607
▁vier	-9.84628
▁mesothelioom	-9.84899
▁be	-9.85045
67	-9.85101
▁Appendix	-9.85141
▁Aan	-9.85224
▁gland	-9.85244
▁aangevraagd	-9.85308
▁leiomyomen	-9.85308
▁fusie	-9.85337
▁Schildklier	-9.85361
▁gisten	-9.85403
▁retro	-9.85434
mede	-9.85573
sigmoid	-9.85671
▁2).	-9.85684
▁ziekte	-9.85685
▁n	-9.85739
X	-9.85743
▁recente	-9.85753
▁0,6	-9.858
▁ureter	-9.8599
▁omentum	-9.86083
Ontstekingsbeeld	-9.86083
▁Beenmerg	-9.86264
▁circa	-9.86333
▁IN	-9.86394
U	-9.86399
diagnostisch	-9.86459
27	-9.86615
dorsale	-9.86864
Een	-9.8693
▁Tuba	-9.86938
▁puntjes	-9.86964
▁bulbus	-9.87001
▁patiente	-9.87291
▁wand	-9.87655
▁digestivus	-9.87676
▁opsnijden	-9.87692
Gly	-9.8772
▁spongiose	-9.87736
▁0,3	-9.8774
▁0.	-9.87748
▁gr	-9.87902
▁28	-9.88039
▁endocervix	-9.88054
niet	-9.88071
▁receptor	-9.881
▁microsatelliet	-9.88115
▁snijrand	-9.8827
▁inzage	-9.88445
▁miljoen	-9.88445
text	-9.88447
▁MLH	-9.88623
▁cell	-9.88797
TUMOR	-9.88856
WHO	-9.88857
status	-9.88953
▁aanle	-9.89038
▁Ter	-9.8905
KSF	-9.89247
ARD	-9.89249
▁0,8	-9.8928
▁toe	-9.89708
▁verandering	-9.89931
▁dankzegging	-9.90052
▁minste	-9.90054
anks	-9.90096
▁0,2	-9.90101
atie	-9.9019
▁parietaal	-9.90193
▁bovenstaande	-9.90205
▁percentage	-9.90282
▁uitstrijk	-9.90351
Hodgkin	-9.90486
klasse	-9.90491
▁(4	-9.90784
01	-9.90843
▁ductus	-9.90908
▁hart	-9.90941
▁negatieve	-9.90948
sch	-9.9096
▁doorgroei	-9.90973
▁gevolge	-9.91032
▁intestinaal	-9.91055
▁Celrijke	-9.91313
▁man	-9.91442
▁Accreditatie	-9.91685
▁lentigineuze	-9.91685
▁fase	-9.91804
wang	-9.91835
▁7,	-9.91941
ed	-9.9205
▁zich	-9.92113
ide	-9.92288
▁Duodenums	-9.92314
ma	-9.92327
▁huidbiopten	-9.92369
▁geassocieerd	-9.92442
INVASIE	-9.92511
▁melanoma	-9.92511
▁0,4	-9.92544
▁Lynch	-9.92545
▁staat	-9.92566
31	-9.92765
▁schimmel	-9.92808
29	-9.92812
cyste	-9.92956
▁Twee	-9.92997
▁geassocieerde	-9.93042
▁longcarcinoom	-9.9331
▁keratoacanthoom	-9.93358
▁middel	-9.93421
▁daarbij	-9.93433
▁abdomen	-9.9348
▁1/	-9.93546
▁daarin	-9.93605
▁apocriene	-9.93611
▁procedure	-9.93672
▁brush	-9.93722
▁deposities	-9.93756
regio	-9.93838
rt	-9.93966
▁erosie	-9.93995
▁wisselende	-9.94005
▁topografie	-9.94068
▁beschreven	-9.94185
▁resultaat	-9.94186
▁temporalis	-9.94186
▁discrete	-9.942
Bronchusspoeling	-9.94282
▁gemarkeerde	-9.94382
effect	-9.94509
ascendens	-9.94695
▁curettement	-9.94734
3)	-9.94768
niercelcarcinoom	-9.94868
dikte	-9.95032
therapeutisch	-9.95033
NVE	-9.95043
▁sequencing	-9.95068
istomorfologisch	-9.95074
▁MSH	-9.95092
▁10%	-9.951
▁Pap	-9.95105
▁erytrocyten	-9.95166
▁Q	-9.95622
▁kwaliteit	-9.95817
Galblaasresectie	-9.95883
▁pityriasis	-9.95896
▁hrHPV	-9.95918
▁hiervoor	-9.95935
▁blauw	-9.95954
iets	-9.96058
celcarcinoom	-9.96071
▁nabij	-9.96142
corpus	-9.96269
▁uitrijpend	-9.96749
keursdiagnose	-9.96767
CA	-9.96773
▁Hoe	-9.96797
▁Te	-9.96822
▁paranasaal	-9.96902
07	-9.96927
▁zijwand	-9.96986
▁volgende	-9.9704
▁3).	-9.9735
▁perivasculair	-9.97461
*******	-9.9753
▁mate	-9.97605
▁heldercellig	-9.97618
▁verwijzing	-9.97623
▁reuscelreactie	-9.97658
▁gedilateerde	-9.97771
▁fund	-9.9778
▁sentinel	-9.97845
24	-9.97872
▁zien	-9.97887
61	-9.98029
80	-9.98061
06-	-9.98295
ra	-9.98402
MD	-9.98445
▁enig	-9.98446
▁algemeen	-9.98507
▁uitrijping	-9.98544
▁Duodenum	-9.98681
▁granuloom	-9.99144
▁Na	-9.99292
▁Botbiopt	-9.99377
JSL	-9.99381
▁muscularis	-9.99382
▁vetnecrose	-9.99387
▁betrouwbaar	-9.99424
▁ooglid	-9.9944
▁Medisch	-9.99472
▁adequa	-9.99526
▁axillair	-9.99564
pas	-9.99733
lymfoom	-9.99833
▁'	-9.99934
Snijvlak	-9.99977
16:	-10
15/	-10.0024
▁leukemie	-10.0031
▁buikwand	-10.0037
mucosa	-10.0049
▁MYC	-10.0051
▁breuk	-10.0065
▁vreemdlichaams	-10.0088
ende	-10.009
09-	-10.0111
▁rejectie	-10.0117
ransformatiezone	-10.0117
▁flegmoneuze	-10.0118
▁onzeker	-10.0127
Met	-10.0181
63	-10.0207
lo	-10.0208
LOY	-10.0208
▁0,7	-10.0209
▁mammareductie	-10.0209
▁beginnend	-10.021
▁celrijke	-10.0212
ig	-10.0239
VII	-10.0244
neer	-10.0244
dermatitis	-10.0258
17-	-10.0263
▁capillair	-10.0269
Klinisch	-10.0273
15:	-10.0291
▁moet	-10.0301
▁adenomyosis	-10.0302
▁FGFR	-10.0307
▁Slokdarmbiopten	-10.0308
▁frequentie	-10.0311
Z	-10.0312
▁PIN	-10.0313
existente	-10.0314
▁dikte	-10.0337
▁linkerwang	-10.0338
▁onregelmatig	-10.0351
▁plasmacel	-10.0351
▁02	-10.0359
▁patroon	-10.0366
▁basaal	-10.037
39	-10.0375
▁secundaire	-10.0386
▁meerkernige	-10.0393
▁amyloid	-10.0396
▁Benigne	-10.0403
▁deletie	-10.0415
05	-10.0426
eel	-10.043
99	-10.0436
▁tumorweefsel	-10.0443
vorming	-10.0459
spoelvocht	-10.046
▁31	-10.0473
▁cardia	-10.0474
06	-10.048
02	-10.0482
ook	-10.0482
hondrodermatitis	-10.0486
▁gelijktijdi	-10.0486
▁histologie	-10.0486
▁bevestiging	-10.0486
EHE	-10.0487
Skh	-10.0487
▁geinkte	-10.0489
▁merg	-10.0492
▁40%	-10.0495
▁klassiek	-10.0497
▁blue	-10.0497
▁Wel	-10.0502
3;	-10.0513
ur	-10.0524
22-	-10.0525
▁cysteus	-10.0525
_	-10.0549
▁Mammabiopten	-10.0553
Tevens	-10.0556
▁Dieper	-10.0566
▁foci	-10.058
▁trilineair	-10.0581
▁Bowenoide	-10.0582
MMA	-10.0583
▁letsel	-10.0584
▁Maligne	-10.0586
▁beschadiging	-10.0586
▁Voorkeur	-10.0589
▁Nader	-10.0597
▁(<	-10.0602
pT	-10.0642
10)	-10.0662
▁afwezigheid	-10.0679
▁groeipatroon	-10.0683
Endometriumbiopt	-10.0683
▁occipitaal	-10.0692
▁urticaria	-10.0705
Lymfklierpunctie	-10.0725
respectievelijk	-10.075
Dit	-10.0752
gezien	-10.0757
▁restant	-10.0763
▁leeftijd	-10.0772
▁KIT	-10.0772
▁oestrogeen	-10.0781
▁sternum	-10.0784
▁bovenbuik	-10.0789
EVI	-10.079
▁populatie	-10.0801
kd	-10.0814
meer	-10.082
▁arteri	-10.0821
EGFR	-10.0848
26	-10.085
▁gegeven	-10.0862
▁geexcideerd	-10.0869
▁idiopathisch	-10.0869
▁5%	-10.0879
▁degeneratie	-10.0882
▁langer	-10.0882
▁lobulaire	-10.0887
▁crista	-10.0887
=	-10.089
ren	-10.0893
▁volume	-10.0894
▁aorta	-10.09
▁ala	-10.0908
een	-10.0912
▁(7	-10.0914
air	-10.0923
parenchym	-10.093
▁1)	-10.093
▁wan	-10.0937
mogelijk	-10.0947
14:	-10.095
3,	-10.0965
INGEN	-10.0967
▁Warthin	-10.0967
▁etiologie	-10.0967
EEP	-10.0967
▁jaar	-10.0968
▁bestaat	-10.097
ANDER	-10.0973
▁anastomose	-10.0974
▁obductie	-10.0976
▁binnenzijde	-10.0986
▁achterzijde	-10.0987
iteit	-10.0989
bijzijn	-10.0996
▁zijsnijrand	-10.1048
▁Marsh	-10.105
▁neutrofiele	-10.1062
▁aantoonba	-10.1065
▁Brush	-10.1066
▁noemenswaardig	-10.1066
▁vraagstelling	-10.1066
euze	-10.1067
▁significant	-10.1069
▁moeilijk	-10.1073
▁genomen	-10.1092
▁tweede	-10.1097
▁microscopisch	-10.1102
▁goedaardige	-10.1124
▁vriescoupes	-10.1124
ten	-10.1151
INGR	-10.1165
▁lichenoA	-10.1167
▁geanalyseerd	-10.1169
▁MC	-10.1189
]2.	-10.1193
▁darmbiopten	-10.1198
perifolliculitis	-10.12
TER	-10.121
2017	-10.1215
▁hyper	-10.1215
▁rechterwang	-10.1221
melijk	-10.1236
blaas	-10.1245
▁Zij	-10.1249
▁loka	-10.1257
PR	-10.1264
▁archief	-10.1267
▁erfelijk	-10.1267
Blokje	-10.1267
▁LYMFKLIEREN	-10.1267
▁Stansbiopt	-10.1267
▁pigmentosus	-10.127
▁congenitale	-10.1274
colon	-10.1279
▁anders	-10.1281
▁myelo	-10.1282
▁stase	-10.1286
▁effect	-10.129
it	-10.1294
▁exact	-10.1317
▁voorlopig	-10.1326
il	-10.1342
▁irritatie	-10.1363
▁lamina	-10.1369
▁administratie	-10.1369
▁gehandhaafd	-10.1369
▁cholesterolose	-10.1369
▁aspecifiek	-10.1369
▁overlijden	-10.137
existent	-10.1373
▁Matig	-10.1373
▁marges	-10.1377
▁macrofagen	-10.1378
▁100	-10.1379
▁hoofdhuid	-10.1383
▁serosa	-10.1384
ose	-10.1389
▁externa	-10.1389
▁hoge	-10.139
▁kappa	-10.1392
▁flexura	-10.1393
56	-10.1402
onderbeen	-10.1404
▁1,3	-10.1412
ol	-10.1415
je	-10.1423
▁margina	-10.1427
▁IHC	-10.1441
49	-10.1457
37	-10.1458
▁hele	-10.1463
hv	-10.1466
uurs	-10.1471
vitale	-10.1471
▁behoort	-10.1472
▁hepatica	-10.1472
▁onduidelijk	-10.1472
▁cutaneum	-10.1473
▁03	-10.1475
▁opgestuurd	-10.1476
klierdissectie	-10.1477
extirpatie	-10.148
grootste	-10.1484
▁achterlip	-10.1487
▁beh	-10.15
▁kraakbeen	-10.1514
ns	-10.1516
▁gefragmenteerde	-10.1519
11;	-10.1523
1/	-10.1558
▁Cervixbiopten	-10.1561
▁blijk	-10.1561
ALK	-10.1562
rectum	-10.1562
▁DEFINITIEVE	-10.1574
▁gedaan	-10.1576
▁schimmeldraden	-10.1576
▁parasieten	-10.1579
▁aldaar	-10.1581
▁St	-10.1588
▁kalk	-10.1593
▁Alle	-10.1594
▁ulceratieve	-10.1601
▁rechterschouder	-10.1601
▁hotspots	-10.1603
▁LE	-10.1616
▁voorlip	-10.1617
*	-10.1633
▁varianten	-10.1635
18-	-10.1678
▁prolifererend	-10.1682
▁chronicus	-10.1682
▁inclusiecyste	-10.1688
▁TVU	-10.1701
▁vertex	-10.1703
▁allel	-10.1705
10-	-10.1733
▁lage	-10.175
epitheelcellen	-10.1757
51	-10.1758
05-	-10.176
▁nu	-10.1761
▁graviditeit	-10.1788
Kwaliteit	-10.1788
▁spectrum	-10.1788
▁steatose	-10.1788
▁dichtst	-10.179
▁transformatie	-10.1791
68	-10.1795
▁0,9	-10.1796
▁cribriform	-10.18
▁Richardson	-10.18
▁Bloom	-10.1802
▁Nierbiopt	-10.1803
▁gastro	-10.1808
▁bacterien	-10.1816
schimmelinfectie	-10.1826
▁bepalingen	-10.1868
▁dig	-10.1887
proliferatieve	-10.1892
▁geindiceerd	-10.1895
▁acanthose	-10.1896
▁inzichten	-10.1896
▁CDKN	-10.1897
▁atherosclerose	-10.1898
▁paraffine	-10.1898
▁hersenen	-10.19
2014	-10.1904
ard	-10.1905
▁Adnex	-10.1905
ulp	-10.1905
▁penis	-10.1916
▁Panel	-10.192
NM	-10.193
▁proliferatief	-10.1944
▁spier	-10.1962
▁zijrand	-10.1987
anwege	-10.1997
▁geval	-10.2004
▁rosacea	-10.2004
▁cornu	-10.2004
▁bevestigt	-10.2006
▁Enkel	-10.2011
▁Rectumbiopten	-10.2013
▁Gen	-10.202
2023	-10.2022
▁2,0	-10.2036
▁groot	-10.2043
▁VIN	-10.2047
▁38	-10.205
▁30%	-10.2053
▁slijmvliesbiopt	-10.2056
<	-10.2086
▁tubulo	-10.2091
▁gemaakt	-10.2114
▁helicis	-10.2114
▁Partie	-10.2114
▁medisch	-10.2114
▁denken	-10.2114
▁neuroom	-10.2115
▁pigmentatie	-10.2116
▁Huidexcochleaat	-10.2116
▁reden	-10.2117
▁cytologie	-10.2118
▁maagcorpustype	-10.2119
▁behandelend	-10.212
basaalcel	-10.2122
▁2-	-10.2134
ts	-10.2134
1).	-10.218
45	-10.2187
min	-10.2188
▁fibrine	-10.2223
▁urethra	-10.2224
CLASSIFICATIE	-10.2225
▁choledochus	-10.2225
▁mastopathisch	-10.2226
▁Resectieranden	-10.2226
istopathologisch	-10.2231
▁tong	-10.2235
▁compatibel	-10.2237
▁Cave	-10.2243
▁ductale	-10.2244
▁secundair	-10.2244
▁ganglion	-10.2244
celpercentage	-10.2249
▁EUS	-10.2259
component	-10.2261
antal	-10.2263
▁ovaria	-10.2276
▁submucosa	-10.2279
bovenbeen	-10.2286
naaldbiopt	-10.2287
▁(0/1).	-10.2296
mucosale	-10.23
spoliep	-10.2302
mee	-10.2327
▁navelstreng	-10.2336
▁Leverbiopt	-10.2336
nstrumenta	-10.2338
▁Borg	-10.2338
▁bekleed	-10.2338
▁vlokken	-10.2338
▁myeloom	-10.2338
▁intestinaaltype	-10.2339
▁reuscellen	-10.2345
▁ventrale	-10.2346
Schimmelkleuring	-10.2347
AANVULLENDE	-10.235
▁JBZ	-10.2355
▁ingenomen	-10.2356
▁mutatieanalyse	-10.2361
▁ablatio	-10.2362
07-	-10.2362
▁achterwand	-10.2364
id	-10.2399
▁gevoelig	-10.2415
▁20%	-10.2416
tumorlokalisatie	-10.2422
2):	-10.2429
laesie	-10.2434
▁ischemisch	-10.2434
Huid	-10.2436
%	-10.2439
▁2,	-10.2446
MOLECULAIR	-10.2446
reuscelreactie	-10.2447
uitslag	-10.2447
▁doorsneden	-10.2453
▁hoe	-10.2459
IN	-10.2467
▁krabeffecten	-10.2468
▁vanaf	-10.2501
▁FNA	-10.2503
scomponent	-10.2523
stansbiopsie	-10.2538
dien	-10.2543
▁f	-10.2547
▁7:	-10.2549
▁micronodulaire	-10.2552
cytologie	-10.2555
dissectie	-10.2556
neus	-10.2561
Snijvlakken	-10.2564
▁condyloma	-10.2566
TYPE	-10.2566
▁deferens	-10.2566
▁fragmentatie	-10.2568
▁mandibula	-10.2569
▁endometrioid	-10.2575
▁portale	-10.2575
▁beoordeelbare	-10.2575
▁gewenst	-10.2575
▁pneumonie	-10.2577
▁AJCC	-10.2578
▁linkerschouder	-10.26
▁verstoring	-10.2651
groei	-10.2656
▁BCC	-10.2656
▁nierbiopt	-10.2664
corpusslijmvlies	-10.2665
lp	-10.267
▁hepatitis	-10.2682
-3	-10.2686
▁sampling	-10.2687
▁verwijderde	-10.2699
21-	-10.2703
▁corpusbiopten	-10.271
els	-10.2711
▁Levernaaldbiopt	-10.2717
▁vorming	-10.272
▁*******):	-10.2727
▁at	-10.2729
▁sub	-10.2732
fstand	-10.2746
▁post	-10.2756
▁33	-10.2765
.35	-10.2766
Gleason	-10.2799
consult	-10.28
▁geneticus	-10.28
Zekerheidshalve	-10.28
▁APC	-10.2802
▁adenose	-10.2803
▁depositie	-10.2804
Overige	-10.2808
het	-10.2809
▁diverticulitis	-10.2809
▁Eventue	-10.2811
▁sclerose	-10.2812
▁suspect	-10.2812
▁onderzocht	-10.2815
▁nefropathie	-10.2816
▁haargrens	-10.2817
▁gescleroseerd	-10.2822
▁aanwezige	-10.2824
ot	-10.2825
pathologie	-10.2828
▁middenkwab	-10.283
Appendixresectie	-10.2832
co	-10.2849
▁we	-10.2855
FISH	-10.286
dd	-10.286
rand	-10.287
peri	-10.2883
▁even	-10.2893
4;	-10.2903
▁Maagbiopt	-10.2912
epitheliaal	-10.2913
▁gradering	-10.2919
▁cystadenoom	-10.2919
chorioamnionitis	-10.2919
▁doorgesneden	-10.2919
seq	-10.292
▁Vulvabiopt	-10.2922
risk	-10.2923
▁vitaal	-10.2924
stb	-10.2927
test	-10.2956
70	-10.2982
▁diagnosen	-10.3021
▁immuunhisto	-10.3022
▁interne	-10.303
del	-10.303
▁krabeffect	-10.3033
▁leverbiopt	-10.3034
▁repair	-10.3039
▁vrouw	-10.304
▁zonbeschadigd	-10.304
jes	-10.304
DEFINITIEVE	-10.3042
Materiaal	-10.3042
▁Plaatselijk	-10.3043
11-	-10.305
▁Minima	-10.3056
▁lip	-10.3057
eneuze	-10.306
3:	-10.306
la	-10.3065
▁spoeling	-10.3067
▁CTI	-10.307
17:	-10.3074
98	-10.3079
▁kleiner	-10.3092
▁cervixpoliep	-10.3101
▁dus	-10.3117
▁zwak	-10.3135
▁zijresectievlak	-10.3145
▁mismatch	-10.3162
▁prolaps	-10.3162
▁tijdens	-10.3162
eku	-10.3162
jr	-10.3162
▁opgesneden	-10.3163
▁ernstig	-10.3174
▁NOS	-10.3176
▁geschat	-10.3182
ige	-10.3188
intestinale	-10.3196
▁gebieden	-10.3214
▁37	-10.3214
▁3-	-10.3232
ct	-10.3233
acuut	-10.3271
▁geneesmiddel	-10.3271
▁36	-10.3275
▁Dikke	-10.3285
▁peritonitis	-10.3285
▁radiculaire	-10.3285
▁embryona	-10.3286
▁hoornmateriaal	-10.3287
Sneevlakken	-10.3288
▁mechanisch	-10.3288
▁Vagina	-10.3293
▁complete	-10.3293
▁3,5	-10.3296
▁ROK	-10.3296
▁Radicaliteit	-10.3298
▁bulleus	-10.3299
▁EBV	-10.3308
ly	-10.3311
▁langs	-10.3316
▁Voorlopig	-10.3323
gediagnosticeerd	-10.3345
▁groep	-10.3356
ingstechniek	-10.3365
zelfde	-10.3366
ostinflammatoire	-10.3371
▁Oestrogeen	-10.3382
rw	-10.3404
▁verklaring	-10.341
Verkrijg	-10.341
▁overleden	-10.341
ancer	-10.341
lomerulonefritis	-10.341
▁ware	-10.3411
▁celgroepen	-10.3412
▁mitosen	-10.3414
temporaal	-10.3417
▁polyp	-10.3417
▁vijf	-10.3418
▁bovenooglid	-10.3429
ken	-10.3432
▁inflammatoir	-10.3438
▁fors	-10.3442
20:	-10.3456
▁Reexcisie	-10.3456
-2-	-10.3523
▁infarcering	-10.353
!	-10.3536
JTH	-10.3537
▁insectenbeet	-10.3537
▁subtiel	-10.3537
2022	-10.3537
▁urotheelcellen	-10.3539
▁gerelateerde	-10.3539
cutaan	-10.354
▁herhaling	-10.354
atische	-10.3542
▁LBK	-10.3547
▁colonmucosa	-10.3548
▁hoogste	-10.3549
eerde	-10.3552
▁06	-10.3559
-6	-10.3565
▁lambda	-10.3565
oet	-10.3572
21-0	-10.3577
epidermale	-10.3601
▁vooral	-10.362
73	-10.3621
▁1,1	-10.3624
▁huidafwijking	-10.3628
necrose	-10.3657
▁(100%)	-10.3663
boven	-10.3664
▁Tubectomie	-10.3665
th	-10.3675
aanwijzingen	-10.3676
DCIS	-10.3676
▁EM	-10.3686
▁par	-10.3692
▁04	-10.3711
▁mogelijke	-10.3731
ch	-10.374
▁ruime	-10.3755
▁endo	-10.3756
▁09	-10.3768
4)	-10.3768
▁05	-10.3771
▁kans	-10.3774
1):	-10.3777
▁placentarest	-10.3781
▁VII	-10.3784
▁50	-10.3785
RAD	-10.3786
02-	-10.3792
▁Over	-10.3794
▁betrekk	-10.3795
sverschijnselen	-10.3795
▁maakt	-10.3795
▁Morb	-10.3795
▁waargenomen	-10.3795
▁genherschikking	-10.3797
METASTASEN	-10.3799
▁littekenvorming	-10.38
▁tongrand	-10.3801
▁laatste	-10.3802
▁gekend	-10.3802
▁uitgaand	-10.3806
▁RBK	-10.3807
▁"	-10.3808
▁adenoid	-10.3809
▁subtype	-10.3814
▁MDS	-10.3815
▁bijnier	-10.3823
▁botbiopt	-10.3826
▁ab	-10.3836
▁PDL	-10.3853
47	-10.3858
▁blokjes	-10.3872
am	-10.3883
▁dicht	-10.3895
os	-10.392
▁bewijs	-10.3926
▁herkenbaar	-10.3926
▁x	-10.3927
▁micrografi	-10.3927
▁myeloide	-10.3927
▁1,8	-10.3927
▁beter	-10.3928
▁kon	-10.393
▁Klass	-10.3932
▁Mammabiopt	-10.3939
roup	-10.394
cysteuze	-10.3941
▁angioom	-10.3944
▁coloncarcinoom	-10.3947
▁referentie	-10.3949
▁vaat	-10.3954
▁opvallend	-10.3956
▁lymfocytair	-10.3956
aad	-10.3967
2015	-10.3979
oom	-10.3981
CD	-10.3982
▁vaatinvasie	-10.3985
▁transplantatie	-10.3985
▁ons	-10.3989
uit	-10.4019
48	-10.4027
yelodysplastisch	-10.4032
AIN	-10.4032
ir	-10.4058
▁superficiA	-10.406
▁ventrikel	-10.406
▁Excochlea	-10.406
▁simpele	-10.406
▁MDO	-10.406
▁microkalk	-10.406
▁adenomen	-10.406
▁Overige	-10.406
▁arts	-10.4063
▁cystewand	-10.4065
▁chromosoom	-10.407
▁hypertrofe	-10.4072
transversum	-10.4075
activiteit	-10.4078
aat	-10.4087
endocrien	-10.4091
▁spoelcellige	-10.4094
▁Endocervica	-10.4095
microscopische	-10.4096
▁stadium	-10.4098
2016	-10.4103
▁kenmerkend	-10.4105
to	-10.4107
▁(5	-10.4128
villeus	-10.4132
22:	-10.4133
85	-10.4159
fragment	-10.4169
4/*******/	-10.4185
▁Long	-10.4188
▁PPI	-10.4195
▁telefonisch	-10.4196
▁wekedelen	-10.4197
buik	-10.4198
▁assay	-10.4199
▁ostium	-10.42
aj	-10.4204
▁lesie	-10.4207
lateral	-10.4211
klierweefsel	-10.4212
▁aandoening	-10.4212
inhoud	-10.4212
▁laat	-10.4213
minder	-10.4215
▁purulente	-10.4219
▁acantholytische	-10.4221
schimmelkleuring	-10.4226
▁high	-10.4227
▁wisselend	-10.4228
▁CIS	-10.425
4):	-10.4259
▁plaatsen	-10.4262
▁cysten	-10.4297
17/	-10.4305
tie	-10.4309
AD	-10.4317
90	-10.4318
▁vanuit	-10.4325
▁steun	-10.4332
Variant	-10.4332
▁polyposis	-10.4332
▁39	-10.4334
▁therapiekeuze	-10.4338
▁collageneuze	-10.4339
▁eiwitten	-10.4339
ia	-10.4341
▁huidlaesie	-10.4344
▁PTEN	-10.4344
▁crypt	-10.4347
evel	-10.4355
Val	-10.4371
kin	-10.4373
ine	-10.4373
ker	-10.4376
▁excisiebiopt	-10.4382
86	-10.44
28	-10.4412
lateraal	-10.4433
16-1	-10.4446
▁UITSLAG	-10.4471
▁geld	-10.4471
▁geworden	-10.4471
▁VOORLOPIGE	-10.4471
▁fibreuze	-10.4475
▁vastgesteld	-10.4475
▁darmtype	-10.4476
▁solitair	-10.4477
▁lichaamsvreemd	-10.4478
▁Blaas	-10.4478
▁positiviteit	-10.448
91	-10.4481
▁perifere	-10.4482
▁bowenoide	-10.4482
pipelle	-10.4492
74	-10.4494
▁cutane	-10.4497
▁macroscopisch	-10.45
13:	-10.4513
▁mola	-10.4516
invasief	-10.4527
▁Helicobacters	-10.4558
▁groter	-10.456
rale	-10.4565
extraprostatisch	-10.4566
▁colonpoliep	-10.4567
mamma	-10.4601
uur	-10.4609
DIAMETER	-10.4611
▁Acute	-10.4611
▁Verruca	-10.4611
▁resultaten	-10.4611
DIGHEID	-10.4611
▁extensie	-10.4611
▁essentie	-10.4612
▁PMS	-10.4612
gediagnostiseerd	-10.4613
▁trofoblast	-10.4614
▁minus	-10.4614
▁caudale	-10.4619
satypie	-10.4621
▁promotor	-10.4628
▁EORTC	-10.4629
▁2):	-10.4629
▁kaak	-10.463
▁MAP	-10.4634
Marsh	-10.4635
▁controle	-10.4635
conform	-10.4635
▁trauma	-10.4637
▁1,4	-10.4673
▁bestaand	-10.468
TK	-10.4686
▁vast	-10.4688
Immuun	-10.4688
▁ileumbiopten	-10.47
▁Corpus	-10.4739
▁glad	-10.4749
▁acuminatum	-10.4754
▁bepalen	-10.4754
▁majus	-10.4754
▁angiolipoom	-10.4755
▁(*******)	-10.4755
▁and	-10.4758
6)	-10.4758
▁Ampli	-10.476
▁retroauriculair	-10.4766
▁BIRADS	-10.4771
▁achterhoofd	-10.4773
Tumor	-10.4777
▁Hotspot	-10.4778
structuren	-10.4779
topografie	-10.478
ele	-10.4781
GROEI	-10.4781
tisch	-10.4782
▁lumpectomie	-10.4782
9/	-10.4783
kans	-10.4785
▁prominente	-10.4785
▁resp	-10.4788
18:	-10.4791
▁beschadigd	-10.4796
0.	-10.4797
▁longen	-10.4813
▁radiologisch	-10.4814
▁ander	-10.4828
den	-10.4869
▁spontaan	-10.4869
PS	-10.4875
▁Immuno	-10.4878
▁6,	-10.4887
19-1	-10.4895
ZIJ	-10.4899
▁craniale	-10.4899
▁teratoom	-10.4899
▁toezending	-10.4899
▁clonale	-10.49
▁lijken	-10.49
asus	-10.4901
▁hematurie	-10.4902
▁histiocytoom	-10.4907
2019	-10.4915
▁milt	-10.4919
om	-10.4919
▁target	-10.492
deel	-10.4924
▁anterior	-10.4952
▁grade	-10.4957
afwijkingen	-10.4982
esultaat	-10.4986
▁+3	-10.4988
92	-10.4989
▁os	-10.4998
19:	-10.5011
35	-10.5032
rsi	-10.5035
▁duodeni	-10.5046
▁naevi	-10.5046
▁synovium	-10.5046
▁valt	-10.5046
▁transmurale	-10.5046
ageren	-10.5047
▁zijsnijvlakken	-10.5047
▁posterior	-10.5049
▁keratocyste	-10.5053
▁proficient	-10.5058
▁materna	-10.5058
aan	-10.5064
32	-10.5069
▁zijsnijranden	-10.5073
▁zij	-10.5073
mediaan	-10.5075
Tumordiameter	-10.5076
reikend	-10.5077
▁CNV	-10.5098
rechteronderbeen	-10.51
▁toxisch	-10.5107
appendicitis	-10.5108
▁overgevoe	-10.5108
▁gesteld	-10.5112
sn	-10.5112
cytochemisch	-10.5113
erende	-10.513
▁weefselfragment	-10.5138
▁01	-10.514
slijmvliesbiopt	-10.5151
15189	-10.5173
▁sluit	-10.5176
94	-10.5181
lymforeticulaire	-10.5189
5%	-10.519
tenzij	-10.519
▁Mutatie	-10.5193
©	-10.5196
▁spermatozoa	-10.5196
▁Mammapunctie	-10.52
]1	-10.52
▁Ileumbiopten	-10.5201
▁Lumpectomie	-10.5206
snijvlak	-10.5209
▁informatie	-10.5212
▁LOK	-10.5222
▁1%	-10.5226
carcinoma	-10.5227
differentiatie	-10.5228
▁parenchym	-10.5228
▁CTN	-10.523
▁colontype	-10.5232
0,	-10.5235
stom	-10.5241
spontaan	-10.5244
▁levert	-10.5246
▁infectieus	-10.5247
ligheidsreactie	-10.5259
vaatproliferatie	-10.526
▁potje	-10.5276
▁(12	-10.5285
▁top	-10.5291
87	-10.5301
▁onderkaak	-10.5309
even	-10.5323
▁lokalisaties	-10.5328
OR	-10.5332
▁Duodenumbiopt	-10.5335
▁crusta	-10.5347
JBE	-10.5347
▁bepaald	-10.5347
▁gereviseerd	-10.5347
▁macroscopie	-10.5347
▁reading	-10.5347
▁reusceltumor	-10.5348
▁opnieuw	-10.5353
▁psoriasiforme	-10.5354
▁middermaal	-10.5356
▁genereren	-10.5357
▁maken	-10.5359
gebied	-10.5378
Oestrogeen	-10.5381
▁lymfoA	-10.5395
li	-10.5397
▁oorspronkelijk	-10.54
IM	-10.5408
epithelioom	-10.5435
aar	-10.544
▁inder	-10.5445
▁Lymfklierbiopt	-10.5469
▁0).	-10.5471
3);	-10.5475
ti	-10.5478
▁ontstekings	-10.5479
▁NA	-10.5486
▁overeen	-10.5491
▁grootcellige	-10.5492
▁puntje	-10.5494
▁reeks	-10.5496
▁Krap	-10.5501
▁cylindrisch	-10.5501
▁erythematosus	-10.5501
▁haematurie	-10.5501
▁liquor	-10.5501
▁Spitz	-10.5501
Arg	-10.5501
▁behandeladvies	-10.5501
="	-10.5501
▁studie	-10.5501
▁alopecia	-10.5506
▁MOLECULAIR	-10.5508
▁megakaryocyten	-10.5509
▁1/3	-10.5509
▁antistoffen	-10.5509
▁sclerotisch	-10.5511
▁debris	-10.5513
▁gastrisch	-10.5514
▁tonsil	-10.5515
▁ruptuur	-10.5515
▁dorsum	-10.5517
▁papil	-10.5519
▁Huidre	-10.5522
▁Chronische	-10.5523
▁NSAID	-10.5528
panel	-10.553
maxima	-10.5538
Mohs	-10.5538
NEN	-10.5539
6,	-10.5544
▁08	-10.5544
daad	-10.555
▁Oesofagus	-10.5551
▁Maagcorpus	-10.557
segmentale	-10.5575
▁Lokalisatie	-10.5586
▁tricho	-10.5599
7)	-10.5626
J	-10.5626
▁betreffen	-10.563
aste	-10.5638
▁Weefsel	-10.5644
▁vol	-10.5646
▁Cytologi	-10.5647
▁candida	-10.5657
▁irradicaal	-10.5657
▁verhoogd	-10.5657
▁(90%)	-10.5657
▁beschrijving	-10.5657
mucineuze	-10.5657
▁sneevlakken	-10.5658
▁mesenchymale	-10.5658
enigszins	-10.5661
▁direct	-10.5662
▁fistel	-10.5664
▁detecteert	-10.5666
Tumortype	-10.5667
2020	-10.567
sond	-10.5673
▁duct	-10.5675
▁externe	-10.5678
▁Maxima	-10.569
▁epitheelcellen	-10.5691
mutatie	-10.5694
uterusextirpatie	-10.5694
coecum	-10.5696
▁neuroendocrien	-10.5698
VAF	-10.5699
plaveiselcel	-10.57
noch	-10.5703
▁Crista	-10.5704
▁decidua	-10.5708
89	-10.5713
▁2014	-10.5718
2).	-10.5725
resectievlakken	-10.5731
▁nieuw	-10.5732
▁types	-10.5736
▁voorzijde	-10.5743
▁anti	-10.5769
oid	-10.5772
93	-10.5781
▁vas	-10.5796
▁no	-10.5799
4-	-10.58
1)	-10.5806
▁Curettement	-10.5816
▁inflammatie	-10.5816
▁mucocele	-10.5816
▁duodenitis	-10.5816
Glu	-10.5816
▁navel	-10.5817
▁buizen	-10.5821
▁buiten	-10.5822
▁advies	-10.5823
▁ivm	-10.5823
▁leverweefsel	-10.5825
▁celrijkdom	-10.5825
schouder	-10.5826
▁halscyste	-10.5827
▁mammaparenchym	-10.583
▁palatum	-10.5838
▁Uitgebreide	-10.5848
2013	-10.585
38	-10.5853
achtergrond	-10.5858
▁eosinofielen	-10.5862
nte	-10.5872
▁klieren	-10.5877
▁gerelateerd	-10.5884
15-2	-10.5888
▁huidadnextumor	-10.5903
54	-10.5918
wand	-10.5924
▁preparaten	-10.5925
14-1	-10.5957
4:	-10.5973
▁contagiosum	-10.5977
▁veroorzaakt	-10.5977
▁mastopathie	-10.5977
src	-10.5977
pl	-10.5977
▁junctione	-10.5978
▁zuurv	-10.5978
119.	-10.5981
▁waren	-10.5982
▁botweefsel	-10.5983
▁ingesloten	-10.5987
bovenarm	-10.599
▁helft	-10.6
▁amenorroeduur	-10.6012
▁datum	-10.6013
14-2	-10.6014
21:	-10.6019
verstoring	-10.6021
▁max	-10.6025
TKI	-10.603
▁1,6	-10.6033
▁Progesteron	-10.6035
▁sprietig	-10.6036
83	-10.604
95	-10.605
78	-10.6058
▁clonaliteits	-10.6058
ao	-10.607
97	-10.6097
▁tumorrest	-10.6114
▁huidstansbiopt	-10.6116
▁Volledig	-10.6138
▁pubis	-10.6141
▁radical	-10.6141
accredit	-10.6141
▁ondersteunt	-10.6141
▁squamo	-10.6141
▁voorgelegd	-10.6141
▁TERT	-10.6141
cobas	-10.6141
▁darmlijden	-10.6141
▁onderkwadrant	-10.6142
▁Wekedelen	-10.6143
▁zouden	-10.6145
▁collagene	-10.615
▁Sigmoid	-10.6156
▁NTRK	-10.6157
lymfklier	-10.6158
▁blaashals	-10.6159
6):	-10.6175
▁FFPE	-10.6182
recidief	-10.6188
fibroserende	-10.6188
midden	-10.6189
DNA	-10.6189
▁dysplastisch	-10.6211
▁complexe	-10.6212
5,	-10.6219
Type	-10.6229
▁TPS	-10.6232
19-	-10.6245
57	-10.6254
ac	-10.6281
zonder	-10.6298
patroon	-10.6305
▁bekken	-10.6307
▁circulatie	-10.6308
▁error	-10.6308
▁getroffen	-10.6308
▁mogelijkheden	-10.6308
▁opgevraagd	-10.6308
hun	-10.6308
▁cilindrisch	-10.6308
▁losse	-10.631
▁tumorlengte	-10.6314
▁lineaire	-10.6319
▁huidbiopsie	-10.6319
▁schedel	-10.6321
▁Morfologisch	-10.6329
▁insufficientie	-10.6332
onwaarschijnlijk	-10.635
▁keratine	-10.6352
▁EIN	-10.6352
aortaal	-10.6353
mediale	-10.6357
revisie	-10.6358
KRAS	-10.6358
granuloomvorming	-10.6376
▁ulcererend	-10.6379
23:	-10.6387
▁lichenoides	-10.6394
▁li	-10.6404
▁70	-10.6423
5/	-10.6443
▁huidexcisies	-10.6444
station	-10.6445
▁(6	-10.6446
▁Resectievlak	-10.6454
▁stukje	-10.6458
▁2013	-10.646
▁Lever	-10.6464
▁sequentie	-10.6465
Cys	-10.6466
segment	-10.6474
▁los	-10.6475
groep	-10.6475
▁ascites	-10.6477
gemedieerde	-10.6477
▁verklaren	-10.6477
▁bekledend	-10.6477
▁basaalmembraan	-10.6477
▁molluscum	-10.6477
▁kaaklijn	-10.6478
▁MDM	-10.6478
▁impetiginisatie	-10.648
▁leiomyosarcoom	-10.648
▁zes	-10.6482
▁schwannoom	-10.6482
▁kaakrand	-10.6488
44	-10.6502
▁Kleuring	-10.6509
▁cave	-10.6513
▁behorend	-10.6516
▁34	-10.6519
adenoom	-10.652
Q	-10.6527
CR	-10.6532
▁coli	-10.6538
▁krappe	-10.6539
▁(3)	-10.6559
▁secretoir	-10.6563
▁vroege	-10.6568
ROS	-10.659
▁07	-10.6599
nd	-10.6608
periappendicitis	-10.6617
-*******	-10.6621
tje	-10.6629
▁gevalideerd	-10.665
▁toelichting	-10.665
peptische	-10.665
▁Basaal	-10.665
▁endometriosis	-10.665
▁toonde	-10.665
▁intraductaal	-10.6654
▁Normaal	-10.6655
▁zodat	-10.6657
▁cauterisatie	-10.6657
arm	-10.6658
21/	-10.666
centrale	-10.6665
▁insturen	-10.6665
▁4,5	-10.6667
▁recidiverende	-10.6667
gebruik	-10.6667
▁RNA	-10.6676
▁fundus	-10.6693
▁snijden	-10.6695
▁linkerbovenbeen	-10.6699
▁der	-10.6704
Punctie	-10.6706
metaplasie	-10.6706
▁linkeronderbeen	-10.6707
level	-10.6708
lomerulosclerose	-10.6713
▁Mammanaaldbiopt	-10.6727
33	-10.6731
▁perifolliculair	-10.6747
king	-10.6754
prostatisch	-10.6759
▁test	-10.6784
clon	-10.6787
proces	-10.6801
▁globa	-10.6808
▁cilindercel	-10.6813
▁lipomateu	-10.6815
pontaan	-10.6816
▁HE	-10.6817
aarschijnlijk	-10.6823
LOKALISATIE	-10.6825
▁gastrale	-10.6825
▁submandibularis	-10.6825
▁molle	-10.6825
▁regelmatig	-10.6825
▁Randen	-10.6826
▁BVO	-10.6827
TOT	-10.6828
▁daarom	-10.6829
▁gebiopteerd	-10.6831
▁interna	-10.6831
▁PDGFRA	-10.6833
▁Beide	-10.6833
voorgeschiedenis	-10.6836
▁zwart	-10.6837
biopsiemateriaal	-10.6839
▁niveaus	-10.6844
▁presternaal	-10.6846
▁traject	-10.685
▁celpopulatie	-10.6853
▁rechtermamma	-10.6854
2021	-10.6859
matig	-10.686
▁arterie	-10.686
nodulair	-10.6868
Y	-10.6871
Conform	-10.6884
IHC	-10.6885
all	-10.6893
▁Rectum	-10.6894
▁goedaardig	-10.69
▁ileumslijmvlies	-10.6902
▁poliepjes	-10.6902
5),	-10.6908
▁hypertrofisch	-10.691
▁vocht	-10.6912
genoemde	-10.6923
76	-10.6924
81	-10.6924
%).	-10.6936
▁omgevend	-10.6939
▁haard	-10.6947
preparaten	-10.6953
vraag	-10.6955
▁k	-10.6958
laaggradig	-10.696
xcisie	-10.6973
cu	-10.7002
▁junction	-10.7003
▁Voldoende	-10.7004
▁geschikt	-10.7004
▁imponerend	-10.7004
▁planopilaris	-10.7004
▁communis	-10.7004
▁meerlagig	-10.7004
▁fibromusculair	-10.7004
▁colorectaal	-10.7007
▁overigens	-10.7008
▁gecombineerd	-10.7009
▁vinger	-10.7009
▁posterieur	-10.7011
▁oorlel	-10.7011
▁maagantrumtype	-10.7014
▁mondbodem	-10.7016
▁niveau	-10.7022
▁voetrug	-10.7022
▁reductie	-10.7027
▁Gefragmenteerde	-10.7033
▁PI	-10.7034
borst	-10.7038
rechterbovenbeen	-10.7051
▁plaveiselepithe	-10.7069
20-	-10.7083
stoornissen	-10.7086
ase	-10.7121
VIII	-10.7157
product	-10.7174
64	-10.7178
">	-10.7185
▁collega	-10.7185
▁meningeoom	-10.7185
▁panniculitis	-10.7185
▁verknepen	-10.7185
▁hybridisatie	-10.7185
▁Tepelvocht	-10.7186
AHA	-10.7186
▁plaatepitheel	-10.7186
▁hepatocellulair	-10.7186
▁lymfatisch	-10.7186
▁maanden	-10.7187
maag	-10.719
▁(0/	-10.7193
▁hemicolectomie	-10.7195
▁submandibulair	-10.7196
▁monotypisch	-10.7198
tot	-10.7199
▁genetisch	-10.7203
▁klep	-10.7204
▁hechting	-10.7207
▁scleroserend	-10.7207
▁zijranden	-10.7215
karakteristieken	-10.7222
16/	-10.7222
▁Bronchusbiopten	-10.7224
▁hemorragische	-10.7225
ry	-10.7231
▁Sta	-10.7248
▁TNM	-10.726
ci	-10.727
18-0	-10.7271
▁galgang	-10.7273
aesie	-10.7283
▁dien	-10.7306
▁myocard	-10.7313
?):	-10.7324
▁the	-10.7336
▁GROEI	-10.7339
▁2016	-10.734
gens	-10.735
▁wij	-10.7352
▁blaasslijmvlies	-10.7359
roep	-10.7365
cellulaire	-10.737
MBR	-10.7371
▁aangeboden	-10.7371
▁anaplastisch	-10.7371
▁compound	-10.7371
▁defect	-10.7371
▁diverticulose	-10.7371
▁fungoides	-10.7371
▁dermatoloog	-10.7371
▁multiforme	-10.7371
▁stellen	-10.7371
▁lavage	-10.7371
▁bevatten	-10.7371
▁biopsies	-10.7376
▁Wigexcisie	-10.7378
spoliepen	-10.7378
▁Bodem	-10.7379
▁maturatie	-10.7379
▁mycosis	-10.7379
▁aspiraat	-10.7379
▁serie	-10.7381
▁subacut	-10.7382
▁Celarm	-10.7383
▁flowcytometrie	-10.7383
▁paravertebraal	-10.7383
▁kaakhoek	-10.7385
▁BAL	-10.7387
▁hoorn	-10.7387
▁gestelde	-10.7391
▁5)	-10.74
▁linkermamma	-10.7401
▁lis	-10.7409
▁aangeleverde	-10.7421
69	-10.7424
VCM	-10.7438
Marge	-10.744
random	-10.744
TTF	-10.7446
▁vlak	-10.7456
cylinderepitheel	-10.7464
▁her	-10.7465
7:	-10.7471
▁SP	-10.7473
▁Celrijk	-10.7502
▁ex	-10.752
▁28-	-10.7525
microscopie	-10.7528
▁stolsel	-10.7539
5):	-10.7541
23/	-10.7548
▁familie	-10.7559
▁Assay	-10.7559
▁MYD	-10.7559
▁mediastinale	-10.7559
▁staven	-10.7559
▁̄rriteerde	-10.7559
▁Bronchusbrush	-10.756
▁immuunprofiel	-10.7561
▁supra	-10.7562
▁omgeving	-10.7563
▁verwijde	-10.7567
▁chemotherapie	-10.7567
▁herkomst	-10.7567
▁obturatorius	-10.7571
▁femur	-10.7572
6/	-10.7573
ij	-10.7574
▁schildklierkwab	-10.7578
▁thoraxwand	-10.7585
infectie	-10.7588
▁gemengd	-10.7592
5)	-10.7593
▁bovenste	-10.7595
▁derde	-10.7606
▁linkerzijde	-10.761
nos	-10.761
bodem	-10.7614
▁haarfollikels	-10.7615
gelegen	-10.7632
BRAF	-10.7632
Beeld	-10.7632
▁apicaal	-10.7633
ond	-10.7635
▁GE	-10.7637
▁anterieur	-10.7647
18-1	-10.7651
75	-10.7652
▁1,7	-10.7652
▁teken	-10.7657
KIN	-10.766
folliculaire	-10.7662
▁extravasatie	-10.7675
▁TKI	-10.768
3).	-10.77
▁inter	-10.7713
▁foto	-10.774
US	-10.774
▁histomorfologi	-10.7747
▁epitheliaal	-10.7751
▁bevat	-10.7752
▁Verwijdering	-10.7752
▁siliconen	-10.7752
▁viraal	-10.7752
▁beschikbaar	-10.7752
▁immature	-10.7752
▁irregulair	-10.7752
▁gemodificeerd	-10.7752
▁HRAS	-10.7753
▁pancreaskop	-10.7753
columnair	-10.7753
▁hematoom	-10.7755
as	-10.7757
▁flardjes	-10.7759
▁eczemateu	-10.7759
▁dubbelbrekend	-10.7762
▁disease	-10.7765
▁ijzer	-10.7768
▁nasolabiaal	-10.7768
▁protocol	-10.7772
▁lange	-10.778
▁LOH	-10.7791
klier	-10.7792
▁Ki	-10.7795
▁restmateriaal	-10.7801
▁cellulariteit	-10.7814
8)	-10.7819
thorax	-10.7828
GEEN	-10.7828
distaal	-10.7828
▁acanthoom	-10.7829
intra	-10.7832
2018	-10.7878
77	-10.7882
athogene	-10.789
komende	-10.7902
▁45	-10.7908
voorlopig	-10.7921
4,	-10.7945
▁GNA	-10.7945
LYMFANGIO	-10.7948
▁Demodex	-10.7948
▁curvatuur	-10.7948
▁gehoorgang	-10.7948
▁lienalis	-10.7948
▁trichilemm	-10.7948
ouble	-10.7948
Differentiatie	-10.7948
▁blijvende	-10.795
▁tekst	-10.7954
▁verwijdering	-10.7954
▁cristabiopt	-10.7954
▁villitis	-10.7956
▁Nieuwe	-10.7961
VE	-10.7961
wangerschapsduur	-10.797
▁2,2	-10.7979
▁rechterzijde	-10.7984
▁diepreikende	-10.7995
▁naaldbiopsie	-10.8004
uitstrijk	-10.8009
100	-10.8017
▁vreemdlichaam	-10.8018
Naaldbiopten	-10.8038
▁stabiel	-10.8058
7/	-10.8067
Ser	-10.8069
72	-10.8079
zijde	-10.8112
▁We	-10.8127
▁bacteri	-10.8129
lymfklierpunctie	-10.8129
me	-10.8131
4);	-10.8131
▁elektronen	-10.8132
lc	-10.8132
▁2+	-10.8134
▁inhoud	-10.8134
▁huidig	-10.8134
▁he	-10.8146
jarige	-10.8148
▁aangrenzend	-10.8148
▁adenomyose	-10.8148
▁darmkanker	-10.8148
▁isthmus	-10.8148
▁ectocervicaal	-10.8148
▁with	-10.8148
▁voorhanden	-10.8148
▁order	-10.8148
▁onverdacht	-10.8148
▁rijping	-10.8148
einig	-10.8149
▁tangentieel	-10.815
▁leverparenchym	-10.815
RADS	-10.8151
▁nefritis	-10.8154
▁dagen	-10.8154
▁32	-10.8155
▁losliggend	-10.8155
▁Transurethra	-10.8156
▁Total	-10.8157
▁ano	-10.8158
▁colloid	-10.8159
▁sp	-10.8159
▁Naruke	-10.8161
▁poliepeuze	-10.8164
▁chirurgisch	-10.8166
▁ductectasieen	-10.8168
-2).	-10.817
▁infarct	-10.817
▁gericht	-10.8176
▁gemethyleerd	-10.8181
▁voorlopige	-10.8189
▁hal	-10.8191
▁pTaG	-10.8203
▁bijvoor	-10.8204
13/*******/	-10.8217
TUR	-10.8223
▁Intern	-10.8223
carcinomen	-10.8227
Voorstel	-10.8229
Resectie	-10.8233
pseudo	-10.8233
gang	-10.8233
▁duodenums	-10.8235
▁intraductal	-10.8237
96	-10.8238
▁recent	-10.8247
chronische	-10.8255
regionale	-10.8264
mmunohistochemie	-10.8276
▁+4	-10.8278
▁st	-10.8295
bijmenging	-10.8306
receptorbepaling	-10.8314
58	-10.8321
65	-10.8323
:12	-10.8327
▁Lymfeklier	-10.8331
▁Colonbiopt	-10.8345
▁risk	-10.8351
▁geweest	-10.8352
▁malperfusie	-10.8352
▁mitotisch	-10.8352
▁tandenrij	-10.8352
▁neig	-10.8352
▁Blaasspoeling	-10.8352
▁melanocyten	-10.8353
Asp	-10.8354
▁vliezen	-10.8356
▁hormona	-10.8358
▁nevus	-10.8361
▁polypeus	-10.8361
▁preputium	-10.8363
▁Torre	-10.8363
▁Beperkt	-10.8366
▁geulcereerd	-10.8366
▁seborroisch	-10.837
▁GEWIJZIGD	-10.8381
▁MARGE	-10.8391
▁borderline	-10.8421
▁inkt	-10.8424
▁plooi	-10.8428
▁Th	-10.8433
▁subepithelia	-10.8438
behandeling	-10.8441
Definitieve	-10.8441
Cytologisch	-10.8441
MET	-10.8442
▁componenten	-10.8448
ut	-10.8452
▁variaties	-10.8453
ce	-10.8472
BP	-10.8478
volgen	-10.8487
nl	-10.8492
naevus	-10.851
18/	-10.851
▁date	-10.852
ad	-10.8539
▁marker	-10.855
▁1,0	-10.8553
rechterbovenkwab	-10.8556
coupes	-10.8557
▁inzending	-10.8557
▁geprikkeld	-10.856
▁infiltraten	-10.856
▁serositis	-10.856
▁kristallen	-10.856
.1799	-10.856
▁immunoloog	-10.856
▁alhier	-10.856
▁glioblastoom	-10.8561
▁elk	-10.8561
▁urineblaas	-10.8563
kh	-10.8565
9):	-10.8566
▁gemengdcellig	-10.8566
▁huidshave	-10.8567
nasolabiaalplooi	-10.857
▁bloedvaten	-10.857
▁maagmucosa	-10.8572
▁uitbreidend	-10.8576
▁duim	-10.8582
▁shavebiopt	-10.8582
▁uurs	-10.8586
▁basaloide	-10.8586
▁Breslowdikte	-10.8586
▁longweefsel	-10.8589
gebl	-10.8591
▁Derma	-10.8591
▁relevant	-10.8593
end	-10.8596
▁Clark	-10.8597
▁co	-10.8598
14-3	-10.8609
▁RIP	-10.8611
▁huidresectie	-10.8626
isatie	-10.8632
▁Tubulair	-10.8635
▁CLL	-10.8641
submucosaal	-10.8642
8/	-10.8643
.34	-10.8643
duodenum	-10.8644
ion	-10.8646
litteken	-10.8649
▁Archer	-10.8651
blokje	-10.8653
▁90%	-10.8653
neusrug	-10.8656
cin	-10.8661
schouderblad	-10.867
ke	-10.8687
▁conclusief	-10.8693
▁Zo	-10.87
16-	-10.8701
fs	-10.8702
▁Advies	-10.8706
▁circumferentie	-10.8709
schildwachtklier	-10.8732
tis	-10.8738
adequaat	-10.8751
▁kern	-10.8755
]20	-10.8755
▁bevinding	-10.8755
Ad	-10.876
▁resectierand	-10.8765
▁progressie	-10.877
architecturele	-10.8772
ATIE	-10.8772
Interpretatie	-10.8773
▁ONDERZOEK	-10.8773
▁Paget	-10.8773
▁geloosd	-10.8773
▁Superficie	-10.8773
▁fibroxanthoom	-10.8773
▁microsatellitos	-10.8773
▁eenduidig	-10.8773
▁myoom	-10.8773
▁afgenomen	-10.8773
time	-10.8773
▁vaatjes	-10.8773
▁amyloidose	-10.8774
▁soms	-10.8776
reventie	-10.8777
▁60	-10.878
▁doen	-10.8782
▁Low	-10.8782
▁systemisch	-10.8782
▁fibromatose	-10.8785
▁stenen	-10.8785
▁groepjes	-10.8786
▁galwegen	-10.8788
▁gesneden	-10.879
stabiel	-10.8791
Hodgkinlymfoom	-10.8793
▁usual	-10.8795
▁JAK	-10.8795
▁resttumor	-10.8796
▁linkeronderarm	-10.8813
▁artefacten	-10.883
rmale	-10.8833
23-	-10.8838
▁waarde	-10.8866
Lokalisatie	-10.887
mediaal	-10.887
up	-10.8871
Pleuravocht	-10.8871
interstitiele	-10.8871
persisterende	-10.8878
pTNM	-10.8899
▁80	-10.8905
diagnosticeerde	-10.891
▁reiken	-10.8951
men	-10.8958
huid	-10.896
▁Subcutis	-10.8961
14/*******/	-10.8964
▁divertikel	-10.8974
Angioinvasie	-10.8977
/*******	-10.8978
taal	-10.8983
ent	-10.8989
dieringsvoorstel	-10.899
▁Ontsteking	-10.899
Polypectomie	-10.899
▁cerebri	-10.899
▁foetus	-10.899
▁werkgroep	-10.899
▁Reactief	-10.8991
▁blaarvorming	-10.8991
▁chronica	-10.8991
▁Transuret	-10.8992
▁pemphigoid	-10.8992
▁afge	-10.8992
▁Sigmoidresectie	-10.8993
▁Slecht	-10.8994
▁rubriek	-10.8994
▁Wat	-10.8995
▁glomerulaire	-10.8996
▁tumorpercentage	-10.8997
eren	-10.8999
▁verkalkingen	-10.9
▁sporadisch	-10.9002
▁systematisch	-10.9002
▁SISH	-10.9009
▁betrokkenheid	-10.901
▁myo	-10.9018
▁ZN	-10.9023
▁atheroomcyste	-10.9024
waarschijnlijk	-10.9039
▁alveolair	-10.9043
▁crypten	-10.9047
▁Antrum	-10.9048
▁aard	-10.9049
oA	-10.9054
▁endometrial	-10.908
▁12-	-10.9084
endometrium	-10.9091
centraal	-10.9094
4/	-10.9098
PCR	-10.9098
nek	-10.91
der	-10.9104
▁80%	-10.9105
▁(11	-10.9114
excisiepreparaat	-10.9126
▁afd	-10.9129
▁neo	-10.9141
inflammatoire	-10.9152
Leu	-10.9158
oor	-10.9159
cervicale	-10.917
▁media	-10.9182
▁%).	-10.9185
▁voorste	-10.9192
anale	-10.9201
▁Mede	-10.9203
▁mucine	-10.9204
▁nauwe	-10.9205
immuno	-10.9208
▁snede	-10.9208
versus	-10.921
▁fibroma	-10.9211
▁basalioom	-10.9213
▁betekent	-10.9213
▁ondersteuning	-10.9213
▁prostatitis	-10.9213
▁septum	-10.9213
▁toepassing	-10.9213
▁liposarcoom	-10.9213
▁immunologisch	-10.9213
▁bacteriele	-10.9213
▁vergelijking	-10.9213
▁cryptitis	-10.9214
▁dwarsgestreept	-10.9214
▁linkeroor	-10.9218
▁1-2	-10.9219
▁stenose	-10.922
▁zijdelings	-10.9221
▁Adenocarcinoom	-10.9225
▁ATM	-10.9228
caverneus	-10.9228
▁High	-10.9233
▁-)	-10.9234
▁Bericht	-10.9236
▁Blaasbiopten	-10.9239
▁cyto	-10.9249
▁MGMT	-10.9249
▁immunofenotype	-10.9251
▁pro	-10.9257
14/	-10.9258
▁duodenumbiopt	-10.9261
totaal	-10.9268
21-1	-10.9276
sis	-10.9286
▁later	-10.9288
afw	-10.929
pi	-10.9292
▁1):	-10.9293
localisatie	-10.9296
long	-10.9297
kenmerken	-10.9303
22-4	-10.931
papilloom	-10.9321
Voorts	-10.9326
59	-10.9326
1),	-10.9328
▁gedegenereerd	-10.9335
-67	-10.9336
ocaal	-10.9339
▁2,3	-10.9348
263	-10.9349
▁heel	-10.9351
▁5%.	-10.936
mb	-10.9361
▁hypertensie	-10.9365
▁excisies	-10.9378
20-01	-10.938
▁X	-10.941
60	-10.9414
▁follikel	-10.942
▁sereu	-10.9421
]3.	-10.9423
▁onderverdeling	-10.9434
▁Sjogren	-10.944
▁cryptabcessen	-10.944
▁pilonidalis	-10.944
▁talrijk	-10.944
Tumorgrootte	-10.944
▁avitaal	-10.944
▁GNAQ	-10.944
NEUR	-10.9442
▁hierboven	-10.9443
▁optimaal	-10.9443
▁zoek	-10.9443
▁bewerkt	-10.9443
▁koilocytose	-10.9444
▁vacuolair	-10.9445
▁inguinaal	-10.945
▁voetzool	-10.945
▁Ovarium	-10.945
▁Litteken	-10.9451
▁diafragma	-10.9455
▁gegroeid	-10.9458
▁baso	-10.9459
▁stuwing	-10.9463
▁Hemicolectomie	-10.9464
interstitieel	-10.9469
]24	-10.9472
mature	-10.9493
▁schildwacht	-10.9497
ek	-10.9511
5:	-10.9523
▁OP	-10.9528
infiltratie	-10.953
▁onderste	-10.9536
▁verdikt	-10.954
MSS	-10.9543
07-20	-10.9544
aanvulling	-10.9553
Gaarne	-10.9553
potje	-10.9554
▁(100%),	-10.9567
Re	-10.9576
eve	-10.9577
▁voorwand	-10.9583
0%	-10.9598
▁He	-10.9601
morbu	-10.9625
▁aanvragen	-10.9627
nten	-10.9633
7/*******/	-10.9639
laas	-10.9654
▁metaplastische	-10.9661
▁haardje	-10.9663
▁calcificatie	-10.9667
verwege	-10.9669
▁hotspot	-10.9671
handeld	-10.9672
▁leukocytoclas	-10.9672
▁IUVD	-10.9672
▁bewijzend	-10.9672
▁cytonucleair	-10.9672
▁epicrise	-10.9672
▁peesschede	-10.9672
▁platform	-10.9672
▁Aspiratie	-10.9672
▁pemfigoid	-10.9672
▁myelofibrose	-10.9673
▁lymfomenpanel	-10.9673
▁rode	-10.9673
Totaal	-10.9673
▁ogend	-10.9673
▁ulcusbodem	-10.9674
▁bloedbijmenging	-10.9674
▁steel	-10.9674
▁uitgaa	-10.9675
▁myomatosus	-10.9677
▁Stereotactisch	-10.968
▁spirocheten	-10.968
▁dissectie	-10.9682
▁cq	-10.9684
20-2	-10.9684
▁(10	-10.9686
▁reuscel	-10.9687
▁bloedingsresten	-10.9688
▁intraepithelial	-10.969
▁gingiva	-10.9691
▁acanthotisch	-10.9691
▁Enig	-10.9696
▁conjunctiva	-10.9696
▁pylorus	-10.9697
naevoide	-10.9698
▁Huidshavebiopt	-10.9701
▁criteria	-10.9705
▁LDT	-10.9705
▁punt	-10.9718
▁low	-10.9727
VEN	-10.9734
▁gronden	-10.9735
▁spoelvocht	-10.9737
classificatie	-10.9759
onderarm	-10.976
holte	-10.9767
]11	-10.9782
▁plasma	-10.9784
descendens	-10.9791
microsatellieten	-10.9792
passend	-10.9796
rijk	-10.9797
▁*******;	-10.9831
per	-10.9841
▁HPF	-10.9842
▁(100%).	-10.9844
]26	-10.9869
▁zwangerschap	-10.9881
▁MA	-10.9885
vena	-10.989
▁angioinvasie	-10.9902
7):	-10.9906
▁lesion	-10.991
ISUP	-10.991
▁biopsy	-10.991
▁correlaat	-10.991
▁herkend	-10.991
▁proctitis	-10.991
▁stemplooi	-10.991
▁verslaglegging	-10.991
Opmerking	-10.991
▁hematopoiese	-10.991
▁dermatomycose	-10.9911
▁bloederig	-10.9911
▁vergrote	-10.9911
▁zekerheidshalve	-10.9911
▁bevonden	-10.9912
▁leversegment	-10.9912
ICAAL	-10.9913
▁borstkas	-10.9915
▁opgegeven	-10.9917
▁Uterusresectie	-10.9919
▁1+	-10.9922
▁Adnexextirpatie	-10.9922
▁urticariele	-10.9924
▁fundustype	-10.9925
gelet	-10.9932
▁BAP	-10.9939
▁typeren	-10.9939
▁hilair	-10.9944
cylinders	-10.9954
▁Metastase	-10.9956
▁markers	-10.9956
▁abces	-10.9957
▁CK	-10.9964
▁bekleding	-10.9973
▁haarden	-10.9977
▁linkerbovenarm	-10.9979
tatus	-10.9983
vocht	-11
▁mee	-11.0018
▁geleide	-11.0025
exact	-11.0035
positieve	-11.0035
Hoog	-11.0035
Onvoldoende	-11.0035
Helicobacter	-11.0035
squameus	-11.0037
▁Klein	-11.0069
▁erg	-11.007
ziekte	-11.0074
ub	-11.0075
isch	-11.0078
20-3	-11.0111
500	-11.0111
22/	-11.0114
/11/	-11.0127
▁karakter	-11.013
16-0	-11.0147
▁WE	-11.0148
ompleet	-11.0149
▁mond	-11.015
▁vlakke	-11.0151
db	-11.0152
▁NOTCH	-11.0154
▁artritis	-11.0154
▁semen	-11.0154
▁ANALYSE	-11.0154
▁Hysteroscopisch	-11.0154
▁condyloom	-11.0154
▁erytrocyturie	-11.0154
▁serologie	-11.0154
▁steatohepatitis	-11.0154
▁voorafgaand	-11.0154
Groeiwijze	-11.0154
▁ieder	-11.0154
▁bewerking	-11.0155
▁slijmvormend	-11.0155
▁graderen	-11.0155
▁reepjes	-11.0158
▁Orchidectomie	-11.0159
▁scrotum	-11.0162
▁larynx	-11.0165
▁mesenterium	-11.0168
▁ectocervix	-11.0168
▁intradermaal	-11.017
▁overgangstype	-11.0175
▁TKIs	-11.018
▁aantasting	-11.0181
▁knieholte	-11.0185
▁dys	-11.0186
▁gaan	-11.0188
▁Klier	-11.0189
▁Naaldbiopsie	-11.0191
▁NIEUWE	-11.0192
▁myxoide	-11.02
▁nodig	-11.0217
55	-11.0224
▁Als	-11.0224
36	-11.0225
▁slokdarmbiopten	-11.0226
ui	-11.0228
▁hypertrofie	-11.0234
▁(22	-11.0235
▁CT	-11.0239
can	-11.0246
15/*******/	-11.0249
flank	-11.025
-1).	-11.0253
▁Kleine	-11.026
17-4	-11.0268
▁70%	-11.027
▁(9	-11.0272
snijvlakken	-11.0274
scalp	-11.0285
neuspunt	-11.0285
alis	-11.0286
delen	-11.03
▁waarna	-11.0304
fragmentjes	-11.0319
▁VIII	-11.0329
▁voorkomen	-11.033
SO	-11.0336
▁stasis	-11.0377
▁haar	-11.0378
▁trombus	-11.0392
▁galweg	-11.0394
eoordeling	-11.0399
▁doorsnede	-11.04
anwezigheid	-11.0403
neeranden	-11.0403
▁villi	-11.0404
▁clear	-11.0404
▁graft	-11.0404
cholecystectomie	-11.0404
▁Vermoedelijk	-11.0404
▁acantholyse	-11.0404
▁neusbijholte	-11.0404
▁scannen	-11.0404
▁trimester	-11.0404
▁Vater	-11.0404
▁prostatectomie	-11.0404
▁maxillaris	-11.0404
GRAA	-11.0404
▁buitenoppervlak	-11.0404
▁haemangioom	-11.0404
Localisatie	-11.0405
▁motiel	-11.0405
▁intracavitair	-11.0405
▁gedeeltelijk	-11.0405
▁5,5	-11.0406
▁hypocellulair	-11.0407
Lys	-11.0408
paard	-11.0409
▁ruimte	-11.0411
▁multifocale	-11.0414
▁bovenkaak	-11.0416
omtrent	-11.0418
▁+/-	-11.0421
▁cervicaal	-11.0425
▁Pleurabiopten	-11.0425
▁Sentinel	-11.0427
▁eccrien	-11.0427
▁Longbiopt	-11.0432
▁ingeblokt	-11.0434
▁di	-11.0434
Bronchusspoelsel	-11.044
▁2,1	-11.0444
▁paratubair	-11.0445
▁skintag	-11.0464
▁IK	-11.0467
]21	-11.0482
14-0	-11.0484
▁definitief	-11.0505
oksel	-11.0515
▁9-	-11.0518
▁Micro	-11.0527
▁celarme	-11.0534
PM	-11.0536
Vriescoupe	-11.0541
ERBB	-11.0541
14-4	-11.0546
▁subepiderma	-11.0552
beide	-11.0565
▁eerst	-11.0574
he	-11.0577
12/	-11.058
transplantatie	-11.0598
▁Om	-11.0607
vlak	-11.0628
▁onsteking	-11.0628
▁bloedingsrest	-11.0639
▁klierweefsel	-11.0639
▁Voorlopige	-11.0648
2021:	-11.0649
dissect	-11.0659
▁Bot	-11.066
▁tubuli	-11.0661
▁serologisch	-11.0661
▁sleeve	-11.0661
▁herbeoordeeld	-11.0661
](*******)	-11.0661
▁dyskeratose	-11.0661
▁11)	-11.0661
▁medebeoordeeld	-11.0661
▁Hyperplastisch	-11.0662
▁1,9	-11.0662
▁arteriitis	-11.0662
AKT	-11.0663
▁darmmucosa	-11.0665
▁thermisch	-11.0675
▁celgroepjes	-11.0675
▁zijkant	-11.0675
▁Overigens	-11.0676
▁Delen	-11.0676
▁antrumbiopten	-11.0676
▁onze	-11.0677
▁CDK	-11.0678
▁radiotherapie	-11.0678
▁IEL	-11.0679
▁satellieten	-11.0691
▁maart	-11.0692
▁Slokdarm	-11.0693
specifiek	-11.0696
amengestelde	-11.0697
ras	-11.0711
▁rechterbovenarm	-11.0716
▁Dunnedarm	-11.0732
▁r	-11.0734
▁8,	-11.0739
▁intacte	-11.0742
ak	-11.0745
j	-11.0747
▁verminderd	-11.0748
▁prostaatbiopt	-11.075
▁blaasbiopten	-11.0756
▁placentair	-11.0763
▁neusslijmvlies	-11.0769
STA	-11.0775
Mamma	-11.0775
17-3	-11.079
▁AANVULLEND	-11.0794
brush	-11.0804
locatie	-11.0804
tussen	-11.0804
situ	-11.0805
lymfocyten	-11.0805
betreffende	-11.0806
hooggradig	-11.0807
lies	-11.0809
FNA	-11.081
Door	-11.081
Som	-11.0811
volgende	-11.0811
▁ruimer	-11.0828
atypische	-11.0829
allergische	-11.083
20/	-11.0836
▁vraag	-11.0841
histologisch	-11.0842
houdend	-11.0842
ta	-11.0844
nier	-11.0852
licht	-11.0861
va	-11.0873
diepte	-11.0883
▁Spoel	-11.0889
▁gescleroseerde	-11.0892
regeneratieve	-11.0893
▁glandulair	-11.0896
▁bestaan	-11.0904
▁for	-11.0912
handrug	-11.0918
bulleuze	-11.0924
uitgebluste	-11.0924
verschuiving	-11.0924
▁Heupkop	-11.0924
▁Tonsillectomie	-11.0924
▁galstenen	-11.0924
▁hypofyse	-11.0924
▁lingula	-11.0924
▁mestcellen	-11.0924
▁skipping	-11.0924
classificeerd	-11.0924
▁aanzien	-11.0924
▁hematopoetisch	-11.0924
▁probe	-11.0924
▁macronodulair	-11.0924
▁keratinocyten	-11.0925
▁lymfomen	-11.0925
▁REC	-11.0925
▁Ascitesvocht	-11.0925
EPT	-11.0927
ctieve	-11.0928
▁rondkernig	-11.0929
▁Random	-11.0932
▁Nefrectomie	-11.0935
▁pulmonale	-11.0938
▁ulceroflegmoneu	-11.0941
▁zin	-11.0944
bi	-11.0944
▁Extern	-11.0958
▁groepen	-11.0962
iepreparaat	-11.0969
▁markering	-11.097
▁ingestuurd	-11.0975
▁tweemaal	-11.0988
▁medicamenteuze	-11.0994
▁linkszijdig	-11.0994
▁tijd	-11.1007
beoordeling	-11.1013
▁remmers	-11.1014
ph	-11.1019
▁3+3=6	-11.1019
-3).	-11.1021
▁(*******).	-11.103
▁beeldvorming	-11.1058
▁bloedingen	-11.1066
top	-11.1068
deficientie	-11.1072
maligne	-11.1073
voorkeur	-11.1075
via	-11.1076
gv	-11.1077
tenminste	-11.1079
▁secretoire	-11.1087
-4	-11.1089
▁DE	-11.1094
]16	-11.1105
▁60%	-11.1108
reactieve	-11.1114
Ala	-11.112
2018:	-11.1123
▁wijzen	-11.1126
poliepen	-11.1145
rechteronderkwab	-11.1148
AP	-11.1151
▁tibia	-11.1162
IA	-11.1162
▁tumorvolume	-11.1174
▁blaar	-11.1175
▁zegelringcel	-11.1183
▁Galblaasresect	-11.1193
▁vlok	-11.1193
▁collageen	-11.1194
▁Goed	-11.1194
▁Laboratorium	-11.1194
▁aanbevolen	-11.1194
▁erythematodes	-11.1194
▁gespecificeerd	-11.1194
▁gezamenlijk	-11.1194
▁malformatie	-11.1194
▁nodosum	-11.1194
▁prostatica	-11.1194
Gln	-11.1194
▁erythrocyten	-11.1194
▁chorionvlokken	-11.1194
▁dikkedarm	-11.1194
▁wond	-11.1194
▁evenals	-11.1194
▁satellitose	-11.1195
▁hoofdbronchus	-11.1195
▁opgebouwd	-11.1195
erzijds	-11.1196
4).	-11.1196
Beenmergaspiraat	-11.1198
▁nerv	-11.12
▁zogenaamd	-11.1203
▁prikkeling	-11.1203
▁seborrhoisch	-11.1203
▁Prostaatbiopt	-11.1205
▁centrum	-11.1207
STE	-11.1208
ullen	-11.1209
▁pari	-11.1209
▁fibrosering	-11.121
▁minuscule	-11.1211
▁interstiti	-11.1211
▁Diagnose	-11.1213
ans	-11.1214
▁nagel	-11.1216
▁wervel	-11.1219
▁fossa	-11.1223
▁rechteronderarm	-11.1229
]28	-11.1234
▁2017	-11.1239
▁kwab	-11.1247
gaand	-11.1251
▁innemend	-11.1259
▁foveolaire	-11.1265
▁kleincellige	-11.1267
▁26-	-11.1271
52	-11.1284
par	-11.1308
tubulaire	-11.1309
tjes	-11.1317
▁PL	-11.1321
▁2-3	-11.1329
61)	-11.1332
▁holte	-11.1333
histiocytose	-11.1348
PERI	-11.135
Archer	-11.1352
caudaal	-11.1352
vriescoupe	-11.1353
zoals	-11.1353
verwijderd	-11.1353
oesophagus	-11.1353
▁vel	-11.1368
12-1	-11.1376
22-00	-11.1379
eerdere	-11.1387
rmatopathologie	-11.1398
▁verminderde	-11.1407
▁En	-11.1409
▁rectumbiopten	-11.1414
▁Endocervix	-11.1417
len	-11.1441
GRADERING	-11.1441
cyt	-11.1447
▁cin	-11.1453
▁minuscu	-11.1455
▁wig	-11.1461
ommissie	-11.1468
niversit	-11.1469
DIFFERENT	-11.1472
oesofagea	-11.1472
▁ilium	-11.1472
▁Goedaardig	-11.1472
▁Maligniteit	-11.1472
▁ischaemie	-11.1472
▁ligament	-11.1472
screen	-11.1472
▁erytropoese	-11.1472
EUZE	-11.1472
IENFD	-11.1472
▁bijtfibroom	-11.1472
▁endocarditis	-11.1472
▁fimbriae	-11.1472
▁blastentoename	-11.1472
▁cystitis	-11.1472
▁maagcardia	-11.1474
▁laten	-11.1474
aN	-11.1475
WE	-11.1477
▁perianaal	-11.1479
%.	-11.1479
▁Hemi	-11.1479
▁wigexcisie	-11.1479
▁Pylori	-11.1481
▁verschillende	-11.1481
▁peritoneale	-11.1481
ZH	-11.1482
▁monoklonal	-11.1482
▁spoelcel	-11.1482
▁daarvan	-11.1486
▁sarcomatoid	-11.1489
▁jicht	-11.1491
22-1	-11.1492
▁Dep	-11.1495
▁struma	-11.1505
▁blastair	-11.1508
▁restlokalisatie	-11.1508
pen	-11.1509
nvasieve	-11.1511
▁RB	-11.1522
▁5:	-11.1522
▁excochleaat	-11.1529
no	-11.153
▁eind	-11.153
▁Sterk	-11.1532
sie	-11.1563
▁2,7	-11.1564
DD	-11.158
15-3	-11.1585
117	-11.1589
19/	-11.1602
▁(4)	-11.1615
▁linkerhand	-11.1634
HSIL	-11.1636
breuk	-11.1638
radiologisch	-11.1638
bovenlip	-11.1638
Poliepectomie	-11.1639
▁vesicula	-11.1648
achtige	-11.1659
5).	-11.1664
▁diverse	-11.1674
like	-11.1675
▁anaal	-11.168
bepaling	-11.169
elders	-11.1693
oide	-11.1698
▁mitose	-11.1723
▁pleit	-11.1739
41	-11.1745
▁infect	-11.1755
VAN	-11.1755
▁papilloma	-11.1757
▁trombose	-11.1757
▁3+4=7	-11.1758
▁POSITIEF	-11.1758
▁Sperma	-11.1758
▁adenomateus	-11.1758
▁follow	-11.1758
▁gemetastaseerd	-11.1758
▁genitalis	-11.1758
▁insectensteek	-11.1758
▁millimeter	-11.1758
▁noodzakelijk	-11.1758
▁rosea	-11.1758
▁plasmocytose	-11.1758
▁evt	-11.1758
▁straal	-11.1758
▁cirrose	-11.1758
▁prepylorisch	-11.1758
▁vaginatop	-11.1758
▁premaligne	-11.176
▁blaaswand	-11.176
▁overexpressie	-11.1761
▁glans	-11.1761
▁dilatatie	-11.1762
lb	-11.1762
▁astrocytoom	-11.1763
▁cholangio	-11.1767
▁AML	-11.1774
▁aanleg	-11.1774
gestelde	-11.1774
2020:	-11.178
▁Primair	-11.1781
▁handpalm	-11.1781
▁kernen	-11.1782
▁ectocervicale	-11.1791
▁submucosale	-11.1803
▁reA	-11.1805
bil	-11.1807
▁prothese	-11.1819
▁me	-11.1826
ubcutane	-11.1848
af	-11.1852
hoofd	-11.1852
vo	-11.1866
fenotypisch	-11.1879
16-3	-11.1882
▁translocaties	-11.1889
▁gedegenereerde	-11.1892
▁mb	-11.1894
▁2020	-11.1898
▁tumortje	-11.1901
▁2,4	-11.1904
▁wangslijmvlies	-11.1911
182	-11.1913
grade	-11.1931
laboratorium	-11.1932
vermoedelijk	-11.1932
Barrett	-11.1934
proliferatief	-11.1945
3/	-11.1946
▁gelokaliseerd	-11.1952
▁%)	-11.1956
DA	-11.1961
50)	-11.1965
been	-11.1971
▁gepigmenteerd	-11.1982
dit	-11.1986
microscopisch	-11.1988
6:	-11.1989
▁adnexa	-11.1998
waar	-11.2025
▁70%.	-11.2035
▁keloid	-11.2051
▁Arteri	-11.2052
▁Erytrocyturie	-11.2052
▁ligging	-11.2052
▁nefrectomie	-11.2052
▁thoracal	-11.2052
▁reads	-11.2052
▁SMARC	-11.2052
/04/20	-11.2052
▁tpv	-11.2052
▁heupkop	-11.2052
▁aansnijding	-11.2054
▁GNAS	-11.2055
▁hiermee	-11.2056
▁digniteit	-11.2056
▁Gewijzigd	-11.2057
▁vergelijkbaar	-11.2058
▁mesangiale	-11.2058
790	-11.2059
▁reumato	-11.206
▁pyelum	-11.2061
▁duodenummucosa	-11.2064
▁Buikspoelvocht	-11.2065
zo	-11.2068
▁tumorkenmerken	-11.2069
ntie	-11.207
▁rechteroor	-11.207
▁thv	-11.207
▁ductaaltype	-11.2072
▁geamplificeerd	-11.2072
▁morfea	-11.2072
▁l	-11.2072
▁2015	-11.2073
solide	-11.2078
▁grootte	-11.2078
▁Receptoren	-11.2082
▁mondhoek	-11.2083
ml	-11.2087
16-5	-11.2088
CIS	-11.2102
22-01	-11.2105
▁diam	-11.2105
▁ratio	-11.2106
▁SMA	-11.2106
pathologisch	-11.2111
▁cervixbiopten	-11.2112
13-3	-11.2113
▁Candida	-11.2116
clinicopathologi	-11.212
▁maagresectie	-11.2121
858	-11.2135
OLD	-11.2136
]15	-11.2136
▁5%)	-11.2138
lever	-11.2139
▁w	-11.214
poliepje	-11.2145
▁stembandpoliep	-11.215
▁15%	-11.2151
▁iliacaal	-11.2153
▁fibrotische	-11.2156
vormige	-11.2164
▁teen	-11.2183
craniaal	-11.2184
IP	-11.2188
afwijking	-11.2207
23-00	-11.221
▁hetzelfde	-11.2214
shave	-11.2214
scapula	-11.2221
ica	-11.2223
definitief	-11.2234
7;	-11.2235
kruin	-11.2235
aspiratie	-11.2235
Weke	-11.2236
benigne	-11.2236
▁ont	-11.2236
MMR	-11.2237
RET	-11.2241
mid	-11.2264
▁Verricht	-11.2264
lijks	-11.2265
geassocieerde	-11.2279
0(	-11.2294
▁karakteristiek	-11.2295
ogene	-11.2302
ag	-11.2303
8):	-11.2314
▁AA	-11.2326
▁oedemateu	-11.2335
-2.	-11.2335
▁ductectasie	-11.2337
Immunohistochemi	-11.2338
▁48	-11.2347
▁overliggend	-11.2351
ijdigheid	-11.2354
7,	-11.2354
16-2	-11.2354
▁dysplasia	-11.2355
▁herhaald	-11.2355
▁sepsis	-11.2355
Multipel	-11.2355
▁antracose	-11.2355
▁cholangitis	-11.2355
▁geserreerd	-11.2355
▁interface	-11.2355
▁oorzaken	-11.2355
▁opbouw	-11.2355
▁seminales	-11.2355
▁senilis	-11.2355
▁epididymis	-11.2355
▁vruchtdood	-11.2355
▁bevindt	-11.2355
▁nemen	-11.2355
▁nvt	-11.2355
▁ruber	-11.2355
▁begeleid	-11.2355
▁familieanamnese	-11.2355
▁spermatozoon	-11.2355
▁amorf	-11.2355
▁vasculair	-11.2355
▁vriesmateriaal	-11.2356
▁subtypering	-11.2356
▁Speekselklier	-11.2357
▁adenocarcinoma	-11.2357
bespreking	-11.2357
▁Zoom	-11.2357
▁significantie	-11.236
▁abortusrest	-11.2361
ber	-11.2363
RES	-11.2363
▁motiliteit	-11.2364
▁Incisiebiopt	-11.2365
▁macrometastase	-11.2367
▁krabben	-11.2372
Extra	-11.2377
▁infarcten	-11.2382
beenmergaspiraat	-11.2382
▁obstructie	-11.2383
▁intimafibrose	-11.2383
▁globale	-11.2385
▁perineum	-11.2387
23-01	-11.2392
clonaal	-11.2393
▁samen	-11.2394
mn	-11.2397
▁protocollair	-11.2398
20-6	-11.2401
▁restanten	-11.2412
procedure	-11.2415
▁gewricht	-11.2417
▁BA	-11.2419
▁Cyste	-11.2429
CLL	-11.2443
▁4-	-11.2454
apicaal	-11.2456
coupe	-11.2464
▁locaties	-11.2472
sproces	-11.2473
*)	-11.2475
6/*******/	-11.2483
▁inclusie	-11.2484
▁allergisch	-11.2492
23-3	-11.25
▁loc	-11.2502
▁Som	-11.2507
ryptarchitectuur	-11.2507
IX	-11.2508
Indi	-11.2516
hand	-11.2529
vrijwel	-11.2529
▁Oesofagusbiopt	-11.2548
rechterwang	-11.2556
onderrug	-11.2558
▁contra	-11.2566
gerelateerde	-11.2566
18-3	-11.2588
cho	-11.2588
geringe	-11.2591
▁overgangs	-11.2592
ctive	-11.2598
rende	-11.2603
kt	-11.2607
cal	-11.2618
stelling	-11.2624
▁nav	-11.2624
▁2019	-11.2628
adeno	-11.2643
osa	-11.2657
▁granulatie	-11.2663
▁XII	-11.2667
▁Kahler	-11.2667
▁fenotype	-11.2667
▁Actinisch	-11.2667
▁NIET	-11.2667
▁bevestigen	-11.2667
▁cerebrospinalis	-11.2667
▁concha	-11.2667
▁hallux	-11.2667
▁mastocytose	-11.2667
▁mucokele	-11.2667
▁vasculopathie	-11.2667
▁verbreed	-11.2667
gemeld	-11.2667
▁galsteenlijden	-11.2667
▁neusbrug	-11.2667
▁cystoscopie	-11.2667
art	-11.2668
▁klierbuis	-11.2668
▁onvolledig	-11.2668
▁plana	-11.2668
▁ecto	-11.2668
▁vaatlaesie	-11.2668
▁lytisch	-11.2668
▁uiterst	-11.267
▁predictie	-11.2671
St	-11.2672
▁lymfoompanel	-11.2676
▁Beentumoren	-11.2677
▁excoriatie	-11.2677
▁rechterhand	-11.268
▁tongbasis	-11.2681
▁echogeleid	-11.2684
▁CPS	-11.2684
▁Fuhrman	-11.2685
▁parasitair	-11.2686
presentativiteit	-11.2686
overgang	-11.2687
▁dijbeen	-11.2689
▁verruceus	-11.2693
▁Keratos	-11.2696
-11-13:	-11.2696
▁Ongewijzigd	-11.2696
▁verlo	-11.27
Onco	-11.2701
og	-11.2712
▁tubair	-11.2713
-5	-11.2715
▁12/13)	-11.2722
osis	-11.2739
▁RAS	-11.2749
20-1	-11.2754
15-4	-11.2754
▁Muscul	-11.2764
MN	-11.2788
▁meso	-11.2808
▁41	-11.2848
ost	-11.2849
plooi	-11.2856
▁9,	-11.2864
hoog	-11.2868
axilla	-11.2868
indicatie	-11.2868
Intern	-11.287
frontaal	-11.287
kapsel	-11.2871
spier	-11.2871
focaal	-11.2875
casus	-11.2878
▁3+3=6.	-11.2884
▁fibrotisch	-11.2889
▁compacte	-11.2897
▁Huidexcisies	-11.2902
▁apocrien	-11.2904
▁traumatisch	-11.2906
]0	-11.2909
▁pa	-11.2916
zijdig	-11.2926
▁huidfragment	-11.2932
▁0%	-11.2932
vl	-11.2966
▁Slokdarmbiopt	-11.2977
13-1	-11.2983
adipeu	-11.2988
dreig	-11.2989
▁SITU	-11.299
▁centimeter	-11.299
▁centrifugum	-11.299
▁fusietranscript	-11.299
▁gescand	-11.299
▁hidrocystoom	-11.299
▁oktober	-11.299
▁parakeratotisch	-11.299
▁pseudomelanosis	-11.299
▁̄ndiceerd	-11.299
▁Terminal	-11.299
▁UICC	-11.299
▁lumen	-11.299
▁Spoelvocht	-11.299
▁gevallen	-11.299
▁papillomatose	-11.299
▁vaatwand	-11.2991
▁intramusculair	-11.2992
ries	-11.2993
▁onderpool	-11.2993
Grade	-11.2993
▁neusgang	-11.2994
Immuunhistochemi	-11.2995
▁sclerodermie	-11.2995
▁special	-11.2996
▁2,8	-11.2998
▁MALT	-11.3
▁bursa	-11.3
▁glioom	-11.3
▁vezels	-11.3001
Methylation	-11.3002
▁deciduaal	-11.3003
▁februari	-11.3004
▁embryonaal	-11.3007
▁Serologisch	-11.3008
▁residu	-11.3008
▁opmerking	-11.3013
▁Hart	-11.3014
▁MK	-11.3015
▁trigonum	-11.3016
terminaal	-11.302
rad	-11.3052
crypthyperplasie	-11.306
▁hormoonreceptor	-11.3072
resten	-11.3072
Lymfklierexcisie	-11.3076
MIN	-11.3077
kop	-11.309
ris	-11.3101
non	-11.3106
▁schouderbladen	-11.3109
▁bijkomende	-11.3117
23-4	-11.3125
pje	-11.3126
▁or	-11.3136
ment	-11.3145
-3.	-11.315
ert	-11.3153
als	-11.3159
liggende	-11.3173
lengte	-11.3174
8:	-11.3183
17/*******/	-11.3194
46	-11.3198
keratose	-11.3202
LMS	-11.3202
Progesteron	-11.3203
ruim	-11.3204
onderlip	-11.3204
▁intact	-11.3219
TPS	-11.3224
PDL	-11.3227
▁complex	-11.324
bewa	-11.326
▁La	-11.327
-11-14:	-11.3272
Schildwachtklier	-11.3273
ingen	-11.3279
▁zon	-11.3282
achtig	-11.3294
cardiatype	-11.3304
scellen	-11.3305
tubaire	-11.3305
▁kopie	-11.3306
▁doorsnijding	-11.3307
scleroserende	-11.3309
dr	-11.331
organiserende	-11.3313
▁Blaasbiopt	-11.3314
▁Ureter	-11.3315
NEU	-11.3321
▁transit	-11.3322
verantwoordelijk	-11.3323
▁Sequencing	-11.3323
▁alienum	-11.3323
▁anemie	-11.3323
▁december	-11.3323
▁elastosis	-11.3323
▁hechtdraad	-11.3323
▁herpetiformis	-11.3323
▁patholoog	-11.3323
▁rectosigmoA	-11.3323
▁verbrede	-11.3323
flr	-11.3323
▁lobectomie	-11.3323
▁myelopoese	-11.3323
▁clearcell	-11.3323
▁odontogene	-11.3323
▁Fors	-11.3323
▁romphuidtype	-11.3323
▁herpes	-11.3323
▁velden	-11.3324
▁myocarditis	-11.3324
TP	-11.3325
▁fibrinoid	-11.3326
▁adnexextirpatie	-11.3326
ABL	-11.3326
▁avitale	-11.3328
mail	-11.3328
▁Ingeblokt	-11.333
▁aangewezen	-11.333
▁element	-11.3332
▁glabella	-11.3334
▁medenem	-11.3334
▁(2,	-11.3336
▁sleutelbeen	-11.3338
▁HLA	-11.3338
▁adenosis	-11.3339
▁rechterlies	-11.3341
▁carcinoid	-11.3342
▁indefinite	-11.3342
▁instabiliteit	-11.3342
nagenoeg	-11.3342
/03/	-11.3342
▁ANCA	-11.3343
afhankelijk	-11.3346
21-02	-11.3349
▁Fragment	-11.3349
▁littekenreactie	-11.3349
▁haardvormig	-11.3349
▁HSV	-11.335
▁Rest	-11.335
KO	-11.3352
▁microorganismen	-11.3358
▁ha	-11.3358
▁<1	-11.3358
▁angulus	-11.3367
-12-16/	-11.3368
▁subserosa	-11.3371
▁vulvabiopt	-11.3371
▁claviculair	-11.3379
ONS	-11.3383
▁hypo	-11.3394
▁alles	-11.3399
Path	-11.3401
alhoe	-11.3411
His	-11.3417
sonderzoek	-11.342
▁details	-11.3421
folliculitis	-11.343
19-4	-11.3431
▁immunokleuring	-11.3434
▁abortus	-11.3435
/19	-11.3435
tt	-11.3435
-2)	-11.3446
6).	-11.3464
▁Gene	-11.3468
-09-14:	-11.3473
▁verd	-11.3475
zicht	-11.3484
Lymfklier	-11.3492
18-5	-11.3501
]19	-11.3504
▁anterieure	-11.351
ulaire	-11.351
out	-11.3511
+)	-11.3512
▁poliepexcisie	-11.3513
LE	-11.3517
19-3	-11.3519
▁TBC	-11.3525
▁protonpomp	-11.353
act	-11.3531
cellige	-11.354
thyroidectomie	-11.3545
abortusmateriaal	-11.3546
▁data	-11.3546
oorspronkelijk	-11.3548
cervix	-11.3548
volledig	-11.3548
basis	-11.3549
Verder	-11.3549
neusvleugel	-11.3549
normaal	-11.3549
Invasiediepte	-11.355
CNV	-11.355
Dieper	-11.355
aanwezigheid	-11.3556
mi	-11.3558
coli	-11.3558
esproken	-11.3563
▁toxische	-11.3565
▁tumorcel	-11.3567
▁terug	-11.357
20-0	-11.357
allen	-11.3571
▁lichenoid	-11.3572
reexcisie	-11.3579
7.	-11.3581
0),	-11.361
]*	-11.3618
5-	-11.3632
Long	-11.3647
▁staan	-11.3655
studi	-11.3667
▁snel	-11.3667
▁herkenba	-11.3667
xcideerd	-11.3668
▁Actinomyces	-11.3668
▁hidradenitis	-11.3668
▁hilus	-11.3668
▁inferior	-11.3668
▁organen	-11.3668
▁Grover	-11.3668
▁gallig	-11.3668
▁polymorf	-11.3668
▁lymfadenopathie	-11.3668
▁cholesterolosis	-11.3668
▁myopathie	-11.3668
▁stoma	-11.3668
Stadiering	-11.3669
koa	-11.3669
homogen	-11.3669
▁neoplasma	-11.3669
SLL	-11.367
▁groepje	-11.3672
▁tbv	-11.3672
▁teleangiectasie	-11.3673
▁celproliferatie	-11.3673
▁fractuur	-11.3675
▁naevocellulares	-11.3677
▁verwachten	-11.3678
geschiedenis	-11.3678
▁gladde	-11.368
▁uterina	-11.3681
▁PZ	-11.3682
opy	-11.3686
12-2	-11.3686
DR	-11.3686
▁trombi	-11.3688
▁Sigmoidbiopten	-11.3688
atypie	-11.3689
21-3	-11.3691
▁dermoidcyste	-11.3692
▁wild	-11.3693
▁littekenachtige	-11.3693
Immuno	-11.3696
▁(95%)	-11.3697
▁oncocytaire	-11.37
▁3+3	-11.3701
klinische	-11.3703
▁pseudodecidual	-11.3703
▁NR	-11.3708
EERDE	-11.3714
19-01	-11.3721
▁gestuurd	-11.3731
▁index	-11.3744
12-20	-11.375
▁amputatie	-11.3765
▁voorgaand	-11.3767
kant	-11.3769
orbitaal	-11.3772
OE	-11.3792
▁maagbiopt	-11.3794
ain	-11.38
middelste	-11.3802
dermale	-11.3805
ire	-11.3814
iale	-11.3818
▁pTa	-11.3825
1-20	-11.3829
15):	-11.3839
moleculaire	-11.3852
hi	-11.3858
matoide	-11.3872
▁dermatopath	-11.3874
-1.	-11.3891
extra	-11.39
kleur	-11.3903
pro	-11.3905
▁8:	-11.3905
borderline	-11.3905
Breslow	-11.3905
CONCLUSIE	-11.3906
Niet	-11.3906
eosinofiele	-11.3906
kerato	-11.3907
▁digiti	-11.3907
invasiediepte	-11.3909
▁cu	-11.3912
Daarna	-11.3915
sub	-11.3931
▁wijs	-11.3943
▁kop	-11.3945
]27-	-11.3948
beginnende	-11.3954
▁verrichten	-11.3955
15-	-11.3958
zij	-11.3978
▁hoger	-11.3983
▁IX	-11.3985
nale	-11.3988
138	-11.3988
epitheliomateu	-11.3997
▁plaque	-11.4005
schelp	-11.4013
▁(0%)	-11.4014
▁fascie	-11.4016
▁plek	-11.4016
olipectomie	-11.4019
-8	-11.4021
rit	-11.4022
▁aortaklep	-11.4023
▁Vulva	-11.4024
9.	-11.4024
anamnese	-11.4025
▁inzender	-11.4025
Concentratie	-11.4025
diabetisch	-11.4025
▁Preputium	-11.4025
▁RMK	-11.4025
▁THERAPIE	-11.4025
▁april	-11.4025
▁detecteerbaar	-11.4025
▁gedenudeerd	-11.4025
▁geretourneerd	-11.4025
▁pilomatrixoom	-11.4025
Neelsen	-11.4025
▁5-10%	-11.4025
▁SMO	-11.4025
▁inziens	-11.4025
▁nodule	-11.4025
▁evaluatie	-11.4025
▁ligt	-11.4025
▁sigmoideum	-11.4025
▁bilateral	-11.4025
▁gynaecomastie	-11.4025
▁resistentie	-11.4026
▁macula	-11.4026
▁mediane	-11.4026
▁pigmentosa	-11.4027
▁aggregaten	-11.4028
▁3,0	-11.4029
▁sneeranden	-11.4029
025)	-11.4032
▁spermatogenese	-11.4032
epidermaal	-11.4032
▁Bronchoalveol	-11.4032
▁darmresectie	-11.4035
▁tag	-11.4035
▁Verspreid	-11.4036
▁sebaceus	-11.4036
mantelcellymfoom	-11.404
▁afmeting	-11.4041
▁vestibulum	-11.4041
Angio	-11.4045
▁labia	-11.4046
▁comedo	-11.4049
▁<1%	-11.4049
▁ejaculaat	-11.405
▁juli	-11.405
▁huidsnijvlak	-11.405
▁clon	-11.4053
▁Hals	-11.4064
▁stukjes	-11.4067
▁membraneuze	-11.4068
▁rectumcarcinoom	-11.407
deposities	-11.4071
▁hydro	-11.4073
▁2018	-11.4077
15189).	-11.4079
GP	-11.4079
lokale	-11.408
nr	-11.4093
erifeer	-11.4109
volumepercentage	-11.4111
▁kwaliteits	-11.4119
libra	-11.4131
▁rondes	-11.4138
▁zwakke	-11.415
▁Leverbiopten	-11.415
]1.	-11.4159
tum	-11.4166
▁methylering	-11.4167
23-0	-11.4168
▁like	-11.418
klierstation	-11.4181
Endometrium	-11.4186
proliferatiefase	-11.421
▁lymfklierbiopt	-11.4217
▁gelocaliseerd	-11.4219
▁small	-11.4225
▁SN	-11.4229
▁(2-4	-11.4235
randen	-11.4246
▁BV	-11.4249
VIN	-11.4249
▁colonbiopt	-11.4257
▁sprietige	-11.4261
]06	-11.4261
metastasen	-11.4271
hypertrofie	-11.4275
cellulariteit	-11.4275
circa	-11.4277
Pro	-11.4282
gr	-11.4288
▁respiratoir	-11.4289
▁naald	-11.4291
▁osteo	-11.4314
PT	-11.4327
IS	-11.4331
▁dermatologie	-11.4333
▁maagcorpusbiopt	-11.4342
-02-14:	-11.4353
▁naevo	-11.4355
-03-14:	-11.4365
her	-11.4366
PL	-11.4382
▁remmer	-11.4388
overage	-11.4393
▁reuma	-11.4393
heidshalve	-11.4393
▁prog	-11.4395
▁3,2	-11.4395
▁LYMFKLIER	-11.4395
Protocol	-11.4396
Amplificatie	-11.4396
▁CWZ	-11.4396
▁Merkelcel	-11.4396
▁contaminatie	-11.4396
▁identiek	-11.4396
▁imponeer	-11.4396
▁polyclonal	-11.4396
▁sprieten	-11.4396
▁verklaard	-11.4396
▁verstoord	-11.4396
▁PARP	-11.4396
▁secretiefase	-11.4396
▁fecaal	-11.4396
▁horizontale	-11.4396
▁groen	-11.4396
▁anderszins	-11.4396
▁hydropisch	-11.4396
-02-15:	-11.4396
▁gevraagd	-11.4396
▁ijzerpigment	-11.4396
▁la	-11.4396
.2573	-11.4396
▁plm	-11.4396
▁periportale	-11.4396
▁bloedverlies	-11.4396
▁epitheloid	-11.4398
helder	-11.44
▁samenhangend	-11.4402
▁blijven	-11.4402
▁ontbreekt	-11.4403
delins	-11.4404
▁vorig	-11.4404
▁amylo	-11.4407
▁exostose	-11.4407
▁monoclonale	-11.4407
▁longparenchym	-11.4408
▁restlaesie	-11.4409
▁oppervlakte	-11.441
Graderings	-11.4411
▁FSGS	-11.4412
▁blaasdak	-11.4412
▁jejunum	-11.4412
▁pouch	-11.4412
▁valvula	-11.4412
▁submammair	-11.4412
▁nates	-11.4412
▁chondrosarcoom	-11.4416
▁naam	-11.4419
▁discordant	-11.4419
▁gewijzigd	-11.4421
vol	-11.4422
▁jukbeen	-11.4426
▁genetica	-11.4426
Bovenstaand	-11.4427
▁klierparenchym	-11.4429
▁TBNA	-11.443
postinflammatoir	-11.4431
▁min	-11.4431
▁EMR	-11.4434
▁tekening	-11.4435
▁COMPONENT	-11.4439
MAX	-11.445
▁KM	-11.4451
▁EBER	-11.4453
▁NSCLC	-11.4454
▁sperma	-11.4457
▁virus	-11.4458
erend	-11.4463
▁lymfoplasmacyt	-11.4468
▁volair	-11.4481
Placenta	-11.4484
▁pas	-11.4488
13-11	-11.4501
20-5	-11.4506
14-7	-11.4507
▁Anusbiopt	-11.4509
▁anusslijmvlies	-11.4514
▁FL	-11.4523
angiomateuze	-11.4536
▁periadnexa	-11.4537
▁Sub	-11.4537
11)	-11.4554
▁HSIL	-11.4556
ys	-11.4557
▁Li	-11.4559
eert	-11.4565
20-00	-11.4567
SCH	-11.4572
▁No	-11.4577
▁2021	-11.4581
▁satelliet	-11.4587
ologiebespreking	-11.4625
fusie	-11.4635
volume	-11.4636
Naaldbiopt	-11.4643
tijd	-11.4645
13-4	-11.4649
ieptegroei	-11.4654
interstiti	-11.4658
Definitief	-11.4661
verhoornend	-11.4661
achter	-11.4661
Pipelle	-11.4661
enzij	-11.4662
NRAS	-11.4663
ill	-11.4663
doorgemaakte	-11.4665
toont	-11.4666
lymfklierexcisie	-11.4668
geleide	-11.467
▁2-3)	-11.4672
▁aangeleverd	-11.4682
▁adenoma	-11.4683
179	-11.4686
ure	-11.4703
lig	-11.4711
21-10	-11.4712
-02-16:	-11.4734
murale	-11.4735
onderbuik	-11.4747
8).	-11.4749
▁zelf	-11.4758
▁vervolg	-11.476
▁gist	-11.4763
oma	-11.4766
car	-11.4771
▁Brunners	-11.4771
▁lichaam	-11.4772
populatie	-11.4777
stoornis	-11.478
Frequentie	-11.478
▁Aangevulde	-11.478
▁BUITEN	-11.478
▁VHL	-11.478
▁interpreteren	-11.478
▁ischaemisch	-11.478
▁luidt	-11.478
▁superior	-11.478
▁tyrosine	-11.478
▁Drie	-11.478
▁POLE	-11.478
▁Laaggradig	-11.478
▁gangren	-11.478
▁scabies	-11.478
▁NEO	-11.478
▁zsm	-11.478
▁(80%)	-11.478
▁Dikkedarm	-11.478
▁hoornlaag	-11.478
▁PATHOLOGIE	-11.4781
▁CEA	-11.4781
▁mastectomie	-11.4781
▁midline	-11.4781
▁obv	-11.4781
▁leverkwab	-11.4781
▁Douglasi	-11.4781
▁vals	-11.4782
▁medebeoordeling	-11.4782
▁aangesneden	-11.4783
▁pseudolymfoom	-11.4783
lyse	-11.4783
▁mesotheelcellen	-11.4784
▁ad	-11.4784
TPN	-11.4785
atief	-11.4786
JU	-11.4787
▁oorrand	-11.4787
▁indolent	-11.4788
▁tgv	-11.479
▁mondslijmvlies	-11.479
▁inhibitors	-11.4791
VANT	-11.4791
▁introitus	-11.4792
▁colectomie	-11.4793
▁Distal	-11.4797
▁augustus	-11.4797
▁neoplastische	-11.4799
▁oudere	-11.4799
▁Weefselexcisie	-11.48
▁intermediair	-11.4802
▁parasternaal	-11.4803
▁Lymfocytose	-11.4807
ovenstaande	-11.4807
inder	-11.4809
▁bewaard	-11.4809
▁ongemarkeerd	-11.4811
▁seminoom	-11.4811
▁strekzijde	-11.4811
▁IgM	-11.4812
▁invaginatie	-11.4816
▁Ventana	-11.4816
▁relatieve	-11.4821
AAL	-11.4822
lok	-11.4826
bronchusspoeling	-11.4831
italiteit	-11.4835
▁infarceringen	-11.4835
▁Longbiopten	-11.4835
▁43	-11.4836
ium	-11.4837
▁ypT	-11.4837
▁linkerflank	-11.4838
ity	-11.4839
▁J	-11.4854
huidbiopt	-11.4859
▁feite	-11.4866
Dieptegroei	-11.4895
14):	-11.4897
▁spoelsel	-11.4899
SRC	-11.4925
gene	-11.4931
-06-14:	-11.4935
huidexcisie	-11.4939
krap	-11.4951
ES	-11.4961
22-03	-11.4962
▁CS	-11.4963
eikend	-11.4971
ax	-11.4979
▁4).	-11.4992
ala	-11.5007
spoelsel	-11.5007
.38	-11.5007
ies	-11.5011
19-6	-11.5016
cave	-11.5019
▁bloedvat	-11.5025
OG	-11.5032
▁decidual	-11.5033
0):	-11.5035
+,	-11.5038
▁drug	-11.5045
▁NB	-11.5054
(-	-11.5056
EM	-11.5059
17-0	-11.506
Radicaal	-11.5061
distale	-11.5061
grootcellig	-11.5061
EUS	-11.5068
19-02	-11.5072
▁foveolair	-11.5075
▁maagantrumbiopt	-11.5076
thoracaal	-11.5076
histiocytair	-11.5077
Lymfklieren	-11.5079
524	-11.5079
/05/	-11.5086
-12-13:	-11.5093
▁spoelcellig	-11.5103
▁Intra	-11.5111
/08/	-11.5115
1/2	-11.5117
erineurale	-11.5118
▁Ileum	-11.5126
▁trans	-11.5128
▁2%	-11.5128
Ter	-11.5132
19-00	-11.5137
-03-16:	-11.514
-06-16:	-11.5144
erd	-11.5151
▁Diepte	-11.5151
ling	-11.5157
▁verkalking	-11.5163
▁megakaryocyt	-11.5163
▁huidadnex	-11.5167
▁Hemithyreoid	-11.5172
▁kapje	-11.5173
▁3+	-11.5174
▁6-	-11.5177
grote	-11.5177
&	-11.518
1⁄4	-11.518
Bevindingen	-11.518
Locatie	-11.518
▁4+4=8	-11.518
▁MUTYH	-11.518
▁apoptotisch	-11.518
▁bespreken	-11.518
▁dysmorfie	-11.518
▁excochleatie	-11.518
▁hypoxie	-11.518
▁ongeschikt	-11.518
▁opmerkelijk	-11.518
▁osteomyelitis	-11.518
▁parietale	-11.518
▁representatieve	-11.518
▁Board	-11.518
▁bronchopneumoni	-11.518
▁eigen	-11.518
▁stromaceltumor	-11.518
▁ileitis	-11.518
▁melanosis	-11.518
▁mesothelia	-11.518
zakelijk	-11.518
▁monoclonaal	-11.518
▁vervallen	-11.518
▁interfase	-11.518
▁belangrijk	-11.518
▁overeenkomstig	-11.518
▁biologie	-11.518
▁Subcutaan	-11.5181
▁beslag	-11.5181
▁signaal	-11.5181
▁pyoderma	-11.5181
▁gesteelde	-11.5181
▁vaatstructuren	-11.5181
15-0	-11.5182
▁mesenchymaal	-11.5183
▁nasofarynx	-11.5183
▁Cervixpoliep	-11.5186
CRO	-11.5186
▁Bronchusbiopt	-11.5187
▁verbreding	-11.5188
▁zygoma	-11.5188
ologisch	-11.5188
▁CIC	-11.5191
▁degeneratief	-11.5192
▁linkerslaap	-11.5193
zak	-11.5193
dedifferentieerd	-11.5193
▁Lymfklieren	-11.5196
▁medicatie	-11.5198
▁osteochondroom	-11.5198
▁lateralis	-11.52
▁kapjes	-11.52
▁rechteroksel	-11.5202
▁pancreatico	-11.5205
▁hierop	-11.5207
▁rib	-11.5208
▁sporen	-11.5209
▁discontinue	-11.5213
▁Omentum	-11.5213
▁gelijk	-11.5214
▁cystevocht	-11.5218
ET	-11.5219
▁linkerbovenkwab	-11.5223
▁ducten	-11.5227
ik	-11.523
75)	-11.5234
▁incomplete	-11.5236
▁HN	-11.5236
DK	-11.5236
▁sturen	-11.5238
▁partieel	-11.5248
▁grens	-11.5249
▁insnijden	-11.5249
▁maagcarcinoom	-11.5252
22-02	-11.5255
▁mammapunctie	-11.5258
sel	-11.5267
HP	-11.5268
542	-11.527
▁longbiopt	-11.5272
545	-11.5287
-08-13:	-11.5293
▁ontwikkeling	-11.5296
750	-11.5304
-01-15:	-11.5308
▁55	-11.531
▁vers	-11.5312
▁regeneratie	-11.5312
dig	-11.5318
13-5	-11.5322
▁nieren	-11.5324
▁organismen	-11.533
▁omliggend	-11.5345
▁lager	-11.5349
▁receptoren	-11.5355
-09-13:	-11.5362
Twee	-11.5363
▁ma	-11.5364
terminale	-11.537
▁+5	-11.5372
che	-11.5373
▁verslagen	-11.5373
Perineura	-11.5374
▁Peritoneumbiopt	-11.538
9:	-11.538
percentage	-11.5389
ese	-11.5401
▁vroeg	-11.5413
▁tangentiel	-11.5414
▁RA	-11.5419
-07-13:	-11.5427
▁Trans	-11.544
-09-17:	-11.5446
▁stoornissen	-11.5455
▁aangetoonde	-11.546
dermaal	-11.5465
▁PT	-11.5468
details	-11.5476
elbeeld	-11.5476
stadium	-11.5477
rectosigmoid	-11.5477
Mogelijk	-11.5477
dorsaal	-11.5477
sprieterig	-11.5478
superficieel	-11.5478
proximaal	-11.5478
Zij	-11.5478
verslag	-11.5479
middels	-11.5482
Maagbiopten	-11.5486
▁MD	-11.5487
-03-15:	-11.5489
▁MS	-11.5491
max	-11.5492
ingroei	-11.5493
132	-11.5498
▁Al	-11.5507
▁2-4)	-11.551
itie	-11.551
minimale	-11.5515
gebracht	-11.5518
▁dens	-11.5525
scheenbeen	-11.553
22)	-11.5534
cr	-11.5552
NST	-11.5553
263)	-11.5555
▁1/2	-11.5562
▁operatie	-11.5573
▁strip	-11.5577
▁casu	-11.5577
▁1-2.	-11.5587
remmers	-11.5589
emarkeerde	-11.559
▁Fibro	-11.5594
▁uitslagen	-11.5595
esluit	-11.5596
unica	-11.5596
▁thymus	-11.5597
eimpetiginiseerd	-11.5597
‚	-11.5597
▁Extirpatie	-11.5597
▁Hysterectomie	-11.5597
▁Kapsel	-11.5597
▁alopecie	-11.5597
▁gegeneraliseerd	-11.5597
▁geinverteerd	-11.5597
▁interscapulair	-11.5597
▁melanofagen	-11.5597
▁november	-11.5597
▁portio	-11.5597
▁purpura	-11.5597
▁schimmelhyfen	-11.5597
▁sialoadenitis	-11.5597
tracht	-11.5597
▁durum	-11.5597
▁hechtmateriaal	-11.5597
▁MICRO	-11.5597
▁chemie	-11.5597
▁homogeen	-11.5597
▁literatuur	-11.5597
▁megakaryopoese	-11.5597
▁kratervormige	-11.5597
▁teruggevonden	-11.5597
▁lithiasis	-11.5597
▁spoelcellipoom	-11.5597
▁desmoid	-11.5597
▁zaadcellen	-11.5597
▁flow	-11.5597
▁beloop	-11.5597
▁comedonecrose	-11.5597
▁endometroid	-11.5598
▁PSA	-11.5598
witte	-11.5598
▁voetrand	-11.56
▁circumscript	-11.56
ldb	-11.56
▁̄dose	-11.5604
▁colorecta	-11.5604
▁Licht	-11.5605
▁hamartoom	-11.5605
▁focusscore	-11.5605
▁techniek	-11.561
▁erosief	-11.5611
▁2/3	-11.5611
▁wildtype	-11.5611
▁september	-11.5615
▁Ond	-11.5617
146	-11.5618
▁linkeroksel	-11.5619
▁gerapporteerd	-11.562
▁Ziehl	-11.562
103	-11.5621
▁plaveiselcellen	-11.5624
▁behandeld	-11.5626
▁im	-11.5626
irritatiefibroom	-11.5626
265	-11.5626
▁Normal	-11.5627
-12-17/	-11.5627
▁decollete	-11.5631
▁MRI	-11.5631
▁SNIJVLAK	-11.5636
▁Ileumslijmvlies	-11.5641
▁Extra	-11.5641
▁Atypische	-11.5641
▁1+).	-11.5645
plasmacellulaire	-11.5646
acrale	-11.5648
oraal	-11.567
ering	-11.5674
▁Nier	-11.5674
▁LP	-11.5676
stroma	-11.5679
▁haardjes	-11.5686
nzeker	-11.5693
▁promoter	-11.5704
▁fusies	-11.5707
fibrose	-11.571
▁Middels	-11.5715
▁endometri	-11.5721
22-14	-11.5723
cre	-11.5727
au	-11.5737
15-8	-11.5744
▁Huidfragment	-11.5745
▁peroperatie	-11.5768
AX	-11.5788
vrij	-11.5798
ISH	-11.5799
▁90%.	-11.5805
bul	-11.5827
punt	-11.5832
cor	-11.5834
▁Pas	-11.5838
▁Ver	-11.5847
22-3	-11.5849
228	-11.5852
netisch	-11.5853
oment	-11.5861
▁korte	-11.5862
for	-11.5875
zijwand	-11.5883
slaap	-11.5885
amputatie	-11.5901
21)	-11.5904
Middels	-11.591
diagnostiek	-11.5911
EBUS	-11.5912
buis	-11.5912
atrofie	-11.5912
lichen	-11.5912
goed	-11.5912
geirriteerde	-11.5913
▁TB	-11.5914
pretibiaal	-11.5914
hoogte	-11.5915
raal	-11.5921
▁dergelijk	-11.5926
man	-11.5926
▁diepreikend	-11.5932
neoplasie	-11.5934
chr	-11.5942
cardia	-11.5943
▁resterend	-11.5966
▁90	-11.5977
waarde	-11.598
Classificatie	-11.5981
cto	-11.5992
si	-11.5992
inds	-11.5992
weke	-11.5996
erde	-11.6012
reparaten	-11.6021
▁Spier	-11.6028
▁multi	-11.6031
▁pustul	-11.6031
▁lamel	-11.6031
▁plavei	-11.6032
▁emfysemateu	-11.6032
▁Centraal	-11.6032
▁Giemsa	-11.6032
▁carcinomatosa	-11.6032
▁gangrenosum	-11.6032
▁migrans	-11.6032
▁thyreoiditis	-11.6032
▁wenst	-11.6032
▁wervelkolom	-11.6032
▁multiple	-11.6032
▁voorgrond	-11.6032
fractie	-11.6032
▁Hirschsprung	-11.6032
NOD	-11.6032
▁Bcl	-11.6032
▁steenlijden	-11.6032
▁postmenopauza	-11.6032
LLEN	-11.6032
▁Loka	-11.6032
▁miniem	-11.6032
▁funiculus	-11.6032
▁afwachten	-11.6032
▁myocardinfarct	-11.6032
▁somscore	-11.6032
▁tongpunt	-11.6032
▁papillomateus	-11.6032
▁Borrelia	-11.6032
▁incompleet	-11.6033
▁doorgevoerd	-11.6033
▁(>5	-11.6033
▁Vocht	-11.6033
▁Invasief	-11.6034
▁Congorood	-11.6034
▁ww	-11.6035
oging	-11.6035
▁ddPCR	-11.6036
xtracapsulair	-11.6036
▁endoscopisch	-11.6036
▁<=	-11.6036
retroperitoneaal	-11.6037
DQ	-11.6039
▁Dupuytren	-11.604
▁quadriceps	-11.604
▁exofytisch	-11.604
▁aangevuld	-11.604
▁hyalinose	-11.6045
▁2,6	-11.6046
fdeling	-11.6046
▁Co	-11.6048
▁komen	-11.6049
▁LVSI	-11.6051
▁ethmoid	-11.6051
▁humerus	-11.6051
▁huidsnijvlakken	-11.6051
▁Mucosa	-11.6051
▁naad	-11.6051
▁Genom	-11.6052
▁gedeelte	-11.6055
▁array	-11.6056
reerde	-11.6056
cyten	-11.6057
▁Vaso	-11.6059
▁Onder	-11.606
▁Hersen	-11.6062
expressie	-11.6072
▁Linker	-11.6073
▁bp	-11.6074
18-21	-11.6075
Myc	-11.6076
▁structuur	-11.6078
▁Weefselfragment	-11.608
Mol	-11.608
▁dominant	-11.6081
-09-13/*******/	-11.6085
173	-11.6086
797	-11.6091
▁bo	-11.6091
▁Onderzoek	-11.6094
▁Obductie	-11.6095
▁DLBCL	-11.61
▁overal	-11.6112
▁ond	-11.6114
▁subtota	-11.6118
eling	-11.6124
8%	-11.6126
▁GIST	-11.6138
▁dergelijke	-11.6139
9);	-11.6141
PAS	-11.6141
resp	-11.6146
dacht	-11.615
snijranden	-11.6154
16-8	-11.6161
immuunhistochemi	-11.6164
-04-13:	-11.6167
fibroom	-11.6174
▁cardiale	-11.6178
▁80%.	-11.618
-03-15/	-11.6187
▁Ner	-11.619
▁gelokaliseerde	-11.6191
▁omgeven	-11.6194
-12-2019	-11.6198
-1)	-11.6211
▁44	-11.6217
▁achtige	-11.6224
celpopulatie	-11.6229
ASS	-11.6235
spraak	-11.6239
▁kort	-11.6246
genomen	-11.6254
SP	-11.6258
snijden	-11.626
▁(0/1)	-11.6263
▁do	-11.6265
-07-15:	-11.6266
▁mijn	-11.6268
▁separa	-11.6275
▁46	-11.6278
lisexcisie	-11.628
23-02	-11.6283
satelliethaarden	-11.6283
aanvullend	-11.6286
▁Ca	-11.6289
▁(0/2).	-11.6303
romp	-11.6318
ventraal	-11.6321
21):	-11.6322
oude	-11.6325
20-02	-11.6328
Maag	-11.6347
▁60%.	-11.6361
sarcoom	-11.6364
MYC	-11.6364
retro	-11.6365
medicamenteuze	-11.6365
sentinel	-11.6366
DEFINITIEF	-11.6367
extern	-11.6367
ileum	-11.6367
voorlip	-11.6368
hier	-11.6369
pTaG	-11.6369
Histologisch	-11.6371
operatieve	-11.6376
▁bulla	-11.6378
keratine	-11.6383
bijvoor	-11.6389
Mammabiopten	-11.6391
bekleding	-11.64
601	-11.6401
14)	-11.6405
AƒA	-11.6412
omen	-11.6428
▁trachea	-11.6429
14-10	-11.644
▁stans	-11.6456
▁hersen	-11.6466
10):	-11.6468
▁Wig	-11.6471
adjuvante	-11.6472
▁vat	-11.6473
reslowdikte	-11.6475
gevuld	-11.6477
▁vera	-11.6485
Elektronen	-11.6486
RESECTIEVLAK	-11.6486
geboren	-11.6486
matofibrosarcoma	-11.6486
’	-11.6486
▁DIAGNOSTIEK	-11.6486
▁Jessner	-11.6486
▁Sputum	-11.6486
▁Vacuum	-11.6486
▁aanvrager	-11.6486
▁associatie	-11.6486
▁bijeenkomst	-11.6486
▁cheilitis	-11.6486
▁diabetes	-11.6486
▁endofytisch	-11.6486
▁gynaecoloog	-11.6486
▁januari	-11.6486
▁kapseldoorbraak	-11.6486
▁mesenteria	-11.6486
▁micronoduli	-11.6486
▁papulose	-11.6486
▁subcornea	-11.6486
▁zenuwvezels	-11.6486
emboli	-11.6486
▁chemoradiatie	-11.6486
▁fasciitis	-11.6486
▁linkeroog	-11.6486
▁zichtbaar	-11.6486
▁verdwijn	-11.6486
▁erythrocyturie	-11.6486
▁Bench	-11.6486
▁Disclaimer	-11.6486
▁syringoom	-11.6486
▁zware	-11.6486
▁merendeel	-11.6486
▁Longspoeling	-11.6486
▁condylomateuze	-11.6486
▁mannelijk	-11.6486
areolair	-11.6487
▁mondholte	-11.6487
monocytaire	-11.6487
▁adenomyomateuze	-11.6487
▁vaatrijk	-11.6487
▁second	-11.6487
membraneus	-11.6487
Eerst	-11.6488
▁zenuwweefsel	-11.6488
▁angiosarcoom	-11.6488
▁vaginawand	-11.6488
▁erytroid	-11.6489
▁Vrij	-11.6489
▁doorgegeven	-11.6489
▁Leverbiopsie	-11.6489
▁mei	-11.649
▁tumorcelkernen	-11.649
STRO	-11.6491
Basal	-11.6491
▁linkeronderkwab	-11.6492
neemt	-11.6492
▁6,5	-11.6493
▁macro	-11.6497
▁plekje	-11.6497
▁bodemsnijvlak	-11.6497
▁buisjes	-11.6497
▁(0/3).	-11.6498
▁Matige	-11.6498
▁waarden	-11.6499
▁eiwit	-11.65
▁Keratine	-11.6501
▁intramucosaal	-11.6501
obturatoriusloge	-11.6502
▁Van	-11.6503
▁(0%).	-11.6506
▁linkerlies	-11.651
▁abdominale	-11.6512
/01/	-11.6515
▁linkerborst	-11.6521
▁Nog	-11.6523
11-1	-11.6523
▁epitheelcyste	-11.6526
▁(0)	-11.653
cytomorfologisch	-11.6531
▁rood	-11.6535
▁insertie	-11.6535
Thr	-11.6552
245	-11.6553
▁rechterflank	-11.6555
Abortuscurettage	-11.6567
RON	-11.6576
ST	-11.6577
hvd	-11.6585
▁gecauteriseerde	-11.6588
▁talgklieren	-11.6602
nh	-11.6604
6);	-11.6605
▁parti	-11.6608
epithelio	-11.6615
oli	-11.6622
18-01	-11.6624
-12-2017	-11.6627
▁neotermina	-11.6632
▁antrumbiopt	-11.664
▁Neusslijmvlies	-11.6641
SE	-11.6642
dup	-11.6648
och	-11.665
aard	-11.666
▁helicobacters	-11.6682
▁Bijnier	-11.6683
Lymf	-11.6685
-07-16:	-11.6694
21-5	-11.6695
▁deficientie	-11.6701
▁va	-11.6704
fibro	-11.6716
▁Diepe	-11.6721
▁cyst	-11.6733
diep	-11.6735
rij	-11.674
▁ste	-11.6757
voet	-11.6762
ff	-11.677
17-01	-11.6779
▁18,	-11.6787
intestinaal	-11.6787
Aan	-11.6808
sluiten	-11.6829
RAS	-11.6833
▁(100%	-11.6837
Dysplasie	-11.6839
band	-11.684
promoter	-11.6841
Celrijk	-11.6842
FFPE	-11.6842
nodig	-11.6842
middenkwab	-11.6843
Pathologie	-11.6843
Bronchus	-11.6843
digitus	-11.6843
verkregen	-11.6843
Diameter	-11.6843
subcutis	-11.6843
zwelling	-11.6843
iliacaal	-11.6845
CMV	-11.6846
Duodenumbiopten	-11.6848
linkerwang	-11.6855
▁gecauteriseerd	-11.6857
▁feit	-11.6857
▁hemorragisch	-11.6858
▁56	-11.686
▁desmoplastisch	-11.6862
▁longbiopten	-11.6865
19-03	-11.687
▁coronair	-11.687
▁Endo	-11.6872
▁prominent	-11.6873
EIN	-11.6877
-08-16:	-11.6881
tru	-11.6887
▁grenzen	-11.6895
▁mons	-11.6905
lhoe	-11.6914
innen	-11.6917
5/*******/	-11.6917
159	-11.6923
ekenen	-11.6925
▁grove	-11.693
-01-14/*******/	-11.6932
▁lu	-11.6932
liggend	-11.6933
bN	-11.6937
19-10	-11.6939
pigment	-11.6943
Gradering	-11.6944
enemen	-11.6945
globuline	-11.6946
▁epi	-11.6947
▁muco	-11.6952
▁optima	-11.6956
▁major	-11.6957
▁Sneevlak	-11.696
econd	-11.6962
▁Melan	-11.6962
las	-11.6962
DIEPTE	-11.6962
UITBREIDING	-11.6962
▁4+3=7	-11.6962
▁Circumcisie	-11.6962
▁Epstein	-11.6962
▁Lobectomie	-11.6962
▁acuminata	-11.6962
▁additione	-11.6962
▁antibod	-11.6962
▁bemoeilijkt	-11.6962
▁chalazion	-11.6962
▁hyperkeratotica	-11.6962
▁ingevroren	-11.6962
▁instrumentatie	-11.6962
▁linkerventrikel	-11.6962
▁lymfangiectasie	-11.6962
▁microcirculatie	-11.6962
▁oncocytoom	-11.6962
▁protuberans	-11.6962
▁stimulatie	-11.6962
▁vergeleken	-11.6962
▁vitiligo	-11.6962
gevangen	-11.6962
▁homozygo	-11.6962
▁porokeratose	-11.6962
▁VRI	-11.6962
▁cervicitis	-11.6962
▁abcessen	-11.6962
▁hepatocyten	-11.6962
▁poroom	-11.6962
medium	-11.6962
▁LCIS	-11.6962
kalib	-11.6963
▁nagelbed	-11.6963
▁belang	-11.6963
▁incidentie	-11.6963
▁truncus	-11.6963
▁klierbuisjes	-11.6963
triple	-11.6963
▁Vasectomie	-11.6963
▁scopie	-11.6963
▁verwijderen	-11.6964
▁chromosomale	-11.6964
differentiated	-11.6965
▁ganglioncellen	-11.6965
▁coecumbodem	-11.6966
myxoma	-11.6967
▁coverage	-11.6967
▁pigmentlaesie	-11.6968
▁Beenmergbiopsie	-11.6969
▁ectopisch	-11.6972
▁synoviale	-11.6974
-06-15:	-11.6974
▁CDX	-11.6975
▁herschikkingen	-11.6977
▁veldjes	-11.6977
▁Afwijking	-11.6977
▁clusters	-11.6978
▁Mortons	-11.6979
▁Urineblaas	-11.698
▁SWK	-11.6983
▁onderzijde	-11.6985
▁subcarinaal	-11.6987
▁tubulusatrofie	-11.6989
vervette	-11.6995
dometriosecyste	-11.6996
omheen	-11.6998
▁Solide	-11.7001
▁incidentiedatum	-11.7001
▁(30	-11.7004
-05-13:	-11.7005
▁gelijkende	-11.7009
▁Microscopisch	-11.7009
▁patienten	-11.701
▁stop	-11.7013
▁Rechts	-11.7013
▁Risk	-11.7013
▁IFTA	-11.7014
▁Rechter	-11.7015
▁concentratie	-11.7026
-10-14:	-11.7027
▁redelijk	-11.7032
▁medicamenteus	-11.7038
▁Anus	-11.7039
▁Patient	-11.7044
130	-11.7047
lopen	-11.7048
▁Ulceratie	-11.7056
▁diastase	-11.7056
20-10	-11.7062
▁eenderde	-11.7062
Mutaties	-11.7065
schildkliernodus	-11.7067
▁25%	-11.7071
▁2012	-11.7073
▁Graa	-11.7085
14-8	-11.7098
-12-15:	-11.7119
▁MM	-11.7127
▁ac	-11.7128
▁pN	-11.7135
▁Abortus	-11.7143
15-5	-11.7143
▁indicatie	-11.7147
kleuringspatroon	-11.7161
>25	-11.7167
18-2	-11.7169
18-4	-11.7175
▁longtumor	-11.7208
06-1	-11.7209
▁arterio	-11.7211
kel	-11.7217
▁oesophagusbiopt	-11.7218
bv	-11.7232
tukje	-11.7242
▁*:	-11.7245
-12-14/	-11.7256
hypermethylering	-11.7263
fer	-11.7267
▁Rectums	-11.7269
Mb	-11.7281
vloed	-11.7281
▁Vas	-11.7283
178	-11.7296
▁immuuncytochemi	-11.7299
282	-11.7312
ovarium	-11.7317
Coupe	-11.7325
pols	-11.7329
aorta	-11.7337
therapie	-11.7337
GIST	-11.7341
innemend	-11.7342
skintag	-11.7342
high	-11.7342
Als	-11.7342
acht	-11.7342
deletie	-11.7342
crista	-11.7343
overweging	-11.7343
Differentiaal	-11.7343
Biopsie	-11.7343
overwegend	-11.7343
linkerschouder	-11.7343
schade	-11.7343
flexura	-11.7344
Beenmergbiopt	-11.7345
MSI	-11.7346
RIP	-11.7347
weinig	-11.7348
ronde	-11.7349
artefacten	-11.735
pathogene	-11.7356
trial	-11.7357
▁(40	-11.7359
oorschelp	-11.7362
naar	-11.7366
▁wil	-11.7366
▁12/13	-11.7375
bevindingen	-11.7389
▁bind	-11.7392
inter	-11.7393
▁59	-11.7405
site	-11.7406
fragmentje	-11.7407
1400	-11.7408
▁Invasie	-11.7415
rond	-11.7424
IE	-11.7428
▁weefselstukje	-11.7442
▁Moh	-11.7443
▁reticuline	-11.7449
redictie	-11.7457
▁overlap	-11.7458
▁structure	-11.7459
mark	-11.7461
functie	-11.7462
Concluderend	-11.7462
DUCT	-11.7462
MOTILITEIT	-11.7462
cadherine	-11.7462
dyscrasie	-11.7462
▁Administratie	-11.7462
▁Eczeem	-11.7462
▁Meest	-11.7462
▁Sertoli	-11.7462
▁Sweet	-11.7462
▁appendectomie	-11.7462
▁carcinosarcoom	-11.7462
▁exantheem	-11.7462
▁fijn	-11.7462
▁geinterpreteerd	-11.7462
▁geregistreerd	-11.7462
▁getromboseerd	-11.7462
▁infestatie	-11.7462
▁ingescand	-11.7462
▁junctie	-11.7462
▁lepidisch	-11.7462
▁malleolus	-11.7462
▁parietalis	-11.7462
▁pathologen	-11.7462
▁pijpjes	-11.7462
▁pleuritis	-11.7462
▁substr	-11.7462
▁tepelhof	-11.7462
▁tubectomie	-11.7462
▁uitwendig	-11.7462
▁verkalkt	-11.7462
▁ziekenhuizen	-11.7462
KLINI	-11.7462
▁gemist	-11.7462
▁Fusion	-11.7462
▁GBM	-11.7462
▁etmoid	-11.7462
▁spoelvormig	-11.7462
staart	-11.7463
▁Overwegen	-11.7463
▁endotheel	-11.7463
▁myxoom	-11.7463
▁epidermoidcyste	-11.7463
▁Cystevocht	-11.7463
OVERIG	-11.7463
▁ascitesvocht	-11.7463
▁predominant	-11.7463
▁hoofdcarina	-11.7464
splitsing	-11.7465
▁versie	-11.7466
▁INTERPRETATIE	-11.7466
▁transuret	-11.7466
▁myelodysplasie	-11.7466
▁Littekenweefsel	-11.7466
▁agens	-11.7466
-10-15:	-11.7466
▁alsnog	-11.7468
465	-11.747
▁uitloper	-11.747
▁(1+).	-11.7471
▁acetabulum	-11.7472
▁placentavlokken	-11.7472
▁gynaecologi	-11.7472
maar	-11.7472
▁Naast	-11.7473
▁crustavorming	-11.7473
▁7,5	-11.7475
UI	-11.7476
▁koud	-11.7476
▁3,6	-11.7476
▁differenti	-11.7478
268	-11.7478
▁Pityrosporum	-11.7478
▁maagwand	-11.7478
▁excisieranden	-11.7479
▁uiteindelijk	-11.748
▁vasectomie	-11.7481
13-0	-11.7481
23)	-11.7484
▁commissu	-11.7484
▁(70%)	-11.7487
▁oedemateus	-11.7496
▁retroperitonea	-11.7497
▁hematopo	-11.7497
▁Protocollair	-11.7497
dragen	-11.7498
▁incisiebiopt	-11.7498
▁3,1	-11.75
▁biopsiename	-11.75
21-11	-11.7501
▁kit	-11.7504
▁biopteren	-11.7505
buitenzijde	-11.7507
▁maxilla	-11.7512
▁inactivatie	-11.7512
▁EXTRA	-11.7516
▁lokatie	-11.7518
-08-17/	-11.7519
▁Links	-11.7522
vul	-11.7528
▁lymfoplasmocyt	-11.753
▁grenzend	-11.7534
▁Diagnostisch	-11.7535
▁*******-*******	-11.7537
▁(25	-11.7541
atuur	-11.7545
▁restmaligniteit	-11.7551
195	-11.7553
▁NET	-11.7553
▁+3)	-11.7553
_000546.5:	-11.7554
250	-11.7562
low	-11.7565
isme	-11.7567
▁0.6	-11.7571
▁PAP	-11.7574
loge	-11.7576
▁ablatie	-11.758
▁host	-11.7581
-08-16/	-11.7589
▁kleur	-11.7604
▁OS	-11.7605
▁3,8	-11.7625
="160	-11.7625
8,2	-11.7633
bed	-11.7634
▁gaand	-11.7634
22-0	-11.7639
lob	-11.7642
granulomateuze	-11.7645
▁gede	-11.7647
▁out	-11.7649
▁fi	-11.765
▁On	-11.7656
NET	-11.7658
23-5	-11.7662
eta	-11.7666
DI	-11.7674
klierprocedure	-11.7685
gere	-11.7691
Ple	-11.7691
▁Gele	-11.7694
▁con	-11.7707
▁65	-11.7712
12-14	-11.7718
spoeling	-11.7737
sgraad	-11.7743
12-0	-11.7745
▁tumorexcisie	-11.7755
(2	-11.7756
klein	-11.776
▁Reed	-11.7762
-11-16/	-11.7764
▁ovari	-11.7765
decidualisatie	-11.7769
▁pan	-11.7771
mor	-11.7771
528	-11.7787
papillair	-11.779
21-13	-11.7792
▁1/4	-11.7804
adenomatoide	-11.7807
-02-18:	-11.7827
gren	-11.783
acute	-11.7836
urotheliale	-11.7842
kuit	-11.7844
▁pTNM	-11.7845
20-14	-11.7847
129	-11.785
22-12	-11.7851
lie	-11.7852
erdacht	-11.7858
Colon	-11.786
-3)	-11.7863
echter	-11.7863
ablatie	-11.7866
gradige	-11.7867
host	-11.7868
lambda	-11.7869
Panel	-11.7869
kappa	-11.7869
MLH	-11.7869
achterwand	-11.7869
necrotiserende	-11.7869
arteri	-11.787
lumbaal	-11.7871
209	-11.7872
▁VAF	-11.7875
bovenrug	-11.7875
-11-2020	-11.788
21-4	-11.7886
▁fibroglandulair	-11.7892
bronchiale	-11.7894
18):	-11.7895
16-4	-11.7896
dm	-11.7914
▁iP	-11.792
16-9	-11.7929
]03-	-11.794
▁acantholytisch	-11.7953
▁flardje	-11.797
▁cystic	-11.7976
▁obturatori	-11.7983
▁zenuw	-11.7987
stations	-11.7987
▁poly	-11.7987
erwerkt	-11.7988
▁database	-11.7989
▁implicaties	-11.7989
AFMETING	-11.7989
Samenvattend	-11.7989
cryptinvolvement	-11.7989
oesophagea	-11.7989
ous	-11.7989
schappe	-11.7989
▁(3+3)	-11.7989
▁Controle	-11.7989
▁Diffu	-11.7989
▁FOX	-11.7989
▁Laparoscopisch	-11.7989
▁aangepast	-11.7989
▁apoptose	-11.7989
▁bekeken	-11.7989
▁bijnierschors	-11.7989
▁clitoris	-11.7989
▁decalvans	-11.7989
▁discreet	-11.7989
▁erythropoiese	-11.7989
▁microbiologie	-11.7989
▁reanimatie	-11.7989
▁tenosynovia	-11.7989
▁traumatisatie	-11.7989
▁verbrokkeld	-11.7989
▁brede	-11.7989
▁wijsvinger	-11.7989
▁Beck	-11.7989
▁(+/-	-11.7989
▁retromamillair	-11.7989
▁alveolaris	-11.7989
▁giardiasis	-11.7989
▁schimmelsporen	-11.7989
-06-17:	-11.7989
▁paratracheaal	-11.7989
▁genummerd	-11.7989
▁lues	-11.7989
CHPv	-11.7989
▁arteriosclerose	-11.7989
▁tubulopathie	-11.7989
▁splijting	-11.7989
▁afgegeven	-11.7989
▁glioblastoma	-11.7989
▁kiemceltumor	-11.7989
▁rearrangement	-11.7989
conventioneel	-11.7989
▁(60%)	-11.7989
▁fistelgang	-11.7989
▁naschrift	-11.7989
PGM	-11.7989
ROGE	-11.7989
▁Bijschildklier	-11.7989
▁medullair	-11.799
schatting	-11.799
▁Nierbiopsie	-11.799
gemeen	-11.799
▁ongebruikelijk	-11.799
▁periorbitaal	-11.7991
▁mening	-11.7991
▁skin	-11.7992
▁Zoon	-11.7992
▁cyclus	-11.7993
▁destructie	-11.7993
▁4,0	-11.7993
oderende	-11.7993
▁nierparenchym	-11.7993
▁botvorming	-11.7994
CTI	-11.7994
▁hieraan	-11.7995
rova	-11.7995
pons	-11.7996
Prognostisch	-11.7996
▁Uteruscurettage	-11.7998
▁tov	-11.7998
▁Alcian	-11.7999
▁gevormd	-11.7999
loopt	-11.8
▁2000	-11.8001
▁littekengebied	-11.8002
▁ketens	-11.8002
▁mycobacterien	-11.8004
▁Aspecifiek	-11.8005
▁celhyperplasie	-11.8005
▁vesikel	-11.8005
▁webspace	-11.8005
▁Word	-11.8006
▁̄dectomie	-11.8006
▁rechterslaap	-11.8006
chronicum	-11.8007
23,	-11.8009
▁Subtota	-11.801
▁PeIN	-11.8012
krapst	-11.8016
assing	-11.8017
▁flard	-11.8018
▁Regiona	-11.8019
▁gemeten	-11.8019
richting	-11.802
orgaan	-11.8025
▁jun	-11.8025
▁koepel	-11.8032
▁vacuum	-11.8032
Volledigheid	-11.8034
▁MPL	-11.8043
▁bi	-11.8043
▁dermatitisbeeld	-11.8043
▁54	-11.8048
form	-11.8049
▁blaastumor	-11.805
▁BI	-11.8051
▁tumorgroei	-11.8051
▁sigmoidresectie	-11.8056
▁huidstans	-11.8058
▁Lab	-11.8065
▁Peri	-11.8072
▁micropapillair	-11.8078
subacuut	-11.8085
14-13	-11.8086
▁ileumbiopt	-11.8087
▁Bi	-11.8099
▁dag	-11.81
toename	-11.8102
▁extracapillair	-11.8105
300	-11.8105
4,7	-11.8125
▁XI	-11.8129
▁huidcurettage	-11.8136
▁(3-	-11.8138
▁tw	-11.8145
uterien	-11.8146
▁capillaire	-11.816
▁4,2	-11.8162
▁Ander	-11.8164
RS	-11.8165
▁traumatische	-11.8169
ess	-11.8174
knie	-11.8176
▁corpusbiopt	-11.8177
16-09	-11.8178
▁voorhuid	-11.818
werken	-11.8189
▁Volume	-11.8191
XI	-11.8199
age	-11.8203
▁tumordiameter	-11.8214
23-1	-11.8218
onisatie	-11.8225
▁PERI	-11.8228
17-03	-11.8228
14-5	-11.8232
Mede	-11.8233
▁TURT	-11.8239
1+)	-11.8243
▁0.5	-11.8249
kl	-11.8249
17-5	-11.8253
-03-17:	-11.8258
gedrag	-11.8268
▁Reik	-11.8269
▁Pancreas	-11.8272
-11-15:	-11.8293
effecten	-11.8294
TS	-11.8296
maagovergang	-11.8298
▁58	-11.8304
70)	-11.8307
175	-11.8317
▁cr	-11.832
68)	-11.8323
mber	-11.8331
22-8	-11.8331
cell	-11.8332
▁100%)	-11.8333
21-03	-11.8338
3000	-11.8344
▁47	-11.8348
vormend	-11.8352
placenta	-11.8362
▁Nerv	-11.8367
profiel	-11.8371
▁7)	-11.8376
▁42	-11.8394
▁orbita	-11.8399
parameters	-11.8401
index	-11.8403
diepe	-11.8403
▁lijn	-11.8409
23):	-11.841
lijden	-11.8413
prothese	-11.8415
Steel	-11.8419
Microscopie	-11.8419
kloon	-11.8421
719	-11.8423
Candida	-11.8423
Sterk	-11.8423
sperm	-11.8424
niveau	-11.8424
TO	-11.8424
ulcus	-11.8424
Maxima	-11.8424
amenorroeduur	-11.8424
laag	-11.8424
helix	-11.8424
macroscopisch	-11.8425
IDH	-11.8425
variatie	-11.8425
granuloma	-11.8425
typen	-11.8425
beiderzijds	-11.8425
differentiaal	-11.8425
vagina	-11.8425
uiteinde	-11.8426
ablatio	-11.8428
Huidbiopsie	-11.843
▁EN	-11.8435
▁bovenstaand	-11.844
spatroon	-11.8446
typering	-11.8447
▁vagin	-11.845
16/*******/	-11.845
bot	-11.8451
15-7	-11.8456
546	-11.8458
▁epithelioid	-11.8462
273	-11.8464
▁75	-11.8465
▁preexistent	-11.8467
▁dist	-11.8469
▁myxoid	-11.847
angioinvasie	-11.8473
-02-13:	-11.8476
88)	-11.8483
bol	-11.8497
massa	-11.8503
oppervlakkige	-11.8508
▁puncties	-11.8508
▁than	-11.8523
▁bloedstolsel	-11.8524
▁Morton	-11.8524
ntraepidermal	-11.8527
▁pap	-11.8529
▁gebruikt	-11.8531
geleverd	-11.8537
rogressief	-11.8538
fasci	-11.8539
logie	-11.8539
▁minor	-11.854
klonale	-11.8542
▁rechterknie	-11.8542
▁Bauhin	-11.8542
atellitose	-11.8543
legmoneuze	-11.8544
▁suppurati	-11.8544
Bacterie	-11.8544
centrifug	-11.8544
5,6-10,14,18,21)	-11.8544
troebel	-11.8544
viscositeit	-11.8544
zamen	-11.8544
▁PDGFRB	-11.8544
▁Parotis	-11.8544
▁Proxima	-11.8544
▁atroficus	-11.8544
▁cholesteatoom	-11.8544
▁dikwandig	-11.8544
▁femoris	-11.8544
▁fraai	-11.8544
▁funisitis	-11.8544
▁inversum	-11.8544
▁milj	-11.8544
▁neerslagen	-11.8544
▁organisatie	-11.8544
▁tricholemma	-11.8544
▁tuberculose	-11.8544
▁verstuurd	-11.8544
¶	-11.8544
▁neusgat	-11.8544
▁paracolisch	-11.8544
▁setting	-11.8544
117/146	-11.8544
▁Tubulo	-11.8544
Stadium	-11.8544
▁CVU	-11.8544
Motiliteit	-11.8544
▁epiglottis	-11.8544
▁vrouwelijk	-11.8544
JNI	-11.8544
eiwitanalyse	-11.8544
▁presentatie	-11.8544
▁buismaag	-11.8544
▁vaak	-11.8544
POT	-11.8544
▁Atypie	-11.8545
plantair	-11.8545
▁vaginalis	-11.8545
▁Vaginatop	-11.8545
▁week	-11.8545
▁thymoom	-11.8545
▁cutis	-11.8545
MPNST	-11.8546
20-12	-11.8546
▁immunoprofiel	-11.8546
▁immunotherapie	-11.8547
▁aantonen	-11.8547
▁testisparenchym	-11.8547
▁parotidectomie	-11.8548
▁jaren	-11.8548
▁verwantschap	-11.8548
▁weg	-11.8548
▁buikholte	-11.8548
▁darmwand	-11.8549
9-18)	-11.855
▁biopsielitteken	-11.855
decidualis	-11.8551
RSH	-11.8552
▁mediaanlijn	-11.8552
-07-14:	-11.8552
,14,15,1	-11.8553
▁cardiomyopathie	-11.8553
▁Radical	-11.8555
▁gebouwd	-11.8555
▁pleomorf	-11.8555
komstig	-11.8555
▁somatisch	-11.8557
streek	-11.8558
▁fixatie	-11.856
▁cytogenetica	-11.8562
▁(5)	-11.8562
▁achterste	-11.8563
▁verdeling	-11.8563
▁nierweefsel	-11.8564
▁hieronder	-11.8566
▁Fibrose	-11.8566
▁Uitstrijk	-11.8567
▁Neus	-11.8568
▁apart	-11.8569
aalf	-11.857
alveolair	-11.8574
▁nodi	-11.8574
▁SSTR	-11.8576
▁Volgen	-11.8576
▁radiatie	-11.8577
▁nasal	-11.8582
▁sarco	-11.8583
▁corticale	-11.8584
▁scherp	-11.8597
▁pseudocyste	-11.8604
aemia	-11.8605
▁kristal	-11.8606
▁celpopulaties	-11.8609
13-6	-11.8611
▁biliaire	-11.8613
▁kleinere	-11.8622
▁metastasering	-11.8625
▁tumordikte	-11.8635
▁dVIN	-11.864
]4.	-11.8641
▁aanvragend	-11.8656
adnex	-11.866
▁carina	-11.8661
▁capillairen	-11.8661
▁acht	-11.8667
▁5).	-11.8676
▁geel	-11.8678
MCL	-11.868
19-11	-11.8687
1047	-11.8696
▁respiratoire	-11.8708
086	-11.8711
▁PAL	-11.8715
19-13	-11.8729
▁ik	-11.8735
625	-11.8737
▁overlegd	-11.8737
167	-11.8749
▁vesiculae	-11.8757
lip	-11.8758
▁cons	-11.876
▁Pre	-11.8761
866	-11.8764
laaggradige	-11.8764
iaire	-11.8786
▁pla	-11.8792
▁kanaal	-11.8806
▁autoimmuun	-11.883
▁tumornegatief	-11.8836
13-10	-11.8837
SN	-11.8839
80)	-11.8845
iseerd	-11.8849
-11-14/	-11.8854
17-10	-11.8861
gi	-11.8862
▁Dd	-11.8865
▁*	-11.8869
18-20	-11.8875
▁radi	-11.8879
tumoren	-11.8884
2040	-11.8888
Cervix	-11.8889
cellig	-11.8892
▁proliferaties	-11.8901
20-4	-11.8914
▁KIN	-11.8915
neurale	-11.8916
dan	-11.8923
▁VCM	-11.8923
actief	-11.8931
23-8	-11.8943
tieve	-11.8946
▁+).	-11.8955
▁lipoma	-11.8963
depositie	-11.8966
teuze	-11.8975
▁Perife	-11.8979
▁95%	-11.8986
22-05	-11.8987
▁flor	-11.8992
▁lang	-11.8998
aq	-11.8998
excochleaat	-11.9001
Prostaat	-11.9004
lipoom	-11.9007
carina	-11.9008
worden	-11.9011
infarct	-11.9012
gewricht	-11.9012
LOH	-11.9012
vertex	-11.9013
Punctaat	-11.9013
apex	-11.9013
achterzijde	-11.9013
afwijkend	-11.9013
wordt	-11.9013
sneevlak	-11.9013
plaats	-11.9014
lang	-11.9014
ongev	-11.9014
conclusie	-11.9015
labium	-11.9015
-05-16/	-11.9015
tuba	-11.9016
linkerzijde	-11.9018
abces	-11.9019
linkerbovenarm	-11.902
tweemaal	-11.902
Prostaatbiopten	-11.9023
linkeronderbeen	-11.9024
626	-11.9026
lders	-11.9028
▁gedilateerd	-11.9029
▁doorgemaakt	-11.9029
-12-19:	-11.9035
pTa	-11.9039
22-7	-11.9046
lymfangioinvasie	-11.9073
cysteus	-11.9073
▁̄n	-11.9079
▁aneurysma	-11.908
▁cytoplasma	-11.9093
060	-11.91
Nier	-11.9103
▁ijzerdepositie	-11.9113
▁pulmona	-11.9115
▁AANVULLING	-11.9116
eit	-11.912
▁Broncho	-11.912
pati	-11.9121
slag	-11.9122
17-11	-11.9124
sternaal	-11.9124
ppendicitis	-11.9126
eeft	-11.9127
▁herschikking	-11.9128
flux	-11.9128
Diep	-11.9129
▁flegmoneu	-11.9129
verwogen	-11.9129
▁breed	-11.9131
▁phyllodes	-11.9131
▁Oksel	-11.9132
TRK	-11.9132
▁regel	-11.9132
▁Tepel	-11.9132
10-12,15,16);	-11.9132
Cadherine	-11.9132
Histocytologisch	-11.9132
Hyperkeratotisch	-11.9132
fluxoesofagitis	-11.9132
myxofibrosarcoom	-11.9132
▁Chisholm	-11.9132
▁Malherbe	-11.9132
▁Sturm	-11.9132
▁architectural	-11.9132
▁geinfarceerd	-11.9132
▁gesuggereerd	-11.9132
▁hemorroid	-11.9132
▁histiocyten	-11.9132
▁immatuur	-11.9132
▁necrobiosis	-11.9132
▁pemfigus	-11.9132
▁richtlijn	-11.9132
▁shift	-11.9132
▁sommige	-11.9132
▁species	-11.9132
▁spreken	-11.9132
▁thrombus	-11.9132
Vraagstelling	-11.9132
▁begrensd	-11.9133
▁NHL	-11.9133
▁funiculitis	-11.9133
large	-11.9133
▁cholestase	-11.9133
▁Cystectomie	-11.9133
▁aplastisch	-11.9133
▁cicatrici	-11.9133
▁pankeratine	-11.9133
▁pericardvocht	-11.9133
▁ijzerstapeling	-11.9133
▁subclaviculair	-11.9133
▁mesotheliomen	-11.9133
lastische	-11.9133
▁losgelegen	-11.9133
▁condylomata	-11.9133
▁MEK	-11.9134
EPIC	-11.9134
▁microbiologisch	-11.9134
▁glia	-11.9134
▁breedte	-11.9134
▁Genetica	-11.9135
▁immunologie	-11.9135
19-51	-11.9135
herrangschikking	-11.9135
▁zeven	-11.9135
▁4,8	-11.9136
▁detectie	-11.9136
▁vertegenwoordig	-11.9137
▁Cristabiopsie	-11.9137
▁oorschelprand	-11.9137
▁blaasbodem	-11.9137
▁PET	-11.9138
iment	-11.9138
▁Zou	-11.914
▁bovenzijde	-11.9143
▁cluster	-11.9144
▁sterilisatie	-11.9144
▁Hierdoor	-11.9144
▁bronchiaal	-11.9144
17-02	-11.9145
lone	-11.9146
▁PIP	-11.9147
▁hierdoor	-11.9148
▁septale	-11.9149
▁Cervixbiopsie	-11.915
neoadjuvante	-11.9151
▁pyoge	-11.9151
▁expansie	-11.9151
▁orofarynx	-11.9151
▁lamellen	-11.9152
16-19	-11.9152
cilinders	-11.9153
▁neuspoliepen	-11.9154
iliaire	-11.9155
gevoeligheid	-11.9156
▁MLPA	-11.9159
▁rechterlong	-11.9161
▁Pleura	-11.9164
▁ingesneden	-11.9164
▁corpusmucosa	-11.9164
10-1	-11.9169
▁SNP	-11.917
▁technisch	-11.9171
UM	-11.9172
▁cystisch	-11.9173
▁only	-11.9177
▁process	-11.9178
▁Spierbiopt	-11.9178
▁rechterborst	-11.918
▁TMB	-11.9182
lli	-11.9184
sein	-11.9186
▁zijresectierand	-11.9188
idectomie	-11.9191
REN	-11.9197
▁artefact	-11.9201
0,5	-11.9204
▁vezel	-11.9206
▁3-4	-11.9207
▁7;	-11.9212
▁HMC	-11.9221
▁Schildwacht	-11.9224
▁LSIL	-11.9227
▁laesionaal	-11.9227
▁polypoide	-11.9228
656	-11.9231
▁jonge	-11.9233
▁BK	-11.9239
▁Vulvabiopten	-11.924
ull	-11.9243
▁overgangszone	-11.9249
KLE	-11.9253
▁Non	-11.9258
cutane	-11.926
musculair	-11.9264
plasmocellulaire	-11.9264
▁tri	-11.9265
▁desmoplastische	-11.9266
▁Mondslijmvlies	-11.9275
13-01	-11.9276
▁erosies	-11.9277
▁loge	-11.9279
bn	-11.9279
edebeoordeling	-11.928
wit	-11.9293
▁mammabiopt	-11.9293
▁Vriescoupes	-11.9294
▁bev	-11.9297
ella	-11.93
mA	-11.9302
▁(15	-11.9304
-11-2020:	-11.9311
▁0.3	-11.9316
▁Lip	-11.9319
lumpectomie	-11.9321
histo	-11.9321
23-12	-11.9325
006	-11.9327
207	-11.9334
receptoren	-11.9344
ier	-11.9345
mis	-11.9347
23-2	-11.9356
▁incontinentie	-11.9357
344	-11.9358
▁66	-11.9364
15-1	-11.9368
▁effecten	-11.9377
▁mesangio	-11.9384
15-6	-11.9384
▁tangentie	-11.9394
278	-11.9397
papillaire	-11.94
▁ME	-11.9428
Tel	-11.9436
portaal	-11.9439
-08-14/*******/	-11.9442
23-04	-11.9447
▁5),	-11.9448
line	-11.9449
zijn	-11.9456
▁ger	-11.9467
oss	-11.9482
-04-16/	-11.9482
plasma	-11.9487
▁leveren	-11.9488
23-03	-11.9492
▁daarna	-11.9494
-06-14/*******/	-11.9496
-11-16:	-11.9497
▁men	-11.9508
derde	-11.9523
gn	-11.9524
▁Uit	-11.9531
/4/	-11.9532
▁70%)	-11.9537
obbel	-11.9539
▁VER	-11.954
▁buis	-11.954
▁(35	-11.9542
opathie	-11.9549
325	-11.9553
lg	-11.9556
200	-11.9561
tose	-11.9565
loop	-11.9569
▁Lipbiopt	-11.9571
▁52	-11.9576
952	-11.9579
▁verse	-11.9582
rium	-11.9588
choriale	-11.9599
4+	-11.9599
neuro	-11.9605
nieuw	-11.9614
▁Mond	-11.9617
kwab	-11.9617
ichting	-11.9621
syndroom	-11.9623
▁RIC	-11.9625
trauma	-11.9627
melanoom	-11.9634
uVIN	-11.9634
overgangszone	-11.9635
Ulceratie	-11.9635
diastase	-11.9635
Metastase	-11.9637
MARGE	-11.9637
Kleuring	-11.9637
EBV	-11.9638
TVU	-11.9638
binnenzijde	-11.9638
Botbiopt	-11.9638
transplantaat	-11.9638
bedraagt	-11.9638
melanocytaire	-11.9638
colitis	-11.9639
gelaat	-11.9639
beperkt	-11.9639
classificeren	-11.9639
Nierbiopt	-11.9641
▁rechtervoet	-11.9641
rechterschouder	-11.9642
net	-11.9644
penis	-11.9644
rootste	-11.965
▁multinodulair	-11.9651
Blaas	-11.9651
ari	-11.9652
▁Gefragmenteerd	-11.9653
▁0/1	-11.9654
_000	-11.9656
EE	-11.9662
007	-11.9665
stase	-11.9666
▁verdien	-11.9666
-01-17:	-11.9667
768	-11.9668
▁late	-11.9668
▁tumormateriaal	-11.9668
tation	-11.967
-11-13/*******/	-11.9674
ergelijking	-11.968
▁geleid	-11.9681
▁suspecte	-11.969
uitstrijken	-11.9691
Nx	-11.9692
▁cor	-11.9694
uitbreiding	-11.9717
-125	-11.972
▁klin	-11.9731
delingse	-11.9733
Web	-11.9734
▁pustel	-11.9737
▁veldje	-11.9738
▁septa	-11.974
enminste	-11.9741
▁samenhang	-11.9747
▁Coecum	-11.9748
▁linkerknie	-11.9748
▁chirurg	-11.975
elefonisch	-11.9751
▁Rectumbiopt	-11.9752
▁recidiveren	-11.9752
▁plekke	-11.9754
▁ta	-11.9755
erdenking	-11.9756
nucleatie	-11.9757
▁polycyth	-11.9757
▁Aorta	-11.9757
▁omslagplooi	-11.9757
▁orchidectomie	-11.9757
DIKTE	-11.9757
ICULA	-11.9757
Proton	-11.9757
SPECIMEN	-11.9757
VOLG	-11.9757
bestudeerd	-11.9757
flowcytometrisch	-11.9757
‘	-11.9757
▁6495)	-11.9757
▁Dermatofibroom	-11.9757
▁LABPON	-11.9757
▁Rectosigmoid	-11.9757
▁Sprieterig	-11.9757
▁Waldenstrom	-11.9757
▁adhesie	-11.9757
▁androgenetica	-11.9757
▁bilnaad	-11.9757
▁blanco	-11.9757
▁excideren	-11.9757
▁fibrinopurulent	-11.9757
▁inwendig	-11.9757
▁leverhilus	-11.9757
▁lipomatosus	-11.9757
▁mediastinaal	-11.9757
▁miniscu	-11.9757
▁nevenbevinding	-11.9757
▁sectio	-11.9757
▁seminalis	-11.9757
▁variabel	-11.9757
Afmeting	-11.9757
Overweging	-11.9757
sthenospermie	-11.9757
▁glomerulopathie	-11.9757
▁synoviitis	-11.9757
▁classifier	-11.9758
_004333	-11.9758
▁opinion	-11.9758
hepatisch	-11.9758
▁bloedvaatjes	-11.9758
▁granulomateus	-11.9758
▁Variati	-11.9758
▁zijwaarts	-11.9758
▁renaal	-11.9758
▁Aanwijzing	-11.9758
▁tonsillair	-11.9758
▁staafjes	-11.9758
▁endometritis	-11.9758
DERM	-11.9758
▁angiokeratoom	-11.9758
-10-17:	-11.9758
▁Myometrium	-11.9758
▁tubulitis	-11.9758
▁strikt	-11.9758
▁herbeoordeling	-11.9758
▁angioleiomyoom	-11.9758
▁blaaskoepel	-11.9758
condylomateus	-11.9758
▁haren	-11.9758
▁acne	-11.9758
▁bekkenwand	-11.9758
leangiectaticum	-11.9759
▁immuuncomplex	-11.9759
leiden	-11.9759
▁ulnair	-11.9759
flat	-11.9759
▁geinc	-11.9759
▁mastoid	-11.976
▁antrumgastritis	-11.9761
infraclaviculair	-11.9761
▁CDLE	-11.9761
▁placentabed	-11.9762
▁antilichaam	-11.9762
▁<5%	-11.9762
▁doel	-11.9762
plica	-11.9763
▁Even	-11.9764
▁3+4	-11.9764
▁Sj	-11.9765
rechtzijdig	-11.9765
▁telken	-11.9765
▁poli	-11.9766
▁driemaal	-11.9767
▁verwacht	-11.9768
▁grillige	-11.9768
▁Kliniek	-11.977
▁weer	-11.977
▁epitheelatypie	-11.9771
▁subepidermaal	-11.9775
▁CISH	-11.9776
sta	-11.9777
▁vasculitisbeeld	-11.9777
▁subcapsulair	-11.9778
▁frontotemporaal	-11.9778
▁capillaritis	-11.9778
▁generati	-11.9783
▁rustig	-11.9786
▁myxo	-11.9786
▁dik	-11.9787
▁linkerlong	-11.9788
▁sperm	-11.9792
▁plaques	-11.9793
▁Grocott	-11.9794
▁ophoping	-11.9794
▁Ewing	-11.9794
▁mucoid	-11.9799
ty	-11.98
▁systeem	-11.981
▁mut	-11.9815
▁lymfaden	-11.9815
▁indruk	-11.9816
▁trombo	-11.9817
▁WDP	-11.9818
295	-11.9818
▁blaasbiopt	-11.9819
▁sneden	-11.982
oscopisch	-11.9822
-10-19:	-11.9825
tumorlocalisatie	-11.9825
342	-11.9826
degeneratie	-11.9826
▁ovarieel	-11.9826
▁bloc	-11.9827
▁peritoneumbiopt	-11.9832
groeiend	-11.9833
▁precie	-11.9834
743	-11.9844
▁pleurabiopten	-11.9851
3-17	-11.9852
nb	-11.9856
011	-11.9856
lij	-11.9862
▁2/2	-11.9863
▁80%)	-11.9865
▁Dens	-11.9869
▁blijken	-11.9874
▁penetr	-11.9875
acraal	-11.9877
▁epithelioide	-11.9879
able	-11.9883
nig	-11.9885
▁optie	-11.9885
Cervixlisexcisie	-11.9886
▁bronchusbiopten	-11.9888
drietal	-11.989
ehalve	-11.9893
▁BH	-11.9899
▁tumoraal	-11.9902
13-17	-11.9902
-03-2016:	-11.9909
-11-2019	-11.9911
▁eo	-11.9913
23-10	-11.9916
olorectaal	-11.9917
▁mammatumor	-11.9917
21-16	-11.9924
wenkbrauw	-11.9924
ntestinale	-11.9925
afstand	-11.993
Mutatieanalyse	-11.9931
basaal	-11.9933
▁Hp	-11.9937
152	-11.9941
406	-11.9952
▁Voorna	-11.9964
ypering	-11.9965
-04-14/*******/	-11.9966
vraagformulier	-11.9974
veld	-11.9981
308	-11.9982
21-06	-11.9984
voorlopige	-11.9986
608	-11.9995
13-14	-11.9999
16-51	-12.0001
otheel	-12.0007
-07-2021:	-12.0011
▁xanthogranulo	-12.0032
▁lipo	-12.0034
▁cylinder	-12.0037
19-8	-12.0045
cher	-12.0049
oa	-12.0065
▁Betref	-12.0066
▁PCC	-12.0074
▁kind	-12.0079
15-14	-12.008
ISCH	-12.0083
gain	-12.0087
oud	-12.0094
▁MED	-12.0099
▁Per	-12.01
22-15	-12.0105
wijze	-12.0114
199	-12.0116
▁(14/	-12.0121
off	-12.0122
▁intima	-12.0131
▁clonaliteit	-12.0149
▁bestralings	-12.0149
ratio	-12.0158
nodus	-12.0173
/07/20	-12.0173
Stat	-12.0177
▁vormen	-12.018
ck	-12.0182
▁halsklier	-12.0191
375	-12.0195
gestuurd	-12.0197
ura	-12.0197
163	-12.0201
3%)	-12.0211
MM	-12.0215
-05-16:	-12.0235
_00	-12.0236
▁+4)	-12.0238
▁pr	-12.0238
700	-12.0247
pect	-12.0248
18-04	-12.0249
20-15	-12.0251
▁Langerhans	-12.0255
▁vene	-12.0257
▁clinico	-12.0267
hele	-12.027
contact	-12.027
Onder	-12.027
rd	-12.027
548	-12.0275
methylering	-12.0276
haarden	-12.0277
sclerose	-12.0278
wer	-12.0278
▁opname	-12.0282
mine	-12.0284
eur	-12.0295
ovariele	-12.03
▁hormoon	-12.03
Mandard	-12.03
diam	-12.0303
onderverdeling	-12.0304
Clark	-12.0304
extravasatie	-12.0304
NSAID	-12.0304
Slokdarm	-12.0304
ganglion	-12.0304
bacterien	-12.0304
parietaal	-12.0304
bulbus	-12.0305
prurigo	-12.0305
occipitaal	-12.0305
parotis	-12.0305
derhalve	-12.0305
kwaliteit	-12.0305
vulva	-12.0305
aangetoond	-12.0305
aangetroffen	-12.0305
paranasaal	-12.0305
radicaal	-12.0305
referentie	-12.0305
infiltrerend	-12.0306
LOK	-12.0306
Hier	-12.0307
Nader	-12.031
197	-12.0313
hotspots	-12.0313
perineurale	-12.0314
266	-12.0318
sequenties	-12.0318
formatie	-12.0319
▁polypoid	-12.0319
stomp	-12.032
drie	-12.032
▁mild	-12.032
▁Colonpoliep	-12.0324
14-6	-12.0325
22-10	-12.0325
ovula	-12.0328
TURP	-12.0341
trusor	-12.0345
844	-12.0355
dag	-12.0356
cyst	-12.0357
emie	-12.0358
olaire	-12.0361
▁atrium	-12.0366
▁spin	-12.0368
ontactallergisch	-12.0378
eparaat	-12.0385
▁uitbreiden	-12.0387
bb	-12.0393
▁behandelen	-12.0396
▁Stemband	-12.0397
▁arterioveneu	-12.0404
eh	-12.0413
rocedure	-12.0413
IRE	-12.0414
▁spiercel	-12.0415
▁hepato	-12.0421
errukeuze	-12.0423
ignaal	-12.0423
▁trilin	-12.0424
▁zweetklier	-12.0424
synovi	-12.0424
_004985	-12.0424
▁rechteroog	-12.0424
ANGIO	-12.0424
wezen	-12.0424
Methylatie	-12.0424
Mitosen	-12.0424
duodenectomie	-12.0424
olkingsonderzoek	-12.0424
pakket	-12.0424
▁LBQ	-12.0424
▁MGUS	-12.0424
▁Navelstreng	-12.0424
▁Transplantaat	-12.0424
▁ameloblastoom	-12.0424
▁auramine	-12.0424
▁chondroid	-12.0424
▁daadwerkelijk	-12.0424
▁fysiologisch	-12.0424
▁glomerulus	-12.0424
▁hepaticus	-12.0424
▁hepatoduodenale	-12.0424
▁lipoidica	-12.0424
▁morphaea	-12.0424
▁opgave	-12.0424
▁orientatie	-12.0424
▁panitumumab	-12.0424
▁pilaris	-12.0424
▁preexsistent	-12.0424
▁serum	-12.0424
▁sinonasal	-12.0424
▁tatoeage	-12.0424
▁twijfel	-12.0424
▁zeggen	-12.0424
▁benigna	-12.0424
▁cornea	-12.0424
▁overheers	-12.0424
▁standaard	-12.0424
Dikte	-12.0424
▁Gram	-12.0424
▁naevuscelnaevus	-12.0424
▁Macroscopisch	-12.0424
▁hysterectomie	-12.0424
▁mix	-12.0424
▁cerebellum	-12.0424
▁berichtgeving	-12.0424
▁radiologie	-12.0424
00.000	-12.0424
▁hematologisch	-12.0424
746_	-12.0424
▁aberrante	-12.0424
▁MIB	-12.0424
assiste	-12.0424
▁occlusie	-12.0424
tratum	-12.0424
▁aldus	-12.0424
▁accessoir	-12.0424
▁Anusuitstrijk	-12.0424
▁Lipoom	-12.0424
▁retroperitoneum	-12.0425
▁testisbiopt	-12.0425
▁Normospermie	-12.0425
▁omsneden	-12.0425
▁pancreasstaart	-12.0425
▁huidstukje	-12.0425
="161	-12.0426
▁trombosering	-12.0426
▁phyllodestumor	-12.0426
▁Tumorpercentage	-12.0426
▁(3+)	-12.0426
▁Bauhini	-12.0427
▁omental	-12.0427
▁moment	-12.0427
▁pink	-12.0428
ceme	-12.0428
▁helixrand	-12.0429
▁Vries	-12.0429
▁differentieren	-12.0429
▁cryptabcesjes	-12.0429
▁myopathisch	-12.0429
▁cMYC	-12.043
oven	-12.043
▁Lu	-12.043
▁opgemerkt	-12.043
▁ante	-12.043
IgH	-12.0431
Receptorstatus	-12.0433
▁2,9	-12.0433
▁Coecumbiopten	-12.0434
myc	-12.0434
▁Fib	-12.0435
▁AANGEPAST	-12.0437
▁balanitis	-12.0437
▁getraumatiseerd	-12.0437
▁vaatmalformatie	-12.0437
▁ileocoecaal	-12.0437
▁antihelix	-12.0438
▁maagcardiatype	-12.0438
20-11	-12.0439
▁Nu	-12.0439
malig	-12.0439
▁PSC	-12.0441
▁granulair	-12.0441
▁Synoviumbiopten	-12.0441
▁dubieu	-12.0443
▁organiserend	-12.0445
▁pustels	-12.0446
▁vervezeling	-12.0446
▁Geschat	-12.0446
▁LETZ	-12.0446
▁tubulairadenoom	-12.0447
▁ijzerdeposities	-12.0447
▁Negatief	-12.0448
▁overeenkomend	-12.0448
▁lymfkliertje	-12.0449
▁ontwikkeld	-12.0449
-01-2019	-12.0454
▁lumina	-12.0454
▁Concordant	-12.0454
▁Pericardvocht	-12.0454
▁bovenpool	-12.0457
▁rechterbil	-12.0458
▁georganiseerde	-12.0458
-12-16:	-12.046
▁opgenomen	-12.0461
▁tien	-12.0461
▁areola	-12.0462
▁2008	-12.0462
▁LLETZ	-12.0463
▁mutant	-12.0463
-04-13/*******/	-12.0466
▁linea	-12.0467
post	-12.0468
▁gemiddeld	-12.0471
▁lesionaal	-12.0473
MAI	-12.0474
▁tumorproces	-12.0477
▁punten	-12.0478
▁antral	-12.0478
overgevoeligheid	-12.0479
wart	-12.048
19-0	-12.0483
▁follikels	-12.0485
135	-12.0492
▁prep	-12.0494
capillaire	-12.0495
▁Maagantrumbiopt	-12.0498
▁secretie	-12.0499
HG	-12.0503
▁IGH	-12.0506
lated	-12.0506
oche	-12.0518
▁MZH	-12.0521
▁pTis	-12.0521
21-22	-12.0522
5-10-20	-12.0523
▁Bespreking	-12.0532
▁0)	-12.0533
▁voorvoet	-12.0538
kleuringen	-12.0539
doende	-12.0539
▁hemo	-12.0544
haard	-12.0552
▁ingebracht	-12.0553
VO	-12.0557
▁transplantaat	-12.0558
876	-12.0562
▁radio	-12.0564
ation	-12.0571
immunohistochemi	-12.0571
90)	-12.0571
▁kloon	-12.0575
▁tussenliggend	-12.0584
▁band	-12.0588
22-04	-12.059
▁levernaaldbiopt	-12.0591
▁Botbiopten	-12.0591
▁Dysplasie	-12.0601
▁10%)	-12.0607
24)	-12.0613
▁gefibroseerd	-12.0617
-11-2023:	-12.0619
▁2016)	-12.062
503	-12.062
▁conclusieI	-12.0626
-07-19:	-12.0627
sb	-12.063
▁50%)	-12.0635
▁24-08-	-12.064
nog	-12.0647
▁IP	-12.0648
289	-12.0666
▁Poliepje	-12.067
▁verk	-12.0676
272	-12.0677
▁LMS	-12.0681
aanvullende	-12.0685
lymfo	-12.0688
▁to	-12.069
17-9	-12.0693
21-20	-12.0696
69)	-12.0696
han	-12.0706
▁digitu	-12.0708
15-02	-12.0709
aris	-12.0711
15-11	-12.0715
-01-16:	-12.0724
-02-2019	-12.0742
165	-12.0742
▁leverbiopten	-12.0743
-02-14/*******/	-12.0748
-01-2022	-12.0753
1-3	-12.0762
celveranderingen	-12.0762
▁fil	-12.0776
▁67	-12.0779
23-20	-12.0782
▁MCP	-12.0785
▁(1/1	-12.0785
828	-12.0798
▁mo	-12.0802
ductaal	-12.0806
▁73	-12.0812
▁ondersteunen	-12.0813
169	-12.083
17-12	-12.0834
▁Voorstel	-12.0848
-01-19:	-12.0849
celrijk	-12.0851
ning	-12.0851
▁Ex	-12.086
otje	-12.0861
pathie	-12.087
21-14	-12.0877
eratie	-12.0877
]5.	-12.0881
15-00	-12.0886
aevus	-12.0894
lobulair	-12.0911
oppervlakkig	-12.0913
283	-12.0913
geassocieerd	-12.0914
17-06	-12.0915
pm	-12.0917
21-09	-12.0917
ieve	-12.0936
geschat	-12.0938
9,	-12.0952
▁zegelring	-12.0953
298	-12.0958
143	-12.0967
14-07	-12.0972
▁nefro	-12.0988
16-6	-12.0997
Sem	-12.1001
▁overig	-12.1002
466	-12.1005
elleboog	-12.1005
granulomen	-12.1008
SAR	-12.1012
fundus	-12.1012
Regressie	-12.1014
Patient	-12.1017
partieel	-12.1017
MGMT	-12.1018
relevant	-12.1018
gemethyleerd	-12.1018
controle	-12.1018
Hotspot	-12.1018
virus	-12.1019
Sigmoid	-12.1019
abdomen	-12.1019
acinair	-12.1019
translocatie	-12.1019
kliniek	-12.1019
actinisch	-12.1019
hyper	-12.102
gradering	-12.1021
voorzijde	-12.1024
Gleasonscore	-12.1025
140	-12.1026
ductie	-12.1028
linkerbovenbeen	-12.1032
Colonbiopten	-12.1032
SMA	-12.1033
cytaire	-12.1036
onderste	-12.1036
▁mag	-12.1037
▁1.5	-12.104
▁geruptureerd	-12.104
435	-12.1044
grens	-12.1044
▁AS	-12.1045
cN	-12.1048
bare	-12.1052
maagbiopten	-12.1057
iel	-12.1062
Regio	-12.1065
10%	-12.1068
▁SDH	-12.1068
▁(0/1	-12.1069
▁Boven	-12.1074
▁Larynxbiopt	-12.1074
▁0.4	-12.1084
eerste	-12.1088
Vulvabiopt	-12.1089
30%	-12.109
▁Sponta	-12.1093
forme	-12.1098
▁cellulair	-12.1098
▁up	-12.1099
▁gebiedje	-12.1101
hylation	-12.111
▁atrof	-12.1111
▁synovia	-12.1114
endo	-12.1115
▁naevocellulare	-12.1119
▁Synovium	-12.1125
lis	-12.1129
lobulaire	-12.1132
▁Ileocoecaal	-12.1132
▁rijp	-12.1136
▁Onze	-12.1137
▁chorio	-12.1137
gesteeld	-12.1137
▁frontal	-12.1137
▁cholesterol	-12.1138
▁giardia	-12.1138
▁Lichen	-12.1138
ificeerd	-12.1138
FIGO	-12.1138
zoospermie	-12.1138
▁Burkitt	-12.1138
▁CONSULT	-12.1138
▁Ultra	-12.1138
▁afbraak	-12.1138
▁glycogen	-12.1138
▁primers	-12.1138
▁qua	-12.1138
▁verwant	-12.1138
▁vinden	-12.1138
BRONCHUSSNIJVLAK	-12.1138
Idylla	-12.1138
chips	-12.1138
druppel	-12.1138
jugulair	-12.1138
sinonasaal	-12.1138
▁ATRX	-12.1138
▁Bulbus	-12.1138
▁LORD	-12.1138
▁aangemaakt	-12.1138
▁commentaar	-12.1138
▁destijds	-12.1138
▁discrepant	-12.1138
▁elastine	-12.1138
▁fallopii	-12.1138
▁gasthuis	-12.1138
▁genitaal	-12.1138
▁glomustumor	-12.1138
▁guttata	-12.1138
▁juveniel	-12.1138
▁langdurig	-12.1138
▁osteoporose	-12.1138
▁parametrium	-12.1138
▁peritonei	-12.1138
▁perniones	-12.1138
▁research	-12.1138
▁right	-12.1138
▁spermaticus	-12.1138
▁verhoorning	-12.1138
▁verklaart	-12.1138
▁versicolor	-12.1138
▁verzonden	-12.1138
▁volvulus	-12.1138
ladderwash	-12.1138
▁10-20%	-12.1138
▁beleid	-12.1138
▁left	-12.1138
▁donor	-12.1138
▁spirochetose	-12.1138
▁eerstelijns	-12.1138
▁follikelcentrum	-12.1138
▁aankleurend	-12.1139
▁aanleveren	-12.1139
▁vezeltoename	-12.1139
▁Onderlip	-12.1139
▁omkapseld	-12.1139
▁negativ	-12.1139
▁Synovia	-12.1139
▁polipeu	-12.1139
▁anatomisch	-12.1139
▁Hormoonreceptor	-12.1139
▁hidradenoom	-12.1139
▁suppurativa	-12.1139
hyoid	-12.1139
▁zaadje	-12.1139
▁ileocoecaalklep	-12.1139
Vacu	-12.1139
▁bereikt	-12.1139
▁sacro	-12.1139
▁IGK	-12.1139
▁lymfvat	-12.1139
▁mucinose	-12.1139
▁Fibroadenoom	-12.1139
▁Melanoom	-12.1139
▁plaatsgevonden	-12.1139
yperparakeratose	-12.1139
▁spierlaag	-12.1139
▁bewezen	-12.1139
▁kleppen	-12.1139
▁spitzoide	-12.1139
▁lymfadenitis	-12.1139
▁doorgebeld	-12.1139
▁hyfen	-12.1139
▁bijdragend	-12.1139
TZI	-12.114
leucocyten	-12.114
Immunologisch	-12.114
VATS	-12.1141
wederom	-12.1141
▁beta	-12.1141
▁longorigine	-12.1142
▁transitie	-12.1142
16/18	-12.1143
▁lymfangioom	-12.1143
▁Vet	-12.1143
▁pelvien	-12.1143
▁DIP	-12.1143
ichaamsobductie	-12.1144
▁scapulair	-12.1144
▁immuuntherapie	-12.1144
▁meng	-12.1144
▁gezicht	-12.1144
▁borstbeen	-12.1144
▁Corpuscurettage	-12.1145
coronairsclerose	-12.1146
▁side	-12.1146
▁majora	-12.1146
21-8	-12.1147
▁Duodenumbiopsie	-12.1148
19-53	-12.1148
▁slokdarmmucosa	-12.1149
▁VOORLOPIG	-12.1149
▁borstwand	-12.1149
▁neuspoliep	-12.1149
pH	-12.115
▁cysticus	-12.115
SIE	-12.1151
▁blaasmucosa	-12.1151
▁bh	-12.1151
▁6,0	-12.1152
▁cut	-12.1152
▁uitgenomen	-12.1152
▁hemorrhagisch	-12.1153
▁hyalien	-12.1153
▁methode	-12.1153
▁pericolisch	-12.1153
▁4,3	-12.1154
plg	-12.1154
▁glaasjes	-12.1156
**	-12.1158
▁leukoplakie	-12.1159
▁dura	-12.1159
▁stereotactisch	-12.1162
▁schaamstreek	-12.1162
▁Passend	-12.1162
▁telling	-12.1165
TME	-12.1167
▁inhibitor	-12.1169
▁klachten	-12.1171
▁melanose	-12.1171
Cervixbiopt	-12.1172
▁continue	-12.1175
----------------	-12.1175
▁pericard	-12.1177
▁megakaryopoiese	-12.118
OS	-12.1181
13-09	-12.1188
▁teleangiectati	-12.1188
▁lymfkliertjes	-12.119
▁ulcusmateriaal	-12.1193
▁scha	-12.1194
▁verlittekende	-12.1195
▁hiel	-12.1197
]29-	-12.1205
▁cortex	-12.1207
AZN	-12.1208
▁uurszijde	-12.1209
kalk	-12.1211
380	-12.1216
371	-12.122
LP	-12.1222
vum	-12.1224
13-00	-12.1225
▁ARAF	-12.1226
▁4%	-12.1228
▁(1,5	-12.1228
▁Of	-12.123
subcutane	-12.1231
262	-12.1233
19-15	-12.1233
-2019):	-12.1236
▁stapeling	-12.1236
▁cystebeeld	-12.1238
▁cytoplasmatisch	-12.1239
enkel	-12.1241
bloeding	-12.1243
▁Pipellebiopt	-12.1261
▁EI	-12.1263
▁multinodulaire	-12.1263
▁po	-12.1272
570	-12.1278
▁intratubulair	-12.1279
18-08	-12.1284
gebrek	-12.1285
18-13	-12.1287
▁Shaveexcisie	-12.1289
18-14	-12.1296
▁lijden	-12.13
▁digit	-12.1313
▁site	-12.1319
804	-12.1322
▁rectumbiopt	-12.1329
▁Transcervica	-12.1329
-08-2023:	-12.133
claviculair	-12.133
-10-13:	-12.1331
neurogene	-12.1333
107	-12.1336
837	-12.1337
ori	-12.1339
]*******/*******	-12.1347
▁oogt	-12.1348
▁hemat	-12.1356
erytro	-12.1358
▁gevolgd	-12.1362
158	-12.1364
▁excisiebiopsie	-12.1387
3%	-12.1388
▁too	-12.1391
▁oesofagusbiopt	-12.1392
▁mucosabiopten	-12.1398
-03-13/*******/	-12.1399
Lever	-12.1407
JD	-12.1429
-12-2016	-12.1432
erwijzing	-12.1438
▁kl	-12.144
HPF	-12.1441
578	-12.1443
▁Secundair	-12.1445
ductale	-12.1445
ther	-12.145
wij	-12.1459
▁keratotisch	-12.1462
matige	-12.1469
▁histiocytose	-12.1471
▁naresectie	-12.1474
-10-16/	-12.1478
19-9	-12.1482
EZ	-12.1483
▁mycobacteri	-12.1483
-12-2022:	-12.1492
▁2022	-12.1496
90):	-12.1497
aartoe	-12.1499
▁porta	-12.15
23-06	-12.1503
-02-2021:	-12.1508
]31-01-	-12.151
*******/*******	-12.1519
25)	-12.1519
inoom	-12.1525
205	-12.153
▁MT	-12.1543
2.5	-12.1547
525	-12.155
▁Peritoneum	-12.1551
▁sigmoidbiopten	-12.156
▁coronairarterie	-12.1562
Longbiopt	-12.1566
16-7	-12.1568
▁vs	-12.1571
▁abnormal	-12.1573
denoid	-12.1575
21-21	-12.1578
rondcell	-12.1579
673	-12.1587
307	-12.1587
650	-12.1593
tubulo	-12.1594
▁amplificaties	-12.1595
▁Pa	-12.1602
Nano	-12.1607
▁opge	-12.161
ria	-12.1612
gering	-12.1613
Excisiebiopt	-12.1615
4,6	-12.162
Gr	-12.1621
▁vasoinvasie	-12.1623
icrocalcificatie	-12.1623
▁cylindercel	-12.1626
true	-12.1653
anus	-12.166
corpusbiopten	-12.1661
(1-	-12.1671
▁Pro	-12.1674
ish	-12.1683
beginnend	-12.1683
]13-11-	-12.1685
delijke	-12.1687
ali	-12.1689
21-08	-12.1714
axillair	-12.1719
]17-10-1	-12.1724
moleculair	-12.1733
morfologisch	-12.1736
455	-12.1737
16-21	-12.1739
Poliep	-12.174
-08-2015	-12.175
-03-2023:	-12.1752
1-2014	-12.1752
-05-19:	-12.1772
itt	-12.1775
atio	-12.1778
▁dystrof	-12.1781
bronchus	-12.1781
falen	-12.1781
Bowen	-12.1782
Bespreking	-12.1784
Beenmerg	-12.1785
LSIL	-12.1785
origine	-12.1785
medicamenteus	-12.1786
DLBCL	-12.1786
EBER	-12.1786
vezel	-12.1787
atheroomcyste	-12.1787
gemengd	-12.1787
markering	-12.1787
RNA	-12.1788
NIEUWE	-12.1788
JBZ	-12.1788
bovenooglid	-12.1788
erytrocyten	-12.1788
mucineus	-12.1788
sigmoA	-12.1788
representatief	-12.1788
dermatofibroom	-12.1788
NSCLC	-12.1788
onderooglid	-12.1788
eventue	-12.1788
verruca	-12.1788
bovenbuik	-12.179
330	-12.1793
voorwand	-12.1795
Cave	-12.1797
▁Uitgebreid	-12.1803
▁necrotiserend	-12.1804
MDS	-12.181
2012	-12.1812
identificeer	-12.1814
22-13	-12.1815
560	-12.1817
-06-2015:	-12.1822
activatie	-12.1828
vanwege	-12.1835
]23-05-	-12.1836
769	-12.1837
▁spierinvasie	-12.1837
126	-12.1839
Ki	-12.1842
176	-12.1849
▁echo	-12.1855
22-09	-12.1857
▁*******+	-12.1859
agenoeg	-12.1863
onbekend	-12.1863
3140	-12.1865
▁uitge	-12.1865
weemaal	-12.1868
herapiekeuzetest	-12.187
▁AIN	-12.1874
2(	-12.1877
zeer	-12.1878
lik	-12.1879
▁granul	-12.1879
▁verlitteken	-12.188
19-04	-12.188
▁METASTASE	-12.188
cytoplasm	-12.1885
▁keten	-12.1888
▁fix	-12.1888
▁celgroepje	-12.1889
uretra	-12.1896
936	-12.1898
Consensus	-12.1899
irriteerde	-12.1904
▁verwijz	-12.1905
cranio	-12.1906
▁follicular	-12.1907
evestiging	-12.1907
▁stadi	-12.1907
▁dun	-12.1907
Tyr	-12.1907
cytometrie	-12.1908
▁Bartholin	-12.1908
MORFOLOGI	-12.1908
WERK	-12.1908
amenteuze	-12.1908
interpreteerbaar	-12.1908
richomonas	-12.1908
▁Additione	-12.1908
▁Beiderzijds	-12.1908
▁EWSR	-12.1908
▁Gewrichts	-12.1908
▁Prostatectomie	-12.1908
▁Serologie	-12.1908
▁aangedaan	-12.1908
▁aanmerking	-12.1908
▁agarcyto	-12.1908
▁aspergillus	-12.1908
▁betrof	-12.1908
▁craniolateraal	-12.1908
▁criterium	-12.1908
▁doodsoorzaak	-12.1908
▁dunwandige	-12.1908
▁gepunch	-12.1908
▁hemorragie	-12.1908
▁korstvorming	-12.1908
▁obliteratie	-12.1908
▁piriformis	-12.1908
▁rommelig	-12.1908
▁rubra	-12.1908
▁transmuraal	-12.1908
▁versneld	-12.1908
▁Ectocervica	-12.1908
▁Lymfoom	-12.1908
▁cryptdestructie	-12.1908
▁sacrum	-12.1908
▁schacht	-12.1908
▁stervormig	-12.1908
verweeg	-12.1908
▁Positief	-12.1908
DOOR	-12.1908
▁cetuximab	-12.1908
▁plasmocytoom	-12.1908
▁mitosefiguren	-12.1908
villus	-12.1908
▁lamellair	-12.1908
▁screening	-12.1908
▁(3+4	-12.1908
▁hypoplasie	-12.1908
▁celtelling	-12.1908
▁papillomatosis	-12.1908
▁paratrabeculair	-12.1908
▁(50%)	-12.1908
▁intensiteit	-12.1908
epithelialisatie	-12.1908
▁Morfologie	-12.1908
▁Myoom	-12.1908
-10-18:	-12.1908
▁productie	-12.1908
▁syn	-12.1908
▁hypoxisch	-12.1908
▁Doorsnijding	-12.1908
▁myeloblasten	-12.1908
▁LAD	-12.1908
▁parapsoriasis	-12.1908
99%	-12.1908
▁BTG	-12.1908
▁vaattoename	-12.1908
▁virusinfectie	-12.1908
▁cytogenetisch	-12.1908
▁thyreoidectomie	-12.1908
▁tonsillen	-12.1908
▁hemithyreo	-12.1909
▁intralumina	-12.1909
▁recurrent	-12.1909
▁Onge	-12.1909
▁celblok	-12.191
▁hersentumor	-12.191
stwaarschijnlijk	-12.191
▁midfrontaal	-12.191
▁atro	-12.191
▁biopsietraject	-12.191
▁congorood	-12.191
▁peribronchiale	-12.191
▁erythemateuze	-12.191
▁DISH	-12.1911
▁tepelvocht	-12.1911
▁3/4	-12.1911
▁genese	-12.1912
▁periost	-12.1912
▁ijzerkleuring	-12.1912
▁maagfundus	-12.1912
▁cystectomie	-12.1912
▁3,9	-12.1913
▁Chirurgisch	-12.1913
welling	-12.1914
tom	-12.1914
▁3,7	-12.1914
▁minora	-12.1915
▁uterussegment	-12.1915
▁MTP	-12.1916
nasaal	-12.1917
▁dichtbij	-12.1917
urie	-12.1917
▁(13/	-12.1917
▁rapport	-12.1917
▁neusholte	-12.1917
▁middenoor	-12.1918
▁Plaveiselcel	-12.1919
pees	-12.192
▁mammaprothese	-12.1921
▁overgrijpen	-12.1921
▁conus	-12.1921
▁negen	-12.1922
▁Breuninger	-12.1923
▁gemuteerd	-12.1923
▁signalen	-12.1923
mediadegeneratie	-12.1927
▁rechterovarium	-12.193
▁5,2	-12.193
▁lymfoidweefsel	-12.1931
▁Geadviseerd	-12.1933
▁gereseceerd	-12.1933
▁trabeculair	-12.1933
▁Colonresectie	-12.1936
oi	-12.1936
amniotisch	-12.1938
▁HRD	-12.194
▁volledigheid	-12.194
▁Fragmentje	-12.194
itiele	-12.194
▁Opvallend	-12.1943
▁reconstructie	-12.1943
▁tonsillectomie	-12.1943
▁gemerkt	-12.1943
▁Buikvocht	-12.1943
▁gekleurd	-12.1943
846	-12.1943
▁verhevenheid	-12.1943
▁huidadnexen	-12.1943
▁begin	-12.1944
bas	-12.1947
ORI	-12.1947
kleine	-12.1948
▁bioptlengte	-12.1949
▁elementen	-12.1951
▁matrix	-12.1953
▁Hailey	-12.1953
pancreatische	-12.1955
▁cystevorming	-12.196
fra	-12.1961
464	-12.1963
▁14-10-20	-12.1965
▁bronch	-12.1968
MSP	-12.1968
17-14	-12.1974
hit	-12.1975
0,05	-12.1976
▁90%)	-12.1979
stage	-12.198
▁infra	-12.198
▁gestuwde	-12.1981
▁DDR	-12.1983
dystrofie	-12.1985
17-18	-12.1987
▁atherosclero	-12.1993
dermis	-12.1994
Lymfangio	-12.1995
-01-18:	-12.1996
▁boweno	-12.1999
106	-12.1999
▁AIS	-12.2002
]19-09-1	-12.2007
702	-12.2013
▁8-9	-12.2014
▁rete	-12.2022
nis	-12.2029
]18-09-	-12.2029
46)	-12.2031
▁grof	-12.2035
▁WT	-12.2036
▁myeloA	-12.2038
▁ulceratief	-12.2039
▁3,3	-12.2039
596	-12.2041
201	-12.2043
▁isolat	-12.2044
5;	-12.2052
348	-12.2053
▁Mandard	-12.2053
473	-12.2065
teerde	-12.2075
-10-2017:	-12.2079
390	-12.2086
16-16	-12.2087
iertransplantaat	-12.2088
▁trial	-12.2091
ermate	-12.2091
186	-12.2097
wn	-12.2098
▁decidualisatie	-12.2105
▁endometrio	-12.2108
-01-2023:	-12.2108
spa	-12.2127
▁Ruime	-12.2129
sich	-12.2136
469	-12.2144
-04-15/	-12.2147
circumferentieel	-12.2151
eerder	-12.2158
▁segmenten	-12.2158
196	-12.2159
214	-12.216
_002	-12.216
hal	-12.2166
258	-12.2166
▁contralatera	-12.217
▁geinduceerd	-12.217
21-04	-12.2197
▁bijzonder	-12.2206
laat	-12.2221
ov	-12.2222
13-7	-12.2226
227	-12.2228
▁ASC	-12.2231
veer	-12.2237
oloog	-12.2237
920	-12.2238
▁bioptisch	-12.2238
-02-13/*******/	-12.2241
-10-13/*******/	-12.2243
einde	-12.2244
erwij	-12.2259
laesionaal	-12.2262
sstoornissen	-12.2275
-12-13/	-12.228
marginaal	-12.228
Abortusmateriaal	-12.2283
▁Lentig	-12.2287
cavaal	-12.2287
740	-12.2287
hyleringsanalyse	-12.2291
-10-2023	-12.2303
240	-12.2304
794	-12.2309
▁persisteren	-12.2328
96):	-12.2332
▁art	-12.234
331	-12.234
fase	-12.2351
▁mycobacterie	-12.2354
033	-12.2356
▁Coupe	-12.2359
14-09	-12.2359
tiA	-12.2374
▁ileo	-12.2375
Uit	-12.238
338	-12.2388
833	-12.2397
23-11	-12.2399
▁carcinomen	-12.2403
▁60%)	-12.2411
hemi	-12.2415
▁CM	-12.2429
▁2022)	-12.2438
366	-12.2445
041	-12.2452
841	-12.2458
geinduceerde	-12.2463
664	-12.2464
bronchusepitheel	-12.2465
15-10	-12.2467
586	-12.2484
▁un	-12.2489
▁liggen	-12.2494
Pot	-12.2503
▁urticari	-12.2505
Voorlopig	-12.2512
primair	-12.2513
18-28	-12.2515
gesteld	-12.2517
16-03	-12.2521
cysten	-12.2521
tubulair	-12.2523
16-01	-12.2525
18-8	-12.2525
▁membran	-12.2528
956	-12.2535
heen	-12.2545
▁LO	-12.2549
infiltraat	-12.2555
1%)	-12.2557
▁Bloed	-12.2559
-10-2019:	-12.2567
kan	-12.2569
excisiebiopt	-12.2569
epithelioma	-12.257
▁ongevoelig	-12.2578
-12-2020:	-12.2584
20-03	-12.2591
recht	-12.2596
granuloom	-12.2596
artefact	-12.26
slecht	-12.2601
▁spierbiopt	-12.2602
kaak	-12.2607
epithelial	-12.2614
▁dorso	-12.2614
helft	-12.2616
Thy	-12.2616
Volume	-12.2618
Ander	-12.2618
traject	-12.2619
Diagnostisch	-12.2619
Onderzoek	-12.2619
Obductie	-12.2619
peritoneum	-12.2619
morfologie	-12.262
epidermoid	-12.262
protocollair	-12.262
HMC	-12.262
oppervlak	-12.262
GEWIJZIGD	-12.2621
LDT	-12.2621
Klier	-12.2621
palatum	-12.2621
gericht	-12.2621
criteria	-12.2621
insufficientie	-12.2621
Minima	-12.2621
haargrens	-12.2621
nefropathie	-12.2621
Ascites	-12.2621
achterlip	-12.2621
verspreid	-12.2621
minimaal	-12.2621
IgG	-12.2622
bindweefsel	-12.2622
lymfocytaire	-12.2622
oesofagus	-12.2622
onvoldoende	-12.2622
bericht	-12.2622
milt	-12.2622
tepel	-12.2622
cytologisch	-12.2622
verricht	-12.2622
sterk	-12.2623
subtype	-12.2624
target	-12.2624
tweede	-12.2625
▁medio	-12.2626
meest	-12.2626
010	-12.2628
datum	-12.2628
sturen	-12.263
sinus	-12.263
ypT	-12.2631
Gering	-12.2631
linkerscheenbeen	-12.2634
verdacht	-12.2635
▁purulent	-12.2637
▁gemarkeerd	-12.2637
▁focal	-12.2637
18-06	-12.264
kenmerk	-12.2641
slechts	-12.2642
mits	-12.2647
Halsklier	-12.2659
duodenumbiopten	-12.2661
13-08	-12.2663
7-8	-12.2663
hilair	-12.2663
druk	-12.2663
hypertrofische	-12.2664
▁nos	-12.2668
▁cava	-12.2669
▁urachus	-12.2673
043	-12.2675
reactief	-12.2675
staande	-12.2682
751	-12.2685
Non	-12.2688
▁inzenden	-12.2689
]06-06-1	-12.269
▁thrombo	-12.269
tand	-12.2698
15-05	-12.2699
MAP	-12.27
▁Infiltratie	-12.2701
gezet	-12.2703
822	-12.2706
spoel	-12.2708
▁Tumorvolume	-12.271
lymfklieren	-12.2717
▁buisje	-12.2722
38)	-12.2722
▁Tonsil	-12.2723
▁entiteit	-12.2724
oont	-12.2724
▁ontv	-12.2726
▁neur	-12.2727
▁basaloid	-12.2729
immuniteit	-12.273
▁deficient	-12.2732
155	-12.2734
▁laesiona	-12.2734
elvien	-12.2735
▁schuim	-12.2737
functione	-12.2737
plasie	-12.2738
▁halslymfklier	-12.2739
factor	-12.2739
▁echt	-12.274
▁combin	-12.2741
▁Specifi	-12.2741
wortel	-12.2741
▁Portio	-12.2741
/59/6	-12.2741
insuffici	-12.2741
▁vrucht	-12.2741
BRONCH	-12.2741
Conjunctiva	-12.2741
▁Dubieu	-12.2741
▁Laser	-12.2741
▁enchondroom	-12.2741
▁geboorte	-12.2741
▁gefixeerd	-12.2741
▁lymfang	-12.2741
▁onderbouw	-12.2741
▁opbrengst	-12.2741
▁papillomen	-12.2741
▁paraganglioom	-12.2741
IFICATIE	-12.2741
INFILTRATIE	-12.2741
MULTIFOCA	-12.2741
Reinkes	-12.2741
SNIJVLAKKEN	-12.2741
UNIC	-12.2741
_033360.2:	-12.2741
aktinische	-12.2741
leucocytoclas	-12.2741
ligospermie	-12.2741
nomenclatuur	-12.2741
palpab	-12.2741
progestageen	-12.2741
rhabdomyosarcoom	-12.2741
▁(1-11).	-12.2741
▁Behcet	-12.2741
▁Bindweefsel	-12.2741
▁COPD	-12.2741
▁COVID	-12.2741
▁Darier	-12.2741
▁Kaak	-12.2741
▁Leishmania	-12.2741
▁Morgagni	-12.2741
▁Toxicodermie	-12.2741
▁Trauma	-12.2741
▁Urethra	-12.2741
▁achterhalen	-12.2741
▁atrophicans	-12.2741
▁breid	-12.2741
▁coeliacus	-12.2741
▁congestie	-12.2741
▁consistent	-12.2741
▁dentata	-12.2741
▁denudatie	-12.2741
▁erytheem	-12.2741
▁gekeken	-12.2741
▁gemacereerde	-12.2741
▁gesampled	-12.2741
▁interfereren	-12.2741
▁kolonisatie	-12.2741
▁levercirrose	-12.2741
▁linguaal	-12.2741
▁miskraam	-12.2741
▁myositis	-12.2741
▁normaalwaarden	-12.2741
▁ondersteund	-12.2741
▁ossificatie	-12.2741
▁oxyuren	-12.2741
▁pancreatitis	-12.2741
▁papilliferum	-12.2741
▁plaatsvinden	-12.2741
▁procent	-12.2741
▁schatten	-12.2741
▁synovitis	-12.2741
▁venster	-12.2741
▁verleden	-12.2741
▁wenselijk	-12.2741
▁̄nkte	-12.2741
histio	-12.2741
▁Lupus	-12.2741
▁genezen	-12.2741
▁longarts	-12.2741
▁luteum	-12.2741
▁mgl	-12.2741
microangiopathie	-12.2741
▁20-30%	-12.2741
▁morfometri	-12.2741
▁neuroblastoom	-12.2741
▁farynxboog	-12.2741
▁ribbenboog	-12.2741
▁shock	-12.2741
▁calcinosis	-12.2741
producerend	-12.2741
▁Lymfoid	-12.2741
▁Intracavitair	-12.2741
▁beantwoord	-12.2741
▁geopend	-12.2741
▁mijt	-12.2741
▁Clin	-12.2741
▁eiwitexpressie	-12.2741
ecompleteerd	-12.2741
PTaG	-12.2741
▁Histologie	-12.2741
▁vertonen	-12.2741
▁falanx	-12.2741
▁selectie	-12.2741
▁4+4	-12.2741
▁nucleair	-12.2741
="162	-12.2741
Klassiek	-12.2741
▁configuratie	-12.2741
▁kernatypie	-12.2741
▁ileus	-12.2742
▁hartfalen	-12.2742
▁kernhoudend	-12.2742
dition	-12.2742
▁umc	-12.2742
psine	-12.2742
▁granular	-12.2742
▁uitval	-12.2742
▁overgangsgebied	-12.2742
bronchiol	-12.2742
▁basalo	-12.2742
raak	-12.2742
morf	-12.2742
▁zegelringcellen	-12.2742
▁acro	-12.2742
monomorf	-12.2743
▁weefselpijpjes	-12.2744
▁ECL	-12.2744
▁aantallen	-12.2744
ossale	-12.2744
▁Relatie	-12.2744
▁maagfundustype	-12.2744
▁Mono	-12.2744
▁cerebellair	-12.2745
▁Cervixuitstrijk	-12.2746
sensitiviteit	-12.2746
embolieen	-12.2746
***	-12.2746
scler	-12.2746
▁GCB	-12.2747
▁stam	-12.2748
▁biamniotisch	-12.2748
▁masto	-12.2748
▁SLE	-12.2749
▁(10%)	-12.2751
359	-12.2752
▁SOC	-12.2752
▁midprostaat	-12.2753
Gastric	-12.2755
▁vaatafwijkingen	-12.2755
ocht	-12.2755
immunoblastair	-12.2755
NIS	-12.2756
▁Liquorpunctie	-12.2757
▁DIAGNOSE	-12.2758
▁infraorbitaal	-12.2758
▁Hemithyreo	-12.2758
icum	-12.2759
▁bestraling	-12.2759
4646	-12.276
▁TNF	-12.2764
▁onrijpe	-12.2765
ted	-12.2766
22-21	-12.2767
900	-12.2767
▁Maagbiopsie	-12.2767
▁krab	-12.2768
▁cilinder	-12.2768
▁verdikking	-12.2768
▁chemo	-12.2769
▁Urinecytologie	-12.277
ias	-12.277
▁sinusoidale	-12.2773
232	-12.2773
▁overgroei	-12.2775
▁75%	-12.2775
artiA	-12.2777
itieve	-12.2779
▁verval	-12.2779
▁Ernstig	-12.2779
▁enteritis	-12.2779
▁linkerbeen	-12.2782
▁linkerbil	-12.2783
▁steen	-12.2783
▁strips	-12.2783
bcd	-12.2786
▁entiteiten	-12.2787
18-7	-12.2789
1633	-12.2791
16-20	-12.2791
▁glaasje	-12.2792
004	-12.28
male	-12.28
▁radiair	-12.2807
▁kwadrant	-12.2811
▁07-06-	-12.2819
▁divertikels	-12.2821
nierbiopt	-12.2822
▁vaginaal	-12.2822
▁WGS	-12.2823
Rond	-12.2826
17-16	-12.2829
▁(4,5	-12.2831
▁tumornecrose	-12.2833
▁stolsels	-12.2834
▁ingeschat	-12.2836
▁sectie	-12.2843
slijmnapepitheel	-12.2846
▁OM	-12.2853
▁Analyse	-12.2856
▁spina	-12.2869
tak	-12.2871
▁onderscheiden	-12.2874
▁3,4	-12.2877
▁Regressie	-12.2889
▁graderings	-12.2889
18-03	-12.2892
cardiale	-12.2895
426	-12.2896
smo	-12.2896
gs	-12.2897
uren	-12.2898
▁vulvair	-12.29
▁ovariele	-12.2901
▁cast	-12.2903
17-15	-12.2914
uwelijk	-12.2915
HIX	-12.2917
▁villeu	-12.2921
▁middermal	-12.2924
▁decompensati	-12.2926
843	-12.2929
ogen	-12.2945
▁bullae	-12.2946
▁mucosaal	-12.295
▁dermat	-12.2966
abc	-12.2968
▁Incisie	-12.2983
184	-12.2988
▁divers	-12.2996
▁61	-12.3012
20-20	-12.3014
13-26	-12.3014
▁banal	-12.3015
▁ronden	-12.3023
-01-2015	-12.3025
▁08-08-	-12.3034
Levernaaldbiopt	-12.3038
957	-12.304
074	-12.3043
038	-12.3046
559	-12.3051
▁thyroidectomie	-12.3056
776	-12.3059
▁instabiel	-12.3063
]01-12-	-12.3063
ZON	-12.3065
967	-12.307
behoud	-12.3077
sdu	-12.308
15-09	-12.308
culi	-12.3082
8/*******/	-12.3084
▁col	-12.3093
▁membraan	-12.3095
MS	-12.3107
▁20%)	-12.3109
▁mat	-12.3112
839	-12.3113
23-15	-12.3114
▁genamplificatie	-12.3119
vlakken	-12.3119
▁tubulus	-12.3122
-06-13/*******/	-12.3124
376	-12.3127
058	-12.313
Bowenoid	-12.313
884	-12.3131
2574	-12.3131
593	-12.3131
▁huidweefsel	-12.3138
▁bovengenoemd	-12.314
ijkt	-12.3141
zeker	-12.3143
renale	-12.3149
▁(19/	-12.3151
▁leiomyomateu	-12.3154
23-13	-12.3161
-05-2021:	-12.3166
▁1.8	-12.3169
360	-12.3172
-04-17:	-12.3194
zwaar	-12.3199
276	-12.32
tosis	-12.3206
597	-12.3214
19-05	-12.3217
340	-12.3223
tief	-12.3223
ander	-12.3227
(1-2	-12.3233
CONC	-12.3236
19-32	-12.3248
-09-15:	-12.3256
▁intramammair	-12.3259
ondom	-12.3262
blastair	-12.327
endocervixpoliep	-12.3273
▁0.7	-12.3275
394	-12.3276
Test	-12.3296
]10-10-1	-12.3303
▁DA	-12.3303
emisch	-12.3305
▁cerebra	-12.332
▁dis	-12.3321
geperforeerde	-12.333
▁perivilleu	-12.3334
elproliferatie	-12.3337
▁intravasculair	-12.3338
inclusie	-12.3345
362	-12.3354
689	-12.336
xtraprostatisch	-12.3364
thyreoid	-12.3371
▁Duct	-12.3384
blasten	-12.339
955	-12.3398
-08-14:	-12.3403
standig	-12.3405
▁Pr	-12.3417
rose	-12.3419
ficiA	-12.342
chronisch	-12.3426
3,4	-12.3428
13-05	-12.3429
▁vl	-12.3429
0);	-12.3436
▁Boweno	-12.3441
verlies	-12.3446
lak	-12.3454
gegeven	-12.3471
pancreas	-12.3471
submuceus	-12.3475
myo	-12.3479
med	-12.3479
▁ductepitheel	-12.3482
vrije	-12.3484
▁jong	-12.3495
659	-12.3504
-02-2015	-12.3507
variant	-12.3512
986	-12.3513
▁samengesteld	-12.3514
▁schimmelinfect	-12.3516
15-13	-12.3516
Leverbiopt	-12.3516
▁eosinofiel	-12.3519
▁07-01-	-12.3521
Duodenum	-12.3521
reductie	-12.3523
zelf	-12.3525
abdominaal	-12.3525
Analyse	-12.3526
stapeling	-12.3526
draad	-12.3527
Oud	-12.3527
concentratie	-12.3528
Lab	-12.3529
angulus	-12.3529
myelo	-12.3529
Extern	-12.3529
samen	-12.3529
acantholytisch	-12.3529
follikel	-12.353
schildklierkwab	-12.353
Morfologisch	-12.353
aandoening	-12.353
buiten	-12.353
EORTC	-12.353
aanwezig	-12.353
Bloom	-12.353
sternum	-12.353
achterhoofd	-12.353
Snijranden	-12.3531
bevestigd	-12.3531
BRCA	-12.3531
zwak	-12.3531
focus	-12.3531
focale	-12.3531
lymfocytose	-12.3531
evident	-12.3531
vermeld	-12.3531
hoofdhuid	-12.3531
thoraxwand	-12.3531
auto	-12.3531
lichenoide	-12.3531
Alle	-12.3532
ischemie	-12.3532
Representatief	-12.3533
proximale	-12.3533
bestaand	-12.3534
nasolabiaal	-12.3534
paramediaan	-12.3534
small	-12.3535
MZH	-12.3535
waarbij	-12.3536
linkeronderarm	-12.3538
▁gerangschikt	-12.3541
kanaal	-12.3542
rechterbovenarm	-12.3542
]12-12-1	-12.3546
ernstige	-12.3547
▁intestinal	-12.3547
▁Num	-12.3551
▁18-04-	-12.3556
-10-2020:	-12.3558
Leverbiopten	-12.356
Over	-12.3566
uitgebreide	-12.3567
15-16	-12.357
bei	-12.3575
▁granulocyt	-12.3584
▁mantelcel	-12.3586
mtrent	-12.3591
▁parasit	-12.3596
20-07	-12.3599
dys	-12.36
▁werk	-12.3601
▁methylatie	-12.3604
samengestelde	-12.3605
641	-12.3611
▁schimmeldraad	-12.3613
▁liesklier	-12.3617
▁2015)	-12.3625
nav	-12.3625
▁17-01-	-12.3627
The	-12.3628
ctasie	-12.3628
iare	-12.3629
▁necro	-12.3629
komst	-12.3629
▁paraffinecoupe	-12.3631
▁longembolie	-12.3632
]29-01-1	-12.3634
15-06	-12.3634
▁extr	-12.3638
erminderd	-12.3643
arcinoom	-12.3643
▁subcarina	-12.3644
arotidectomie	-12.3644
▁podocyt	-12.3646
829	-12.3647
▁potentie	-12.3647
▁karakteristieke	-12.3648
▁Douglas	-12.3648
▁monoto	-12.3649
▁verheven	-12.3649
ormocellulair	-12.365
▁betrokken	-12.365
▁inactiv	-12.365
alanx	-12.365
▁haemangio	-12.365
lichaampjes	-12.365
▁dubbel	-12.365
▁myoma	-12.365
Epicrise	-12.365
Johnson	-12.365
PMID	-12.365
icopathologisch	-12.365
ompliceerd	-12.365
patchy	-12.365
▁CHEK	-12.365
▁absolu	-12.365
▁atroficans	-12.365
▁choriaalplaat	-12.365
▁clavus	-12.365
▁gekweekt	-12.365
▁hernia	-12.365
Aangepast	-12.365
TRATIE	-12.365
Therapeutisch	-12.365
afbreking	-12.365
calcificerend	-12.365
correctie	-12.365
endothelioom	-12.365
erkrijgingswijze	-12.365
extramedullair	-12.365
gekerfde	-12.365
plastiek	-12.365
–	-12.365
▁4+5=9	-12.365
▁DICER	-12.365
▁EPICRISE	-12.365
▁Epidermis	-12.365
▁Gecombineerd	-12.365
▁Gingiva	-12.365
▁Glandula	-12.365
▁Kaposi	-12.365
▁PLEVA	-12.365
▁PTLD	-12.365
▁Paneth	-12.365
▁abcedering	-12.365
▁albuginea	-12.365
▁anulare	-12.365
▁bauhini	-12.365
▁beduidend	-12.365
▁celreeksen	-12.365
▁coagulatie	-12.365
▁cordis	-12.365
▁cylindroom	-12.365
▁demodex	-12.365
▁effluvium	-12.365
▁emfyseem	-12.365
▁gemelli	-12.365
▁getypeerd	-12.365
▁hyalinisatie	-12.365
▁intramuraal	-12.365
▁lichteruptie	-12.365
▁loslating	-12.365
▁lymklier	-12.365
▁meatus	-12.365
▁nevocellularis	-12.365
▁ontaarding	-12.365
▁onveranderd	-12.365
▁periferie	-12.365
▁purpuri	-12.365
▁pyelonefritis	-12.365
▁reserve	-12.365
▁solutio	-12.365
▁spiradenoom	-12.365
▁striatus	-12.365
▁therapy	-12.365
▁traanklier	-12.365
▁uiteengevallen	-12.365
▁uitgerijpt	-12.365
▁verrukeus	-12.365
▁zeldzaam	-12.365
Ileocaecaal	-12.365
ruba	-12.365
▁Irradicaal	-12.365
▁NKX	-12.365
▁cellijnen	-12.365
▁presacraal	-12.365
▁seromucineu	-12.365
ecrospermie	-12.365
▁omentectomie	-12.365
▁agar	-12.365
▁renalis	-12.365
verhouding	-12.365
preventief	-12.365
▁artrose	-12.365
▁drainage	-12.365
▁neuswal	-12.365
▁CAVE	-12.365
LYMF	-12.365
▁AIH	-12.365
▁accuminatum	-12.365
▁areata	-12.365
▁harde	-12.365
▁stadiering	-12.365
▁polyklonale	-12.365
▁behandelaar	-12.365
▁fibromatosis	-12.365
▁retroplacentair	-12.365
▁systeemziekte	-12.365
▁hormoongebruik	-12.365
▁pendulum	-12.365
▁transitioneel	-12.365
▁tubulusnecrose	-12.365
ALCL	-12.365
▁Translocatie	-12.365
▁geautoriseerd	-12.365
▁buccaal	-12.3651
_005228.3	-12.3651
▁agg	-12.3651
▁ongewone	-12.3651
▁TRG	-12.3651
▁cerebrum	-12.3651
▁ringsideroblast	-12.3651
probab	-12.3651
▁blaarziekte	-12.3651
▁collageenrijk	-12.3651
▁Para	-12.3651
▁agressief	-12.3651
▁aanbev	-12.3651
▁Deppreparaten	-12.3651
▁perfor	-12.3651
▁pretracheaal	-12.3651
jz	-12.3651
▁idem	-12.3651
▁koilocyto	-12.3651
▁reaktief	-12.3651
ROI	-12.3651
Naschrift	-12.3651
▁pigmentverlies	-12.3651
▁melanomenpanel	-12.3652
▁sana	-12.3652
▁trombusvorming	-12.3652
▁abcesvorming	-12.3652
▁granuloompje	-12.3652
SCLC	-12.3652
load	-12.3652
sneldiagnostiek	-12.3652
lectronen	-12.3652
▁meegereseceerd	-12.3652
▁reperfusie	-12.3653
▁EEM	-12.3653
▁koper	-12.3653
▁fistelende	-12.3653
19-09	-12.3654
▁hersenweefsel	-12.3654
▁dermo	-12.3654
▁discordantie	-12.3654
ncompleet	-12.3654
▁varierend	-12.3655
▁fibroadipeu	-12.3655
▁Antrumtype	-12.3655
▁pieken	-12.3656
boog	-12.3657
▁dermatomyositis	-12.3657
▁impetigo	-12.3657
▁betrouwbaarheid	-12.3657
kiemcelneoplasie	-12.3658
▁10-11	-12.3658
▁nesten	-12.3658
▁Corpustype	-12.3658
toestand	-12.3659
▁lopend	-12.3661
-09-18:	-12.3661
▁32%	-12.3661
▁leukocyten	-12.3661
ALL	-12.3662
▁vervalt	-12.3662
▁commissie	-12.3663
▁ATP	-12.3663
▁wijziging	-12.3663
▁fusiegen	-12.3664
▁diagnosis	-12.3665
▁Nabothi	-12.3665
▁palmair	-12.3668
▁ontstekingsg	-12.3668
▁partikels	-12.3668
▁trials	-12.3675
▁linkerpols	-12.3676
▁cirro	-12.3679
▁MELTUMP	-12.368
▁SAMPUS	-12.368
▁STUMP	-12.368
▁oncoloog	-12.368
▁Hematologie	-12.368
▁merkelcel	-12.368
▁antehelix	-12.368
▁(1/1).	-12.3681
845	-12.3681
pylorisch	-12.3681
▁heterogen	-12.3682
▁satelliethaard	-12.3682
akjes	-12.3683
▁capsul	-12.3684
▁PAX	-12.3687
▁Lis	-12.3688
▁Postmorta	-12.3692
▁Sporadisch	-12.3692
▁dood	-12.3692
▁Immunologie	-12.3693
▁vervaardigd	-12.3693
▁markeringshecht	-12.3693
▁rechterbeen	-12.3696
-03-21:	-12.37
▁pipellebiopt	-12.3702
kleurbaar	-12.3703
▁termijn	-12.3704
incl	-12.3705
ZE	-12.3707
▁IRF	-12.3707
▁dystrofisch	-12.371
▁0.9	-12.371
19-50	-12.3711
98%	-12.3719
-05-14/*******/	-12.372
blatio	-12.3724
iz	-12.3727
▁8,5	-12.3727
▁schouw	-12.3728
2017/0	-12.3731
▁Negatie	-12.3732
▁MOHS	-12.374
▁desmo	-12.3741
▁opening	-12.3743
uitstrijkjes	-12.3745
▁Ev	-12.375
▁11,15)	-12.3752
▁inductie	-12.3754
angioom	-12.3756
poliepectomie	-12.3761
7%)	-12.3763
▁gegaan	-12.3763
▁gastric	-12.3768
emurkop	-12.3772
▁draad	-12.3776
▁OK	-12.3777
▁Oud	-12.3778
2-2021	-12.3779
▁spongios	-12.3779
▁Longen	-12.378
▁bovenop	-12.3785
17-13	-12.3788
▁Granulomateu	-12.3791
▁versch	-12.3792
▁Thy	-12.3794
chrom	-12.38
alwaar	-12.3809
▁kra	-12.3816
▁stomp	-12.3824
▁forme	-12.3824
gastritis	-12.3831
geA	-12.3844
17-21	-12.3854
▁1/1	-12.3861
▁Microscopie	-12.3862
vage	-12.3877
▁Hooggradig	-12.3885
009	-12.3887
▁Pn	-12.3892
285	-12.3893
▁vacu	-12.3894
▁heen	-12.3894
veel	-12.3897
190	-12.3901
-03-16/	-12.3904
▁08-03-20	-12.3927
▁Marges	-12.3927
ellient	-12.3931
6,7	-12.3952
236	-12.3955
589	-12.3959
▁(15/	-12.3962
▁geperforeerd	-12.3981
475	-12.3982
991	-12.3983
▁sta	-12.3985
ndige	-12.3995
▁chole	-12.4007
-04-2022:	-12.4013
▁pH	-12.4014
▁SigmoA	-12.4038
▁stof	-12.4041
-05-2019:	-12.4044
temporal	-12.4044
▁Gla	-12.4047
laryngea	-12.4057
▁uitstrijken	-12.4057
haardjes	-12.4059
13-13	-12.406
▁aanliggend	-12.4063
8-11-13/*******/	-12.4068
-7-2019	-12.407
-12-2013	-12.4071
249	-12.4075
coronairarterien	-12.4077
598	-12.408
▁(0/3	-12.4084
▁ReA	-12.4094
742	-12.4094
ha	-12.4096
nucle	-12.4097
▁dy	-12.4104
752	-12.4107
gelocaliseerde	-12.411
ack	-12.4115
Lymfklierbiopt	-12.412
2,5	-12.413
▁(60	-12.414
itspraak	-12.4154
22-43	-12.4157
297	-12.4162
19-14	-12.4164
22-25	-12.4177
cerebraal	-12.4186
982	-12.4187
Mx	-12.4188
706	-12.4191
oppervlakkigheid	-12.4197
-05-21:	-12.4202
15-30	-12.4203
]14-01-1	-12.4212
knieholte	-12.423
20-22	-12.4235
ndri	-12.4238
21-23	-12.425
17-52	-12.4252
▁29-06-20	-12.4263
944	-12.4267
816	-12.4268
embraanexpressie	-12.427
962	-12.4274
977	-12.4277
▁ontst	-12.4281
complexe	-12.4288
ehouden	-12.4291
▁05-07-	-12.4296
840	-12.4298
opie	-12.4298
0,6	-12.4304
ature	-12.4309
stansbiopt	-12.4313
583	-12.4313
ymo	-12.4314
▁MAR	-12.4335
▁84	-12.4337
13-06	-12.4347
bovenkwab	-12.4348
22-07	-12.438
YM	-12.438
best	-12.4381
2-11	-12.4391
psi	-12.4396
14-14	-12.4401
▁are	-12.4402
-08-2019:	-12.4403
▁Cho	-12.4406
▁immunofluores	-12.4413
ransthoracaal	-12.4414
427	-12.4414
erb	-12.4425
]05-02-1	-12.4429
▁Lymfeklierbiopt	-12.444
▁huidfragmentje	-12.4446
13-02	-12.4457
SPEC	-12.4457
pilaire	-12.4459
▁eczema	-12.4459
brek	-12.4462
▁07-12-	-12.4475
cisiebiopsie	-12.4487
bris	-12.4492
60)	-12.4509
▁gastrointestina	-12.4518
sectie	-12.452
iliaca	-12.4524
duct	-12.4524
3,7,15,18-21)	-12.4525
netto	-12.4525
Mammabiopt	-12.4526
gegaan	-12.4527
Huidstans	-12.4527
IGH	-12.4527
dominant	-12.4527
typisch	-12.4527
precie	-12.4527
Links	-12.4528
ARAF	-12.4528
inkt	-12.4528
COMPONENT	-12.4529
membraneuze	-12.4529
Fragment	-12.4529
gepigmenteerd	-12.4529
ectocervicale	-12.4529
struma	-12.4529
ingeblokt	-12.4529
▁bowen	-12.453
clavicula	-12.453
promotor	-12.453
BIRADS	-12.453
bulleus	-12.453
Richardson	-12.453
hechting	-12.453
klassiek	-12.453
Benigne	-12.453
frequentie	-12.453
gevonden	-12.453
gedetecteerd	-12.4531
Derhalve	-12.4531
Echogeleid	-12.4531
pleuravocht	-12.4531
urotheelcel	-12.4531
plaatselijk	-12.4531
Urine	-12.4531
volgt	-12.4531
sprake	-12.4531
granulocyten	-12.4532
ureter	-12.4533
NOS	-12.4534
Huidstansbiopt	-12.4535
geruptureerde	-12.4537
presternaal	-12.4539
rechterzijde	-12.4541
vier	-12.4545
waarin	-12.4546
Kan	-12.4549
▁leiomyoma	-12.4549
varianten	-12.4551
▁zenuwschede	-12.4552
kb	-12.4553
doorgroei	-12.4557
22-22	-12.4557
239	-12.4565
20-21	-12.4566
beet	-12.4566
▁HUI	-12.4567
ineuze	-12.4569
voorste	-12.4569
ated	-12.4572
▁atypi	-12.4573
14-9	-12.4578
16-17	-12.4579
795	-12.458
▁29-04-	-12.4582
diagnosen	-12.4586
wat	-12.4587
dVIN	-12.4591
964	-12.4591
strijk	-12.4592
biliaire	-12.4599
twee	-12.4601
capsula	-12.4606
riaal	-12.4609
opmerkingen	-12.4612
toxisch	-12.4617
662	-12.4619
stant	-12.4621
▁ontvang	-12.4622
-03-2020:	-12.4629
▁lymffollikel	-12.4629
▁chromosom	-12.4629
▁stuk	-12.4631
▁neg	-12.4633
▁celgroep	-12.4636
▁incisie	-12.4638
STAT	-12.4641
▁kiemcel	-12.4642
▁Latera	-12.4644
etreffende	-12.4644
▁vari	-12.4646
▁PPP	-12.4647
Representatie	-12.4647
ilocytair	-12.4647
eucocyten	-12.4647
▁Differenti	-12.4648
nodu	-12.4648
eferentie	-12.4648
▁aanwijz	-12.4648
fwezigheid	-12.4649
trikt	-12.4649
▁Stans	-12.465
▁Lymfocyt	-12.465
classifi	-12.465
Motilit	-12.465
,8,12,1	-12.465
▁cocco	-12.465
▁geevalueerd	-12.465
▁ontkalking	-12.465
▁glandulo	-12.465
▁onychomycos	-12.465
Brunt	-12.465
CIRCUMFER	-12.465
Cycline	-12.465
LabPON	-12.465
MammaPrint	-12.465
circumcisie	-12.465
exsudaat	-12.465
fibrillair	-12.465
grepen	-12.465
gunstig	-12.465
nummulair	-12.465
psoas	-12.465
schraapsel	-12.465
▁Beginnend	-12.465
▁Folliculair	-12.465
▁Marker	-12.465
▁Peyer	-12.465
▁Polypeu	-12.465
▁abdominalis	-12.465
▁achillespees	-12.465
▁actinomyces	-12.465
▁berusten	-12.465
▁cardiomyocyten	-12.465
▁folliculorum	-12.465
▁fornix	-12.465
▁genoeg	-12.465
▁herbiopteren	-12.465
▁inklemming	-12.465
▁intracornea	-12.465
▁klievingsvlak	-12.465
▁malignancy	-12.465
▁monotypie	-12.465
▁mucositis	-12.465
▁nascens	-12.465
▁nodulus	-12.465
▁ongewoon	-12.465
▁partijen	-12.465
▁plantaardig	-12.465
▁plasmacytose	-12.465
▁plomp	-12.465
▁psoriatiform	-12.465
▁restrictie	-12.465
▁specificatie	-12.465
▁spierbundel	-12.465
▁suprabasale	-12.465
▁torsio	-12.465
▁trombocytemie	-12.465
▁trombocytose	-12.465
▁verstreken	-12.465
▁voeren	-12.465
Stolsel	-12.465
▁LINKS	-12.465
▁Mirena	-12.465
▁bleek	-12.465
▁geteld	-12.465
▁hypoplastisch	-12.465
▁intervillositis	-12.465
▁kiemcentra	-12.465
▁nodaal	-12.465
▁rontgen	-12.465
▁supraglottisch	-12.465
▁trombopenie	-12.465
NEX	-12.465
▁Kweldam	-12.465
▁afgekapseld	-12.465
▁bcl	-12.465
▁ectatisch	-12.465
▁integra	-12.465
▁sfeno	-12.465
ALIS	-12.465
▁chromo	-12.465
▁pulmonalisklep	-12.465
stapelingsziekte	-12.465
▁FSH	-12.465
▁acellulair	-12.465
▁drain	-12.465
▁formaline	-12.465
▁hoornlamellen	-12.465
▁ileocoecaalhoek	-12.465
▁opgetreden	-12.465
▁Epiderma	-12.465
▁genomisch	-12.465
▁pulmonalis	-12.465
GATA	-12.465
▁melaninepigment	-12.465
TNO	-12.465
▁pangastritis	-12.465
▁verkrijgen	-12.465
▁Onverdacht	-12.465
▁eruptie	-12.465
▁telogeen	-12.465
▁verdeeld	-12.465
PROX	-12.465
▁intradermalis	-12.465
▁arrest	-12.465
-10-23:	-12.465
▁wind	-12.465
ncert	-12.465
▁Midden	-12.465
▁glanspenis	-12.465
▁pectoralis	-12.465
shy	-12.465
.2235	-12.465
▁codeletie	-12.4651
▁zinvol	-12.4651
▁ulcerende	-12.4651
▁gestatione	-12.4651
▁buisstructuren	-12.4651
▁xanthogranuloom	-12.4651
FORM	-12.4651
Identi	-12.4651
▁urticarieel	-12.4651
▁cartilagineu	-12.4651
▁Alth	-12.4651
▁onbe	-12.4651
▁0/3	-12.4651
ISIE	-12.4651
▁warm	-12.4651
▁eerstgenoemde	-12.4651
▁beentumoren	-12.4651
▁pustulose	-12.4651
parenchymateus	-12.4651
▁(1,2,	-12.4651
_000038	-12.4652
▁slow	-12.4652
▁tuberculosis	-12.4652
▁Fibreu	-12.4652
▁lisnecrose	-12.4652
▁blaasperitoneum	-12.4652
▁PartiA	-12.4652
▁TAM	-12.4652
▁Alk	-12.4652
▁tumorregressie	-12.4653
▁subpleuraal	-12.4653
▁fibrolipoom	-12.4653
ILA	-12.4653
▁(99%)	-12.4654
class	-12.4654
▁nagekomen	-12.4654
▁voldoe	-12.4654
nfectieuze	-12.4654
]28-07-	-12.4654
▁organoid	-12.4655
▁immunotypering	-12.4655
▁atypia	-12.4655
▁5,0	-12.4656
▁pore	-12.4656
roken	-12.4656
1549	-12.4656
Laag	-12.4656
Microsatelliet	-12.4656
▁doorheen	-12.4657
▁partus	-12.4657
▁peroperatief	-12.4657
▁hemosiderine	-12.4658
▁rabdomyosarcoom	-12.4658
▁antracosilicos	-12.4658
▁Giardiasis	-12.4658
▁jugularis	-12.4658
▁plekken	-12.4658
▁(0/6)	-12.4658
bene	-12.4658
▁buikhuid	-12.4658
naevuscellularis	-12.4659
▁<<	-12.4659
darm	-12.466
▁cystica	-12.4661
ohs	-12.4661
▁lan	-12.4662
▁corpora	-12.4662
▁<10%	-12.4662
pool	-12.4662
▁neusflank	-12.4663
Voorlopige	-12.4663
oscopie	-12.4663
▁vetcellen	-12.4663
primaire	-12.4664
▁EX	-12.4665
infundibulaire	-12.4668
▁endotheliale	-12.4668
ESE	-12.4669
▁sarcoid	-12.4669
corticaal	-12.467
▁antilichamen	-12.467
▁leiomyomatosis	-12.467
▁Lichenoide	-12.4671
▁Hypertrofisch	-12.4675
▁suboptima	-12.4677
foo	-12.4677
18-017	-12.4678
▁rechterkuit	-12.4679
▁melanoompanel	-12.468
perisinusoidale	-12.468
▁linkervoet	-12.4681
▁invade	-12.4681
1624	-12.4681
▁bovenrand	-12.4682
▁chorionitis	-12.4684
▁kweek	-12.4684
▁Eerder	-12.4684
▁enteropathie	-12.4684
▁tumorstroma	-12.4685
351	-12.4687
▁2007	-12.4688
sindex	-12.4689
▁0,0	-12.4691
preauriculair	-12.4692
6-2023	-12.4692
▁neutrofielen	-12.4693
▁paar	-12.4694
▁Barret	-12.4696
▁vreemd	-12.4697
▁hypofarynx	-12.4697
▁intermammair	-12.4697
/7/20	-12.4698
▁botinvasie	-12.4698
▁rechterscapula	-12.47
Overall	-12.47
▁monocytose	-12.471
▁Mycobacteri	-12.4712
▁rechterhandrug	-12.4712
bst	-12.4714
▁afgeronde	-12.4714
nodal	-12.4715
▁Kit	-12.4717
ependymoom	-12.4721
ating	-12.4722
▁cardiaal	-12.4725
BU	-12.4726
▁tumorbodem	-12.4726
▁eczeembeeld	-12.4726
▁dak	-12.4726
▁wigexcisies	-12.4727
▁MPN	-12.4734
16-22	-12.4735
▁doorsnedes	-12.4735
1.0	-12.4735
▁Percentage	-12.4737
▁grijs	-12.4737
erig	-12.4737
]08-07-	-12.4738
15-03	-12.4741
VAT	-12.4749
▁darmbiopt	-12.4751
835	-12.4753
myofibroblastair	-12.4753
intron	-12.4754
tibiaal	-12.4755
producten	-12.4756
▁paraffineblokje	-12.4761
binnenkant	-12.4762
-07-2016:	-12.4765
▁elektronendicht	-12.4765
▁(2,4	-12.4766
▁streng	-12.4768
▁gerangschikte	-12.4772
Asn	-12.4772
▁recht	-12.4773
_006	-12.4775
-03-19:	-12.4776
▁reeksen	-12.4776
▁3,7,15,18-21)	-12.4777
▁syndrom	-12.4782
▁netto	-12.4782
▁Naald	-12.4788
▁28-09-	-12.4799
echoge	-12.4802
▁epidermoid	-12.4805
oncologie	-12.4805
▁placentaresten	-12.4805
]31-10-1	-12.4806
nderingen	-12.4809
oorgroei	-12.4814
▁vlakken	-12.4817
▁falen	-12.4818
772	-12.4824
▁KE	-12.4827
013	-12.483
▁uren	-12.4839
▁vermelding	-12.484
15-25	-12.484
]30-06-	-12.4842
638	-12.4843
▁SS	-12.4843
15-9	-12.4844
243	-12.4848
]25-07-	-12.4851
▁ani	-12.4852
tinib	-12.4858
stromal	-12.4858
-08-19:	-12.4859
▁uiter	-12.4862
▁>50%	-12.4865
▁uVIN	-12.4868
▁Cervixexcisie	-12.4872
▁digital	-12.4873
remmergebruik	-12.488
779	-12.488
21-29	-12.4883
ultifocaal	-12.4883
▁Steel	-12.4891
]29-10-	-12.4895
023	-12.4904
▁misse	-12.4905
▁2.5	-12.4906
]25-09-1	-12.4917
mandibula	-12.4918
▁95%)	-12.4924
]25-10-	-12.4924
ink	-12.4924
355	-12.4934
]02-04-1	-12.4936
beoordeeld	-12.4937
868	-12.4938
12-7	-12.494
136	-12.4943
tien	-12.495
▁Ductu	-12.4953
▁13-7	-12.4954
23-35	-12.4967
-11-2022:	-12.4975
247	-12.4978
ligodendroglioom	-12.4982
▁stagering	-12.4986
]17-01-1	-12.4996
393	-12.5004
20-9	-12.5011
203	-12.5014
562	-12.5034
aantasting	-12.5047
sparen	-12.505
oth	-12.5053
▁intrapulmona	-12.5061
404	-12.5066
▁08-04-	-12.5079
Resulta	-12.5088
▁51	-12.5098
14-15	-12.5111
16-27	-12.5118
-11-19:	-12.5129
▁Cristabeenmerg	-12.5138
▁04-06-	-12.5145
▁rheumat	-12.5147
nduidelijk	-12.5148
-04-2016:	-12.516
▁MEDI	-12.5173
-12-2018	-12.519
▁15-04-	-12.5214
▁2010	-12.5219
▁06-04-20	-12.5219
-12-17:	-12.522
-11-2017:	-12.5229
antrumtype	-12.523
890	-12.5239
]22-03-1	-12.5253
protonpompremmer	-12.5253
749	-12.5259
]08-04-1	-12.5262
tatie	-12.5269
724	-12.5274
541	-12.5291
028	-12.5299
(7,1	-12.5303
16-07	-12.5309
▁24-01-	-12.5321
edebeoordeeld	-12.5322
▁leiomyo	-12.5336
21-25	-12.5339
▁kale	-12.5355
hil	-12.536
16-15	-12.5364
832	-12.5365
-05-2023:	-12.5374
KM	-12.5383
]25-08-1	-12.5384
1,5	-12.5392
▁Vaginabiopt	-12.5396
▁0.1	-12.54
fibrinedepositie	-12.5428
Consultcoupe	-12.5429
999	-12.5435
fundi	-12.5439
POL	-12.5439
oordeel	-12.5443
▁fimbri	-12.5464
wegen	-12.5474
587	-12.5493
centieonderzoek	-12.5497
896	-12.55
gemarkeerde	-12.5501
▁mammanaaldbiopt	-12.5504
▁Epitheel	-12.5506
17-50	-12.5509
-05-18:	-12.5512
orale	-12.5514
Cardi	-12.5515
IDC	-12.5516
▁regiona	-12.5523
▁01-03-	-12.5525
643	-12.5533
▁kliertje	-12.5538
atypisch	-12.5543
ervicale	-12.5545
entaal	-12.5545
▁Anders	-12.5546
668	-12.5549
llen	-12.556
bekende	-12.5562
oedeem	-12.5574
hav	-12.5578
schildklier	-12.558
03-23/	-12.5583
▁Granuloma	-12.559
▁botombouw	-12.5591
folliculair	-12.5597
pylori	-12.5601
chemisch	-12.5602
-07-18:	-12.5607
▁11-12-20	-12.5608
klep	-12.561
077	-12.5614
vasculair	-12.5615
patient	-12.5624
848	-12.5627
protocol	-12.5631
infiltr	-12.5633
11,15)	-12.5636
445	-12.5637
basaloid	-12.5637
stuwing	-12.5638
ovarieel	-12.5638
EXTRA	-12.5639
rood	-12.5639
Risk	-12.5639
Rechts	-12.5639
IFTA	-12.5639
structuur	-12.5639
biologisch	-12.5639
insertie	-12.5639
Atypische	-12.564
perineum	-12.564
mondhoek	-12.564
Incisiebiopt	-12.564
fossa	-12.564
amplificatie	-12.5641
lokatie	-12.5641
pylorus	-12.5641
Hemicolectomie	-12.5641
Bericht	-12.5641
JAK	-12.5641
usual	-12.5641
secretoir	-12.5641
tonsil	-12.5641
dorsum	-12.5641
glandula	-12.5641
hoorn	-12.5641
compatibel	-12.5641
Radicaliteit	-12.5641
AJCC	-12.5641
Medisch	-12.5642
duim	-12.5642
negatieve	-12.5642
musculus	-12.5642
Rectum	-12.5642
Uterus	-12.5642
multipel	-12.5642
endocervix	-12.5642
lastig	-12.5642
respons	-12.5642
slokdarm	-12.5642
Shave	-12.5642
lymfeklier	-12.5642
beoordeelbaar	-12.5642
IBD	-12.5642
langer	-12.5643
buikwand	-12.5644
Rechter	-12.5645
betreft	-12.5647
verminderd	-12.5649
22-18	-12.5651
littekenweefsel	-12.5652
▁gestuwd	-12.5654
cytair	-12.5655
Breslowdikte	-12.5656
plasmacellulair	-12.5656
▁Nieuw	-12.5657
▁Chronisch	-12.5657
minimal	-12.5657
perifeer	-12.5659
urine	-12.566
BCL	-12.566
tumorvrij	-12.566
Maagslijmvlies	-12.5666
cisie	-12.5669
lair	-12.5673
filtraat	-12.5681
fhankelijk	-12.5681
indien	-12.5684
afd	-12.5687
AIS	-12.5687
ASH	-12.5688
▁(<1	-12.5689
preparaatje	-12.569
▁<10	-12.5692
ncreaticobiliair	-12.5692
Wel	-12.5692
▁embryo	-12.5694
ulceratie	-12.57
▁oncocytair	-12.5708
▁seborro	-12.5709
endocapillair	-12.5709
▁LAM	-12.5715
▁Was	-12.5715
emming	-12.5716
------------	-12.5721
Slijmvlies	-12.5725
▁cardio	-12.5729
resectieranden	-12.5734
treden	-12.5737
▁bundel	-12.574
▁klonaliteit	-12.574
▁nestje	-12.5741
-01-23	-12.5742
897	-12.5742
▁Naboth	-12.5743
igniteit	-12.5743
▁welk	-12.5743
▁Snijrand	-12.5744
▁spitz	-12.5745
▁STR	-12.575
]08-08-1	-12.5751
glottis	-12.5752
▁cycl	-12.5753
▁sessi	-12.5753
▁Ileumbiopt	-12.5754
polym	-12.5754
▁ulcer	-12.5755
▁haemato	-12.5757
▁System	-12.5757
gezonde	-12.5757
wicht	-12.5758
▁vries	-12.5759
enduidig	-12.576
otiel	-12.576
vertuigend	-12.5761
▁erythro	-12.5761
▁zuur	-12.5761
▁normo	-12.5761
▁Myo	-12.5761
coiling	-12.5761
condyl	-12.5761
▁kiembaan	-12.5761
EURA	-12.5761
-05-22:	-12.5761
▁staaf	-12.5761
klonaal	-12.5761
tuximab	-12.5761
Retroperitonea	-12.5761
▁prostate	-12.5761
compartiment	-12.5761
▁Suboptima	-12.5761
▁EXTERN	-12.5761
▁KIAA	-12.5761
▁cirrhose	-12.5761
▁contour	-12.5761
▁culicosis	-12.5761
▁milium	-12.5761
▁morphea	-12.5761
,9,10,11,	-12.5761
15,16);	-12.5761
Auramine	-12.5761
Oxford	-12.5761
bilspleet	-12.5761
correleer	-12.5761
drempel	-12.5761
peroxidase	-12.5761
pilomatrixoma	-12.5761
transitiezone	-12.5761
▁4-8,11)	-12.5761
▁Adnectomie	-12.5761
▁Apex	-12.5761
▁Atrofisch	-12.5761
▁Complete	-12.5761
▁Dysplastisch	-12.5761
▁FESS	-12.5761
▁Fallopii	-12.5761
▁Graves	-12.5761
▁Millin	-12.5761
▁Neusbijholte	-12.5761
▁Omgevend	-12.5761
▁Prurigo	-12.5761
▁Psoriasi	-12.5761
▁Schonlein	-12.5761
▁Secretoir	-12.5761
▁Teratospermie	-12.5761
▁VISCERALIS	-12.5761
▁aangeraden	-12.5761
▁abortion	-12.5761
▁afstoting	-12.5761
▁besmetting	-12.5761
▁bruin	-12.5761
▁budding	-12.5761
▁caudo	-12.5761
▁chondroom	-12.5761
▁cryptdistorsie	-12.5761
▁diathermisch	-12.5761
▁doorbraak	-12.5761
▁elleboogsplooi	-12.5761
▁epiploica	-12.5761
▁georienteerd	-12.5761
▁granulopoese	-12.5761
▁haarschacht	-12.5761
▁heftig	-12.5761
▁helices	-12.5761
▁hoornschilfers	-12.5761
▁horizontalis	-12.5761
▁hydatide	-12.5761
▁involutie	-12.5761
▁levend	-12.5761
▁malignteit	-12.5761
▁mesenterica	-12.5761
▁nabothi	-12.5761
▁nuchae	-12.5761
▁parapemphigus	-12.5761
▁pectoraal	-12.5761
▁plasmacytoid	-12.5761
▁schaamlip	-12.5761
▁seminiferi	-12.5761
▁spiervezels	-12.5761
▁transgender	-12.5761
▁vacuolisatie	-12.5761
▁verdwenen	-12.5761
▁vimentine	-12.5761
▁vlekkig	-12.5761
▁̄soleerd	-12.5761
]05-07-16/	-12.5761
liculitis	-12.5761
▁Let	-12.5761
▁Mediastinum	-12.5761
▁body	-12.5761
▁geconsulteerd	-12.5761
▁laparoscopi	-12.5761
▁mozai	-12.5761
▁spits	-12.5761
▁weggebiopteerd	-12.5761
Huidexcochleatie	-12.5761
▁Basis	-12.5761
▁staple	-12.5761
▁verlaagd	-12.5761
liformis	-12.5761
nadering	-12.5761
hyphen	-12.5761
▁tempi	-12.5761
▁polysomie	-12.5761
▁stambronchus	-12.5761
▁Aortaklep	-12.5761
keurig	-12.5761
▁melanine	-12.5761
▁jl	-12.5761
▁polytypisch	-12.5761
▁ESD	-12.5761
>90%	-12.5761
▁leesbaar	-12.5761
▁mutation	-12.5761
▁faeca	-12.5761
hematomorfologi	-12.5761
▁significance	-12.5761
▁Uiteinde	-12.5761
▁Uitsluiten	-12.5761
ramus	-12.5761
▁dysmaturiteit	-12.5761
irregulariteit	-12.5761
▁fototoxisch	-12.5761
▁Conus	-12.5761
▁10-15%	-12.5761
▁transurethra	-12.5761
▁polyclonaal	-12.5762
▁olecrani	-12.5762
▁schedelobductie	-12.5762
▁alcohol	-12.5762
▁(20%)	-12.5762
▁heterogeniteit	-12.5762
▁4+3	-12.5762
▁steato	-12.5762
▁lymfk	-12.5762
▁reaction	-12.5762
▁imbalance	-12.5762
▁superficiale	-12.5762
▁spoelcelnaevus	-12.5762
▁plus	-12.5762
▁lymfoblastair	-12.5762
▁antero	-12.5762
Onderzoeksnummer	-12.5763
▁Obturatorius	-12.5763
Lauren	-12.5763
omegalie	-12.5763
Telling	-12.5763
▁Pleurapunctie	-12.5763
▁fibroblasten	-12.5764
▁onafhankelijk	-12.5764
▁Papillair	-12.5764
▁fibroblastair	-12.5764
▁Ovaria	-12.5764
▁0.8	-12.5764
▁Tongbiopt	-12.5764
▁aortawand	-12.5764
▁weefselverval	-12.5764
REG	-12.5765
▁acini	-12.5765
▁angiofibroom	-12.5765
thische	-12.5765
ontale	-12.5765
beste	-12.5766
▁6-7	-12.5766
▁Vier	-12.5766
spoliepje	-12.5766
▁Slokdarmbiopsie	-12.5766
▁placentavolume	-12.5767
▁Endoresectie	-12.5767
ASTI	-12.5767
podocytopathie	-12.5767
▁stent	-12.5767
▁geacht	-12.5767
▁gecon	-12.5768
▁DIS	-12.5768
cystadenofibroom	-12.5768
▁appendixwand	-12.5768
▁Zijsnijvlak	-12.5768
▁Darm	-12.5769
bandje	-12.5769
▁keer	-12.5769
19-29	-12.5769
▁huma	-12.577
▁bloedrijk	-12.577
▁Hashimoto	-12.577
▁Infiltrerend	-12.577
▁celopbrengst	-12.577
▁gesuperponeerd	-12.577
ntogene	-12.577
SZO	-12.577
▁concrementen	-12.577
▁5/6	-12.5771
▁fibroadenomateu	-12.5771
19-23	-12.5772
_224	-12.5773
▁retentiecyste	-12.5773
▁darmfragment	-12.5773
inguinal	-12.5773
▁APAS	-12.5774
RUS	-12.5774
▁bandvormig	-12.5774
1801	-12.5775
▁midlijn	-12.5775
15-0260	-12.5777
cfk	-12.5778
▁FUS	-12.5778
(1-6)	-12.5779
]16-07-1	-12.5779
▁halo	-12.578
▁zh	-12.5781
▁overeenkom	-12.5781
▁Colorecta	-12.5781
Extranoda	-12.5781
▁nestjes	-12.5782
▁pancreaspunctie	-12.5782
▁linkerelleboog	-12.5784
excis	-12.5784
▁Kappa	-12.5784
▁Lambda	-12.5784
▁SANO	-12.5784
▁chondromatose	-12.5784
▁fenomeen	-12.5784
▁seminoma	-12.5784
▁hemithyroid	-12.5785
hecht	-12.5786
▁optreden	-12.5786
▁uitgebreidheid	-12.5786
ysmegakaryopoese	-12.5788
▁progressief	-12.5789
▁paraffinecoupes	-12.5789
▁locus	-12.5793
▁adenoompje	-12.5794
▁RCA	-12.5799
▁AGEP	-12.5799
▁plusminus	-12.5799
▁tragus	-12.5799
▁linkerzijwand	-12.5799
▁lint	-12.5801
16-02	-12.5802
>*******	-12.5803
▁3.5	-12.5803
▁tumormetastasen	-12.5805
]05-10-	-12.5805
▁cervixcytologie	-12.5806
Herzien	-12.5809
▁lagen	-12.581
OP	-12.581
▁JA	-12.5812
▁Antrumbiopten	-12.5814
▁gevorderd	-12.5814
▁Herhaling	-12.5815
▁arteritis	-12.5816
hemihepatectomie	-12.5822
▁bronchusbiopt	-12.5823
▁reepje	-12.5823
▁betreffend	-12.5826
onderkwab	-12.5828
ijk	-12.5828
perfusie	-12.5832
▁Blaasslijmvlies	-12.5833
▁follikelcyste	-12.5835
]21-07-	-12.5836
ness	-12.5838
▁Uitbreid	-12.5844
▁lekkage	-12.5844
▁Verslag	-12.5844
436	-12.5845
▁4-5	-12.5852
▁grover	-12.5853
13-40	-12.5854
lobair	-12.5857
▁Mediastina	-12.5859
15-15	-12.5859
LAMN	-12.5861
▁uterusresectie	-12.5861
▁slokdarmbiopt	-12.5864
▁etc	-12.587
▁kwabben	-12.5872
zenuwschedetumor	-12.5872
▁Bilatera	-12.5874
▁collectie	-12.5874
karakteris	-12.5879
13-12	-12.5881
▁hoek	-12.5882
-06-2018	-12.5882
▁eczemateus	-12.5886
aematur	-12.5889
TUMORGRADERING	-12.589
IGE	-12.59
▁mini	-12.5901
▁GPA	-12.5901
5=	-12.5901
▁13-04-	-12.5906
▁07-04-	-12.5909
13-31	-12.591
onzeker	-12.5914
▁EMA	-12.5915
]31-05-1	-12.5916
▁abdominaal	-12.5918
binding	-12.5921
]23-06-	-12.5924
uele	-12.5924
splits	-12.5925
rteriolosclerose	-12.5926
atoire	-12.5928
bite	-12.593
▁13-2	-12.5935
▁SE	-12.5944
▁20-04-	-12.5944
az	-12.5947
▁lymfoplasm	-12.5948
▁Medic	-12.5949
▁Hoofd	-12.5954
▁colonpoliepen	-12.5955
▁18-08-20	-12.5963
908	-12.5964
]07-03-1	-12.5966
]2015/0	-12.5969
▁perivesica	-12.5973
cardiaresectie	-12.5986
▁nefroge	-12.6
14-37	-12.6005
cavitair	-12.601
▁16-03-20	-12.6044
▁uro	-12.6045
▁som	-12.6045
▁spongieu	-12.6049
sequentieanalyse	-12.605
508	-12.6051
23-27	-12.6058
▁wijzend	-12.6061
tting	-12.6068
▁stromatumor	-12.6074
zegelringceltype	-12.611
▁EP	-12.6122
-11-18:	-12.6125
-10-2021:	-12.6153
-10-2022:	-12.6156
864	-12.6157
993	-12.6188
13-18	-12.6204
]15-05-1	-12.621
▁15-06-20	-12.6227
747	-12.6237
asse	-12.6242
perirenaal	-12.6245
▁(0/2)	-12.6248
17-04	-12.6255
▁13-05-	-12.6257
Lymfeklieren	-12.6261
▁17-07-20	-12.6265
lende	-12.6267
europathologisch	-12.6278
-12-2014	-12.6292
>=	-12.6302
onregelmatigheid	-12.6307
arterioloscleros	-12.6311
thrombi	-12.6317
817	-12.6317
652	-12.6324
▁immun	-12.6326
20-09	-12.6326
markers	-12.6326
▁adenomatoid	-12.6326
▁slijmkleuring	-12.6349
1-14:	-12.6351
859	-12.6366
555	-12.6368
▁perirena	-12.6385
-04-21:	-12.6385
437	-12.6386
etreft	-12.6396
903	-12.6399
sterkte	-12.6419
stin	-12.6419
▁Anusslijmvlies	-12.6424
81)	-12.6424
824	-12.6426
▁mitochondria	-12.6428
3.3	-12.6446
-05-17:	-12.645
306	-12.6453
▁eindsta	-12.6471
-06-2022:	-12.6493
774	-12.6497
584	-12.6504
294	-12.651
384	-12.6516
noom	-12.6534
▁23-08-	-12.6544
18-09	-12.6555
▁tradition	-12.6557
58)	-12.6557
8-14/	-12.6567
iserend	-12.6573
▁ko	-12.6578
▁exc	-12.6587
oint	-12.6591
▁4/5	-12.6592
implant	-12.6592
754	-12.6595
▁27-06-20	-12.66
gesloten	-12.6607
▁Neuro	-12.6609
▁hematologie	-12.663
040)	-12.6675
13-37	-12.668
737	-12.6687
▁16-12-	-12.6687
18-52	-12.6694
▁pos	-12.6706
17-24	-12.671
Oesophagus	-12.6731
13-15	-12.6745
365	-12.6751
15-50	-12.6765
861	-12.6768
penetrerend	-12.6774
23-23	-12.6775
575	-12.6777
ZN	-12.6805
▁exper	-12.6817
4,5	-12.6819
-06-21/	-12.6821
Micro	-12.6828
17/*******	-12.6832
▁(1%	-12.6833
23-14	-12.6845
gastric	-12.6848
▁29-09-	-12.6849
]01-10-1	-12.685
reeks	-12.6861
electro	-12.6863
kort	-12.6871
13-07	-12.6874
scopische	-12.6874
scopi	-12.688
obductie	-12.6881
stop	-12.6883
collectie	-12.6885
▁+5)	-12.6886
MOHS	-12.6886
opening	-12.6887
WGS	-12.6887
sarco	-12.6888
macrofagen	-12.6888
WDP	-12.6888
cortex	-12.6889
Linker	-12.6889
SNIJVLAK	-12.689
Microscopisch	-12.689
Ventana	-12.689
invaginatie	-12.689
TBNA	-12.689
reuscel	-12.689
Ongewijzigd	-12.689
intimafibrose	-12.689
Receptoren	-12.689
uurszijde	-12.689
Sentinel	-12.6891
eccrien	-12.6891
obstructie	-12.6891
High	-12.6891
betrokkenheid	-12.6891
Adnex	-12.6891
tekening	-12.6891
recidiverende	-12.6891
vroege	-12.6891
pleura	-12.6891
ruptuur	-12.6891
Endocervica	-12.6891
hypertrofe	-12.6891
infarcering	-12.6891
Eventue	-12.6891
wervel	-12.6891
RBK	-12.6891
secundair	-12.6891
pneumonie	-12.6891
reikt	-12.6891
blue	-12.6892
oestrogeen	-12.6892
trombo	-12.6892
Voorkeur	-12.6892
psoriasis	-12.6892
erosie	-12.6892
Whipple	-12.6892
ijzer	-12.6892
clonaliteits	-12.6892
klierbuizen	-12.6892
ooghoek	-12.6892
Tuba	-12.6892
ontvangen	-12.6892
scherp	-12.6892
diffuus	-12.6892
Lisexcisie	-12.6892
sereus	-12.6892
beoordelen	-12.6892
linkerbovenkwab	-12.6892
slijm	-12.6893
subcutaan	-12.6893
incomplete	-12.6893
PTEN	-12.6894
ROK	-12.6894
Rest	-12.6894
▁bron	-12.6894
pTis	-12.6895
▁dundarm	-12.6897
hart	-12.6897
NTRK	-12.6897
micronodulair	-12.6897
MPL	-12.6898
▁Testisbiopt	-12.6898
restant	-12.6898
krabeffect	-12.69
tong	-12.6901
rechterflank	-12.6901
linkerflank	-12.6901
bovenste	-12.6903
tevens	-12.6903
relatie	-12.6904
▁Solid	-12.6905
▁rectumpoliep	-12.6906
▁bijkomend	-12.6906
hoek	-12.6906
CTN	-12.6907
besproken	-12.6911
-01-2018:	-12.6914
]24-07-1	-12.6915
]28-05-1	-12.6916
PIN	-12.692
gegevens	-12.6921
▁1/5	-12.6921
775	-12.6933
▁neurovasculair	-12.6933
25-11-20	-12.6952
-11-21:	-12.6954
riton	-12.6959
▁discontinu	-12.696
system	-12.6962
▁Infectie	-12.6966
TX	-12.6969
hoge	-12.697
14-70	-12.6973
-07-2022:	-12.6974
▁duid	-12.6974
arr	-12.6977
lesie	-12.6978
]09-10-1	-12.6979
]06-03-1	-12.6984
87)	-12.6986
▁diagnosi	-12.6991
ator	-12.6992
ilatatie	-12.6993
]07-02-1	-12.6994
▁vaatafwijking	-12.6994
▁word	-12.6997
▁Overgang	-12.6999
▁27-05-	-12.6999
athol	-12.7
ongorood	-12.7
▁alge	-12.7001
▁exclusi	-12.7002
orrelatie	-12.7002
▁ortho	-12.7003
obturator	-12.7004
nasolabia	-12.7005
ITEIT	-12.7006
▁mesangi	-12.7007
lioblastoom	-12.7007
▁Tong	-12.7008
lexura	-12.7008
ornu	-12.7008
▁subglottis	-12.7009
genome	-12.7009
balans	-12.7009
▁circu	-12.7009
ormospermie	-12.701
▁Buik	-12.701
elder	-12.701
cartilag	-12.701
arcoidose	-12.701
nderzochte	-12.7011
gewone	-12.7011
regress	-12.7011
eticuline	-12.7011
▁melanomen	-12.7011
handeling	-12.7011
▁laborator	-12.7011
▁galsteen	-12.7011
▁pathogeniciteit	-12.7011
▁Brunn	-12.7011
▁neuropatholoog	-12.7011
nkno	-12.7011
weefselopbrengst	-12.7011
secreet	-12.7011
urretage	-12.7011
▁geconstateerd	-12.7011
▁glycogeen	-12.7011
▁inflammation	-12.7011
▁ontkalkt	-12.7011
▁palmaris	-12.7011
▁pemphigus	-12.7011
▁submentaal	-12.7011
Component	-12.7011
LCNEC	-12.7011
MPGN	-12.7011
Ontvangen	-12.7011
Squameu	-12.7011
]05-01-	-12.7011
begrenzing	-12.7011
eaktief	-12.7011
eclampsie	-12.7011
erozygosit	-12.7011
femoralis	-12.7011
gebonden	-12.7011
hodgkin	-12.7011
oprostatectomie	-12.7011
profylactisch	-12.7011
punctaten	-12.7011
sateliet	-12.7011
ultidisciplinair	-12.7011
▁<0,1	-12.7011
▁Coeliakie	-12.7011
▁EDU	-12.7011
▁Endomyocard	-12.7011
▁LDH	-12.7011
▁Lengte	-12.7011
▁Microbiologie	-12.7011
▁Myocardbiopt	-12.7011
▁Recidief	-12.7011
▁Urotheel	-12.7011
▁abruptio	-12.7011
▁ascensie	-12.7011
▁bakkebaard	-12.7011
▁beneden	-12.7011
▁breekpunt	-12.7011
▁cellulitis	-12.7011
▁conflue	-12.7011
▁corneum	-12.7011
▁dyshematopoese	-12.7011
▁dysmorfe	-12.7011
▁enhanced	-12.7011
▁exocytose	-12.7011
▁exsudati	-12.7011
▁fissuur	-12.7011
▁frictie	-12.7011
▁functionerend	-12.7011
▁gastraal	-12.7011
▁geformuleerd	-12.7011
▁gehyaliniseerd	-12.7011
▁germinal	-12.7011
▁haematopoese	-12.7011
▁herkennen	-12.7011
▁heterogeen	-12.7011
▁hyperplasia	-12.7011
▁impliceert	-12.7011
▁lichenificatie	-12.7011
▁luchtwegen	-12.7011
▁mucus	-12.7011
▁nauwkeurig	-12.7011
▁necrobiotisch	-12.7011
▁neonaat	-12.7011
▁omvormd	-12.7011
▁oncologisch	-12.7011
▁overeenkomsten	-12.7011
▁palatinaal	-12.7011
▁pedikel	-12.7011
▁penisschacht	-12.7011
▁plasmacytoom	-12.7011
▁postpartum	-12.7011
▁raadzaam	-12.7011
▁retromolare	-12.7011
▁rim	-12.7011
▁sample	-12.7011
▁schilfer	-12.7011
▁specificeren	-12.7011
▁sublingualis	-12.7011
▁subungua	-12.7011
▁toxiciteit	-12.7011
▁umbilicalis	-12.7011
▁verdrongen	-12.7011
▁verhoging	-12.7011
▁vervetting	-12.7011
▁vulvectomie	-12.7011
▁wanordelijk	-12.7011
Spirocheten	-12.7011
broek	-12.7011
ileostoma	-12.7011
immuunhepatitis	-12.7011
▁pedis	-12.7011
▁prognose	-12.7011
▁salpingitis	-12.7011
▁(5,8,1	-12.7011
▁GAVE	-12.7011
▁STIC	-12.7011
▁bdz	-12.7011
▁cohesief	-12.7011
▁fecal	-12.7011
▁menstrue	-12.7011
▁soort	-12.7011
▁monoklonaal	-12.7011
▁Sleeve	-12.7011
▁cito	-12.7011
▁(4+3)	-12.7011
▁accreditatie	-12.7011
▁granulopoiese	-12.7011
▁ctDNA	-12.7011
Dako	-12.7011
▁Discre	-12.7011
▁naadlekkage	-12.7011
▁samenvatt	-12.7011
▁humora	-12.7011
schimmen	-12.7011
▁Loss	-12.7011
▁opstijgend	-12.7011
organi	-12.7011
▁(0/9)	-12.7011
▁laatstgenoemde	-12.7011
▁bichoriale	-12.7011
▁deposits	-12.7011
▁CNS	-12.7011
▁venectasie	-12.7011
,6,7,	-12.7011
muller	-12.7011
▁hypertroof	-12.7011
▁arterietakken	-12.7011
▁polyoma	-12.7011
▁cytomorfologie	-12.7012
▁collo	-12.7012
▁SLI	-12.7012
▁osteosarcoom	-12.7012
▁Ontstekingsrest	-12.7012
▁IPMN	-12.7012
▁fiber	-12.7012
▁lymphoma	-12.7012
▁vaatstructuur	-12.7012
Nummer	-12.7012
vascular	-12.7012
▁toegevoegd	-12.7012
▁hypercoiling	-12.7012
▁sarcomen	-12.7012
▁vue	-12.7012
▁bifurcatie	-12.7012
▁targetable	-12.7012
▁thrombosering	-12.7012
0-11-17/	-12.7012
▁haarresten	-12.7012
▁thrombose	-12.7012
▁CRM	-12.7012
▁metabo	-12.7012
▁(12,14	-12.7012
▁schuimcellen	-12.7012
▁kapseldoorgroei	-12.7012
▁Lies	-12.7012
▁paragranuloom	-12.7012
▁splen	-12.7012
AHH	-12.7012
▁pericarditis	-12.7012
vary	-12.7012
▁tertiair	-12.7012
▁perivasculitis	-12.7013
▁gebaseerd	-12.7013
▁kalkdeposities	-12.7013
▁PIRADS	-12.7013
2,4,5,	-12.7013
▁fout	-12.7013
▁frontalis	-12.7013
▁adventitia	-12.7013
circulair	-12.7013
▁brugvorming	-12.7013
ullectomie	-12.7013
extractie	-12.7013
GCNIS	-12.7013
anvankelijk	-12.7013
▁parametria	-12.7014
Aanvul	-12.7014
▁Blaaswand	-12.7014
heidsonderzoek	-12.7014
slijmbekercellen	-12.7014
▁categori	-12.7014
▁myelopo	-12.7014
inframammair	-12.7014
!!	-12.7015
▁CCND	-12.7015
▁adenofibroom	-12.7015
▁period	-12.7015
▁fistelvorming	-12.7015
▁blaasspoeling	-12.7015
▁longoedeem	-12.7015
herhalingsrisico	-12.7015
▁(<1%)	-12.7015
▁pubisregio	-12.7015
▁UIP	-12.7016
▁Will	-12.7016
▁Systematisch	-12.7016
▁bouw	-12.7016
,6,7,8	-12.7017
▁clustering	-12.7017
-7-2023	-12.7017
▁genfusie	-12.7017
coronairlijden	-12.7018
▁zaad	-12.7018
▁rectumstomp	-12.7018
▁haemorrhagisch	-12.7018
▁INTER	-12.7019
kristalurie	-12.7019
-09-21/	-12.7019
▁bilirubinostase	-12.702
▁opvragen	-12.702
▁galblaaswand	-12.702
▁voetjes	-12.702
▁hiertussen	-12.702
▁CML	-12.702
▁hak	-12.702
▁mitralisklep	-12.7021
werd	-12.7021
▁fibrosis	-12.7021
itieel	-12.7022
veneens	-12.7023
zig	-12.7023
kankerpa	-12.7023
korst	-12.7023
▁synoviaal	-12.7023
Nota	-12.7024
color	-12.7024
steek	-12.7024
▁MMB	-12.7026
HR	-12.7026
▁IKN	-12.7026
▁genmutatie	-12.7026
AmpliSeq	-12.7028
PAP	-12.7028
▁architecture	-12.7028
stukken	-12.7028
▁angioma	-12.7028
▁Maagmucosa	-12.7028
14-50	-12.703
▁staal	-12.7031
▁weefselvolume	-12.7032
navelstrengvaten	-12.7032
▁fisteling	-12.7033
tube	-12.7033
]10-02-	-12.7033
thyroiditis	-12.7035
▁adnexectomie	-12.7035
▁celtype	-12.7036
abcederend	-12.7036
naaldvormige	-12.7038
19-7	-12.7039
▁weing	-12.704
▁Foet	-12.7041
▁zoda	-12.7042
▁longembolieen	-12.7043
▁rechteradnex	-12.7043
▁0,25	-12.7043
▁Naresectie	-12.7046
]25-02-13/	-12.7046
▁linkerkuit	-12.7047
▁tumorbed	-12.7048
-2013):	-12.7048
21-24	-12.7048
-04-18:	-12.705
19-25	-12.7051
580	-12.7052
0,9	-12.7055
Oesophagusbiopt	-12.7055
hyreoglobuline	-12.7056
▁Don	-12.7057
▁2009):	-12.7059
*******>	-12.7059
▁bloedstolsels	-12.706
-05-2018:	-12.7062
▁coronairen	-12.7063
▁terme	-12.7063
▁Stembandbiopt	-12.7063
▁uitlopers	-12.7065
▁gef	-12.7068
▁EML	-12.7069
-02-2016:	-12.707
-08-2016:	-12.7074
▁stolling	-12.7074
▁uitgroei	-12.7076
▁1.9	-12.7078
Masson	-12.7081
▁vor	-12.7081
▁vervolgen	-12.7082
-11-2018:	-12.7083
▁kopieen	-12.7085
kwabben	-12.7087
▁granulocytair	-12.7089
▁20-01-	-12.7096
▁pleiten	-12.7097
▁IKA	-12.7107
Overig	-12.7107
▁gedi	-12.7108
▁placentaweefsel	-12.7109
7,7	-12.7113
pijnlijk	-12.7113
uurt	-12.7115
▁infiltre	-12.7122
▁rechterarm	-12.7122
HUID	-12.7123
▁Best	-12.7124
JM	-12.7125
▁Larynx	-12.7128
▁Rese	-12.7152
hb	-12.7156
▁3-5	-12.7158
afel	-12.7165
mk	-12.717
]08-05-	-12.7178
22-20	-12.7186
23-017	-12.7188
]04-02-	-12.7199
Voldoe	-12.7199
diagnosestelling	-12.7204
▁2004)	-12.7204
▁expert	-12.7214
▁13-02-20	-12.7215
01-18/*******/	-12.7227
-03-18/*******/	-12.7233
444	-12.7236
myomateuze	-12.7241
dieper	-12.7244
▁cystadeno	-12.7244
▁=7	-12.7246
17-25	-12.7252
▁vergroot	-12.7266
ERDE	-12.7272
]12-11-	-12.7272
▁Mass	-12.7279
▁SPE	-12.729
▁25-04-	-12.7306
]30-	-12.7306
718	-12.7317
elanomenpanel	-12.7327
-09-2023:	-12.7331
▁27-01-20	-12.7336
esloten	-12.7338
16-33	-12.7343
▁bied	-12.7351
-11-2015:	-12.7353
-07-2017:	-12.7379
trans	-12.7385
572	-12.7388
veneus	-12.739
conc	-12.7393
▁22-05-	-12.7393
997	-12.7397
-04-2020:	-12.7404
RAI	-12.7412
mesorecta	-12.7425
12-5	-12.7427
]07-06-13/	-12.7437
685	-12.7445
18-31	-12.7445
10-15	-12.7454
-05-2015:	-12.7458
21-020	-12.7462
▁frequent	-12.748
(9-1	-12.7482
hypertensieve	-12.7483
17-23	-12.7497
▁area	-12.75
]03-06-1	-12.7502
337	-12.7502
STS	-12.7508
22-035	-12.752
19-07	-12.7521
▁13-08-20	-12.753
577	-12.7554
ONT	-12.7557
-04-2018:	-12.7557
]29-07-	-12.7597
ingsstoornissen	-12.76
houd	-12.7601
]04-07-1	-12.7607
▁CON	-12.762
▁sterno	-12.7622
▁ondersteunend	-12.7624
-04-18/	-12.7626
741	-12.7627
doorsnede	-12.763
lymfangio	-12.7632
]15-01-1	-12.7636
▁29-01-	-12.7638
ijns	-12.7638
34+	-12.764
genetisch	-12.7644
adnexa	-12.7647
21/*******	-12.7657
▁2018)	-12.7657
ytologie	-12.7661
594	-12.7669
JL	-12.7669
Slijmvliesbiopt	-12.7671
▁3/3	-12.7676
▁07-11-	-12.7679
-05-2022:	-12.7682
20-108	-12.7691
84)	-12.7699
corpustype	-12.7699
lage	-12.7706
▁09-05-	-12.7719
immune	-12.7737
558	-12.7745
818	-12.7745
-09-22:	-12.7753
22-40	-12.7762
604	-12.7774
▁ru	-12.7828
▁immunocytochemi	-12.7835
differ	-12.7838
14-02	-12.7845
invas	-12.7845
tramammaire	-12.7849
omateuze	-12.7865
Skin	-12.7873
resectaat	-12.7878
delentumor	-12.7881
▁Immuunhistochem	-12.7885
636	-12.7898
rectaal	-12.7909
0-20	-12.7914
691	-12.7929
21-19	-12.7937
▁26-07-	-12.7941
XIV	-12.7949
▁ontwikkel	-12.7961
20-18	-12.7966
_005	-12.797
▁146	-12.7977
uscularis	-12.7988
▁dermato	-12.7988
mammair	-12.799
-03-14/*******/	-12.8008
serosaal	-12.8009
/08/2014	-12.802
395	-12.8023
]28-01-	-12.8024
128	-12.8026
-7-2020	-12.8029
olumepercentage	-12.8034
▁16-09-20	-12.8053
▁methylerings	-12.8063
hoe	-12.8066
▁21-04-	-12.8069
-01-13/*******/	-12.8071
540	-12.8072
▁17-12-20	-12.8074
pider	-12.8079
▁centr	-12.8086
▁09-04-	-12.8089
▁04-09-	-12.8091
cytochemie	-12.8092
047	-12.8096
arch	-12.8097
▁29-03-	-12.8108
▁Enterob	-12.8112
systeem	-12.8127
ilinderepitheel	-12.8141
otinib	-12.8142
ristall	-12.8169
klierhyperplasie	-12.8169
ineaire	-12.8173
2%	-12.8183
▁26-04-	-12.8184
immuunziekte	-12.8187
gesneden	-12.8212
ulair	-12.8214
30+	-12.8231
875	-12.8245
18-37	-12.8249
ledig	-12.825
85).	-12.8251
tumoruitbreiding	-12.8253
vormig	-12.8258
cervicaal	-12.8258
▁plaat	-12.826
▁myofibroblast	-12.8261
544	-12.8262
▁2004	-12.8283
passen	-12.8293
617	-12.8298
▁toest	-12.8298
hotspot	-12.8299
ktie	-12.8302
▁bijbevinding	-12.8303
▁Kerato	-12.8303
kwadrant	-12.8304
ventrale	-12.8306
poliepjes	-12.8309
▁ovariumcyste	-12.831
Graa	-12.8313
Mediastina	-12.8314
MPN	-12.8314
Percentage	-12.8314
grijs	-12.8314
crypt	-12.8316
glaasje	-12.8316
schouw	-12.8316
kelijk	-12.8316
allergisch	-12.8316
koepel	-12.8317
chirurg	-12.8317
beenmerg	-12.8317
TMB	-12.8317
vacuum	-12.8317
incidentiedatum	-12.8318
decollete	-12.8318
MRI	-12.8318
seminoom	-12.8318
strekzijde	-12.8318
jukbeen	-12.8318
IgM	-12.8318
Omentum	-12.8319
anterior	-12.8319
HSV	-12.8319
trigonum	-12.8319
verruceus	-12.8319
Primair	-12.8319
handpalm	-12.8319
[...]
