<unk>	0
<s>	0
</s>	0
[PAD]	0
[UNK]	0
[CLS]	0
[MASK]	0
[C-SEP]	0
e	-2.29196
.	-2.7292
▁	-3.23509
:	-3.56296
C	-3.85373
F	-3.8766
RL	-3.96671
,	-4.01278
]	-4.03433
[	-4.11235
▁met	-4.3198
▁(	-4.43161
▁van	-4.46081
▁een	-4.49233
▁Geen	-4.58727
▁en	-4.67319
-	-4.79243
▁geen	-4.95068
▁de	-4.97731
▁voor	-4.99144
▁in	-4.99964
▁maligniteit	-5.03888
▁het	-5.12306
▁rechts	-5.23366
▁bij	-5.23661
▁links	-5.24009
)	-5.29566
):	-5.35623
▁ontsteking	-5.36386
carcinoom	-5.40019
▁beeld	-5.47102
▁is	-5.47112
1	-5.4828
▁Huidexcisie	-5.5595
▁I	-5.561
▁dysplasie	-5.60416
▁of	-5.63564
▁[	-5.67642
▁zonder	-5.72889
▁niet	-5.74161
A	-5.80575
▁aanwijzingen	-5.80923
▁basaalcel	-5.81691
▁Huidbiopt	-5.86458
I	-5.96583
II	-5.99609
▁1	-6.06618
▁afwijkingen	-6.09106
d	-6.09732
▁passend	-6.10291
▁*******	-6.1127
▁op	-6.17673
).	-6.1826
2	-6.1945
▁chronische	-6.21185
L	-6.24728
▁vrij	-6.24925
0	-6.3053
▁naevus	-6.31027
▁geringe	-6.34762
▁2	-6.36787
▁kan	-6.37159
▁veranderingen	-6.38369
▁te	-6.39374
▁d	-6.39711
▁materiaal	-6.40424
▁actieve	-6.40948
▁waarin	-6.42556
s	-6.43979
-1	-6.448
▁reactieve	-6.45064
▁biopten	-6.45762
▁zijn	-6.48825
▁biopt	-6.5255
▁mm	-6.53116
▁De	-6.5337
▁adenocarcinoom	-6.54132
▁tot	-6.54902
Aanvulling	-6.55571
▁onderzoek	-6.57276
▁nodulair	-6.61192
▁passen	-6.62438
▁worden	-6.62732
-0	-6.63805
▁dit	-6.65296
E	-6.66151
le	-6.67542
▁cm	-6.68494
▁laesie	-6.68944
▁verruca	-6.69238
▁rechter	-6.72286
▁metaplasie	-6.72299
▁verwijderd	-6.72306
▁atypie	-6.74186
H	-6.74732
▁linker	-6.74936
▁tumor	-6.77388
▁Excisie	-6.77939
▁naevocellularis	-6.77942
▁Het	-6.78902
▁groeiend	-6.80845
▁Biopten	-6.81476
▁groei	-6.81622
en	-6.83659
▁seborrhoica	-6.84596
▁H	-6.85948
t	-6.86375
▁excisie	-6.87227
▁type	-6.87638
CR	-6.87741
R	-6.88344
▁II	-6.91298
▁volgt	-6.91886
▁wordt	-6.92451
▁Huid	-6.93139
▁Er	-6.93471
▁deels	-6.94409
▁In	-6.94439
▁lymfklier	-6.95844
▁goed	-6.96082
▁intestinale	-6.99329
▁lokalisatie	-6.9991
▁negatief	-7.00088
▁huid	-7.00468
▁carcinoom	-7.01146
▁plaveiselcel	-7.01899
▁dermale	-7.02618
▁focaal	-7.03304
D	-7.04724
▁Helicobacter	-7.04743
▁endometrium	-7.05701
▁conclusie	-7.0666
▁metastase	-7.07849
▁hyperplasie	-7.10399
▁maligne	-7.10507
▁onder	-7.10696
▁rug	-7.11161
▁past	-7.12128
▁ook	-7.13242
▁aan	-7.1393
▁mamma	-7.14778
▁mogelijk	-7.1484
gedifferentieerd	-7.15167
III	-7.16013
G	-7.17274
▁p	-7.18614
ie	-7.19587
▁colon	-7.20217
▁na	-7.20486
▁keratose	-7.2243
▁uit	-7.227
▁pylori	-7.22863
▁benigne	-7.23667
▁poliep	-7.24831
▁adenoom	-7.26012
▁kenmerken	-7.26042
▁diagnose	-7.28054
*******	-7.28755
▁Biopt	-7.29383
biopten	-7.3018
▁aanvullend	-7.31182
▁cellen	-7.31465
p	-7.31616
▁conform	-7.31703
B	-7.32277
tekenen	-7.32293
▁superficieel	-7.32572
▁slijmvlies	-7.33686
excisie	-7.35043
▁als	-7.35388
▁aanwezig	-7.35763
▁aangetroffen	-7.36062
▁positief	-7.37749
us	-7.37789
▁uitgebreide	-7.38374
▁actinisch	-7.39027
▁epitheel	-7.39609
▁uitslag	-7.39631
),	-7.39917
▁matig	-7.41618
▁atypische	-7.42057
▁laaggradige	-7.42652
▁er	-7.43941
▁gezien	-7.44968
a	-7.45951
v	-7.46151
▁t	-7.46379
▁uur	-7.49232
▁aangetoond	-7.49343
▁specifieke	-7.50469
▁mutatie	-7.54044
▁cyste	-7.54378
▁solide	-7.54705
▁huidexcisie	-7.55551
▁chronisch	-7.5655
▁hals	-7.57083
▁huidbiopt	-7.57626
▁ter	-7.58365
▁weefsel	-7.59201
▁B	-7.59274
histochemisch	-7.59469
▁0	-7.59566
▁dan	-7.60959
▁samengestelde	-7.61807
▁resectie	-7.61979
▁graad	-7.62127
▁enkele	-7.62197
m	-7.62398
▁atrofie	-7.62489
▁dat	-7.6285
Geen	-7.62866
▁morb	-7.63675
▁kunnen	-7.63716
pre	-7.64064
▁afwijking	-7.6475
▁naar	-7.64761
▁nog	-7.66498
▁werd	-7.66875
▁argumenten	-7.67185
▁voorkeur	-7.67649
oor	-7.67957
▁wang	-7.67991
▁delen	-7.68883
▁bericht	-7.69977
▁onvoldoende	-7.70627
▁tubulair	-7.70852
▁maag	-7.71155
▁A	-7.71159
▁door	-7.71776
▁geheel	-7.72239
▁prostaat	-7.72909
RA	-7.73302
slijmvlies	-7.7367
▁perineurale	-7.73683
▁reikend	-7.73851
al	-7.74479
▁deze	-7.74994
▁klinische	-7.75839
▁invasieve	-7.76696
▁onderbeen	-7.76991
▁waarbij	-7.77145
▁enige	-7.78354
▁sprieterig	-7.78387
▁*******,	-7.79199
IE	-7.79232
▁klinisch	-7.79506
▁dermatitis	-7.80654
▁toont	-7.81076
▁zeer	-7.83209
▁radicaal	-7.84037
▁lymfklieren	-7.84209
▁corpus	-7.84265
evens	-7.8448
▁maar	-7.85159
▁lymfoom	-7.85326
▁gering	-7.85439
▁marge	-7.85814
]2	-7.85837
▁kader	-7.85859
▁basis	-7.85868
▁histologisch	-7.85907
nvoldoende	-7.86686
b	-7.87062
▁over	-7.87131
▁colitis	-7.87532
▁nummer	-7.87935
▁situ	-7.88296
▁weinig	-7.88321
▁uitgesloten	-7.8846
▁melanoom	-7.89275
▁antrum	-7.89433
▁gevonden	-7.89938
▁aanwezigheid	-7.90317
▁bovenbeen	-7.91421
▁III	-7.91821
▁analyse	-7.91851
]*******	-7.9261
▁s	-7.92954
▁overwogen	-7.93111
▁best	-7.93212
unctie	-7.94021
▁fibrose	-7.94054
▁D	-7.9407
▁punctie	-7.94155
▁volgen	-7.94441
▁beide	-7.94786
▁immuun	-7.94966
▁diameter	-7.95478
▁betreft	-7.95591
▁cervix	-7.95947
▁waarschijnlijk	-7.96269
▁acute	-7.96339
▁pathologie	-7.96551
▁oppervlakkig	-7.96901
▁0,	-7.97034
▁rest	-7.97076
▁Revisie	-7.9714
preparaat	-7.97291
▁Resectie	-7.97968
▁voorhoofd	-7.98033
▁verdacht	-7.98665
-201	-7.99361
▁duidelijke	-7.99532
▁microscopie	-7.99812
rine	-8.00024
▁eventue	-8.00182
▁moleculair	-8.00534
▁reactief	-8.01718
Deze	-8.01746
▁keratosis	-8.02003
▁snijvlak	-8.02025
in	-8.02032
▁specifiek	-8.02129
▁melanocytaire	-8.03246
▁onderarm	-8.03975
▁schouder	-8.04064
]1	-8.04214
▁duodenum	-8.04489
▁Endometrium	-8.04879
n	-8.05215
▁echter	-8.05804
▁litteken	-8.06277
▁actinica	-8.06537
▁reikt	-8.06793
▁hoog	-8.07018
▁wat	-8.07968
▁celbeeld	-8.08281
▁c	-8.08416
(	-8.08581
▁Bowen	-8.09023
▁eerder	-8.09533
ze	-8.09591
▁boven	-8.09698
▁bodem	-8.09794
▁component	-8.1083
▁temporaal	-8.11167
▁kleine	-8.11197
▁classificeren	-8.11711
▁intra	-8.1184
CI	-8.12411
▁proliferatie	-8.12797
el	-8.13301
nijvlakken	-8.13541
▁bovenarm	-8.13671
▁snijvlakken	-8.14275
▁beoordelen	-8.14776
▁wel	-8.15196
oleculaire	-8.15242
▁diagnostiek	-8.15485
▁long	-8.1594
▁G	-8.15947
▁zou	-8.16024
▁R	-8.1616
▁eczeem	-8.16281
wel	-8.16514
▁Beeld	-8.16654
▁rectum	-8.17121
▁minimale	-8.17376
▁lichenoide	-8.17466
▁lichen	-8.17506
▁Een	-8.17659
aagbiopten	-8.17778
▁zie	-8.17815
▁u	-8.17978
▁matige	-8.18184
▁klein	-8.18493
]0	-8.18672
▁g	-8.20039
▁lateraal	-8.20577
▁waarvan	-8.20722
▁kleuring	-8.21029
▁diagnostisch	-8.21394
▁groeiwijze	-8.2152
invasieve	-8.21734
epitheliale	-8.22326
▁bekende	-8.22482
▁daar	-8.2298
▁EGFR	-8.23155
▁verder	-8.23277
▁afkomstig	-8.23286
-2	-8.23383
▁aanwijzing	-8.23456
nummer	-8.23537
▁oppervlakkige	-8.23588
▁ascendens	-8.23789
ve	-8.23804
▁epidermale	-8.25358
▁bekend	-8.25799
▁resectievlak	-8.26085
▁vermeld	-8.26118
▁colonslijmvlies	-8.26192
▁name	-8.26639
▁exon	-8.26925
de	-8.27178
▁toto	-8.27895
▁dieper	-8.28636
▁beoordeelbaar	-8.2895
▁beenmerg	-8.29058
▁fragmenten	-8.2922
AA	-8.29524
▁eosinofiele	-8.29802
▁urotheelcel	-8.30845
▁granulomen	-8.30872
▁hyperplastische	-8.30907
▁neus	-8.30965
▁invasief	-8.3123
▁shave	-8.31273
▁re	-8.31288
▁dermatofibroom	-8.31633
▁vlokatrofie	-8.32326
Het	-8.32643
▁1,	-8.33054
laveiselepitheel	-8.33302
▁meer	-8.33374
▁midden	-8.33815
▁zijde	-8.33844
c	-8.34025
▁coeur	-8.34472
▁ten	-8.34867
▁snijranden	-8.34882
▁Gleason	-8.34945
▁littekenweefsel	-8.3517
biopt	-8.35184
▁sterk	-8.35494
leuravocht	-8.35674
De	-8.35959
▁micro	-8.36046
▁minder	-8.36097
▁differentiaal	-8.3718
▁ileum	-8.37356
▁12	-8.37523
▁die	-8.38058
▁maagslijmvlies	-8.38102
▁volledig	-8.38253
▁10	-8.38397
cel	-8.38446
Aanvullend	-8.38495
▁CD	-8.39054
▁alle	-8.39433
ohs	-8.39785
▁score	-8.39905
▁BRAF	-8.40121
In	-8.40324
▁superficiele	-8.4043
▁eosinofilie	-8.40756
▁overige	-8.41018
▁E	-8.41606
rechts	-8.41775
materiaal	-8.4197
▁zo	-8.42006
re	-8.42314
naaldbiopten	-8.42369
▁contact	-8.42602
▁Aanvullend	-8.42624
▁papillair	-8.42847
▁oksel	-8.43115
Conclusie	-8.43154
▁cytologisch	-8.43311
▁toename	-8.43346
▁oesofagus	-8.43412
▁patient	-8.4362
lijmvliesbiopten	-8.44396
links	-8.44556
▁oesophagus	-8.44839
▁normaal	-8.449
▁centraal	-8.45033
▁elders	-8.45161
▁evident	-8.45164
▁weke	-8.46185
▁hooggradig	-8.46256
▁ulceratie	-8.46312
mw	-8.46662
▁sigmoid	-8.47069
▁lipoom	-8.47582
▁aanknopingspunt	-8.47771
▁beiderzijds	-8.48158
▁vetweefsel	-8.48252
▁(*******	-8.48667
▁verdenking	-8.49302
▁gedacht	-8.49473
▁ductaal	-8.4954
neu	-8.49806
risico	-8.49811
▁Diagnostiek	-8.50166
▁concordant	-8.51096
▁overtuigend	-8.51444
▁overwegend	-8.51452
▁Barrett	-8.51511
▁onbekend	-8.51701
▁aantoonbaar	-8.52167
▁Consult	-8.52871
▁transversum	-8.52896
ER	-8.53214
▁risico	-8.53251
▁opnemen	-8.53259
](	-8.53351
▁genen	-8.53407
▁immuno	-8.53416
▁resectievlakken	-8.53576
o	-8.53651
12	-8.53775
▁ca	-8.54318
▁ernstige	-8.55264
▁kleincellig	-8.55269
▁tenminste	-8.55978
▁borst	-8.56113
11	-8.56442
▁dysplastische	-8.56587
▁dd	-8.5682
oliepectomie	-8.56888
invasie	-8.57041
▁dermis	-8.57249
▁om	-8.57446
▁diepe	-8.57457
▁zekere	-8.57506
▁lateral	-8.57966
▁kun	-8.58003
zie	-8.58025
ast	-8.58111
▁Colonbiopten	-8.58133
▁consult	-8.58655
ipelle	-8.58806
▁afwezig	-8.59173
▁mutaties	-8.59246
▁Huidbiopsie	-8.59539
▁gelegen	-8.59974
▁hoofd	-8.59994
▁biopsie	-8.6015
▁coupes	-8.60173
linker	-8.60794
▁gastritis	-8.61834
▁plaatselijk	-8.61854
▁zwelling	-8.61919
▁eerdere	-8.61951
▁plaatse	-8.61989
00	-8.62479
▁(0	-8.62614
▁derhalve	-8.62883
▁Conclusie	-8.63062
f	-8.631
▁status	-8.63183
▁infiltrerend	-8.63291
rechter	-8.63574
hyperplasie	-8.639
▁flank	-8.63912
▁tumorcellen	-8.64278
▁bespreking	-8.64279
▁eerste	-8.64995
▁twee	-8.65054
ontstekingsbeeld	-8.65093
▁Dit	-8.65701
▁HER	-8.65918
▁andere	-8.65942
▁forse	-8.66036
▁Gaarne	-8.66438
▁vragen	-8.67363
ver	-8.67466
]-	-8.67655
▁secret	-8.67688
▁Duodenumbiopten	-8.67765
201	-8.67787
ariaa	-8.67815
▁invasie	-8.67886
▁IBD	-8.68058
▁folliculitis	-8.68233
AL	-8.68325
▁CI	-8.68398
▁lijkt	-8.68709
▁extern	-8.68975
Cholecystectomie	-8.6906
▁Huidstukje	-8.69278
▁mediaal	-8.6945
oorts	-8.69469
Er	-8.6981
▁verricht	-8.70142
▁granulomateuze	-8.7076
aaldbiopten	-8.71049
▁betreffende	-8.71585
uameu	-8.72155
▁grootcellig	-8.72815
▁zekerheid	-8.7284
▁maagantrum	-8.72891
▁aspecifieke	-8.73059
▁dunne	-8.73071
▁oor	-8.73109
▁Appendectomie	-8.73551
▁respectievelijk	-8.7376
▁folliculair	-8.7381
Huidbiopt	-8.74009
▁hooggradige	-8.74343
Revisie	-8.74598
▁plaveiselcellig	-8.74871
▁revisie	-8.74949
▁dorsaal	-8.75315
▁Hoog	-8.75697
▁appendicitis	-8.75941
▁celrijk	-8.7607
maligniteit	-8.7637
▁papilloom	-8.76398
▁slecht	-8.76421
▁level	-8.76785
▁endocervicale	-8.76961
▁beoordeling	-8.76964
w	-8.77079
itslag	-8.77381
▁descendens	-8.77584
▁perivasculaire	-8.77599
▁infiltratie	-8.77656
resectie	-8.77733
▁tevens	-8.77872
er	-8.78061
▁spongiotische	-8.78301
▁bepaling	-8.78355
nijvlak	-8.78522
▁hemangioom	-8.78864
▁panel	-8.79048
▁uitbreiding	-8.79458
▁2,	-8.79609
▁primaire	-8.79878
ing	-8.79952
▁hoeveelheid	-8.80058
▁granulocyten	-8.80139
▁lymfocytose	-8.80145
▁lies	-8.80315
▁stroma	-8.80445
▁schimmels	-8.80628
▁verwerkt	-8.80771
▁tussen	-8.80877
▁schildklier	-8.81093
▁retour	-8.81259
▁hier	-8.81455
▁20	-8.81476
▁vulgaris	-8.8151
▁nader	-8.8176
▁microscopische	-8.81764
▁gen	-8.82274
▁lentigo	-8.82546
▁infectie	-8.82661
▁ge	-8.82692
▁m	-8.8294
▁invasiediepte	-8.8327
▁placenta	-8.83695
▁(1	-8.8373
▁*******.	-8.83912
ient	-8.83986
▁frontaal	-8.8401
▁mediale	-8.84353
▁buik	-8.84398
▁bevindingen	-8.85216
▁derden	-8.85514
▁overgang	-8.85925
tal	-8.85972
x	-8.86495
▁laaggradig	-8.86559
10	-8.86748
▁vaso	-8.86851
▁kleuringen	-8.86868
▁representatief	-8.86927
▁epidermis	-8.87051
negatief	-8.87168
▁AL	-8.87199
▁primair	-8.87202
LLE	-8.87382
▁Giardia	-8.87574
CL	-8.87643
rostaatbiopten	-8.88022
▁diep	-8.88283
▁bloed	-8.88371
epitheel	-8.88426
iet	-8.88531
▁uterus	-8.88596
▁Lymfklier	-8.88797
▁sprake	-8.88971
▁classificatie	-8.89071
▁poliepectomie	-8.89128
eke	-8.89148
▁grensvlak	-8.89187
▁epitheliale	-8.89261
▁Bij	-8.90231
organismen	-8.90275
▁pathogene	-8.90707
▁bijbehorend	-8.90757
▁naast	-8.90794
▁morfologisch	-8.91167
▁tel	-8.91193
▁sluiten	-8.91219
▁fibro	-8.91348
▁rand	-8.91765
▁Huidshave	-8.91858
l	-8.92157
veranderingen	-8.92183
i	-8.92272
nt	-8.92435
▁veel	-8.925
▁pre	-8.92526
▁Her	-8.93145
rug	-8.93306
▁therapie	-8.9337
▁bindweefsel	-8.93614
▁uitgebreid	-8.93652
Huidexcisie	-8.93783
▁FI	-8.93788
exon	-8.93886
uw	-8.94034
lijk	-8.94398
▁ovarium	-8.94547
▁sterke	-8.95045
▁hyperkeratose	-8.95173
▁origine	-8.953
▁coecum	-8.96159
▁geirriteerde	-8.96188
▁zeker	-8.96519
▁dermaal	-8.96552
▁ontstoken	-8.96625
▁blaas	-8.96645
▁Biopsie	-8.968
▁angio	-8.9681
GIE	-8.96863
op	-8.97107
▁Cervixbiopt	-8.97184
▁ventraal	-8.97398
uameus	-8.97636
g	-8.9771
▁lymfeklier	-8.97716
▁201	-8.97908
oleculair	-8.97976
▁distale	-8.9813
▁mucosa	-8.98172
▁enkel	-8.98218
▁licht	-8.98334
-11-1	-8.98774
▁11	-8.98891
▁granuloma	-8.98902
▁doorgemaakte	-9.00029
▁Cytologisch	-9.00053
of	-9.00135
▁proces	-9.00263
name	-9.0067
ezien	-9.00847
ok	-9.00926
▁planus	-9.00948
▁Conform	-9.01027
hyperkeratotisch	-9.01246
voor	-9.01342
▁prostaatbiopten	-9.01663
▁vasculitis	-9.02219
▁urine	-9.02298
▁Huidstansbiopt	-9.02609
▁regio	-9.02843
▁krap	-9.02896
rostaat	-9.03419
▁vooralsnog	-9.03419
▁fibroadenoom	-9.03749
mm	-9.03932
▁DD	-9.0394
▁terminale	-9.03969
02-1	-9.04033
▁localisatie	-9.04191
lab	-9.0424
weefsel	-9.04279
▁positieve	-9.04483
▁reactie	-9.04625
▁intradermale	-9.04701
▁maagcorpus	-9.04894
▁regressie	-9.04943
▁nr	-9.05262
▁Colonslijmvlies	-9.05433
▁vermoedelijk	-9.05637
▁hoogte	-9.05668
▁Definitieve	-9.05815
▁nek	-9.0609
2-	-9.06109
▁thorax	-9.0614
▁meest	-9.06295
▁ER	-9.06478
▁correlatie	-9.06545
▁deel	-9.06559
▁achtergrond	-9.06623
▁peri	-9.06738
ndien	-9.06738
utatie	-9.06857
▁carcinoma	-9.07033
▁neusrug	-9.0709
▁kliniek	-9.07146
▁necrose	-9.07215
▁darm	-9.07432
▁gegevens	-9.07559
▁non	-9.07809
diameter	-9.08077
▁*******)	-9.08208
an	-9.08549
▁(2	-9.08673
▁multifocaal	-9.0875
▁leiomyoom	-9.08762
▁tuba	-9.08762
▁coeliakie	-9.09053
▁maagbiopten	-9.09182
2,	-9.09411
▁sprieterige	-9.09415
▁nodus	-9.0976
▁nieuwe	-9.10009
erder	-9.10314
▁recidief	-9.10781
aag	-9.10984
▁pigment	-9.11141
▁atypisch	-9.11223
ogelijk	-9.11568
▁lymfocyten	-9.11769
▁zoals	-9.11782
▁amplificatie	-9.11873
▁blokje	-9.1206
▁mammacarcinoom	-9.12287
kleincellig	-9.1238
10-1	-9.12409
▁vriescoupe	-9.12622
▁bovenkwab	-9.12735
lokalisatie	-9.13051
▁bloeding	-9.13314
▁diepte	-9.13888
▁BE	-9.1394
CBD	-9.13991
lacenta	-9.14171
Biopten	-9.14205
amma	-9.14796
01-1	-9.15389
▁achter	-9.15424
▁handrug	-9.15427
▁beginnende	-9.15444
▁parotis	-9.15697
▁ontstekingsrest	-9.15863
Bij	-9.15921
▁dank	-9.16063
▁lever	-9.163
12-1	-9.16338
▁onderlip	-9.16462
antrum	-9.16575
▁Daarna	-9.16665
▁bestaande	-9.16787
▁hierin	-9.16831
▁maxima	-9.17011
▁extra	-9.17381
1,	-9.17503
▁slechts	-9.17508
▁tonen	-9.1751
▁DEF	-9.1777
▁instantie	-9.17793
LE	-9.17852
▁diffuus	-9.17903
▁focus	-9.17929
▁slokdarm	-9.18021
▁subcutis	-9.18094
cellymfoom	-9.1815
▁syndroom	-9.18293
▁beperkte	-9.18421
mateuze	-9.18548
▁Crohn	-9.1856
▁Differentiaal	-9.18779
▁arm	-9.18844
▁celarm	-9.18902
ocaal	-9.18923
▁uteri	-9.19063
▁neoplasie	-9.1914
graad	-9.19421
▁knie	-9.19461
▁slaap	-9.19463
uor	-9.19564
▁station	-9.20075
aagslijmvlies	-9.20154
auriculair	-9.20944
skenmerken	-9.21175
▁meerdere	-9.21249
▁cholecystitis	-9.21378
hooguit	-9.21542
▁focale	-9.21612
▁nee	-9.21618
▁ontvangen	-9.21861
klinisch	-9.21865
▁neuro	-9.22227
Consult	-9.22442
ocellulair	-9.22543
Coupes	-9.2255
▁lymfocytaire	-9.22796
▁hr	-9.23046
▁klasse	-9.23212
dometriumpoliep	-9.23283
LI	-9.23356
▁afwijkend	-9.23475
ateriaal	-9.23508
▁ulcerosa	-9.23596
▁weken	-9.23666
▁ulcus	-9.23837
▁onderkwab	-9.24086
▁corpustype	-9.24223
▁zijdigheid	-9.24286
▁doorsnijdingen	-9.24359
▁bas	-9.24372
▁opvallende	-9.24492
▁wenkbrauw	-9.24822
▁ontvangt	-9.25107
▁editie	-9.25483
▁verslag	-9.25706
geen	-9.25712
▁sclerosus	-9.25873
▁normal	-9.25875
▁definitieve	-9.2592
▁behaard	-9.26038
▁onderrug	-9.26089
▁oog	-9.26141
▁gefragmenteerd	-9.26168
▁correleren	-9.26335
▁infiltraat	-9.26403
gediagnosticeerd	-9.26422
▁distaal	-9.26658
▁vorm	-9.26792
▁naaldbiopten	-9.26954
▁axilla	-9.26985
▁onderliggend	-9.27161
▁blijft	-9.27406
met	-9.27504
▁resectieranden	-9.27921
▁anus	-9.28192
▁darmslijmvlies	-9.28505
r	-9.28839
filtratiediepte	-9.29262
▁gastropathie	-9.29408
20-	-9.29454
▁psoriasis	-9.29455
▁actief	-9.29589
▁ulcererende	-9.29599
▁profiel	-9.29607
▁Beenmergbiopt	-9.29673
▁Li	-9.29808
▁variant	-9.29825
eer	-9.29895
fragmenten	-9.29935
▁Galblaas	-9.30163
zijdigheid	-9.30229
20	-9.30234
▁variatie	-9.30689
▁inflammatoire	-9.30794
▁lichte	-9.30929
positief	-9.30934
▁totaal	-9.30943
▁plasmacellen	-9.31023
▁uitspraak	-9.31062
▁adeno	-9.3168
▁papillomatosus	-9.31863
▁craniaal	-9.31908
▁bedraagt	-9.3203
▁EB	-9.32249
▁ruim	-9.32451
▁plaveisel	-9.32461
▁100	-9.32487
na	-9.32494
▁differentiatie	-9.32866
ranulatieweefsel	-9.32958
▁fragment	-9.33076
▁tubulovilleu	-9.33095
gen	-9.33292
▁Diameter	-9.33342
▁zal	-9.33433
▁Cervix	-9.33579
curettage	-9.33641
▁behandeling	-9.33798
▁gelaat	-9.34085
sinfiltraat	-9.3426
▁aspect	-9.34262
▁spierweefsel	-9.34301
▁sereus	-9.34364
immuunhistochemi	-9.34388
type	-9.34393
▁gebied	-9.34497
▁neusvleugel	-9.34723
▁casus	-9.34781
▁laag	-9.34949
▁scapula	-9.35507
▁reexcisie	-9.35843
kleuring	-9.35862
verruceuze	-9.35918
▁galblaas	-9.35962
have	-9.36004
▁suggestief	-9.36364
▁kin	-9.36417
▁caudaal	-9.36477
h	-9.36673
▁endocervicaal	-9.36763
▁lastig	-9.36911
▁Gering	-9.36968
▁hand	-9.37178
▁abcederende	-9.37203
▁mammaweefsel	-9.37301
▁bovenlip	-9.3823
▁romp	-9.38413
▁lymfoide	-9.38452
▁fibroserende	-9.38512
▁duodenumbiopten	-9.38532
▁schade	-9.38781
▁Huidstans	-9.38829
▁cholelithiasis	-9.38918
22-	-9.38929
▁translocatie	-9.39
▁uitgesproken	-9.39
u	-9.39035
▁verkregen	-9.39284
▁h	-9.39295
▁pretibiaal	-9.3932
IEF	-9.39674
on	-9.39774
deels	-9.39975
▁veranderd	-9.40261
▁appendix	-9.40278
▁betrouwba	-9.40297
GEE	-9.40588
▁opruimreactie	-9.4074
▁BRCA	-9.40867
▁Invasiediepte	-9.41195
▁tumorvrij	-9.41291
Resectievlakken	-9.41615
▁waar	-9.41822
naast	-9.41842
22	-9.41966
▁radicaliteit	-9.42016
▁tegen	-9.42264
▁multipel	-9.42625
02	-9.42656
aaldbiopt	-9.42772
▁drie	-9.42827
▁expressie	-9.42866
▁RE	-9.42903
▁virale	-9.42965
▁gaarn	-9.43021
▁ooghoek	-9.43058
▁curettage	-9.43145
esophagusbiopten	-9.43242
HER	-9.4342
▁ingreep	-9.43438
▁mediaan	-9.43623
▁tepel	-9.43897
▁Bethesda	-9.43958
▁lymfangio	-9.44001
▁oorschelp	-9.44158
▁kuit	-9.44176
▁pleuravocht	-9.44222
▁bijzonderheden	-9.44317
▁detrusor	-9.44389
▁proximaal	-9.44732
▁aantal	-9.44897
actieve	-9.44957
sactiviteit	-9.4504
▁preparaat	-9.45051
ieuwe	-9.45109
▁welke	-9.4524
.(	-9.45269
▁via	-9.45443
▁metastasen	-9.45454
▁lobulair	-9.45555
▁bil	-9.4566
onder	-9.45674
▁basale	-9.45687
tumor	-9.45749
▁speekselklier	-9.45765
▁Huidresectie	-9.45951
analyse	-9.46116
specifieke	-9.46223
-10	-9.46351
▁colonbiopten	-9.46403
▁bovenrug	-9.46552
▁geruptureerde	-9.4657
▁uitgevoerd	-9.46663
▁oesofagitis	-9.46676
▁helicobacter	-9.47408
rest	-9.47523
▁ingroei	-9.47538
▁been	-9.47925
tv	-9.47983
bij	-9.47999
▁adnex	-9.48055
▁nodularis	-9.48071
sche	-9.48206
▁zijsnijvlak	-9.48563
▁klier	-9.48667
▁spreidend	-9.48995
▁atrofisch	-9.48996
▁vet	-9.4902
▁context	-9.49025
▁uitsluiten	-9.49047
▁uiteinden	-9.4909
▁relatie	-9.49612
eu	-9.49678
▁metaplastisch	-9.49679
-202	-9.49702
esofagusbiopten	-9.49845
▁lab	-9.49848
▁oorzaak	-9.49964
▁Gleasonscore	-9.50253
▁punctaat	-9.50263
▁structuren	-9.50359
▁beperkt	-9.50368
-)	-9.50487
▁v	-9.50528
▁beoordeeld	-9.50624
▁duidelijk	-9.50665
▁scalp	-9.50754
▁vulva	-9.51066
▁uiteinde	-9.51071
eerd	-9.51375
acanthoom	-9.51421
curettement	-9.51493
▁random	-9.5151
▁Echogeleid	-9.51626
▁toegenomen	-9.51932
▁kerato	-9.52027
▁was	-9.52032
onderzoek	-9.52235
▁schouderblad	-9.52264
incontinentie	-9.52386
▁lamblia	-9.52427
▁maligna	-9.52427
supraclaviculair	-9.52429
RICH	-9.52449
▁behoe	-9.52468
▁annulare	-9.52469
▁pati	-9.52619
▁micronodulair	-9.52951
▁poliepen	-9.53179
▁intern	-9.53257
▁gehe	-9.53292
ng	-9.53326
▁aangegeven	-9.53434
reactie	-9.53647
▁simplex	-9.53946
▁necrotiserende	-9.54018
▁onderzochte	-9.5414
▁coupe	-9.54431
▁hiervan	-9.54455
GE	-9.54573
▁stansbiopt	-9.54697
▁compact	-9.55005
▁oppervlak	-9.55183
▁oedeem	-9.55641
01	-9.55781
▁helix	-9.55832
▁grensvlaknaevus	-9.55984
sch	-9.56017
▁acti	-9.56027
▁lymfo	-9.56032
arge	-9.56252
ALE	-9.56283
EI	-9.56453
▁chirurgie	-9.56505
▁pancreas	-9.56655
uentie	-9.56845
▁i	-9.56851
▁thoracaal	-9.56918
▁*******:	-9.56983
▁Radicaal	-9.57021
▁locatie	-9.57116
▁besproken	-9.57181
ic	-9.57301
▁(100	-9.57353
hr	-9.57365
▁heeft	-9.57576
▁matuur	-9.57598
▁a	-9.57791
nijranden	-9.5786
▁scheenbeen	-9.58017
▁(2)	-9.58121
▁bot	-9.58185
▁Is	-9.58417
▁lengte	-9.58455
▁aanvulling	-9.58462
▁digitus	-9.5853
▁interpretatie	-9.58598
▁bovenkwadrant	-9.58653
▁ongewijzigd	-9.58741
rs	-9.58814
21-	-9.58863
biopsie	-9.59002
▁beste	-9.59008
▁sessiel	-9.59133
▁nasi	-9.59135
▁biologisch	-9.59189
▁overwegingen	-9.5927
▁Aanvullende	-9.59424
onderverdelingen	-9.59692
verende	-9.59693
linisch	-9.59721
▁lymfoid	-9.59729
▁antrumtype	-9.59762
▁Deze	-9.60064
▁mid	-9.6015
▁erosieve	-9.60223
▁serrated	-9.60236
▁tumorpositief	-9.60413
▁proximale	-9.60443
1).	-9.60508
▁diffuse	-9.61293
▁bronchus	-9.61335
▁duiden	-9.61427
▁granulerende	-9.61459
▁onderooglid	-9.61525
▁maagtype	-9.61549
▁degeneratieve	-9.61948
▁zone	-9.6218
Biopt	-9.622
▁voet	-9.62214
▁hypertrofische	-9.62219
athologie	-9.62243
▁normocellulair	-9.62383
▁Ascites	-9.62513
dysplasie	-9.62528
beeld	-9.62528
▁bevestigd	-9.6262
▁Centrum	-9.62935
▁tractus	-9.62937
▁grote	-9.6327
▁onderscheid	-9.6336
▁Histologisch	-9.63424
▁massa	-9.63442
hals	-9.63449
▁cysteuze	-9.63519
raag	-9.63619
umor	-9.63632
▁Lisexcisie	-9.63669
▁22	-9.63735
▁lumbaal	-9.63869
▁interstitiele	-9.63939
▁verband	-9.64611
▁plaats	-9.64641
▁neuspunt	-9.64961
▁beschouwen	-9.65177
BBL	-9.65179
▁compleet	-9.65183
▁(1)	-9.65459
▁labium	-9.6556
▁Hodgkin	-9.65716
hipple	-9.65745
▁activiteit	-9.65748
▁geadviseerd	-9.65757
▁waarop	-9.65761
-20	-9.65843
▁adnexen	-9.65877
▁Re	-9.66071
▁hetgeen	-9.66148
arsh	-9.66316
▁doorsnijden	-9.6632
▁nier	-9.66549
▁ERBB	-9.66647
▁BCL	-9.66699
▁verrukeuze	-9.66974
score	-9.67405
is	-9.67408
RAD	-9.67526
-21	-9.67641
fluorescentie	-9.67708
ontsteking	-9.67846
unctaat	-9.67906
hyperpigmentatie	-9.68051
▁ingezet	-9.68083
▁parakeratose	-9.68133
▁oesophagitis	-9.68134
riescoupe	-9.68408
▁slijm	-9.68435
▁verzoek	-9.68635
▁Curettage	-9.68648
LAIR	-9.68654
▁IgA	-9.68701
▁ischemie	-9.68719
▁pleiomorf	-9.68744
▁Bronchus	-9.68796
▁node	-9.69064
▁klierbuizen	-9.69404
Invasie	-9.69668
terusextirpatie	-9.69704
▁aankleuring	-9.69827
ter	-9.70041
▁behouden	-9.70411
▁21	-9.70502
van	-9.70564
DI	-9.70655
21	-9.70754
▁ongev	-9.70815
▁fibroom	-9.70868
endocriene	-9.70909
▁extranoda	-9.70963
▁celmateriaal	-9.71025
▁eveneens	-9.71027
▁perforatie	-9.71121
▁ontbreken	-9.71136
▁randen	-9.71256
▁ml	-9.713
▁separaat	-9.71676
▁architectuur	-9.71759
▁glandula	-9.71803
▁minimaal	-9.71898
▁segment	-9.71973
▁net	-9.71985
jw	-9.72221
proliferatie	-9.7234
▁richting	-9.72494
▁pyogenicum	-9.72827
▁Cristabiopt	-9.72949
▁Dunne	-9.72992
2)	-9.73112
▁prurigo	-9.73195
▁voldoende	-9.73444
▁opzicht	-9.73473
intern	-9.73819
voorhoofd	-9.73841
▁hyperplastisch	-9.73852
reticulaire	-9.73901
▁verhoornend	-9.74085
lymf	-9.74199
▁ontstaan	-9.74224
▁af	-9.74242
micro	-9.74326
▁ischemisch	-9.74373
Her	-9.74409
adenocarcinoom	-9.74419
▁apex	-9.74477
prostaat	-9.74539
▁2-	-9.7457
▁Colon	-9.74579
Excisie	-9.74665
▁acuta	-9.74679
Bethesda	-9.75127
▁hebben	-9.75304
▁solair	-9.75338
▁gram	-9.75396
▁myometrium	-9.75447
cf	-9.7552
▁endometriose	-9.75602
verige	-9.7569
▁typering	-9.75767
▁gepigmenteerde	-9.75792
▁doch	-9.76057
▁sneevlak	-9.76278
marge	-9.76292
▁1).	-9.76376
▁beschadigde	-9.76389
sreactie	-9.76508
▁hypercellulair	-9.76566
▁typisch	-9.76657
▁geven	-9.76666
▁urotheel	-9.76682
▁verlies	-9.76788
▁mucineus	-9.76908
Galblaasresectie	-9.77182
▁specificiteit	-9.77202
▁HR	-9.7723
▁juist	-9.77294
▁mediastinum	-9.77295
▁pipelle	-9.77334
▁total	-9.77341
▁tubae	-9.77452
js	-9.77775
▁interesse	-9.77843
▁Hier	-9.78008
ste	-9.78046
▁respons	-9.78064
rh	-9.78289
▁overwegen	-9.78305
gewicht	-9.78435
▁ade	-9.78458
terus	-9.78493
kh	-9.78497
ectomie	-9.78741
▁et	-9.78759
▁kapsel	-9.78869
▁geA	-9.79058
▁hematopoese	-9.79138
▁naaldbiopt	-9.79239
▁overleg	-9.79602
-01	-9.79679
▁lisexcisie	-9.79699
▁hierover	-9.79805
▁fibreus	-9.79833
▁resten	-9.79921
▁erythema	-9.80448
▁ziekenhuis	-9.80449
uencing	-9.80449
cilinderepitheel	-9.80509
▁lupus	-9.80544
ext	-9.80573
▁rond	-9.80642
▁indien	-9.80775
▁afstand	-9.80872
▁grond	-9.81005
▁inzendingen	-9.81147
▁sinus	-9.81207
▁beenmergbiopt	-9.81347
maal	-9.81362
▁cho	-9.81381
▁necrotisch	-9.81456
▁haarfollikel	-9.81666
▁fragmentjes	-9.81678
▁neurofibroom	-9.8178
▁propria	-9.81794
punctaat	-9.81818
▁elleboog	-9.81952
▁blasten	-9.81989
▁oud	-9.82057
▁verspreid	-9.82096
▁oude	-9.82267
▁oncogene	-9.8245
▁poliepeus	-9.82536
▁prostaatweefsel	-9.82547
▁vanwege	-9.8256
▁pols	-9.82821
▁bijschildklier	-9.83152
▁mesotheel	-9.83166
▁hierbij	-9.83221
▁afdeling	-9.83252
▁reflux	-9.83342
▁sigmoA	-9.83475
▁stemband	-9.83527
▁milde	-9.83563
▁gevolg	-9.83592
▁Huidbiopten	-9.83666
▁per	-9.83696
▁betekenis	-9.83876
▁perifeer	-9.84059
odulair	-9.84454
▁poliepje	-9.84483
▁gewicht	-9.84548
▁0,1	-9.84597
anaal	-9.84631
Advies	-9.8466
▁IgG	-9.84835
lecystolithiasis	-9.8494
▁IDH	-9.85026
▁pleura	-9.85073
▁middels	-9.85092
cm	-9.85159
▁onderbuik	-9.85209
▁geduid	-9.8528
k	-9.85456
▁overweging	-9.85539
toch	-9.85562
▁calcificaties	-9.85582
▁auto	-9.85791
▁infectieuze	-9.85979
▁Immuun	-9.86049
▁paramediaan	-9.86177
RE	-9.86203
Bls	-9.86578
▁gaat	-9.86591
▁mede	-9.86745
ap	-9.8676
▁clavicula	-9.86846
▁gr	-9.87307
▁ja	-9.87338
▁papillomateuze	-9.87351
metastase	-9.87464
clusief	-9.87527
▁lymfeklieren	-9.87551
eds	-9.87569
▁aanvraag	-9.87785
▁ronde	-9.87854
▁gezichtspunten	-9.87987
codon	-9.87987
▁darmziekte	-9.88035
angio	-9.88133
eration	-9.88151
▁Huidcurettage	-9.88156
▁aspiratie	-9.88269
calcificaties	-9.88299
▁sarcoom	-9.88468
▁extirpatie	-9.88532
gezonden	-9.88698
▁consultatie	-9.88714
▁cervixbiopt	-9.88751
▁Breslow	-9.88789
▁pathologisch	-9.89081
▁laesies	-9.89198
ammareductie	-9.89405
▁1,2	-9.89444
▁metastatisch	-9.89525
▁vaten	-9.89598
▁subcutaan	-9.89652
▁musculus	-9.89677
para	-9.89795
▁alleen	-9.90114
▁verlittekening	-9.90192
▁dubieus	-9.90237
▁foetal	-9.90265
y	-9.90673
▁krapst	-9.9084
inverted	-9.90876
▁sarcoidose	-9.90878
▁suboptimaal	-9.90882
RI	-9.90885
▁uitsluiting	-9.90893
▁zwangerschaps	-9.90909
▁rondom	-9.90923
▁mogelijkheid	-9.90946
▁inactief	-9.90946
▁glomeruli	-9.9095
▁tumoren	-9.91066
▁talgklier	-9.91071
▁iliaca	-9.9112
baar	-9.91149
▁Derhalve	-9.91161
▁morfologie	-9.91184
▁acinair	-9.91282
DER	-9.91408
▁peritoneum	-9.91563
▁komt	-9.91611
▁groten	-9.91622
▁solaris	-9.91657
▁para	-9.91663
▁combinatie	-9.9171
▁dikke	-9.91717
▁infiltratief	-9.91743
▁cavum	-9.91749
▁chroniciteit	-9.91763
▁geneesmiddelen	-9.91874
▁laboratorium	-9.91887
▁gedetecteerd	-9.91899
▁Door	-9.91945
▁Excisiebiopt	-9.92046
coeur	-9.92134
cs	-9.92296
▁gebruik	-9.9232
▁geeft	-9.924
resectievlak	-9.92734
partiele	-9.92763
▁subcutane	-9.92766
▁herhalen	-9.93098
▁mycose	-9.93099
▁aanduiding	-9.93145
▁beschouwd	-9.93147
LH	-9.93154
▁Echter	-9.93298
▁toxicodermie	-9.93303
dat	-9.93312
▁vasculair	-9.93498
immunohistochemi	-9.93506
▁z	-9.93526
▁fragmentje	-9.93568
mede	-9.93728
▁papel	-9.93751
▁geisoleerd	-9.9385
▁geassocieerd	-9.9395
▁preauriculair	-9.94172
corpusslijmvlies	-9.94272
▁dunnedarm	-9.94292
▁(*******):	-9.94473
diagnostisch	-9.94478
iding	-9.94602
▁Definitief	-9.94642
▁wegen	-9.94683
▁al	-9.94729
▁elastose	-9.9481
tische	-9.94845
▁Representatief	-9.94936
heel	-9.95142
lijn	-9.95178
diagnose	-9.95192
ooralsnog	-9.953
▁rectosigmoid	-9.95343
▁binnen	-9.95356
▁proliferatieve	-9.9538
▁dermatose	-9.9542
▁verrichte	-9.95453
▁epidermiscyste	-9.95506
sigmoid	-9.95507
▁testis	-9.9552
▁kruin	-9.95626
immuun	-9.95883
iets	-9.95888
▁0.	-9.95979
at	-9.96026
▁mesothelioom	-9.96046
▁aangevraagd	-9.9614
▁leiomyomen	-9.96143
▁vier	-9.96326
▁gisten	-9.96365
▁0,2	-9.96609
Een	-9.9669
▁fusie	-9.96701
ntstekingsbeeld	-9.96771
ammabiopten	-9.96783
▁AD	-9.96794
ca	-9.96909
▁heup	-9.97026
status	-9.97055
-10-201	-9.9709
▁Beenmerg	-9.97326
▁glandulair	-9.97368
▁o	-9.974
▁Appendix	-9.97451
uteriene	-9.97592
linische	-9.976
▁circa	-9.97766
▁capillair	-9.97846
▁puntjes	-9.97859
▁bulbus	-9.98164
▁Ge	-9.9817
niet	-9.98252
poliep	-9.98345
▁spongiose	-9.98484
Hodgkin	-9.985
klasse	-9.9851
▁opsnijden	-9.9851
ARD	-9.98643
▁perivasculair	-9.9867
▁receptor	-9.98991
▁aanle	-9.99094
▁snijrand	-9.9917
-22	-9.99224
▁inzage	-9.99277
▁miljoen	-9.99296
▁enig	-9.99305
▁on	-9.99399
▁endocervix	-9.99458
▁Duodenums	-9.9966
wang	-9.99887
▁gland	-9.99905
Gly	-10.0011
▁pseudo	-10.0064
0-0	-10.0068
▁recente	-10.0069
▁digestivus	-10.0077
Endometriumbiopt	-10.0078
▁dankzegging	-10.0088
anks	-10.0089
▁verandering	-10.0096
▁minste	-10.0104
text	-10.0104
▁retro	-10.0141
▁b	-10.0156
▁ductus	-10.0172
▁omentum	-10.0182
▁huidbiopten	-10.019
▁negatieve	-10.0198
1)	-10.0205
▁fre	-10.0206
▁2).	-10.0207
-02	-10.0218
▁intestinaal	-10.0228
▁ziekte	-10.0237
▁ureter	-10.0241
LIER	-10.0242
▁lentigineuze	-10.0252
▁Accreditatie	-10.0252
edisch	-10.0254
▁bovenstaande	-10.0255
heid	-10.027
ascendens	-10.0271
▁fase	-10.0281
vrijwel	-10.0293
rt	-10.0324
▁melanoma	-10.0334
▁Lynch	-10.0346
▁staat	-10.0346
▁nadere	-10.0348
▁zich	-10.035
DE	-10.0352
aagantrum	-10.0356
▁doorgroei	-10.0362
▁beginnend	-10.0365
▁longcarcinoom	-10.038
▁Aan	-10.0392
-11-201	-10.041
▁daarbij	-10.0427
▁keratoacanthoom	-10.0431
▁daarin	-10.0438
effect	-10.0446
▁kenmerkend	-10.0446
▁abdomen	-10.0464
▁deposities	-10.0488
▁resultaat	-10.0502
▁erosie	-10.0503
Bronchusspoeling	-10.0504
▁discrete	-10.0507
▁schimmel	-10.0509
▁temporalis	-10.051
▁beschreven	-10.0514
▁brush	-10.0518
▁kwaliteit	-10.052
niercelcarcinoom	-10.0521
▁procedure	-10.0533
▁wand	-10.0542
it	-10.0554
▁parietaal	-10.0561
▁li	-10.0571
therapeutisch	-10.0589
▁erytrocyten	-10.063
▁gemarkeerde	-10.0638
▁vagina	-10.0658
▁Celrijke	-10.0666
▁pityriasis	-10.0673
▁hiervoor	-10.0676
▁topografie	-10.0689
▁blauw	-10.0695
▁nabij	-10.0701
▁apocriene	-10.071
oliep	-10.0724
corpus	-10.0755
uat	-10.0756
▁uitrijpend	-10.0758
lokdarmbiopten	-10.0763
dikte	-10.0772
▁Hoe	-10.0779
-12-201	-10.0782
▁uitstrijk	-10.0786
▁hart	-10.0789
▁toe	-10.0798
ring	-10.0804
▁paranasaal	-10.081
▁zijwand	-10.0821
▁middel	-10.0841
▁heldercellig	-10.0845
▁man	-10.0853
▁verwijzing	-10.0858
z	-10.0863
▁zien	-10.0867
receptor	-10.0872
▁volgende	-10.0878
gesteronreceptor	-10.0882
▁percentage	-10.0893
oorkeur	-10.0919
▁sentinel	-10.0924
celcarcinoom	-10.0932
▁algemeen	-10.0933
▁cell	-10.0957
anel	-10.0984
▁arteri	-10.0995
dermatitis	-10.0999
▁gedilateerde	-10.1015
▁curettement	-10.1018
▁muscularis	-10.1021
▁vetnecrose	-10.1022
▁betrouwbaar	-10.1034
▁n	-10.1043
-12	-10.1048
▁granuloom	-10.1057
atig	-10.1064
pas	-10.1065
▁Botbiopt	-10.1067
▁reuscelreactie	-10.107
punctie	-10.1081
▁uitrijping	-10.1099
aligne	-10.1104
tumorlokalisatie	-10.1111
ta	-10.1113
▁RB	-10.1121
▁wisselende	-10.1127
▁mate	-10.1132
▁leukemie	-10.1135
cellen	-10.1139
▁buikwand	-10.1142
ppervlakkige	-10.1152
lymfoom	-10.1161
▁gevolge	-10.1196
ransformatiezone	-10.1201
▁rejectie	-10.1201
▁microsatelliet	-10.1204
▁flegmoneuze	-10.121
▁ooglid	-10.1216
▁fund	-10.122
AD	-10.1243
▁2)	-10.1243
regio	-10.1261
▁vreemdlichaams	-10.1275
▁mammareductie	-10.1294
aire	-10.1296
Aanvullende	-10.13
ook	-10.1313
LB	-10.1314
▁microscopisch	-10.1318
0)	-10.1322
ICA	-10.1347
ro	-10.1348
▁pro	-10.1362
▁Duodenum	-10.1369
▁moet	-10.1385
neer	-10.1385
▁adenomyosis	-10.1389
▁FGFR	-10.1408
postinflammatoir	-10.1408
▁onregelmatig	-10.1467
DL	-10.1467
▁linkerwang	-10.1475
umoren	-10.1478
▁amyloid	-10.1489
▁aspecifiek	-10.149
▁meerkernige	-10.1499
▁basaal	-10.1504
▁tumorweefsel	-10.1511
▁Benigne	-10.1512
▁breuk	-10.1515
▁waard	-10.1521
▁axillair	-10.1526
existent	-10.1543
▁geassocieerde	-10.1546
▁deletie	-10.1551
respectievelijk	-10.1551
GI	-10.1554
Dit	-10.1561
▁gelijktijdi	-10.1569
▁histologie	-10.1569
EHE	-10.157
▁bevestiging	-10.1579
gezien	-10.1579
▁voorlopig	-10.1587
▁patroon	-10.1593
▁stromal	-10.1595
DEF	-10.1596
Lymfklierpunctie	-10.16
▁klassiek	-10.1606
▁geinkte	-10.1616
▁blue	-10.1625
▁cysteus	-10.1625
Immuunhistochemi	-10.1634
hondrodermatitis	-10.1644
EGFR	-10.165
▁trilineair	-10.1664
▁foci	-10.1666
▁Bowenoide	-10.1669
▁Dieper	-10.1684
melijk	-10.1715
▁dikte	-10.1715
parenchym	-10.1735
▁afwezigheid	-10.1761
mogelijk	-10.1763
▁groeipatroon	-10.1765
▁se	-10.177
▁merg	-10.1773
uba	-10.1783
▁urticaria	-10.1785
um	-10.1814
▁occipitaal	-10.1816
AI	-10.183
▁plasmacel	-10.1842
▁leeftijd	-10.1861
meer	-10.1862
▁restant	-10.1862
ul	-10.1864
▁onzeker	-10.1877
21-1	-10.188
over	-10.1887
▁sternum	-10.1897
▁bovenbuik	-10.1907
ierbiopt	-10.193
▁populatie	-10.1931
spoelvocht	-10.194
keursdiagnose	-10.194
▁geexcideerd	-10.1952
20-1	-10.1954
kd	-10.1967
▁gegeven	-10.1979
▁aorta	-10.1984
▁langer	-10.1987
▁volume	-10.2002
oorlopig	-10.2004
▁degeneratie	-10.2014
▁crista	-10.2015
▁wan	-10.2025
CA	-10.2029
▁ala	-10.2039
▁bestaat	-10.2053
▁idiopathisch	-10.2056
▁jaar	-10.2057
bijzijn	-10.2059
▁lichenoA	-10.206
▁etiologie	-10.2063
▁cel	-10.2079
▁dorsal	-10.2087
▁binnenzijde	-10.2113
▁achterzijde	-10.2118
▁zijsnijrand	-10.2138
▁neutrofiele	-10.2148
▁aantoonba	-10.2149
▁noemenswaardig	-10.2149
▁suspect	-10.2149
▁beschadiging	-10.2155
▁significant	-10.2156
▁Brush	-10.2164
▁vraagstelling	-10.2164
▁moeilijk	-10.2168
▁tweede	-10.2186
▁vriescoupes	-10.2197
▁Gen	-10.2204
2).	-10.221
▁genomen	-10.2225
tansbiopt	-10.2229
▁kleiner	-10.2233
▁cardia	-10.2245
▁letsel	-10.2246
GREE	-10.2249
perifolliculitis	-10.2258
▁geanalyseerd	-10.226
uurs	-10.2266
air	-10.2267
▁darmbiopten	-10.2272
▁obductie	-10.2282
▁LE	-10.229
ulvabiopt	-10.2349
▁secundaire	-10.235
▁archief	-10.235
Blokje	-10.2351
▁pigmentosus	-10.2361
▁erfelijk	-10.2365
▁anders	-10.2373
mucosa	-10.2373
▁anastomose	-10.2381
▁secundair	-10.2383
▁rechterwang	-10.2395
▁congenitale	-10.2402
▁stase	-10.2411
existente	-10.2434
antal	-10.2437
▁hele	-10.2446
arthin	-10.2451
▁lamina	-10.2452
▁administratie	-10.2452
▁cholesterolose	-10.2452
▁gehandhaafd	-10.2452
▁overlijden	-10.2453
▁marges	-10.246
▁macrofagen	-10.2467
istomorfologisch	-10.2471
ns	-10.2475
grootste	-10.2475
hv	-10.2475
▁externa	-10.248
LA	-10.2489
▁hoofdhuid	-10.2497
]201	-10.2498
▁exact	-10.2521
▁kappa	-10.253
▁flexura	-10.2535
▁cutaneum	-10.2556
▁behoort	-10.2558
▁hepatica	-10.2558
▁opgestuurd	-10.2564
epitheelcellen	-10.2564
▁onduidelijk	-10.2566
ide	-10.2603
▁achterlip	-10.2605
-00	-10.2613
▁Cervixbiopten	-10.2623
mucosale	-10.2643
extirpatie	-10.2648
▁gedaan	-10.266
▁schimmeldraden	-10.266
-02-201	-10.266
▁hoge	-10.2667
▁parasieten	-10.2671
▁aldaar	-10.2675
▁ulceratieve	-10.2679
blaas	-10.2682
proliferatieve	-10.2691
▁blijk	-10.27
▁IHC	-10.2713
▁effect	-10.2721
10)	-10.2723
▁hotspots	-10.2729
▁varianten	-10.273
▁rechterschouder	-10.2731
▁GE	-10.2733
▁kraakbeen	-10.2735
▁oestrogeen	-10.2748
▁voorlip	-10.2761
▁chronicus	-10.2765
▁histiocytair	-10.2777
▁irritatie	-10.2777
▁allel	-10.2778
▁serosa	-10.2779
▁hyper	-10.2793
▁goedaardige	-10.2793
▁prolifererend	-10.2813
▁vertex	-10.2837
▁beh	-10.2843
▁lage	-10.2863
waliteit	-10.2871
onderbeen	-10.2872
▁spectrum	-10.2874
▁steatose	-10.2874
▁dichtst	-10.2875
▁graviditeit	-10.2882
▁margina	-10.2885
schimmelinfectie	-10.29
▁kalk	-10.2905
klierdissectie	-10.2908
ale	-10.2913
▁Richardson	-10.2913
▁Bloom	-10.2917
▁transformatie	-10.2921
▁bepalingen	-10.2921
stansbiopsie	-10.2926
basaalcel	-10.2931
▁onderzocht	-10.2935
▁bacterien	-10.294
▁gescleroseerd	-10.2946
-2021:	-10.2948
▁cribriform	-10.2964
▁geindiceerd	-10.2979
▁inzichten	-10.2985
▁atherosclerose	-10.2986
ulp	-10.2995
▁hersenen	-10.2996
▁acanthose	-10.2997
▁Adnex	-10.3012
▁penis	-10.3039
strogeenreceptor	-10.3051
▁dig	-10.3054
-11	-10.3067
▁gastro	-10.3068
▁zijrand	-10.3076
aal	-10.3079
anwege	-10.3081
▁geval	-10.3087
▁cornu	-10.3088
▁nu	-10.3093
▁rosacea	-10.3094
▁bevestigt	-10.3094
▁inclusiecyste	-10.3099
▁Enkel	-10.3112
▁Rectumbiopten	-10.3113
▁proliferatief	-10.314
ende	-10.3152
childklierpunct	-10.3176
atie	-10.3177
▁2,0	-10.3192
▁helicis	-10.3197
▁denken	-10.3198
▁Huidexcochleaat	-10.3198
▁reden	-10.3199
▁medisch	-10.32
▁behandelend	-10.3201
▁neuroom	-10.3205
▁groot	-10.3209
▁gemaakt	-10.3209
▁pigmentatie	-10.321
rectum	-10.3241
22-1	-10.3243
reuscelreactie	-10.3247
uitslag	-10.3253
▁maagcorpustype	-10.3273
▁ernstig	-10.3282
▁Resectieranden	-10.3308
▁mastopathisch	-10.3308
▁choledochus	-10.3309
chimmelkleuring	-10.3312
▁urethra	-10.3317
celpercentage	-10.3325
▁Alle	-10.3344
▁ganglion	-10.3347
▁compatibel	-10.3348
IL	-10.3349
▁ovaria	-10.3355
▁myelo	-10.336
▁Cave	-10.3366
CLA	-10.3378
▁ductale	-10.3389
▁paraffine	-10.3404
euze	-10.3415
▁navelstreng	-10.342
nstrumenta	-10.3421
▁vlokken	-10.3421
▁myeloom	-10.3421
▁bekleed	-10.3421
▁Borg	-10.3421
▁21-0	-10.3423
▁intestinaaltype	-10.3434
▁ingenomen	-10.3436
istopathologisch	-10.3436
cytologie	-10.3444
▁reuscellen	-10.3446
▁ventrale	-10.3451
▁Leverbiopt	-10.346
▁mutatieanalyse	-10.3461
cyste	-10.3466
▁tubulo	-10.3475
▁cytologie	-10.3481
artiele	-10.3482
▁ablatio	-10.3489
erk	-10.3502
▁achterwand	-10.3507
lijmvliesexcisie	-10.3527
▁gevoelig	-10.3537
-2022:	-10.3542
▁BI	-10.3542
▁doorsneden	-10.3553
dissectie	-10.3561
▁fors	-10.3561
▁krabeffecten	-10.3561
▁vanaf	-10.3565
▁inflammatoir	-10.3571
scomponent	-10.3595
Gleason	-10.3601
consult	-10.3602
▁AA	-10.3618
EL	-10.3625
▁condyloma	-10.3649
▁deferens	-10.3649
▁fragmentatie	-10.365
-01-201	-10.3651
▁portale	-10.3673
▁hoe	-10.3675
▁endometrioid	-10.3676
▁pneumonie	-10.368
▁beoordeelbare	-10.368
▁gewenst	-10.368
epitheliaal	-10.3685
▁mandibula	-10.3692
Appendixresectie	-10.3707
▁BCC	-10.371
bovenbeen	-10.3716
▁*******):	-10.3734
▁linkerschouder	-10.3749
laatselijk	-10.3751
▁nierbiopt	-10.3756
2):	-10.3756
colon	-10.3759
ammabiopt	-10.3761
▁hepatitis	-10.3766
▁submucosa	-10.3767
ard	-10.3777
▁sampling	-10.3783
aG	-10.3791
▁corpusbiopten	-10.3795
lijmvliesbiopt	-10.3799
as	-10.3806
or	-10.3807
pathologie	-10.3813
▁vital	-10.3815
ijn	-10.3847
0,	-10.3861
fstand	-10.3869
esophagus	-10.3872
ekerheidshalve	-10.3883
▁geneticus	-10.3886
aagbiopt	-10.3901
▁depositie	-10.3915
▁diverticulitis	-10.3915
▁Eventue	-10.392
▁verstoring	-10.3922
naaldbiopt	-10.3925
▁nefropathie	-10.3939
▁haargrens	-10.3939
▁vorming	-10.394
intestinale	-10.3957
histiocytaire	-10.3978
▁spier	-10.3981
▁middenkwab	-10.3984
000	-10.3985
component	-10.3992
▁slijmvliesbiopt	-10.3996
▁adenose	-10.3998
neevlakken	-10.3999
rijgingstechniek	-10.4002
chorioamnionitis	-10.4002
▁cystadenoom	-10.4002
▁doorgesneden	-10.4003
spoliep	-10.4004
stb	-10.4006
▁vitaal	-10.402
▁gradering	-10.4023
1):	-10.4027
▁Levernaaldbiopt	-10.4057
▁20-0	-10.4058
ierbij	-10.4067
▁opvallend	-10.4076
st	-10.4078
lp	-10.4079
▁lymfocytair	-10.4085
▁loka	-10.4119
▁diagnosen	-10.4122
▁repair	-10.4123
▁vrouw	-10.4123
▁zonbeschadigd	-10.4123
▁dus	-10.4125
▁krabeffect	-10.4129
IGE	-10.414
▁leverbiopt	-10.4144
▁lobulaire	-10.4153
BR	-10.4158
▁post	-10.4179
▁vooral	-10.4191
▁spoeling	-10.4207
risk	-10.422
▁zwak	-10.4237
▁mismatch	-10.4245
▁prolaps	-10.4245
eku	-10.4245
▁tijdens	-10.4245
jr	-10.4245
▁opgesneden	-10.4246
▁gebieden	-10.4278
▁tong	-10.4288
ische	-10.4316
▁cervixpoliep	-10.4328
eneuze	-10.4328
ximale	-10.4329
lasse	-10.4334
▁wisselend	-10.4345
acuut	-10.4365
▁Dikke	-10.4368
▁radiculaire	-10.4369
▁hoornmateriaal	-10.437
▁geneesmiddel	-10.437
▁embryona	-10.4372
LAG	-10.4379
▁mechanisch	-10.4385
dd	-10.4394
▁complete	-10.4397
▁Radicaliteit	-10.4412
▁bulleus	-10.4417
▁langs	-10.4424
▁sclerose	-10.4436
zelfde	-10.444
neus	-10.4442
els	-10.4476
aanwijzingen	-10.4479
temporaal	-10.448
▁12-0	-10.4484
ubectomie	-10.4487
▁02-0	-10.4488
▁verklaring	-10.4493
▁overleden	-10.4493
lomerulonefritis	-10.4494
ancer	-10.4494
▁mitosen	-10.4495
▁celgroepen	-10.4502
AID	-10.4521
▁fibrine	-10.4524
▁Reexcisie	-10.4544
▁ver	-10.4545
▁ware	-10.4561
ig	-10.4565
test	-10.4588
▁bovenooglid	-10.459
▁peritonitis	-10.4597
excisiepreparaat	-10.4605
▁groep	-10.461
]02-0	-10.4611
▁insectenbeet	-10.462
▁subtiel	-10.462
▁urotheelcellen	-10.4621
endocrien	-10.4626
▁colonmucosa	-10.4629
▁hoogste	-10.4631
▁vijf	-10.4633
▁herhaling	-10.4633
▁infarcering	-10.4648
▁superfici	-10.468
epidermale	-10.4681
behaarde	-10.469
▁progesteron	-10.4693
yelodysplastisch	-10.4697
▁zijresectievlak	-10.4713
▁we	-10.4717
▁lambda	-10.4717
▁huidafwijking	-10.4724
-2020:	-10.4733
rw	-10.4738
inimale	-10.4742
cysteuze	-10.4742
▁geschat	-10.4743
▁22-0	-10.4773
▁scleroserend	-10.4776
Huid	-10.4784
▁bestaand	-10.4794
]21-0	-10.4818
AR	-10.4833
xcochleaat	-10.4837
▁placentarest	-10.4871
sverschijnselen	-10.4878
▁betrekk	-10.4878
cutaan	-10.4878
▁maakt	-10.4886
▁genherschikking	-10.4886
▁kans	-10.4888
▁littekenvorming	-10.4889
▁waargenomen	-10.4892
▁tongrand	-10.4897
▁gekend	-10.4902
▁uitgaand	-10.4906
▁coloncarcinoom	-10.4906
▁200	-10.491
▁beschadigd	-10.4914
ader	-10.4917
▁botbiopt	-10.4929
▁blokjes	-10.4941
▁even	-10.4957
▁laatste	-10.4959
BE	-10.4962
▁ander	-10.4969
ERE	-10.4996
orbu	-10.5002
▁bewijs	-10.5009
▁micrografi	-10.5009
▁herkenbaar	-10.501
▁beter	-10.501
▁kon	-10.5011
▁dien	-10.5037
aat	-10.5045
▁Ampli	-10.5046
▁at	-10.5054
▁myeloide	-10.5063
▁vaatinvasie	-10.5069
▁referentie	-10.5089
▁1,1	-10.5092
▁ons	-10.5107
laesie	-10.5119
klierweefsel	-10.5131
▁adenomen	-10.5143
▁microkalk	-10.5143
transversum	-10.5152
▁cystewand	-10.5154
▁arts	-10.5157
▁simpele	-10.5162
▁transplantatie	-10.5175
itis	-10.5177
▁chromosoom	-10.5179
▁hypertrofe	-10.5184
▁stadium	-10.5203
▁gesteld	-10.5218
schimmelkleuring	-10.5243
▁toxisch	-10.5246
▁telefonisch	-10.5279
▁wekedelen	-10.5279
oom	-10.5284
het	-10.5284
aj	-10.5286
activiteit	-10.5289
▁assay	-10.5292
▁adenoid	-10.5292
▁angioom	-10.5295
▁ostium	-10.5298
rechteronderbeen	-10.5305
▁groter	-10.5309
▁lesie	-10.5319
▁laat	-10.532
▁plaatsen	-10.5327
▁patiente	-10.5329
▁polyp	-10.534
min	-10.5346
▁lip	-10.5348
▁1)	-10.5352
microscopische	-10.5353
rale	-10.5354
▁Long	-10.5361
CH	-10.5368
▁vanuit	-10.537
▁high	-10.5388
pipelle	-10.5389
▁cysten	-10.5395
▁BA	-10.5414
▁polyposis	-10.5415
lateral	-10.5421
▁huidlaesie	-10.5431
▁Endocervica	-10.5433
conform	-10.5437
▁therapiekeuze	-10.5437
▁collageneuze	-10.544
▁eiwitten	-10.5441
22-0	-10.5455
peri	-10.5456
▁purulente	-10.5457
ma	-10.5474
▁gefragmenteerde	-10.5475
▁subtype	-10.548
evel	-10.55
ts	-10.5522
▁spoelcellige	-10.5522
▁Helicobacters	-10.5528
ren	-10.5544
▁excisiebiopt	-10.5553
▁geworden	-10.5554
▁geld	-10.5554
matig	-10.5558
▁vastgesteld	-10.5563
▁histomorfologi	-10.5564
▁fibreuze	-10.5568
▁solitair	-10.5574
▁lichaamsvreemd	-10.558
topografie	-10.5581
structuren	-10.5581
minder	-10.5583
▁positiviteit	-10.5586
▁gerelateerde	-10.5586
▁perifere	-10.5593
▁acantholytische	-10.5609
▁bowenoide	-10.563
▁mola	-10.564
▁macroscopisch	-10.5655
▁par	-10.5656
▁colonpoliep	-10.5662
erruca	-10.5688
orfologisch	-10.5688
esultaat	-10.5694
▁resultaten	-10.5695
DIGHEID	-10.5695
gediagnostiseerd	-10.5695
▁extensie	-10.5696
▁minus	-10.5697
▁essentie	-10.5698
▁bijnier	-10.57
▁trofoblast	-10.5704
▁Acute	-10.5704
▁caudale	-10.5715
inhoud	-10.5719
▁vast	-10.5729
voorgeschiedenis	-10.5734
del	-10.5739
▁celrijke	-10.5742
▁promotor	-10.575
▁ileumbiopten	-10.5759
▁trauma	-10.5768
estrogeen	-10.5774
extraprostatisch	-10.578
21-0	-10.5801
roup	-10.5804
aad	-10.5807
▁dicht	-10.5814
ol	-10.5817
▁longen	-10.582
kin	-10.5831
▁glad	-10.5831
▁acuminatum	-10.5837
▁majus	-10.5837
▁angiolipoom	-10.5838
▁bepalen	-10.5841
oet	-10.585
ammapunctie	-10.5857
1-0	-10.586
▁retroauriculair	-10.5872
▁darmtype	-10.5878
▁nieuw	-10.5883
invasief	-10.5892
▁achterhoofd	-10.59
▁01-0	-10.5905
▁lumpectomie	-10.5911
▁Hotspot	-10.5918
-2020	-10.5928
▁resp	-10.5942
IGD	-10.5956
▁vaat	-10.5957
*	-10.5961
▁(*******)	-10.5968
ar	-10.598
omatisch	-10.5982
▁teratoom	-10.5982
▁toezending	-10.5982
▁clonale	-10.5983
]11-0	-10.5984
▁lijken	-10.5985
asus	-10.5986
▁hematurie	-10.5992
appendicitis	-10.6
▁sub	-10.6002
▁craniale	-10.6002
▁histiocytoom	-10.601
satypie	-10.6011
buik	-10.6016
umordiameter	-10.6016
▁micronodulaire	-10.6022
▁gerelateerd	-10.6025
differentiatie	-10.6029
spontaan	-10.6041
▁Blaas	-10.6042
▁radiologisch	-10.6044
tenzij	-10.6049
▁zij	-10.6076
deel	-10.6079
▁10-0	-10.6095
resectievlakken	-10.6102
oesofagusbiopten	-10.6112
▁ventrikel	-10.6113
pitz	-10.6125
▁duodeni	-10.6129
▁valt	-10.6129
▁naevi	-10.613
▁transmurale	-10.613
ageren	-10.6131
▁keratocyste	-10.6135
▁sprietig	-10.6136
▁posterior	-10.6139
▁zijsnijvlakken	-10.6139
▁anterior	-10.6144
▁Immuno	-10.6145
rsi	-10.6155
▁plaveiselepithe	-10.6159
▁zijsnijranden	-10.6161
lymforeticulaire	-10.6167
▁proficient	-10.6169
▁materna	-10.6171
▁synovium	-10.6171
▁and	-10.6174
▁prominente	-10.6181
▁crypt	-10.6181
itgebreide	-10.619
▁grade	-10.6211
▁controle	-10.6212
▁cutane	-10.6217
▁spontaan	-10.6236
▁sluit	-10.6266
▁spermatozoa	-10.628
▁ab	-10.6282
▁lokalisaties	-10.6282
▁Ileumbiopten	-10.6282
▁levert	-10.6291
▁steun	-10.6297
vaatproliferatie	-10.6298
▁segmental	-10.6299
▁milt	-10.6301
wee	-10.6301
▁informatie	-10.6303
▁Corpus	-10.6307
▁Lumpectomie	-10.6313
]20-0	-10.6325
kans	-10.6335
carcinoma	-10.6339
reikend	-10.6339
▁infectieus	-10.6339
▁dysplastisch	-10.6344
▁overgevoe	-10.6352
▁lymfoA	-10.6367
-21:	-10.6384
▁top	-10.6404
▁Duodenumbiopt	-10.6423
▁onderkaak	-10.6425
▁reading	-10.643
▁macroscopie	-10.643
▁crusta	-10.643
ARGE	-10.6431
▁bepaald	-10.6434
▁gereviseerd	-10.6434
▁opnieuw	-10.6443
▁genereren	-10.6455
▁middermaal	-10.6459
lijmvlies	-10.6461
▁maken	-10.6471
▁kaak	-10.6476
▁aandoening	-10.6484
▁ulcererend	-10.6494
mediaan	-10.6497
coecum	-10.6498
plaveiselcel	-10.65
ligheidsreactie	-10.6505
▁psoriasiforme	-10.6509
lymfklierpunctie	-10.6519
-2021	-10.6532
cytochemisch	-10.6536
ge	-10.6537
maxima	-10.6543
▁potje	-10.6548
glandulaire	-10.6555
▁behandeladvies	-10.6584
▁erythematosus	-10.6584
▁cylindrisch	-10.6584
▁haematurie	-10.6584
▁sclerotisch	-10.6584
▁debris	-10.659
▁puntje	-10.6591
▁megakaryocyten	-10.6592
▁inder	-10.6593
▁reeks	-10.6595
▁alopecia	-10.66
▁overeen	-10.6602
▁Lymfklierbiopt	-10.6605
▁gastrisch	-10.6606
▁papil	-10.661
▁oorspronkelijk	-10.6611
▁antistoffen	-10.6613
GR	-10.6613
daad	-10.6615
▁neuroendocrien	-10.6618
▁ruptuur	-10.6619
umortype	-10.6622
▁x	-10.6629
schouder	-10.6631
▁dorsum	-10.6638
▁Huidre	-10.6644
fragment	-10.6655
achtergrond	-10.666
ppervlakkig	-10.6661
▁EI	-10.6668
▁types	-10.6668
▁os	-10.6673
▁interne	-10.6693
agina	-10.6703
▁secretoir	-10.6707
biopsiemateriaal	-10.6712
▁betreffen	-10.6714
oorstel	-10.6726
2-1	-10.6735
mucineuze	-10.674
▁verhoogd	-10.674
▁beschrijving	-10.674
▁irradicaal	-10.674
glomeruloscleros	-10.6741
ekedelen	-10.6741
rogesteron	-10.6741
▁candida	-10.6744
▁sneevlakken	-10.6746
noch	-10.6749
▁mesenchymale	-10.675
sond	-10.6751
▁parenchym	-10.6756
▁direct	-10.6757
-22:	-10.6763
▁Chronische	-10.6764
enigszins	-10.6764
▁Cytologi	-10.6769
▁detecteert	-10.677
▁fistel	-10.6774
laaggradig	-10.6776
▁Crista	-10.6793
bovenarm	-10.6795
▁GR	-10.6798
nd	-10.6807
▁vol	-10.6812
eefsel	-10.6822
uterusextirpatie	-10.6823
-20:	-10.6841
mee	-10.6843
▁voorzijde	-10.6866
aar	-10.6868
▁Lokalisatie	-10.6879
iteit	-10.688
Immunohistochemi	-10.6884
epithelioom	-10.6887
▁Curettement	-10.6899
▁inflammatie	-10.6899
▁mucocele	-10.6899
▁reusceltumor	-10.6899
▁navel	-10.6901
▁duodenitis	-10.6903
▁leverweefsel	-10.6905
▁halscyste	-10.6906
▁mammaparenchym	-10.6912
vorming	-10.6915
▁buizen	-10.6915
▁advies	-10.6922
▁ivm	-10.6922
boven	-10.6928
▁celrijkdom	-10.6929
▁eosinofielen	-10.6936
▁klieren	-10.6937
0):	-10.6944
▁target	-10.6948
rmale	-10.696
▁buiten	-10.6965
▁palatum	-10.6976
▁ontstekings	-10.6977
fibroserende	-10.699
]01-0	-10.699
recidief	-10.699
midden	-10.6991
▁goedaardig	-10.7016
afwijkingen	-10.7026
▁0).	-10.7028
ariant	-10.7042
▁intraepithelial	-10.7046
▁hypertrofisch	-10.7053
mamma	-10.7054
ormaal	-10.7057
▁contagiosum	-10.706
▁mastopathie	-10.706
▁veroorzaakt	-10.706
src	-10.7061
▁zuurv	-10.7061
Arg	-10.7063
▁botweefsel	-10.7064
isch	-10.7064
▁huidadnextumor	-10.7069
▁ingesloten	-10.7074
▁waren	-10.7075
Glu	-10.7096
▁junction	-10.7098
▁endo	-10.7131
mediale	-10.7135
necrose	-10.7146
▁datum	-10.7146
▁clonaliteits	-10.7152
revisie	-10.716
igmoid	-10.7176
▁amenorroeduur	-10.7178
▁vas	-10.718
xcisie	-10.7182
▁tonsil	-10.7184
ERI	-10.7186
▁epitheelcellen	-10.7205
▁tumorrest	-10.7208
rechterbovenbeen	-10.7213
weede	-10.7213
▁huidstansbiopt	-10.7216
▁max	-10.722
oldoende	-10.7224
▁pubis	-10.7224
▁radical	-10.7224
accredit	-10.7224
DGFRA	-10.7224
cobas	-10.7224
▁darmlijden	-10.7225
▁onderkwadrant	-10.7225
▁ondersteunt	-10.7225
▁voorgelegd	-10.7226
▁zouden	-10.7227
LD	-10.7234
▁tricho	-10.7241
▁collagene	-10.7255
uamo	-10.7265
▁preparaten	-10.727
▁blaashals	-10.7273
▁weefselfragment	-10.7293
▁(12	-10.7298
slijmvliesbiopt	-10.7326
uur	-10.7331
▁huidbiopsie	-10.7389
▁circulatie	-10.7391
▁mogelijkheden	-10.7391
▁error	-10.7391
▁opgevraagd	-10.7391
aruke	-10.7391
▁getroffen	-10.7391
▁cilindrisch	-10.7391
onwaarschijnlijk	-10.7401
▁bekken	-10.7401
granuloomvorming	-10.7402
aortaal	-10.7402
hun	-10.7409
▁lichenoides	-10.7432
▁huidexcisies	-10.7444
▁lineaire	-10.7458
▁insufficientie	-10.7471
verstoring	-10.7475
uit	-10.7482
▁2):	-10.7508
level	-10.751
nodulair	-10.7512
]22-0	-10.7519
▁keratine	-10.7531
pontaan	-10.7541
▁basaalmembraan	-10.756
▁molluscum	-10.7561
▁peptisch	-10.7561
▁ascites	-10.7564
▁bekledend	-10.7564
▁verklaren	-10.7564
▁stukje	-10.757
▁impetiginisatie	-10.7571
▁leiomyosarcoom	-10.7571
▁zes	-10.7573
▁losse	-10.7574
▁Resectievlak	-10.7575
▁schwannoom	-10.7579
karakteristieken	-10.758
▁behorend	-10.7582
▁kaaklijn	-10.7586
periappendicitis	-10.7595
▁kaakrand	-10.7598
proces	-10.7609
os	-10.7609
▁krappe	-10.7618
villeus	-10.7619
jes	-10.7637
Conform	-10.7686
IHC	-10.7712
▁Celrijk	-10.7719
▁anti	-10.772
og	-10.7723
▁endometriosis	-10.7733
voorlopig	-10.7733
▁toelichting	-10.7733
▁perifolliculair	-10.7736
▁intraductaal	-10.7736
▁gevalideerd	-10.7737
▁zodat	-10.7739
sn	-10.7741
▁Basaal	-10.7744
▁toonde	-10.7744
▁insturen	-10.7747
microsatellieten	-10.7758
▁tubair	-10.7763
▁cave	-10.7765
▁anterieur	-10.7767
▁helft	-10.7767
preparaten	-10.7783
patroon	-10.7786
21-2	-10.7813
▁snijden	-10.7845
▁linkerbovenbeen	-10.7848
clon	-10.7861
tatus	-10.7863
▁complexe	-10.787
▁linkeronderbeen	-10.7871
ur	-10.7871
▁recidiverende	-10.7877
ten	-10.7901
aarschijnlijk	-10.7907
▁submandibularis	-10.7908
▁regelmatig	-10.7908
▁gastrale	-10.7908
▁Randen	-10.7909
▁molle	-10.7909
▁daarom	-10.791
▁studie	-10.7912
▁genoemd	-10.7919
▁globa	-10.792
▁omgevend	-10.7923
▁niveaus	-10.7924
▁gebiopteerd	-10.7927
king	-10.7932
stom	-10.794
▁Beide	-10.7941
igexcisie	-10.7949
▁zwart	-10.7949
ct	-10.796
▁rechtermamma	-10.7962
▁presternaal	-10.7978
▁huidig	-10.7978
zonder	-10.7989
▁ileumslijmvlies	-10.799
▁traject	-10.7993
▁poliepjes	-10.8
CD	-10.8026
lymfklier	-10.8027
ose	-10.807
▁tumorlengte	-10.8074
ao	-10.8085
Laesi	-10.8087
▁geschikt	-10.8087
▁planopilaris	-10.8087
▁communis	-10.8087
▁meerlagig	-10.8087
▁fibromusculair	-10.8087
▁imponerend	-10.8088
▁overigens	-10.8091
▁interna	-10.8095
▁vocht	-10.8098
▁celpopulatie	-10.8099
▁cilindercel	-10.8101
▁gecombineerd	-10.8106
▁oorlel	-10.8113
▁posterieur	-10.8113
▁colorectaal	-10.8123
▁mondbodem	-10.8128
▁voetrug	-10.8138
rand	-10.8154
▁reductie	-10.8158
▁maagantrumtype	-10.8168
▁niveau	-10.8201
▁lipomateu	-10.8206
snijvlak	-10.8215
▁fundus	-10.8222
random	-10.8241
product	-10.8257
epelvocht	-10.8262
▁collega	-10.8269
▁lymfatisch	-10.8269
▁verknepen	-10.8269
▁hepatocellulair	-10.8269
▁panniculitis	-10.8269
▁meningeoom	-10.8269
metaplasie	-10.8269
▁maanden	-10.827
▁hybridisatie	-10.8273
AHA	-10.8274
▁plaatepitheel	-10.8275
▁(10	-10.8277
▁coli	-10.8287
prostatisch	-10.829
▁Bronchusbiopten	-10.8295
▁cauterisatie	-10.8295
Cys	-10.8295
▁zijranden	-10.8299
▁hemicolectomie	-10.8303
▁submandibulair	-10.8303
▁monotypisch	-10.831
▁genetisch	-10.8321
▁haard	-10.8336
▁hechting	-10.8341
▁decidua	-10.8348
▁der	-10.835
ken	-10.8352
▁recent	-10.8354
adenoom	-10.8368
ype	-10.8374
▁Lever	-10.8377
otal	-10.8379
stoornissen	-10.8396
▁12-	-10.8398
▁Gefragmenteerde	-10.8409
▁duodenums	-10.8415
▁ruime	-10.8417
▁biopsies	-10.8421
microscopie	-10.8427
gelegen	-10.8434
Beeld	-10.8434
BRAF	-10.8438
▁blaasslijmvlies	-10.844
▁11-0	-10.8449
▁aangeboden	-10.8454
▁anaplastisch	-10.8454
▁compound	-10.8454
▁diverticulose	-10.8454
▁stellen	-10.8454
▁lavage	-10.8454
▁multiforme	-10.8454
▁bevatten	-10.8454
▁subacut	-10.8455
gebruik	-10.8456
▁defect	-10.8458
▁dermatoloog	-10.8458
▁fungoides	-10.8458
orre	-10.846
rriteerde	-10.8461
▁pla	-10.8467
cylinderepitheel	-10.8474
▁mycosis	-10.8474
▁maturatie	-10.8481
▁aspiraat	-10.8481
CHE	-10.8488
den	-10.8489
▁Celarm	-10.8496
▁flowcytometrie	-10.8496
▁paravertebraal	-10.8497
antrumslijmvlies	-10.8501
▁kaakhoek	-10.8504
▁linkermamma	-10.851
▁HE	-10.851
▁duct	-10.8518
▁serie	-10.8528
olypectomie	-10.8579
▁vlak	-10.8582
aagantrumbiopten	-10.8589
▁BAL	-10.8603
lateraal	-10.8615
▁vroege	-10.8618
▁the	-10.8623
▁stolsel	-10.8627
athogene	-10.8629
distaal	-10.863
erwijdering	-10.8635
▁staven	-10.8643
▁Assay	-10.8643
dieringsvoorstel	-10.8643
▁mediastinale	-10.8643
▁Bronchusbrush	-10.8643
uaat	-10.8644
▁omgeving	-10.8655
▁immuunprofiel	-10.8656
▁familie	-10.8659
▁herkomst	-10.867
▁chemotherapie	-10.867
nos	-10.868
▁femur	-10.8686
▁haarfollikels	-10.8688
▁obturatorius	-10.8695
▁hemorragische	-10.8705
▁bovenste	-10.8711
▁schildklierkwab	-10.8722
▁thoraxwand	-10.8727
▁verwijde	-10.874
▁Rectum	-10.8759
▁derde	-10.8775
]10-0	-10.8777
▁linkerzijde	-10.8781
even	-10.8782
spoliepen	-10.8784
▁junctione	-10.879
borst	-10.8803
Immuun	-10.8827
▁siliconen	-10.8835
▁beschikbaar	-10.8835
▁irregulair	-10.8835
▁viraal	-10.8835
▁gemodificeerd	-10.8835
columnair	-10.8835
▁pancreaskop	-10.8836
▁vinger	-10.8837
mutatie	-10.884
▁flardjes	-10.8841
▁hematoom	-10.8847
▁ijzer	-10.8851
▁foto	-10.8858
▁immature	-10.8859
vraag	-10.8862
▁dubbelbrekend	-10.8872
▁colontype	-10.8872
▁protocol	-10.8875
▁restmateriaal	-10.8876
▁disease	-10.8879
IA	-10.8888
▁vreemdlichaam	-10.8889
▁apicaal	-10.8895
▁nasolabiaal	-10.8919
▁extravasatie	-10.8927
▁gemengd	-10.8936
]12-0	-10.8978
groep	-10.8981
yp	-10.8983
▁aangeleverde	-10.901
submucosaal	-10.9012
carcinomen	-10.9017
roep	-10.9029
Bovenstaand	-10.9031
▁Demodex	-10.9031
▁curvatuur	-10.9031
▁gehoorgang	-10.9031
▁lienalis	-10.9031
Differentiatie	-10.9031
▁trichilemm	-10.9031
thorax	-10.9034
▁cellulariteit	-10.9049
▁tekst	-10.9052
▁verwijdering	-10.9053
wangerschapsduur	-10.9056
▁cristabiopt	-10.9056
▁villitis	-10.906
▁hoorn	-10.9068
regionale	-10.907
▁klep	-10.9084
▁blijvende	-10.9111
▁allergisch	-10.9113
▁rechterzijde	-10.9117
▁naaldbiopsie	-10.9123
▁lis	-10.9138
▁eczemateu	-10.9139
RG	-10.9144
▁galgang	-10.9148
ierover	-10.9161
segment	-10.9167
▁immunohistochem	-10.9194
▁lange	-10.9211
▁ano	-10.9212
0),	-10.9218
▁elektronen	-10.9224
▁wij	-10.9227
▁aangrenzend	-10.9231
▁adenomyose	-10.9231
▁darmkanker	-10.9231
▁ectocervicaal	-10.9231
▁voorhanden	-10.9231
▁onverdacht	-10.9231
▁losliggend	-10.9231
▁chirurgisch	-10.9232
▁tangentieel	-10.9233
▁leverparenchym	-10.9233
▁dagen	-10.9235
Definitieve	-10.9242
Cytologisch	-10.9243
▁poliepeuze	-10.9244
▁2,2	-10.9244
komende	-10.9249
▁intraductal	-10.925
▁nefritis	-10.9252
▁with	-10.9252
Lymfklierexcisie	-10.9256
▁order	-10.926
▁los	-10.9265
▁ductectasieen	-10.9267
ot	-10.9274
▁schedel	-10.9285
jarige	-10.9306
▁epitheliaal	-10.9315
▁gericht	-10.9327
all	-10.9335
▁gemethyleerd	-10.9344
▁stabiel	-10.9362
▁bijvoor	-10.937
RD	-10.9376
bijmenging	-10.939
-2022	-10.9401
ly	-10.9415
erende	-10.9417
▁componenten	-10.942
erineurale	-10.9421
je	-10.9426
tereotactisch	-10.9431
▁Colonbiopt	-10.9432
igmoidresectie	-10.9433
varium	-10.9433
▁rijping	-10.9435
▁malperfusie	-10.9435
▁tandenrij	-10.9435
▁mitotisch	-10.9435
▁Blaasspoeling	-10.9435
▁vliezen	-10.9435
▁neig	-10.9435
▁melanocyten	-10.9436
▁geweest	-10.944
▁gedegenereerd	-10.944
▁myocard	-10.9444
▁persisterend	-10.9446
▁nevus	-10.9448
duodenum	-10.9448
▁hormona	-10.9456
neusrug	-10.9457
▁seborroisch	-10.9466
▁polypeus	-10.9467
schouderblad	-10.9471
▁preputium	-10.9477
▁Beperkt	-10.9482
▁geulcereerd	-10.9482
rechterbovenkwab	-10.9486
▁Intern	-10.9489
▁inkt	-10.9504
▁variaties	-10.9518
▁subepithelia	-10.9529
20-0	-10.953
▁chole	-10.9533
▁infarct	-10.9537
receptorbepaling	-10.9538
▁plooi	-10.9541
▁diepreikende	-10.955
▁Bodem	-10.9558
aan	-10.9564
adere	-10.9591
station	-10.9594
ovariumcarcinoom	-10.9622
Is	-10.9623
entinel	-10.9623
schildwachtklier	-10.9633
ransuret	-10.9637
vasculaire	-10.9641
▁bevat	-10.9642
einig	-10.9642
▁geprikkeld	-10.9643
▁immunoloog	-10.9644
▁gemengdcellig	-10.9644
▁infiltraten	-10.9644
nasolabiaalplooi	-10.9644
▁serositis	-10.9646
▁bloedvaten	-10.9649
ater	-10.965
▁uitbreidend	-10.9651
▁maagmucosa	-10.9653
▁(22	-10.9653
▁isthmus	-10.9657
▁shavebiopt	-10.9657
▁urineblaas	-10.966
nl	-10.9661
GRADE	-10.9663
▁longweefsel	-10.9663
▁kristallen	-10.9664
▁marker	-10.9664
Lokalisatie	-10.967
▁borderline	-10.9672
Resectie	-10.9673
▁alhier	-10.9674
▁glioblastoom	-10.9674
tot	-10.9682
▁inzending	-10.9682
architecturele	-10.9687
chronische	-10.9711
▁huidresectie	-10.9717
▁Breslowdikte	-10.9721
bodem	-10.9724
▁Lymfeklier	-10.9726
▁conclusief	-10.9733
▁1,0	-10.9743
waarschijnlijk	-10.9751
▁relevant	-10.9753
childklier	-10.9766
▁Clark	-10.977
▁(2,	-10.9782
1),	-10.9797
DIA	-10.9801
▁her	-10.9803
ubcutis	-10.9808
lokdarm	-10.9825
ubulair	-10.9839
▁bevinding	-10.9845
▁supra	-10.9847
iddels	-10.985
▁elk	-10.9856
Interpretatie	-10.9856
▁geloosd	-10.9856
▁fibroxanthoom	-10.9856
▁afgenomen	-10.9856
▁doen	-10.9856
time	-10.9857
▁amyloidose	-10.9857
▁vaatjes	-10.9857
▁microsatellitos	-10.9858
Asp	-10.9858
aget	-10.9858
▁soms	-10.9859
▁progressie	-10.9859
Hodgkinlymfoom	-10.9862
▁eenduidig	-10.9863
▁galwegen	-10.9865
▁groepjes	-10.9867
▁fibromatose	-10.987
▁resttumor	-10.9872
▁resectierand	-10.9873
▁Low	-10.9887
▁systemisch	-10.9888
naevus	-10.9895
▁stenen	-10.9897
nek	-10.9897
▁CLL	-10.99
▁risk	-10.9905
:12	-10.9911
▁gesneden	-10.9915
▁basaloide	-10.9922
▁usual	-10.9932
▁gestelde	-10.9945
morbu	-10.9956
▁Archer	-10.9957
▁linkeronderarm	-10.9961
▁arterie	-10.9962
ammanaaldbiopten	-11.0005
▁artefacten	-11.0008
interstitiele	-11.003
▁inhoud	-11.0032
▁reiken	-11.005
etastase	-11.0065
totaal	-11.0068
leurabiopten	-11.007
▁divertikel	-11.0072
panel	-11.0072
▁cerebri	-11.0073
▁foetus	-11.0073
▁blaarvorming	-11.0074
verigens	-11.0076
▁acanthoom	-11.0076
▁pemphigoid	-11.0079
▁verkalkingen	-11.008
leuringen	-11.008
▁nauwe	-11.0082
▁rubriek	-11.0087
▁werkgroep	-11.0087
▁chronica	-11.0088
coupes	-11.0089
▁crypten	-11.009
▁endometrial	-11.0091
▁Reactief	-11.0097
umorgrootte	-11.0106
▁colloid	-11.0112
▁systematisch	-11.0115
▁sporadisch	-11.0116
blokje	-11.0121
mediaal	-11.0123
pseudo	-11.0129
▁betrokkenheid	-11.0142
tisch	-11.0149
▁uurs	-11.0158
lc	-11.0165
▁glomerulaire	-11.0169
▁voorste	-11.0174
▁circumferentie	-11.0182
▁(11	-11.0183
▁atheroomcyste	-11.0188
▁aard	-11.0198
cervicale	-11.0204
▁waarna	-11.0219
volgen	-11.0233
▁afd	-11.0234
▁alveolair	-11.0236
ra	-11.0249
▁teken	-11.0257
olledig	-11.0289
▁be	-11.0294
▁afge	-11.0295
▁prostatitis	-11.0296
jogren	-11.0296
▁basalioom	-11.0296
▁toepassing	-11.0296
▁liposarcoom	-11.0296
▁immunologisch	-11.0296
▁septum	-11.0296
▁zijdelings	-11.0296
▁cryptitis	-11.0296
▁dwarsgestreept	-11.0296
rapst	-11.0298
caverneus	-11.03
▁betekent	-11.0301
▁ondersteuning	-11.0301
▁DIA	-11.0306
versus	-11.0307
▁bacteriele	-11.0321
▁Adenocarcinoom	-11.0323
▁excisies	-11.0325
▁stenose	-11.0327
▁vergelijking	-11.0329
▁duodenumbiopt	-11.0332
infectie	-11.0336
▁Blaasbiopten	-11.0337
▁duim	-11.0338
door	-11.035
▁test	-11.0353
aanvulling	-11.0354
potje	-11.0354
Gaarne	-11.0355
▁High	-11.0366
-2-	-11.037
▁Bericht	-11.0375
cystolithiasis	-11.0376
inflammatoire	-11.0385
▁plasma	-11.0433
▁bacteri	-11.044
EB	-11.0443
▁later	-11.0515
▁fibroma	-11.052
0-	-11.052
▁pilonidalis	-11.0523
▁talrijk	-11.0523
▁avitaal	-11.0523
▁bewerkt	-11.0524
▁optimaal	-11.0525
interstitieel	-11.0529
▁zoek	-11.053
▁cryptabcessen	-11.0538
▁vacuolair	-11.0538
▁koilocytose	-11.0538
▁hierboven	-11.054
verwege	-11.0542
▁verdikt	-11.0543
sereuz	-11.0548
aaldbiopsie	-11.0552
▁huidshave	-11.0554
▁inguinaal	-11.0556
▁voetzool	-11.0556
▁stuwing	-11.0557
onderarm	-11.0565
▁hal	-11.0584
▁gegroeid	-11.0585
classificatie	-11.0585
descendens	-11.0593
passend	-11.06
▁Hemicolectomie	-11.0604
▁immunofenotype	-11.0614
▁central	-11.0628
▁linkeroor	-11.0636
▁no	-11.0646
20-2	-11.0648
lijks	-11.0651
▁Antrum	-11.0652
endometrium	-11.0661
▁voorwand	-11.067
▁onderste	-11.0674
▁hypertensie	-11.0693
▁Advies	-11.0698
ker	-11.0723
▁aanvragen	-11.0732
▁eerst	-11.0738
laas	-11.0739
otaal	-11.0742
rchidectomie	-11.0755
▁epicrise	-11.0756
▁platform	-11.0756
▁Aspiratie	-11.0756
▁peesschede	-11.0756
▁pemfigoid	-11.0756
▁cytonucleair	-11.0756
db	-11.0756
▁lymfomenpanel	-11.0756
▁ogend	-11.0756
▁bewijzend	-11.0756
▁ulcusbodem	-11.0757
▁uitgaa	-11.0757
▁bloedbijmenging	-11.0757
ier	-11.0758
▁steel	-11.076
▁calcificatie	-11.076
▁bloedingsresten	-11.0766
j	-11.0767
▁myomatosus	-11.077
▁myelofibrose	-11.0771
terusresectie	-11.0773
▁haardje	-11.0774
▁Huidshavebiopt	-11.0776
▁naevoid	-11.0778
▁spirocheten	-11.0781
▁conjunctiva	-11.0782
ARC	-11.0784
▁gronden	-11.0795
li	-11.0804
▁rode	-11.0809
gebied	-11.0817
▁gingiva	-11.0819
▁acanthotisch	-11.0819
▁reuscel	-11.0826
▁criteria	-11.0829
▁verminderd	-11.0835
exact	-11.0836
Hoog	-11.0837
papilloom	-11.0837
Helicobacter	-11.0837
▁punt	-11.0838
positieve	-11.0838
▁pylorus	-11.0839
centraal	-11.0839
▁schildwacht	-11.0845
▁baso	-11.0859
nten	-11.0872
afw	-11.0925
▁leukocytoclas	-11.0933
intra	-11.0943
kenmerken	-11.0963
▁mucine	-11.0972
▁zwangerschap	-11.0976
reventie	-11.0986
▁myoom	-11.099
pmerking	-11.0991
efrectomie	-11.0993
▁lesion	-11.0993
▁correlaat	-11.0994
▁biopsy	-11.0994
▁stemplooi	-11.0994
▁verslaglegging	-11.0994
▁hematopoiese	-11.0994
▁bloederig	-11.0994
▁bevonden	-11.0995
▁zekerheidshalve	-11.0995
▁leversegment	-11.0997
▁vergrote	-11.0999
▁herkend	-11.0999
▁opgegeven	-11.0999
▁proctitis	-11.0999
cylinders	-11.1006
▁dermatomycose	-11.1007
stabiel	-11.1008
▁typeren	-11.1012
fragmentjes	-11.1023
vena	-11.1027
▁Adnexextirpatie	-11.1029
▁organiserend	-11.1036
▁urticariele	-11.1039
gelet	-11.1046
infiltratie	-11.105
flank	-11.1055
20-01	-11.1059
▁fundustype	-11.1069
▁markers	-11.1083
neuspunt	-11.1086
scalp	-11.1086
▁bekleding	-11.1091
▁hilair	-11.1109
ry	-11.1132
CLC	-11.1134
▁haarden	-11.114
▁low	-11.1151
real	-11.1152
▁angioinvasie	-11.1158
▁Enig	-11.1169
▁linkerbovenarm	-11.1178
▁RI	-11.1186
ige	-11.1204
▁follikel	-11.1206
ransurethra	-11.1227
am	-11.1233
ompleet	-11.1233
▁condyloom	-11.1238
Groeiwijze	-11.1238
▁artritis	-11.1238
▁voorafgaand	-11.1238
▁ieder	-11.1238
▁slijmvormend	-11.1238
▁karakter	-11.1239
▁semen	-11.124
▁reepjes	-11.1241
▁Hysteroscopisch	-11.1243
▁erytrocyturie	-11.1243
▁vlakke	-11.125
▁steatohepatitis	-11.1253
▁Litteken	-11.1261
▁scrotum	-11.1263
▁serologie	-11.1265
▁larynx	-11.1274
▁graderen	-11.1274
▁mesenterium	-11.1284
▁heel	-11.1285
▁intradermaal	-11.1285
▁aantasting	-11.1288
▁erg	-11.1289
▁diafragma	-11.1294
▁slokdarmbiopten	-11.13
▁overgangstype	-11.1317
▁tumorpercentage	-11.1319
-2).	-11.132
▁voorkomen	-11.1327
▁knieholte	-11.1328
oorlopige	-11.133
ERBB	-11.1343
▁LD	-11.1364
specifiek	-11.1367
beide	-11.1369
▁myo	-11.1384
pathologisch	-11.1391
fs	-11.1395
▁Als	-11.1424
ond	-11.1432
▁nodig	-11.1448
taal	-11.1454
▁karakteristiek	-11.1458
terk	-11.1462
▁bewerking	-11.1464
uperficieel	-11.1468
ermoedelijk	-11.1481
eoordeling	-11.1483
ngewijzigd	-11.1485
handeld	-11.1487
▁clear	-11.1488
▁acantholyse	-11.1488
▁scannen	-11.1488
▁trimester	-11.1488
▁maxillaris	-11.1488
▁villi	-11.1488
▁buitenoppervlak	-11.1488
▁neusbijholte	-11.1488
▁hypocellulair	-11.1488
cholecystectomie	-11.1488
▁motiel	-11.1488
▁paratubair	-11.1488
omtrent	-11.149
▁prostatectomie	-11.149
▁ruimte	-11.1491
paard	-11.1491
▁graft	-11.1493
Lys	-11.1494
anwezigheid	-11.1496
Bronchusspoelsel	-11.1496
▁-)	-11.1499
▁haemangioom	-11.1504
▁intracavitair	-11.1504
▁spoelvocht	-11.1504
▁gedeeltelijk	-11.1504
▁doorsnede	-11.1504
▁stasis	-11.1523
▁bovenkaak	-11.1525
▁hypertrofie	-11.1528
GRAA	-11.1531
▁multifocale	-11.1532
maag	-11.154
▁10-	-11.1554
localisatie	-11.1559
▁cervicaal	-11.1561
▁eccrien	-11.1566
▁ingeblokt	-11.1588
▁Longbiopt	-11.1591
hooggradig	-11.1606
situ	-11.1607
betreffende	-11.1608
▁voorlopige	-11.1614
volgende	-11.1616
▁subepiderma	-11.1627
histologisch	-11.1634
▁11)	-11.1641
▁DI	-11.1672
diepte	-11.1672
▁antrumbiopten	-11.1674
licht	-11.1674
▁trombus	-11.1679
▁geleide	-11.1693
▁Daar	-11.1701
ouble	-11.1701
▁eind	-11.1702
Leu	-11.1708
leine	-11.1723
amengestelde	-11.1724
ylori	-11.173
▁bloedingsrest	-11.1731
▁REC	-11.1732
▁hotspot	-11.1733
dissect	-11.1736
▁gaan	-11.1737
klier	-11.1738
▁mond	-11.1741
▁myxoide	-11.1743
▁dyskeratose	-11.1744
▁herbeoordeeld	-11.1744
▁Hyperplastisch	-11.1744
▁arteriitis	-11.1745
gebl	-11.1745
▁darmmucosa	-11.1747
▁serologisch	-11.1748
▁tubuli	-11.175
▁Delen	-11.175
](*******)	-11.1755
▁onze	-11.1755
Angioinvasie	-11.1767
▁ruimer	-11.1769
▁thermisch	-11.1771
▁medebeoordeeld	-11.1771
▁sleeve	-11.1772
▁celgroepjes	-11.1776
▁granulatie	-11.1778
▁zijkant	-11.1793
regeneratieve	-11.1799
▁placentair	-11.1799
▁radiotherapie	-11.1802
▁maart	-11.1804
▁satellieten	-11.181
▁blaasbiopten	-11.1811
▁uitgeblust	-11.1812
▁prostaatbiopt	-11.1816
▁neusslijmvlies	-11.1823
22-2	-11.1824
▁definitief	-11.1834
RADICA	-11.1843
deficientie	-11.1861
atypische	-11.1869
locatie	-11.1876
▁rechterbovenarm	-11.1878
tenminste	-11.1881
via	-11.1882
ID	-11.1883
▁onderverdeling	-11.1889
maligne	-11.189
▁IEL	-11.1892
reactieve	-11.1907
ub	-11.191
voorkeur	-11.1917
microscopisch	-11.1922
ras	-11.194
typeslijmvlies	-11.1968
gens	-11.197
▁neo	-11.1973
▁bestaan	-11.1987
onsillectomie	-11.1989
lechts	-11.1991
▁onsteking	-11.1998
ctieve	-11.2003
neeranden	-11.2003
erologisch	-11.2003
bulleuze	-11.2007
▁Heupkop	-11.2007
▁galstenen	-11.2007
▁lingula	-11.2007
▁aanzien	-11.2007
▁hematopoetisch	-11.2007
▁macronodulair	-11.2007
▁lymfomen	-11.2008
▁keratinocyten	-11.2008
rostaatbiopt	-11.2009
▁borstkas	-11.2012
▁mestcellen	-11.2013
▁skipping	-11.2013
▁zin	-11.202
▁rondkernig	-11.2024
▁Ascitesvocht	-11.2024
nvasieve	-11.2026
▁(*******).	-11.2026
▁ulceroflegmoneu	-11.2028
▁blaar	-11.2029
▁Random	-11.2035
▁pulmonale	-11.2035
Ala	-11.2045
▁2,1	-11.2054
eerde	-11.2057
▁gelokaliseerd	-11.2059
DA	-11.2059
rechteronderkwab	-11.2064
▁groepen	-11.207
▁beeldvorming	-11.2078
long	-11.2086
▁abces	-11.209
▁ingestuurd	-11.2099
classificeerd	-11.2114
lein	-11.212
gemedieerde	-11.212
▁Extern	-11.2124
▁bloedingen	-11.2125
▁linkszijdig	-11.2126
Archer	-11.2151
zoals	-11.2154
tussen	-11.2154
ngroei	-11.2167
▁gepigmenteerd	-11.2173
allen	-11.2179
▁cellulair	-11.2188
HL	-11.219
▁tweemaal	-11.2201
▁dissectie	-11.2206
ntsteking	-11.2212
▁for	-11.222
co	-11.223
▁medicamenteuze	-11.2247
oorbehandeling	-11.2248
▁wijzen	-11.2251
▁tijd	-11.2261
vriescoupe	-11.2265
▁kern	-11.2266
ammanaaldbiopt	-11.2267
▁remmers	-11.2268
▁klierweefsel	-11.2274
lceratie	-11.2274
▁collageen	-11.2277
▁nodosum	-11.2277
▁aanbevolen	-11.2277
▁erythematodes	-11.2277
▁gespecificeerd	-11.2277
▁Goed	-11.2277
▁erythrocyten	-11.2277
Gln	-11.2277
▁prostatica	-11.2277
▁chorionvlokken	-11.2277
▁dikkedarm	-11.2277
▁seborrhoisch	-11.2278
▁opgebouwd	-11.2278
Beenmergaspiraat	-11.2278
▁nerv	-11.2279
▁evenals	-11.2282
▁gezamenlijk	-11.2284
▁fibrosering	-11.2289
▁minuscule	-11.229
▁vraag	-11.2294
▁malformatie	-11.2295
▁hoofdbronchus	-11.2295
bepaling	-11.2296
▁tumorvolume	-11.23
▁Laboratorium	-11.2306
▁zogenaamd	-11.2306
cin	-11.2309
▁wervel	-11.2317
▁satellitose	-11.2319
▁pari	-11.2321
▁centrum	-11.2328
▁cyto	-11.2329
▁ectocervix	-11.2335
▁Diagnose	-11.234
100	-11.2343
▁rechteronderarm	-11.2355
▁zegelringcel	-11.2364
▁media	-11.2371
▁kwab	-11.2374
▁fossa	-11.2374
▁Dunnedarm	-11.2395
GG	-11.2396
0(	-11.2413
▁ex	-11.2431
radiologisch	-11.2438
breuk	-11.2438
bovenlip	-11.244
lymfocyten	-11.244
tje	-11.2457
▁Ig	-11.2466
wand	-11.2478
▁rectumbiopten	-11.2479
▁innemend	-11.2501
dit	-11.2504
▁interstiti	-11.2532
lier	-11.2538
▁Endocervix	-11.2541
▁minuscu	-11.2543
aligniteit	-11.255
▁tibia	-11.255
peekselklier	-11.2551
ommissie	-11.2552
niversit	-11.2552
▁wig	-11.2555
zijde	-11.2555
screen	-11.2555
▁erytropoese	-11.2555
▁bijtfibroom	-11.2555
▁endocarditis	-11.2555
▁ischaemie	-11.2555
▁cystitis	-11.2555
▁blastentoename	-11.2555
▁laten	-11.2557
bespreking	-11.2558
▁perianaal	-11.2561
▁Goedaardig	-11.2562
▁hypofyse	-11.2562
▁daarvan	-11.2568
▁galweg	-11.2572
▁ligament	-11.2573
▁peritoneale	-11.2574
▁maagcardia	-11.2575
▁Hemi	-11.2575
gv	-11.2578
▁wigexcisie	-11.2581
▁ilium	-11.2585
▁verschillende	-11.2585
▁restlokalisatie	-11.2585
▁blastair	-11.2587
huid	-11.259
-*******	-11.2592
▁fimbriae	-11.2596
▁sarcomatoid	-11.2608
perma	-11.2616
aagcorpusbiopten	-11.2622
gaand	-11.2642
▁excochleaat	-11.2642
ml	-11.2647
▁struma	-11.2667
▁intacte	-11.2677
▁teen	-11.2688
▁waarde	-11.2692
Ad	-11.2701
litteken	-11.2728
grade	-11.2731
IG	-11.2732
nco	-11.2732
laboratorium	-11.2733
verwijderd	-11.2734
Barrett	-11.2736
vermoedelijk	-11.2741
▁gelocaliseerd	-11.2757
ubcutane	-11.2758
proliferatief	-11.276
▁cin	-11.2764
hy	-11.2766
▁skintag	-11.2767
esofagus	-11.2772
▁Dep	-11.2775
lb	-11.28
errichting	-11.2801
ch	-11.2801
om	-11.2825
procedure	-11.2828
▁pleit	-11.283
bductie	-11.2838
nderzoek	-11.2838
ocht	-11.2839
▁infect	-11.284
▁adenomateus	-11.2841
▁insectensteek	-11.2841
▁noodzakelijk	-11.2841
▁rosea	-11.2841
▁follow	-11.2841
▁straal	-11.2841
▁trombose	-11.2841
▁cirrose	-11.2841
▁vaginatop	-11.2841
ullen	-11.2841
▁plasmocytose	-11.2841
▁premaligne	-11.2843
▁dilatatie	-11.2843
▁evt	-11.2843
▁overexpressie	-11.2843
▁genitalis	-11.2848
▁millimeter	-11.2848
▁linkerhand	-11.2848
no	-11.2849
▁kernen	-11.2853
▁papilloma	-11.2859
▁astrocytoom	-11.2859
▁gemetastaseerd	-11.2859
▁glans	-11.2862
atient	-11.2867
▁prikkeling	-11.2871
▁nagel	-11.2872
▁submucosale	-11.2874
▁aanleg	-11.2876
▁prepylorisch	-11.2883
▁Bot	-11.2886
mb	-11.2888
rmatopathologie	-11.2889
▁handpalm	-11.2918
▁tumortje	-11.2922
solide	-11.2934
▁wangslijmvlies	-11.294
▁prothese	-11.2944
▁translocaties	-11.2949
▁ectocervicale	-11.2956
▁inter	-11.2962
elders	-11.2981
lymfklierexcisie	-11.2995
rectumslijmvlies	-11.3001
childwachtklier	-11.3003
eerdere	-11.3006
craniaal	-11.3007
definitief	-11.3033
kruin	-11.3036
aspiratie	-11.3036
caudaal	-11.3037
benigne	-11.3038
▁traumatisch	-11.3041
aanvullend	-11.3042
▁decidual	-11.305
22-01	-11.3054
▁Huidexcisies	-11.3056
▁apocrien	-11.3059
▁fibrotisch	-11.3059
▁foveolaire	-11.3075
▁diverse	-11.3076
▁cervixbiopten	-11.3079
poliepen	-11.3097
▁haar	-11.3107
ziekte	-11.3109
12,1	-11.3122
usculus	-11.3129
lokdarmbiopt	-11.313
▁adnexa	-11.313
like	-11.3134
▁keloid	-11.3135
entana	-11.3135
▁ligging	-11.3135
▁Erytrocyturie	-11.3135
▁reads	-11.3135
▁heupkop	-11.3135
▁aansnijding	-11.3135
lo	-11.3136
▁nefrectomie	-11.3136
▁pyelum	-11.3136
▁digniteit	-11.3138
▁hiermee	-11.3139
▁thoracal	-11.3143
▁duodenummucosa	-11.3145
▁tumorkenmerken	-11.3149
▁ductaaltype	-11.315
▁overliggend	-11.3152
▁Gewijzigd	-11.3154
▁vergelijkbaar	-11.3154
▁thv	-11.3155
▁mesangiale	-11.3155
can	-11.3167
▁tpv	-11.3167
▁mb	-11.3174
▁Buikspoelvocht	-11.3179
▁mondhoek	-11.318
▁grootte	-11.3185
▁maagresectie	-11.3188
▁cholangio	-11.3189
arm	-11.32
ir	-11.3203
▁geamplificeerd	-11.3203
▁morfea	-11.3203
▁lokal	-11.3221
uenties	-11.3228
▁Receptoren	-11.323
DD	-11.3232
mn	-11.3239
apicaal	-11.324
uitstrijk	-11.3244
▁stembandpoliep	-11.3245
Door	-11.3265
▁hetzelfde	-11.328
▁ratio	-11.3316
▁diam	-11.3316
oksel	-11.3325
▁intact	-11.3326
coupe	-11.3332
▁Candida	-11.3354
rechterwang	-11.3355
onderrug	-11.3358
▁complex	-11.3363
poeling	-11.3389
eren	-11.339
▁blaaswand	-11.3396
▁holte	-11.3406
▁iliacaal	-11.341
▁probe	-11.3422
▁oedemateu	-11.3423
ultipel	-11.3431
ijdigheid	-11.3437
▁Arteri	-11.3437
▁senilis	-11.3438
▁antracose	-11.3438
▁bevindt	-11.3438
▁cholangitis	-11.3438
▁geserreerd	-11.3438
▁herhaald	-11.3438
▁oorzaken	-11.3438
▁ruber	-11.3438
▁seminales	-11.3438
▁vruchtdood	-11.3438
ahler	-11.3438
▁begeleid	-11.3438
▁epididymis	-11.3438
▁familieanamnese	-11.3438
▁amorf	-11.3438
▁spermatozoon	-11.3438
zijdig	-11.3439
▁vriesmateriaal	-11.3439
▁subtypering	-11.3439
▁adenocarcinoma	-11.344
▁dysplasia	-11.3445
▁interface	-11.3445
▁opbouw	-11.3445
beenmergaspiraat	-11.3446
▁abortusrest	-11.3446
▁macrometastase	-11.3447
igde	-11.3451
poelvocht	-11.3452
▁infarcten	-11.3455
▁globale	-11.3461
▁significantie	-11.3462
RDI	-11.3466
▁nvt	-11.347
▁motiliteit	-11.3471
▁restanten	-11.3474
▁nav	-11.3475
▁krabben	-11.3496
▁jicht	-11.3509
▁obstructie	-11.3509
ath	-11.3519
geassocieerde	-11.3523
cu	-11.3524
▁locaties	-11.3534
▁intimafibrose	-11.3534
▁perineum	-11.3548
gerelateerde	-11.355
sproces	-11.3553
Extra	-11.3557
vl	-11.3557
weet	-11.3558
▁Incisiebiopt	-11.3566
tubulaire	-11.3585
▁protocollair	-11.3592
▁(20	-11.3597
▁vel	-11.3599
▁rechteroor	-11.361
aarbij	-11.361
▁overgangs	-11.3618
Localisatie	-11.3646
▁En	-11.3646
▁vesicula	-11.3649
indicatie	-11.3663
overgang	-11.3668
Intern	-11.3669
casus	-11.3677
▁Cyste	-11.3687
up	-11.3687
focaal	-11.3688
ICC	-11.3706
▁lichenoid	-11.3711
▁ont	-11.3748
▁bevestigen	-11.3751
▁cerebrospinalis	-11.3751
▁concha	-11.3751
▁galsteenlijden	-11.3751
▁verbreed	-11.3751
▁cystoscopie	-11.3751
gemeld	-11.3751
▁mucokele	-11.3751
▁vaatlaesie	-11.3751
▁parasitair	-11.3752
presentativiteit	-11.3753
▁plana	-11.3753
▁predictie	-11.3755
▁lymfoompanel	-11.3756
▁Actinisch	-11.3758
▁hallux	-11.3758
▁mastocytose	-11.3758
▁verminderde	-11.3759
▁reumato	-11.3764
▁vasculopathie	-11.3771
▁neusbrug	-11.3771
▁uiterst	-11.3771
transplantatie	-11.3783
▁monoklonal	-11.3784
▁Beentumoren	-11.3784
▁excoriatie	-11.3784
▁fenotype	-11.3797
▁tongbasis	-11.3797
▁echogeleid	-11.3797
▁onvolledig	-11.3797
nder	-11.3806
▁Fuhrman	-11.381
*)	-11.3813
geringe	-11.3815
▁rechterhand	-11.3821
▁dijbeen	-11.3823
▁verruceus	-11.3837
▁2020	-11.3849
crypthyperplasie	-11.3849
ax	-11.3859
▁DE	-11.3862
ia	-11.3868
▁lytisch	-11.3889
-1).	-11.3908
20-10	-11.391
id	-11.3929
hoofd	-11.3932
▁secretoire	-11.3932
rende	-11.3935
ethylation	-11.3941
to	-11.3975
verschuiving	-11.3976
tt	-11.3976
202	-11.3979
afwijking	-11.3981
non	-11.3991
onderlip	-11.4007
12-	-11.401
handrug	-11.4051
ulva	-11.4057
erifeer	-11.4059
erspreid	-11.4066
adipeu	-11.4072
▁sepsis	-11.4073
▁hidrocystoom	-11.4073
▁centrifugum	-11.4073
▁fusietranscript	-11.4073
▁gescand	-11.4073
▁oktober	-11.4073
▁parakeratotisch	-11.4073
▁lumen	-11.4073
ndiceerd	-11.4073
▁gevallen	-11.4073
▁papillomatose	-11.4074
▁neusgang	-11.4074
▁bedr	-11.4077
clonaal	-11.4079
▁vezels	-11.408
▁pseudomelanosis	-11.4081
▁deciduaal	-11.4081
terminaal	-11.4084
▁embryonaal	-11.4091
▁special	-11.4094
▁onderpool	-11.4095
▁bursa	-11.4107
▁glioom	-11.4107
▁intramusculair	-11.4109
20-00	-11.4113
▁februari	-11.4121
▁sclerodermie	-11.413
▁matur	-11.4133
▁schouderbladen	-11.4148
cardiatype	-11.4149
ase	-11.4151
▁samen	-11.4162
▁trigonum	-11.4162
▁spoelcel	-11.4166
▁hormoonreceptor	-11.4167
oesophagus	-11.4169
brush	-11.4205
middelste	-11.4208
CLL	-11.4212
teel	-11.4213
▁markering	-11.423
▁fibrotische	-11.4241
erzijds	-11.4243
ieptegroei	-11.4255
poliepje	-11.4271
folliculitis	-11.432
il	-11.433
oorspronkelijk	-11.4348
scellen	-11.4349
thyroidectomie	-11.435
▁Derma	-11.435
neusvleugel	-11.435
Dieper	-11.4351
Invasiediepte	-11.4351
aanwezigheid	-11.4359
delen	-11.4361
▁opmerking	-11.4366
▁respiratoir	-11.4377
ries	-11.4385
erminale	-11.4386
esofagusbiopt	-11.4398
▁gedegenereerde	-11.4398
▁huidfragment	-11.4398
olume	-11.44
▁Blaasbiopt	-11.4401
▁kopie	-11.4401
verantwoordelijk	-11.4406
▁alienum	-11.4406
▁herpetiformis	-11.4406
▁rectosigmoA	-11.4406
▁verbrede	-11.4406
▁anemie	-11.4406
▁Fors	-11.4406
▁odontogene	-11.4406
▁myelopoese	-11.4407
flr	-11.4407
▁clearcell	-11.4407
mail	-11.4407
▁avitale	-11.4407
iehl	-11.4408
▁haardvormig	-11.4408
nagenoeg	-11.4412
▁december	-11.4414
▁fibrinoid	-11.4414
▁romphuidtype	-11.4414
▁doorsnijding	-11.4417
houdend	-11.4421
alhoe	-11.4422
▁aangewezen	-11.4428
▁Ingeblokt	-11.4428
▁elastosis	-11.4428
▁littekenreactie	-11.4428
▁myocarditis	-11.4428
▁alles	-11.4429
▁adnexextirpatie	-11.443
▁microorganismen	-11.4437
▁klierbuis	-11.4438
▁patholoog	-11.4441
▁glabella	-11.4442
▁medenem	-11.4442
▁hechtdraad	-11.4445
▁bijkomende	-11.4449
▁HLA	-11.4451
▁rechterlies	-11.4454
▁sleutelbeen	-11.4456
▁adenosis	-11.4457
▁hoger	-11.446
rimaire	-11.4461
▁lobectomie	-11.4461
abortusmateriaal	-11.4462
▁carcinoid	-11.447
▁instabiliteit	-11.447
▁velden	-11.4473
ABL	-11.4473
▁st	-11.4483
]*	-11.4487
▁element	-11.4487
▁Hart	-11.4488
▁subserosa	-11.4499
vormige	-11.45
▁poliepexcisie	-11.451
clinicopathologi	-11.4514
▁vulvabiopt	-11.4528
reexcisie	-11.4538
▁immunokleuring	-11.4551
▁angulus	-11.4554
enetisch	-11.4561
▁claviculair	-11.4572
oid	-11.4577
▁wijs	-11.4583
▁gescleroseerde	-11.4587
achtige	-11.4592
▁Rest	-11.4599
reter	-11.4605
resten	-11.4616
▁indefinite	-11.4648
lies	-11.4659
▁data	-11.4679
dermale	-11.4685
▁abortus	-11.4693
borderline	-11.4704
Breslow	-11.4706
invasiediepte	-11.471
studi	-11.4711
ti	-11.4712
Daarna	-11.4715
esproken	-11.4716
par	-11.4722
▁mitose	-11.4723
▁ductectasie	-11.4736
leuring	-11.4739
▁details	-11.4743
icroscopisch	-11.4745
eratosis	-11.4751
xcideerd	-11.4751
▁hidradenitis	-11.4751
▁Grover	-11.4751
▁gallig	-11.4751
▁cholesterolosis	-11.4751
▁myopathie	-11.4751
koa	-11.4752
andard	-11.4752
eparate	-11.4752
▁stoma	-11.4752
▁neoplasma	-11.4753
▁tbv	-11.4755
eelsen	-11.4755
▁celproliferatie	-11.4755
▁verwachten	-11.4757
▁naevocellulares	-11.4759
▁herkenba	-11.4759
▁Actinomyces	-11.4759
▁inferior	-11.4759
▁lymfadenopathie	-11.4759
igmoidbiopten	-11.4763
▁gladde	-11.4765
▁wild	-11.4767
icroscopie	-11.4767
▁fractuur	-11.4774
▁organen	-11.4774
ion	-11.4775
▁trombi	-11.4779
nr	-11.4783
▁hilus	-11.4788
▁uterina	-11.4797
▁staan	-11.48
▁groepje	-11.4808
▁aangeleverd	-11.4812
▁dermoidcyste	-11.4817
His	-11.4825
eosinofiele	-11.4825
▁20-	-11.4831
▁voorgaand	-11.4837
aso	-11.4842
▁maagbiopt	-11.4849
men	-11.4851
▁ecto	-11.4872
▁pseudodecidual	-11.4887
▁pancreatico	-11.4898
▁gestuurd	-11.4907
21-01	-11.4917
▁digiti	-11.492
ryptarchitectuur	-11.4924
▁teleangiectasie	-11.4936
▁verlo	-11.4937
▁rectumcarcinoom	-11.4945
▁verrichten	-11.4948
aast	-11.495
▁index	-11.4952
out	-11.4953
▁cu	-11.4955
▁littekenachtige	-11.4978
▁Fragment	-11.4981
Endometrium	-11.4988
angiomateuze	-11.4989
▁verd	-11.4996
celpopulatie	-11.4998
▁amputatie	-11.5009
ierbiopsie	-11.5017
▁1-2	-11.502
basis	-11.5038
opy	-11.5054
groei	-11.5059
coli	-11.5065
hypertrofie	-11.5073
cellulariteit	-11.5075
frontaal	-11.5077
circa	-11.5077
▁contra	-11.5082
▁nemen	-11.5084
▁snede	-11.5095
schelp	-11.5098
▁oncocytaire	-11.5099
olipectomie	-11.51
▁transit	-11.5101
▁nodule	-11.5108
diabetisch	-11.5108
▁gedenudeerd	-11.5108
▁geretourneerd	-11.5108
▁inzender	-11.5108
▁detecteerbaar	-11.5108
Concentratie	-11.5108
▁inziens	-11.5108
▁bilateral	-11.5109
▁pilomatrixoom	-11.5109
▁gynaecomastie	-11.5109
▁ligt	-11.5109
▁pigmentosa	-11.5109
▁sigmoideum	-11.5109
epidermaal	-11.5109
▁resistentie	-11.511
▁tag	-11.5113
mantelcellymfoom	-11.5113
▁evaluatie	-11.5113
▁darmresectie	-11.5113
▁sneeranden	-11.5116
▁april	-11.5117
▁aggregaten	-11.5117
▁fascie	-11.5119
▁huidsnijvlak	-11.5127
▁spermatogenese	-11.5132
klierstation	-11.5137
▁plek	-11.514
▁stukjes	-11.5143
proliferatiefase	-11.5145
▁sebaceus	-11.5147
▁afmeting	-11.5162
▁vestibulum	-11.5162
volumepercentage	-11.5163
▁foveolair	-11.5182
▁ejaculaat	-11.5192
▁juli	-11.5192
▁Bronchoalveol	-11.5196
▁rondes	-11.5201
beoordeling	-11.5212
isatie	-11.523
▁Hals	-11.5242
beginnende	-11.5243
sonderzoek	-11.5246
▁membraneuze	-11.5253
▁lymfklierbiopt	-11.5255
dorsale	-11.5262
▁zwakke	-11.5269
▁mediane	-11.5273
▁spoelcellig	-11.5275
▁colonbiopt	-11.5277
▁small	-11.528
10):	-11.5293
Lymfklier	-11.5307
▁dermatologie	-11.5311
▁Leverbiopten	-11.5319
eikend	-11.533
▁protonpomp	-11.5336
▁macula	-11.5336
▁terug	-11.5344
22-00	-11.5355
ormale	-11.5356
bewa	-11.5365
▁aortaklep	-11.5389
vocht	-11.5415
ij	-11.5426
shave	-11.5431
scapula	-11.5447
ris	-11.5451
ubcutaan	-11.5459
▁anal	-11.5461
Definitief	-11.5462
verhoornend	-11.5462
cervix	-11.5462
▁vers	-11.5464
rotocol	-11.5464
doorgemaakte	-11.5467
toont	-11.5468
overage	-11.5476
▁contaminatie	-11.5479
▁fecaal	-11.5479
▁herpes	-11.5479
▁sprieten	-11.5479
▁verklaard	-11.5479
▁verstoord	-11.5479
▁gevraagd	-11.5479
▁hydropisch	-11.5479
▁secretiefase	-11.5479
▁anderszins	-11.5479
▁periportale	-11.5479
▁horizontale	-11.5479
▁bloedverlies	-11.5479
▁samenhangend	-11.5479
▁vorig	-11.5479
▁groen	-11.5481
▁meso	-11.5484
▁volair	-11.5486
▁oppervlakte	-11.5487
▁identiek	-11.5488
▁restlaesie	-11.5489
▁imponeer	-11.549
▁naam	-11.549
▁longparenchym	-11.549
Graderings	-11.5491
oliepexcisie	-11.5496
▁remmer	-11.5502
▁ontbreekt	-11.5503
▁amylo	-11.5503
▁lymfoplasmacyt	-11.5507
▁dermatopath	-11.5513
▁monoclonale	-11.5518
▁plm	-11.5518
▁exostose	-11.5519
▁tekening	-11.5521
▁hypo	-11.5522
▁ijzerpigment	-11.5523
sinushistiocytos	-11.553
fusie	-11.5532
▁blaasdak	-11.5534
▁valvula	-11.5534
▁jejunum	-11.5534
▁submammair	-11.5534
▁nates	-11.5534
▁tangentiel	-11.5543
▁chondrosarcoom	-11.555
▁discordant	-11.5558
▁gewijzigd	-11.5566
matoide	-11.5568
▁jukbeen	-11.5582
▁genetica	-11.5582
▁klierparenchym	-11.5585
▁tumorcel	-11.5597
▁Anusbiopt	-11.5603
geleide	-11.5616
ogene	-11.5627
▁vroeg	-11.563
▁like	-11.563
EERDE	-11.5638
cervixslijmvlies	-11.5639
huidbiopt	-11.5645
havebiopt	-11.5645
▁periadnexa	-11.5656
▁gewricht	-11.5658
▁virus	-11.5661
ain	-11.5671
▁anusslijmvlies	-11.5674
▁EBER	-11.5696
▁naald	-11.5754
th	-11.5766
▁anaal	-11.578
immuno	-11.5812
▁adenoma	-11.5817
▁zon	-11.5818
RCE	-11.5819
huidexcisie	-11.5819
hand	-11.5822
vrij	-11.5823
zicht	-11.5837
▁vervolg	-11.584
▁centimeter	-11.5846
▁di	-11.5847
rotocollair	-11.5849
▁kort	-11.5856
krap	-11.5857
delins	-11.5858
0000	-11.5859
grootcellig	-11.5862
nzeker	-11.5862
Radicaal	-11.5862
distale	-11.5863
▁superior	-11.5863
▁tyrosine	-11.5863
▁Laaggradig	-11.5863
▁Aangevulde	-11.5863
▁zsm	-11.5863
▁Dikkedarm	-11.5863
▁hoornlaag	-11.5864
▁scabies	-11.5864
▁obv	-11.5864
▁mastectomie	-11.5864
▁Douglasi	-11.5864
▁Brunners	-11.5864
▁luidt	-11.5865
▁medebeoordeling	-11.5865
▁aangesneden	-11.5866
DR	-11.5866
▁mesotheelcellen	-11.5866
Lymfklieren	-11.5867
▁oorrand	-11.5867
afhankelijk	-11.5869
▁inhibitors	-11.587
▁mondslijmvlies	-11.5871
▁tgv	-11.5872
▁interpreteren	-11.5873
▁ischaemisch	-11.5873
bronchusspoeling	-11.5875
cave	-11.5876
▁oudere	-11.5879
eefselexcisie	-11.5879
libra	-11.5887
▁indolent	-11.5888
▁Drie	-11.5888
▁colectomie	-11.5889
▁midline	-11.5889
▁mycobacteri	-11.5897
▁relatieve	-11.5898
▁infarceringen	-11.5898
▁introitus	-11.5905
▁bewaard	-11.5905
▁leverkwab	-11.5906
▁pseudolymfoom	-11.5907
ac	-11.5913
murale	-11.5913
▁Distal	-11.5921
▁augustus	-11.5921
▁ongemarkeerd	-11.5923
▁AI	-11.5935
▁vals	-11.5937
▁intermediair	-11.5937
▁CEA	-11.5937
▁parasternaal	-11.5938
erd	-11.5939
ntie	-11.594
▁maagcorpusbiopt	-11.5949
▁comedo	-11.5954
▁Lymfocytose	-11.5954
▁seminoom	-11.597
▁strekzijde	-11.597
▁Longbiopten	-11.5975
Dieptegroei	-11.598
dose	-11.5993
▁11-	-11.6005
▁linkerflank	-11.6006
▁kwaliteits	-11.6007
▁dergelijk	-11.603
▁diepreikend	-11.6042
onderbuik	-11.6053
▁02	-11.6067
▁neoplastische	-11.6068
▁co	-11.6081
la	-11.6081
▁maagcarcinoom	-11.6089
eratine	-11.609
tie	-11.6106
(-	-11.6108
dorsaal	-11.611
enzij	-11.6111
▁drug	-11.612
alis	-11.6121
ubae	-11.6128
▁min	-11.6134
terminale	-11.6155
mid	-11.6156
▁bloedvat	-11.6214
▁zelf	-11.6219
▁inclusie	-11.6221
▁uitslagen	-11.6224
rkelcelcarcinoom	-11.624
ammapunctaat	-11.624
▁spoelsel	-11.6247
▁huidadnex	-11.625
▁vaatwand	-11.6252
▁verkalking	-11.6252
▁1-2.	-11.6255
▁polymorf	-11.6255
adeno	-11.6256
acuum	-11.6257
▁polyclonal	-11.6263
dedifferentieerd	-11.6263
uadriceps	-11.6263
▁Board	-11.6263
▁hypoxie	-11.6263
▁ileitis	-11.6263
▁osteomyelitis	-11.6263
Bevindingen	-11.6263
▁melanosis	-11.6263
▁ongeschikt	-11.6263
▁opmerkelijk	-11.6263
▁parietale	-11.6263
▁monoclonaal	-11.6263
▁vervallen	-11.6263
▁representatieve	-11.6263
▁interfase	-11.6263
▁bronchopneumoni	-11.6263
▁biologie	-11.6263
zakelijk	-11.6263
▁belangrijk	-11.6263
▁beslag	-11.6264
▁nasofarynx	-11.6264
Locatie	-11.6264
▁stromaceltumor	-11.6264
▁vaatstructuren	-11.6264
▁pyoderma	-11.6264
lledigheidshalve	-11.6266
interstiti	-11.6267
▁Cervixpoliep	-11.6268
▁Bronchusbiopt	-11.6269
▁degeneratief	-11.6271
▁eigen	-11.6271
spoelsel	-11.6271
▁linkerslaap	-11.6272
details	-11.6273
▁bespreken	-11.6273
▁apoptotisch	-11.6273
▁mesenchymaal	-11.6273
▁omliggend	-11.6273
▁ontwikkeling	-11.6273
▁vlok	-11.6274
▁epitheloid	-11.6277
▁lateralis	-11.6277
rectosigmoid	-11.6278
proximaal	-11.6279
▁mesothelia	-11.628
▁kapjes	-11.628
▁hierop	-11.6285
▁gelijk	-11.6286
max	-11.6287
▁Diepte	-11.6287
▁ducten	-11.6288
▁verbreding	-11.6289
▁zygoma	-11.6289
sprieterig	-11.629
▁excochleatie	-11.629
▁overeenkomstig	-11.629
▁kapje	-11.629
▁methylering	-11.629
kop	-11.6291
middels	-11.6292
snijvlakken	-11.6293
▁Hemithyreoid	-11.6294
-11-202	-11.6296
▁dysmorfie	-11.6299
▁mammapunctie	-11.6305
superficieel	-11.6306
▁lager	-11.6307
▁signaal	-11.6308
▁insnijden	-11.6309
lymfklierweefsel	-11.631
▁parti	-11.6311
▁resterend	-11.632
▁LA	-11.6323
▁pouch	-11.6323
▁osteochondroom	-11.6323
pierbiopt	-11.6336
▁rib	-11.6339
Angio	-11.6341
▁nieren	-11.6345
▁rechteroksel	-11.6357
▁cystevocht	-11.6362
▁clon	-11.6365
chemische	-11.6366
▁sporen	-11.637
minimale	-11.637
▁verslagen	-11.6385
▁longbiopt	-11.6392
▁linkerbovenkwab	-11.6397
▁incomplete	-11.6408
▁Lab	-11.6413
▁(1,	-11.6426
▁Lymfklieren	-11.6445
▁bulla	-11.6445
inder	-11.6455
▁sturen	-11.6462
▁kop	-11.6463
▁maagantrumbiopt	-11.6479
ert	-11.6486
▁partieel	-11.6498
▁receptoren	-11.6501
end	-11.6507
ologiebespreking	-11.6507
▁gesteelde	-11.6524
elbeeld	-11.6548
diep	-11.6554
▁dens	-11.6563
-21)	-11.6565
nier	-11.6577
bil	-11.6587
▁metaplastische	-11.6601
gebracht	-11.661
▁discontinue	-11.662
achter	-11.6621
waar	-11.6623
▁anterieure	-11.6642
ad	-11.6651
▁strip	-11.6663
▁casu	-11.6664
dermaal	-11.6668
kleur	-11.6672
emarkeerde	-11.6675
unica	-11.668
▁november	-11.668
▁schimmelhyfen	-11.668
▁sialoadenitis	-11.668
▁Extirpatie	-11.668
▁durum	-11.668
▁flow	-11.668
▁homogeen	-11.668
▁melanofagen	-11.668
▁zaadcellen	-11.668
▁Hysterectomie	-11.668
▁hechtmateriaal	-11.668
▁literatuur	-11.668
▁kratervormige	-11.668
▁megakaryopoese	-11.668
▁gegeneraliseerd	-11.668
▁teruggevonden	-11.668
▁chemie	-11.668
▁endometroid	-11.668
eimpetiginiseerd	-11.668
▁alopecie	-11.668
essner	-11.668
▁comedonecrose	-11.668
▁spoelcellipoom	-11.668
▁Licht	-11.668
▁purpura	-11.6681
▁voetrand	-11.6682
tijd	-11.6683
ldb	-11.6685
witte	-11.6686
irritatiefibroom	-11.6687
▁focusscore	-11.6688
▁behandeld	-11.6688
▁naevo	-11.6689
▁circumscript	-11.669
▁desmoid	-11.669
▁plaveiselcellen	-11.6692
axilla	-11.6692
▁erosief	-11.6694
▁linkeroksel	-11.6697
▁regeneratie	-11.6702
▁lithiasis	-11.6707
▁gangren	-11.6707
▁hamartoom	-11.6707
▁interscapulair	-11.6707
▁beloop	-11.6707
tracht	-11.6708
diagnostiek	-11.6714
goed	-11.6714
pretibiaal	-11.6715
hoogte	-11.6715
▁colorecta	-11.672
▁Ileumslijmvlies	-11.6723
aagcorpus	-11.6723
▁wildtype	-11.6726
▁labia	-11.6732
21:	-11.6737
resp	-11.6739
ED	-11.6739
▁september	-11.6743
geirriteerde	-11.6743
zo	-11.6744
tis	-11.6748
▁gerapporteerd	-11.676
retroperitoneaal	-11.6766
hoog	-11.677
▁fusies	-11.677
▁overal	-11.6772
anale	-11.6791
italiteit	-11.6793
▁decollete	-11.6796
▁mons	-11.6807
▁geinverteerd	-11.6815
remmers	-11.6815
satelliethaarden	-11.6824
▁residu	-11.6831
20:	-11.6833
▁loc	-11.6842
pl	-11.685
cellulaire	-11.6852
oh	-11.6857
▁feite	-11.6863
▁satelliet	-11.6873
oon	-11.688
▁haardjes	-11.6891
expressie	-11.6894
LCI	-11.6898
▁Huidfragment	-11.6912
stelling	-11.6928
scheenbeen	-11.6937
stoornis	-11.6939
▁vera	-11.6942
▁feit	-11.695
▁anamnes	-11.6961
▁gecauteriseerd	-11.6963
▁prominent	-11.6964
dig	-11.699
▁hemorragisch	-11.6998
▁cyst	-11.7013
ans	-11.7033
▁peroperatie	-11.7036
▁desmoplastisch	-11.7044
▁promoter	-11.7051
neevlak	-11.7054
▁Atypische	-11.7059
holte	-11.706
▁or	-11.7069
grote	-11.7099
reparaten	-11.7101
▁endometri	-11.7102
▁megakaryocyt	-11.7103
plasmacellulaire	-11.7106
ityrosporum	-11.7107
oesofagea	-11.711
putum	-11.711
▁reuma	-11.7112
ertoli	-11.7113
▁lamel	-11.7115
xtracapsulair	-11.7115
▁gangrenosum	-11.7115
▁thyreoiditis	-11.7115
▁voorgrond	-11.7115
▁wenst	-11.7115
▁migrans	-11.7115
▁Bcl	-11.7115
▁Centraal	-11.7115
▁carcinomatosa	-11.7115
▁funiculus	-11.7115
▁Hirschsprung	-11.7115
▁steenlijden	-11.7115
▁postmenopauza	-11.7115
▁afwachten	-11.7115
▁myocardinfarct	-11.7115
ormospermie	-11.7115
▁miniem	-11.7115
▁multiple	-11.7115
▁somscore	-11.7115
▁doorgevoerd	-11.7115
▁incompleet	-11.7115
▁papillomateus	-11.7115
▁Borrelia	-11.7115
inds	-11.7116
▁ww	-11.7116
oging	-11.7119
lyse	-11.712
▁operatie	-11.7121
▁aangevuld	-11.7123
▁Giemsa	-11.7125
▁wervelkolom	-11.7125
▁huidsnijvlakken	-11.7126
ortons	-11.7129
▁blijven	-11.7134
-000	-11.7135
elan	-11.7139
ventraal	-11.7142
▁Dupuytren	-11.7143
▁exofytisch	-11.7143
▁endoscopisch	-11.7143
▁tongpunt	-11.7143
▁array	-11.7151
▁multi	-11.716
▁gedeelte	-11.716
▁Foca	-11.716
▁hyalinose	-11.7162
20,	-11.7162
medicamenteuze	-11.7164
▁bp	-11.7165
voorlip	-11.7168
Histologisch	-11.7168
ileum	-11.7169
extern	-11.717
verslag	-11.7173
normaal	-11.7174
bijvoor	-11.7175
▁ethmoid	-11.718
▁humerus	-11.718
▁Invasief	-11.7181
▁Genom	-11.7182
▁stoornissen	-11.7185
ingroei	-11.7186
▁komen	-11.7196
▁Congorood	-11.7199
sentinel	-11.7202
operatieve	-11.7204
▁naad	-11.7208
▁dominant	-11.7209
▁subtota	-11.7214
▁Hersen	-11.722
002	-11.7263
eusslijmvlies	-11.7264
00)	-11.7285
ammaweefsel	-11.731
AAL	-11.7326
▁grens	-11.7334
utaties	-11.7339
▁DLBCL	-11.735
icro	-11.7366
▁gemedieerd	-11.7375
olgen	-11.7376
▁cardiale	-11.7387
▁invaginatie	-11.7394
▁toxische	-11.74
vormend	-11.7401
▁mijn	-11.7433
atief	-11.7453
HI	-11.7481
▁Ileum	-11.7512
▁ond	-11.7521
▁omgeven	-11.7532
▁stans	-11.754
acrale	-11.7543
▁portio	-11.7547
▁snel	-11.7556
gestelde	-11.7556
reslowdikte	-11.7557
mentum	-11.7558
▁gist	-11.7558
atypie	-11.756
gevuld	-11.7561
tadiering	-11.7564
oide	-11.7565
adjuvante	-11.7566
areolair	-11.7569
apsel	-11.7569
Elektronen	-11.7569
geboren	-11.7569
▁bijeenkomst	-11.7569
▁endofytisch	-11.7569
▁fasciitis	-11.7569
▁gynaecoloog	-11.7569
▁januari	-11.7569
▁micronoduli	-11.7569
▁papulose	-11.7569
▁verdwijn	-11.7569
▁associatie	-11.7569
▁chemoradiatie	-11.7569
▁linkeroog	-11.7569
▁syringoom	-11.7569
▁Bench	-11.7569
▁zichtbaar	-11.7569
▁mondholte	-11.757
matofibrosarcoma	-11.757
▁merendeel	-11.757
▁vaatrijk	-11.757
▁Longspoeling	-11.757
▁zware	-11.757
▁condylomateuze	-11.757
▁Disclaimer	-11.757
▁mannelijk	-11.757
▁adenomyomateuze	-11.757
▁zenuwweefsel	-11.757
▁vaginawand	-11.757
▁angiosarcoom	-11.757
▁erythrocyturie	-11.757
▁zenuwvezels	-11.7571
▁erytroid	-11.7571
neemt	-11.7571
▁Leverbiopsie	-11.7571
▁subcornea	-11.7571
BREID	-11.7571
▁doorgegeven	-11.7572
▁mei	-11.7572
obturatoriusloge	-11.7572
▁linkeronderkwab	-11.7574
▁bodemsnijvlak	-11.7577
▁plekje	-11.7577
▁buisjes	-11.7578
▁aanvrager	-11.758
▁diabetes	-11.758
cytomorfologisch	-11.7581
he	-11.7586
Abortuscurettage	-11.7589
▁epitheelcyste	-11.7596
▁linkerborst	-11.7598
▁cheilitis	-11.7599
▁tumorcelkernen	-11.7602
helder	-11.7608
romp	-11.7616
▁eiwit	-11.7618
▁intramucosaal	-11.7618
▁kapseldoorbraak	-11.7618
Grade	-11.7622
rap	-11.7627
Dysplasie	-11.7631
▁waarden	-11.7632
▁medicatie	-11.7632
▁linkerlies	-11.7635
promoter	-11.7637
▁trachea	-11.7639
iliacaal	-11.7641
▁talgklieren	-11.7641
Celrijk	-11.7642
middenkwab	-11.7643
digitus	-11.7644
verkregen	-11.7644
Diameter	-11.7644
zwelling	-11.7645
Duodenumbiopten	-11.7648
linkerwang	-11.7654
▁abdominale	-11.7657
0-01-	-11.7661
dup	-11.7672
hvd	-11.7674
▁antrumbiopt	-11.7674
subcutis	-11.768
ECI	-11.7698
▁helicobacters	-11.773
▁insertie	-11.7736
halve	-11.7739
▁rechterflank	-11.774
itstrijk	-11.7741
▁ha	-11.7742
populatie	-11.7742
▁sp	-11.7759
fragmentje	-11.7766
nodig	-11.7775
Classificatie	-11.7779
▁Rectums	-11.7797
ou	-11.78
ci	-11.7802
▁longbiopten	-11.7837
epitheliomateu	-11.7841
(1	-11.7861
esophagusbiopt	-11.7868
oraal	-11.7901
folliculaire	-11.7919
Long	-11.792
oude	-11.7931
▁Intra	-11.7935
rans	-11.7989
▁Extra	-11.7993
decidualisatie	-11.8007
-01-202	-11.8012
▁grenzen	-11.802
▁sprietige	-11.8023
lhoe	-11.8023
reputium	-11.8029
▁patienten	-11.8031
keratine	-11.8033
Gradering	-11.8034
asectomie	-11.8034
spraak	-11.8038
▁major	-11.804
▁grove	-11.8043
ordt	-11.8044
esluit	-11.8045
▁homozygo	-11.8046
▁additione	-11.8046
▁chalazion	-11.8046
▁lymfangiectasie	-11.8046
▁Circumcisie	-11.8046
▁Epstein	-11.8046
▁Lobectomie	-11.8046
▁ingevroren	-11.8046
▁microcirculatie	-11.8046
▁oncocytoom	-11.8046
▁porokeratose	-11.8046
▁vitiligo	-11.8046
medium	-11.8046
▁acuminata	-11.8046
▁hyperkeratotica	-11.8046
▁instrumentatie	-11.8046
gevangen	-11.8046
▁cervicitis	-11.8046
▁poroom	-11.8046
▁belang	-11.8046
▁hepatocyten	-11.8046
▁vergeleken	-11.8046
Eerst	-11.8046
▁nagelbed	-11.8046
▁truncus	-11.8046
▁klierbuisjes	-11.8046
differentiated	-11.8046
innen	-11.8046
▁verwijderen	-11.8046
myxoma	-11.8046
▁scopie	-11.8047
kalib	-11.8048
▁coecumbodem	-11.8049
20)	-11.8049
ity	-11.8049
achtig	-11.8049
▁pigmentlaesie	-11.805
▁coverage	-11.805
▁Beenmergbiopsie	-11.805
▁redelijk	-11.8052
zak	-11.8053
▁optima	-11.8053
ammabiopsie	-11.8054
▁synoviale	-11.8054
▁herschikkingen	-11.8055
▁clusters	-11.8055
enemen	-11.8056
▁bemoeilijkt	-11.8057
▁protuberans	-11.8057
▁stimulatie	-11.8057
▁acantholytisch	-11.8057
▁veldjes	-11.8058
thoracaal	-11.8059
1-01-	-11.806
▁onderzijde	-11.806
schildkliernodus	-11.806
21-00	-11.807
▁abcessen	-11.8077
▁ectopisch	-11.8077
▁chromosomale	-11.8077
▁Anus	-11.8078
▁incidentie	-11.8078
▁ganglioncellen	-11.8079
▁techniek	-11.8084
cellige	-11.8086
olledigheid	-11.8091
ru	-11.8097
▁Afwijking	-11.8097
Coupe	-11.812
▁subcarinaal	-11.812
homogen	-11.812
klein	-11.8121
▁neotermina	-11.8122
per	-11.8122
omheen	-11.8125
▁macro	-11.8127
bevindingen	-11.813
▁stop	-11.8131
▁eenderde	-11.8135
▁tubulusatrofie	-11.8138
▁wond	-11.8139
aorta	-11.8139
skintag	-11.814
innemend	-11.814
high	-11.8143
linkerschouder	-11.8143
flexura	-11.8144
atrofie	-11.8144
Biopsie	-11.8145
Differentiaal	-11.8145
deletie	-11.8146
Beenmergbiopt	-11.8146
overwegend	-11.8149
weinig	-11.8149
▁structuur	-11.8157
naar	-11.8158
▁achtige	-11.8172
▁Bijnier	-11.8179
▁incidentiedatum	-11.8179
hypermethylering	-11.8187
kleuringspatroon	-11.8208
man	-11.8213
▁Rechts	-11.8221
▁Risk	-11.8221
uterien	-11.8227
▁geperforeerd	-11.8237
pathogene	-11.8256
▁concentratie	-11.8262
eest	-11.8277
lex	-11.8281
▁*:	-11.8304
▁medicamenteus	-11.8305
▁deficientie	-11.8326
▁gaand	-11.8338
▁dergelijke	-11.8341
rond	-11.8354
▁longtumor	-11.8357
▁diastase	-11.8367
metastasen	-11.8384
ekenen	-11.8391
2020:	-11.8394
neoplasie	-11.8395
orton	-11.8413
▁gelijkende	-11.8414
▁r	-11.8414
dm	-11.8443
▁Diepe	-11.8444
▁mee	-11.8447
granulomateuze	-11.8447
fibrose	-11.8447
av	-11.8448
21-11	-11.8463
▁Abortus	-11.8465
rij	-11.847
ala	-11.8479
reerde	-11.8483
olide	-11.8484
10-	-11.8487
▁wil	-11.8503
▁linkerventrikel	-11.851
▁antibod	-11.8512
▁Endo	-11.8515
excisiemateriaal	-11.8521
▁weefselstukje	-11.8529
ancreas	-11.8531
lisexcisie	-11.8536
fenotypisch	-11.8537
redictie	-11.8538
erdacht	-11.854
econd	-11.8542
▁structure	-11.8542
▁vat	-11.8544
▁prog	-11.8545
genomen	-11.8545
Concluderend	-11.8546
▁lepidisch	-11.8546
cadherine	-11.8546
dyscrasie	-11.8546
▁appendectomie	-11.8546
▁carcinosarcoom	-11.8546
▁exantheem	-11.8546
▁geinterpreteerd	-11.8546
▁geregistreerd	-11.8546
▁getromboseerd	-11.8546
▁ingescand	-11.8546
▁malleolus	-11.8546
▁pathologen	-11.8546
▁ziekenhuizen	-11.8546
▁excisieranden	-11.8546
▁Fusion	-11.8546
▁pleuritis	-11.8546
▁substr	-11.8546
▁verkalkt	-11.8546
▁fijn	-11.8546
▁uitwendig	-11.8546
splitsing	-11.8547
▁agens	-11.8547
▁pijpjes	-11.8547
▁myelodysplasie	-11.8549
▁etmoid	-11.8549
▁alsnog	-11.855
▁epidermoidcyste	-11.8553
▁maagwand	-11.8554
buitenzijde	-11.8554
▁inactivatie	-11.8555
▁versie	-11.8557
▁Administratie	-11.8558
▁Eczeem	-11.8558
▁gemist	-11.8558
▁infestatie	-11.8558
▁parietalis	-11.8558
▁myxoom	-11.8558
▁bovenstaand	-11.8558
rineblaas	-11.8558
▁uiteindelijk	-11.8559
▁transuret	-11.8562
▁fibroglandulair	-11.8562
sub	-11.8563
Bronchus	-11.8563
▁reticuline	-11.8566
▁urothelial	-11.8568
▁lymfoplasmocyt	-11.8572
▁tubectomie	-11.8572
▁grenzend	-11.8573
▁oedemateus	-11.8573
ubtota	-11.8577
▁biopteren	-11.8577
▁biopsiename	-11.8577
▁acetabulum	-11.8578
▁tepelhof	-11.8578
▁spoelvormig	-11.8578
▁placentavlokken	-11.8578
▁Cystevocht	-11.8579
▁ascitesvocht	-11.8579
▁crustavorming	-11.8579
▁gynaecologi	-11.8579
▁hoofdcarina	-11.858
▁Littekenweefsel	-11.8581
▁bind	-11.8583
▁tumorexcisie	-11.8586
arterioloscleros	-11.8593
bi	-11.8602
▁vasectomie	-11.8602
Basal	-11.8604
22-02	-11.8609
▁hematopo	-11.8621
▁predominant	-11.8622
▁koud	-11.8622
▁restmaligniteit	-11.8624
fibroom	-11.8625
▁kit	-11.8627
lymfangioinvasie	-11.8628
▁Boweno	-11.8631
tumorlocalisatie	-11.8636
▁oesophagusbiopt	-11.8641
Amplificatie	-11.8642
▁myxoid	-11.8645
yc	-11.8647
kuit	-11.8648
▁Aspecifiek	-11.8648
▁lokatie	-11.8651
echter	-11.8656
amenvattend	-11.866
0-11-1	-11.866
BI	-11.8661
ablatie	-11.8661
host	-11.8665
▁daarna	-11.8667
▁*******-*******	-11.8668
lambda	-11.8669
achterwand	-11.8669
kappa	-11.867
necrotiserende	-11.8671
bovenrug	-11.8675
krapst	-11.8679
▁incisiebiopt	-11.8687
▁indicatie	-11.8689
pen	-11.8695
BRI	-11.8704
tr	-11.8706
▁differenti	-11.8712
▁Gele	-11.8715
▁korte	-11.8718
dectomie	-11.8721
▁gecauteriseerde	-11.8736
extra	-11.8739
omente	-11.8744
▁Links	-11.8752
-100	-11.8769
▁arterio	-11.8771
▁Diagnostisch	-11.8796
rd	-11.8823
▁immuuncytochemi	-11.8823
001	-11.8833
▁10,	-11.8841
snijranden	-11.885
▁Reed	-11.8874
cal	-11.888
kant	-11.8891
▁Linker	-11.8895
▁clinico	-11.8902
ctive	-11.8903
▁ovari	-11.8914
▁maxilla	-11.892
Aan	-11.8923
▁2012	-11.8924
0,1	-11.8941
▁host	-11.8949
▁ablatie	-11.8952
▁Loka	-11.8961
▁retroperitonea	-11.8976
21-02	-11.8982
▁gelokaliseerde	-11.9002
deposities	-11.9013
ph	-11.9027
▁Fibro	-11.9049
percentage	-11.9054
▁coronair	-11.9057
effecten	-11.906
rognostisch	-11.9063
ericardvocht	-11.9064
yometrium	-11.9065
▁second	-11.9067
egatief	-11.9068
verwegend	-11.907
erwerkt	-11.9071
edebeoordeling	-11.9071
▁flard	-11.9071
-11-20	-11.9072
▁implicaties	-11.9072
alherbe	-11.9072
schappe	-11.9072
▁Laparoscopisch	-11.9072
▁aangepast	-11.9072
▁bekeken	-11.9072
▁bijnierschors	-11.9072
▁clitoris	-11.9072
▁decalvans	-11.9072
▁discreet	-11.9072
▁erythropoiese	-11.9072
▁reanimatie	-11.9072
▁traumatisatie	-11.9072
▁database	-11.9072
▁brede	-11.9072
▁giardiasis	-11.9072
▁wijsvinger	-11.9072
gemeen	-11.9072
▁ongebruikelijk	-11.9072
▁alveolaris	-11.9072
▁tubulopathie	-11.9072
▁medullair	-11.9072
▁verbrokkeld	-11.9072
▁fistelgang	-11.9072
▁genummerd	-11.9072
▁paratracheaal	-11.9072
▁schimmelsporen	-11.9072
cryptinvolvement	-11.9072
▁Beck	-11.9072
▁afgegeven	-11.9072
▁glioblastoma	-11.9072
▁kiemceltumor	-11.9072
▁lues	-11.9072
▁cyclus	-11.9072
▁Bijschildklier	-11.9072
lengte	-11.9072
conventioneel	-11.9073
schatting	-11.9073
rova	-11.9073
▁naschrift	-11.9073
▁microbiologie	-11.9073
▁botvorming	-11.9074
▁vervett	-11.9075
chronicum	-11.9075
▁nierparenchym	-11.9076
▁hieraan	-11.9076
teruscurettage	-11.9076
▁tov	-11.9079
▁littekengebied	-11.9079
▁ketens	-11.9083
for	-11.9083
▁extracapillair	-11.9084
▁apoptose	-11.9085
▁splijting	-11.9085
▁mycobacterien	-11.9088
subacuut	-11.9093
gradige	-11.9094
stroma	-11.9096
alveolair	-11.9101
▁overlap	-11.9106
▁Alcian	-11.9107
▁gevormd	-11.9107
▁retromamillair	-11.9107
▁arteriosclerose	-11.9107
▁tenosynovia	-11.9107
▁flardje	-11.9111
▁tw	-11.9112
▁dermatitisbeeld	-11.9113
▁destructie	-11.9114
auw	-11.9116
▁cystic	-11.9117
histiocytair	-11.9118
▁Controle	-11.912
▁preexistent	-11.912
ues	-11.9127
▁jun	-11.9129
▁webspace	-11.9129
▁huidstans	-11.9132
▁sigmoidresectie	-11.9133
lders	-11.9134
nale	-11.9138
▁out	-11.9142
▁blaastumor	-11.9142
▁ileumbiopt	-11.9144
▁gedilateerd	-11.9147
▁CA	-11.9147
intestinaal	-11.9147
▁obturatori	-11.9149
▁doorgemaakt	-11.9151
▁muco	-11.9151
▁koepel	-11.9152
▁gebruikt	-11.9152
▁periorbitaal	-11.9153
zijwand	-11.9155
voet	-11.9155
▁micropapillair	-11.9159
arti	-11.916
allergische	-11.9164
AB	-11.9166
gedrag	-11.9172
▁lang	-11.9174
typen	-11.9174
▁gemeten	-11.9175
amputatie	-11.9176
▁rechterslaap	-11.9187
standig	-11.9191
▁huidcurettage	-11.9195
Immuno	-11.9197
slaap	-11.9201
▁corpusbiopt	-11.9203
knie	-11.9205
▁voorhuid	-11.9206
kloon	-11.9213
▁celhyperplasie	-11.9216
ronde	-11.9217
Als	-11.9219
▁vacuum	-11.9221
Candida	-11.9221
amenorroeduur	-11.9224
niveau	-11.9224
helix	-11.9226
lichen	-11.9227
beiderzijds	-11.9227
keratose	-11.9227
variatie	-11.9227
granuloma	-11.9227
differentiaal	-11.9228
ulcus	-11.9228
macroscopisch	-11.9229
Huidbiopsie	-11.923
▁Rechter	-11.9231
-001	-11.9243
oorschelp	-11.9244
laag	-11.9251
erde	-11.9258
IDH	-11.9273
▁onderzoeken	-11.9276
▁2000	-11.9279
erend	-11.9286
▁pas	-11.9288
▁tumordiameter	-11.9297
ium	-11.9303
placenta	-11.9331
massa	-11.9337
▁--	-11.9354
ation	-11.9389
▁puncties	-11.9401
papillair	-11.9402
▁geinduceerd	-11.9438
gren	-11.9475
tumoren	-11.9481
▁Ander	-11.9496
iber	-11.9497
rijk	-11.9499
drietal	-11.9504
]20-02-	-11.9535
icrocalcificatie	-11.954
ntraepidermal	-11.9542
ire	-11.9545
af	-11.9589
loopt	-11.959
-2)	-11.9595
been	-11.96
tukje	-11.9606
leura	-11.9606
tadium	-11.9607
▁emfysemateu	-11.961
▁lichaam	-11.961
▁bloedstolsel	-11.9611
roximale	-11.9615
riescoupes	-11.9616
rogressief	-11.962
otiliteit	-11.962
fdeling	-11.962
▁mesenteria	-11.9623
emboli	-11.9624
▁thymus	-11.9626
▁Bauhin	-11.9626
liniek	-11.9627
pvallend	-11.9627
centrifug	-11.9627
▁suppurati	-11.9627
DGFRB	-11.9627
aemia	-11.9627
troebel	-11.9627
viscositeit	-11.9627
▁atroficus	-11.9627
▁cholesteatoom	-11.9627
▁dikwandig	-11.9627
▁fraai	-11.9627
▁inversum	-11.9627
▁neerslagen	-11.9627
▁tricholemma	-11.9627
▁tuberculose	-11.9627
▁verstuurd	-11.9627
turm	-11.9627
▁femoris	-11.9628
▁epiglottis	-11.9628
▁milj	-11.9628
▁presentatie	-11.9628
▁junctie	-11.9628
eiwitanalyse	-11.9628
▁setting	-11.9628
▁vaginalis	-11.9628
▁neusgat	-11.9628
▁week	-11.9628
▁cutis	-11.9628
▁vaak	-11.9628
▁vrouwelijk	-11.9628
▁thymoom	-11.9628
▁immunoprofiel	-11.9629
▁jaren	-11.963
▁darmwand	-11.963
▁nasal	-11.963
▁aantonen	-11.963
▁testisparenchym	-11.963
▁parotidectomie	-11.9632
ebsi	-11.9634
▁Atypie	-11.9636
aalf	-11.9637
▁rechterknie	-11.9638
▁nierweefsel	-11.964
▁funisitis	-11.9641
▁paracolisch	-11.9641
▁verwantschap	-11.9641
▁tumorgroei	-11.9643
▁somatisch	-11.9645
▁fixatie	-11.9645
▁hieronder	-11.9646
ulvabiopten	-11.9652
aginale	-11.966
▁organisatie	-11.9664
▁Radical	-11.9664
▁gebouwd	-11.9664
▁buismaag	-11.9664
▁pleomorf	-11.9664
▁immunotherapie	-11.9666
▁buikholte	-11.9666
▁Fibrose	-11.9668
-011	-11.9674
dacht	-11.9674
▁achterste	-11.9674
decidualis	-11.9676
▁celpopulaties	-11.968
▁(0,	-11.9681
▁minor	-11.9683
0).	-11.9685
▁aanvragend	-11.9687
▁cytogenetica	-11.9688
▁verdeling	-11.9688
dr	-11.9699
▁capillairen	-11.9711
▁apart	-11.9712
oorna	-11.9716
▁biopsielitteken	-11.9716
oorgroei	-11.9717
▁mediaanlijn	-11.9718
▁cardiomyopathie	-11.9728
▁multinodulair	-11.973
▁nodi	-11.9735
▁radiatie	-11.9737
21-20	-11.9739
-2021):	-11.9745
vlak	-11.9753
artefacten	-11.9759
▁corticale	-11.9761
▁tumordikte	-11.9766
rof	-11.9773
,21)	-11.9775
waarde	-11.978
ovarium	-11.9788
erve	-11.98
sarcoom	-11.98
▁geel	-11.9802
overweging	-11.9802
▁scherp	-11.9809
crista	-11.9811
vertex	-11.9813
lumbaal	-11.9814
worden	-11.9814
achterzijde	-11.9814
afwijkend	-11.9815
retro	-11.9815
schade	-11.9815
ongev	-11.9815
apex	-11.9815
linkerzijde	-11.9815
labium	-11.9816
eri	-11.9817
wordt	-11.9817
linkerbovenarm	-11.9817
tweemaal	-11.9821
linkeronderbeen	-11.9822
maar	-11.9822
▁skin	-11.9824
dien	-11.9826
▁overlegd	-11.9831
▁Regiona	-11.9841
dan	-11.9844
cysteus	-11.9847
▁geleid	-11.9858
▁biliaire	-11.9862
spoeling	-11.9863
▁Gefragmenteerd	-11.9876
▁tumornegatief	-11.989
▁pseudocyste	-11.9895
]20-01-	-11.9901
▁GI	-11.9902
▁carina	-11.9905
▁kanaal	-11.9905
liggende	-11.992
▁proliferaties	-11.9925
angioinvasie	-11.993
▁dag	-11.9933
▁bev	-11.9933
▁verdien	-11.9937
-11-2020	-11.9944
▁autoimmuun	-11.9946
ondslijmvlies	-11.996
▁acht	-11.9964
oa	-11.9996
ude	-11.9997
▁(201	-11.9997
teruscurettement	-12.0048
eling	-12.0058
oven	-12.0059
toename	-12.0067
neurale	-12.0134
▁flor	-12.0161
oppervlakkige	-12.018
20-12	-12.0181
roton	-12.0183
▁weg	-12.0184
ecundair	-12.0195
▁plavei	-12.0197
umorpercentage	-12.0198
eritoneumbiopt	-12.0199
weemaal	-12.0201
ercentage	-12.0202
▁pa	-12.0202
▁pulmona	-12.0203
tation	-12.0206
inimaal	-12.0209
acroscopisch	-12.0209
raagstelling	-12.0209
assend	-12.021
▁aneurysma	-12.0211
flux	-12.0212
▁flegmoneu	-12.0213
▁cytoplasma	-12.0213
verwogen	-12.0213
staart	-12.0214
itosen	-12.0214
egens	-12.0214
▁breed	-12.0215
▁regel	-12.0215
Cadherine	-12.0216
Hyperkeratotisch	-12.0216
myxofibrosarcoom	-12.0216
▁Chisholm	-12.0216
▁architectural	-12.0216
▁begrensd	-12.0216
▁geinfarceerd	-12.0216
▁gesuggereerd	-12.0216
▁pemfigus	-12.0216
▁sommige	-12.0216
▁funiculitis	-12.0216
▁immatuur	-12.0216
▁richtlijn	-12.0216
▁spreken	-12.0216
▁thrombus	-12.0216
▁necrobiosis	-12.0216
▁ijzerstapeling	-12.0216
▁aplastisch	-12.0216
Histocytologisch	-12.0216
▁Cystectomie	-12.0216
▁cicatrici	-12.0216
▁subclaviculair	-12.0216
▁cholestase	-12.0216
zamen	-12.0216
▁mesotheliomen	-12.0216
▁species	-12.0216
▁immunologie	-12.0216
▁losgelegen	-12.0216
herrangschikking	-12.0216
▁microbiologisch	-12.0217
▁Hierdoor	-12.0217
▁pankeratine	-12.0218
▁condylomata	-12.0218
▁Genetica	-12.0218
▁Cristabiopsie	-12.0218
▁cystisch	-12.0219
▁blaasbodem	-12.0219
▁detectie	-12.022
neoadjuvante	-12.022
▁hierdoor	-12.022
▁septale	-12.0224
▁pericardvocht	-12.0224
▁Cervixbiopsie	-12.0226
ppendicitis	-12.0226
▁phyllodes	-12.0229
▁shift	-12.023
▁neuspoliepen	-12.023
iliaire	-12.0231
▁(1-	-12.0231
large	-12.0232
▁rechterlong	-12.0236
▁ijzerdepositie	-12.0238
▁corpusmucosa	-12.024
▁hersen	-12.0244
▁ingesneden	-12.0245
101	-12.025
▁glia	-12.0253
▁sterilisatie	-12.0255
▁bronchiaal	-12.0255
▁zeven	-12.0255
▁herschikking	-12.0256
▁breedte	-12.0256
▁oorschelprand	-12.0257
low	-12.0258
sgraad	-12.0266
-200	-12.0266
▁expansie	-12.028
▁orofarynx	-12.028
▁lamellen	-12.028
▁pyoge	-12.0281
gevoeligheid	-12.0286
▁mammabiopt	-12.0298
atuur	-12.0302
▁Graa	-12.0303
▁histiocyten	-12.0306
sein	-12.0306
▁technisch	-12.0307
▁zijresectierand	-12.0309
len	-12.0309
▁bovenzijde	-12.0312
▁epithelioid	-12.0315
▁rechterborst	-12.0319
ut	-12.0325
snijden	-12.0333
▁erosies	-12.0334
liggend	-12.0335
21-21	-12.0346
▁rood	-12.0357
▁only	-12.0359
sluiten	-12.0366
▁laesionaal	-12.0376
zijn	-12.0389
arges	-12.0402
▁process	-12.0404
▁polypoid	-12.0407
orbitaal	-12.0415
Colon	-12.0421
bn	-12.0425
overgangszone	-12.0428
band	-12.043
diastase	-12.043
▁ad	-12.0431
21-10	-12.0431
rootste	-12.0433
ua	-12.0433
▁mild	-12.0434
binnenzijde	-12.0438
Botbiopt	-12.0439
bedraagt	-12.044
gelaat	-12.044
cutane	-12.044
melanocytaire	-12.044
melanoom	-12.044
rechterschouder	-12.0442
arteri	-12.0442
opathie	-12.0445
beperkt	-12.0447
▁Reik	-12.0458
▁(12,1	-12.0472
ulaire	-12.0481
afstand	-12.0516
▁dys	-12.0521
stations	-12.0524
mber	-12.0534
▁cylinder	-12.0543
▁k	-12.0549
▁loge	-12.0561
,11)	-12.0568
iaire	-12.0571
derde	-12.0593
overgevoeligheid	-12.0616
▁overgangszone	-12.062
ek	-12.063
fluxoesofagitis	-12.0641
ntestinale	-12.0643
basaal	-12.0652
▁tumormateriaal	-12.0658
(1-	-12.0658
diepe	-12.0674
▁Lipbiopt	-12.0676
▁Broncho	-12.0686
ld	-12.0686
assing	-12.0691
▁osteo	-12.0693
uid	-12.0693
nh	-12.0694
dometriosecyste	-12.0701
bronchusepitheel	-12.0706
▁con	-12.0711
▁rechtervoet	-12.0723
che	-12.0725
▁hydro	-12.0728
oppervlakkig	-12.073
geassocieerd	-12.0737
▁2021	-12.0744
yr	-12.0747
-11-2020:	-12.0747
esofagusslij	-12.0747
▁effecten	-12.0753
xcochleatie	-12.0773
uitstrijken	-12.0776
pm	-12.0785
ass	-12.0794
iermee	-12.0796
nucleatie	-12.0798
marginaal	-12.08
erslag	-12.0802
oliepje	-12.0809
moleculaire	-12.0819
▁vagin	-12.082
prieterig	-12.0821
▁rearrangement	-12.0822
▁pustel	-12.0824
▁veldje	-12.0824
arotis	-12.0825
ypering	-12.0826
enminste	-12.0828
-112	-12.083
Clon	-12.0832
▁polycyth	-12.0833
anwijzingen	-12.0834
elefonisch	-12.0834
globuline	-12.0837
▁plekke	-12.0837
▁Rectumbiopt	-12.0838
▁CIC	-12.0838
nderlip	-12.0838
mark	-12.0839
▁myxo	-12.0839
▁linkerknie	-12.084
ponta	-12.084
▁samenhang	-12.084
avelstreng	-12.084
ijdelings	-12.084
▁klonal	-12.084
▁Dermatofibroom	-12.0841
▁Rectosigmoid	-12.0841
▁androgenetica	-12.0841
▁fibrinopurulent	-12.0841
▁glomerulopathie	-12.0841
▁inwendig	-12.0841
▁seminalis	-12.0841
▁variabel	-12.0841
aldenstrom	-12.0841
▁miniscu	-12.0841
▁opinion	-12.0841
▁granulomateus	-12.0841
▁bloedvaatjes	-12.0841
▁classifier	-12.0841
flowcytometrisch	-12.0841
▁zijwaarts	-12.0841
condylomateus	-12.0841
▁ulnair	-12.0841
▁endometritis	-12.0841
▁nevenbevinding	-12.0841
▁staafjes	-12.0841
▁synoviitis	-12.0841
▁mastoid	-12.0841
▁tonsillair	-12.0841
▁blanco	-12.0841
▁tubulitis	-12.0841
▁mediastinaal	-12.0841
▁angiokeratoom	-12.0841
▁blaaskoepel	-12.0841
▁doel	-12.0841
▁haren	-12.0841
▁herbeoordeling	-12.0841
▁angioleiomyoom	-12.0841
▁bekkenwand	-12.0841
▁geinc	-12.0842
infraclaviculair	-12.0842
▁orchidectomie	-12.0842
flat	-12.0842
▁lipomatosus	-12.0842
rechtzijdig	-12.0842
sthenospermie	-12.0843
▁antrumgastritis	-12.0843
▁strikt	-12.0843
▁mucoid	-12.0844
riesmateriaal	-12.0844
ubulovilleu	-12.0845
▁poli	-12.0845
▁placentabed	-12.0845
▁telken	-12.0845
leangiectaticum	-12.0846
▁0.2	-12.0848
▁driemaal	-12.0849
▁dik	-12.0849
▁epitheelatypie	-12.085
utatieanalyse	-12.085
▁subepidermaal	-12.0852
plasmocellulaire	-12.0853
▁vasculitisbeeld	-12.0855
▁antilichaam	-12.0856
▁excideren	-12.0856
▁omslagplooi	-12.0856
▁indruk	-12.0857
▁linkerlong	-12.0862
ndocervicale	-12.0862
▁late	-12.0862
profiel	-12.0865
Cervixlisexcisie	-12.087
typering	-12.0871
nb	-12.0881
▁acne	-12.0882
▁leverhilus	-12.0882
▁bilnaad	-12.0883
▁immuuncomplex	-12.0883
▁CDLE	-12.0885
▁blaasbiopt	-12.0885
sis	-12.0902
net	-12.0902
▁ophoping	-12.0909
▁frontotemporaal	-12.091
▁subcapsulair	-12.091
▁capillaritis	-12.091
▁tumoraal	-12.0912
▁pleurabiopten	-12.0929
▁bronchusbiopten	-12.093
▁rustig	-12.0937
top	-12.0937
▁Betref	-12.0939
▁renaal	-12.094
▁Dens	-12.0941
ablatio	-12.0946
▁chirurg	-12.095
▁mammatumor	-12.0954
▁blijken	-12.0955
▁grillige	-12.0956
yo	-12.0957
▁Grocott	-12.0964
▁Ewing	-12.0964
▁systeem	-12.0964
▁sneden	-12.0982
bv	-12.0991
▁lymfaden	-12.0993
▁mening	-12.0995
idectomie	-12.1004
▁*	-12.1006
▁jonge	-12.101
▁trombo	-12.1018
▁gefibroseerd	-12.1045
▁leveren	-12.1055
contact	-12.1059
▁pan	-12.106
IB	-12.1061
lever	-12.1068
22-12	-12.1068
membraneus	-12.1074
▁ovarieel	-12.1075
teuze	-12.1077
ruim	-12.1081
ariati	-12.1089
ovariele	-12.1089
buis	-12.1091
methylering	-12.1093
sperm	-12.1094
Cervix	-12.1097
diam	-12.1101
onderverdeling	-12.1102
Clark	-12.1103
▁precie	-12.1103
extravasatie	-12.1103
kapsel	-12.1104
stase	-12.1104
therapie	-12.1105
referentie	-12.1105
occipitaal	-12.1105
bulbus	-12.1106
paranasaal	-12.1106
bacterien	-12.1106
derhalve	-12.1107
infiltrerend	-12.1107
colitis	-12.1107
aangetoond	-12.1107
aangetroffen	-12.1107
prurigo	-12.111
hotspots	-12.1112
parotis	-12.1114
▁xanthogranulo	-12.1116
Li	-12.1119
-010	-12.112
▁Lip	-12.1121
ratio	-12.1125
perineurale	-12.1129
kt	-12.1131
ontactallergisch	-12.1134
post	-12.1135
drie	-12.1146
▁Dd	-12.1152
▁peritoneumbiopt	-12.1162
011	-12.1165
parietaal	-12.1167
▁geruptureerd	-12.1172
tring	-12.1173
▁kind	-12.1177
22-11	-12.118
celveranderingen	-12.1182
bas	-12.1192
naal	-12.1198
▁traumatische	-12.1202
▁sperm	-12.1206
▁bloc	-12.1206
las	-12.1213
▁lipoma	-12.1218
▁intima	-12.1225
au	-12.1225
▁bestralings	-12.1247
▁radio	-12.125
▁clonaliteit	-12.1253
▁ante	-12.1255
]10-02-	-12.1256
▁halsklier	-12.1257
102	-12.1258
bb	-12.1263
ethylatie	-12.1275
EE	-12.1289
ingang	-12.129
▁polypoide	-12.1296
▁overig	-12.1297
▁opname	-12.1299
olaire	-12.1324
ichting	-12.1332
geschiedenis	-12.1332
tjes	-12.1344
▁generati	-12.1353
weke	-12.1362
20-02	-12.1365
mvliesbiopten	-12.1403
celrijk	-12.1423
icrocurettage	-12.1424
werken	-12.1427
▁men	-12.1431
▁atrium	-12.1431
ynoviumbiopten	-12.1435
formatie	-12.1439
emen	-12.1444
▁Even	-12.1455
spatroon	-12.1463
▁Langerhans	-12.1464
sb	-12.1469
lobulair	-12.147
▁va	-12.1472
epel	-12.1473
Bacterie	-12.1474
erologie	-12.1485
poradisch	-12.1486
ucosa	-12.1487
▁behandelen	-12.1489
sternaal	-12.1492
temband	-12.1493
012	-12.1493
uitbreiding	-12.1493
rocedure	-12.1493
laveiselcel	-12.1494
▁Gene	-12.1494
▁metastasering	-12.15
▁digitu	-12.1503
beginnend	-12.1503
▁endotheel	-12.1506
ltra	-12.1506
▁trilin	-12.1507
▁rechteroog	-12.1507
▁zeggen	-12.1507
▁benigna	-12.1507
olkingsonderzoek	-12.1507
▁ameloblastoom	-12.1507
▁daadwerkelijk	-12.1507
▁fysiologisch	-12.1507
▁glomerulus	-12.1507
▁hepaticus	-12.1507
▁opgave	-12.1507
▁orientatie	-12.1507
▁preexsistent	-12.1507
Dikte	-12.1507
duodenectomie	-12.1507
▁lipoidica	-12.1507
▁pilaris	-12.1507
pustulair	-12.1507
▁radiologie	-12.1507
▁cerebellum	-12.1507
▁berichtgeving	-12.1507
▁Ductu	-12.1507
▁omental	-12.1507
▁naevuscelnaevus	-12.1507
▁Anusuitstrijk	-12.1508
▁aldus	-12.1508
assiste	-12.1508
▁Lipoom	-12.1508
▁hysterectomie	-12.1508
▁retroperitoneum	-12.1508
▁serum	-12.1508
▁chondroid	-12.1508
▁twijfel	-12.1508
▁omsneden	-12.1508
▁standaard	-12.1508
▁pancreasstaart	-12.1508
▁Gram	-12.1508
▁ontwikkeld	-12.1508
▁trombosering	-12.1508
▁phyllodestumor	-12.1509
▁Bauhini	-12.1509
gering	-12.1509
▁panitumumab	-12.151
▁helixrand	-12.151
ycobacteri	-12.151
▁differentieren	-12.151
▁huidstukje	-12.1511
▁antral	-12.1511
tratum	-12.1511
▁cryptabcesjes	-12.1511
▁sinonasal	-12.1511
▁pink	-12.1513
▁Coecumbiopten	-12.1514
▁overeenkomend	-12.1514
▁than	-12.1515
▁lymfkliertje	-12.1515
▁moment	-12.1517
▁tussenliggend	-12.1517
oderende	-12.1521
▁auramine	-12.1524
▁hepatoduodenale	-12.1524
▁myopathisch	-12.1524
▁pustels	-12.1525
10-20	-12.1525
▁ijzerdeposities	-12.1526
wenkbrauw	-12.1526
▁tubulairadenoom	-12.1527
▁uitbreiden	-12.1528
transplantaat	-12.1528
myc	-12.1531
ovula	-12.1532
pons	-12.1535
▁dubieu	-12.1536
▁opgenomen	-12.1536
▁punten	-12.1541
gere	-12.1544
1-10-	-12.1547
▁ik	-12.155
▁lumina	-12.1551
▁vaatmalformatie	-12.1552
▁balanitis	-12.1552
▁getraumatiseerd	-12.1552
▁cornea	-12.1552
▁accessoir	-12.1552
▁antihelix	-12.1552
▁ileocoecaal	-12.1552
omateuze	-12.1554
▁follikels	-12.1554
▁opgemerkt	-12.1554
▁tumorproces	-12.1555
▁sperma	-12.1556
-10-2	-12.1558
▁respiratoire	-12.1567
▁intratubulair	-12.1573
▁excisiebiopten	-12.1576
▁vervezeling	-12.1581
childwacht	-12.1585
portaal	-12.1587
▁uitloper	-12.1587
▁vormen	-12.1588
ostmorta	-12.1588
▁testisbiopt	-12.1594
▁Invasie	-12.1598
haarden	-12.16
▁Concordant	-12.161
▁bovenpool	-12.1612
▁Botbiopten	-12.1613
ductaal	-12.1618
▁ingebracht	-12.1622
▁Ca	-12.1624
▁Immuunhistochem	-12.1627
▁prep	-12.1634
00.000	-12.1634
▁intravasculair	-12.1634
▁areola	-12.164
▁mutant	-12.164
pitheelbekleding	-12.164
-2022.	-12.1645
mA	-12.1648
▁dist	-12.1649
▁rechterbil	-12.166
haveexcisie	-12.1667
▁gemiddeld	-12.1669
▁maagcardiatype	-12.167
▁lesionaal	-12.167
▁voorvoet	-12.1671
lg	-12.1674
▁tien	-12.168
oma	-12.1684
ano	-12.1691
20):	-12.1692
cardia	-12.1699
xtraprostatisch	-12.1704
*,	-12.1707
▁leverbiopten	-12.1713
ransurethraal	-12.1713
ros	-12.172
index	-12.1731
▁vesiculae	-12.1731
▁202	-12.1735
lok	-12.1736
actief	-12.1744
-12-2020:	-12.1753
der	-12.1758
toe	-12.1774
penis	-12.1776
moleculair	-12.178
▁desmoplastische	-12.1781
acht	-12.1784
trial	-12.1786
▁adenomatoid	-12.1786
iertransplantaat	-12.1789
▁ac	-12.1791
pols	-12.1796
▁IGH	-12.1803
Regressie	-12.1803
-12-20	-12.1809
▁aberrante	-12.1811
21-22	-12.1815
sclerose	-12.1815
partieel	-12.1816
infarct	-12.1817
relevant	-12.1817
gemethyleerd	-12.1818
controle	-12.1818
Hotspot	-12.1818
abdomen	-12.182
acinair	-12.182
pigment	-12.182
actinisch	-12.1821
kliniek	-12.1821
voorzijde	-12.1822
-02-2021:	-12.1823
Gleasonscore	-12.1826
Colonbiopten	-12.1829
translocatie	-12.1829
linkerbovenbeen	-12.1829
▁cholesterol	-12.1832
▁secretie	-12.1844
klierprocedure	-12.1862
▁RIC	-12.1866
▁to	-12.1875
▁georganiseerde	-12.1877
▁Bespreking	-12.1879
circumferentieel	-12.1883
22-22	-12.1885
pro	-12.1887
do	-12.1901
itgebreid	-12.1903
loge	-12.1911
2022:	-12.1913
sneevlak	-12.1917
Lymf	-12.1921
▁necrotiserend	-12.1924
och	-12.1935
aard	-12.194
nig	-12.1945
ang	-12.1954
▁1-2).	-12.1958
-02-202	-12.1962
▁band	-12.1964
▁Coecum	-12.1965
musculair	-12.1981
▁organismen	-12.1998
ica	-12.2
010	-12.2007
va	-12.2015
▁epithelioide	-12.2021
subcutane	-12.2025
▁kloon	-12.2032
ipellebiopt	-12.2048
▁gebiedje	-12.205
▁BH	-12.2058
10,1	-12.2059
ung	-12.2062
lik	-12.2068
▁spin	-12.2072
▁vertegenwoordig	-12.2088
sen	-12.2088
aak	-12.2097
▁tangentie	-12.2101
geschat	-12.2106
▁Colonpoliep	-12.2108
axillair	-12.2115
kleurt	-12.2118
▁Dysplasie	-12.2125
maagbiopten	-12.2139
▁mix	-12.2139
ish	-12.2149
ati	-12.215
-01-2	-12.2157
tom	-12.2161
Regio	-12.2164
cre	-12.2165
osis	-12.217
▁ondersteunen	-12.218
-102	-12.2185
atellitose	-12.22
▁naevocellulare	-12.2205
▁eo	-12.2206
▁zenuw	-12.2207
erifere	-12.2207
▁synovia	-12.221
rostatectomie	-12.2213
otje	-12.2213
▁atrof	-12.2214
orfologie	-12.2215
ergelijking	-12.2216
elanoom	-12.2216
oesophagea	-12.2217
aevus	-12.2218
ediastinale	-12.222
▁frontal	-12.2221
▁Lichen	-12.2222
▁abnormal	-12.2222
▁giardia	-12.2222
pecific	-12.2222
ladderwash	-12.2222
zoospermie	-12.2222
▁destijds	-12.2222
▁discrepant	-12.2222
▁elastine	-12.2222
▁peritonei	-12.2222
▁vinden	-12.2222
Idylla	-12.2222
cerebral	-12.2222
▁Bulbus	-12.2222
▁beleid	-12.2222
▁commentaar	-12.2222
▁fallopii	-12.2222
▁gasthuis	-12.2222
▁guttata	-12.2222
▁primers	-12.2222
▁research	-12.2222
▁spermaticus	-12.2222
▁verhoorning	-12.2222
▁versicolor	-12.2222
▁verzonden	-12.2222
▁volvulus	-12.2222
▁right	-12.2222
▁aanleveren	-12.2222
▁eerstelijns	-12.2222
▁verklaart	-12.2222
▁suppurativa	-12.2222
▁follikelcentrum	-12.2222
druppel	-12.2222
▁glycogen	-12.2222
▁anatomisch	-12.2222
▁ileocoecaalklep	-12.2222
▁sacro	-12.2222
▁bereikt	-12.2222
▁glomustumor	-12.2222
▁vezeltoename	-12.2222
▁bewezen	-12.2222
wederom	-12.2222
▁kleppen	-12.2222
▁lymfadenitis	-12.2222
▁perniones	-12.2222
▁polipeu	-12.2222
▁spierlaag	-12.2222
plica	-12.2222
Immunologisch	-12.2222
▁plaatsgevonden	-12.2222
▁left	-12.2222
22-10	-12.2222
▁mucinose	-12.2222
▁doorgebeld	-12.2222
▁hyfen	-12.2222
▁parametrium	-12.2223
leucocyten	-12.2223
▁Burkitt	-12.2223
▁aangemaakt	-12.2223
coronairsclerose	-12.2223
▁beta	-12.2224
▁lymfangioom	-12.2224
lat	-12.2224
▁intramammair	-12.2224
▁longorigine	-12.2225
▁site	-12.2226
▁immuuntherapie	-12.2226
sinonasaal	-12.2226
▁meng	-12.2226
gebrek	-12.2227
▁borstwand	-12.2227
▁Corpuscurettage	-12.2227
▁Duodenumbiopsie	-12.2227
▁pelvien	-12.2228
▁slokdarmmucosa	-12.2229
iment	-12.223
uorpunctie	-12.223
▁aankleurend	-12.223
▁cysticus	-12.2231
▁majora	-12.2231
plg	-12.2231
▁blaasmucosa	-12.2231
▁uitgenomen	-12.2232
▁bh	-12.2232
▁neuspoliep	-12.2235
▁Ileocoecaal	-12.2235
▁stereotactisch	-12.2237
▁transitie	-12.2238
▁verwant	-12.2239
▁afbraak	-12.2239
▁juveniel	-12.2239
▁langdurig	-12.2239
▁omkapseld	-12.2239
▁hidradenoom	-12.2239
▁Fibroadenoom	-12.224
▁hematologisch	-12.2242
▁bijdragend	-12.2244
20-22	-12.2246
terke	-12.2248
11)	-12.225
▁keratotisch	-12.225
▁lymfkliertjes	-12.225
----------------	-12.2251
▁GA	-12.2254
▁spirochetose	-12.2266
▁ulcusmateriaal	-12.2267
neurogene	-12.2267
▁Hp	-12.2269
▁hemorrhagisch	-12.227
▁hyalien	-12.227
▁methode	-12.227
▁pericolisch	-12.227
▁zaadje	-12.227
▁donor	-12.227
prostaatresectie	-12.2272
▁borstbeen	-12.2272
eert	-12.2277
▁osteoporose	-12.2288
eritoneumbiopten	-12.2289
art	-12.2292
▁cystebeeld	-12.2296
vraagformulier	-12.2297
primair	-12.2298
oppervlakkigheid	-12.23
ins	-12.23
▁schaamstreek	-12.2301
▁melanose	-12.2301
▁scapulair	-12.2303
▁telling	-12.2306
▁hiel	-12.2306
▁dura	-12.2307
▁glaasjes	-12.2315
RB	-12.2315
▁mut	-12.2315
▁verwacht	-12.2321
eerste	-12.2324
▁orbita	-12.2327
▁klachten	-12.2333
▁plantair	-12.2337
▁pericard	-12.2341
▁rectumbiopt	-12.2352
▁cut	-12.2353
tubulair	-12.2361
▁megakaryopoiese	-12.2362
▁stapeling	-12.2363
▁cortex	-12.2364
fibro	-12.2365
▁vezel	-12.2382
-121	-12.2388
12-2	-12.239
morfologisch	-12.2393
▁cytoplasmatisch	-12.24
]21-10-	-12.2401
▁mucosabiopten	-12.2404
identificeer	-12.2406
▁lipo	-12.2406
enkel	-12.2418
ranscervica	-12.242
Excisiebiopt	-12.2429
-12-2022:	-12.2429
ill	-12.2431
▁oogt	-12.2433
22)	-12.2434
ud	-12.2451
▁leukoplakie	-12.246
▁uurszijde	-12.2461
vitale	-12.2463
anus	-12.2465
▁naresectie	-12.2467
-01-21	-12.247
▁gevolgd	-12.2477
centrale	-12.2493
acute	-12.251
gn	-12.2512
ade	-12.2514
vulva	-12.2521
hylation	-12.2522
monocytaire	-12.2525
▁histiocytose	-12.2527
volledig	-12.253
▁negativ	-12.253
▁spitzoide	-12.2531
▁continue	-12.2531
▁ARAF	-12.2534
▁sigmoidbiopten	-12.2535
plooi	-12.2537
conclusie	-12.2542
▁bi	-12.2544
▁bioptisch	-12.2544
▁verse	-12.2551
▁excisiebiopsie	-12.2554
(2	-12.2554
▁vs	-12.2556
atige	-12.2558
volume	-12.256
falen	-12.2568
lijden	-12.2571
dag	-12.2571
▁kl	-12.2575
Bespreking	-12.2576
-02-21	-12.2579
DLBCL	-12.2582
classificeren	-12.2583
medicamenteus	-12.2583
▁ste	-12.2584
degeneratie	-12.2584
gewricht	-12.2584
atheroomcyste	-12.2586
Beenmerg	-12.2586
gemengd	-12.2587
origine	-12.2587
markering	-12.2588
bovenooglid	-12.2588
erytrocyten	-12.2589
onderooglid	-12.259
mucineus	-12.259
bovenbuik	-12.259
Bowen	-12.259
representatief	-12.259
dermatofibroom	-12.259
EBER	-12.259
eventue	-12.259
radicaal	-12.2592
onbekend	-12.2595
▁amplificaties	-12.2596
onderste	-12.2596
trauma	-12.2596
plasma	-12.2597
bei	-12.2597
Blaas	-12.2602
linkerscheenbeen	-12.2602
sigmoA	-12.2605
-2020):	-12.2609
▁levernaaldbiopt	-12.2613
▁arterioveneu	-12.2615
▁lijden	-12.262
▁trans	-12.2622
verruca	-12.2623
Cave	-12.2626
-020	-12.2631
vanwege	-12.2631
11,	-12.2634
diagnosticeerde	-12.2635
lair	-12.2636
▁transplantaat	-12.2641
off	-12.2642
sstoornissen	-12.2652
lumpectomie	-12.2656
ted	-12.2659
2021	-12.2659
ono	-12.2687
fractie	-12.2687
adenomatoide	-12.2689
▁0.1	-12.2698
groeiend	-12.2703
ali	-12.2705
zeer	-12.271
cell	-12.2733
form	-12.2734
20-20	-12.2734
-002	-12.276
ay	-12.2769
aginatop	-12.2778
▁focal	-12.2779
ksel	-12.2783
▁verlittekende	-12.2805
▁gemarkeerd	-12.2812
▁too	-12.2813
DH	-12.2838
▁up	-12.2858
corpusbiopten	-12.2861
herapiekeuzetest	-12.2863
ment	-12.2863
inste	-12.2865
21)	-12.2868
als	-12.2871
▁porta	-12.2886
▁digit	-12.2887
bronchiale	-12.2897
▁vasoinvasie	-12.2904
rondcell	-12.2906
▁penetr	-12.2948
iffuus	-12.295
▁tri	-12.2959
cyt	-12.2962
▁verlitteken	-12.2964
▁fix	-12.2967
▁maagfundus	-12.2967
▁vene	-12.2969
▁purulent	-12.2971
▁keten	-12.2975
▁celgroepje	-12.2975
]10-10-	-12.2976
ynovium	-12.2976
Consensus	-12.2976
ositief	-12.2977
agenoeg	-12.2978
▁hemorroid	-12.2978
lip	-12.2978
ortio	-12.2983
▁poly	-12.2983
ymfklierpunctaat	-12.2984
▁spierinvasie	-12.2984
umb	-12.2985
egatieve	-12.2987
itbreiding	-12.2987
legmoneuze	-12.2989
▁verwijz	-12.2989
delijke	-12.299
▁morphaea	-12.299
▁endometrio	-12.299
▁follicular	-12.299
▁dun	-12.2991
▁klin	-12.2991
cytoplasm	-12.2991
▁sectio	-12.2991
▁Bartholin	-12.2991
▁agarcyto	-12.2991
interpreteerbaar	-12.2991
▁Additione	-12.2991
▁aanmerking	-12.2991
▁aspergillus	-12.2991
▁betrof	-12.2991
▁criterium	-12.2991
▁doodsoorzaak	-12.2991
▁dunwandige	-12.2991
▁gepunch	-12.2991
▁hemorragie	-12.2991
▁piriformis	-12.2991
▁rommelig	-12.2991
▁rubra	-12.2991
▁stervormig	-12.2991
▁versneld	-12.2991
▁hypoxisch	-12.2991
▁aangedaan	-12.2991
▁Beiderzijds	-12.2991
▁korstvorming	-12.2991
▁plasmocytoom	-12.2991
▁cryptdestructie	-12.2991
amenteuze	-12.2991
▁intensiteit	-12.2991
▁mitosefiguren	-12.2991
▁papillomatosis	-12.2991
malig	-12.2991
▁Doorsnijding	-12.2991
▁lamellair	-12.2991
itiele	-12.2991
▁celtelling	-12.2991
▁paratrabeculair	-12.2991
▁screening	-12.2991
▁transmuraal	-12.2991
▁vaattoename	-12.2991
eductie	-12.2991
▁intralumina	-12.2991
▁bovengenoemd	-12.2991
▁cytogenetisch	-12.2991
▁thyreoidectomie	-12.2992
▁myeloblasten	-12.2992
▁atro	-12.2992
▁hersentumor	-12.2992
ost	-12.2992
▁parapsoriasis	-12.2992
▁peribronchiale	-12.2992
▁productie	-12.2992
▁biopsietraject	-12.2993
▁tonsillen	-12.2993
welling	-12.2993
mediadegeneratie	-12.2994
▁gezicht	-12.2995
▁ijzerkleuring	-12.2995
▁dichtbij	-12.2995
▁neusholte	-12.2996
▁occlusie	-12.2996
▁hemithyreo	-12.2996
▁uterussegment	-12.2996
▁genese	-12.2997
▁mammaprothese	-12.2997
▁overgrijpen	-12.2998
▁conus	-12.2999
▁minora	-12.2999
▁negen	-12.3001
irriteerde	-12.3007
▁rechterovarium	-12.3008
▁lymfoidweefsel	-12.3009
▁tatoeage	-12.301
▁Chirurgisch	-12.301
▁obliteratie	-12.301
▁Gewrichts	-12.301
▁sacrum	-12.301
▁boweno	-12.3011
▁Colonresectie	-12.3012
▁erythemateuze	-12.3012
▁volledigheid	-12.3012
vul	-12.3013
▁bioptlengte	-12.3014
▁Fragmentje	-12.3015
epithelialisatie	-12.3015
▁elementen	-12.3018
myofibroblastair	-12.3019
▁isolat	-12.3019
▁Ectocervica	-12.302
▁tepelvocht	-12.3021
▁LAD	-12.3026
▁side	-12.3026
▁basaloid	-12.3035
▁rapport	-12.3042
▁stadi	-12.3042
▁signalen	-12.3043
▁Breuninger	-12.3043
▁gemuteerd	-12.3043
▁hypoplasie	-12.3043
▁craniolateraal	-12.3043
▁gemerkt	-12.3043
▁congorood	-12.3043
▁virusinfectie	-12.3043
▁hormoon	-12.3044
▁midfrontaal	-12.3044
▁recurrent	-12.3046
▁cystectomie	-12.3047
Lymfangio	-12.3047
▁rete	-12.3052
chi	-12.3057
▁vesikel	-12.3057
ft	-12.306
▁huidadnexen	-12.3066
mammair	-12.3067
▁coronairarterie	-12.3073
▁Geadviseerd	-12.3077
▁gereseceerd	-12.3077
▁trabeculair	-12.3077
▁schacht	-12.3077
▁cetuximab	-12.3077
▁ulceratief	-12.3077
▁celblok	-12.3078
Abortusmateriaal	-12.3083
eeft	-12.3084
▁cystevorming	-12.3084
-10-2020	-12.3087
olorectaal	-12.3099
10),	-12.3105
▁Lymfoom	-12.3111
▁matrix	-12.3111
▁reconstructie	-12.3111
▁gekleurd	-12.3111
▁Buikvocht	-12.3111
▁verhevenheid	-12.3111
fibrinedepositie	-12.3114
cytaire	-12.3117
▁tonsillectomie	-12.3129
-12-20:	-12.313
22:	-12.3136
▁Hailey	-12.3145
▁HRD	-12.3152
▁sarco	-12.3153
▁linea	-12.3157
sel	-12.317
schi	-12.3193
▁grof	-12.3197
▁divers	-12.3203
ous	-12.321
nze	-12.3215
▁myeloA	-12.3217
▁(21	-12.3217
gang	-12.3226
CERA	-12.323
▁bijzonder	-12.3242
▁middenoor	-12.3247
excisies	-12.3253
chronisch	-12.3257
▁artefact	-12.3264
▁adhesie	-12.3275
▁DDR	-12.3284
heen	-12.3298
▁segmenten	-12.3301
Ig	-12.3305
grens	-12.3307
▁Bi	-12.3309
▁echo	-12.3325
cardiale	-12.3326
▁01	-12.3337
21-12	-12.3341
claviculair	-12.3347
021	-12.3361
oorkeursdiagnose	-12.3363
pje	-12.3367
ons	-12.3368
granuloom	-12.3371
eefselfragment	-12.3372
oche	-12.3377
recht	-12.3385
richting	-12.3397
-10-21	-12.3399
sturen	-12.34
lig	-12.3408
schatte	-12.341
Cervixbiopt	-12.3413
Diagnostisch	-12.3413
▁cr	-12.3414
carina	-12.3415
virus	-12.3417
traject	-12.3418
hilair	-12.342
gericht	-12.342
slecht	-12.342
haargrens	-12.3422
nefropathie	-12.3422
achterlip	-12.3422
subtype	-12.3423
▁ileo	-12.3423
bindweefsel	-12.3424
verricht	-12.3424
rint	-12.3424
datum	-12.3425
palatum	-12.3425
peritoneum	-12.3427
bericht	-12.3427
oppervlak	-12.3427
oesofagus	-12.3429
minimaal	-12.343
Gering	-12.3431
IgG	-12.3431
verdacht	-12.3432
protocollair	-12.3433
meest	-12.3434
▁la	-12.3438
verspreid	-12.3438
▁tripl	-12.3439
cytologisch	-12.344
insufficientie	-12.3446
▁trial	-12.345
duodenumbiopten	-12.3452
reactief	-12.3457
lymfklieren	-12.3478
car	-12.3478
stwaarschijnlijk	-12.3479
tweede	-12.348
slechts	-12.3492
20-21	-12.3493
▁bo	-12.3494
Ander	-12.3494
▁epi	-12.3499
pH	-12.3523
Halsklier	-12.3539
sterk	-12.3551
▁hyperparakerato	-12.3568
lymfocytaire	-12.3581
tieve	-12.3584
hele	-12.3594
▁jong	-12.3601
▁gerangschikt	-12.3602
-11-2	-12.3603
onvoldoende	-12.3604
▁zegelring	-12.3606
mits	-12.3611
]01-	-12.3614
▁nummers	-12.3618
hyleringsanalyse	-12.3631
rimair	-12.3636
▁eosinofiel	-12.3646
]22-02-	-12.3654
gi	-12.3655
▁kristal	-12.3655
▁Bloed	-12.3658
tubulo	-12.3662
▁urticari	-12.3666
sie	-12.3671
▁multinodulaire	-12.3671
▁ongevoelig	-12.3674
laaggradige	-12.3678
▁decidualisatie	-12.3682
▁ontv	-12.3687
ijkt	-12.3688
▁spierbiopt	-12.3691
▁samengesteld	-12.3704
pan	-12.3705
ermate	-12.3715
▁liggen	-12.3716
-12-2021	-12.372
▁granulair	-12.3737
▁cor	-12.3753
22,	-12.3759
▁Hemithyreo	-12.3767
umorvolume	-12.3771
▁Infiltratie	-12.3781
-01-2022	-12.3787
kl	-12.3788
▁ulceraties	-12.3788
atio	-12.3789
pancreatisch	-12.3792
oli	-12.3794
bcd	-12.3796
eparaat	-12.3801
ignaal	-12.3802
igmoA	-12.3804
apillair	-12.3805
▁urachus	-12.3806
oxicodermie	-12.3807
rauma	-12.3808
ranslocatie	-12.3808
▁buisje	-12.3808
kenmerk	-12.3813
▁entiteit	-12.3813
11-	-12.3814
▁mantelcel	-12.3814
▁mag	-12.3816
▁deficient	-12.3816
elvien	-12.3816
▁laesiona	-12.382
acraal	-12.382
immuniteit	-12.3821
itspraak	-12.3821
▁echt	-12.3823
▁rijp	-12.3823
eefselfragmenten	-12.3823
▁lymfang	-12.3823
irena	-12.3823
▁basalo	-12.3824
▁combin	-12.3824
▁normaalwaarden	-12.3824
▁paraganglioom	-12.3824
▁vrucht	-12.3824
orgagni	-12.3824
▁Dubieu	-12.3824
▁opbrengst	-12.3824
▁pancreatitis	-12.3824
▁papillomen	-12.3824
Gastric	-12.3824
Reinkes	-12.3824
aktinische	-12.3824
nomenclatuur	-12.3824
rhabdomyosarcoom	-12.3824
▁Behcet	-12.3824
▁Darier	-12.3824
▁Laser	-12.3824
▁Lupus	-12.3824
▁achterhalen	-12.3824
▁atrophicans	-12.3824
▁breid	-12.3824
▁coeliacus	-12.3824
▁dentata	-12.3824
▁denudatie	-12.3824
▁enchondroom	-12.3824
▁gefixeerd	-12.3824
▁gekeken	-12.3824
▁geopend	-12.3824
▁interfereren	-12.3824
▁kolonisatie	-12.3824
▁levercirrose	-12.3824
▁luteum	-12.3824
▁ossificatie	-12.3824
▁papilliferum	-12.3824
▁plaatsvinden	-12.3824
▁procent	-12.3824
▁venster	-12.3824
▁wenselijk	-12.3824
▁farynxboog	-12.3824
▁oxyuren	-12.3824
▁ribbenboog	-12.3824
▁(1-11).	-12.3824
ecompleteerd	-12.3824
komstig	-12.3824
▁consistent	-12.3824
▁synovitis	-12.3824
▁Clin	-12.3824
ligospermie	-12.3824
▁Lymfoid	-12.3824
▁schatten	-12.3824
▁eiwitexpressie	-12.3824
▁vertonen	-12.3824
▁ileus	-12.3824
▁verleden	-12.3824
▁myositis	-12.3824
▁miskraam	-12.3824
▁granular	-12.3824
▁kernatypie	-12.3824
▁morfometri	-12.3825
▁ondersteund	-12.3825
▁configuratie	-12.3825
▁overgangsgebied	-12.3825
▁hartfalen	-12.3825
▁zegelringcellen	-12.3825
▁longarts	-12.3825
▁biamniotisch	-12.3825
immunoblastair	-12.3825
▁umc	-12.3825
▁aantallen	-12.3825
wezen	-12.3825
▁gestuwde	-12.3825
aneth	-12.3826
▁inzenden	-12.3826
▁weefselpijpjes	-12.3826
▁Cervixuitstrijk	-12.3827
▁radiair	-12.3828
endocapillair	-12.3828
ossale	-12.3828
sensitiviteit	-12.3828
oont	-12.3829
etastasen	-12.3831
abothi	-12.3831
▁Relatie	-12.3831
slag	-12.3832
▁vaatafwijkingen	-12.3833
▁Histologie	-12.3833
▁selectie	-12.3834
▁midprostaat	-12.3834
Bowenoid	-12.3835
▁vulvair	-12.3836
▁banal	-12.3836
▁middermal	-12.384
▁decompensati	-12.3841
0.2:	-12.3841
aagbiopsie	-12.3841
microangiopathie	-12.3842
▁linkerbeen	-12.3843
slijmnapepitheel	-12.3843
ingen	-12.3844
▁infra	-12.3844
appa	-12.3845
▁neuroblastoom	-12.3845
▁Bindweefsel	-12.3845
▁erytheem	-12.3845
▁gesampled	-12.3845
▁linguaal	-12.3845
▁Intracavitair	-12.3845
▁cerebellair	-12.3845
▁kernhoudend	-12.3845
▁calcinosis	-12.3846
▁leiomyomateu	-12.385
▁linkerbil	-12.385
rinecytologie	-12.3851
embolieen	-12.3854
psine	-12.3855
▁maagfundustype	-12.3855
]12-12-	-12.3857
020	-12.386
▁strips	-12.386
▁halslymfklier	-12.3861
▁vaginaal	-12.3871
kleuringen	-12.3877
▁commissu	-12.3881
AGE	-12.3881
▁mgl	-12.3881
▁infraorbitaal	-12.3881
▁gemacereerde	-12.3881
▁uitval	-12.3881
▁congestie	-12.3881
▁tumornecrose	-12.3887
▁genezen	-12.3889
denoid	-12.3891
▁divertikels	-12.3891
▁overgroei	-12.3891
hypertrofische	-12.3896
▁Al	-12.3897
▁cluster	-12.3898
▁stolsels	-12.3901
nog	-12.3902
▁verval	-12.3907
ngevee	-12.3911
ieuw	-12.3917
▁verdikking	-12.3918
▁sectie	-12.392
▁sinusoidale	-12.3921
progestageen	-12.3923
▁cylindercel	-12.3924
▁entiteiten	-12.393
ERIG	-12.3932
▁bestraling	-12.3939
▁glaasje	-12.3939
▁cava	-12.3946
tatie	-12.3947
▁Ernstig	-12.3955
▁falanx	-12.3955
behoud	-12.3956
endocervixpoliep	-12.3959
▁mucosaal	-12.3963
▁ECL	-12.3963
▁GCB	-12.3964
abc	-12.3971
▁enteritis	-12.3975
age	-12.3982
submuceus	-12.3983
▁ingeschat	-12.3986
▁cast	-12.399
▁radi	-12.3995
▁buis	-12.4001
omen	-12.4006
umorlengte	-12.4011
pt	-12.4012
▁gede	-12.4017
▁vo	-12.4019
▁ronden	-12.4019
▁spina	-12.402
fre	-12.4025
inoom	-12.4042
]10-01-	-12.4049
▁11:	-12.4052
nkte	-12.4084
ort	-12.409
▁huidweefsel	-12.4096
ierin	-12.4105
▁onrijpe	-12.4123
▁graderings	-12.4154
GA	-12.4156
▁Incisie	-12.4161
epithelio	-12.4163
]11-11-	-12.4165
cc	-12.4165
-12-202	-12.4167
true	-12.4179
stadium	-12.419
endometriumbiopt	-12.42
11-1	-12.4213
▁Hormoonreceptor	-12.4219
▁Analyse	-12.4222
]01-12-	-12.4224
gestuurd	-12.4227
erwij	-12.4232
▁voorz	-12.4246
spier	-12.4254
sdu	-12.4259
▁11,1	-12.4271
gegeven	-12.4279
▁membraan	-12.4283
line	-12.4289
▁instabiel	-12.4293
ductale	-12.4299
cyst	-12.4299
-2022)	-12.4309
maagovergang	-12.4313
pancreas	-12.4314
Analyse	-12.4315
lipoom	-12.4317
kwaliteit	-12.4318
zelf	-12.432
Leverbiopt	-12.4321
kan	-12.4321
concentratie	-12.4323
Duodenum	-12.4324
▁nucleair	-12.4326
Extern	-12.4328
schildklierkwab	-12.4329
small	-12.433
nasolabiaal	-12.433
angulus	-12.433
achterhoofd	-12.433
Bloom	-12.4331
sternum	-12.4331
syndroom	-12.4331
hoofdhuid	-12.4332
Representatief	-12.4332
auto	-12.4332
bevestigd	-12.4332
aanwezig	-12.4333
vermeld	-12.4333
aandoening	-12.4333
thoraxwand	-12.4334
paramediaan	-12.4335
lymfocytose	-12.4336
linkeronderarm	-12.4336
buiten	-12.4337
rechterbovenarm	-12.4339
▁Regressie	-12.4339
waarbij	-12.4339
orgaan	-12.434
BRCA	-12.434
lytisch	-12.4341
Leverbiopten	-12.4343
proximale	-12.4345
▁perivilleu	-12.4347
vagina	-12.4347
-021	-12.435
variant	-12.4356
mature	-12.4358
Longbiopt	-12.4362
▁mat	-12.4369
▁EE	-12.4378
▁ovariele	-12.4381
kleine	-12.4395
zij	-12.4409
fibroepitheliale	-12.441
200	-12.4414
▁Coupe	-12.4423
-02-20	-12.4428
si	-12.4431
cher	-12.4434
12-0	-12.4437
chemisch	-12.444
▁(10-	-12.4472
▁villeu	-12.4503
ernstige	-12.4506
lichenoide	-12.4506
morfologie	-12.4514
otheel	-12.4529
▁schimmelinfect	-12.4538
-12-2	-12.4539
receptoren	-12.4544
▁overheers	-12.4547
▁mesangio	-12.4558
▁ductepitheel	-12.4565
samengestelde	-12.4566
focus	-12.4573
-11-2021	-12.4582
▁oesofagusbiopt	-12.4584
ty	-12.4596
tru	-12.4596
tans	-12.46
gastritis	-12.4605
ag	-12.4607
evident	-12.4609
geA	-12.4618
▁un	-12.4628
veel	-12.463
protonpompremmer	-12.4639
trusor	-12.4657
▁inhibitor	-12.4673
(2-	-12.4681
▁weer	-12.4684
-1-202	-12.4688
▁recidiveren	-12.4706
herapeutisch	-12.4708
myelo	-12.471
eritoneum	-12.471
nieuw	-12.4711
▁hepato	-12.4714
ergelijk	-12.4714
ogen	-12.4714
rijwel	-12.4715
gs	-12.4716
nijrand	-12.4717
▁paraffinecoupe	-12.4718
verweging	-12.4719
mtrent	-12.4719
haardjes	-12.472
acu	-12.472
▁Larynxbiopt	-12.4722
▁methylatie	-12.4723
arotidectomie	-12.4726
errukeuze	-12.4726
erdenking	-12.4726
erminderd	-12.4726
arcinoom	-12.4728
▁subcarina	-12.4729
rethra	-12.4729
▁potentie	-12.473
itsluiten	-12.473
icrobiologie	-12.4732
entigo	-12.4732
▁koilocyto	-12.4732
ormocellulair	-12.4733
eusbijholte	-12.4733
▁betrokken	-12.4733
▁inactiv	-12.4733
▁Douglas	-12.4733
▁Aorta	-12.4733
icopathologisch	-12.4733
▁haemangio	-12.4733
▁gekweekt	-12.4733
▁atroficans	-12.4733
ohnson	-12.4733
▁demodex	-12.4733
▁gemelli	-12.4733
afbreking	-12.4733
aposi	-12.4733
cerebraal	-12.4733
erkrijgingswijze	-12.4733
▁Gecombineerd	-12.4733
▁abcedering	-12.4733
▁absolu	-12.4733
▁albuginea	-12.4733
▁anulare	-12.4733
▁bauhini	-12.4733
▁celreeksen	-12.4733
▁choriaalplaat	-12.4733
▁clavus	-12.4733
▁cordis	-12.4733
▁cylindroom	-12.4733
▁effluvium	-12.4733
▁emfyseem	-12.4733
▁getypeerd	-12.4733
▁loslating	-12.4733
▁nevocellularis	-12.4733
▁pyelonefritis	-12.4733
▁solutio	-12.4733
▁striatus	-12.4733
▁therapy	-12.4733
▁uiteengevallen	-12.4733
▁verrukeus	-12.4733
▁zeldzaam	-12.4733
▁cellijnen	-12.4733
▁periferie	-12.4733
ecrospermie	-12.4733
endothelioom	-12.4733
▁inductie	-12.4733
▁intramuraal	-12.4733
▁hyalinisatie	-12.4733
▁accuminatum	-12.4733
▁beduidend	-12.4733
▁onveranderd	-12.4733
▁meatus	-12.4733
▁behandelaar	-12.4733
▁systeemziekte	-12.4733
▁DICER	-12.4733
▁lichteruptie	-12.4733
▁pendulum	-12.4734
▁retroplacentair	-12.4734
▁tubulusnecrose	-12.4734
▁ontaarding	-12.4734
▁collageenrijk	-12.4734
▁buccaal	-12.4734
▁hormoongebruik	-12.4734
▁meegereseceerd	-12.4734
▁presacraal	-12.4734
▁omentectomie	-12.4734
▁geautoriseerd	-12.4734
aschrift	-12.4734
▁fibromatosis	-12.4734
▁areata	-12.4734
load	-12.4734
▁agar	-12.4734
▁ongewone	-12.4734
appendiculair	-12.4734
sneldiagnostiek	-12.4734
▁renalis	-12.4734
▁agressief	-12.4734
▁cerebrum	-12.4734
▁aanbev	-12.4734
▁acro	-12.4734
▁myoma	-12.4734
▁monoto	-12.4734
▁perfor	-12.4734
▁reaktief	-12.4734
▁uitgerijpt	-12.4734
▁Deppreparaten	-12.4734
▁coagulatie	-12.4734
▁pretracheaal	-12.4734
▁transitioneel	-12.4734
▁abcesvorming	-12.4734
▁trombusvorming	-12.4734
lectronen	-12.4734
▁pigmentverlies	-12.4734
▁melanomenpanel	-12.4735
ink	-12.4735
irad	-12.4735
kiemcelneoplasie	-12.4735
toestand	-12.4735
preventief	-12.4735
▁hersenweefsel	-12.4735
▁idem	-12.4735
▁ringsideroblast	-12.4735
▁reperfusie	-12.4735
▁fistelende	-12.4735
ncompleet	-12.4737
▁pieken	-12.4737
kel	-12.4737
▁fibroadipeu	-12.4737
▁betrouwbaarheid	-12.4738
▁nesten	-12.4738
▁seromucineu	-12.4739
▁vervaardigd	-12.4739
▁Corpustype	-12.4739
▁hernia	-12.4739
▁granulocyt	-12.4741
▁wijziging	-12.4741
chr	-12.4741
uitgebreide	-12.4742
▁stadiering	-12.4742
▁ontstekingsg	-12.4744
▁commissie	-12.4745
ruba	-12.4745
streek	-12.4745
▁diagnosis	-12.4745
▁vervalt	-12.4745
▁leukocyten	-12.4746
iseerd	-12.4747
▁linkerpols	-12.475
dode	-12.4751
▁blaarziekte	-12.4753
▁discordantie	-12.4754
▁rechterbeen	-12.4754
▁dermatomyositis	-12.4756
▁impetigo	-12.4756
▁polyklonale	-12.4756
▁spiradenoom	-12.4756
▁Glandula	-12.4756
▁lopend	-12.4759
emurkop	-12.4761
alwaar	-12.4765
▁sana	-12.4769
▁aanliggend	-12.477
▁pap	-12.4771
poliepectomie	-12.4772
▁AIH	-12.4773
ransthoracaal	-12.4776
oi	-12.478
▁pipellebiopt	-12.4781
▁periost	-12.4782
penetrerend	-12.4784
jz	-12.4784
blatio	-12.479
lassieke	-12.4793
arianten	-12.4795
▁Irradicaal	-12.4796
▁palmair	-12.4796
▁neuswal	-12.4796
▁partikels	-12.4796
▁varierend	-12.4796
gekerfde	-12.4796
▁carcinomen	-12.4797
-02-22	-12.4798
▁artrose	-12.4807
▁incontinentie	-12.4812
lobulaire	-12.4818
▁0,0	-12.4819
▁kwadrant	-12.4825
▁capsul	-12.4826
uitstrijkjes	-12.4826
ui	-12.4831
▁traanklier	-12.4833
▁cirro	-12.4835
▁Hematologie	-12.4836
▁oncoloog	-12.4836
▁heterogen	-12.4836
▁schouw	-12.4836
▁antehelix	-12.4837
▁chemo	-12.4838
▁bovenop	-12.484
▁Antrumtype	-12.4848
oliepen	-12.4848
raal	-12.4851
▁Hooggradig	-12.4855
▁trials	-12.4856
]10-12	-12.4865
▁dood	-12.4878
▁Immunologie	-12.4878
coronairarterien	-12.4884
212	-12.4894
▁dy	-12.4895
222	-12.4899
▁merkelcel	-12.4909
022	-12.4911
▁Longen	-12.4918
▁termijn	-12.4919
▁pilair	-12.4922
▁thyroidectomie	-12.4934
Lymfklierbiopt	-12.4939
▁granul	-12.4951
naevuscellularis	-12.4951
opmerkingen	-12.4953
-012	-12.4955
▁gegaan	-12.4961
▁nos	-12.497
]22-10-	-12.4977
▁nefro	-12.4987
ias	-12.4997
▁atherosclero	-12.5006
verall	-12.5013
▁dystrofisch	-12.5018
-12-21:	-12.5025
▁draad	-12.5033
emisch	-12.5034
▁opening	-12.5042
-01-2020	-12.5053
▁pus	-12.5061
ck	-12.5064
ront	-12.509
cavaal	-12.5118
▁vl	-12.5127
▁Co	-12.5127
bekleding	-12.5128
▁stomp	-12.513
HG	-12.513
voorlopige	-12.5132
ack	-12.5135
▁tubulus	-12.5142
mon	-12.5146
-02-2022	-12.5147
parameters	-12.5152
punt	-12.5152
hechting	-12.5174
cellig	-12.5175
wn	-12.5175
histiocytose	-12.5181
CBI	-12.5189
echo	-12.5189
▁forme	-12.5196
complexe	-12.5224
pi	-12.5227
220	-12.5235
▁markeringshecht	-12.5235
-11-2022:	-12.5242
▁heen	-12.5248
lus	-12.5257
aartoe	-12.5282
stansbiopt	-12.5285
▁harde	-12.5293
ara	-12.5294
▁neg	-12.5302
▁immunofluores	-12.5309
embraanexpressie	-12.531
netto	-12.5312
biliair	-12.5314
precie	-12.5321
reductie	-12.5321
Lab	-12.5322
fundus	-12.5322
Links	-12.5323
membraneuze	-12.5326
iliaca	-12.5327
ectocervicale	-12.5327
struma	-12.5327
gepigmenteerd	-12.5328
ingeblokt	-12.5328
urotheelcel	-12.5329
granulomen	-12.533
promotor	-12.533
Huidstans	-12.5331
bulleus	-12.5331
Richardson	-12.5331
Benigne	-12.5331
clavicula	-12.5332
gedetecteerd	-12.5332
Derhalve	-12.5332
plaats	-12.5332
Ascites	-12.5332
Echogeleid	-12.5332
gevonden	-12.5332
voorwand	-12.5333
volgt	-12.5333
]12-02-	-12.5333
granulocyten	-12.5333
klassiek	-12.5334
▁dermo	-12.5334
Huidstansbiopt	-12.5335
rechterzijde	-12.5336
presternaal	-12.5337
toxisch	-12.5338
waarin	-12.5341
sinus	-12.5345
stomp	-12.5348
voorste	-12.5349
varianten	-12.535
atypisch	-12.5367
diagnosen	-12.5375
cisiebiopsie	-12.5375
serosaal	-12.5376
IGH	-12.538
rtransplantatie	-12.538
nav	-12.5383
plaatselijk	-12.5393
▁analyses	-12.5394
]21	-12.5401
geruptureerde	-12.5402
ARAF	-12.5404
fundi	-12.5409
11,1	-12.5428
papillaire	-12.5431
ongbiopt	-12.5436
forme	-12.5441
excisiebiopt	-12.5449
▁purpuri	-12.5464
aald	-12.5464
▁genamplificatie	-12.5467
preauriculair	-12.5473
▁achtig	-12.5477
meerder	-12.5495
122	-12.5495
her	-12.5497
▁uitstrijken	-12.5503
-10-20	-12.5512
dragen	-12.5517
▁atypi	-12.5519
emie	-12.5532
oorz	-12.5539
▁Granuloma	-12.5541
epithelioma	-12.5548
▁septa	-12.5559
▁hemat	-12.5574
▁incisie	-12.5574
-12-2020	-12.5577
vlakken	-12.5579
oss	-12.5583
ning	-12.5584
mi	-12.559
▁cilinder	-12.5594
▁spiercel	-12.5597
▁Ex	-12.5598
nis	-12.5601
ova	-12.5601
▁longembolie	-12.5602
▁(22-0	-12.5605
▁huidfragmentje	-12.5607
elproliferatie	-12.5624
sich	-12.5627
capsula	-12.5635
ransplantaat	-12.564
▁2022	-12.5657
]01-02-	-12.5673
▁Lymfeklierbiopt	-12.5682
ystem	-12.5682
hepatisch	-12.5685
ilocytair	-12.5692
▁liesklier	-12.5695
male	-12.5697
lecht	-12.5697
▁contralatera	-12.5703
-10-2020:	-12.5707
22-21	-12.5707
pierweefsel	-12.5711
▁ontvang	-12.5712
▁werk	-12.5713
elling	-12.5714
▁dystrof	-12.5718
▁HI	-12.572
▁chromosom	-12.572
▁hemo	-12.5721
ature	-12.5721
▁celgroep	-12.5724
richomonas	-12.5726
erwijzing	-12.5727
idden	-12.5728
etreffende	-12.5728
trikt	-12.5729
▁Latera	-12.5729
▁suboptima	-12.573
uboptimaal	-12.573
ellient	-12.573
▁bowen	-12.5731
▁gestuwd	-12.5732
eucocyten	-12.5732
bronchiol	-12.5732
▁Differenti	-12.5733
▁stuk	-12.5733
▁fimbri	-12.5733
▁shock	-12.5733
mgevend	-12.5733
▁genitaal	-12.5733
epresentatieve	-12.5733
otilit	-12.5733
▁folliculorum	-12.5733
chonlein	-12.5733
fibrillair	-12.5733
gunstig	-12.5733
schraapsel	-12.5733
▁Folliculair	-12.5733
▁abdominalis	-12.5733
▁achillespees	-12.5733
▁actinomyces	-12.5733
▁bleek	-12.5733
▁drain	-12.5733
▁formaline	-12.5733
▁genoeg	-12.5733
▁genomisch	-12.5733
▁geteld	-12.5733
▁glandulo	-12.5733
▁integra	-12.5733
▁intervillositis	-12.5733
▁kiemcentra	-12.5733
▁klievingsvlak	-12.5733
▁monotypie	-12.5733
▁mucositis	-12.5733
▁nodulus	-12.5733
▁partijen	-12.5733
▁plomp	-12.5733
▁psoriatiform	-12.5733
▁pustulose	-12.5733
▁suprabasale	-12.5733
▁trombocytemie	-12.5733
▁trombocytose	-12.5733
▁trombopenie	-12.5733
▁verstreken	-12.5733
grepen	-12.5733
▁Fibreu	-12.5733
▁acellulair	-12.5733
▁geevalueerd	-12.5733
▁restrictie	-12.5733
stapelingsziekte	-12.5733
▁bcl	-12.5733
▁pulmonalisklep	-12.5733
▁spierbundel	-12.5733
▁verdeeld	-12.5733
Brunt	-12.5733
▁cardiomyocyten	-12.5733
▁ileocoecaalhoek	-12.5733
▁rontgen	-12.5733
▁ongewoon	-12.5733
▁pulmonalis	-12.5733
▁telogeen	-12.5733
▁melaninepigment	-12.5733
▁supraglottisch	-12.5733
Identi	-12.5733
▁Epiderma	-12.5733
▁hoornlamellen	-12.5733
▁afgekapseld	-12.5733
▁chromo	-12.5733
▁specificatie	-12.5733
weldam	-12.5733
▁pangastritis	-12.5733
▁intradermalis	-12.5733
nummulair	-12.5733
▁zinvol	-12.5733
▁pectoralis	-12.5733
▁verkrijgen	-12.5733
▁ulcerende	-12.5734
▁xanthogranuloom	-12.5734
▁plasmacytose	-12.5734
▁codeletie	-12.5734
▁buisstructuren	-12.5734
▁urticarieel	-12.5734
▁intracornea	-12.5734
▁organoid	-12.5734
parenchymateus	-12.5734
dition	-12.5734
▁sarcoid	-12.5734
▁nascens	-12.5734
▁beentumoren	-12.5734
▁gestatione	-12.5734
corticaal	-12.5735
▁fibrolipoom	-12.5735
▁blaasperitoneum	-12.5735
▁tuberculosis	-12.5735
nvolledig	-12.5735
boog	-12.5735
akjes	-12.5735
▁Giardiasis	-12.5736
▁eerstgenoemde	-12.5736
▁immunotypering	-12.5737
nverdacht	-12.5737
▁nagekomen	-12.5737
▁voldoe	-12.5737
▁zenuwschede	-12.5738
▁peroperatief	-12.5738
▁lan	-12.5738
▁partus	-12.5739
arker	-12.5739
▁opgetreden	-12.5739
▁doorheen	-12.5739
▁plekken	-12.5739
▁conclusieI	-12.5739
▁atypia	-12.574
▁ectatisch	-12.574
▁Alth	-12.574
▁antracosilicos	-12.574
▁tumorregressie	-12.574
▁pore	-12.574
▁slow	-12.5741
perisinusoidale	-12.5741
▁vetcellen	-12.5743
▁neusflank	-12.5745
▁cystica	-12.5745
cysten	-12.5745
▁digital	-12.5746
fwezigheid	-12.5748
▁cocco	-12.5749
▁dak	-12.575
▁berusten	-12.5751
▁lymffollikel	-12.5751
▁bovenrand	-12.5752
▁melanoompanel	-12.5752
binnenkant	-12.5753
eleangiectatisch	-12.5754
ating	-12.5756
▁tumorstroma	-12.5757
▁linkervoet	-12.5757
plasmacellulair	-12.5758
▁cartilagineu	-12.5758
ondom	-12.5758
▁Beginnend	-12.5759
▁chorionitis	-12.5759
▁hemosiderine	-12.5759
▁inklemming	-12.5759
▁malignancy	-12.5759
▁plantaardig	-12.5759
▁rabdomyosarcoom	-12.5759
▁torsio	-12.5759
▁jugularis	-12.5759
▁rechterkuit	-12.5759
▁Hypertrofisch	-12.576
▁subpleuraal	-12.576
▁steen	-12.5763
bst	-12.5764
▁corpora	-12.5768
▁rechterscapula	-12.5769
▁neutrofielen	-12.5769
▁kale	-12.5769
▁Chronisch	-12.5772
▁kiemcel	-12.5772
▁botinvasie	-12.5773
iraal	-12.5779
▁rechterhandrug	-12.5779
RIGE	-12.578
▁optie	-12.5785
eur	-12.5786
▁paar	-12.5786
▁are	-12.5787
▁eczeembeeld	-12.5791
▁tumorbodem	-12.5793
kb	-12.5794
▁wigexcisies	-12.5796
pleuravocht	-12.5798
producten	-12.58
▁fornix	-12.5803
▁herbiopteren	-12.5803
▁antilichamen	-12.5803
▁leiomyomatosis	-12.5803
▁Lichenoide	-12.5803
▁glanspenis	-12.5803
▁Excisierand	-12.5803
▁doorsnedes	-12.5803
▁Alk	-12.5803
▁lisnecrose	-12.5804
▁darmbiopt	-12.5804
▁nodaal	-12.5805
▁buikhuid	-12.5808
▁(1,2,	-12.5808
eferentie	-12.581
hav	-12.581
▁reeksen	-12.5813
▁welk	-12.5825
▁Eerder	-12.5826
▁syn	-12.5829
▁placentaresten	-12.5832
lastica	-12.5842
ecto	-12.5846
▁kweek	-12.5848
▁enteropathie	-12.5848
▁arrest	-12.5848
▁vermelding	-12.5853
psi	-12.5853
uele	-12.5854
▁stations	-12.5866
pati	-12.5874
▁elektronendicht	-12.5878
▁hypoplastisch	-12.5881
varia	-12.5882
▁vreemd	-12.5893
▁hypofarynx	-12.5894
▁intermammair	-12.5894
▁warm	-12.5895
]21-01-	-12.5902
▁Cervixexcisie	-12.5908
▁paraffineblokje	-12.5908
sparen	-12.5918
▁onderscheiden	-12.592
nie	-12.592
▁oncocytair	-12.5921
ligodendroglioom	-12.5925
ranulomateuze	-12.5925
evestiging	-12.5926
▁Barret	-12.5929
1(	-12.593
esangiocapillair	-12.5931
Asn	-12.5932
▁betreffend	-12.5939
▁monocytose	-12.594
▁opge	-12.5945
▁cardiaal	-12.5947
marges	-12.5954
▁voeren	-12.5961
rotheel	-12.5968
▁gastric	-12.5972
▁uitge	-12.5984
-01-20:	-12.5986
▁endotheliale	-12.5997
▁eruptie	-12.5997
▁11-02-	-12.6
oud	-12.6009
▁grijs	-12.6033
▁gastrointestina	-12.6037
-10-202	-12.6041
▁vari	-12.6046
▁Ib	-12.6064
int	-12.6064
▁uren	-12.6067
bovenkwab	-12.6072
-10-2022:	-12.6081
knieholte	-12.6102
21).	-12.6111
▁uiter	-12.6126
▁epidermoid	-12.6126
Lymfeklieren	-12.6145
▁satelliethaard	-12.6148
Gr	-12.615
▁behandelings	-12.6169
arr	-12.6171
vol	-12.6173
▁syndrom	-12.6174
▁netto	-12.6176
▁vlakken	-12.6179
diagnosestelling	-12.6192
chaamsobductie	-12.6198
lijkt	-12.6203
tent	-12.6213
Lever	-12.6216
▁Geschat	-12.6216
orale	-12.6218
▁immunocytochemi	-12.6222
▁adenos	-12.6224
EGR	-12.6231
▁intrapulmona	-12.6234
leurapunctie	-12.6237
triple	-12.6239
]20-10-	-12.6247
▁recht	-12.6253
▁methylerings	-12.6255
haard	-12.6255
▁fenotypisch	-12.626
]22-12-	-12.6291
nderzoeksnummer	-12.6296
ling	-12.6301
wat	-12.6306
▁(0)	-12.6308
2(	-12.6313
▁hoogtes	-12.6315
▁falen	-12.6317
ota	-12.632
biliaire	-12.6332
▁rheumat	-12.6335
erb	-12.6337
▁bullae	-12.6338
verlies	-12.6339
amen	-12.6349
fase	-12.6359
▁Cristabeenmerg	-12.6375
oorgesteld	-12.6378
centieonderzoek	-12.6385
▁IG	-12.6389
neuro	-12.6409
kwab	-12.6412
bestudeerd	-12.6412
artefact	-12.6415
lang	-12.6418
epidermoid	-12.642
ureter	-12.6421
▁2022)	-12.6423
IgH	-12.6423
tum	-12.6427
prothese	-12.6427
▁immun	-12.6428
▁Ruime	-12.643
uiteinde	-12.643
basaloid	-12.643
ovarieel	-12.6431
aginabiopt	-12.6432
Rechts	-12.6434
Risk	-12.6434
insertie	-12.6435
depositie	-12.6435
Atypische	-12.6437
ware	-12.6439
fossa	-12.6439
Hemicolectomie	-12.644
usual	-12.644
Bericht	-12.644
perineum	-12.6441
dorsum	-12.6441
beoordeeld	-12.6441
ganglion	-12.6441
compatibel	-12.6442
endocervix	-12.6443
glandula	-12.6443
oedeem	-12.6443
buikwand	-12.6444
Radicaliteit	-12.6444
lymfeklier	-12.6444
lastig	-12.6444
▁cervixexcisie	-12.6444
langer	-12.6445
behandeling	-12.6446
verminderd	-12.6447
negatieve	-12.6447
betreft	-12.6448
littekenweefsel	-12.6449
target	-12.6449
respons	-12.645
▁afgeronde	-12.645
tumorvrij	-12.6454
▁pos	-12.6455
tonsil	-12.6455
secretoir	-12.6457
Breslowdikte	-12.6459
patient	-12.6459
opt	-12.6461
multipel	-12.6462
musculus	-12.6462
ha	-12.6464
perifeer	-12.6467
antrumtype	-12.6467
IBD	-12.6469
pylori	-12.6469
▁DA	-12.6469
shy	-12.6472
pylorus	-12.6474
afd	-12.6486
illin	-12.649
adnexa	-12.6493
indien	-12.6501
focale	-12.6509
infiltraat	-12.651
olid	-12.6516
▁Anders	-12.6533
gr	-12.6542
▁rijk	-12.6542
Incisiebiopt	-12.6563
ceme	-12.6568
rend	-12.657
choriale	-12.657
]11-01-	-12.6572
inus	-12.6583
▁im	-12.6611
Rond	-12.6621
▁stagering	-12.6623
▁botombouw	-12.6629
infiltr	-12.6633
bekende	-12.6652
]02-12-	-12.6656
genen	-12.6665
klierhyperplasie	-12.6665
ping	-12.6667
▁mammanaaldbiopt	-12.6682
-02-2021	-12.6682
Corpusslijmvlies	-12.6699
stromal	-12.6699
remmergebruik	-12.67
▁Grade	-12.6701
0-10-	-12.6707
eratospermie	-12.6707
europathologisch	-12.6717
preparaatje	-12.6734
▁Barretts	-12.6738
▁perirena	-12.6744
doende	-12.6754
IDI	-12.6765
▁membran	-12.6766
▁streng	-12.6767
ervicale	-12.6786
gezet	-12.679
▁embryo	-12.6791
spoliepje	-12.6793
fasci	-12.6794
enduidig	-12.6804
▁Epidermis	-12.6805
------------	-12.6812
esofagusepitheel	-12.6823
ecretoir	-12.6824
tand	-12.6826
fhankelijk	-12.6826
▁nestje	-12.6828
olypeus	-12.683
yoom	-12.683
rurigo	-12.683
▁onderbouw	-12.6831
factor	-12.6832
▁zweetklier	-12.6832
aboth	-12.6834
▁Epitheel	-12.6835
ynovia	-12.6835
ediastinum	-12.6837
ythema	-12.6838
▁lymfk	-12.6839
karakteris	-12.684
▁Ileumbiopt	-12.684
upra	-12.684
▁sessi	-12.684
▁seborro	-12.6841
▁masto	-12.6841
splits	-12.6841
▁zuur	-12.6842
otiel	-12.6843
▁vries	-12.6843
wicht	-12.6843
bturatorius	-12.6843
lokdarmbiopsie	-12.6843
▁verheven	-12.6844
ijsnijvlak	-12.6844
▁kiembaan	-12.6844
▁staaf	-12.6844
▁Leishmania	-12.6844
▁prostate	-12.6844
Auramine	-12.6844
Retroperitonea	-12.6844
olecular	-12.6844
▁abortion	-12.6844
▁helices	-12.6844
▁malignteit	-12.6844
drempel	-12.6844
soleerd	-12.6844
transitiezone	-12.6844
xford	-12.6844
▁Adnectomie	-12.6844
▁Dysplastisch	-12.6844
▁aangeraden	-12.6844
▁afstoting	-12.6844
▁bruin	-12.6844
▁cryptdistorsie	-12.6844
▁geconsulteerd	-12.6844
▁georienteerd	-12.6844
▁granulopoese	-12.6844
▁heftig	-12.6844
▁horizontalis	-12.6844
▁hydatide	-12.6844
▁mesenterica	-12.6844
▁mozai	-12.6844
▁nuchae	-12.6844
▁schaamlip	-12.6844
▁seminiferi	-12.6844
▁spits	-12.6844
▁vacuolisatie	-12.6844
▁verdwenen	-12.6844
▁verlaagd	-12.6844
▁vlekkig	-12.6844
▁tempi	-12.6844
Lauren	-12.6844
▁Apex	-12.6844
▁weggebiopteerd	-12.6844
▁Aortaklep	-12.6844
▁culicosis	-12.6844
▁involutie	-12.6844
▁polysomie	-12.6844
irregulariteit	-12.6844
▁haarschacht	-12.6844
acora	-12.6844
▁dysmaturiteit	-12.6844
▁Fallopii	-12.6844
▁chondroom	-12.6845
▁melanine	-12.6845
▁Conus	-12.6845
,10,11,	-12.6845
▁besmetting	-12.6845
▁levend	-12.6845
▁fototoxisch	-12.6845
▁olecrani	-12.6845
▁jl	-12.6845
▁heterogeniteit	-12.6845
▁alcohol	-12.6845
▁vimentine	-12.6845
▁imbalance	-12.6845
▁normo	-12.6845
▁epiploica	-12.6845
▁milium	-12.6845
▁reaction	-12.6845
▁plasmacytoid	-12.6845
▁fibroblastair	-12.6845
Herzien	-12.6845
▁begin	-12.6845
▁spoelcelnaevus	-12.6845
▁nabothi	-12.6845
▁significance	-12.6845
lastische	-12.6845
▁stambronchus	-12.6845
▁schedelobductie	-12.6845
▁bandvormig	-12.6845
▁hoornschilfers	-12.6846
▁mutation	-12.6846
bandje	-12.6846
▁parapemphigus	-12.6846
▁polyclonaal	-12.6846
cystadenofibroom	-12.6846
▁aortawand	-12.6846
▁weefselverval	-12.6846
▁fibroblasten	-12.6846
▁acini	-12.6846
uent	-12.6846
▁placentavolume	-12.6847
▁Graves	-12.6847
▁bloedrijk	-12.6847
▁keer	-12.6847
ramus	-12.6847
▁angiofibroom	-12.6848
▁appendixwand	-12.6848
▁Endoresectie	-12.6848
ntogene	-12.6849
▁spiervezels	-12.6849
▁drainage	-12.685
▁concrementen	-12.685
lacentabed	-12.6853
▁stent	-12.6853
hyphen	-12.6853
▁darmfragment	-12.6854
incl	-12.6854
▁linkerelleboog	-12.6854
▁plus	-12.6854
▁midlijn	-12.6855
cfk	-12.6856
ak	-12.6856
▁klonaliteit	-12.6856
▁pancreaspunctie	-12.6857
uperficiele	-12.6857
▁retentiecyste	-12.6857
▁Gla	-12.6857
▁ontwikkelend	-12.6857
▁optreden	-12.6859
▁adenoompje	-12.6859
hemihepatectomie	-12.6859
▁zh	-12.6859
ness	-12.686
hal	-12.686
▁grover	-12.6861
perfusie	-12.6862
uentieanalyse	-12.6863
▁uitgebreidheid	-12.6864
correleer	-12.6865
▁paraffinecoupes	-12.6867
zenuwschedetumor	-12.6868
▁progressief	-12.6871
▁linkerzijwand	-12.6871
▁superficiale	-12.6872
▁thrombo	-12.6873
▁cirrhose	-12.6873
▁contour	-12.6873
▁morphea	-12.6873
▁transgender	-12.6873
▁Atrofisch	-12.6873
▁Hashimoto	-12.6873
▁Infiltrerend	-12.6873
▁budding	-12.6873
▁celopbrengst	-12.6873
▁elleboogsplooi	-12.6873
▁gesuperponeerd	-12.6873
▁tumormetastasen	-12.6875
binding	-12.6879
▁spitz	-12.688
bite	-12.688
▁neurovasculair	-12.688
▁Antrumbiopten	-12.688
▁hemithyroid	-12.6882
▁cervixcytologie	-12.6883
▁lagen	-12.6883
ysmegakaryopoese	-12.6886
▁bronchusbiopt	-12.6887
Huidexcochleatie	-12.6893
▁etc	-12.6894
▁body	-12.6897
BCL	-12.6902
▁follikelcyste	-12.6904
ncert	-12.6906
▁Let	-12.6906
▁desmo	-12.6912
▁Blaasslijmvlies	-12.6913
-022	-12.6919
zegelringceltype	-12.6922
▁geboorte	-12.6922
▁pectoraal	-12.6922
▁Lambda	-12.6922
▁doorbraak	-12.6922
▁fenomeen	-12.6922
▁seminoma	-12.6922
▁Basis	-12.6922
▁krab	-12.6923
▁diathermisch	-12.6923
primaire	-12.6923
▁fibroadenomateu	-12.6926
lobu	-12.6927
core	-12.6927
▁conse	-12.693
▁uterusresectie	-12.6932
allerg	-12.6934
▁slokdarmbiopt	-12.6934
▁locus	-12.6941
▁Bilatera	-12.6943
wij	-12.6946
RGR	-12.695
deze	-12.695
▁RCA	-12.6957
▁fusiegen	-12.6958
mandibula	-12.696
▁wijzend	-12.696
aten	-12.696
onregelmatigheid	-12.6962
perirenaal	-12.6962
▁huma	-12.6963
bijt	-12.6963
lij	-12.6966
▁eczemateus	-12.6969
ulceratie	-12.6972
▁gef	-12.6972
▁infundibulair	-12.6973
▁tragus	-12.6973
▁plusminus	-12.6973
▁lymfoblastair	-12.6974
▁colonpoliepen	-12.6974
-101	-12.6976
▁geacht	-12.6976
acte	-12.6981
▁halo	-12.6981
▁chondromatose	-12.699
▁nestjes	-12.6991
▁reepje	-12.7003
past	-12.7007
▁bijkomend	-12.7012
▁spongieu	-12.7013
lis	-12.7022
▁gevorderd	-12.7025
▁hematologie	-12.7026
▁Herhaling	-12.7026
▁arteritis	-12.7026
▁onafhankelijk	-12.7026
lering	-12.7031
lymfo	-12.7043
verig	-12.7048
▁huidbeeld	-12.7051
sterkte	-12.7052
▁lymfoplasm	-12.7055
▁discontinu	-12.7058
-10-22	-12.7059
▁ki	-12.7061
▁01-11-	-12.7068
▁percentages	-12.7074
▁huidcurettement	-12.7076
noom	-12.7078
▁mo	-12.7078
▁hoek	-12.708
▁naevuscel	-12.7081
▁uro	-12.7088
▁polytypisch	-12.7091
-2022):	-12.7095
entaal	-12.7103
▁perivesica	-12.7105
tuba	-12.7107
▁car	-12.7107
Huidbiopten	-12.7109
pect	-12.7123
▁lekkage	-12.7129
des	-12.713
obductie	-12.7132
aresectie	-12.7149
▁gerangschikte	-12.7153
▁stromatumor	-12.7156
-2-202	-12.7175
otinib	-12.7177
slokdarmepitheel	-12.7184
]21-12-	-12.7196
▁lint	-12.7196
ib	-12.7216
▁wenkbrauwen	-12.7216
]20-12-	-12.7219
▁kwabben	-12.723
▁abdominaal	-12.7235
iare	-12.7239
hypertensieve	-12.724
▁armen	-12.7241
-11-21:	-12.7242
▁stof	-12.7254
-10-2021:	-12.7258
▁mini	-12.7273
▁mitochondria	-12.7285
]12-11-	-12.729
Fragment	-12.7303
▁collectie	-12.7318
foo	-12.732
not	-12.7335
LEI	-12.7335
bestaande	-12.7337
zen	-12.7349
sprake	-12.7351
capillair	-12.7364
▁Diep	-12.7374
tumoruitbreiding	-12.7388
hoogst	-12.7394
ILA	-12.74
▁gele	-12.7402
onderkwab	-12.7404
2022	-12.7405
▁ecze	-12.741
▁nefroge	-12.7415
beste	-12.743
blasten	-12.7469
mis	-12.7472
xtranodaal	-12.7477
evernaaldbiopten	-12.7482
strijk	-12.7489
▁slijmkleuring	-12.7491
vari	-12.7525
laat	-12.7532
vaginale	-12.7533
kalk	-12.7536
Dunnedarmbiopten	-12.7544
Imm	-12.7572
Laag	-12.758
pla	-12.7584
▁Anusslijmvlies	-12.7585
▁stolling	-12.7587
bronchus	-12.7588
▁borsten	-12.7601
121	-12.7616
Antrumslijmvlies	-12.7632
teerde	-12.7653
nodus	-12.7659
gesteeld	-12.766
Receptorstatus	-12.7662
Afmeting	-12.7667
abces	-12.7669
collectie	-12.7669
abdominaal	-12.767
kort	-12.7671
gain	-12.7671
vum	-12.7674
bloeding	-12.7676
euro	-12.7676
gradering	-12.7677
▁orbitaal	-12.7677
wit	-12.768
uurszijde	-12.7681
kaak	-12.7681
opening	-12.7682
-10-2021	-12.7683
-12-2021:	-12.7687
scherp	-12.7687
intimafibrose	-12.7688
Receptoren	-12.7688
linkerbovenkwab	-12.7688
incomplete	-12.7689
eccrien	-12.7689
High	-12.769
betrokkenheid	-12.769
reuscel	-12.7691
recidiverende	-12.7691
hypertrofe	-12.7692
Adnex	-12.7692
Eventue	-12.7692
infarcering	-12.7692
Alle	-12.7692
blue	-12.7692
klierbuizen	-12.7693
ooghoek	-12.7693
sereus	-12.7694
reikt	-12.7694
Lisexcisie	-12.7694
beoordelen	-12.7694
kanaal	-12.7695
rechterflank	-12.7695
bovenste	-12.7696
ontvangen	-12.7696
follikel	-12.7696
linkerflank	-12.7697
werd	-12.7701
micronodulair	-12.7701
kerato	-12.7702
zeker	-12.7706
besproken	-12.7708
dys	-12.7711
criteria	-12.7712
gegevens	-12.7718
bot	-12.7723
lesie	-12.7725
secundair	-12.7728
dieper	-12.7728
diffuus	-12.7732
BIR	-12.7738
cardiaresectie	-12.7744
doorgroei	-12.7745
subcutaan	-12.7751
0010	-12.7756
]21-02-	-12.7762
▁transurethra	-12.7766
inter	-12.7767
twee	-12.7767
ls	-12.7771
21,	-12.7778
ated	-12.7784
kwabben	-12.7786
vier	-12.7794
2021:	-12.7795
darm	-12.7797
▁2021:	-12.7815
▁alge	-12.7817
-01-22	-12.782
▁expert	-12.783
skin	-12.7834
-12-21	-12.7863
wegen	-12.7865
00):	-12.7867
tien	-12.7867
etreft	-12.789
▁homogen	-12.7894
-02-2020	-12.7895
ehouden	-12.7899
**	-12.7903
▁Colorecta	-12.7907
▁misse	-12.7916
gemarkeerde	-12.7933
vroege	-12.7939
▁chorio	-12.7942
draad	-12.7954
yocardbiopt	-12.7961
*1	-12.7963
Rechter	-12.7964
rostaatresectie	-12.7966
best	-12.7968
amniotisch	-12.798
ntstekingspoliep	-12.7986
▁bron	-12.7988
▁aang	-12.7991
smo	-12.8
▁tradition	-12.8001
able	-12.8002
ijf	-12.8004
▁exclusi	-12.8006
▁rectumpoliep	-12.8007
positie	-12.801
ille	-12.801
▁dundarm	-12.8012
filtraat	-12.8023
ik	-12.8023
-01-20	-12.8026
allergisch	-12.8045
▁persisteren	-12.8047
-11-2022	-12.805
abcederend	-12.8058
▁epithelio	-12.8061
ilt	-12.807
tolsel	-12.8071
pirocheten	-12.8072
ystematisch	-12.8073
veneens	-12.8075
olumepercentage	-12.8078
▁diagnosi	-12.8078
▁(01-0	-12.808
soriasis	-12.808
oxisch	-12.8081
▁synovi	-12.8082
▁vaatafwijking	-12.8084
alatum	-12.8085
▁Darm	-12.8086
▁schimmeldraad	-12.8087
mentumbiopt	-12.8088
hyoid	-12.8089
onisatie	-12.8089
arcoidose	-12.809
ediaal	-12.809
▁Gingiva	-12.8092
ntvangen	-12.8092
▁dubbel	-12.8092
genome	-12.8093
lexura	-12.8093
elanomenpanel	-12.8093
nkno	-12.8093
▁ontst	-12.8093
nderliggend	-12.8094
nderzochte	-12.8094
gewone	-12.8094
uscularis	-12.8094
vergang	-12.8094
handeling	-12.8094
eticuline	-12.8094
eaktief	-12.8094
▁subglottis	-12.8094
klonaal	-12.8094
▁galsteen	-12.8094
▁palmaris	-12.8094
▁cellulitis	-12.8094
hodgkin	-12.8094
▁geconstateerd	-12.8094
▁hyperplasia	-12.8094
▁inflammation	-12.8094
Flowcytometrisch	-12.8094
punctaten	-12.8094
resectaat	-12.8094
schimmen	-12.8094
ultidisciplinair	-12.8094
▁Coeliakie	-12.8094
▁abruptio	-12.8094
▁ascensie	-12.8094
▁bakkebaard	-12.8094
▁breekpunt	-12.8094
▁conflue	-12.8094
▁corneum	-12.8094
▁enhanced	-12.8094
▁exocytose	-12.8094
▁exsudati	-12.8094
▁fissuur	-12.8094
▁gebaseerd	-12.8094
▁geformuleerd	-12.8094
▁gehyaliniseerd	-12.8094
▁haematopoese	-12.8094
▁impliceert	-12.8094
▁laatstgenoemde	-12.8094
▁lichenificatie	-12.8094
▁mucus	-12.8094
▁necrobiotisch	-12.8094
▁omvormd	-12.8094
▁overeenkomsten	-12.8094
▁pedikel	-12.8094
▁raadzaam	-12.8094
▁sublingualis	-12.8094
▁toxiciteit	-12.8094
▁verhoging	-12.8094
▁wanordelijk	-12.8094
Dako	-12.8094
eclampsie	-12.8094
immuunhepatitis	-12.8094
ower	-12.8094
▁bdz	-12.8094
▁beneden	-12.8094
▁retromolare	-12.8094
weefselopbrengst	-12.8094
▁cito	-12.8094
▁dysmorfe	-12.8094
▁dyshematopoese	-12.8094
▁functionerend	-12.8094
▁herkennen	-12.8094
▁plasmacytoom	-12.8094
▁opstijgend	-12.8094
▁pedis	-12.8094
▁specificeren	-12.8094
▁naadlekkage	-12.8094
▁polyoma	-12.8094
▁tertiair	-12.8094
▁accreditatie	-12.8095
▁umbilicalis	-12.8095
itieel	-12.8095
▁nauwkeurig	-12.8095
▁neuropatholoog	-12.8095
▁venectasie	-12.8095
▁penisschacht	-12.8095
▁cohesief	-12.8095
▁osteosarcoom	-12.8095
▁arterietakken	-12.8095
▁neonaat	-12.8095
▁hypertroof	-12.8095
▁sarcomen	-12.8095
▁cytomorfologie	-12.8095
▁lymphoma	-12.8095
▁vaatstructuur	-12.8095
alga	-12.8095
color	-12.8095
▁targetable	-12.8095
▁bichoriale	-12.8095
slijmbekercellen	-12.8095
▁hypercoiling	-12.8095
extractie	-12.8095
circulair	-12.8095
▁schuimcellen	-12.8095
▁toegevoegd	-12.8095
▁thrombosering	-12.8095
▁deposits	-12.8095
▁vulvectomie	-12.8095
▁haarresten	-12.8095
▁pericarditis	-12.8095
▁postpartum	-12.8095
▁haemorrhagisch	-12.8095
▁benade	-12.8095
▁soort	-12.8095
▁dilat	-12.8095
▁paragranuloom	-12.8095
▁kalkdeposities	-12.8095
atoire	-12.8095
▁luchtwegen	-12.8095
herhalingsrisico	-12.8095
▁melanomen	-12.8095
▁submentaal	-12.8095
oscopisch	-12.8095
ullectomie	-12.8095
▁mitralisklep	-12.8095
▁perivasculitis	-12.8096
▁brugvorming	-12.8096
coronairlijden	-12.8096
▁frontalis	-12.8096
▁Blaaswand	-12.8096
▁rechteradnex	-12.8096
stage	-12.8096
▁humora	-12.8096
▁stam	-12.8096
heidsonderzoek	-12.8096
asson	-12.8096
▁fistelvorming	-12.8096
▁adventitia	-12.8096
▁bouw	-12.8097
▁ani	-12.8097
oprostatectomie	-12.8097
▁adenofibroom	-12.8097
▁categori	-12.8097
▁clustering	-12.8097
▁uitgroei	-12.8097
▁hak	-12.8097
▁pubisregio	-12.8098
▁longoedeem	-12.8098
▁fibrosis	-12.8098
▁parametria	-12.8098
reputiumresectie	-12.8099
▁galblaaswand	-12.8099
eyers	-12.8099
▁som	-12.81
▁koper	-12.81
▁genfusie	-12.81
▁granulocytair	-12.81
navelstrengvaten	-12.81
▁opvragen	-12.8102
▁hiertussen	-12.8102
▁Loss	-12.8103
▁weefselvolume	-12.8104
▁functie	-12.8104
▁period	-12.8105
▁tumorbed	-12.8105
acantholytische	-12.8105
▁genmutatie	-12.8105
▁synoviaal	-12.8106
]02-10-	-12.8108
▁fisteling	-12.8108
aagmucosa	-12.8109
▁germinal	-12.8109
ornu	-12.8109
aagantrumtype	-12.8109
Component	-12.811
▁celtype	-12.811
▁adnexectomie	-12.8111
▁duid	-12.8111
▁weing	-12.8111
vary	-12.8112
emming	-12.8114
▁loss	-12.8114
▁longembolieen	-12.8114
▁zoda	-12.8117
ilde	-12.8118
estant	-12.8118
aagantrumbiopt	-12.8122
▁staal	-12.8123
▁coronairen	-12.8124
▁linkerkuit	-12.8127
▁granulopoiese	-12.8127
▁verdrongen	-12.8127
▁Recidief	-12.8127
▁gastraal	-12.8127
▁sample	-12.8127
▁heterogeen	-12.8127
▁collo	-12.8127
▁monoklonaal	-12.8127
▁palatinaal	-12.8127
▁menstrue	-12.8127
▁oncologisch	-12.8127
▁uitlopers	-12.8127
▁pH	-12.8128
lieren	-12.8128
▁thrombose	-12.8128
▁facial	-12.8129
▁pemphigus	-12.8129
▁vervetting	-12.8131
▁ta	-12.8133
AHH	-12.8134
▁bloedstolsels	-12.8134
▁verk	-12.8134
▁extr	-12.8135
▁col	-12.8137
ymo	-12.8137
duct	-12.8137
▁kopieen	-12.8141
staande	-12.8144
▁pleiten	-12.8149
myomateuze	-12.8151
▁functione	-12.8151
isme	-12.8151
ierbiopten	-12.8151
▁Lies	-12.8153
▁ependymoom	-12.8157
plasie	-12.8159
▁Best	-12.816
▁Exp	-12.816
▁placentaweefsel	-12.8162
eptisch	-12.8163
pecifieke	-12.8166
tak	-12.8168
▁LDH	-12.8169
▁ondersteunend	-12.8169
▁vervolgen	-12.8178
▁20-01-	-12.8178
▁Foet	-12.818
▁FE	-12.8182
▁oligo	-12.8183
▁seroom	-12.8183
▁temporal	-12.8183
▁mor	-12.8183
▁salpingitis	-12.8183
▁Cycline	-12.8183
▁exsudaat	-12.8183
▁pathogeniciteit	-12.8183
▁psoas	-12.8183
▁jugulair	-12.8184
▁commissuur	-12.8184
▁Grote	-12.8184
▁spot	-12.8184
▁kapseldoorgroei	-12.8184
▁Lengte	-12.8184
▁bilirubinostase	-12.8184
▁frictie	-12.8184
▁blaasspoeling	-12.8187
▁rectumstomp	-12.8187
profylactisch	-12.8188
mk	-12.8192
▁terme	-12.8193
▁vlokjes	-12.8194
▁aandoeningen	-12.8198
lencarcinoom	-12.8205
veneus	-12.8206
]12-10-	-12.8208
hb	-12.8221
▁HCC	-12.8222
▁studies	-12.8223
-110	-12.8224
▁21-10-	-12.8227
▁ontkalkt	-12.8228
▁dis	-12.8232
]12-01-	-12.8233
leeve	-12.8235
▁Don	-12.8236
lopen	-12.8239
einde	-12.824
▁Aangepast	-12.8242
▁Ileocaecaal	-12.8242
▁extramedullair	-12.8242
▁patchy	-12.8242
▁verhouding	-12.8245
▁conisatie	-12.8245
rat	-12.8246
▁activatie	-12.8246
lymfangio	-12.8265
▁Ch	-12.8273
▁erytro	-12.8275
tase	-12.8284
Ascitespunctie	-12.8297
▁rechterarm	-12.83
▁monomorf	-12.8301
talg	-12.8301
▁druk	-12.8302
▁vergroot	-12.8304
follikelepitheel	-12.8305
▁Lis	-12.832
▁haemato	-12.8322
▁infiltre	-12.8333
21-020	-12.8334
hans	-12.8335
▁prognose	-12.8343
sindex	-12.8344
▁pees	-12.8347
itieve	-12.8347
2020	-12.8348
markers	-12.8366
▁fi	-12.8366
▁exper	-12.8368
osa	-12.8376
▁bifurcatie	-12.8377
-11-22:	-12.8385
loop	-12.8385
▁zijden	-12.8399
▁papels	-12.84
rum	-12.8413
▁linkerarm	-12.8418
▁consensus	-12.8431
orrelatie	-12.8433
delentumor	-12.8436
20-010	-12.8444
schildklier	-12.8444
oordeel	-12.8449
▁th	-12.8453
▁Bronchuss	-12.8457
▁verlittekend	-12.8457
▁spongiotisch	-12.8458
▁cystadeno	-12.8466
▁intestinal	-12.848
▁bul	-12.8482
▁geirriteerd	-12.8495
▁Cervixs	-12.8507
▁vue	-12.8508
▁(200	-12.8527
▁pil	-12.8529
▁ger	-12.8529
-11-2021:	-12.8539
▁pr	-12.854
▁Afmeting	-12.8541
erig	-12.8545
▁Localisatie	-12.8545
▁gain	-12.8552
21-002	-12.8554
▁weefsels	-12.8561
▁minimal	-12.8562
lokale	-12.8567
anamnese	-12.8569
-10-20:	-12.8575
▁linksboven	-12.8577
superficieeltype	-12.8591
▁(0).	-12.8602
]11-10-	-12.8608
bene	-12.8618
▁area	-12.862
oortje	-12.8634
▁neur	-12.8636
delC	-12.864
▁Hi	-12.8642
▁wart	-12.8644
▁parameters	-12.8673
los	-12.8678
Hier	-12.868
nen	-12.8682
dale	-12.8691
▁file	-12.8691
ical	-12.8692
rl	-12.8698
▁ED	-12.87
▁gal	-12.8705
▁cystes	-12.872
▁maagovergang	-12.8732
▁chr	-12.8746
ndri	-12.875
▁vor	-12.8758
0022	-12.8789
ijns	-12.8793
beet	-12.881
iaal	-12.8811
-1-2	-12.8818
metabol	-12.8834
▁fractie	-12.884
-01-2022:	-12.8844
lende	-12.8845
endo	-12.8846
▁10-12	-12.8864
uren	-12.888
oldoe	-12.8921
adnexaal	-12.8944
cilinders	-12.8961
resectieranden	-12.897
ledig	-12.9012
gesneden	-12.9017
▁histo	-12.9032
ARI	-12.9033
bul	-12.9036
-212	-12.9044
▁infecties	-12.9054
Linker	-12.9055
▁markerings	-12.9056
oloog	-12.9065
pil	-12.9069
▁Angioinvasie	-12.9069
zwak	-12.9075
klep	-12.9081
▁11-12-	-12.9083
Diep	-12.9084
villus	-12.9085
ov	-12.9092
elleboog	-12.9095
gastric	-12.9097
genetisch	-12.91
grijs	-12.9101
hotspot	-12.9101
hit	-12.9102
passen	-12.9106
samen	-12.9106
purulent	-12.9108
trombo	-12.9109
helft	-12.9109
incidentiedatum	-12.9113
ventrale	-12.9114
decollete	-12.9114
seminoom	-12.9115
strekzijde	-12.9115
genetica	-12.9115
jukbeen	-12.9115
trigonum	-12.9116
klierparenchym	-12.9118
gingiva	-12.9118
gegroeid	-12.9119
verruceus	-12.9119
kaakhoek	-12.9119
anterior	-12.9119
acanthotisch	-12.9119
element	-12.912
proficient	-12.912
beenmerg	-12.912
materna	-12.912
Ampli	-12.912
pneumonie	-12.9121
diverticulitis	-12.9121
gewenst	-12.9121
chromosoom	-12.9121
blauw	-12.9121
vasculitis	-12.9121
gisten	-12.9121
Echter	-12.9122
beoordeelbare	-12.9122
ontstaan	-12.9122
Dunne	-12.9122
beoordeelbaar	-12.9122
maken	-12.9122
overgangstype	-12.9123
Appendectomie	-12.9123
FGFR	-12.9123
handpalm	-12.9123
fibroadenoom	-12.9123
naevocellularis	-12.9123
obturatorius	-12.9123
ingestuurd	-12.9123
argumenten	-12.9124
erosie	-12.9125
correlatie	-12.9125
kleiner	-12.9126
geneesmiddelen	-12.9126
linkszijdig	-12.9129
schedel	-12.9129
patienten	-12.9129
blaashals	-12.913
alleen	-12.9132
perifere	-12.9134
uitgeblust	-12.9135
ongewijzigd	-12.9135
vacuum	-12.9137
onderliggend	-12.9139
pleura	-12.914
toxicodermie	-12.9141
sor	-12.9141
tumorcellen	-12.9142
ppen	-12.9154
uurt	-12.916
]11-12-	-12.916
]22-11-	-12.9177
▁bv	-12.9178
Graa	-12.9188
▁samenvatt	-12.919
thyreoid	-12.9198
▁02-10-	-12.9204
scleroserende	-12.9204
▁cranio	-12.9217
▁architecture	-12.9218
middel	-12.922
-2021)	-12.9227
hyperplastische	-12.9227
▁Amplificatie	-12.9239
-*******,	-12.9249
bijv	-12.9251
▁11-12-20	-12.9263
▁residua	-12.9269
ynoviumbiopt	-12.9285
immuunziekte	-12.9292
▁bied	-12.9306
spa	-12.9318
▁AR	-12.9323
tevens	-12.9346
▁fibros	-12.9346
▁1-2)	-12.935
oth	-12.9365
vi	-12.9368
differ	-12.9371
maagslijmvlies	-12.9376
-10-2022	-12.9378
▁chroniciteits	-12.9378
▁10-11	-12.9379
21):	-12.938
REA	-12.9393
elastose	-12.94
ineaire	-12.94
sporen	-12.9404
peroxidase	-12.9408
▁immunofenotyp	-12.9409
▁sterno	-12.941
▁reserve	-12.9415
rofylactisch	-12.9416
▁ovariumcyste	-12.9419
▁Consultcoupe	-12.9425
▁bijbevinding	-12.9427
▁leiomyoma	-12.943
▁toest	-12.9432
uunhistochemisch	-12.9438
cisie	-12.9438
voetrug	-12.9446
sitie	-12.9452
▁Endomyocard	-12.9456
▁Lym	-12.9457
▁ui	-12.9458
-02-2	-12.9459
▁angioma	-12.9463
atheter	-12.9468
▁plaat	-12.947
----------	-12.947
overig	-12.9472
▁sup	-12.9473
ging	-12.9473
▁uitsluit	-12.9475
bare	-12.9476
▁Discre	-12.9482
▁behandel	-12.9483
igresectie	-12.9487
ingsstoornissen	-12.9488
▁Conjunctiva	-12.9492
esloten	-12.9498
chwannoom	-12.95
igniteit	-12.9501
▁chronic	-12.9501
ampling	-12.9501
poelsel	-12.9502
iffuse	-12.9505
▁subcutisexcisie	-12.9506
tansbiopsie	-12.9506
▁lymfvat	-12.9508
igmoidslijmvlies	-12.9508
umorvrij	-12.9509
olair	-12.9509
artieel	-12.951
▁retentie	-12.951
▁wijzig	-12.9511
reparaat	-12.9511
verweeg	-12.9512
nduidelijk	-12.9512
▁aggregaat	-12.9512
▁Larynx	-12.9513
rominent	-12.9516
edebeoordeeld	-12.9516
▁Genetic	-12.9517
▁neoplasm	-12.9517
pongiotische	-12.9519
▁schuim	-12.9519
iteinden	-12.9519
irca	-12.952
lcererend	-12.952
komst	-12.952
lagig	-12.9521
▁mucino	-12.9521
▁ritmestoornis	-12.9522
▁suggestie	-12.9522
fgedraaid	-12.9522
▁nodular	-12.9522
eldysplasie	-12.9522
asofarynx	-12.9522
▁leesbaar	-12.9522
coiling	-12.9522
liezen	-12.9523
adikaal	-12.9523
gevoegd	-12.9523
homo	-12.9523
▁ernst	-12.9523
ijsnijvlakken	-12.9523
▁staple	-12.9523
▁endometro	-12.9523
▁inflammato	-12.9523
▁myelopo	-12.9523
▁sfeno	-12.9523
esultaten	-12.9523
uniculus	-12.9523
sinterval	-12.9523
▁elastoly	-12.9523
▁ribben	-12.9523
▁sediment	-12.9523
Bepaling	-12.9523
chillblain	-12.9523
folliculo	-12.9523
geintegreerd	-12.9523
gepland	-12.9523
nifix	-12.9523
papillary	-12.9523
project	-12.9523
richofolliculoom	-12.9523
xplantaat	-12.9523
▁Aangrenzend	-12.9523
▁Agendia	-12.9523
▁Aspergillus	-12.9523
▁Dubreuilh	-12.9523
▁Follow	-12.9523
▁Hemangioom	-12.9523
▁Respectievelijk	-12.9523
▁aangehecht	-12.9523
▁adenomyoom	-12.9523
▁astrocytair	-12.9523
▁atrophy	-12.9523
▁aureola	-12.9523
▁bullosa	-12.9523
▁canthus	-12.9523
▁carunkel	-12.9523
▁change	-12.9523
▁chips	-12.9523
▁cholestatisch	-12.9523
▁chorionvilli	-12.9523
▁costa	-12.9523
▁duimmuis	-12.9523
▁epidermotroop	-12.9523
▁epulis	-12.9523
▁exanthemateu	-12.9523
▁geschampt	-12.9523
▁gezegd	-12.9523
▁gezocht	-12.9523
▁macrofaag	-12.9523
▁muscle	-12.9523
▁neutrofilie	-12.9523
▁nitidus	-12.9523
▁noduli	-12.9523
▁paravesicalis	-12.9523
▁pathognomonisch	-12.9523
▁pattern	-12.9523
▁perivenulair	-12.9523
▁plugging	-12.9523
▁prolactine	-12.9523
▁retromammillair	-12.9523
▁schors	-12.9523
▁sekwester	-12.9523
▁stigmata	-12.9523
▁suggereer	-12.9523
▁vermiformis	-12.9523
▁verschijnselen	-12.9523
▁verwisseld	-12.9523
▁wandlagen	-12.9523
▁xanthelasma	-12.9523
catenine	-12.9523
▁brokkelig	-12.9523
▁calcaneus	-12.9523
▁diverticulosis	-12.9523
▁drietaks	-12.9523
▁duplicat	-12.9523
▁hospita	-12.9523
▁isomerism	-12.9523
▁vermicularis	-12.9523
common	-12.9523
exogeen	-12.9523
kankerpa	-12.9523
nooit	-12.9523
papillomatotisch	-12.9523
▁enterocyten	-12.9523
▁field	-12.9523
▁monocyten	-12.9523
▁naakt	-12.9523
▁staplenaad	-12.9523
▁tumordeposits	-12.9523
smear	-12.9523
▁erysipelas	-12.9523
▁kindsdelen	-12.9523
▁lymfocytosis	-12.9523
▁refractair	-12.9523
uscelarteriitis	-12.9523
▁incipiens	-12.9523
▁retetestis	-12.9523
▁aansluitend	-12.9523
▁tinea	-12.9523
▁Lymfomenpanel	-12.9523
▁individue	-12.9523
fertiliteit	-12.9523
▁ulnaris	-12.9523
▁Burs	-12.9523
▁dermalis	-12.9523
▁ventrocaudaal	-12.9523
▁reumanodus	-12.9523
▁hormoontherapie	-12.9523
▁zuurvormend	-12.9523
▁orienteren	-12.9523
▁posterolateraal	-12.9523
▁middelvinger	-12.9523
▁wormen	-12.9523
▁familieleden	-12.9523
imensi	-12.9523
▁arteriolen	-12.9523
▁endomyometrium	-12.9523
▁kiembaanmutatie	-12.9523
Herceptest	-12.9523
▁pinealis	-12.9523
▁dubbelzijdig	-12.9523
▁onbetrouwbaar	-12.9523
▁angiomyolipoom	-12.9523
▁peribronchiaal	-12.9523
▁invade	-12.9523
▁linksversch	-12.9523
seniel	-12.9523
▁spaarza	-12.9523
▁zeldzame	-12.9523
▁Fibroom	-12.9523
▁plasmablastair	-12.9523
▁synoviosarcoom	-12.9523
▁Eind	-12.9523
▁achteruitgang	-12.9523
▁bilateraal	-12.9523
▁macrovesiculair	-12.9523
▁vesikelvorming	-12.9523
▁meningotheli	-12.9523
▁mucinosis	-12.9523
chamberg	-12.9524
▁pustelvorming	-12.9524
▁weefselstukken	-12.9524
keurig	-12.9524
▁visceralis	-12.9524
▁gliose	-12.9524
▁ultrastructure	-12.9524
▁benige	-12.9524
▁lipomen	-12.9524
▁calretinine	-12.9524
itinib	-12.9524
riton	-12.9524
▁amyloidosis	-12.9524
▁verbetering	-12.9524
▁bullavorming	-12.9524
▁heden	-12.9524
▁kaakholte	-12.9524
▁bucc	-12.9524
pylorisch	-12.9524
▁Delenpanel	-12.9524
▁vlokstructuren	-12.9524
▁aplasie	-12.9524
▁fundusklier	-12.9524
▁leukemisch	-12.9524
▁peesweefsel	-12.9524
poelvloeistof	-12.9525
ysis	-12.9525
▁Hun	-12.9525
▁laminatie	-12.9525
▁intraduraal	-12.9525
usionplex	-12.9525
▁bovenbeschreven	-12.9525
▁pushing	-12.9525
▁crusteuze	-12.9525
▁Feitelijk	-12.9525
▁lymphocyt	-12.9525
▁leiomyoompje	-12.9525
▁visceral	-12.9526
melanocytoom	-12.9526
▁leeg	-12.9526
▁01-02-201	-12.9526
▁ulcera	-12.9526
▁stenosering	-12.9526
▁semi	-12.9526
▁slank	-12.9526
▁overeenstem	-12.9527
oals	-12.9527
▁biopsievolume	-12.9527
▁kapselnaevus	-12.9527
▁rectal	-12.9528
▁Geneesmiddelen	-12.9528
ALGA	-12.9528
▁opsnijding	-12.9528
▁thrombotisch	-12.9529
neuropathie	-12.9529
▁septisch	-12.9529
▁vermoeden	-12.953
nes	-12.953
▁onbe	-12.953
▁linkerheup	-12.953
▁adenocarcinomen	-12.9531
reuscelgranuloom	-12.9531
▁bacterieen	-12.9531
▁carotis	-12.9531
▁Huidcurretage	-12.9532
▁daaromheen	-12.9532
drade	-12.9533
▁porfyrie	-12.9533
▁receptorstatus	-12.9533
bls	-12.9534
▁cryoglobulinemi	-12.9534
▁cristabiopsie	-12.9535
▁tonsilweefsel	-12.9535
genitale	-12.9535
fotoallergische	-12.9536
▁by	-12.9537
transglutaminase	-12.9538
▁fibrolipomateu	-12.9539
▁pseudotumor	-12.9539
▁universit	-12.954
▁bundels	-12.954
▁bundel	-12.9543
-11-22)	-12.9543
▁immuunfenotype	-12.9543
methylatiestatus	-12.9544
▁cellaag	-12.9545
▁klonaliteits	-12.9545
urine	-12.9547
▁lymffollikels	-12.9548
▁aangenomen	-12.9548
▁rechterenkel	-12.955
▁nivo	-12.955
▁pityrosporum	-12.9551
ostomie	-12.9551
toevalsbevinding	-12.9552
▁laryngea	-12.9555
▁botfragmenten	-12.9556
▁linkerovarium	-12.9557
▁polipectomie	-12.9557
▁Complete	-12.956
▁endothelitis	-12.9561
▁kernpuin	-12.9561
▁dyskeratotisch	-12.9561
▁gecalcificeerd	-12.9561
▁invasiviteit	-12.9561
▁nodosa	-12.9561
▁uvula	-12.9561
▁omringend	-12.9561
▁involvement	-12.9561
▁cycline	-12.9561
▁intervill	-12.9561
▁thyroiditis	-12.9561
▁dermoid	-12.9561
▁hydrosalpinx	-12.9561
▁laparoscopisch	-12.9563
▁gedi	-12.9565
CLCC	-12.9565
astectomie	-12.9569
▁snelle	-12.957
uitvloed	-12.9572
crescentisch	-12.9572
etweefsel	-12.9573
▁inzendend	-12.9573
mammacarcinoom	-12.9573
oegenomen	-12.9573
▁irritatieve	-12.9574
▁weefselstukjes	-12.9575
peripancreatisch	-12.9579
▁relevantie	-12.9584
▁ingeleverd	-12.9585
▁versch	-12.9585
▁verkleving	-12.9586
▁aandoend	-12.9587
▁uteruscurettage	-12.9587
urie	-12.959
lak	-12.959
▁LAR	-12.9591
interstitium	-12.9592
▁bodies	-12.9592
▁renal	-12.9593
▁poliepvorming	-12.9596
▁wangmucosa	-12.9599
▁vergelijkba	-12.9601
corpustype	-12.9603
ureterectomie	-12.9605
▁blaasresectie	-12.9606
avage	-12.9607
▁testen	-12.9611
ortioamputatie	-12.9612
▁heterolo	-12.9615
fibroblast	-12.9618
itt	-12.9622
▁hidradeno	-12.9622
▁gezonde	-12.9625
▁enucleatie	-12.9626
▁bilspleet	-12.9627
▁Cribriform	-12.9627
▁gecompliceerd	-12.9627
▁pilomatrixoma	-12.9627
▁wreef	-12.9627
▁Brain	-12.9627
▁podocytopathie	-12.9627
▁inguinal	-12.9627
▁hematomorfologi	-12.9627
▁pijn	-12.9627
▁Hyperkeratose	-12.9628
▁glomerulitis	-12.9629
▁substantie	-12.9632
▁11-10-	-12.9635
cervicaal	-12.9639
▁papule	-12.964
leden	-12.9644
ff	-12.9645
.02.20	-12.9646
▁Anal	-12.9647
▁uitstrijkje	-12.9647
gesproken	-12.9651
▁Leydigcel	-12.9652
chrom	-12.9655
laesionaal	-12.9662
ull	-12.9664
▁mosaicisme	-12.9666
▁maagbiopsie	-12.9667
ritmestoornissen	-12.9672
▁leiden	-12.9678
ransplantaatnier	-12.9679
▁mesorecta	-12.9682
▁chondro	-12.969
▁palpab	-12.9695
▁circumcisie	-12.9695
xon	-12.9695
▁sentinelnode	-12.9696
▁RAF	-12.9696
▁veno	-12.9697
eerst	-12.9698
▁onzekerheid	-12.9703
gerelateerd	-12.9705
IAA	-12.9705
prostaatbiopten	-12.9715
ctomie	-12.9718
0002	-12.9718
icrokalk	-12.9723
ubcutisexcisie	-12.9724
isselend	-12.973
▁papeltje	-12.9732
▁rechterzijwand	-12.9732
vo	-12.9736
antitr	-12.9737
-220	-12.9741
▁inclusies	-12.9761
▁correctie	-12.9765
▁lichaampjes	-12.9768
beenmergbiopt	-12.9771
immuundeposities	-12.9784
▁oncologie	-12.9784
roken	-12.9785
▁geclusterd	-12.9787
▁Galblaasexcisie	-12.9794
ijk	-12.9798
▁kwa	-12.9811
pseudoepitheli	-12.9831
▁producerend	-12.9833
▁delenresectie	-12.9847
▁(10-0	-12.9848
onsil	-12.9866
▁IIB	-12.9866
10-0	-12.9875
egelmatig	-12.9886
-12-22:	-12.9896
▁IIb	-12.9897
▁ALCL	-12.9897
▁nasaal	-12.9904
▁mu	-12.9909
ieren	-12.9912
▁dystrofie	-12.9916
bol	-12.992
▁blinde	-12.992
im	-12.9921
▁ABC	-12.9924
vis	-12.9931
llen	-12.9934
▁double	-12.9943
▁Bove	-12.995
▁algeme	-12.9961
▁huidfragmenten	-12.9963
ginatopuitstrijk	-12.997
▁nodes	-12.998
0,0	-12.9984
loog	-12.9985
inpo	-12.9986
▁verschuiving	-12.9993
architectuur	-12.9993
ylindercelatypie	-12.9997
▁veld	-13.0003
▁cilinders	-13.0007
laesies	-13.003
▁korrel	-13.0041
oliepeus	-13.0041
▁huidre	-13.0044
▁Receptorstatus	-13.0046
geinduceerde	-13.005
▁colonresectie	-13.0057
▁Ruim	-13.0062
▁afgerond	-13.0064
matoid	-13.0064
granulose	-13.007
▁periana	-13.0075
onsilbiopt	-13.008
▁lymfomato	-13.008
immune	-13.0081
▁perirecta	-13.0081
▁dermat	-13.0093
▁mis	-13.0097
-01-2021:	-13.0097
▁gelijkend	-13.0099
genamplificaties	-13.0102
]02-11-	-13.0103
▁littekenachtig	-13.0118
▁bestudeerd	-13.0118
xistent	-13.0121
▁10-11-1	-13.0124
▁melanocytair	-13.0126
▁fibroserend	-13.0129
▁proliferati	-13.0144
ERAL	-13.0149
▁ov	-13.0157
rium	-13.0161
unt	-13.0163
12).	-13.0164
▁duur	-13.0171
(1-2	-13.0174
▁aanv	-13.0182
▁dunnedarmtype	-13.0185
0.0	-13.0185
▁event	-13.0207
▁orgaan	-13.0214
-2-20	-13.0216
sr	-13.0219
▁schaa	-13.0219
-01-2021	-13.0233
]01-11-	-13.024
LAE	-13.0249
ilinderepitheel	-13.0252
▁sc	-13.0257
strijkpreparaten	-13.0264
rige	-13.0269
ari	-13.0271
▁littekens	-13.0281
arterioveneus	-13.0291
▁22-01-	-13.0307
▁lichtmicroscopi	-13.0307
onderd	-13.0307
celhyperplasie	-13.031
anknopingspunten	-13.0313
-122	-13.0313
▁parabasa	-13.0314
ius	-13.0315
ki	-13.0315
CAAL	-13.0319
inhibitie	-13.0335
cytair	-13.0344
EDE	-13.0352
mutatieanalyse	-13.0364
▁monocytaire	-13.037
▁levermetastase	-13.0385
▁Classificati	-13.0428
invaginaties	-13.0439
ocervicaal	-13.0442
▁xantho	-13.0453
▁ant	-13.0478
▁lichaams	-13.048
▁diff	-13.048
▁tubulusepitheel	-13.0487
formulier	-13.0498
oren	-13.0508
erato	-13.0513
▁leuko	-13.052
poliepjes	-13.0529
▁membraneus	-13.0564
▁11-12	-13.0594
-22):	-13.0629
aankleuring	-13.065
▁gesteeld	-13.0663
maagantrum	-13.067
egionale	-13.0673
immuungastritis	-13.0682
uam	-13.069
vezel	-13.0694
▁21-11-	-13.0702
complete	-13.0712
EDI	-13.0714
▁ulcer	-13.0719
▁ko	-13.072
lijm	-13.0723
satellieten	-13.0728
▁Lymfocyt	-13.0732
logie	-13.0733
was	-13.0734
▁plan	-13.0741
uste	-13.0752
▁resectiemarge	-13.0753
histio	-13.0753
nasaal	-13.0757
dystrofie	-13.0758
ieve	-13.0763
lekkage	-13.0766
▁meerder	-13.0766
dominant	-13.0774
cytoplasmatisch	-13.0775
gemiddeld	-13.0776
lesionaal	-13.0776
iernaaldbiopt	-13.0776
excisiebiopsie	-13.0776
ooglid	-13.0777
rood	-13.0777
verandering	-13.0777
gewijzigd	-13.0777
Hersen	-13.0779
obstructie	-13.0779
structuur	-13.0779
corticale	-13.078
pericard	-13.078
regeneratie	-13.0781
Lymfocytose	-13.0782
comedo	-13.0782
discordant	-13.0782
ejaculaat	-13.0782
juli	-13.0782
desmoplastisch	-13.0783
jicht	-13.0783
dijbeen	-13.0783
geamplificeerd	-13.0784
morfea	-13.0784
Diagnose	-13.0784
diafragma	-13.0785
stof	-13.0785
only	-13.0785
traumatisch	-13.0786
Beperkt	-13.0786
geulcereerd	-13.0786
disease	-13.0786
groot	-13.0786
femur	-13.0786
monotypisch	-13.0786
Celarm	-13.0786
amplificatie	-13.0786
inzending	-13.0787
zwart	-13.0787
fistel	-13.0787
Lumpectomie	-13.0787
positiviteit	-13.0787
gescleroseerd	-13.0787
reuscellen	-13.0787
endometrioid	-13.0788
flowcytometrie	-13.0788
paravertebraal	-13.0788
Enkel	-13.0788
gegaan	-13.0788
anastomose	-13.0788
congenitale	-13.0788
leiomyoom	-13.0788
ruptuur	-13.0788
metaplastisch	-13.0788
recente	-13.0788
mondbodem	-13.0788
gefragmenteerd	-13.0789
hoge	-13.0789
gaarn	-13.0789
papel	-13.0789
papillomatosus	-13.0789
eczeem	-13.079
uitgesloten	-13.079
correleren	-13.079
retroauriculair	-13.079
fibrotisch	-13.079
tong	-13.0791
uitspraak	-13.0792
lentigo	-13.0792
radiotherapie	-13.0792
microsatelliet	-13.0792
mut	-13.0793
▁nierbiopsie	-13.0795
graderings	-13.0796
En	-13.0796
vetweefsel	-13.0797
instabiel	-13.0797
spoelcellig	-13.0798
psoriasis	-13.0798
onzeker	-13.0798
rechteronderarm	-13.0799
inkt	-13.0804
▁villo	-13.0805
myometrium	-13.0805
schimmels	-13.0806
rechtermamma	-13.0807
linkermamma	-13.0807
slokdarm	-13.0809
Hart	-13.0823
somie	-13.0832
▁adenoA	-13.0852
ubaresectie	-13.0853
vm	-13.0868
az	-13.087
-12-22	-13.0887
rode	-13.0887
▁hu	-13.0892
nodal	-13.0895
▁faeca	-13.0899
▁Daarom	-13.0907
▁stromacel	-13.0916
▁Buik	-13.0922
▁Anastomos	-13.0926
▁vermelden	-13.0926
221	-13.0927
testis	-13.0928
cystevocht	-13.093
lineaire	-13.0944
ria	-13.0954
▁pseudodecidua	-13.0954
vaten	-13.0963
steunt	-13.0969
mutaties	-13.0972
▁ortho	-13.0972
▁Endometriose	-13.0976
***	-13.0996
Cytologi	-13.1018
ADI	-13.102
aspecifieke	-13.103
peni	-13.1033
▁Leydig	-13.104
pier	-13.1041
ammalumpectomie	-13.1042
pithelial	-13.1047
estis	-13.1051
vloed	-13.1051
▁Rese	-13.106
Hemithyro	-13.1063
tembandbiopt	-13.1068
▁Ade	-13.1078
cer	-13.108
bris	-13.1083
kselklier	-13.1088
gleason	-13.109
veld	-13.1104
riaal	-13.1108
▁gest	-13.1113
theliale	-13.1118
geleverd	-13.1118
system	-13.1119
▁omentumbiopt	-13.1121
ctasie	-13.1125
▁milia	-13.1126
treden	-13.113
muller	-13.1133
▁smal	-13.1134
circumferenti	-13.1141
-10-22:	-13.1143
▁behoren	-13.1146
essenti	-13.1148
▁slijmnap	-13.115
▁blo	-13.1151
eiland	-13.1152
neutrofiel	-13.1152
▁glan	-13.1153
vage	-13.1155
vergrot	-13.1155
reerd	-13.1163
▁necro	-13.1164
▁verleng	-13.1165
emihepatectomie	-13.1167
ys	-13.1167
cuut	-13.1168
icum	-13.1168
tubercul	-13.1171
▁ontkalking	-13.1172
▁mono	-13.1173
▁granuloompje	-13.1173
▁latero	-13.1173
estisbiopt	-13.1173
▁cryoglobulin	-13.1174
▁gecon	-13.1175
probab	-13.1176
athologisch	-13.1176
▁overeenkom	-13.1176
atroon	-13.1176
ositieve	-13.1176
dragend	-13.1177
▁podocyt	-13.1177
▁beantwoord	-13.1178
▁pityriasi	-13.1179
▁argument	-13.1179
deposit	-13.1181
ityrosporon	-13.1181
actie	-13.1181
ordeel	-13.1182
esothelioom	-13.1182
edicamenteus	-13.1183
ngemarkeerde	-13.1183
▁spermatozo	-13.1183
kleurbaar	-13.1183
ityriasis	-13.1183
angentieel	-13.1183
icronodulair	-13.1184
excis	-13.1184
▁patella	-13.1184
▁mijt	-13.1185
ubulairadenoom	-13.1185
permatozoa	-13.1185
randeringen	-13.1185
▁parasit	-13.1186
▁word	-13.1186
ategori	-13.1186
ilindrisch	-13.1186
steek	-13.1187
latum	-13.1187
pool	-13.1187
emodificeerd	-13.1187
vertuigend	-13.1187
ntstoken	-13.1187
▁techn	-13.1187
▁Hypertrof	-13.1187
▁bekle	-13.1187
nfectieuze	-13.1187
nderbeen	-13.1188
sprong	-13.1188
lierstation	-13.1188
▁scabi	-13.1188
▁toenem	-13.1188
compartiment	-13.1189
epatitis	-13.1189
ypercellulair	-13.1189
mpetiginiseerd	-13.1189
▁onychomycos	-13.1189
▁brugvorm	-13.1189
tuximab	-13.1189
▁pendul	-13.1189
▁fronto	-13.1189
Hercep	-13.1189
profici	-13.1189
▁cohesi	-13.1189
▁arterietak	-13.1189
polym	-13.119
▁cryptabces	-13.119
▁pemphigo	-13.119
▁Etiologie	-13.119
▁nood	-13.119
▁angiolipomen	-13.119
▁accreta	-13.119
▁break	-13.119
▁cancerisatie	-13.119
▁hoornplug	-13.119
▁ilio	-13.119
▁mastitis	-13.119
▁uitgestreken	-13.119
▁vaststellen	-13.119
▁verzocht	-13.119
▁weefselverband	-13.119
Fraai	-13.119
Gedilateerd	-13.119
Grootte	-13.119
abdomyoblastair	-13.119
aginamanchet	-13.119
amengevat	-13.119
arbotage	-13.119
bethesda	-13.119
chneiderian	-13.119
dreigende	-13.119
locoregionale	-13.119
pigmentcelletsel	-13.119
pneumonitis	-13.119
rombosuctie	-13.119
sarcomateus	-13.119
vertakking	-13.119
▁Amyloid	-13.119
▁Array	-13.119
▁Diathermisch	-13.119
▁Epididymis	-13.119
▁Ganglion	-13.119
▁Gerota	-13.119
▁Hematurie	-13.119
▁Hypofyse	-13.119
▁Results	-13.119
▁afgeplat	-13.119
▁afgewerkt	-13.119
▁aggressief	-13.119
▁annulaire	-13.119
▁antistolling	-13.119
▁atrophicus	-13.119
▁autorisatie	-13.119
▁baby	-13.119
▁benoemen	-13.119
▁bevinden	-13.119
▁bifida	-13.119
▁bursitis	-13.119
▁chordoom	-13.119
▁coxartrose	-13.119
▁cystoscoop	-13.119
▁deciduitis	-13.119
▁fecoliet	-13.119
▁fulminant	-13.119
▁geinvolueerd	-13.119
▁gelobuleerd	-13.119
▁geprikt	-13.119
▁getransformeerd	-13.119
▁gluteus	-13.119
▁granulosum	-13.119
▁hemicolon	-13.119
▁hormonen	-13.119
▁length	-13.119
▁mamilla	-13.119
▁material	-13.119
▁melanofagocytos	-13.119
▁metaplasia	-13.119
▁multiloculair	-13.119
▁nasopharynx	-13.119
▁omschreven	-13.119
▁paraproteine	-13.119
▁perstans	-13.119
▁preservatie	-13.119
▁rekanalisatie	-13.119
▁rekening	-13.119
▁reversibel	-13.119
▁semenmonster	-13.119
▁sinistra	-13.119
▁subcostaal	-13.119
▁surfac	-13.119
▁symfyse	-13.119
▁toegepast	-13.119
▁trochanter	-13.119
▁vellushaar	-13.119
▁verandert	-13.119
▁vocalis	-13.119
ertheim	-13.119
ranscript	-13.119
rostaatchips	-13.119
woeker	-13.119
▁adenocarcinooom	-13.119
▁afwisselend	-13.119
▁endosalpingiose	-13.119
▁erytropoiese	-13.119
▁gelukt	-13.119
▁mononucleair	-13.119
▁omvang	-13.119
▁pauci	-13.119
▁perineaal	-13.119
▁potential	-13.119
▁vlekkerig	-13.119
Duidelijk	-13.119
▁Gastro	-13.119
▁Rosen	-13.119
▁acanto	-13.119
▁dyserytropoese	-13.119
▁megaloblast	-13.119
Dichtst	-13.119
giant	-13.119
▁seriesnede	-13.119
▁villusatrofie	-13.119
ihk	-13.119
▁aanwijsba	-13.119
▁dyskeratoom	-13.119
▁hypopigmentatie	-13.119
▁sclerosis	-13.119
▁zenuwstelsel	-13.119
Blue	-13.119
vascular	-13.119
▁frontoparietaal	-13.119
▁immaturiteit	-13.119
▁slijmmeren	-13.119
▁zenuwtakken	-13.119
▁repet	-13.119
gonad	-13.119
▁torsie	-13.119
lobair	-13.119
▁anthelix	-13.119
▁pulpa	-13.119
▁zonbeschadiging	-13.119
tophus	-13.119
▁hartkleppen	-13.119
▁katheter	-13.119
ihc	-13.119
▁tubulusschade	-13.119
▁harttamponade	-13.119
▁zelflimiterend	-13.119
fibrineuze	-13.119
▁subscapulair	-13.119
▁zoster	-13.119
cytiotrofoblast	-13.119
▁kernaankleuring	-13.119
nnende	-13.119
proportioneerde	-13.119
eutz	-13.119
arthrose	-13.119
▁prepatellair	-13.119
▁expositie	-13.119
▁glycogeen	-13.119
▁klepblad	-13.119
▁osteosclerose	-13.119
implantatie	-13.119
▁zitten	-13.119
sebaceous	-13.119
ussen	-13.119
▁hoort	-13.119
egher	-13.119
▁halonaevus	-13.119
▁multicysteus	-13.119
▁basaalmembranen	-13.119
▁vlek	-13.119
▁ingedikt	-13.119
▁verwisseling	-13.119
▁celloos	-13.119
▁ballooning	-13.119
▁heterotopi	-13.119
▁postero	-13.119
▁aut	-13.119
pider	-13.119
▁pseudojicht	-13.119
▁posttraumatisch	-13.119
▁empyeem	-13.119
▁kno	-13.119
▁seroomholte	-13.119
▁vaatlijden	-13.119
▁operatiegebied	-13.119
▁leiomyomatosus	-13.119
▁nierschorsbiopt	-13.119
Glaasje	-13.119
▁Herhal	-13.119
▁hippocampus	-13.119
▁asymmetrisch	-13.119
▁trilhaar	-13.119
▁report	-13.1191
ilexcurettage	-13.1191
▁schedelbasis	-13.1191
glottis	-13.1191
utation	-13.1191
▁mislukt	-13.1191
▁steato	-13.1191
▁reactivatie	-13.1191
▁solita	-13.1191
▁fibroompje	-13.1191
▁verwijding	-13.1191
Genotypering	-13.1191
▁abcesjes	-13.1191
▁scapulapunt	-13.1191
▁linkeradnex	-13.1191
stromacelsarcoom	-13.1191
▁nasopalatinus	-13.1192
▁retroareolair	-13.1192
▁oorsprong	-13.1192
zuigbiopten	-13.1192
▁longstuwing	-13.1192
▁lympho	-13.1192
▁craniomediaal	-13.1192
▁pharynx	-13.1192
▁peritoneaal	-13.1192
▁epidermotropie	-13.1192
erlies	-13.1192
▁verkeerd	-13.1192
▁steelgebied	-13.1192
supraglottis	-13.1192
ijsnijranden	-13.1192
▁ingu	-13.1193
figuren	-13.1193
▁barrett	-13.1193
▁bont	-13.1193
▁extremiteiten	-13.1193
▁hemangioompje	-13.1193
aortocavaal	-13.1193
dermatopatholoog	-13.1193
▁glandularis	-13.1193
lineage	-13.1193
▁ileumlis	-13.1193
▁tumidus	-13.1194
▁vriesbiopt	-13.1194
▁Cystebeeld	-13.1194
▁nierziekte	-13.1194
▁gehouden	-13.1194
sieke	-13.1194
celtumor	-13.1194
▁zenuwtakjes	-13.1195
▁ovarii	-13.1195
▁Blaasspoelvocht	-13.1195
ility	-13.1195
▁stenoserend	-13.1195
▁papillomavirus	-13.1195
▁topklier	-13.1195
▁lymfocyt	-13.1195
▁prostaathelft	-13.1196
▁cake	-13.1196
▁zetten	-13.1196
▁doorlopen	-13.1196
▁potentieel	-13.1196
curretage	-13.1196
▁slijmvorming	-13.1197
▁huidpunten	-13.1197
AFLD	-13.1198
▁Lateraal	-13.1198
▁intraparenchyma	-13.1198
monocytoid	-13.1198
▁rechterheup	-13.1198
▁venen	-13.1198
sned	-13.12
edeem	-13.12
▁kwantitatie	-13.12
▁restmelanoom	-13.1201
aemie	-13.1201
▁hieromtrent	-13.1201
▁duiding	-13.1201
cavitair	-13.1202
▁beantwoorden	-13.1202
▁mijten	-13.1202
kaakrand	-13.1202
▁littekenfibrose	-13.1202
▁perioral	-13.1202
▁Chole	-13.1203
▁Enterob	-13.1203
Inzending	-13.1203
okselkliertoilet	-13.1203
overweeg	-13.1203
lingsactiviteit	-13.1203
▁neuroma	-13.1204
▁fascia	-13.1204
▁radius	-13.1204
▁hoogdermaal	-13.1204
▁overgenomen	-13.1204
▁kraakbeentumor	-13.1204
▁zonelymfoom	-13.1204
disco	-13.1205
intestinalis	-13.1205
▁rechterelleboog	-13.1206
▁retrospectie	-13.1206
▁verkleuring	-13.1207
▁zweetklieren	-13.1208
▁linkertuba	-13.1208
▁sputum	-13.1209
▁scheen	-13.121
DHB	-13.121
▁chromosomen	-13.121
▁postmorta	-13.1211
▁polycythemi	-13.1211
Light	-13.1211
▁Colonbiopsie	-13.1212
ynov	-13.1212
▁randsinus	-13.1212
ineuze	-13.1213
▁zijsneerand	-13.1214
▁aansnijden	-13.1215
endometrioom	-13.1215
oorgemaakte	-13.1216
uentieonderzoek	-13.1217
maturiteit	-13.1218
▁buikspoelvocht	-13.1219
▁adnextumor	-13.1222
mediastinoscopie	-13.1222
▁lymklier	-13.1223
▁rechterpols	-13.1223
▁dominantie	-13.1224
▁sho	-13.1225
progr	-13.1226
lacentarest	-13.1227
verteerd	-13.1227
uitmonding	-13.1227
▁bijmilt	-13.1228
▁link	-13.1228
▁vesikels	-13.1229
▁ner	-13.123
▁kenn	-13.123
▁delenpanel	-13.1231
▁strookje	-13.1235
▁pancreasweefsel	-13.1235
▁Bartonella	-13.1235
▁longemfyseem	-13.1235
▁geactiveerd	-13.1235
▁trichoblastoom	-13.1235
▁Radiologisch	-13.1235
▁choroid	-13.1235
▁extensor	-13.1235
▁monoclonaliteit	-13.1235
▁problematiek	-13.1235
▁ruiterembolus	-13.1235
▁vacuolen	-13.1235
▁herstel	-13.1235
▁manifestatie	-13.1235
▁haematoom	-13.1235
▁mechanismen	-13.1236
▁pseudoinvasie	-13.1237
▁plaveis	-13.1237
xtracapillair	-13.1239
arch	-13.1239
▁zenuwbundels	-13.124
▁opties	-13.1241
ilex	-13.1243
▁vaatwanden	-13.1243
▁aggregaatje	-13.1247
▁pot	-13.1248
▁dysfunctione	-13.125
erpes	-13.1252
▁comp	-13.1253
▁leukocytoclasie	-13.1254
lijmvliesbiopsie	-13.1255
▁dextra	-13.1256
conc	-13.126
enom	-13.126
▁kinder	-13.1263
zing	-13.1265
tracheaal	-13.1267
▁transbronchia	-13.127
stasisdermatitis	-13.1271
interfolliculair	-13.128
▁leg	-13.1282
DHA	-13.1283
▁okselklier	-13.1284
▁debul	-13.1285
▁Dat	-13.1292
▁longbeeld	-13.1293
richoepithelioom	-13.1297
▁(0,2	-13.1304
Langerhanscel	-13.1305
▁nasolabia	-13.131
▁lingual	-13.131
▁rectumtumor	-13.1311
▁aortitis	-13.1314
▁gebonden	-13.1314
▁kweken	-13.1314
▁femoralis	-13.1314
▁windingen	-13.1314
▁acrochordon	-13.1314
▁kristalurie	-13.1314
▁inframammair	-13.1314
▁eindstadium	-13.1314
▁pijnlijk	-13.1316
▁maand	-13.1325
ternoclaviculair	-13.1325
▁mitoses	-13.1326
acurettage	-13.1331
ransbronchia	-13.1332
▁tegenover	-13.1332
▁endoresectie	-13.1333
richt	-13.1333
▁thrombi	-13.1333
tweelingplacenta	-13.1333
recurrens	-13.1341
▁bijnieren	-13.1345
▁pasen	-13.1347
tonen	-13.1351
▁ruimten	-13.1359
▁lintje	-13.1359
rag	-13.136
▁middenrug	-13.1363
ubacut	-13.1366
satellietlaesies	-13.1367
▁daarop	-13.1375
mmunotypering	-13.1381
▁resistent	-13.1386
▁leucocytoclas	-13.1386
pancreassnijvlak	-13.1387
]***	-13.1389
▁Hurthlecel	-13.1389
ysteuze	-13.139
▁will	-13.139
▁insuffici	-13.1393
▁apical	-13.1393
▁class	-13.1396
▁wortel	-13.1396
▁plastiek	-13.1396
pv	-13.14
▁dichts	-13.14
ruimingsreactie	-13.1401
▁vaginal	-13.1401
▁papilloompje	-13.1402
icrobiologisch	-13.1405
BAL	-13.141
ERDE	-13.141
plenectomie	-13.1414
iforme	-13.1417
bu	-13.1435
code	-13.1436
radial	-13.1448
▁ernaast	-13.1455
▁opruim	-13.1457
▁ureteren	-13.146
]**	-13.1463
▁aankleurings	-13.1463
21-02-201	-13.1467
egment	-13.1474
lymfklierstation	-13.1476
lac	-13.1476
▁cytometrie	-13.1479
▁targetbiopten	-13.1481
▁intron	-13.1482
iner	-13.1502
▁wijze	-13.1505
▁letsels	-13.1508
▁tumormetastase	-13.1511
strengen	-13.1515
▁loop	-13.1517
.01.20	-13.152
1112	-13.1531
atus	-13.1538
▁zwaar	-13.154
▁rim	-13.1542
▁bodembiopt	-13.1546
▁monochoria	-13.1547
Ras	-13.1558
▁cells	-13.1558
▁Epicrise	-13.1563
▁calcificerend	-13.1563
▁oesofageaal	-13.1563
-2020)	-13.1565
voeren	-13.1565
linkerenkel	-13.158
dcyste	-13.1591
▁tibiaal	-13.1595
-02-2020:	-13.1603
ming	-13.1609
enige	-13.1614
▁aanvoe	-13.1627
▁Du	-13.1641
▁scha	-13.165
reuze	-13.1651
-210	-13.1655
nierbiopt	-13.1657
Consultcoupe	-13.1665
22-20	-13.1666
ABC	-13.1672
hypertrofisch	-13.1673
nu	-13.1676
-0112	-13.1677
-0011	-13.1692
rius	-13.1696
alk	-13.1714
ties	-13.172
exi	-13.172
corpusmaag	-13.1721
▁lopen	-13.1733
▁villus	-13.1733
ata	-13.1746
10-11-1	-13.1748
tief	-13.1752
▁hit	-13.1754
ERG	-13.1755
py	-13.1775
folliculair	-13.1776
▁tumortype	-13.1785
assen	-13.1791
▁hyoid	-13.1797
▁wit	-13.1802
▁10-01-	-13.1819
naaldbiopsie	-13.1829
entigineuze	-13.1833
onem	-13.1838
cor	-13.1851
aangeda	-13.1865
▁wi	-13.1875
▁voetjes	-13.1876
sneden	-13.1884
▁caus	-13.1885
ziekten	-13.1889
groepje	-13.1889
22-021	-13.1893
▁cou	-13.1908
▁klinieken	-13.1909
ukocytoclastisch	-13.1914
yelum	-13.1927
omateus	-13.1928
▁01-02-	-13.193
rechterwenkbrauw	-13.1948
21-110	-13.195
rp	-13.1967
tri	-13.197
20-020	-13.1972
▁local	-13.1972
▁kracht	-13.1988
aantasting	-13.1992
bed	-13.1995
▁IgH	-13.2001
▁Receptor	-13.2009
▁hard	-13.2016
▁cardio	-13.2017
illi	-13.2025
▁doorvoer	-13.2027
leverbiopt	-13.204
▁lin	-13.2045
▁sta	-13.2046
▁ileocol	-13.2083
▁georganiseerd	-13.2089
ICH	-13.209
atieve	-13.2102
zenden	-13.2103
▁neoplastisch	-13.2105
▁Atypisch	-13.2107
▁verwijd	-13.2114
▁indefinit	-13.2116
▁psoriasiform	-13.2118
▁fo	-13.2119
▁laatst	-13.2125
▁immuunkleuring	-13.2127
ystewand	-13.2131
*2	-13.2134
▁uitgebreider	-13.2134
▁reacti	-13.2143
▁cervixuitstrijk	-13.2145
▁lu	-13.2164
▁my	-13.2167
▁recidiverend	-13.2169
-21):	-13.2175
▁epithelial	-13.2176
eceptoronderzoek	-13.2179
▁gro	-13.2182
wart	-13.219
▁Focus	-13.22
ulcerati	-13.2209
neoplasi	-13.2209
▁ben	-13.2212
rechteronderbuik	-13.222
hoorn	-13.2233
sterolkristallen	-13.2259
▁12-01-	-13.2259
iserend	-13.2267
nucle	-13.2302
functioneel	-13.2312
▁syndroma	-13.2321
arotispunctie	-13.2324
aling	-13.2324
rechterhand	-13.2331
profiling	-13.2363
rectaal	-13.2367
Immunocytochemi	-13.2373
▁fat	-13.2379
oorhuid	-13.2386
▁Adenomateu	-13.239
cyten	-13.2396
kenmerkende	-13.2403
ontale	-13.2415
▁bed	-13.2421
▁granulomatos	-13.2436
lentigineu	-13.2456
▁mitochondri	-13.246
▁huiduiteinde	-13.2484
derzijds	-13.2485
pathie	-13.2491
▁gl	-13.2518
rg	-13.2522
amine	-13.2535
stin	-13.2535
ance	-13.2536
▁exc	-13.2547
holten	-13.2561
tube	-13.2575
Lymfklierbiopsie	-13.2584
onster	-13.259
hier	-13.2606
weefselvorming	-13.2619
▁plaatste	-13.2632
oint	-13.2634
▁derm	-13.2635
bra	-13.2666
rticaria	-13.2676
▁02-12-	-13.2697
cellularis	-13.2702
komen	-13.2705
▁crust	-13.271
▁ni	-13.2715
Rest	-13.2727
▁sterker	-13.2728
tibiaal	-13.2746
hoek	-13.2751
calcificerend	-13.2753
Epicrise	-13.2753
systeem	-13.2753
Barret	-13.2758
producerend	-13.2758
oesofageaal	-13.2764
tumorpercentages	-13.2768
monocytose	-13.2769
termijn	-13.2771
Lymfeklierbiopt	-13.2771
duim	-13.2772
Hailey	-13.2774
cortex	-13.2775
marker	-13.2775
restant	-13.2776
areola	-13.2776
mutant	-13.2776
linkerarm	-13.2777
Grocott	-13.2777
Ewing	-13.2777
nodi	-13.2777
zich	-13.2777
invaginatie	-13.2778
Gefragmenteerd	-13.2778
radiatie	-13.2778
stapeling	-13.2779
gemeten	-13.2779
lokatie	-13.278
macro	-13.278
tubulusatrofie	-13.278
abdominale	-13.2781
▁ontbrekend	-13.2781
gerapporteerd	-13.2781
leurabiopt	-13.2782
intermediair	-13.2782
chondrosarcoom	-13.2782
dermoidcyste	-13.2783
indefinite	-13.2783
carcinoid	-13.2783
instabiliteit	-13.2783
Fuhrman	-13.2784
parasternaal	-13.2784
krabben	-13.2784
eiwitten	-13.2784
sarcomatoid	-13.2784
apocrien	-13.2785
ectocervix	-13.2785
stasis	-13.2785
zijkant	-13.2785
mesenterium	-13.2785
trachea	-13.2785
chirurg	-13.2786
rechterbil	-13.2786
colloid	-13.2786
intradermaal	-13.2786
urticariele	-13.2786
dubbelbrekend	-13.2786
hemicolectomie	-13.2786
submandibulair	-13.2786
portale	-13.2787
rechterslaap	-13.2787
collagene	-13.2787
relatie	-13.2787
celrijkdom	-13.2787
detecteert	-13.2787
Chronische	-13.2787
antistoffen	-13.2787
placentair	-13.2787
collageneuze	-13.2787
lichaamsvreemd	-13.2787
gekend	-13.2787
middermaal	-13.2788
hart	-13.2788
beschadiging	-13.2788
irritatie	-13.2788
centrum	-13.2788
onderkaak	-13.2788
uitrijping	-13.2788
Appendix	-13.2788
ndometriosecyste	-13.2789
histiocytoom	-13.2789
Cristabiopt	-13.2789
uitgesproken	-13.279
concordant	-13.279
galblaas	-13.279
moeilijk	-13.2791
▁nierfunctie	-13.2791
intradermale	-13.2791
residu	-13.2791
ontstekingsrest	-13.2791
cavum	-13.2792
ontstoken	-13.2792
perforatie	-13.2793
pleiomorf	-13.2793
Rectumbiopten	-13.2794
serie	-13.2794
multifocaal	-13.2795
wond	-13.2795
colorectaal	-13.2795
rechteroksel	-13.2796
▁submuceu	-13.2796
overwogen	-13.2797
velden	-13.2798
clonaliteits	-13.2799
minste	-13.2799
stenen	-13.2801
verdenking	-13.2804
Congorood	-13.2806
vals	-13.2807
▁stro	-13.2808
parti	-13.2811
pilair	-13.2812
afdeling	-13.2813
systematisch	-13.2814
sarco	-13.2817
Huidresectie	-13.2817
preputium	-13.2818
protocol	-13.2821
langs	-13.2821
toto	-13.2823
uitgaand	-13.2827
transformatie	-13.2827
mentectomie	-13.2832
nadere	-13.2832
▁veroorzaken	-13.2835
nabij	-13.2838
crypt	-13.2838
rib	-13.284
sporadisch	-13.284
Longbiopten	-13.2843
naad	-13.2844
fferent	-13.2852
myxoid	-13.2855
Crohn	-13.2858
anal	-13.2863
doch	-13.2866
Beide	-13.2867
segmenten	-13.2878
▁darmsnijvlak	-13.2883
20-000	-13.29
colonslijmvlies	-13.29
▁super	-13.2902
infa	-13.292
rectumbiopten	-13.2928
-221	-13.2935
▁opruiming	-13.2939
Hoe	-13.2939
▁parietaalcel	-13.2949
▁enzym	-13.2952
sdiagnose	-13.2954
megakaryopoiese	-13.2954
▁fissurer	-13.296
double	-13.2964
vooralsnog	-13.2968
▁laborator	-13.2975
Levernaaldbiopt	-13.2977
▁oxalaat	-13.2978
icht	-13.2983
▁Levernaald	-13.2983
ells	-13.2987
▁medio	-13.2992
▁eczema	-13.2993
ntrale	-13.2993
iter	-13.2996
LHL	-13.2997
▁2.2	-13.2997
▁progestage	-13.2998
▁dorso	-13.2999
▁cons	-13.3012
omo	-13.3013
weelingplacenta	-13.3017
▁mol	-13.3019
geheel	-13.3026
▁Hoofd	-13.3033
staan	-13.3043
zende	-13.3047
▁obturator	-13.3048
generatieve	-13.3052
▁20-02-	-13.3052
orum	-13.3056
inclusie	-13.3058
blad	-13.3063
▁afvoergang	-13.3066
maan	-13.3067
-11-21	-13.3067
▁vergelijk	-13.3076
adnextumortje	-13.3077
▁Hurthle	-13.3102
▁live	-13.3103
hemi	-13.3104
ylinderepitheel	-13.3108
phic	-13.3108
▁endomyocard	-13.3116
▁vaginabiopt	-13.3126
▁fout	-13.3129
lveolair	-13.3133
▁entero	-13.3138
tosis	-13.3141
uretra	-13.3142
model	-13.3144
aris	-13.3144
igen	-13.3149
ediastinoscopie	-13.315
▁berust	-13.3153
gem	-13.3154
mbryonaal	-13.3154
hul	-13.3155
tting	-13.3158
icrosatellieten	-13.316
usies	-13.316
ebruikt	-13.3165
▁wor	-13.3166
atelliet	-13.3167
▁splic	-13.3168
▁erythro	-13.3168
olitair	-13.3168
▁retrospect	-13.3169
tabiel	-13.317
▁schilfer	-13.3171
icrosatelliet	-13.3171
▁fiber	-13.3171
emorcelleerd	-13.3173
horaxwand	-13.3173
herapie	-13.3173
▁melanocyt	-13.3174
ntstekingsrest	-13.3174
dissemin	-13.3174
ericard	-13.3175
ntermediate	-13.3176
celkernen	-13.3177
▁oestroge	-13.3178
▁aanknoping	-13.3178
▁sneerand	-13.3178
▁kliertje	-13.3179
▁teleangi	-13.3179
▁vervet	-13.3179
lierdissectie	-13.318
pakket	-13.318
arcoma	-13.3181
ontstekingshaard	-13.3182
▁Entero	-13.3182
ositiv	-13.3182
anitumumab	-13.3182
ultifocaal	-13.3183
vullend	-13.3183
oelichting	-13.3183
clerotisch	-13.3184
korst	-13.3184
utane	-13.3185
upravaginale	-13.3185
ijranden	-13.3185
eborrhoisch	-13.3185
▁waa	-13.3185
essiel	-13.3185
▁Reflux	-13.3186
eassocieerde	-13.3186
obacter	-13.3186
trips	-13.3186
xanthoma	-13.3186
mbolus	-13.3186
organisme	-13.3186
omegalie	-13.3187
verleg	-13.3187
trope	-13.3187
▁Brunn	-13.3188
vonden	-13.3188
▁histiocyto	-13.3188
epithel	-13.3188
itralisklep	-13.3188
elanomen	-13.3188
iselcelcarcinoom	-13.3188
▁intro	-13.3188
isual	-13.3188
lowcytometrie	-13.3188
Beoordeel	-13.3189
loos	-13.3189
▁organo	-13.3189
ocrien	-13.3189
ificeerd	-13.3189
▁circu	-13.3189
eldzame	-13.3189
▁Hormo	-13.3189
▁present	-13.3189
condyl	-13.3189
▁farynx	-13.3189
amnionitis	-13.3189
▁megakaryopo	-13.3189
ratervormige	-13.319
▁fecal	-13.319
▁etmo	-13.319
stelsel	-13.319
▁descend	-13.319
▁Alzheimer	-13.319
▁cytolyt	-13.319
▁rhabdo	-13.319
curvatu	-13.319
plasmocellularis	-13.319
▁cryotherapie	-13.319
▁evidence	-13.319
▁hoeveelheden	-13.319
▁hydatidosa	-13.319
[...]
