<unk>	0
<s>	0
</s>	0
[PAD]	0
[UNK]	0
[CLS]	0
[MASK]	0
[C-SEP]	0
.	-2.86048
▁t	-3.42533
▁m	-3.43464
▁p	-3.55989
:	-3.96069
▁van	-4.10594
,	-4.11669
▁	-4.16225
▁met	-4.17809
▁de	-4.22867
▁een	-4.26848
▁in	-4.45808
e	-4.4871
▁het	-4.53569
11400	-4.63698
▁(	-4.66227
01000	-4.70394
▁en	-4.70971
▁tyy	-4.74067
-	-4.77282
▁geen	-4.8598
carcinoom	-4.87571
▁ty	-4.96747
11200	-5.02318
▁is	-5.2849
80903	-5.39728
▁basaalcel	-5.41421
990	-5.43954
▁adenocarcinoom	-5.44603
980	-5.44724
gedifferentieerd	-5.4843
▁rechts	-5.48653
▁links	-5.50879
)	-5.53823
▁i	-5.56154
▁voor	-5.56387
c	-5.565
▁vrij	-5.6031
81403	-5.61753
▁huidexcisie	-5.62892
▁bij	-5.64405
▁tumor	-5.65073
▁tot	-5.67971
sep	-5.71937
▁[	-5.72696
]	-5.72696
▁ii	-5.72717
▁niet	-5.75474
11100	-5.76441
04000	-5.81097
▁beeld	-5.81883
▁carcinoom	-5.83927
▁maligniteit	-5.84238
):	-5.86259
▁verwijderd	-5.88005
▁groeiend	-5.92999
▁zonder	-5.93657
m	-5.94943
▁cm	-5.97055
/	-6.04154
▁zijn	-6.06969
▁waarin	-6.08369
▁op	-6.12401
▁matig	-6.1548
le	-6.20272
s	-6.21153
▁er	-6.21793
).	-6.25949
▁huidbiopt	-6.26822
;	-6.29074
▁type	-6.29924
▁plaveiselcel	-6.30416
08000	-6.30945
▁biopten	-6.312
▁mamma	-6.3215
▁ontsteking	-6.32189
▁lymfklieren	-6.35203
▁linker	-6.35494
▁rechter	-6.38111
▁groei	-6.38244
t	-6.40081
▁biopt	-6.40606
80703	-6.41661
▁excisie	-6.43794
d	-6.44127
▁1	-6.44704
▁graad	-6.44889
▁solide	-6.47156
▁huid	-6.47311
▁mm	-6.48523
▁lokalisatie	-6.54646
▁2	-6.57696
deels	-6.57799
09410	-6.57985
▁goed	-6.60143
67000	-6.61045
▁radicaal	-6.61384
▁lymfklier	-6.63813
▁iii	-6.63869
▁metastase	-6.64541
▁*******	-6.65427
▁infiltrerend	-6.66577
▁aanwijzingen	-6.67995
▁nodulair	-6.69063
preparaat	-6.69438
▁of	-6.69556
▁positief	-6.70737
▁aan	-6.71482
0	-6.73274
▁dysplasie	-6.73552
▁d	-6.73735
09450	-6.74195
▁ductaal	-6.74921
77100	-6.75448
▁3	-6.76019
▁wordt	-6.76421
2	-6.77153
▁passend	-6.77873
▁te	-6.79126
▁dit	-6.81037
▁slecht	-6.818
▁uit	-6.82058
▁chronische	-6.8414
▁afwijkingen	-6.84204
▁prostaat	-6.85112
▁diameter	-6.8595
▁onderzoek	-6.88463
1	-6.89778
▁worden	-6.89906
▁materiaal	-6.90081
▁negatief	-6.90275
▁laesie	-6.90747
▁situ	-6.9202
▁ook	-6.92676
▁door	-6.92758
81406	-6.92974
00100	-6.93278
▁superficieel	-6.94275
▁focaal	-6.96519
▁aanvullend	-6.96757
▁uitgebreide	-6.97563
▁conform	-6.9898
en	-7.00601
.^	-7.00813
▁kan	-7.00843
▁aanvulling	-7.01723
74000	-7.03687
▁conclusie	-7.05383
▁resectievlak	-7.05995
▁als	-7.06203
▁naevus	-7.07216
▁geheel	-7.07354
▁maligne	-7.07648
▁reikend	-7.07768
▁bericht	-7.08691
▁dat	-7.08699
▁geringe	-7.09643
▁volgt	-7.13673
▁b	-7.14871
▁na	-7.16871
▁nog	-7.18224
▁sprieterig	-7.18484
▁resectie	-7.19616
10	-7.19911
a	-7.20924
▁gezien	-7.21914
▁localisatie	-7.23031
40000	-7.23051
▁carcinoma	-7.23226
p	-7.25037
▁onder	-7.25487
1100	-7.26081
n	-7.26699
3	-7.27729
83000	-7.27837
▁weinig	-7.28677
▁4	-7.28953
63000	-7.28986
▁passen	-7.29863
biopten	-7.30146
▁zie	-7.31543
8100	-7.31657
▁waar	-7.3219
▁past	-7.32368
▁toto	-7.33367
▁deze	-7.33651
▁vetweefsel	-7.34109
▁papillair	-7.34232
▁veranderingen	-7.34785
▁waarschijnlijk	-7.35735
▁rug	-7.36619
de	-7.36668
▁her	-7.3747
85003	-7.38346
▁zeer	-7.38717
▁ter	-7.39698
▁resectievlakken	-7.39834
38001	-7.39986
▁melanoom	-7.40002
receptor	-7.40274
▁mogelijk	-7.40403
bus	-7.40936
▁lymfoom	-7.40988
0100	-7.42061
28000	-7.43036
▁endometrium	-7.44011
09340	-7.44713
▁invasief	-7.44844
al	-7.46332
▁afkomstig	-7.47065
▁oestrogeen	-7.47079
▁invasieve	-7.47227
▁marge	-7.47303
▁beide	-7.47805
▁dan	-7.48866
84000	-7.49279
histochemisch	-7.49618
▁mor	-7.50569
▁alle	-7.51055
▁aanwezig	-7.513
▁f	-7.51374
▁reikt	-7.51522
▁toont	-7.52146
evens	-7.52279
68000	-7.53209
0200	-7.54199
▁revisie	-7.54279
ty	-7.54372
11281	-7.54682
▁weefsel	-7.56346
▁aangetroffen	-7.56842
▁iv	-7.56929
van	-7.57662
9000	-7.58967
▁plaatselijk	-7.59063
tekenen	-7.59262
wel	-7.59337
▁atypie	-7.59398
▁colon	-7.59531
▁snijvlak	-7.59539
naar	-7.59866
▁urotheelcel	-7.6034
▁5	-7.60858
▁afwijking	-7.61006
▁diagnose	-7.61129
09420	-7.6132
neu	-7.62009
▁actieve	-7.62029
▁progesteron	-7.63348
▁reactieve	-7.63638
▁betreft	-7.64096
▁twee	-7.64543
000	-7.64806
▁duidelijk	-7.65038
▁eerder	-7.65995
▁hier	-7.66379
▁voorhoofd	-7.66924
06000	-7.67058
f	-7.6739
▁coupes	-7.67734
▁adenoom	-7.68218
▁wang	-7.68529
ii	-7.68574
▁snijvlakken	-7.68751
▁naevocellularis	-7.69651
▁biopsie	-7.69938
▁volgen	-7.69966
x	-7.70353
▁v	-7.70407
87000	-7.7144
▁a	-7.71578
▁histologisch	-7.72756
21000	-7.72835
▁oppervlakkig	-7.73641
▁component	-7.73841
▁enkele	-7.74009
▁infiltratie	-7.75154
▁slijmvlies	-7.76676
80102	-7.76863
▁kleine	-7.7729
▁oksel	-7.77557
43000	-7.78215
38200	-7.78233
87200	-7.78477
▁krap	-7.78552
▁atypische	-7.79538
▁klinisch	-7.79984
▁maar	-7.8003
v	-7.80349
▁6	-7.80636
▁grootcellig	-7.807
▁aanvullende	-7.80844
▁sneevlak	-7.81038
▁bodem	-7.81252
▁totaal	-7.81663
0300	-7.81694
▁pt	-7.81745
▁cervix	-7.82068
),	-7.83735
▁metaplasie	-7.83825
80812	-7.84056
▁gleason	-7.84397
82000	-7.84401
▁metastasen	-7.84528
▁werd	-7.84823
▁lijkt	-7.84921
▁hyperplasie	-7.84964
31000	-7.84971
11102	-7.85213
0600	-7.85503
95903	-7.86085
▁ulceratie	-7.8612
▁verdacht	-7.8676
dermale	-7.86803
11430	-7.87561
30700	-7.88456
▁waarbij	-7.88471
80003	-7.88802
▁klein	-7.90132
▁preparaat	-7.90156
▁gevonden	-7.9058
▁score	-7.90778
▁c	-7.90818
excisie	-7.91064
▁bowen	-7.91162
80106	-7.91192
▁basocellulair	-7.91503
▁wel	-7.91795
▁doorgroei	-7.92049
i	-7.92264
▁enige	-7.93406
▁over	-7.93491
▁cellen	-7.93556
▁infiltratiev	-7.93657
▁sterk	-7.93843
11282	-7.94326
▁hals	-7.94654
b	-7.95224
▁verder	-7.95268
▁lobulair	-7.95661
▁uur	-7.958
?	-7.95873
▁ovarium	-7.96192
▁-	-7.96304
▁muscularis	-7.9658
invasieve	-7.96741
▁verruca	-7.97557
▁kleincellig	-7.97917
80103	-7.98213
.^^	-7.98558
▁blaas	-7.98649
▁huidbiopsie	-7.98856
▁prostaatbiopten	-7.99098
naaldbiopten	-7.99752
26000	-7.99888
▁epitheel	-7.99909
▁poliep	-8.00004
▁kenmerken	-8.0028
▁hierin	-8.00587
2100	-8.00598
▁long	-8.0066
▁laterale	-8.01009
▁immuno	-8.01047
▁temporaal	-8.01359
▁naaldbiopten	-8.01496
▁keratosis	-8.01588
▁7	-8.01693
▁+	-8.01703
▁nader	-8.01944
▁helicobacter	-8.02747
▁groeiwijze	-8.02954
85002	-8.02978
▁non	-8.03014
▁distale	-8.03685
▁zo	-8.03782
56000	-8.04
0110	-8.04315
72850	-8.04701
▁beenmerg	-8.04854
▁resectieranden	-8.05543
▁maag	-8.05724
cm	-8.05745
▁uitbreiding	-8.0581
▁ingroei	-8.06053
▁*******/	-8.06557
▁tur	-8.06723
▁perineurale	-8.06839
▁primair	-8.06977
▁maxima	-8.07187
▁/	-8.07414
▁matige	-8.0791
87203	-8.07926
62000	-8.07952
▁dcis	-8.08019
▁lumpectomie	-8.08415
▁10	-8.08503
h	-8.08583
▁seborrhoica	-8.08656
00021	-8.09767
▁echter	-8.09779
▁immuun	-8.09893
6	-8.11022
▁gelegen	-8.11063
30720	-8.1126
▁h	-8.11746
01710	-8.12405
▁e	-8.12624
▁onderbeen	-8.12904
zie	-8.12905
▁meer	-8.12923
▁actinica	-8.13164
▁multifocaal	-8.1356
▁invasie	-8.13741
▁propria	-8.13922
▁groot	-8.14691
▁patient	-8.16249
67700	-8.16279
▁txy	-8.16373
▁2.	-8.16434
▁boven	-8.16605
▁rest	-8.16764
▁snijranden	-8.17133
72750	-8.17474
▁zeker	-8.18211
▁daarin	-8.18691
▁uterus	-8.1885
g	-8.19063
1000	-8.19204
tal	-8.19419
▁uitslag	-8.20084
▁tumorcellen	-8.20377
▁overwegend	-8.2041
▁rectum	-8.2056
▁onderzocht	-8.21988
▁laaggradig	-8.22218
▁sterke	-8.22685
ing	-8.23255
▁proliferatie	-8.23371
▁plaatse	-8.23394
▁bekend	-8.23594
▁volledig	-8.23655
00010	-8.24233
▁delen	-8.24647
rechts	-8.24705
▁mammacarcinoom	-8.25128
materiaal	-8.25155
▁pr	-8.25167
▁kunnen	-8.25395
▁lateraal	-8.25536
▁die	-8.25887
cel	-8.2602
74008	-8.27146
tenminste	-8.2716
▁wa	-8.27291
8000	-8.2733
▁12	-8.27396
00060	-8.27592
4100	-8.27812
▁re	-8.27864
▁receptor	-8.2787
11110	-8.2804
▁micro	-8.28208
als	-8.28461
▁intestinal	-8.28652
81203	-8.28932
▁centraal	-8.29037
▁8	-8.29082
▁primaire	-8.29261
▁keratose	-8.29392
▁sneevlakken	-8.29532
ale	-8.2972
5	-8.29882
links	-8.3008
▁specifieke	-8.30108
▁tubulair	-8.30324
▁9	-8.30328
▁schouder	-8.30411
0150	-8.30622
▁actinisch	-8.30755
▁afstand	-8.31701
resectie	-8.31775
in	-8.31836
▁g	-8.3199
▁deel	-8.32063
11480	-8.32125
71000	-8.32153
▁definitieve	-8.32216
▁n	-8.32308
▁tumorweefsel	-8.32879
▁minimale	-8.33233
7	-8.33783
▁u	-8.33807
▁overige	-8.33812
1220	-8.33825
▁=	-8.33986
▁differentiatie	-8.3431
▁derhalve	-8.34472
▁diffuus	-8.34952
▁ruim	-8.35223
▁node	-8.35327
▁grote	-8.35417
▁aangetoond	-8.35428
positieve	-8.3543
▁basis	-8.35511
384	-8.35547
▁neus	-8.36002
▁sigmoid	-8.36065
▁uitgebreid	-8.36089
▁coupe	-8.36357
11145	-8.36392
▁bedraagt	-8.36393
▁basale	-8.36435
▁minder	-8.36593
▁1.	-8.36803
▁elders	-8.37363
▁zijde	-8.37643
▁consult	-8.37699
▁vriescoupe	-8.37703
▁verricht	-8.38098
▁hodgkin	-8.38777
▁hyperplastisch	-8.38854
▁spierweefsel	-8.38858
57000	-8.39355
▁infiltratief	-8.39463
▁oppervlakkige	-8.39528
▁we	-8.39773
▁randen	-8.39942
▁ernstige	-8.40533
ve	-8.40671
▁onvoldoen	-8.41014
mm	-8.41269
level	-8.41865
▁sentinel	-8.42079
▁proces	-8.42455
▁voorts	-8.42489
▁bronchus	-8.42653
▁dd	-8.42701
▁dieper	-8.42976
20	-8.42987
▁*******,	-8.43067
4	-8.43509
graad	-8.43525
▁darm	-8.43692
▁clark	-8.4381
▁ten	-8.44312
11320	-8.44458
biopt	-8.44462
▁beiderzijds	-8.44509
diameter	-8.44636
▁stroma	-8.45246
▁s	-8.4542
▁naast	-8.45868
49060	-8.46043
▁naaldbiopt	-8.46496
87500	-8.46577
▁eerste	-8.47154
▁verhoornend	-8.47161
▁oesophagus	-8.47507
▁rand	-8.47513
metastasen	-8.47608
▁beoordelen	-8.47655
▁lichte	-8.48218
▁huidstans	-8.48732
▁txx	-8.48789
▁bovenkwab	-8.49097
resectievlak	-8.49692
▁retour	-8.50961
▁hemicolectomie	-8.50983
▁on	-8.51026
▁cyste	-8.51066
▁corpus	-8.51228
▁chirurgisch	-8.51542
▁mutatie	-8.51908
▁oor	-8.52013
72000	-8.52112
weefsel	-8.52194
76800	-8.52657
▁dikke	-8.52664
▁proximale	-8.52715
▁huidstukje	-8.53015
▁angio	-8.53207
50100	-8.53301
▁ver	-8.53454
invasie	-8.54323
▁ontvangt	-8.5438
03020	-8.54381
31430	-8.54382
▁microscopie	-8.54403
▁maagslijmvlies	-8.54411
doch	-8.54588
aligniteitsgraad	-8.54982
▁drie	-8.55054
score	-8.55162
▁diepe	-8.55291
▁om	-8.55379
▁compact	-8.55546
▁dunne	-8.55579
00022	-8.56137
(	-8.56182
▁ulcererend	-8.56202
06520	-8.56759
▁aanwezigheid	-8.56769
▁tumorvrij	-8.56806
▁chronisch	-8.56807
▁bovenarm	-8.56856
▁bovenbeen	-8.56887
▁serosa	-8.57041
▁recidief	-8.57043
us	-8.57312
▁mai	-8.57544
▁lokaal	-8.57926
▁compleet	-8.58088
▁cd	-8.58102
▁ca	-8.58161
▁pleura	-8.58229
▁tx	-8.59062
▁omentum	-8.59688
▁spreidend	-8.60354
40030	-8.60355
▁uitgesloten	-8.60361
▁overtuigende	-8.60521
▁max	-8.60756
▁superficiele	-8.61012
slijmvlies	-8.61259
rechter	-8.61265
▁extranoda	-8.61531
▁vi	-8.61969
euze	-8.62064
r	-8.62169
▁vet	-8.62243
▁ge	-8.62308
8200	-8.62421
▁oppervlak	-8.62469
▁borst	-8.62662
▁status	-8.62668
▁gebied	-8.62707
▁hoog	-8.62892
▁nodulaire	-8.63021
▁zich	-8.63475
▁breslow	-8.63543
▁voorkeur	-8.63862
▁bevindingen	-8.64167
ze	-8.64265
▁vaso	-8.64285
▁aantal	-8.64311
03000	-8.64386
el	-8.64561
▁nr	-8.64829
linker	-8.65128
▁pre	-8.65356
▁sprake	-8.65401
▁bloom	-8.6553
▁kleuringen	-8.65544
re	-8.65647
9	-8.65802
8	-8.65813
66000	-8.66057
▁aantoonbaar	-8.66711
▁tubulovilleus	-8.66714
▁1,5	-8.66827
▁pylori	-8.67423
100	-8.67533
▁classificatie	-8.68009
▁daarnaast	-8.68026
▁zou	-8.68038
▁dikte	-8.68139
▁slaap	-8.68156
▁fibrose	-8.6866
▁dermis	-8.68707
▁mediaal	-8.68902
30701	-8.69361
970	-8.69816
▁metastatisch	-8.70592
▁meerdere	-8.70729
▁litteken	-8.70828
▁tonen	-8.71233
06500	-8.71406
64300	-8.71408
▁welke	-8.71438
▁mediale	-8.7165
▁analyse	-8.72078
▁onderarm	-8.72232
▁coeur	-8.72382
▁q	-8.72593
99999	-8.72787
▁kapseldoorbraak	-8.72803
▁samengesteld	-8.72818
▁diep	-8.73164
37000	-8.73553
▁respectievelijk	-8.73702
▁urotheel	-8.73704
▁richardson	-8.73769
o	-8.73805
carcinoma	-8.74185
▁atrofie	-8.74209
▁reexcisie	-8.74211
amputatie	-8.74271
iii	-8.74278
▁necrose	-8.74349
▁moleculair	-8.74906
▁colonslijmvlies	-8.75218
▁klier	-8.75476
▁slijmvormend	-8.7562
▁zekerheid	-8.7564
▁dank	-8.75648
squameuze	-8.76237
onderzoek	-8.76426
▁radicaliteit	-8.76866
▁eveneens	-8.77058
▁morfologisch	-8.77064
11340	-8.77792
▁dysplastische	-8.78157
2000	-8.78483
▁fragmenten	-8.78515
▁adenocarcinoma	-8.78538
▁midden	-8.7883
▁verdenking	-8.79263
▁verslag	-8.80106
▁hoofd	-8.80689
9400	-8.80787
▁ongeveer	-8.80815
▁plaats	-8.80857
▁tussen	-8.80946
j	-8.81113
heid	-8.81297
▁bepaling	-8.81323
▁15	-8.81766
▁folliculair	-8.82338
lijmvliesbiopten	-8.8234
▁geexcideerd	-8.83052
▁sereus	-8.83117
11	-8.83302
▁antrum	-8.83681
2300	-8.83812
▁focus	-8.83834
▁overwogen	-8.83834
mw	-8.83926
4400	-8.84016
▁acute	-8.84043
receptorbepaling	-8.84054
bekende	-8.84188
▁x	-8.84347
▁cin	-8.84661
▁name	-8.84708
▁differentiaal	-8.85403
▁gaarne	-8.85427
▁intra	-8.85943
▁hierover	-8.8622
▁grootste	-8.86323
▁toch	-8.86338
y	-8.86423
1140	-8.86631
▁aanwijzing	-8.86902
▁weke	-8.8695
▁gedacht	-8.86989
klierdissectie	-8.87343
zal	-8.87488
7000	-8.87697
geen	-8.87854
▁vier	-8.87921
▁groeit	-8.88213
▁k	-8.88457
▁achter	-8.88582
▁classificeren	-8.8863
▁vermoedelijk	-8.88796
▁duodenum	-8.89015
▁20	-8.89086
▁extern	-8.89374
▁tweede	-8.89676
▁ablatio	-8.89698
▁overgangscel	-8.89827
z	-8.90087
▁littekenweefsel	-8.90279
▁neusvleugel	-8.90406
mede	-8.90408
metastase	-8.90582
▁extra	-8.90655
▁adnex	-8.90885
auriculair	-8.91064
32394	-8.91089
▁ontstaan	-8.9109
11000	-8.9111
▁evident	-8.91142
2-	-8.91508
tumorlokalisatie	-8.9159
85203	-8.91933
▁blijft	-8.91937
▁behouden	-8.91953
▁appendix	-8.92021
laveiselepitheel	-8.92056
lokalisatie	-8.92196
▁z	-8.92907
▁meest	-8.93656
▁2,5	-8.93682
▁galblaas	-8.93742
▁diepte	-8.93992
81273	-8.94493
82110	-8.94493
tumor	-8.94497
86100	-8.94498
▁buik	-8.94836
▁voorlopige	-8.95057
▁vermeld	-8.95417
▁dr	-8.95708
▁was	-8.95773
▁beenmergbiopt	-8.96205
▁doorsnede	-8.96286
ste	-8.96479
80011	-8.97128
▁net	-8.97155
▁0,5	-8.97173
▁werden	-8.97427
▁ons	-8.97552
80973	-8.98018
02110	-8.98018
▁separaat	-8.98053
▁ascendens	-8.98053
▁fors	-8.98078
mx	-8.98545
▁afmeting	-8.98898
42100	-8.98977
▁veel	-8.98979
▁uiteinden	-8.98998
▁definitief	-8.99026
▁regressie	-8.99827
▁beoordeling	-9.00038
▁andere	-9.00063
▁wegen	-9.00193
▁kleuring	-9.00335
▁onbekend	-9.00499
▁darmslijmvlies	-9.00548
74006	-9.00747
77	-9.00819
▁hoogte	-9.01696
▁diagnostisch	-9.02062
▁3.	-9.02453
▁myometrium	-9.02599
▁heeft	-9.02605
87206	-9.02606
▁tepel	-9.02612
▁bindweefsel	-9.02615
▁11	-9.02647
▁overgang	-9.02764
▁pathologie	-9.02977
▁omgevend	-9.03013
oom	-9.03166
▁ik	-9.03197
▁per	-9.03263
▁0	-9.03263
▁lever	-9.03276
▁okseltop	-9.03369
▁coecum	-9.03536
▁cytologisch	-9.0355
▁ductale	-9.03764
tyy	-9.04005
▁lymfangio	-9.04221
▁best	-9.04335
▁stukje	-9.04413
▁hebben	-9.04501
64000	-9.04532
24000	-9.04552
▁partiele	-9.0457
▁onderkwab	-9.05216
▁ureter	-9.05448
30730	-9.05464
11260	-9.05472
▁basocellulare	-9.05478
▁betreffende	-9.05512
▁adnexen	-9.05576
▁nier	-9.05582
▁prostaatweefsel	-9.05652
96000	-9.06472
▁ziekenhuis	-9.06488
▁rectosigmoid	-9.06549
▁lymfeklier	-9.06701
op	-9.06713
▁hooggradig	-9.06995
▁schildklier	-9.07228
▁grond	-9.07443
▁overgangsepi	-9.07887
▁zien	-9.08164
▁lies	-9.08234
▁gemarkeerde	-9.08668
▁colonbiopten	-9.08721
▁geven	-9.08779
▁mucosa	-9.08846
▁patiente	-9.09133
▁dankzegging	-9.09413
32200	-9.09415
okselkliertoilet	-9.09446
▁kapsel	-9.09461
▁distaal	-9.09508
schildwachtklier	-9.09729
▁2:	-9.10238
8700	-9.10279
▁mucineus	-9.10491
80100	-9.10535
2/	-9.10593
▁neusrug	-9.10638
▁fragment	-9.10639
▁maagbiopten	-9.10669
▁der	-9.1086
type	-9.11069
▁nummer	-9.11196
▁haard	-9.11358
▁eventue	-9.11435
88300	-9.11443
▁wij	-9.11455
▁lentigo	-9.11491
▁pancreas	-9.11811
▁uteri	-9.12456
▁argumenten	-9.12475
▁bestaande	-9.12715
▁mammaweefsel	-9.12794
uterusextirpatie	-9.13095
▁beperkt	-9.13405
30721	-9.13509
33400	-9.13509
49000	-9.13616
curettement	-9.13889
theelcarcinoom	-9.14032
tumorlocalisatie	-9.14172
dr	-9.14199
rug	-9.14359
▁epitheliale	-9.14404
80413	-9.1456
▁buitenoppervlak	-9.14588
▁reeds	-9.14608
▁egfr	-9.14619
▁benigne	-9.14649
▁16	-9.1494
▁urineblaas	-9.14953
▁procedure	-9.15038
▁beginnend	-9.15486
▁okselvet	-9.15611
▁opvallend	-9.15624
88900	-9.15626
▁geinkte	-9.15688
▁gering	-9.15747
▁dus	-9.15912
▁licht	-9.16001
▁moet	-9.16293
01100	-9.16743
▁plaatsen	-9.1702
6,	-9.17097
▁submucosa	-9.17729
nr	-9.17731
▁blokje	-9.17779
▁endocervicale	-9.17796
▁buiten	-9.17846
▁even	-9.17885
▁13	-9.17894
▁oog	-9.17905
▁expressie	-9.18004
▁neuro	-9.18642
80706	-9.18885
32201	-9.18886
▁aspect	-9.18911
5,	-9.19044
▁lymfeklieren	-9.19057
gleason	-9.19534
▁af	-9.19663
▁beoordeelbaar	-9.19996
06530	-9.20001
▁telefonisch	-9.20093
00	-9.20145
▁ih	-9.20271
▁gradering	-9.20307
l	-9.20398
▁18	-9.20816
▁punctie	-9.2093
knopingspunten	-9.21119
4750	-9.21126
▁dermatofibroom	-9.21129
▁helft	-9.21157
▁tumoren	-9.21158
▁maximaal	-9.21304
namelijk	-9.21618
▁14	-9.21624
▁pa	-9.22034
▁tuba	-9.22178
80	-9.22453
▁excisiebiopt	-9.22856
nog	-9.23025
9100	-9.23139
96	-9.23209
▁epidermis	-9.23397
▁normaal	-9.23406
63010	-9.23411
▁diagnostiek	-9.23415
▁hoe	-9.23549
▁craniaal	-9.23591
▁radical	-9.23603
epitheel	-9.2421
▁bevat	-9.24551
▁gastritis	-9.24615
▁prostatectomie	-9.24629
▁bronchusbiopten	-9.24788
cellymfoom	-9.25003
70	-9.25283
biopsie	-9.25421
▁beschadigd	-9.25744
11290	-9.25751
▁archief	-9.25773
▁hoeveel	-9.25774
▁reactief	-9.25798
k	-9.25885
▁circ	-9.26124
▁bespreking	-9.26277
▁exon	-9.26944
▁25	-9.27034
▁peritoneum	-9.27138
▁hiervan	-9.27202
circumferentiele	-9.2743
▁1,2	-9.27554
te	-9.27812
97323	-9.2814
▁gehe	-9.28175
▁transversum	-9.28193
▁3,5	-9.28255
▁17	-9.28267
▁huidresectie	-9.28303
▁geb	-9.29282
72040	-9.2936
▁para	-9.29369
▁huidstansbiopt	-9.29404
▁fish	-9.29544
celcarcinoom	-9.29578
▁plaveisel	-9.29663
▁msi	-9.29665
▁klieren	-9.29703
▁3,	-9.29748
um	-9.29891
▁diam	-9.2995
▁wand	-9.30021
▁(*******	-9.30079
▁uiteinde	-9.30539
▁basalioom	-9.30594
▁colitis	-9.30605
▁hpv	-9.30672
▁nee	-9.31042
810	-9.31261
▁maligna	-9.31406
'	-9.31692
82630	-9.31844
81263	-9.31844
▁relatie	-9.31847
▁opzicht	-9.31854
67100	-9.31854
▁uitspraak	-9.31857
▁resectierand	-9.31937
▁tnm	-9.32024
▁frontaal	-9.32034
▁beste	-9.32068
▁atypisch	-9.32076
▁regio	-9.32127
▁gleasonscore	-9.32218
w	-9.32413
▁loca	-9.32603
localisatie	-9.32712
▁2,	-9.32977
▁kader	-9.3311
▁adenomateuze	-9.33122
53000	-9.33144
▁thorax	-9.33256
tische	-9.33284
huidexcisiebiopt	-9.33443
is	-9.33704
▁1:	-9.33894
02307	-9.34392
▁leukemie	-9.344
390	-9.34495
24400	-9.34577
▁l	-9.34625
▁blaasslijmvlies	-9.35271
▁snijrand	-9.35686
74007	-9.35691
clusief	-9.35929
▁stukjes	-9.35982
ns	-9.36284
er	-9.3634
▁resten	-9.36375
▁receptoren	-9.36434
datum	-9.36649
band	-9.36804
▁dicht	-9.36839
bowenoide	-9.3699
80123	-9.37009
▁stansbiopt	-9.37013
▁centrum	-9.37018
▁bevatten	-9.37046
▁sluiten	-9.37049
▁uitgaande	-9.37257
uit	-9.37424
dikte	-9.37534
29000	-9.37677
onder	-9.37907
▁kerato	-9.37943
resectievlakken	-9.38008
component	-9.38224
▁pat	-9.38261
â	-9.3834
▁kahler	-9.38351
▁melanoma	-9.38352
▁intradermale	-9.38446
▁origine	-9.38457
4,	-9.39494
hyperplasie	-9.39496
▁botbiopt	-9.39602
behaarde	-9.39691
33410	-9.39693
81400	-9.39705
06510	-9.39711
▁wenkbrauw	-9.39767
▁anaplastisch	-9.39767
▁ingenomen	-9.39814
negatieve	-9.39903
▁rectumbiopten	-9.39963
▁dermatitis	-9.40264
ad	-9.40557
marge	-9.40813
▁richting	-9.41044
ullen	-9.4106
99893	-9.41061
▁mitosen	-9.41073
▁gaat	-9.41115
▁juist	-9.41116
▁iliaca	-9.41119
▁dubieus	-9.41124
▁subcutis	-9.41138
▁urethra	-9.41138
▁syndroom	-9.41181
▁ongewijzigd	-9.41204
▁puntjes	-9.41206
▁glandulaire	-9.4129
filtratiediepte	-9.41334
▁epiderma	-9.41756
▁dorsal	-9.42204
▁stemband	-9.42279
▁lymf	-9.42457
▁goedaardig	-9.42462
▁rond	-9.42473
▁minimaal	-9.42484
31600	-9.42507
58000	-9.42531
▁ooghoek	-9.4255
▁nabij	-9.42576
▁blaasbiopten	-9.42774
8500	-9.42997
▁maagantrum	-9.43006
▁naaldbiopsie	-9.43136
endocrien	-9.4353
▁urine	-9.43624
excisiepreparaat	-9.43795
▁kenmerkend	-9.43824
▁necrotisch	-9.43858
81253	-9.43858
87600	-9.4386
▁endometrioid	-9.43874
▁niveau	-9.43888
▁oorschelp	-9.44069
▁kras	-9.44071
▁curettement	-9.44452
▁enig	-9.44456
▁extirpatie	-9.44606
▁cristabiopt	-9.44769
▁ulcererende	-9.45149
▁fascie	-9.45255
▁heldercellig	-9.45322
▁4,5	-9.45352
▁keratine	-9.45458
▁handrug	-9.45468
▁reactie	-9.45511
specifieke	-9.45812
▁hooggradige	-9.4611
▁30	-9.4616
▁nu	-9.46402
▁basaal	-9.46684
▁melanocytair	-9.46762
▁sigmoidresectie	-9.46869
▁apex	-9.46957
▁been	-9.47387
eerd	-9.47503
▁hormoonreceptor	-9.47959
▁mede	-9.47968
▁barrett	-9.48012
▁bot	-9.48067
▁j	-9.48103
▁ileum	-9.48139
0490	-9.48224
▁controle	-9.48266
▁tumorpositief	-9.48279
▁aankleuring	-9.48285
▁proximaal	-9.48336
▁dorsaal	-9.48337
na	-9.48448
▁ductcarcinoom	-9.48472
▁arm	-9.48557
41000	-9.48673
▁endocervix	-9.49197
▁curettage	-9.49273
▁peri	-9.49364
▁21	-9.49395
▁enkel	-9.4963
▁placenta	-9.49681
80711	-9.49699
97183	-9.49699
▁ontvangen	-9.49699
▁atrofisch	-9.497
63600	-9.49701
73000	-9.49704
▁gevolg	-9.49735
▁blaashals	-9.49736
▁low	-9.49738
▁zijsnijranden	-9.49743
▁panel	-9.49776
naaldbiopt	-9.49784
▁laboratorium	-9.49831
59000	-9.49858
▁flank	-9.49864
▁gelaat	-9.49926
-2	-9.49945
voor	-9.5001
01502	-9.50066
veranderingen	-9.50622
acanthoom	-9.51074
▁coloncarcinoom	-9.51095
▁vorm	-9.51098
▁daar	-9.51126
▁zodat	-9.51218
88500	-9.5124
▁bovenkwadrant	-9.51275
52000	-9.51298
78000	-9.51304
88000	-9.51348
▁neuspunt	-9.51422
-1	-9.51678
▁behandeling	-9.52496
▁poliepje	-9.52734
▁inzage	-9.52753
▁omgeving	-9.52753
80913	-9.52753
▁komt	-9.52757
▁aangrenzend	-9.52781
▁invasiediepte	-9.52876
▁ontstekingsrest	-9.52934
▁nek	-9.52999
▁bovenlip	-9.53012
mmunohistochemie	-9.53132
▁(3	-9.53153
▁kin	-9.53345
▁blijk	-9.53499
▁lymfoide	-9.53913
▁spierlaag	-9.54316
▁aangegeven	-9.54316
▁verspreid	-9.54329
▁arteria	-9.54384
▁ika	-9.54455
▁zover	-9.54486
▁pathologisch	-9.54631
▁zijdigheid	-9.55106
1310	-9.55263
▁zij	-9.55438
proliferatie	-9.55671
▁who	-9.55713
cin	-9.55797
▁bloed	-9.55816
stantie	-9.55903
▁beschouwd	-9.55909
▁onderliggend	-9.55912
69700	-9.55924
classificatie	-9.55949
▁tegen	-9.55999
49990	-9.56005
▁fibroserende	-9.56006
30	-9.56166
▁19	-9.56265
▁resp	-9.56483
▁o	-9.56512
^	-9.5676
▁*******:	-9.57039
iv	-9.57272
pcl	-9.57443
▁anus	-9.57447
▁ingreep	-9.57515
▁nefrectomie	-9.5753
10180	-9.57562
▁zwelling	-9.5758
▁zwak	-9.57656
▁leiomyoom	-9.57658
▁gram	-9.57738
▁lengte	-9.57918
500	-9.58043
▁mei	-9.58335
▁celrijk	-9.58686
▁letsel	-9.58969
010	-9.5901
▁beschreven	-9.59155
▁mesothelioom	-9.59155
81313	-9.59155
87422	-9.59155
▁lichen	-9.59169
ak	-9.59227
51000	-9.59256
▁beperkte	-9.59332
▁0,8	-9.59383
▁%	-9.59465
▁ovaria	-9.59527
▁appendicitis	-9.59565
▁vii	-9.59801
▁top	-9.59807
▁normal	-9.59878
ek	-9.59938
▁minste	-9.60676
▁vlokatrofie	-9.60821
▁subcutane	-9.60822
▁hand	-9.60835
▁besproken	-9.60836
▁mastectomie	-9.60837
79200	-9.60847
▁juni	-9.60915
▁onderlip	-9.60999
-2-	-9.61063
dien	-9.61168
fragmenten	-9.61333
09	-9.61557
▁scleroserend	-9.6156
▁al	-9.61813
▁microscopisch	-9.61901
existent	-9.62166
1600	-9.62351
▁tumorvrije	-9.62391
▁testis	-9.62488
▁moeilijk	-9.62516
87433	-9.62517
▁suggestie	-9.62531
▁necrotiserend	-9.62555
▁endocervicaal	-9.62585
▁oncologie	-9.62653
▁groeipatroon	-9.62669
▁sarcoom	-9.62877
▁*******.	-9.63093
iets	-9.63247
li	-9.6352
calcificaties	-9.6373
▁haardje	-9.6409
▁bijzonderheden	-9.64244
▁wandlagen	-9.64244
▁sneeranden	-9.6425
▁beoordeeld	-9.64283
11101	-9.64327
▁gen	-9.64379
600	-9.64388
▁therapie	-9.64393
▁cre	-9.64506
door	-9.6475
sn	-9.64874
▁vesicula	-9.64904
9200	-9.64942
▁onderooglid	-9.65173
on	-9.6561
▁sinus	-9.65992
▁infiltreert	-9.65995
▁ontstoken	-9.66011
54000	-9.6602
▁immunologisch	-9.66045
▁intermediair	-9.66155
who	-9.66205
hodgkin	-9.66211
mmuunhistochemie	-9.66325
bepaling	-9.66445
▁nb	-9.66512
▁activiteit	-9.66579
112	-9.66599
▁multipel	-9.66745
preparaten	-9.66826
2,	-9.66914
▁ductus	-9.67119
▁longcarcinoom	-9.67684
▁^	-9.67684
0610	-9.67694
▁laat	-9.67775
▁glad	-9.6778
erasmus	-9.6778
06501	-9.67782
ccr	-9.67785
▁gelokaliseerd	-9.67797
▁casus	-9.6781
85006	-9.67818
▁lobectomie	-9.67825
deling	-9.67844
▁ingesloten	-9.67877
▁voorstel	-9.67894
caudale	-9.67909
▁micronodulair	-9.67915
▁kuit	-9.67931
▁excisiebiopsie	-9.68502
of	-9.68581
/*******/	-9.68914
▁ruimer	-9.68947
▁voorlopig	-9.694
▁overleg	-9.69438
▁deferens	-9.69599
▁seminalis	-9.69599
foci	-9.69599
▁plasmacellen	-9.69616
▁blasten	-9.69632
▁cervixbiopt	-9.69662
38400	-9.69701
▁detrusor	-9.6973
▁lymfocyten	-9.6976
▁and	-9.69871
▁0,3	-9.69956
▁laag	-9.69993
▁stadium	-9.70113
▁adeno	-9.7032
▁beelden	-9.7074
▁hoge	-9.7077
▁lipoom	-9.71412
12	-9.71429
▁aldaar	-9.71451
▁bestaat	-9.71455
▁metaplastisch	-9.71497
▁maken	-9.71571
▁veranderd	-9.71605
▁knie	-9.71626
maxima	-9.71733
670	-9.71978
▁heen	-9.72143
▁localisaties	-9.72171
aire	-9.72552
▁lokalisaties	-9.72597
oename	-9.72708
▁cardia	-9.7273
▁1,	-9.7274
▁leverbiopt	-9.73282
▁lage	-9.73284
30731	-9.73338
▁uitbreidend	-9.73358
▁suspect	-9.7336
▁zes	-9.73374
coupes	-9.73435
▁wur	-9.73444
▁0,6	-9.7345
▁carcinoid	-9.73474
▁0,7	-9.7351
:^	-9.73556
▁adenoid	-9.73557
niercelcarcinoom	-9.73559
53	-9.73629
hodgkinlymfoom	-9.73643
▁uw	-9.73649
▁profiel	-9.73686
▁1,8	-9.73688
90	-9.73699
voorhoofd	-9.73699
toename	-9.73995
pt	-9.74083
▁vaatinvasie	-9.74373
830	-9.74881
▁slokdarm	-9.75199
hyperkeratotisch	-9.75262
▁daarbij	-9.75266
6520	-9.75311
30000	-9.75337
▁variant	-9.75338
▁afwijkend	-9.75338
▁advies	-9.75369
▁infiltraat	-9.75377
▁percentage	-9.75649
1/	-9.76878
▁verwijderde	-9.77041
gediagnostiseerd	-9.77075
6420	-9.77218
81323	-9.77221
▁gebouwd	-9.77221
09440	-9.77222
80093	-9.77224
▁circulair	-9.77232
▁tekst	-9.77239
supraclaviculair	-9.77246
ediagnostiseerde	-9.77367
▁maagresectie	-9.77504
▁prostaatbiopt	-9.77538
slijmvliesbiopt	-9.77542
▁0,1	-9.77595
max	-9.77604
▁caudaal	-9.77625
▁poliepen	-9.77883
epitheliale	-9.78178
▁sub	-9.78391
▁vooral	-9.78545
ca	-9.7906
mee	-9.79142
plaveiselcellige	-9.79172
▁geinfiltreerd	-9.79223
▁beschouwen	-9.79226
73320	-9.79227
▁oktober	-9.79239
▁bijnier	-9.79253
▁diffuse	-9.79256
excochleaat	-9.79294
▁cysteus	-9.7944
!	-9.79445
prostaat	-9.79492
▁regiona	-9.79562
▁zone	-9.79573
nummer	-9.79694
▁shave	-9.79837
nl	-9.79879
▁hoogste	-9.7996
▁degeneratie	-9.79969
?)	-9.80208
▁cyst	-9.80238
▁huidexcisies	-9.80313
▁aspecifiek	-9.80465
81000	-9.80727
▁oesofagus	-9.81116
▁vas	-9.81176
▁carcinomatosa	-9.81262
▁concordant	-9.81262
▁gefragmenteerd	-9.81262
▁tractus	-9.81262
▁alhier	-9.81263
▁granulomateuze	-9.81263
74320	-9.81265
81303	-9.81265
30710	-9.81266
▁denken	-9.81273
▁tunica	-9.8128
▁verandering	-9.81282
▁toonde	-9.81285
▁wisselend	-9.81299
▁ooglid	-9.81309
▁lisexcisie	-9.81322
▁gewijzigd	-9.81345
▁kappa	-9.81378
▁ulcus	-9.81411
▁w	-9.81424
"	-9.81467
▁gegevens	-9.81474
▁he	-9.8156
▁typering	-9.81758
gene	-9.81787
▁crista	-9.81898
▁(2	-9.82016
▁6.	-9.82368
▁ju	-9.82391
1400	-9.82447
ts	-9.82562
nieuwe	-9.82667
▁ruime	-9.82834
▁"	-9.82838
iding	-9.83069
623	-9.83124
ã	-9.83345
▁pigmentosus	-9.83345
▁naevi	-9.83346
91200	-9.83346
▁uitgevoerd	-9.83349
▁lamin	-9.83354
▁ontbreken	-9.83364
▁obturatorius	-9.83397
▁zijwand	-9.83435
▁ventraal	-9.83463
82100	-9.83489
9700	-9.83538
▁r	-9.8364
gezien	-9.83686
els	-9.83789
▁the	-9.83889
▁cervixbiopten	-9.84003
af	-9.84029
lencarcinoom	-9.84309
▁22	-9.84342
▁papillaire	-9.84428
▁specifiek	-9.84541
▁lymfocytair	-9.84695
40	-9.84882
zijde	-9.84915
u	-9.84939
▁endometroid	-9.84972
▁muscul	-9.85086
▁vijf	-9.85238
curettage	-9.85253
je	-9.85388
84803	-9.85473
▁gelocaliseerd	-9.85473
▁pericolisch	-9.85474
▁cholecystitis	-9.85474
▁perimusculair	-9.85474
▁anti	-9.85481
▁intramucosaal	-9.85493
▁laatste	-9.85541
▁rontgen	-9.85547
▁gegroeid	-9.8556
▁november	-9.85593
▁klierbuizen	-9.85594
69000	-9.85751
▁labium	-9.85765
44000	-9.85812
q	-9.85825
61100	-9.85858
status	-9.85872
▁aanle	-9.86011
ng	-9.86277
▁slijmvliesbiopt	-9.86394
620	-9.86775
pn	-9.8691
▁tumordiameter	-9.87025
▁los	-9.87315
160	-9.8757
11261	-9.87648
73330	-9.87648
▁perifer	-9.87667
▁apart	-9.87704
▁descendens	-9.8777
▁positiviteit	-9.8777
▁buikwand	-9.87823
▁levernaaldbiopt	-9.87852
sinfiltraat	-9.87873
▁mogelijkheid	-9.87879
0210	-9.87883
▁duodenumbiopten	-9.87891
▁achterwand	-9.88166
▁haarden	-9.88233
▁ingestuurde	-9.8825
0170	-9.88325
▁retro	-9.8845
biopsiemateriaal	-9.88486
niet	-9.88606
▁spier	-9.88729
am	-9.88945
▁microscopische	-9.8912
▁th	-9.89157
10:	-9.8925
reticulair	-9.89289
matig	-9.89321
06	-9.89563
▁onderverdeling	-9.89869
▁bevestiging	-9.89869
▁mastopathisch	-9.89873
▁doen	-9.89873
▁perifeer	-9.89889
▁breslowdikte	-9.8992
▁amplificatie	-9.89938
▁angioinvasie	-9.8998
▁flr	-9.90192
▁amputatie	-9.9035
uitslag	-9.90385
▁actief	-9.90466
▁be	-9.9062
ar	-9.90689
▁0,2	-9.91061
multipele	-9.91181
▁cell	-9.91428
▁cel	-9.91448
aal	-9.91608
tr	-9.91609
▁laesies	-9.91819
sreactie	-9.91863
2).	-9.92058
▁aantoonba	-9.92136
▁bereikt	-9.92142
▁verkregen	-9.92142
▁kraakbeen	-9.92143
87202	-9.92151
▁cristabiopsie	-9.92154
▁eosinofilie	-9.92163
▁medisch	-9.92201
▁bepaald	-9.92234
11540	-9.92252
▁thoraxwand	-9.92314
hmh	-9.924
▁ttf	-9.92432
740	-9.92715
3:	-9.92776
naast	-9.92932
zijn	-9.92947
▁aard	-9.93118
▁2,2	-9.93131
▁dysplastisch	-9.93345
maal	-9.93371
▁kleiner	-9.93725
3,	-9.93783
▁crania	-9.94429
98233	-9.94467
daad	-9.94468
▁lijken	-9.94469
▁rondom	-9.94474
▁doorsnijden	-9.94475
▁doorsnijdingen	-9.94475
13700	-9.94476
▁afwezig	-9.94488
▁station	-9.94514
▁tumorproces	-9.94549
▁subserosale	-9.94549
▁intern	-9.94553
▁binnen	-9.9458
▁langs	-9.94594
▁inder	-9.94631
villeus	-9.94658
▁wigexcisie	-9.94666
▁bovenstaande	-9.94673
▁0,4	-9.94694
▁plaveiselcellig	-9.94707
▁dient	-9.94719
▁mohs	-9.94729
beginnende	-9.94771
▁23	-9.94783
doet	-9.94968
kleuring	-9.95056
13	-9.95119
▁1,6	-9.9518
400	-9.95191
▁0,9	-9.95223
▁dukes	-9.95281
differentiatie	-9.95422
▁bronchuss	-9.95943
▁tumormetastasen	-9.96071
laaggradige	-9.96202
dissectie	-9.96498
▁st	-9.96534
▁gaan	-9.96712
▁ingezet	-9.96848
80063	-9.9685
55400	-9.9685
130	-9.96867
microsatellitose	-9.96873
▁preexistent	-9.96875
ossa	-9.96895
▁kernen	-9.96902
▁klassiek	-9.96907
▁folliculitis	-9.96907
▁scapula	-9.96922
▁receptorstatus	-9.96936
▁lymfatisch	-9.96952
▁transurethra	-9.96956
lg	-9.97019
4000	-9.97023
▁jan	-9.97075
▁punctaat	-9.9748
organismen	-9.97564
▁pap	-9.97635
▁jw	-9.97654
pre	-9.97784
12:	-9.97804
blaas	-9.97922
pa	-9.98016
▁vagina	-9.98648
8400	-9.98862
▁sept	-9.98889
uari	-9.99287
▁geeft	-9.99287
▁gewenst	-9.99287
94403	-9.99288
82403	-9.99288
▁nvt	-9.99291
ember	-9.99295
67200	-9.99296
09130	-9.99299
▁gedaan	-9.99311
▁zeven	-9.99311
▁december	-9.99315
▁mediastinum	-9.99348
▁representatief	-9.99362
▁hiervoor	-9.99365
▁clavicula	-9.99369
▁kliniek	-9.99414
▁waren	-9.99424
▁externa	-9.99513
▁vulva	-9.9964
93	-9.99772
▁margina	-9.999
▁dna	-9.99984
▁mammae	-10.0011
▁restant	-10.0015
an	-10.0027
▁schildwacht	-10.0038
2.	-10.0064
▁operatie	-10.0073
groeiend	-10.0093
degeneratieve	-10.0104
▁overigen	-10.0114
▁nieuw	-10.0144
▁vaat	-10.0145
antrumslijmvlies	-10.0173
▁fragmentje	-10.0174
▁digestivus	-10.0177
▁mastopathie	-10.0179
▁talrijke	-10.0179
▁pleuravocht	-10.0179
50140	-10.018
▁mechanisch	-10.0181
▁micrometastase	-10.0182
▁tumortje	-10.0183
▁epidermiscyste	-10.0184
▁bil	-10.0189
▁augustus	-10.0189
▁scheenbeen	-10.0189
▁27	-10.019
▁hoofdbronchus	-10.0191
▁dermaal	-10.0199
▁pipelle	-10.0209
▁at	-10.021
▁intraductal	-10.0213
▁vlak	-10.0218
▁gemodificeerde	-10.022
▁basosquameu	-10.0222
1.	-10.0237
▁viii	-10.0238
▁massa	-10.0253
▁(1	-10.0261
▁allen	-10.0269
serosale	-10.0273
hals	-10.0281
▁gesteld	-10.0324
cellen	-10.0338
▁geindiceerd	-10.0435
▁squameus	-10.0435
▁geulcereerd	-10.0435
▁polypeus	-10.0435
67900	-10.0435
69800	-10.0435
▁cystadenoom	-10.0436
▁buitenzijde	-10.0436
▁morfologie	-10.0437
▁perforatie	-10.0437
▁bevestigd	-10.0438
▁toe	-10.0438
▁intestinaal	-10.044
88003	-10.0441
▁locatie	-10.0446
+	-10.0449
patroon	-10.046
▁26	-10.0465
met	-10.0467
▁volume	-10.0483
bij	-10.0491
▁2001	-10.0491
erosieve	-10.0515
▁tumormetastase	-10.0518
8420	-10.052
▁blaaswand	-10.0535
zelf	-10.0539
▁24	-10.054
aanvulling	-10.0542
wege	-10.055
air	-10.0559
0(	-10.0564
▁1995	-10.058
ie	-10.059
6350	-10.0607
▁2000	-10.0613
▁preparaten	-10.0665
▁2-	-10.0675
▁mondbodem	-10.0685
▁portio	-10.0689
▁cavum	-10.0698
93240	-10.0698
▁appendectomie	-10.0699
▁bronchusbiopt	-10.07
▁nasolabiaal	-10.0701
▁gepigmenteerd	-10.0701
▁uiterst	-10.0702
▁keratoacanthoom	-10.0702
▁grensvlak	-10.0705
▁geisoleerd	-10.0705
▁steel	-10.0705
▁slijm	-10.0708
myeloide	-10.0712
ectomie	-10.0712
▁cave	-10.0722
▁stv	-10.0726
js	-10.0759
▁(4	-10.077
isch	-10.0783
▁mammabiopt	-10.0792
kleincellig	-10.0812
▁lab	-10.0813
het	-10.0815
▁28	-10.0824
▁70	-10.0828
den	-10.0829
▁1,1	-10.0841
▁oude	-10.0841
lymfklier	-10.0844
carcinomen	-10.0845
................	-10.0857
67	-10.086
270	-10.0866
▁overgangs	-10.0876
34	-10.0906
sche	-10.0911
▁tong	-10.0965
▁geadviseerd	-10.0969
▁leiomyosarcoom	-10.0969
▁papillomatosus	-10.0969
▁dichtstbij	-10.0969
▁prostatica	-10.0969
98723	-10.0969
▁fibreus	-10.0969
▁isthmus	-10.0971
▁verzoek	-10.0971
▁ap	-10.0972
▁granulerende	-10.0973
▁mito	-10.0974
▁geschat	-10.0975
50000	-10.0976
▁papilloom	-10.0982
▁blaasbiopt	-10.0984
▁astrocytoom	-10.0984
▁cea	-10.0985
▁zegelringcel	-10.0987
omtrent	-10.0988
▁1,3	-10.1037
200	-10.1067
invasief	-10.1074
38100	-10.108
slecht	-10.1099
99	-10.1134
▁mate	-10.1191
▁kleinst	-10.1201
ne	-10.1215
▁et	-10.122
▁geval	-10.124
▁bekledend	-10.1246
▁collega	-10.1246
▁bevindt	-10.1247
80203	-10.1248
▁lesie	-10.1249
▁uitgesproken	-10.1249
▁poliepectomie	-10.125
▁vaten	-10.1251
▁tubahoeken	-10.1251
▁pretibiaal	-10.1258
48000	-10.1262
▁ventrale	-10.1263
8800	-10.1268
end	-10.1268
th	-10.1287
▁segment	-10.1346
▁fragmentjes	-10.137
ura	-10.1378
=	-10.1478
beeld	-10.1487
▁ha	-10.1498
drietal	-10.151
ide	-10.1515
▁transformatie	-10.153
▁ingesneden	-10.1532
▁seminales	-10.1532
▁kwast	-10.1532
▁oedeem	-10.1532
▁doorgegeven	-10.1532
▁chemotherapie	-10.1535
▁heb	-10.1537
▁toegenomen	-10.1538
▁eczeem	-10.1539
▁ware	-10.1539
▁vitaal	-10.154
▁subcutaan	-10.1544
▁doorheen	-10.1549
▁centroblastair	-10.1558
▁speekselklier	-10.1558
infiltratie	-10.1567
88100	-10.157
▁haardjes	-10.1585
recidief	-10.1621
segmentexcisie	-10.1664
0160	-10.1681
ma	-10.1697
▁hu	-10.1729
▁10%	-10.1732
pitheeldysplasie	-10.1741
▁fibro	-10.1753
993	-10.1776
extirpatie	-10.1784
1).	-10.1788
▁reiken	-10.18
▁bepalen	-10.1826
▁crohn	-10.1826
▁hypercellulair	-10.1826
▁hyperkeratose	-10.1826
▁myelodysplasie	-10.1826
▁toezending	-10.1826
▁stellen	-10.1826
88903	-10.1827
▁opgestuurd	-10.1827
>	-10.1828
▁femur	-10.1829
▁2003	-10.183
76000	-10.183
▁hpf	-10.1831
▁konklusie	-10.1833
▁psa	-10.184
▁bls	-10.1841
▁gedeelte	-10.1841
▁vitale	-10.1842
▁eosinofiele	-10.1844
▁vena	-10.1846
▁februari	-10.1848
▁markers	-10.1855
▁velden	-10.1858
▁lambda	-10.1867
eus	-10.1871
▁ptnm	-10.1878
losse	-10.1879
atie	-10.1889
04	-10.1892
▁topografie	-10.1905
▁structuren	-10.193
nieuw	-10.1934
▁subtype	-10.1941
▁3).	-10.1972
klinisch	-10.1973
conform	-10.1973
meer	-10.1974
een	-10.1977
▁gestelde	-10.198
▁3)	-10.1995
▁macroscopisch	-10.2021
▁1,7	-10.2033
170	-10.204
1420	-10.2054
74	-10.2058
110	-10.2086
▁groter	-10.2087
05	-10.2117
▁larynx	-10.2123
▁herhaling	-10.2129
▁vulgaris	-10.2129
80923	-10.2129
09460	-10.2129
83123	-10.2129
mvg	-10.213
80503	-10.213
26010	-10.2131
▁100%	-10.2131
▁ostium	-10.2132
09010	-10.2132
istomorfologisch	-10.2133
▁mesenterium	-10.2137
▁darmwand	-10.2138
▁linkermamma	-10.214
03	-10.2142
40150	-10.2144
voorlopig	-10.2149
▁axillair	-10.2153
▁lymfkliertjes	-10.2154
▁darmresectie	-10.2154
▁ingezonden	-10.216
▁ductaaltype	-10.2164
▁minus	-10.2167
21140	-10.217
wand	-10.2179
▁vreemdlichaam	-10.2182
▁gebieden	-10.2186
▁cll	-10.2228
se	-10.2243
rt	-10.2249
▁lymfo	-10.2256
▁li	-10.226
).^	-10.226
abortusmateriaal	-10.2276
zijdigheid	-10.2284
8710	-10.2285
▁intact	-10.2325
▁geassocieerd	-10.2335
om	-10.2338
keursdiagnose	-10.2366
11:	-10.2374
mc	-10.2394
890	-10.2395
▁geken	-10.2406
▁blaastumor	-10.2412
▁post	-10.2412
▁middenkwab	-10.2415
▁puntje	-10.2425
▁(7	-10.2437
▁giardia	-10.2442
▁majus	-10.2442
angitis	-10.2442
▁elastosis	-10.2442
▁beschrijving	-10.2442
90613	-10.2442
▁tekening	-10.2445
▁tumorrest	-10.2445
▁acht	-10.2445
▁markeronderzoek	-10.2446
over	-10.2446
▁celtype	-10.2448
▁40	-10.245
▁marges	-10.2454
▁flex	-10.2455
▁seminoom	-10.246
▁ja	-10.2464
▁punt	-10.2465
▁voorkomen	-10.2466
erzijds	-10.247
▁stadiering	-10.2477
▁subepithelia	-10.2483
waarschijnlijk	-10.249
uze	-10.2501
doorgemaakte	-10.2508
adenocarcinoom	-10.255
wang	-10.2568
micro	-10.26
gelegen	-10.2608
10000	-10.2635
▁thoraca	-10.2635
ril	-10.2656
▁1999	-10.266
▁1997	-10.2663
▁grade	-10.2691
ische	-10.273
▁calcificaties	-10.2733
nodus	-10.2733
4600	-10.2742
▁gegeven	-10.2747
merkt	-10.2753
▁zijrand	-10.2755
ject	-10.2764
cutaan	-10.2764
▁hepatica	-10.2764
▁granulocyten	-10.2765
▁aangewezen	-10.2765
▁onregelmatig	-10.2765
▁elleboog	-10.2767
cholecystectomie	-10.2767
▁aanduiding	-10.2767
▁liposarcoom	-10.2767
▁resttumor	-10.2775
▁granulomen	-10.2778
▁centrocytair	-10.2778
▁fraai	-10.2778
▁neoplasie	-10.2782
▁infectie	-10.2787
▁incisiebiopt	-10.2789
▁termina	-10.2791
▁gr	-10.2791
▁verschillend	-10.2792
▁helix	-10.2804
▁metastasering	-10.2815
117	-10.2828
▁1,4	-10.2839
▁lymfoid	-10.2855
neus	-10.2865
gens	-10.2887
280	-10.2888
▁vast	-10.2904
▁0).	-10.2915
diam	-10.2948
▁bekken	-10.2954
cinoom	-10.2977
sch	-10.3007
▁onco	-10.3024
ck	-10.3044
▁overeen	-10.3063
26	-10.3067
ras	-10.3076
▁zijsnijrand	-10.3088
1120	-10.3091
nks	-10.3097
87271	-10.3098
é	-10.3098
▁geweest	-10.3098
▁hamoen	-10.3098
▁vasculitis	-10.3098
40640	-10.3098
▁editie	-10.3098
▁adenomen	-10.3098
▁clearcell	-10.3098
▁gemetastaseerd	-10.3101
▁irradicaal	-10.3101
▁partieel	-10.3101
▁sprietig	-10.3101
onda	-10.3101
▁betekenis	-10.3101
▁whipple	-10.3103
▁7.	-10.3104
▁lange	-10.3105
▁daarvan	-10.3109
▁abcederende	-10.311
▁milt	-10.3112
gediagnosticeerd	-10.3112
▁allel	-10.3116
▁rechterwang	-10.3135
▁darmbiopten	-10.3143
?).	-10.3143
8300	-10.3151
▁tonsil	-10.3156
aanvullend	-10.3172
mh	-10.3194
▁maagcorpus	-10.3202
elba	-10.3203
▁uitsluiten	-10.322
98	-10.3231
8600	-10.3234
procedure	-10.3257
gangsepitheelcel	-10.3265
bespreking	-10.3268
▁010	-10.3279
▁1.5	-10.3345
▁blauw	-10.3346
2004:	-10.3392
▁2002	-10.3413
0180	-10.3422
▁overwegen	-10.3424
9420	-10.3433
ic	-10.3433
▁ganglion	-10.344
▁aangevraagd	-10.3442
▁solaris	-10.3442
76602	-10.3442
96503	-10.3443
51200	-10.3443
▁neig	-10.3443
▁visceralis	-10.3443
55100	-10.3443
13710	-10.3443
12040	-10.3443
▁braf	-10.3443
▁kapseldoorgroei	-10.3443
yelodysplastisch	-10.3444
▁parotis	-10.3446
▁cutis	-10.3446
▁bloeding	-10.3446
▁inzender	-10.3449
▁5,5	-10.345
▁anastomose	-10.3451
▁doorbraak	-10.3452
▁overexpressie	-10.3458
▁high	-10.3462
▁achterzijde	-10.3465
▁hechting	-10.3469
▁overlegd	-10.3474
▁proefexcisie	-10.3479
▁afmetingen	-10.3484
▁nos	-10.349
skenmerken	-10.349
▁tra	-10.354
▁tumortype	-10.3566
▁papil	-10.3584
ranulatieweefsel	-10.3584
▁abortus	-10.359
as	-10.3593
14	-10.3596
tur	-10.3613
atuur	-10.3615
reuscelreactie	-10.3639
622	-10.3643
vorming	-10.3672
▁vesiculae	-10.3675
ende	-10.3681
▁ernstig	-10.3687
cn	-10.3694
▁anterior	-10.3704
activiteit	-10.3704
▁hilus	-10.3706
▁29	-10.3711
1138	-10.3716
▁ontstekings	-10.374
01	-10.3747
itis	-10.3748
▁hercep	-10.3767
▁as	-10.3781
▁axilla	-10.3786
▁reeks	-10.3789
▁lymfkliertje	-10.3793
▁stuk	-10.3793
▁%).	-10.3793
▁no	-10.3795
▁ileocoecaal	-10.38
▁behulp	-10.38
▁glioblastoma	-10.38
▁mediastinal	-10.38
▁ojb	-10.38
▁funiculus	-10.38
▁specificiteit	-10.38
▁bekleed	-10.38
▁negen	-10.38
▁bevestigt	-10.38
▁uitgenomen	-10.3803
▁multicentrisch	-10.3803
▁spoelcellig	-10.3803
▁lichenoide	-10.3806
▁overwegingen	-10.3807
▁direct	-10.3809
diagnostisch	-10.3819
▁chirurgie	-10.382
▁duiden	-10.3821
4300	-10.3828
ontstekingsbeeld	-10.3839
▁100	-10.3845
▁niveaus	-10.3853
jes	-10.3855
▁optima	-10.3856
2:	-10.3871
▁poliepjes	-10.3871
▁peribronchia	-10.3878
▁avl	-10.3885
▁resterend	-10.3886
▁ablatie	-10.3891
sigmoid	-10.3906
▁vin	-10.3917
midden	-10.3918
45	-10.3931
onwaarschijnlijk	-10.3954
iologisch	-10.3978
▁fibr	-10.398
oppervlak	-10.3986
▁tien	-10.3996
aard	-10.4009
diagnose	-10.4011
lab	-10.4012
dermatitis	-10.4013
revisie	-10.4013
coeur	-10.4013
sentinel	-10.4013
minder	-10.4013
ook	-10.4014
▁helicobacters	-10.4019
▁rectumcarcinoom	-10.4026
50	-10.4048
▁superficial	-10.4056
gebied	-10.406
▁(5	-10.4064
▁ad	-10.4089
02	-10.4092
▁2,3	-10.4127
▁neu	-10.4133
▁1992	-10.4156
95	-10.4159
▁topklier	-10.416
classific	-10.4161
▁centra	-10.4168
80943	-10.417
▁formulation	-10.417
▁leiomyomen	-10.417
▁curvatuur	-10.417
▁fibroadenoom	-10.417
mor	-10.417
73220	-10.417
90503	-10.417
▁mesenteria	-10.417
33200	-10.4171
84413	-10.4171
1300	-10.4172
▁lynch	-10.4173
▁ijzer	-10.4173
▁achtergrond	-10.4173
▁compatib	-10.4173
▁ligament	-10.4173
▁ulcerosa	-10.4173
▁intraductaal	-10.4174
▁woekeringen	-10.4175
▁mammareductie	-10.4176
▁elastose	-10.4179
▁onderkwadrant	-10.4179
▁zijranden	-10.4181
▁den	-10.4182
▁interna	-10.4182
hans	-10.4183
▁focale	-10.4184
▁morfometrisch	-10.4185
▁parietaal	-10.4185
▁paranasaal	-10.4197
yy	-10.4213
▁*	-10.4214
▁hele	-10.4215
6780	-10.4225
▁wan	-10.4225
▁okselklier	-10.4229
12000	-10.4233
▁gewicht	-10.4252
▁lip	-10.4257
▁cystadeno	-10.4265
▁blokjes	-10.4272
king	-10.4289
▁duct	-10.4291
st	-10.4305
▁maagmucosa	-10.4305
▁duodenums	-10.4337
▁conus	-10.4356
▁08	-10.4361
epithelia	-10.4367
buik	-10.4385
richardson	-10.4398
▁botweefsel	-10.4404
37	-10.4463
ers	-10.4468
▁lymfklierbiopt	-10.4482
bs	-10.4504
▁wor	-10.4542
▁macrometastase	-10.455
regio	-10.4551
▁haemangioom	-10.4555
▁tangentie	-10.4555
▁verslijmend	-10.4555
▁vorig	-10.4555
▁orchidectomie	-10.4555
▁recent	-10.4555
▁verwijdering	-10.4555
06521	-10.4555
neer	-10.4556
▁dichtbij	-10.4556
▁microkalk	-10.4558
▁apocrien	-10.4558
▁tongrand	-10.4558
▁coeliakie	-10.4561
ten	-10.4561
▁duim	-10.4563
▁mid	-10.4564
▁gereviseerd	-10.4564
sverschijnselen	-10.4565
▁hierbij	-10.4565
▁palatum	-10.4568
pathologie	-10.4568
▁foet	-10.457
▁with	-10.4581
▁voet	-10.4582
▁cutane	-10.4582
▁igg	-10.4583
▁colonresectie	-10.4587
▁basaalcelcar	-10.459
90100	-10.4595
▁hypertrofische	-10.4597
2005:	-10.4616
▁mesenchyma	-10.4624
ren	-10.4645
situ	-10.4674
at	-10.4677
▁klasse	-10.4691
8410	-10.4691
diepte	-10.4704
mucosa	-10.4716
2):	-10.4741
ter	-10.4758
▁2).	-10.4773
▁zwangerschaps	-10.4774
naschrift	-10.4779
intestinal	-10.4804
▁7,	-10.4809
ip	-10.4832
120	-10.4847
▁mandibula	-10.4871
▁pin	-10.4877
▁specimen	-10.4887
kh	-10.4907
▁kon	-10.4909
▁supra	-10.4916
▁embryona	-10.4919
▁soms	-10.493
▁protocol	-10.493
▁1996	-10.4949
▁spreading	-10.4953
▁stans	-10.4953
▁astler	-10.4955
▁junction	-10.4955
▁sclerosus	-10.4955
▁omringend	-10.4955
▁hemangioom	-10.4955
▁fibromusculair	-10.4955
▁bulbus	-10.4955
45240	-10.4955
▁luidt	-10.4956
11730	-10.4956
33600	-10.4956
tvb	-10.4956
40070	-10.4957
▁ligt	-10.4958
▁solied	-10.4958
▁solair	-10.4959
mantelcellymfoom	-10.4961
▁beschadiging	-10.4961
▁fundus	-10.4964
▁borderline	-10.4965
▁sta	-10.4972
▁sn	-10.4973
▁grootcellige	-10.498
▁langer	-10.498
▁voldoende	-10.4983
▁fase	-10.4984
▁vol	-10.4986
▁tumornegatief	-10.4986
▁apicaal	-10.4991
▁complexe	-10.5001
▁pleurabiopten	-10.5001
▁5%	-10.5002
65	-10.5012
4:	-10.5029
▁mammatumor	-10.5045
6300	-10.5061
▁(0/1).	-10.5069
doorgroei	-10.5082
elkgangcarcinoom	-10.5083
totaal	-10.5084
▁4.	-10.5106
pr	-10.5125
yeloproliferatie	-10.5138
800	-10.5144
2003:	-10.5167
▁0.	-10.5174
hv	-10.5186
▁bestraling	-10.5197
1,	-10.5208
mogelijk	-10.5213
minimale	-10.5215
temporaal	-10.5215
solide	-10.5218
▁01	-10.5226
gen	-10.5242
deel	-10.5247
▁ronde	-10.5291
▁2,1	-10.5304
1:	-10.5309
▁halsklier	-10.5338
▁granuloma	-10.5348
▁(*******)	-10.5363
▁diverse	-10.5363
▁bovenst	-10.5365
▁betrouwba	-10.5371
▁ewing	-10.5371
&	-10.5371
▁exofytisch	-10.5371
▁follow	-10.5371
▁multiforme	-10.5371
▁parotidectomie	-10.5371
▁excochleatie	-10.5371
▁lentigineuze	-10.5371
81402	-10.5371
41740	-10.5371
▁herkenbaar	-10.5371
06509	-10.5371
▁losliggend	-10.5371
repair	-10.5371
82611	-10.5372
72600	-10.5372
▁herkend	-10.5373
63300	-10.5373
▁geruptureerde	-10.5374
▁staat	-10.5375
▁hematopoese	-10.5375
85202	-10.5375
▁adenose	-10.5377
▁satellieten	-10.5377
lagen	-10.5377
▁opsnijden	-10.5378
ieder	-10.5379
▁2,8	-10.5379
▁cq	-10.538
▁veldjes	-10.5381
▁huidlaesie	-10.5381
33	-10.5384
▁1994	-10.5385
▁slokdarmbiopten	-10.5386
▁rectumamputatie	-10.5388
▁patholoog	-10.5388
breidt	-10.5392
▁plus	-10.5392
▁50%	-10.5398
▁herkomst	-10.5403
▁tvu	-10.5404
85000	-10.5409
▁epithelia	-10.541
▁exact	-10.5416
rh	-10.5419
histologisch	-10.5419
▁leverbiopten	-10.5427
07000	-10.5436
▁cis	-10.5456
▁90%	-10.5461
lymfoom	-10.5476
segment	-10.5482
dometriumpoliep	-10.5537
2200	-10.5541
▁px	-10.555
▁betrekk	-10.557
▁fuhrman	-10.5578
▁meso	-10.5581
▁turt	-10.5586
rest	-10.5589
borst	-10.5625
▁patroon	-10.5633
resp	-10.5635
fc	-10.5635
ige	-10.5641
cyste	-10.5656
▁1,9	-10.5656
cs	-10.5657
220	-10.5672
ken	-10.5684
▁hoogst	-10.5693
▁mw	-10.5698
-3	-10.5705
▁ingestuurd	-10.5705
snijvlakken	-10.5709
▁neo	-10.5764
lc	-10.5769
fragmentjes	-10.5778
▁kern	-10.58
▁dermalis	-10.5806
▁multifocale	-10.5806
▁onvolledig	-10.5806
▁ordner	-10.5806
immuunperoxydase	-10.5806
46320	-10.5806
▁cvp	-10.5806
▁herceptest	-10.5806
▁obturatoria	-10.5806
▁planocellulair	-10.5806
99603	-10.5806
▁mesocolon	-10.5806
33409	-10.5806
▁vergelijking	-10.5807
▁elf	-10.5807
▁paget	-10.5807
▁beter	-10.5808
30400	-10.5808
▁nasi	-10.5809
▁lymfomenpanel	-10.581
▁schimmels	-10.5816
▁6,5	-10.5817
93000	-10.5819
▁mammabiopsie	-10.5819
▁okselklieren	-10.5819
▁partijen	-10.5819
▁maakt	-10.5819
▁rechterschouder	-10.5823
▁malt	-10.5826
▁ectocervica	-10.583
▁pcr	-10.5832
▁weefselstukje	-10.5833
▁rechtermamma	-10.5835
80006	-10.5836
▁colloid	-10.5845
▁micrometastasen	-10.5845
▁pleiomorf	-10.5846
▁bovenrug	-10.5865
erd	-10.5875
126	-10.5882
▁hilair	-10.5884
co	-10.5887
▁bestralings	-10.5915
▁vene	-10.5918
▁ander	-10.5949
kin	-10.595
papillair	-10.5982
rand	-10.5997
▁bovenooglid	-10.6029
▁endometriose	-10.6029
▁ck	-10.6034
analyse	-10.6036
1710	-10.6054
ly	-10.6075
laterale	-10.6079
ablatio	-10.6093
klasse	-10.6101
structuren	-10.6102
dukes	-10.6103
receptoren	-10.6116
▁ix	-10.6119
1500	-10.6121
▁ner	-10.6138
▁5,	-10.6155
▁oom	-10.6163
lymfklierweefsel	-10.6168
es	-10.6194
▁ho	-10.6202
sneevlakken	-10.6204
▁zijresectierand	-10.6224
▁hyper	-10.6224
hage	-10.6244
▁overweging	-10.6251
2113	-10.6254
aanvullende	-10.6258
▁klierbuis	-10.6259
sediment	-10.626
cadherine	-10.6261
▁communis	-10.6261
▁gehandhaafd	-10.6261
▁halverwege	-10.6261
▁lastig	-10.6261
▁monoclonale	-10.6261
▁onduidelijk	-10.6261
▁opgave	-10.6261
▁verhoorning	-10.6261
▁mismatch	-10.6261
▁lymfocytose	-10.6261
▁epididymis	-10.6261
▁erfelijk	-10.6261
▁plaatepitheel	-10.6261
▁kopie	-10.6261
▁gesneden	-10.6261
▁aangeboden	-10.6261
▁neurofibroom	-10.6261
83300	-10.6261
▁naevocellulares	-10.6261
30840	-10.6261
▁huidpons	-10.6261
37910	-10.6261
▁cerebri	-10.6262
▁gastro	-10.6264
▁leeftijd	-10.6265
▁respons	-10.6265
▁aandoening	-10.6265
▁epiglottis	-10.6265
▁belangrijk	-10.6265
80500	-10.6267
▁diverticulitis	-10.6272
▁1/3	-10.6273
▁blastair	-10.6273
▁diepste	-10.6278
▁hemi	-10.6279
▁sch	-10.6281
▁oppervlakte	-10.6281
gedeeltelijk	-10.6281
▁longbiopt	-10.6282
▁zijdelings	-10.6283
▁schouderblad	-10.6283
▁trigonum	-10.6287
▁kaakhoek	-10.6287
panelbeoordeling	-10.6291
prostatisch	-10.6303
▁synovia	-10.6306
38	-10.6306
▁1991	-10.6308
nxmx	-10.6308
▁weken	-10.6309
▁pseudo	-10.6311
▁35	-10.6312
▁embryonaal	-10.6318
▁onderrug	-10.6319
▁0.5	-10.6327
▁populatie	-10.6334
6200	-10.6343
▁cysten	-10.6363
vi	-10.6368
oksellymfklieren	-10.6371
sneevlak	-10.6389
83	-10.6403
▁subtota	-10.6406
▁pigment	-10.6412
▁beiden	-10.643
▁merendeel	-10.6431
▁componenten	-10.6459
aart	-10.6473
▁*******):	-10.6488
grafisch	-10.6489
7:	-10.6494
mediale	-10.6495
onderbeen	-10.6496
fragment	-10.652
ingroei	-10.6542
2006:	-10.6545
8:	-10.6555
▁bi	-10.6557
lateraal	-10.6558
coupe	-10.656
▁mammanaaldbiopt	-10.656
maag	-10.6565
naaldbiopsie	-10.6568
▁erosie	-10.6569
jw	-10.6584
▁marker	-10.6594
▁jo	-10.6609
▁4)	-10.662
801	-10.6623
▁30%	-10.6632
sactiviteit	-10.6643
tumornegatieve	-10.6661
lumpectomie	-10.6672
314	-10.6688
23	-10.6692
▁pas	-10.6705
3).	-10.6706
▁1998	-10.672
▁50	-10.6724
▁talgklier	-10.6725
▁onderscheid	-10.6727
▁vers	-10.6731
hoeve	-10.6735
inushistiocytose	-10.6737
▁aanhangend	-10.6737
▁dwarsgestreept	-10.6737
▁graviditeit	-10.6737
▁instituut	-10.6737
▁ontbreekt	-10.6737
▁adenomateus	-10.6737
▁cervicitis	-10.6737
58240	-10.6737
▁plasmocytose	-10.6737
▁universit	-10.6737
▁hepatitis	-10.6737
▁getroffen	-10.6737
▁dubreuilh	-10.6737
▁renalis	-10.6737
79320	-10.6737
▁celarm	-10.6737
▁betrouwbaar	-10.6737
76500	-10.6738
mail	-10.6738
51020	-10.6739
▁intestinaaltype	-10.6739
▁littekenvorming	-10.6739
76510	-10.6739
▁brief	-10.6741
▁behandeld	-10.6742
▁behandelen	-10.6742
▁crypten	-10.6744
52	-10.6745
▁massaal	-10.6748
▁buizen	-10.6749
▁nodularis	-10.6749
▁myxoid	-10.6752
▁onze	-10.6753
▁2004	-10.6756
▁pneumectomie	-10.6757
be	-10.6759
▁*******/*******	-10.6763
▁tumorpercentage	-10.6764
▁achterlip	-10.6765
▁kaakrand	-10.6765
▁cellencarcinoom	-10.6771
▁kwab	-10.6773
▁2.5	-10.6775
76	-10.6775
▁complete	-10.6779
▁exconisatie	-10.678
://	-10.6784
▁gemengd	-10.6786
▁haardvormig	-10.6787
▁fibroom	-10.6788
1)	-10.6804
▁sigmoidbiopten	-10.6807
▁huidcurettement	-10.6808
▁beteken	-10.6808
poliep	-10.681
▁pols	-10.6812
▁grawitz	-10.6818
cll	-10.6827
▁revisiecoupe	-10.6834
▁34	-10.6861
▁+3	-10.6863
▁'	-10.6863
/19	-10.6889
▁msh	-10.6892
microscopisch	-10.6903
ms	-10.6904
▁ptag	-10.6911
^^	-10.6921
ens	-10.693
▁geassocieerde	-10.6935
▁vorming	-10.6963
72	-10.6984
3):	-10.6987
▁zelf	-10.6988
▁leverbiopsie	-10.6998
aagantrumbiopten	-10.7002
sparend	-10.702
8810	-10.703
up	-10.703
710	-10.7033
▁80%	-10.7061
heen	-10.7068
mediaal	-10.7078
respectievelijk	-10.708
huidexcisie	-10.7083
5:	-10.7087
15	-10.7093
▁2)	-10.7095
geirriteerde	-10.7117
resectieranden	-10.7134
▁plasmacel	-10.7134
▁bestaand	-10.7138
mai	-10.714
▁teratoom	-10.7219
9:	-10.722
▁pleit	-10.7226
▁pyelum	-10.7235
▁adequa	-10.7236
@	-10.7237
=========	-10.7237
dubbink	-10.7237
▁blomjous	-10.7237
▁cholelithiasis	-10.7237
▁noemenswaardig	-10.7237
▁scalp	-10.7237
▁simplex	-10.7237
▁twaalf	-10.7237
30702	-10.7237
83803	-10.7237
▁myomatosus	-10.7237
96743	-10.7237
40630	-10.7237
83263	-10.7237
▁vaatingroei	-10.7237
▁vater	-10.7237
▁histiocytoom	-10.7238
▁zijsnijvlakken	-10.7238
▁epitheelatypie	-10.7238
80105	-10.7238
75/	-10.7239
ww	-10.7239
75000	-10.7241
▁fenotype	-10.7241
▁tumorgrootte	-10.7241
▁histologie	-10.7242
▁aml	-10.7242
▁verkalkingen	-10.7243
▁longtumor	-10.7245
▁derden	-10.7246
▁valt	-10.7249
▁endometriosis	-10.7249
▁onderbuik	-10.7251
▁inkt	-10.7252
45000	-10.7252
▁grootte	-10.7253
▁retroauriculair	-10.7253
11210	-10.7262
▁snijden	-10.7262
▁romp	-10.7265
▁gemeten	-10.7266
▁merg	-10.7279
▁colonbiopt	-10.7279
cp	-10.7287
▁endoresectie	-10.7287
baar	-10.7287
▁oligodendrogli	-10.7301
noch	-10.7309
▁mucosae	-10.731
▁korte	-10.7319
23000	-10.732
zegelringceltype	-10.7326
lymfklieren	-10.7336
▁longbiopten	-10.7349
▁cf	-10.7354
▁index	-10.7362
▁von	-10.7407
klier	-10.7409
dh	-10.742
97	-10.7427
▁1+	-10.7461
mb	-10.7462
▁lymfoma	-10.7466
▁voorste	-10.7476
▁circumferentie	-10.7486
cz	-10.7487
▁blijken	-10.7515
corpus	-10.7557
negatief	-10.7568
▁uitsluit	-10.7576
excisiebiopt	-10.759
▁ve	-10.7591
colon	-10.7594
▁arterie	-10.76
lymfoompanel	-10.7602
▁1993	-10.7603
▁prise	-10.7607
lijk	-10.761
ring	-10.7612
▁imm	-10.7614
▁weefselfragment	-10.7618
site	-10.7638
%	-10.7638
▁gemarkeerd	-10.7673
▁8.	-10.7701
resten	-10.7712
▁(100%)	-10.7725
isere	-10.7731
▁mucocele	-10.7736
▁3+3=6.	-10.7757
▁ac	-10.7759
llander	-10.7763
80416	-10.7763
▁acuta	-10.7763
▁circumscript	-10.7763
▁genaderd	-10.7763
▁geretourneerd	-10.7763
▁herhaald	-10.7763
▁omslagplooi	-10.7763
▁oorspronkelijk	-10.7763
▁opgesneden	-10.7763
▁senilis	-10.7763
▁solitair	-10.7763
81333	-10.7763
▁recidiverend	-10.7763
▁combinatie	-10.7763
▁papillomateuze	-10.7763
▁chondrosarcoom	-10.7763
▁myeloom	-10.7763
76330	-10.7764
79310	-10.7764
88503	-10.7764
▁hoofdhuid	-10.7764
▁ectocervix	-10.7765
82113	-10.7765
▁cytonucleair	-10.7765
▁biopsieholte	-10.7765
▁bewijzend	-10.7765
▁bloedvaten	-10.7766
▁polymorf	-10.7766
jth	-10.7766
▁tumorhaard	-10.7766
▁epitheelcyste	-10.7767
▁superior	-10.7768
▁adenosquameus	-10.7768
▁parametrium	-10.7768
▁trabeculair	-10.7768
dieringsvoorstel	-10.7768
▁opmerking	-10.7768
▁kalk	-10.7768
▁bcc	-10.7769
▁spierwand	-10.7769
▁idem	-10.7769
▁decidua	-10.777
nasolabiaalplooi	-10.7772
0140	-10.7772
▁progressie	-10.7773
▁medullair	-10.7777
▁commissie	-10.7778
-*******	-10.7779
▁serie	-10.7785
▁coli	-10.7786
▁voorlip	-10.7788
44100	-10.779
▁msr	-10.7791
▁ibd	-10.7792
▁lumen	-10.7794
▁adnexa	-10.7801
▁alk	-10.7806
klierprocedure	-10.7808
▁endo	-10.7809
▁sternum	-10.7811
juv	-10.7811
rip	-10.7812
▁aspiraat	-10.7812
▁plm	-10.7814
▁middels	-10.7814
▁cystectomie	-10.7818
ante	-10.7821
▁perirena	-10.7825
▁gep	-10.7827
▁informatie	-10.7827
ch	-10.783
▁genomen	-10.7831
▁bowenoid	-10.7843
▁cytologie	-10.7843
2130	-10.7856
▁extensie	-10.786
▁(1)	-10.7873
▁anderson	-10.7873
xcisie	-10.7877
▁pta	-10.788
-3.	-10.7883
▁markerpatroo	-10.789
969	-10.7892
corpusslijmvlies	-10.7892
▁afm	-10.7908
.^(	-10.7923
anteriorresectie	-10.7929
rectum	-10.7937
▁huidshave	-10.7943
▁tel	-10.7972
boven	-10.7982
▁nodes	-10.8001
▁corn	-10.8003
▁4,	-10.8046
pta	-10.8063
hr	-10.808
gang	-10.8119
schouder	-10.8123
stadium	-10.8124
)(	-10.8139
▁capillair	-10.8153
erende	-10.8158
gradering	-10.8162
acute	-10.8162
krap	-10.8162
overgang	-10.8162
compleet	-10.8172
▁overtuigend	-10.8177
1410	-10.8249
▁pro	-10.8258
▁6,	-10.8277
und	-10.8278
▁mij	-10.8288
▁betreffen	-10.8294
▁bcl	-10.8306
▁carina	-10.8308
▁divertikel	-10.831
eerde	-10.8311
840	-10.8314
382	-10.8316
«	-10.8319
30711	-10.8319
▁aanmerking	-10.8319
▁basalioma	-10.8319
▁kwaliteit	-10.8319
▁peesschede	-10.8319
▁prostatae	-10.8319
▁uitrijping	-10.8319
▁verknepen	-10.8319
▁hepatocellulair	-10.8319
▁planus	-10.8319
▁subpleura	-10.8319
▁monoclonaal	-10.8319
01558	-10.8319
▁aktieve	-10.8319
flowcytometrisch	-10.8319
▁voorafgaand	-10.8319
▁fax	-10.8319
80473	-10.8319
▁doorwoekerd	-10.8319
35100	-10.8319
62160	-10.8319
80053	-10.832
46100	-10.832
runcu	-10.832
32390	-10.8322
▁bacterien	-10.8322
▁neuroendocrien	-10.8323
84700	-10.8323
verdringing	-10.8324
▁acantholytisch	-10.8324
▁doorgebeld	-10.8324
▁radiotherapie	-10.8324
▁hechtdraad	-10.8325
wijl	-10.8325
▁paratracheaal	-10.8325
▁2040	-10.8326
▁systemisch	-10.8327
▁binnenste	-10.8327
▁tumorgroei	-10.8334
kwabsbronchus	-10.8339
▁rectumbiopt	-10.834
▁penis	-10.8342
▁basaloid	-10.8342
▁grens	-10.8352
▁thoracaal	-10.8352
laas	-10.8358
▁blaasweefsel	-10.8359
210	-10.8363
94003	-10.8371
▁lumbaal	-10.8372
▁mds	-10.8373
▁linkerwang	-10.8383
▁derde	-10.8385
08	-10.8404
uur	-10.8415
8120	-10.8424
kd	-10.8428
▁perivasculaire	-10.8429
ixe	-10.8431
▁vira	-10.845
▁(>	-10.845
tjes	-10.8467
▁apica	-10.8467
▁iliacaal	-10.8469
▁lymfoompanel	-10.8481
bovenbeen	-10.8483
▁1/	-10.8484
lymfangioinvasie	-10.8495
▁merkelcel	-10.8508
▁va	-10.851
her	-10.852
eren	-10.8522
▁mx	-10.8527
▁mutaties	-10.8532
▁norm	-10.8532
hin	-10.8562
▁vriescoupes	-10.8565
▁digitu	-10.86
▁1)	-10.8602
81	-10.8611
vasculaire	-10.8633
actief	-10.8665
waar	-10.8673
antrum	-10.8676
▁3+3=6	-10.8691
6833	-10.87
▁0,	-10.8715
▁60	-10.8722
excisiebiopsie	-10.8731
laaggradig	-10.8733
▁mucineu	-10.8748
topografie	-10.8748
goed	-10.8751
.*******/	-10.8761
vr	-10.8772
punctaat	-10.8775
▁perivasculair	-10.8792
az	-10.8811
deze	-10.8816
galblaasresectie	-10.8831
excisiemateriaal	-10.8833
▁tumorcel	-10.8846
▁lymfvat	-10.8868
rectumslijmvlies	-10.887
6400	-10.8884
▁bestaan	-10.8886
▁myeloid	-10.8889
▁huidfragment	-10.8893
huid	-10.8893
75	-10.8895
▁laten	-10.8902
fokaal	-10.8904
▁temporalis	-10.8905
apsel	-10.8905
lymfklierexcisie	-10.8906
▁mesotheel	-10.8906
▁biopsy	-10.8907
▁choledochus	-10.8907
▁gelijktijdig	-10.8907
▁opgevraagd	-10.8907
▁pulmonalis	-10.8907
▁sequentie	-10.8907
▁sporadisch	-10.8907
▁vimentine	-10.8907
▁uitrijpend	-10.8907
▁bakker	-10.8907
figo	-10.8907
▁adenomyosis	-10.8907
14430	-10.8907
88953	-10.8907
▁blaasdak	-10.8907
▁sigmoideum	-10.8907
▁intradermalis	-10.8907
36500	-10.8907
▁onzeker	-10.8907
▁compo	-10.8907
szins	-10.8908
▁vaginawand	-10.8908
95400	-10.8908
▁perivesica	-10.8908
▁cutaneum	-10.8908
▁angiosarcoom	-10.8909
67400	-10.8909
▁igm	-10.8909
▁lymfvatinvasie	-10.8909
▁genetisch	-10.8909
▁ductcarcinoma	-10.891
▁zwakke	-10.891
▁kapje	-10.8911
▁dik	-10.8912
▁sputum	-10.8912
▁nauwelijk	-10.8912
▁avs	-10.8913
▁dieptegroei	-10.8913
▁trachea	-10.8913
▁consultatie	-10.8917
▁weefselstuk	-10.8917
▁peritonitis	-10.8918
▁uiteindelijk	-10.8919
▁iga	-10.892
▁blok	-10.8922
▁okseltoilet	-10.8922
▁contact	-10.8922
▁transuretra	-10.8922
ocellulair	-10.8923
▁groepjes	-10.8924
00180	-10.8927
▁2,6	-10.8929
▁lymphklieren	-10.8931
▁zogenaamd	-10.8932
▁vaginatop	-10.8937
▁ziekte	-10.8941
▁rbk	-10.8942
▁tumorhaarden	-10.8942
▁celpopulatie	-10.8948
▁corpustype	-10.895
▁komen	-10.8953
▁submucosaal	-10.8954
▁secundaire	-10.896
▁coller	-10.8962
beenmergaspiraat	-10.8981
▁doorsneden	-10.8983
8/	-10.9006
bronchussnijvlak	-10.901
22000	-10.9015
▁parametria	-10.9036
acm	-10.9042
ose	-10.9073
▁celrijke	-10.9116
lijn	-10.9117
56	-10.9133
oeten	-10.9137
▁macroscopische	-10.9138
▁chondro	-10.9147
▁subserosa	-10.9154
▁vreemdlichaams	-10.917
cardia	-10.9195
ë	-10.9198
▁rectums	-10.9225
ed	-10.9249
lp	-10.928
appendicitis	-10.9322
▁fibroma	-10.9326
hoofd	-10.9333
lengte	-10.9335
▁lok	-10.934
ablatie	-10.9349
delen	-10.9357
▁62	-10.9367
▁ch	-10.9372
tussen	-10.9375
dcis	-10.9386
21	-10.9387
▁vastgesteld	-10.9415
▁uitgaand	-10.9426
peritoneale	-10.9464
▁zegelring	-10.947
99:	-10.9514
▁...............	-10.9514
amelijk	-10.9522
ars	-10.9527
sv	-10.9528
▁karakter	-10.9532
09451	-10.9532
histocytologisch	-10.9532
▁gecombineerd	-10.9532
▁gezichtspunten	-10.9532
▁haematopoiese	-10.9532
▁lienalis	-10.9532
▁prostatitis	-10.9532
▁hybridisatie	-10.9532
▁eindconclusie	-10.9532
▁cancerisatie	-10.9532
▁verhoogd	-10.9532
▁verlittekening	-10.9532
▁serologisch	-10.9532
rotterdam	-10.9532
▁megakaryocyten	-10.9532
▁verruceus	-10.9532
01720	-10.9532
▁polypeuze	-10.9532
46410	-10.9533
▁omdat	-10.9533
76600	-10.9533
▁omliggend	-10.9533
69720	-10.9533
▁glandula	-10.9534
▁ebv	-10.9535
▁fibrine	-10.9535
▁interstitiele	-10.9536
▁random	-10.9537
77600	-10.9537
55000	-10.9537
▁polyposis	-10.9538
▁botboring	-10.9538
ele	-10.9538
▁vlokken	-10.9538
▁parakeratose	-10.9538
▁pancreaskop	-10.9539
▁cystitis	-10.9539
▁celgroepjes	-10.9541
▁bronchiale	-10.9544
▁debulking	-10.9548
▁resultaat	-10.9548
▁lymfomen	-10.9548
▁presternaal	-10.9548
dysplasie	-10.955
▁prof	-10.955
▁linkerschouder	-10.9551
▁7,5	-10.9551
gevallen	-10.9552
▁2,4	-10.9555
stukken	-10.9556
▁romphuid	-10.9556
09:	-10.9558
▁kaak	-10.9569
▁dig	-10.9575
tweemaal	-10.9581
▁elementen	-10.9582
▁>	-10.9592
romphuidtype	-10.9597
▁ala	-10.9605
▁innemend	-10.9611
ht	-10.9621
▁tijd	-10.9622
▁vervet	-10.9625
▁voorwand	-10.9631
▁molle	-10.9634
mateuze	-10.9636
439	-10.966
4200	-10.9672
▁intraderma	-10.9692
▁huidweefsel	-10.9705
▁teken	-10.971
ig	-10.9711
▁bii	-10.9754
17	-10.9786
680	-10.9791
htt	-10.98
19	-10.9813
▁mib	-10.9816
▁reuscelreactie	-10.9823
300	-10.9834
▁3,2	-10.9845
▁3+	-10.9849
▁ven	-10.9866
▁kleinere	-10.9901
▁(0/2).	-10.9903
723	-10.9918
63	-10.9918
▁*******)	-10.9966
ir	-10.9981
▁9,	-10.9984
▁31	-10.9989
uteriene	-10.9991
▁tumorgraad	-10.9993
beoordeling	-10.9997
laesie	-10.9998
▁verdachts	-11.0002
fluorescentie	-11.0018
▁3+3	-11.0033
▁zon	-11.0034
9500	-11.0039
avl	-11.004
achterwand	-11.0041
▁beentumoren	-11.0041
vermoedelijk	-11.0042
infiltrerend	-11.0042
centraal	-11.0043
gleasonscore	-11.0054
reden	-11.0062
volgen	-11.0063
62	-11.0068
▁maagcarcinoom	-11.0077
noo	-11.0083
▁1-2	-11.009
07-	-11.0092
arm	-11.0107
▁microsatelliet	-11.0113
tek	-11.013
lokale	-11.0131
49	-11.0138
510	-11.0157
▁lo	-11.0161
▁biopsies	-11.0165
▁calcificatie	-11.0178
aat	-11.0179
▁klievingsvlak	-11.018
▁ex	-11.0188
▁lymphklier	-11.0189
▁sereu	-11.0194
▁uitloper	-11.0194
▁woekering	-11.0196
▁verruc	-11.0197
eparate	-11.0198
80933	-11.0199
▁beoordeelbare	-11.0199
▁centimeter	-11.0199
▁eccrien	-11.0199
▁fungoides	-11.0199
▁gefibroseerd	-11.0199
▁herhalen	-11.0199
▁prolifererend	-11.0199
▁pseudomelanosis	-11.0199
mycosis	-11.0199
iformis	-11.0199
▁secretiefase	-11.0199
▁cytokeratine	-11.0199
▁precie	-11.0199
72240	-11.0199
90523	-11.0199
46310	-11.0199
▁immunofenotype	-11.0199
97313	-11.0199
▁omsneden	-11.0199
80520	-11.0199
▁renis	-11.0199
▁rode	-11.0199
▁begrensd	-11.0199
▁buisjes	-11.0199
▁bovenpool	-11.02
lw	-11.02
33050	-11.0201
▁arts	-11.0201
▁regeneratie	-11.0201
epen	-11.0202
▁tubae	-11.0202
▁galwegen	-11.0203
▁inzendingen	-11.0203
ransformatiezone	-11.0204
▁hierboven	-11.0205
▁vinden	-11.0205
▁translocatie	-11.0205
▁ulcusbodem	-11.0205
▁tongbasis	-11.0205
▁colectomie	-11.0206
eeds	-11.0207
▁overgaand	-11.0207
▁protocollair	-11.0207
▁satellitose	-11.0207
▁ondersteunt	-11.0208
3)	-11.0209
▁ketens	-11.0209
alhoe	-11.021
▁leverweefsel	-11.0213
58700	-11.0215
▁defect	-11.0216
▁breedte	-11.0216
▁lcis	-11.0216
▁posterieur	-11.0217
▁infiltraten	-11.0217
achtige	-11.0219
▁familie	-11.0219
▁kapjes	-11.0223
aortaal	-11.0224
▁comedo	-11.0226
▁excisies	-11.0227
▁60%	-11.0229
▁architectuur	-11.0238
▁kruin	-11.0238
▁carcinosarcoom	-11.0238
▁tumorstadium	-11.0243
▁incisiebiopsie	-11.0248
▁angioinvasieve	-11.0249
▁rechterzijde	-11.0255
lr	-11.0262
▁cribriforme	-11.0265
▁risk	-11.0266
▁epitheelcellen	-11.0266
▁hersen	-11.0271
▁(100%).	-11.0273
mne	-11.0278
▁antrumbiopten	-11.0278
▁prostaatbiopsie	-11.0279
▁weefselstukjes	-11.0282
vula	-11.0284
▁inflammatoir	-11.0289
▁kanaal	-11.0307
▁zijden	-11.0309
60	-11.0324
▁hp	-11.0326
ge	-11.033
▁aangevuld	-11.0342
▁verrichten	-11.0343
▁voorzijde	-11.0356
nh	-11.0357
sis	-11.0359
pe	-11.0365
▁medenem	-11.0372
▁ged	-11.0375
▁jm	-11.0375
▁steun	-11.0377
▁45	-11.0416
rende	-11.043
aar	-11.0435
▁xi	-11.0447
immuno	-11.0447
▁lokal	-11.0484
07	-11.0484
▁hoger	-11.0487
25	-11.0487
oprostatectomie	-11.0488
aan	-11.049
punctie	-11.0504
▁(0	-11.0518
ijns	-11.055
07:	-11.0558
330	-11.0566
9):	-11.0571
00200	-11.0593
▁cholecyst	-11.0595
mamma	-11.0602
▁plek	-11.0614
stelling	-11.0615
lies	-11.0628
▁?	-11.0633
▁blijven	-11.0646
11410	-11.0648
▁%)	-11.0656
▁anterieur	-11.0665
necrose	-11.0665
660	-11.067
scomponent	-11.0678
▁huidpreparaat	-11.0699
iliacaal	-11.0716
bovenarm	-11.0716
positief	-11.072
).^^	-11.0722
adenoom	-11.0724
32	-11.0728
laag	-11.0752
rwv	-11.0753
gewicht	-11.0754
maligne	-11.0756
txy	-11.0757
820	-11.0757
pectorale	-11.0766
08:	-11.0781
▁con	-11.0788
▁bijgevoegd	-11.0797
▁hodgkinlymfoom	-11.08
▁moll	-11.0812
▁aange	-11.0841
▁447	-11.0874
▁1,0	-11.0884
▁media	-11.0889
nb	-11.0891
▁groepje	-11.0892
▁tme	-11.091
▁genetic	-11.0911
▁subser	-11.0912
registratie	-11.0913
▁prurigo	-11.0913
80423	-11.0913
dorsum	-11.0913
▁bewijs	-11.0913
▁coeliacus	-11.0913
▁contagiosum	-11.0913
▁correleren	-11.0913
▁flowcytometrie	-11.0913
▁geamplificeerd	-11.0913
▁geidentificeerd	-11.0913
▁gereseceerd	-11.0913
▁mestcellen	-11.0913
▁multifocaliteit	-11.0913
▁parietalis	-11.0913
▁submuceu	-11.0913
▁celrijkdom	-11.0913
▁zeggen	-11.0913
92203	-11.0913
44440	-11.0913
▁bewerking	-11.0913
72420	-11.0913
82603	-11.0913
residu	-11.0913
04040	-11.0913
76660	-11.0913
▁graag	-11.0913
▁vijftien	-11.0913
▁buikvocht	-11.0913
▁fibrosis	-11.0913
▁heup	-11.0913
96903	-11.0914
▁melanocyten	-11.0914
▁vergrote	-11.0914
54110	-11.0914
52110	-11.0915
▁douglasi	-11.0917
▁daarna	-11.0917
▁voorgelegd	-11.0917
▁kanker	-11.0919
4500	-11.0919
▁eindstandig	-11.092
▁brush	-11.092
▁schedel	-11.092
nclusief	-11.092
▁eiwitten	-11.092
▁perirectale	-11.092
▁clonaliteits	-11.0921
▁vetnecrose	-11.0922
▁pees	-11.0923
▁onderscheiden	-11.0929
▁ruimte	-11.0931
▁abdomen	-11.0931
▁codon	-11.0931
▁submandibulair	-11.0931
▁hormona	-11.0931
▁opbouw	-11.0932
▁oorrand	-11.0935
▁sclerose	-11.0936
meld	-11.0936
▁maagtype	-11.0937
▁punten	-11.0937
▁middel	-11.0938
▁2,7	-11.0939
▁zwart	-11.0939
97003	-11.0942
▁+4	-11.0944
▁antrumtype	-11.0947
▁maagcardia	-11.0964
loge	-11.0968
▁tumoringroei	-11.0969
▁grenzend	-11.0973
▁huidreexcisie	-11.0983
▁rectumresectie	-11.0989
▁deficientie	-11.0992
▁effect	-11.0996
▁inter	-11.1
▁3,0	-11.1001
min	-11.1018
▁overeenkomen	-11.102
▁corpusbiopten	-11.1022
▁klierweefsel	-11.1034
▁huidre	-11.104
▁val	-11.1047
88	-11.1051
ab	-11.1059
anden	-11.1061
ire	-11.1062
▁co	-11.1071
▁rwv	-11.1078
5103	-11.108
▁bepalingen	-11.1095
▁sessiel	-11.1125
.*******	-11.1128
▁proliferatief	-11.113
▁3+4=7.	-11.1135
bronchussneevlak	-11.1145
▁^^	-11.1159
▁trans	-11.1161
▁blauwe	-11.1162
▁blaasresectie	-11.1168
▁voorgaand	-11.117
▁zijresectievlak	-11.1172
*******/*******/	-11.1176
typering	-11.1201
teuze	-11.1207
spoeling	-11.1227
expressie	-11.124
08-	-11.1244
sarcoom	-11.1255
39	-11.1274
▁..........	-11.1317
▁33	-11.132
caudaal	-11.132
eel	-11.1322
subserosaal	-11.1341
▁omgeven	-11.1341
lis	-11.1348
slaap	-11.1352
▁2+	-11.1379
uscu	-11.1384
1147	-11.1385
▁haarfollikel	-11.1388
▁+/-	-11.1408
")	-11.1418
▁dissectie	-11.1427
▁satelliet	-11.1439
452	-11.1463
cl	-11.1476
percentage	-11.1485
8210	-11.1492
2;	-11.1498
test	-11.1514
anaal	-11.1516
aangevuld	-11.152
litteken	-11.1522
anderson	-11.1522
index	-11.1522
stroma	-11.1524
definitieve	-11.1525
superficieel	-11.1526
bloom	-11.1526
48	-11.1527
neusrug	-11.1528
pathologisch	-11.1528
▁uurs	-11.1532
▁20%	-11.154
▁tibia	-11.1572
▁follikel	-11.1582
▁kort	-11.1589
0).	-11.1594
06-	-11.1601
802	-11.161
dna	-11.1613
1):	-11.1625
▁blaascarcinoom	-11.1628
▁for	-11.1642
hk	-11.1655
oren	-11.1659
ratio	-11.1664
▁parti	-11.1674
▁mitose	-11.1676
140	-11.1677
▁mola	-11.1677
▁verkalking	-11.1679
▁epitheloid	-11.168
▁amyloid	-11.1682
▁additione	-11.1682
▁darmkanker	-11.1682
▁indruk	-11.1682
▁kernpolymorfie	-11.1682
▁onrijp	-11.1682
▁submandibularis	-11.1682
▁thermisch	-11.1682
▁vertoont	-11.1682
88023	-11.1682
▁uitermate	-11.1682
30901	-11.1682
▁myelofibrose	-11.1682
▁hysterectomie	-11.1682
▁vaatsteel	-11.1682
▁osteosarcoom	-11.1682
▁plasmocytoom	-11.1682
89503	-11.1682
93250	-11.1682
▁grensvlaknaevus	-11.1682
83103	-11.1682
▁tubulus	-11.1682
88510	-11.1683
▁discrete	-11.1683
64310	-11.1683
48890	-11.1683
85603	-11.1683
▁doorgegroeid	-11.1684
15600	-11.1684
▁intracysteus	-11.1685
reactiviteit	-11.1686
▁waargenomen	-11.1686
150	-11.1687
▁mening	-11.1689
▁blaasmucosa	-11.1689
▁doorgesneden	-11.1689
▁transmuraal	-11.1689
▁chromogranine	-11.1689
▁inferior	-11.1689
▁koepel	-11.1689
▁steatose	-11.1689
▁foveolair	-11.169
▁onderlaag	-11.169
▁stenoserend	-11.1691
▁extracapsul	-11.1692
▁wig	-11.1693
▁peribronchiaal	-11.1695
▁monotypisch	-11.1695
▁corpuscurettage	-11.1697
▁cervixcurettage	-11.1697
▁oorlel	-11.1702
▁astrocytoma	-11.1702
▁gestuurd	-11.1702
▁rib	-11.1703
▁haarfollikels	-11.1704
▁macroscopie	-11.1704
▁beenmergbiopsie	-11.1705
▁representatie	-11.1706
▁onderpool	-11.1706
▁jon	-11.1709
▁zin	-11.1709
▁maagwand	-11.1711
cilinderepitheel	-11.1711
▁snb	-11.1711
▁insnijden	-11.1712
▁anamnes	-11.1715
▁secretoir	-11.1715
▁tumorvolume	-11.1717
▁grawitztumor	-11.1717
▁aneuploid	-11.1718
▁maagbiopt	-11.1724
microsatellieten	-11.1724
▁maxillaris	-11.1724
▁prim	-11.1726
loride	-11.1739
multiple	-11.1741
▁os	-11.1746
reactie	-11.1749
82003	-11.1766
oesofagusbiopten	-11.1771
*,	-11.1783
▁ischaemie	-11.179
▁aankleurings	-11.1797
▁okseltopklier	-11.1806
▁hypertrofie	-11.1807
retroperitoneaal	-11.181
criteria	-11.1818
▁levert	-11.1829
▁2013	-11.1832
31	-11.1835
▁40%	-11.184
▁reusceltumor	-11.184
onderarm	-11.1841
1115	-11.1852
vetweefsel	-11.1853
ul	-11.1854
6000	-11.188
▁2011	-11.1881
▁(3-	-11.1884
▁lobuli	-11.1885
%.	-11.1885
87	-11.1887
▁0.4	-11.1889
▁small	-11.1898
ib	-11.1912
3709	-11.1924
▁6).	-11.1956
▁huidje	-11.1957
istopathologisch	-11.1962
▁7).	-11.1965
▁samen	-11.1971
▁intacte	-11.1981
▁feit	-11.1984
▁5:	-11.1989
sus	-11.2009
ta	-11.2022
2500	-11.2029
733	-11.2031
ol	-11.2032
▁ga	-11.2059
ature	-11.206
ductaalcarcinoom	-11.2079
▁parenchym	-11.208
cell	-11.2081
vormige	-11.2083
vaatresectievlak	-11.2112
▁(2)	-11.2112
parenchym	-11.2136
allergische	-11.2185
cti	-11.2195
snijvlak	-11.2205
▁5)	-11.2208
dia	-11.2212
nodulair	-11.2222
oor	-11.2229
erbb	-11.2229
lobulair	-11.2258
105	-11.2263
tien	-11.2286
epithelioom	-11.2287
6:	-11.2292
bodem	-11.2302
16	-11.2302
licht	-11.2305
▁shavebiopt	-11.2305
volume	-11.2306
genoeg	-11.2326
28	-11.2333
blokje	-11.2335
▁2+.	-11.2338
▁bronchusbiopsie	-11.2339
831	-11.2341
aorta	-11.2347
▁3-	-11.2348
94	-11.2349
anders	-11.2352
profiel	-11.2358
ih	-11.2358
neusvleugel	-11.2359
metaplasie	-11.2359
▁later	-11.2363
oksel	-11.2363
▁br	-11.2385
▁ischaemi	-11.2399
603	-11.2416
1/*******	-11.2454
▁ong	-11.2459
kop	-11.2462
▁voorkomend	-11.2464
focaal	-11.2468
▁wervel	-11.2491
uunhistochemisch	-11.2495
rig	-11.2496
▁dissectievlak	-11.2497
▁samenhang	-11.25
▁(8	-11.2514
▁liquor	-11.2515
▁̄d	-11.2515
91203	-11.2515
94503	-11.2515
olithiasis	-11.2515
▁albuginea	-11.2515
▁annulare	-11.2515
▁diploid	-11.2515
▁diverticulose	-11.2515
▁gedilateerd	-11.2515
▁geprikkeld	-11.2515
▁haemorrhagisch	-11.2515
▁interpretatie	-11.2515
▁neckdissectie	-11.2515
▁patiënt	-11.2515
▁preputium	-11.2515
▁reflux	-11.2515
▁transmurale	-11.2515
▁verkalkt	-11.2515
80702	-11.2515
▁eenduidig	-11.2515
▁radikaal	-11.2515
▁tumour	-11.2515
▁haargrens	-11.2515
43750	-11.2515
▁zichtbaar	-11.2515
85402	-11.2515
▁begeleid	-11.2515
81703	-11.2515
histoscore	-11.2515
▁angiolipoom	-11.2515
▁kenne	-11.2516
▁spierrok	-11.2516
▁minuscuul	-11.2516
▁elkaar	-11.2516
▁toepassing	-11.2516
96763	-11.2516
30709	-11.2516
▁amyloidose	-11.2516
82503	-11.2516
▁geduid	-11.2516
96713	-11.2516
84903	-11.2516
▁zijsnijvlak	-11.2516
▁tijdens	-11.2516
96633	-11.2516
88610	-11.2516
▁supraglottisch	-11.2516
▁pigmentatie	-11.2516
96923	-11.2516
72030	-11.2516
adha	-11.2516
▁myoom	-11.2516
▁bauhini	-11.2517
87400	-11.2517
▁vlakbij	-11.2517
▁hersentumor	-11.2517
▁vasectomie	-11.2517
▁bewerkt	-11.2517
▁evt	-11.2518
regelmatig	-11.2518
▁pigmentlaesie	-11.2518
▁orale	-11.2518
28070	-11.2518
24010	-11.2518
▁seborrhoisch	-11.2519
72200	-11.2519
5200	-11.2519
▁adnexextirpatie	-11.252
▁snel	-11.252
▁bijschildklier	-11.252
▁gynaecomastie	-11.2521
▁laryngectomie	-11.2522
▁mpi	-11.2522
▁antistoffen	-11.2523
▁commentaar	-11.2523
▁fixatie	-11.2523
▁genoemd	-11.2524
▁ductectasieen	-11.2524
▁bouw	-11.2524
▁basalecellen	-11.2524
▁mlh	-11.2524
▁nesten	-11.2524
▁celbeeld	-11.2525
▁binnenzijde	-11.2525
▁daarom	-11.2526
▁vezels	-11.2526
▁colonmucosa	-11.2527
▁wijzen	-11.2528
▁clonale	-11.2529
▁granuloom	-11.2534
▁heel	-11.2536
▁eiwit	-11.2537
▁diafragma	-11.2537
▁aantasting	-11.2537
▁elston	-11.2537
▁jejunum	-11.2537
▁marsh	-11.2537
▁acinair	-11.2537
▁deletie	-11.2538
▁anaemie	-11.254
▁cystisch	-11.2541
▁reeksen	-11.2548
▁excisiebiopten	-11.255
▁tumorkenmerken	-11.2551
▁3.5	-11.2551
▁seminoma	-11.2551
▁2010	-11.2555
▁hoek	-11.2556
▁vlok	-11.2559
▁gebruik	-11.2562
▁vervolg	-11.2564
▁kwantitatie	-11.2566
▁comedotype	-11.2567
▁som	-11.2573
▁3,3	-11.2577
▁cervixweefsel	-11.258
▁lbk	-11.258
▁bovengenoemde	-11.2582
▁stereotactische	-11.2582
/18	-11.2598
▁tumorlengte	-11.2602
▁02	-11.2603
▁somat	-11.2606
▁papel	-11.2607
ao	-11.2608
▁cristabeenmerg	-11.2614
ine	-11.2617
▁activiteits	-11.262
basis	-11.2622
satelliethaarden	-11.2623
bronchusspoelsel	-11.2626
▁cervixbiopsie	-11.2662
voorgeschiedenis	-11.2666
▁randsinus	-11.2675
▁vastgestelde	-11.2675
circumferentieel	-11.2685
nucleaire	-11.2689
all	-11.269
2013	-11.2692
8020	-11.2705
tie	-11.2711
▁radi	-11.2726
▁renaalcel	-11.2732
vaginale	-11.2734
ildwachterklier	-11.2746
1128	-11.2756
gr	-11.276
oordeel	-11.2763
▁pal	-11.2763
▁typisch	-11.2773
▁2-3	-11.2825
▁voorh	-11.2834
cervicale	-11.2846
▁overal	-11.2855
▁(0/	-11.2895
▁clear	-11.2902
we	-11.2914
ik	-11.2915
▁zwangerschap	-11.2918
▁kleincellige	-11.2933
▁gele	-11.2936
▁("	-11.294
▁immu	-11.2942
rechterbovenkwab	-11.2948
bra	-11.2976
populatie	-11.3014
6510	-11.3024
bv	-11.3028
/21	-11.3032
8110	-11.3055
7):	-11.306
umorlocalisaties	-11.3063
▁pan	-11.3063
2007	-11.3074
chemisch	-11.3085
kenmerken	-11.3101
ductale	-11.3138
▁lipomateu	-11.314
▁overig	-11.3147
▁4).	-11.3163
haarden	-11.3176
941	-11.32
irca	-11.3227
cervix	-11.3252
▁kleur	-11.3255
geleide	-11.326
grawitz	-11.3263
grootcellig	-11.3263
bovenlip	-11.3267
niveau	-11.3267
consult	-11.3267
overwegend	-11.3268
weinig	-11.3268
▁2012	-11.3273
▁flegmoneu	-11.328
enig	-11.3282
▁peritoneumbiopt	-11.3287
immuun	-11.329
▁neusslijmvlies	-11.3317
79	-11.3323
appendixresectie	-11.3358
basaal	-11.3365
▁dunnedarm	-11.3367
▁*******:^	-11.3368
▁or	-11.3377
erend	-11.3384
▁pelvi	-11.3396
▁schimmel	-11.3397
▁chirurg	-11.3401
▁millimeter	-11.3401
▁veldje	-11.3404
▁dubieu	-11.3404
▁mee	-11.3413
tpn	-11.3414
▁bevinding	-11.3415
▁bov	-11.3418
▁vulvabiopt	-11.3423
▁nasofarynx	-11.3423
▁intima	-11.3424
▁auto	-11.3424
▁humerus	-11.3424
▁voetzool	-11.3424
hyperpigmentatie	-11.3424
verschuiving	-11.3424
▁continuitatem	-11.3424
▁dysplasia	-11.3424
▁gedegenereerd	-11.3424
▁geprolifere	-11.3424
▁gevraagd	-11.3424
▁glioblastoom	-11.3424
▁grillig	-11.3424
▁identiek	-11.3424
▁kaposi	-11.3424
▁mediastinaal	-11.3424
▁monoclonaliteit	-11.3424
▁opgebouwd	-11.3424
▁rekening	-11.3424
▁tumorload	-11.3424
▁verloren	-11.3424
▁wenselijk	-11.3424
▁essentie	-11.3425
brokjes	-11.3425
▁navelstreng	-11.3425
▁aortaklep	-11.3425
▁endometritis	-11.3425
▁functione	-11.3425
▁huidlapje	-11.3425
▁ontwikkeld	-11.3425
57250	-11.3425
rood	-11.3425
▁major	-11.3425
▁nagel	-11.3425
▁minuscu	-11.3425
▁spits	-11.3425
▁gesteeld	-11.3425
69730	-11.3425
▁respiratoir	-11.3425
54040	-11.3425
▁enschede	-11.3425
72060	-11.3425
▁cysticus	-11.3425
▁operatieholte	-11.3425
▁dergelijk	-11.3425
87800	-11.3425
06511	-11.3425
31800	-11.3425
80513	-11.3425
32710	-11.3425
▁eigenlijk	-11.3425
▁adenosis	-11.3425
▁bdz	-11.3426
72150	-11.3426
17050	-11.3426
▁cervixuitstrijk	-11.3426
▁navel	-11.3427
85103	-11.3427
▁koa	-11.3427
69710	-11.3427
▁overliggend	-11.3427
gevr	-11.3428
▁littekengebied	-11.3429
▁krabeffect	-11.343
▁neemt	-11.343
74200	-11.343
perifolliculitis	-11.3431
▁botbiopsie	-11.3431
50080	-11.3431
▁gekerfd	-11.3433
▁werkgroep	-11.3433
▁synovitis	-11.3433
▁waldenstrom	-11.3433
▁beslag	-11.3433
▁bursa	-11.3434
▁paraffine	-11.3434
▁fistel	-11.3435
▁klierbuisjes	-11.3435
41400	-11.3435
▁tegenover	-11.3436
▁reaktie	-11.3436
▁gemaakt	-11.3436
rom	-11.3437
▁jong	-11.3437
▁samenhangend	-11.3438
▁hersenen	-11.3438
▁purulente	-11.344
▁antigeen	-11.344
28020	-11.3441
▁10-	-11.3442
▁stagering	-11.3442
▁thrombus	-11.3444
▁macrometastasen	-11.3444
▁preauriculair	-11.3446
79100	-11.3447
▁gingiva	-11.3448
▁blue	-11.3449
▁nasopharynx	-11.3449
jr	-11.345
▁achterhoofd	-11.3451
▁mogelijke	-11.3461
1700	-11.3462
▁gelijkend	-11.3462
▁occipitaal	-11.3464
▁rok	-11.3467
▁potje	-11.3472
▁bilateral	-11.3472
▁eenderde	-11.3473
▁stembandbiopten	-11.3477
hij	-11.3477
▁xiii	-11.3479
▁**	-11.348
witte	-11.3484
▁verbrokkeld	-11.3492
flardjes	-11.3492
▁+4).	-11.3492
edifferentieerd	-11.3495
01310	-11.3496
▁cdx	-11.3499
▁cish	-11.3503
sistent	-11.3504
▁uiter	-11.3506
▁rete	-11.3508
▁prominente	-11.3511
16000	-11.3514
▁plooi	-11.3529
vii	-11.3557
▁aorta	-11.3562
▁gemerkt	-11.3565
pje	-11.3572
▁intraepithelia	-11.3576
▁1.1	-11.3586
▁verwijz	-11.3588
▁spoeling	-11.3593
08200	-11.3597
▁minst	-11.3597
mk	-11.3599
70000	-11.3615
▁rv	-11.3619
▁0.3	-11.362
bn	-11.363
▁(3+3)	-11.3637
▁turp	-11.3649
▁anders	-11.3654
▁(0).	-11.366
▁90	-11.3665
58	-11.3702
▁tricho	-11.3704
histiocytair	-11.3713
▁(6	-11.3738
?):	-11.3745
huidbiopt	-11.3777
cis	-11.3778
▁3+3=6)	-11.3784
▁ductuscarcinoom	-11.3795
▁local	-11.3802
dd	-11.3802
▁toplymfklier	-11.3802
85	-11.3819
▁0.6	-11.3822
▁snedevlak	-11.3835
▁exc	-11.3838
▁metend	-11.3852
09-	-11.3856
tisch	-11.3864
▁oksellymfklier	-11.3869
380	-11.3889
▁oesophagusbiopt	-11.3899
ammaklierweefsel	-11.3899
▁ht	-11.3926
▁7)	-11.3929
522	-11.3931
▁80	-11.3933
2002:	-11.3953
formatie	-11.3955
off	-11.3971
561	-11.3994
vlak	-11.3998
▁plaveiselcelcar	-11.401
*******/	-11.404
eken	-11.4053
6550	-11.4059
▁1).	-11.4063
▁peritoneal	-11.4081
ry	-11.4097
chl	-11.4104
▁mond	-11.4113
▁70%	-11.4135
tje	-11.4139
770	-11.4152
790	-11.4173
helft	-11.4211
▁lis	-11.4219
125	-11.4221
...............	-11.4232
copie	-11.4237
satypie	-11.4242
thyreoidectomie	-11.4246
bos	-11.4247
afwijkingen	-11.4253
ovarieel	-11.4255
hypertrofie	-11.4262
nek	-11.4262
ductaal	-11.4264
grade	-11.4266
optima	-11.4266
oorschelp	-11.4267
frontaal	-11.4267
pols	-11.4267
gelaat	-11.4267
onderooglid	-11.4267
apex	-11.4267
490	-11.4267
fish	-11.4267
oestrogeen	-11.4268
gescand	-11.4269
gering	-11.4269
▁lamblia	-11.4275
inflammatoire	-11.4275
zo	-11.428
66	-11.4284
▁07	-11.4287
▁orbita	-11.4291
chra	-11.4293
▁erythema	-11.4295
uurs	-11.43
▁staan	-11.4301
9).	-11.4303
▁3+3.	-11.4304
non	-11.4315
ulair	-11.4318
▁hypertrofisch	-11.432
vin	-11.4341
amy	-11.4342
effecten	-11.4351
▁erg	-11.4363
▁hart	-11.4365
ien	-11.437
▁recto	-11.4393
1,5	-11.4395
▁vert	-11.4397
cv	-11.4398
▁cmv	-11.44
▁ductectasie	-11.4405
▁fro	-11.4406
▁vergel	-11.4413
▁kliertje	-11.4414
spraak	-11.4415
▁lump	-11.4417
▁poli	-11.4418
▁congenita	-11.4418
8-9	-11.4422
spoelvocht	-11.4423
▁vroege	-11.4423
▁duodeni	-11.4424
▁trachomatis	-11.4424
enucleatie	-11.4424
immunoperoxydase	-11.4424
serrated	-11.4424
verdikking	-11.4424
▁diverticulosis	-11.4424
▁gedenudeerd	-11.4424
▁lithiasis	-11.4424
▁noodzakelijk	-11.4424
▁risico	-11.4424
▁uitgerijpt	-11.4424
▁verheven	-11.4424
▁voorkomt	-11.4424
nkte	-11.4424
▁impressie	-11.4424
▁incomplet	-11.4424
▁polycyth	-11.4424
▁begin	-11.4425
▁keratiniserend	-11.4425
▁vergroeid	-11.4425
01559	-11.4425
▁aangesneden	-11.4425
▁gebiopteerd	-11.4425
▁lateraliteit	-11.4425
▁subcapsulair	-11.4425
▁pleiten	-11.4425
55240	-11.4425
▁afgegeven	-11.4425
▁ulcero	-11.4425
▁extend	-11.4425
79360	-11.4425
▁spermaticus	-11.4425
93913	-11.4425
▁gevormd	-11.4425
88221	-11.4425
▁overeenkomstig	-11.4425
▁retromolare	-11.4425
82406	-11.4425
▁overeenstem	-11.4425
▁elk	-11.4425
97613	-11.4425
▁parasternaal	-11.4425
chorioamnionitis	-11.4425
▁zodanig	-11.4425
▁schildklierkwab	-11.4425
57390	-11.4425
▁dubbeltumor	-11.4425
▁afgenomen	-11.4425
▁hilusgebied	-11.4425
80213	-11.4426
▁isthmusgebied	-11.4426
▁candida	-11.4426
▁cellularis	-11.4426
▁mucosectomie	-11.4426
▁opgegeven	-11.4426
▁leverparenchym	-11.4426
92520	-11.4427
▁tepelhuid	-11.4427
82473	-11.4427
▁voetrug	-11.4428
▁kraal	-11.4428
77800	-11.4428
gesproken	-11.4429
8520	-11.443
▁rechtszijdig	-11.4432
▁oedemateus	-11.4432
▁cervixpoliep	-11.4433
▁weefselstukken	-11.4434
▁ypt	-11.4434
▁cholangio	-11.4434
▁algeme	-11.4434
▁prolaps	-11.4434
▁spoelvormig	-11.4434
▁subdigastrisch	-11.4434
▁opruimreactie	-11.4434
▁acanthose	-11.4434
▁redelijk	-11.4434
▁fibrocyst	-11.4434
▁azg	-11.4435
▁bronchiolo	-11.4435
▁erosief	-11.4435
▁desmoplastisch	-11.4436
▁chips	-11.4436
▁colorectaal	-11.4436
▁inzendend	-11.4437
▁microcurettage	-11.4437
▁septum	-11.4438
▁naevoid	-11.4446
▁varieren	-11.4446
▁adhesie	-11.4446
▁rechteroor	-11.4446
▁larynxbiopten	-11.445
▁schatting	-11.4451
▁virus	-11.4451
▁linkerbovenarm	-11.4451
▁bestraald	-11.4451
▁mooi	-11.4451
▁stambronchus	-11.4451
▁vinger	-11.4451
▁spitzoid	-11.4452
▁sarcomatoid	-11.4453
▁fy	-11.4455
▁blaasbodem	-11.4456
0310	-11.4462
▁ikz	-11.4464
▁jaar	-11.4466
▁bat	-11.4467
▁4,2	-11.4468
▁differentiated	-11.4468
▁genen	-11.4484
▁aangeleverde	-11.4485
▁destructie	-11.4486
▁fractuur	-11.4486
▁neoplastisch	-11.4487
▁uterusresectie	-11.4491
▁xii	-11.4495
▁heet	-11.4506
.^^^	-11.4509
▁ble	-11.4515
▁extranodaal	-11.4527
4).	-11.4541
sh	-11.4542
5=	-11.4545
▁tumornodus	-11.4545
▁colonpoliep	-11.4564
▁vera	-11.4567
▁gekend	-11.4573
▁onderste	-11.4576
46	-11.4578
uw	-11.4591
▁real	-11.4594
▁(0%).	-11.4598
156	-11.4609
▁vals	-11.4615
32100	-11.4647
▁hormoon	-11.4672
▁tubair	-11.4694
▁alveolair	-11.4704
2050	-11.471
/11	-11.4731
▁nerv	-11.4749
cytologie	-11.4751
▁darmmucosa	-11.4775
▁condyloma	-11.4775
2)	-11.4796
▁cdle	-11.4796
▁blaaswandbiopt	-11.4809
▁lymph	-11.4814
lymfocytaire	-11.4816
ert	-11.4825
▁zenuw	-11.487
duur	-11.4872
▁(*******):	-11.4886
▁1993/	-11.49
▁mondslijmvlies	-11.4901
42	-11.4927
▁brunner	-11.493
▁gebiedje	-11.494
▁3,7	-11.4998
▁spierinvasie	-11.5011
▁32	-11.5015
▁proliferaties	-11.5016
▁2008	-11.5027
▁(12	-11.5035
▁segmentexcisie	-11.5044
inoom	-11.5054
8311	-11.5062
zien	-11.507
▁holte	-11.5093
gezonden	-11.5106
▁inzi	-11.512
2/3	-11.5124
▁huidfragmentje	-11.5145
▁progesteronrece	-11.515
hooggradig	-11.5162
mi	-11.5213
▁ct	-11.5216
glandulaire	-11.5228
craniaal	-11.5239
▁sp	-11.5252
▁2,0	-11.5259
inje	-11.5261
▁2009	-11.5276
▁8,	-11.5282
nodaal	-11.5287
tijd	-11.5288
1110	-11.5288
▁25%	-11.5305
holte	-11.5305
ecto	-11.5316
▁extensi	-11.5338
liggend	-11.5338
station	-11.5353
zonder	-11.5354
▁monoklona	-11.5356
infectie	-11.5365
extra	-11.5365
doorsnede	-11.537
romphuid	-11.5374
resectierand	-11.5375
lambda	-11.5377
breslow	-11.5377
para	-11.5378
labium	-11.5378
neuspunt	-11.5378
▁naald	-11.5378
grootste	-11.5379
kras	-11.5382
flr	-11.5386
▁medio	-11.5386
spoelsel	-11.5388
zegelringcel	-11.5394
gemerkt	-11.54
rijk	-11.5405
been	-11.5409
icale	-11.5409
▁gerelateerd	-11.5419
▁test	-11.5419
▁ald	-11.5419
9082	-11.5433
▁nierbiopt	-11.5435
lijmvliesbiopsie	-11.5441
iteit	-11.5447
▁1991/	-11.5454
or	-11.5468
▁9.	-11.5478
▁circu	-11.5494
▁cytoplasma	-11.5504
▁gland	-11.5509
▁adenoma	-11.5511
▁roya	-11.5513
▁probe	-11.5514
ker	-11.5517
1(	-11.5517
▁weer	-11.5523
▁krijg	-11.5523
▁mantelcel	-11.5526
▁haar	-11.5528
▁trichilemm	-11.5533
streek	-11.5533
taal	-11.5534
kernige	-11.5535
▁leiomyoma	-11.5535
soleerd	-11.5536
▁cancer	-11.5536
▁miniscu	-11.5536
▁conjunctiva	-11.5536
▁rheuma	-11.5536
84806	-11.5536
99503	-11.5536
stapeling	-11.5536
▁bemoeilijkt	-11.5536
▁bolgroeiend	-11.5536
▁context	-11.5536
▁disease	-11.5536
▁geanalyseerd	-11.5536
▁gecauteriseerd	-11.5536
▁gehoor	-11.5536
▁haematologie	-11.5536
▁helicis	-11.5536
▁landelijk	-11.5536
▁meerlagig	-11.5536
▁opgetreden	-11.5536
▁orientatie	-11.5536
▁psoriasiform	-11.5536
▁sacrum	-11.5536
64020	-11.5536
▁malleolus	-11.5536
▁ribben	-11.5536
▁tumorkernen	-11.5536
▁omvang	-11.5536
▁pleuritis	-11.5536
54700	-11.5536
▁spongiotische	-11.5536
▁follikelcentrum	-11.5536
▁myelopoese	-11.5536
▁vaginavoorwand	-11.5536
▁salpingitis	-11.5536
▁bewezen	-11.5536
08260	-11.5536
▁leucaemie	-11.5536
91803	-11.5536
▁epitheliose	-11.5536
▁onverdacht	-11.5536
▁papillomatose	-11.5536
▁vertonen	-11.5536
▁medebeoordeeld	-11.5536
▁vraag	-11.5536
▁(0/4).	-11.5536
▁>14)	-11.5536
▁gehouden	-11.5536
87423	-11.5536
▁pulmonale	-11.5536
▁heupkop	-11.5536
▁geï	-11.5536
latiestoornissen	-11.5536
▁koilocytose	-11.5536
▁verstuur	-11.5536
▁krachtig	-11.5536
▁(0/3).	-11.5536
57170	-11.5536
inverte	-11.5536
▁oorsprong	-11.5536
rhabdomyosarcoom	-11.5536
▁bevestigen	-11.5536
▁prostaatchips	-11.5536
▁subclaviculair	-11.5536
43850	-11.5537
-14/	-11.5537
▁nefro	-11.5537
88290	-11.5537
▁polymorfie	-11.5537
63400	-11.5537
▁graderen	-11.5537
48130	-11.5537
▁slijmvorming	-11.5537
31450	-11.5537
▁aansnijding	-11.5537
▁nierparenchym	-11.5537
▁ondersteuning	-11.5537
▁intratubulair	-11.5537
38670	-11.5538
▁jugulair	-11.5538
33500	-11.5538
▁schade	-11.5539
▁groen	-11.5539
▁grof	-11.5539
▁infarcten	-11.554
▁skin	-11.554
▁daarmee	-11.554
▁hypoplastisch	-11.5541
▁nestjes	-11.5542
▁groepen	-11.5542
▁linkszijdig	-11.5543
issch	-11.5545
▁detail	-11.5547
▁glioom	-11.5547
▁macrofagen	-11.5547
▁trofoblast	-11.5547
▁lymfoblastair	-11.5547
▁conisatie	-11.5547
▁bronchiaal	-11.5547
▁nasaal	-11.5547
▁swk	-11.5547
▁(0/6).	-11.5548
▁polypoid	-11.5549
rw	-11.555
▁lipomatose	-11.5556
4023	-11.5557
▁milde	-11.5557
▁viraal	-11.5558
wve	-11.5558
▁ethmoid	-11.556
▁celgroepen	-11.5566
▁klassificatie	-11.5566
89400	-11.5566
▁evaluatie	-11.5566
▁cycline	-11.5566
▁bewaard	-11.5566
▁uitbreidt	-11.5567
▁formaties	-11.5568
rend	-11.5571
▁uitlopers	-11.5572
▁mammapunctaat	-11.5573
▁prae	-11.5575
▁4.5	-11.5577
▁plekje	-11.5582
choria	-11.5584
▁daumas	-11.5585
▁posterior	-11.5585
▁ileumbiopten	-11.5591
ium	-11.5601
▁huidinfiltratie	-11.5602
▁area	-11.5603
wz	-11.5604
▁(90%)	-11.5605
▁overgangszone	-11.5605
pw	-11.5607
urticariele	-11.561
▁acanthotisch	-11.5611
▁vroeger	-11.5612
▁*******.^	-11.5615
▁gebruikt	-11.5616
ijds	-11.5622
proliferatiefase	-11.563
periappendicitis	-11.5632
▁draad	-11.5633
▁dak	-11.5636
rtien	-11.5637
▁<10)	-11.5638
▁markeringshecht	-11.5642
▁pijpje	-11.5647
▁2001/	-11.565
▁serosaal	-11.5652
▁radio	-11.5655
▁ureteren	-11.5662
60300	-11.5664
▁cluster	-11.5676
79000	-11.5677
ase	-11.5683
6-7	-11.5689
/10	-11.5691
alveolair	-11.5713
cal	-11.5754
ksgewijs	-11.5773
▁pons	-11.5779
290	-11.578
03-	-11.5785
tumoruitbreiding	-11.5786
▁anaal	-11.5787
▁nx	-11.5788
0123	-11.5797
neuze	-11.5799
▁leg	-11.5804
▁bas	-11.5817
metastasering	-11.5828
▁tonend	-11.5843
fs	-11.5843
it	-11.5849
▁mammaamputatie	-11.5856
▁cml	-11.5859
▁0.8	-11.586
gram	-11.5861
11-	-11.5879
kb	-11.5905
omateuze	-11.5912
78	-11.5913
klierweefsel	-11.5923
onale	-11.5938
▁blaasspoel	-11.5939
310	-11.594
▁1990/	-11.5943
sproces	-11.5945
22100	-11.5947
wal	-11.5951
ël	-11.5955
▁hoofdcarina	-11.5963
▁infect	-11.5966
ming	-11.5974
▁anal	-11.5976
et	-11.5982
▁grad	-11.5993
lineair	-11.5996
..............	-11.6003
▁blijvend	-11.6005
proliferatief	-11.6041
icrocalcificatie	-11.6043
brug	-11.6047
2012	-11.6055
▁biopsieen	-11.6056
5)	-11.607
▁sle	-11.6091
proces	-11.6106
▁linea	-11.6115
len	-11.612
720	-11.616
▁5%.	-11.6164
▁galgang	-11.6183
▁differenti	-11.6194
▁99	-11.6206
2820	-11.6207
▁(*******).	-11.6215
▁3+).	-11.6216
▁levernaald	-11.6228
▁granulatie	-11.6266
effect	-11.6269
▁.......	-11.6288
▁versi	-11.6291
naevus	-11.6302
actieve	-11.6304
▁ker	-11.6309
tag	-11.6313
1230	-11.6318
▁mucin	-11.6323
sresten	-11.6327
uitbreiding	-11.634
strijkpreparaten	-11.6341
▁<5%	-11.6352
▁sigmoids	-11.6361
426	-11.6368
▁+2	-11.6383
7,	-11.6387
cum	-11.6393
▁levermetastase	-11.6417
882	-11.6427
peri	-11.6431
97:	-11.6441
▁vasoinvasie	-11.6446
genomen	-11.6456
erse	-11.6458
▁pms	-11.6469
476	-11.6481
klieren	-11.6486
stukje	-11.6516
▁loc	-11.6532
▁liggen	-11.6539
▁plekke	-11.6544
kleuringen	-11.6547
ou	-11.6551
achter	-11.6574
wijzing	-11.6579
rose	-11.6586
ria	-11.6596
handrug	-11.6605
08/*******/	-11.661
plaveiselcel	-11.6612
artefacten	-11.6614
gedeelte	-11.6614
gekomen	-11.662
cytoplasmatisch	-11.6621
gebruik	-11.6623
innemend	-11.6624
helix	-11.6625
stadiering	-11.6627
pipelle	-11.6627
hoog	-11.6628
keratine	-11.6628
thorax	-11.6628
urineblaas	-11.6628
tubair	-11.6628
definitief	-11.6629
vriescoupe	-11.6629
maligniteit	-11.6629
minus	-11.6631
huidbiopsie	-11.6631
versi	-11.6643
dit	-11.6649
▁wit	-11.6656
ectomiepreparaat	-11.6658
▁secundair	-11.667
▁bovenstaand	-11.6673
zonden	-11.6674
embolieen	-11.6675
grote	-11.6693
▁eosinofiel	-11.6695
2010	-11.6696
dat	-11.6698
▁flardje	-11.6698
01-	-11.6702
alis	-11.6702
▁gedifferentieer	-11.6714
bepalingen	-11.6716
kw	-11.6721
91	-11.6728
▁dist	-11.6744
▁cribriform	-11.675
▁stolsel	-11.6759
▁ontwikkeling	-11.6759
▁duid	-11.6763
▁keten	-11.6765
form	-11.6765
▁tubulovilleu	-11.6765
elijk	-11.6769
▁overeenkomst	-11.6774
9720	-11.6776
▁sluit	-11.6776
015	-11.6777
▁douglas	-11.6779
▁intrapulmona	-11.6779
▁bind	-11.6782
ctive	-11.6783
▁pericard	-11.6783
dominant	-11.6784
▁eigen	-11.6785
▁sigmo	-11.6786
ferentia	-11.6786
▁cauterisatie	-11.6786
immuunperoxidase	-11.6786
▁agressie	-11.6786
▁anthracose	-11.6786
▁bovenbeschreven	-11.6786
▁celkernen	-11.6786
▁correlatie	-11.6786
▁cryptabcessen	-11.6786
▁erythrocyten	-11.6786
▁fosfatase	-11.6786
▁geinterpreteerd	-11.6786
▁geslacht	-11.6786
▁glabella	-11.6786
▁handpalm	-11.6786
▁indolent	-11.6786
▁interpreteren	-11.6786
▁literatuur	-11.6786
▁lupus	-11.6786
▁lymfadenectomie	-11.6786
▁mogelijkheden	-11.6786
▁naruke	-11.6786
▁ongebruikelijk	-11.6786
▁ongewoon	-11.6786
▁patientenzorg	-11.6786
▁pyogenicum	-11.6786
▁significant	-11.6786
▁stabiel	-11.6786
▁stemplooi	-11.6786
▁verrukeu	-11.6786
▁verstoord	-11.6786
▁atroficans	-11.6786
▁cholesterolosis	-11.6786
▁dikkedarm	-11.6786
▁mesenterica	-11.6786
olvg	-11.6786
▁plakken	-11.6786
▁schot	-11.6786
▁spoed	-11.6786
▁erythropoese	-11.6786
▁oesophagitis	-11.6786
▁papulose	-11.6786
▁mastocytose	-11.6786
▁simp	-11.6786
▁placentavlokken	-11.6786
▁ascitesvocht	-11.6786
▁orienteren	-11.6786
97413	-11.6786
▁aangetast	-11.6786
▁mediaanlijn	-11.6786
93643	-11.6786
▁abor	-11.6786
▁opmerkelijk	-11.6786
▁intracapsulair	-11.6786
37103	-11.6786
72102	-11.6786
▁referentie	-11.6786
▁pathan	-11.6786
▁groeve	-11.6786
▁perineum	-11.6786
▁subcarina	-11.6786
▁wrsch	-11.6786
▁hemicastratie	-11.6786
81603	-11.6786
▁atherosclerose	-11.6786
99633	-11.6786
kiemcelneoplasie	-11.6786
▁multinodulair	-11.6786
▁antrumgastritis	-11.6786
55300	-11.6786
▁gelijkenis	-11.6786
32170	-11.6786
▁urothelia	-11.6786
▁sprieten	-11.6786
62180	-11.6786
▁zijkant	-11.6786
▁myomen	-11.6786
08280	-11.6786
75300	-11.6787
06502	-11.6787
▁reepje	-11.6787
▁cervixconus	-11.6787
▁immunocytochemi	-11.6787
▁bekkenwand	-11.6787
▁cervicis	-11.6787
▁debris	-11.6787
▁spierbundels	-11.6788
▁geneesmiddelen	-11.6788
▁periprostatisch	-11.6788
▁tricholemm	-11.6788
▁hoornmateriaal	-11.6788
megakaryocytaire	-11.6788
80104	-11.6788
▁echogeleid	-11.6788
▁plastica	-11.6788
▁chronica	-11.6788
49020	-11.6788
▁09	-11.6788
90800	-11.6788
▁overgangsgebied	-11.6789
▁tubahoek	-11.6789
▁kapselingroei	-11.6789
▁huidstuk	-11.6789
11330	-11.679
▁fibrosering	-11.679
▁celproliferatie	-11.679
▁erythro	-11.679
▁mfh	-11.6791
72500	-11.6792
fibroepithelioma	-11.6792
▁darmsneevlakken	-11.6792
▁excisieranden	-11.6793
▁uitgroei	-11.6793
▁verwijde	-11.6794
▁stenose	-11.6794
▁hmb	-11.6794
▁cavern	-11.6795
plica	-11.6795
00400	-11.6797
lastische	-11.6797
▁huidovaal	-11.6797
▁bevinden	-11.6798
-3,	-11.6798
▁ascites	-11.6798
▁hotspot	-11.6798
▁gekleurd	-11.6798
▁linkeronderkwab	-11.6798
▁mastoid	-11.6798
▁struma	-11.6798
▁bekeken	-11.6798
▁peritoneaal	-11.6798
▁frontotemporaal	-11.6798
▁mulleria	-11.6798
▁dijbeen	-11.6798
▁squamo	-11.6798
▁cervicaal	-11.6798
▁cryptitis	-11.6798
▁specificeren	-11.6799
▁prepylorisch	-11.6799
claviculair	-11.68
mmoomlichaampjes	-11.68
dg	-11.68
▁intramura	-11.68
▁rughuid	-11.68
▁nabijheid	-11.6801
▁lichaams	-11.6802
▁omentectomie	-11.6802
schimmelinfectie	-11.6802
50210	-11.6802
▁nekdissectie	-11.6803
850	-11.6805
▁excisieholte	-11.6805
▁mesenchymaal	-11.6806
▁discre	-11.6806
▁west	-11.6808
▁klierstation	-11.6809
▁gist	-11.6809
▁behal	-11.681
▁opini	-11.6811
▁okseldissectie	-11.6811
▁zur	-11.6813
▁tubulo	-11.6815
▁darmtype	-11.6816
taan	-11.6817
▁linkerslaap	-11.6818
▁*******-*******	-11.6819
▁ema	-11.682
▁ruptuur	-11.682
▁structuur	-11.682
▁cytogenetisch	-11.682
▁immunocytoom	-11.682
▁jukbeen	-11.682
la	-11.6824
▁cellulair	-11.6824
▁palp	-11.6824
▁lokatie	-11.6825
▁bijzonder	-11.6827
▁polyclona	-11.6828
▁eosinofielen	-11.683
▁gedeelten	-11.6832
▁jl	-11.6834
▁20,	-11.6836
▁vulvabiopten	-11.6838
▁linkerbovenbeen	-11.6841
▁horizontal	-11.6842
▁macro	-11.6843
12-	-11.6845
oma	-11.6846
▁gangren	-11.6846
kant	-11.6849
abel	-11.6863
▁transit	-11.6864
▁birads	-11.6865
▁atheroomcyste	-11.6865
infectieuze	-11.6872
uitstrijken	-11.6872
▁coecumbiopten	-11.6886
wandig	-11.6888
intraepidermaal	-11.6891
▁nodig	-11.6892
onden	-11.6899
reexcisie	-11.6899
▁ett	-11.6899
▁acanthoom	-11.6901
*	-11.6907
▁micropapillair	-11.6909
▁prostaathelft	-11.6911
▁bloc	-11.6912
▁optie	-11.6913
8470	-11.6915
toide	-11.6923
▁markering	-11.6929
▁ovariumtumor	-11.693
▁ecto	-11.6933
▁ano	-11.6935
lba	-11.6943
▁will	-11.6943
▁tov	-11.6946
▁vind	-11.6948
▁1+).	-11.6954
▁gediff	-11.6958
▁lumba	-11.6959
osis	-11.6964
lb	-11.6967
▁12,	-11.6968
▁37	-11.6983
umorlokalisaties	-11.6986
▁terug	-11.6991
▁up	-11.6997
bekleding	-11.6998
▁cytoplasmatisch	-11.7004
verlies	-11.7012
estralingseffect	-11.7027
41	-11.7029
6).	-11.7047
cd	-11.7056
9410	-11.7062
▁0.7	-11.7092
▁1.0	-11.7096
99/	-11.7099
4240	-11.7105
9710	-11.7105
▁30%.	-11.7117
rakt	-11.7129
▁had	-11.7142
zen	-11.7153
▁6)	-11.7156
▁+3).	-11.7175
haard	-11.7184
▁volgende	-11.7188
▁11,	-11.7192
culaire	-11.7206
▁insitu	-11.721
98:	-11.7217
▁superficiale	-11.7219
900	-11.7219
▁bijgaand	-11.7227
▁huidig	-11.7231
▁liggend	-11.7238
768	-11.725
tracht	-11.726
▁pgr	-11.7264
ilaire	-11.7309
0.9	-11.7325
1340	-11.7345
440	-11.7355
▁cranio	-11.738
8).	-11.739
▁immatu	-11.7396
▁grove	-11.7396
▁synovium	-11.7424
flank	-11.7428
▁68	-11.7436
tp	-11.745
ix	-11.746
▁poly	-11.7491
▁ib	-11.7492
542	-11.7506
ificatie	-11.753
▁dest	-11.7534
alveolaircel	-11.7546
54	-11.7552
860	-11.7554
bronchusepitheel	-11.7558
opathisch	-11.756
/13	-11.7566
973	-11.7573
scleroserende	-11.7577
▁doorgroeit	-11.7597
68	-11.7612
.............	-11.7628
05-1	-11.7637
▁oesophaguss	-11.7638
▁mijn	-11.766
3861	-11.7693
84	-11.7698
86	-11.7729
isie	-11.7739
▁melkgang	-11.7745
▁nuclea	-11.7746
nen	-11.775
▁+).	-11.775
513	-11.7751
eed	-11.7753
unhistochemisch	-11.7793
steunt	-11.7797
/3	-11.7808
akke	-11.7834
▁15%	-11.7845
▁2005	-11.7847
1440	-11.7852
▁mono	-11.7858
aemia	-11.7893
▁(9	-11.7897
ingen	-11.79
▁doorgemaakt	-11.79
▁15,	-11.7907
primair	-11.791
▁reuscel	-11.7924
plooi	-11.7928
47	-11.793
▁ab	-11.7942
ia	-11.795
pische	-11.7959
poliepje	-11.7959
▁mesotheliomen	-11.8001
92	-11.8002
▁hy	-11.8004
zone	-11.8006
slot	-11.8012
lpa	-11.8016
▁huidweefselstuk	-11.8016
epidermaal	-11.8027
▁acc	-11.8028
fibroom	-11.8031
like	-11.8035
nx	-11.8041
gebracht	-11.8041
name	-11.8041
product	-11.8041
kanaal	-11.8047
duodenum	-11.8049
iliaca	-11.805
flegmoneu	-11.8051
:^^	-11.8051
deficientie	-11.8052
oesophagus	-11.8054
exact	-11.8055
bovenooglid	-11.8055
proefexcisie	-11.8055
kliniek	-11.8056
velden	-11.8057
onderlip	-11.8057
ongewijzigd	-11.8057
coecum	-11.8057
distaal	-11.8057
clark	-11.8057
verslag	-11.8057
proximale	-11.8058
radicaal	-11.8058
beiderzijds	-11.8058
bovenrug	-11.8058
sprieterig	-11.8058
distale	-11.8058
mohs	-11.8058
ttf	-11.8058
uterus	-11.8059
zover	-11.8064
maagresectie	-11.8065
chronische	-11.8068
2005	-11.8069
▁gelijk	-11.8074
▁hypocellulair	-11.808
▁melan	-11.8083
hil	-11.8091
▁afge	-11.8093
▁cl	-11.8094
top	-11.8098
▁stereotactisch	-11.8098
▁bovengenoemd	-11.8098
▁gemodificeerd	-11.8101
2009	-11.8101
▁laesi	-11.8102
1145	-11.8112
▁papilloma	-11.8115
▁eerst	-11.8116
tme	-11.8118
▁lang	-11.8119
ent	-11.813
ons	-11.8146
biopsies	-11.8147
▁vacuum	-11.8163
▁wil	-11.8165
▁trauma	-11.8169
▁04	-11.8174
12/*******/	-11.8175
tieve	-11.8179
04-1	-11.8181
24	-11.8182
▁38	-11.8189
▁system	-11.8193
bur	-11.8203
▁tumorhaardje	-11.8204
▁galweg	-11.8204
▁inzending	-11.8204
keer	-11.8204
ris	-11.8206
pool	-11.8207
bei	-11.8207
▁dys	-11.8209
/5	-11.8209
▁cerebr	-11.821
▁hoorn	-11.8211
▁sentin	-11.8212
▁visceral	-11.8213
antwoord	-11.8213
▁erytro	-11.8214
▁beleid	-11.8214
▁consensus	-11.8214
▁donut	-11.8214
▁endofytisch	-11.8214
▁flink	-11.8214
▁gemiddeld	-11.8214
▁irregulair	-11.8214
▁morfometrie	-11.8214
▁negative	-11.8214
▁nsaid	-11.8214
▁obductie	-11.8214
▁oorzaak	-11.8214
▁parapsoriasis	-11.8214
▁pectoralis	-11.8214
▁pendulans	-11.8214
▁pilonidalis	-11.8214
▁planocellulare	-11.8214
▁postmenopauzaal	-11.8214
▁psoriasis	-11.8214
▁routine	-11.8214
▁special	-11.8214
▁trimester	-11.8214
▁veroorzaakt	-11.8214
▁aangepast	-11.8214
▁exostose	-11.8214
▁hematologie	-11.8214
▁kernohan	-11.8214
▁kwabben	-11.8214
▁sclera	-11.8214
▁cholesterolose	-11.8214
▁oncologisch	-11.8214
▁teleangiectati	-11.8214
vertebra	-11.8214
▁irritatie	-11.8214
▁neoplasma	-11.8214
▁serositis	-11.8214
88523	-11.8214
▁buurt	-11.8214
30902	-11.8214
46340	-11.8214
91403	-11.8214
▁begrenzing	-11.8214
▁ovariectomie	-11.8214
82443	-11.8214
▁corium	-11.8214
08240	-11.8214
▁clar	-11.8214
▁osteoporose	-11.8214
▁ombouw	-11.8214
▁perihilair	-11.8214
▁vraagstelling	-11.8214
▁rejectie	-11.8214
83303	-11.8214
87700	-11.8214
▁antracose	-11.8214
▁sish	-11.8214
▁blaaskoepel	-11.8214
▁crustavorming	-11.8215
33430	-11.8215
▁verleden	-11.8215
▁gesuggereerd	-11.8215
▁alveolar	-11.8215
vraagformulier	-11.8215
94013	-11.8215
▁tonsillen	-11.8215
▁basaalmembraan	-11.8215
mega	-11.8215
72840	-11.8215
▁biamniotische	-11.8215
62140	-11.8215
▁pinkus	-11.8215
▁meckel	-11.8215
▁maagfundus	-11.8215
▁urticaria	-11.8215
32700	-11.8215
middellij	-11.8215
icola	-11.8215
▁stromaceltumor	-11.8215
▁paravesica	-11.8215
▁afname	-11.8215
▁zestien	-11.8215
96703	-11.8216
▁fijn	-11.8216
▁crusta	-11.8216
▁strengen	-11.8216
▁dij	-11.8216
03015	-11.8216
32202	-11.8216
▁buikholte	-11.8216
dient	-11.8216
▁spierlagen	-11.8216
▁aanzienlijk	-11.8216
35400	-11.8216
infraclaviculair	-11.8216
▁lymforeticulair	-11.8216
pulmonaal	-11.8217
▁pzf	-11.8217
95600	-11.8217
▁zenuwweefsel	-11.8217
▁sinusitis	-11.8217
▁littekenreactie	-11.8218
▁paracolisch	-11.8218
09310	-11.8218
▁leukocyten	-11.8218
▁arterio	-11.8219
▁polymorfcellig	-11.8219
▁dun	-11.822
▁nodul	-11.822
▁colonpoliepje	-11.8221
▁nierextirpatie	-11.8221
▁paraffineblokje	-11.8221
▁9,5	-11.8221
▁kwadranten	-11.8221
▁herkenba	-11.8223
spectrum	-11.8223
▁poliepeu	-11.8223
33450	-11.8223
▁vaatlokalisatie	-11.8223
hemistrumectomie	-11.8223
82130	-11.8224
84410	-11.8224
▁herzien	-11.8225
▁collageen	-11.8225
▁angioom	-11.8225
elvormig	-11.8226
▁bronchuswand	-11.8226
▁schema	-11.8229
▁dilatatie	-11.8229
▁erytropoese	-11.8229
▁second	-11.8229
▁clitoris	-11.8229
▁linkerbovenkwab	-11.8229
▁(80%)	-11.8229
▁kiemceltumor	-11.8229
remis	-11.8229
▁berichtgeving	-11.823
▁gamma	-11.823
▁pseudolymfoom	-11.823
▁stembandbiopt	-11.823
▁slijmkleuringen	-11.823
▁ducti	-11.8231
91310	-11.8234
▁inclusiecysten	-11.8235
030	-11.8236
▁mutatieanalyse	-11.8236
▁prostaatkwab	-11.8237
▁polipeu	-11.8239
▁bovendien	-11.8241
2400	-11.8244
▁insluiten	-11.8245
▁pancreasweefsel	-11.8246
cylinderepitheel	-11.8246
▁linkeroor	-11.8248
▁duodenumbiopt	-11.8249
89010	-11.8251
beta	-11.8252
▁ileumslijmvlies	-11.8252
▁reserve	-11.8254
▁sampling	-11.8254
▁strukturen	-11.8254
▁raeb	-11.8254
▁nhl	-11.8255
▁abs	-11.8258
▁tumorhaardjes	-11.8259
neubepaling	-11.826
sie	-11.8262
weefselstukje	-11.8266
▁5,2	-11.8271
vormend	-11.8279
▁prognose	-11.828
▁breuk	-11.828
▁haematopoese	-11.828
▁scannen	-11.828
08400	-11.8282
▁radiair	-11.8286
dorsal	-11.8293
▁colontype	-11.8296
▁frontal	-11.8299
▁geschikt	-11.8306
ïde	-11.8307
▁adequaat	-11.8307
▁stase	-11.831
▁lymfklierstatus	-11.8315
▁2006	-11.8319
▁kliertjes	-11.832
43	-11.8326
ary	-11.833
▁vreemd	-11.8332
▁letz	-11.8333
▁all	-11.8336
papillaire	-11.8337
▁not	-11.8341
▁bris	-11.8347
82	-11.8354
atypie	-11.8355
inging	-11.836
:^1	-11.8362
▁vlakken	-11.8387
967	-11.8394
09100	-11.8398
staande	-11.8398
633	-11.84
idi	-11.8406
730	-11.8416
▁urineblaaswand	-11.8419
rechteronderbeen	-11.842
▁fibrotisch	-11.8421
▁dichts	-11.8449
▁monoklonal	-11.8454
▁perinoda	-11.8454
kleuren	-11.8479
▁activ	-11.8479
07/	-11.849
▁geleide	-11.8496
vaatproliferatie	-11.8513
98013	-11.853
cortical	-11.8536
▁ba	-11.8549
▁ptis	-11.8551
▁vergelijkba	-11.8577
▁reticul	-11.8601
▁epi	-11.8613
boog	-11.8618
vd	-11.8622
11/*******/	-11.8629
▁keratotisch	-11.8642
▁hiluslymfklier	-11.8654
ct	-11.8661
teroidreceptoren	-11.8695
▁(?)	-11.87
▁nav	-11.8704
endoresectie	-11.8715
▁radicaliteits	-11.8717
fp	-11.8721
2900	-11.8752
386	-11.8755
▁datum	-11.8757
▁nrs	-11.8757
▁(1/	-11.8764
▁schr	-11.8822
hyoid	-11.8822
▁huidstukjes	-11.8824
▁la	-11.8827
▁allergisch	-11.883
57	-11.8834
oog	-11.8859
▁di	-11.8862
▁pylorus	-11.8863
▁misse	-11.8883
sveranderingen	-11.889
/14	-11.8903
▁50%)	-11.891
▁myo	-11.8939
ieve	-11.8943
▁tag	-11.8944
9300	-11.8946
5.5	-11.8953
▁em	-11.8956
▁ingroeiend	-11.8971
▁mu	-11.8979
▁cor	-11.898
99-3	-11.8981
▁95	-11.8984
▁3,8	-11.9006
bed	-11.9018
celtype	-11.9022
▁cam	-11.9027
▁lisbiopt	-11.9032
lo	-11.9045
houdend	-11.9047
risk	-11.905
▁2008)	-11.9055
06-2	-11.9057
▁eczemat	-11.9075
trekkelijk	-11.9076
▁(3):	-11.9082
▁04-	-11.9104
▁patho	-11.9128
▁8).	-11.9149
-11-10/*******/	-11.9149
tot	-11.916
omo	-11.9163
per	-11.9172
▁11:	-11.9197
ica	-11.9207
8441	-11.9231
▁(1+)	-11.9237
2011	-11.9255
9,	-11.9268
▁lipoma	-11.9268
▁scha	-11.9269
420	-11.9281
panel	-11.9282
▁maxilla	-11.9303
▁huidshavebiopt	-11.9312
895	-11.9324
▁lymfekliertje	-11.9363
▁collagen	-11.9371
ulaire	-11.9383
oide	-11.9389
▁condylomat	-11.939
▁histiocyt	-11.94
-02-08/*******/	-11.9403
15).	-11.9415
tnm	-11.9431
vlakken	-11.9441
▁%.	-11.9448
549	-11.9459
/17	-11.9465
aagcorpusbiopten	-11.9473
18	-11.9489
▁sarcoma	-11.9492
aspiraat	-11.9503
intra	-11.9525
ostinflammatoire	-11.9528
catie	-11.9532
wee	-11.954
even	-11.9552
vrij	-11.9565
takken	-11.9577
▁tumorcomponent	-11.9581
56,	-11.9585
▁36	-11.9592
ti	-11.9593
▁nemen	-11.9596
specifiek	-11.9611
▁overeenkom	-11.9623
bi	-11.9631
musculair	-11.9644
▁sc	-11.9644
▁pos	-11.9652
▁spoelcel	-11.9674
kapsel	-11.9696
afwijking	-11.9697
▁endometri	-11.9697
lever	-11.9701
knie	-11.9702
▁huidexc	-11.9702
vocht	-11.9704
afmeting	-11.9707
therapeutisch	-11.9707
duport	-11.971
bloc	-11.9713
▁tcr	-11.9715
spoliepen	-11.9716
origine	-11.9716
pigment	-11.9719
gemengd	-11.9719
lumbaal	-11.972
coller	-11.972
neuro	-11.9721
melanoom	-11.9721
exconisatie	-11.9721
pleiomorf	-11.9721
centroblastair	-11.9722
gemodificeerde	-11.9723
naad	-11.9723
tubulair	-11.9723
ulcus	-11.9723
syndroom	-11.9723
therapie	-11.9723
intermediair	-11.9723
lymfocyten	-11.9723
zwak	-11.9723
leiomyoom	-11.9724
placenta	-11.9724
laboratorium	-11.9724
proximaal	-11.9724
rectosigmoid	-11.9724
telefonisch	-11.9724
verhoornend	-11.9724
afstand	-11.9724
conclusie	-11.9725
middels	-11.9725
buikwand	-11.9725
dorsaal	-11.9725
sub	-11.9729
node	-11.9732
beide	-11.9735
▁grenzen	-11.9736
▁farynx	-11.9738
08-4	-11.974
▁dubbel	-11.9746
stv	-11.9746
drie	-11.9753
zeer	-11.9755
▁gastr	-11.9757
▁behoren	-11.9762
1,4	-11.9767
/16	-11.9771
transplantatie	-11.9774
bro	-11.9777
▁stadi	-11.9778
▁circumferenti	-11.9784
pap	-11.9786
▁analys	-11.9786
0550	-11.9786
7).	-11.9791
draad	-11.9794
kleine	-11.9795
▁rondkernig	-11.9813
sterke	-11.9825
mammalumpectomie	-11.9826
▁min	-11.9827
09-2	-11.9832
▁sperma	-11.9837
▁ok	-11.9841
theelcel	-11.9842
▁ondersteun	-11.9843
▁laryng	-11.9851
▁naevo	-11.9855
▁oud	-11.9856
▁01-06-	-11.9857
▁(6)	-11.9858
clonaal	-11.9858
▁plaque	-11.9858
▁weg	-11.9859
▁clonaliteit	-11.986
▁lamel	-11.9862
1630	-11.9863
enta	-11.9863
kz	-11.9864
rectaal	-11.9868
▁zweetklier	-11.9868
▁infarcering	-11.9868
▁bloedingsrest	-11.987
▁groep	-11.987
▁sneerand	-11.9871
▁dermat	-11.9872
▁cilindercel	-11.9872
▁follikelcyste	-11.9873
▁ulcera	-11.9874
ongemarkeerde	-11.9874
▁lichaam	-11.9877
▁flard	-11.9877
7-10	-11.9877
▁spitz	-11.9879
▁reticuline	-11.9879
▁wrs	-11.9881
ssociatie	-11.9881
▁villi	-11.9881
▁vacora	-11.9881
30712	-11.9881
combined	-11.9881
hidradenitis	-11.9881
oplasmocellulair	-11.9881
schorscarcinoom	-11.9881
▁aanbevolen	-11.9881
▁abortion	-11.9881
▁bespreken	-11.9881
▁cheilitis	-11.9881
▁chorionvlokken	-11.9881
▁dikdarm	-11.9881
▁dubbelbrekend	-11.9881
▁echelon	-11.9881
▁excised	-11.9881
▁fibroxanthoom	-11.9881
▁formaline	-11.9881
▁gasthuis	-11.9881
▁gemethyleerd	-11.9881
▁gescleroseerd	-11.9881
▁ileocoecal	-11.9881
▁lingula	-11.9881
▁locoregiona	-11.9881
▁multiforma	-11.9881
▁negativiteit	-11.9881
▁organen	-11.9881
▁paracolpi	-11.9881
▁parietale	-11.9881
▁perivesiculair	-11.9881
▁procent	-11.9881
▁scherp	-11.9881
▁sclerosis	-11.9881
▁sebaceus	-11.9881
▁sectievlak	-11.9881
▁spermatogenese	-11.9881
▁verbreed	-11.9881
▁verdrongen	-11.9881
▁verklaring	-11.9881
▁verstandig	-11.9881
▁warthin	-11.9881
▁zuurvormend	-11.9881
▁qua	-11.9881
▁teruggevonden	-11.9881
▁veertien	-11.9881
▁vestibul	-11.9881
▁vruchtzak	-11.9881
▁wervelkolom	-11.9881
▁hepatoduodenale	-11.9881
▁verwisseling	-11.9881
▁geldt	-11.9881
▁spot	-11.9881
55505	-11.9881
▁thymoom	-11.9881
▁vervolgbericht	-11.9881
▁adnectomie	-11.9881
▁afgerond	-11.9881
▁schwannoom	-11.9881
▁interval	-11.9881
▁lumina	-11.9881
▁cirrhose	-11.9881
▁intimafibrose	-11.9881
▁papillomateus	-11.9881
▁duodenitis	-11.9881
▁kernaankleuring	-11.9881
▁spreken	-11.9881
88530	-11.9881
▁verminderd	-11.9881
▁nierbekken	-11.9881
ankelijk	-11.9881
borstkas	-11.9881
▁plaatsgevonden	-11.9881
▁neuroblastoom	-11.9881
▁mesocolisch	-11.9881
arthrose	-11.9881
▁buismaag	-11.9881
fract	-11.9881
▁gastropathie	-11.9881
pseudosarcomateu	-11.9881
▁bovenquadrant	-11.9881
▁lymphoma	-11.9881
85042	-11.9881
29060	-11.9881
▁mergholte	-11.9881
▁polypectomie	-11.9881
▁dermatose	-11.9881
89563	-11.9881
76720	-11.9881
93260	-11.9881
axa	-11.9881
▁comedonecrose	-11.9881
▁paramediaan	-11.9881
▁vertex	-11.9881
01538	-11.9881
epithelialisatie	-11.9881
▁lymfbanen	-11.9881
▁pigmentnaevus	-11.9881
▁vervaardigd	-11.9881
55770	-11.9881
prepraat	-11.9881
▁kate	-11.9881
▁daarbuiten	-11.9882
▁ependymoom	-11.9882
61680	-11.9882
80713	-11.9882
▁electro	-11.9882
38002	-11.9882
▁chronicus	-11.9882
▁leverkwab	-11.9882
▁imponeer	-11.9882
33300	-11.9882
72710	-11.9882
76700	-11.9882
80152	-11.9882
▁halve	-11.9882
▁aantonen	-11.9882
▁geleden	-11.9882
▁darmziekte	-11.9882
44070	-11.9882
76840	-11.9882
03210	-11.9882
▁behoort	-11.9883
▁rechteradnex	-11.9883
79900	-11.9883
▁pubis	-11.9883
▁gebruikelijk	-11.9883
90840	-11.9883
▁zekerheidshalve	-11.9883
▁klierrijk	-11.9884
▁naevocellula	-11.9884
▁transbronchiaal	-11.9884
▁signaal	-11.9884
83200	-11.9884
40800	-11.9884
3570	-11.9884
▁adenocarcinomen	-11.9885
▁neusholte	-11.9885
▁lu	-11.9885
▁oncocytair	-11.9886
▁bovenbuik	-11.9886
▁gediffer	-11.9886
▁penisamputatie	-11.9886
▁(15	-11.9887
▁gliale	-11.9887
▁zaadblaasjes	-11.9887
▁bloedstolsel	-11.9887
87201	-11.9888
multifokaal	-11.9888
▁conch	-11.9889
▁lymfangioom	-11.9889
▁aanvragen	-11.9889
▁trilin	-11.989
79500	-11.989
▁serosaoppervlak	-11.9891
trofie	-11.9891
▁1984	-11.9891
▁hyperaemie	-11.9893
▁gynaecologie	-11.9893
▁cystewand	-11.9894
▁weten	-11.9894
▁chron	-11.9895
▁gisten	-11.9895
▁herbeoordeeld	-11.9895
epitheliomateu	-11.9896
▁jak	-11.9896
▁tongbiopt	-11.9897
814	-11.9898
▁1.6	-11.9898
▁gefixeerd	-11.9898
▁incidentie	-11.9898
▁seniel	-11.9898
▁adhaesie	-11.9898
▁hypopharynx	-11.9898
▁organisatie	-11.9898
▁inhoud	-11.9898
▁sinusoida	-11.9898
▁etiologie	-11.9898
▁nki	-11.99
▁ssm	-11.99
▁prikkeling	-11.99
stond	-11.9901
▁dextra	-11.9902
▁pelvien	-11.9902
▁hlo	-11.9902
▁1/4	-11.9903
▁excisi	-11.9903
▁mucoid	-11.9903
▁testisweefsel	-11.9904
▁linkeroog	-11.9904
▁hersenbiopten	-11.9906
▁gradig	-11.9907
plasmacytoid	-11.991
▁secretie	-11.9911
▁intramammaire	-11.9911
▁berusten	-11.9911
▁lymfvaten	-11.9913
▁hieromtrent	-11.9915
iseerde	-11.9915
▁meeverwijderd	-11.9916
dering	-11.9916
▁*******/23	-11.9917
▁verondersteld	-11.9917
▁herpe	-11.9918
elken	-11.9919
▁chondroid	-11.9919
2150	-11.992
▁vita	-11.992
▁structure	-11.9921
▁tumorhoudend	-11.9922
▁nierweefsel	-11.9922
▁stagerings	-11.9923
▁bovenzijde	-11.9925
▁waarom	-11.9925
▁zow	-11.9926
▁1985	-11.9927
▁pneumonie	-11.9929
▁membraan	-11.9929
▁reuscellen	-11.9929
▁cornea	-11.9929
▁glans	-11.9929
entieerd	-11.993
▁gemengdcellig	-11.993
dissectievlakken	-11.9931
▁lymphoom	-11.9933
▁vaatjes	-11.9933
▁venen	-11.9934
0000	-11.9934
49400	-11.9938
bulleuze	-11.994
▁(2,5	-11.994
▁0.1	-11.9943
54990	-11.9946
▁cardiabiopten	-11.9949
▁portiobiopten	-11.9952
▁inclusiecyste	-11.9952
▁bloedingen	-11.9955
▁darmbiopt	-11.9955
▁zoom	-11.9956
▁waarna	-11.9956
▁coll	-11.9957
▁xiv	-11.9957
▁arteriitis	-11.996
▁nse	-11.996
▁scrotum	-11.996
▁stoma	-11.996
▁sigmoidbiopt	-11.9962
545	-11.9966
▁vaatrijk	-11.9968
▁aplastisch	-11.9973
ept	-11.9977
ureterectomie	-11.998
vatlokalisaties	-11.9982
▁imponerende	-11.9985
▁reductie	-11.9991
0802	-11.9992
vatinvasie	-11.9993
94-1	-11.9994
▁maagbiopsie	-11.9995
259	-11.9996
7285	-12.0001
▁behorend	-12.0001
▁bacterie	-12.0004
sw	-12.0009
▁caudo	-12.0013
▁2000/	-12.0018
orpuscurettement	-12.0019
▁trial	-12.0023
▁1.7	-12.0032
▁haemangio	-12.0033
▁(3)	-12.0034
▁39	-12.0039
▁1%	-12.0049
▁duport	-12.0054
va	-12.0055
▁52	-12.0055
▁nasal	-12.0061
▁(1,5	-12.0062
rijke	-12.0063
buikhuid	-12.0064
▁bereiken	-12.0065
▁verw	-12.0065
abortuscurettage	-12.0068
▁(1/1).	-12.0072
▁ger	-12.0072
ag	-12.0074
ovaal	-12.0083
▁leveren	-12.0086
age	-12.0087
▁huidfragmenten	-12.0091
▁ber	-12.0093
endocervixpoliep	-12.0094
ezamen	-12.0094
0010	-12.0098
ering	-12.0098
▁imh	-12.0112
▁pancreatico	-12.0122
▁contra	-12.0123
mine	-12.0145
-125	-12.0149
12020	-12.015
cardiaresectie	-12.015
/24	-12.0156
▁naad	-12.0167
ah	-12.0171
si	-12.0177
▁ovarieel	-12.0183
8050	-12.0186
▁latere	-12.0192
▁hi	-12.0198
▁huidtumor	-12.0209
94.	-12.0213
oot	-12.0218
!!!	-12.0236
▁08-12-0	-12.0249
▁cerb	-12.0264
13-4	-12.0285
▁29-04-	-12.029
pal	-12.0301
▁hag	-12.0313
▁geirriteerd	-12.0317
80001	-12.0328
▁kra	-12.0328
266	-12.0339
06-10	-12.0346
sion	-12.0348
spin	-12.0367
▁(11	-12.0367
58,	-12.0372
▁uitslagen	-12.0385
▁hydro	-12.0393
▁ls	-12.0407
▁2004)	-12.0415
▁ischemi	-12.0423
prises	-12.0428
▁sarcomateu	-12.0431
▁basaalcelcarcin	-12.0441
3,4	-12.0443
▁un	-12.0454
▁(=	-12.0459
3/4	-12.0467
▁sw	-12.0482
▁320	-12.0493
▁ont	-12.0511
lijke	-12.0523
▁lp	-12.0537
▁su	-12.0551
▁malignan	-12.0551
1320	-12.0552
▁13-11-	-12.0555
▁(1+).	-12.057
anterieure	-12.0577
13/*******/	-12.0585
uitstrijk	-12.0592
▁120	-12.0596
826	-12.0599
823	-12.0601
▁55	-12.0625
ptorbepalingen	-12.0629
▁darmuiteinde	-12.0673
▁arterietak	-12.0674
▁mammaresectie	-12.0674
bovenkwab	-12.0679
carcinoompje	-12.0679
96-1	-12.0679
244	-12.0684
▁gez	-12.0693
35	-12.0697
epitheelcellen	-12.0703
ymfoplasmocytair	-12.0704
der	-12.0724
▁(17	-12.0738
▁uitgaa	-12.0756
▁conclu	-12.0759
▁houden	-12.0762
11/	-12.0773
blokjes	-12.0774
999	-12.0778
cervixslijmvlies	-12.0785
250	-12.0792
101	-12.0808
las	-12.0816
▁ingeleverd	-12.082
cre	-12.0832
▁gel	-12.0846
874	-12.085
/20	-12.086
450	-12.0869
05-2	-12.0871
0220	-12.0886
!!	-12.0887
▁3+4=7	-12.0891
▁carcinomen	-12.0897
090	-12.0914
eaire	-12.0922
06-1	-12.0923
tro	-12.0923
dermaal	-12.0932
▁radic	-12.0934
▁myelo	-12.0938
apicaal	-12.0941
495	-12.0946
conusexcisie	-12.0947
73	-12.0981
▁ki	-12.0988
5500	-12.1002
858	-12.1009
do	-12.1014
36	-12.1017
8550	-12.1035
▁2+)	-12.104
▁cortica	-12.1045
ra	-12.1046
▁70%.	-12.1061
termina	-12.1071
▁feite	-12.1091
▁stromal	-12.1114
▁1990	-12.1133
▁histopatholo	-12.115
63,	-12.1155
/28	-12.1178
▁merkel	-12.1192
▁epitheli	-12.1199
/23	-12.12
zij	-12.1208
pro	-12.1218
▁dia	-12.1221
▁crypt	-12.1238
/2	-12.1238
▁organismen	-12.1247
12-0	-12.127
fd	-12.1272
09/*******/	-12.1278
▁27-10-	-12.1284
kl	-12.1306
▁3+4	-12.1308
▁4-	-12.1311
groei	-12.1311
8930	-12.1317
4220	-12.1331
ction	-12.1347
mr	-12.1348
▁perirecta	-12.1353
toïde	-12.1354
flo	-12.1369
cli	-12.1372
its	-12.1382
▁(0/1)	-12.14
▁tube	-12.1402
▁vergelijk	-12.1404
-05-09/*******/	-12.1413
▁multi	-12.1416
▁(20	-12.1416
schij	-12.1444
▁hydrone	-12.1453
voet	-12.1468
isatie	-12.1468
▁inclusie	-12.147
▁(30	-12.1474
▁gedrag	-12.1476
hb	-12.1489
.^^^^	-12.1491
9/*******/	-12.1493
celatypie	-12.1496
richting	-12.1498
eert	-12.1505
akt	-12.1509
reikend	-12.1509
specimen	-12.1516
tor	-12.1518
▁histochemisch	-12.1518
arta	-12.152
▁11-11-	-12.1523
komen	-12.1529
ml	-12.1533
▁03	-12.1539
▁se	-12.1545
▁an	-12.1546
▁90%)	-12.1575
plaats	-12.1591
sterk	-12.1601
hechting	-12.1604
▁gastric	-12.1625
▁retrospect	-12.1629
▁osteo	-12.1633
adeno	-12.1636
bronchus	-12.1636
213	-12.164
▁nucleair	-12.1645
vrije	-12.1653
kwab	-12.167
markering	-12.1672
pathol	-12.1673
sturen	-12.1678
▁renal	-12.1681
29	-12.1682
vormig	-12.1684
punt	-12.17
▁verander	-12.1702
factor	-12.1704
ureter	-12.1706
3,5	-12.1706
morphea	-12.1707
cysteus	-12.1712
trial	-12.1712
snijrand	-12.1712
vreemd	-12.1713
letz	-12.1714
nodig	-12.1715
pijpje	-12.1716
39,	-12.1716
hier	-12.1717
heet	-12.1717
potje	-12.1717
lbk	-12.172
elementen	-12.172
cutane	-12.1721
angio	-12.1722
herkomst	-12.1722
paranasaal	-12.1722
papilloom	-12.1723
buiten	-12.1723
oncologie	-12.1723
4;	-12.1723
folliculair	-12.1723
detrusor	-12.1723
carcinoid	-12.1723
oesofagus	-12.1723
degeneratie	-12.1724
bot	-12.1724
thoraxwand	-12.1724
ooghoek	-12.1724
ileum	-12.1724
partiele	-12.1724
ongeveer	-12.1724
bevindingen	-12.1724
ernstige	-12.1724
basale	-12.1725
gestelde	-12.1726
kleiner	-12.1726
februari	-12.1727
cish	-12.1728
nader	-12.1729
nabij	-12.1731
schouderblad	-12.1731
igg	-12.1732
▁thyroid	-12.1733
gon	-12.1733
osa	-12.1734
snijranden	-12.1735
invasiediepte	-12.1736
64	-12.1737
plm	-12.1737
adenoid	-12.174
anus	-12.1742
kuit	-12.1743
▁brokkelig	-12.1753
▁3+.	-12.1755
▁polyp	-12.1758
▁trombus	-12.1758
▁vroeg	-12.1761
▁hypo	-12.1762
infiltratief	-12.1763
▁aangeleverd	-12.1765
gesloten	-12.1765
operatie	-12.1765
(0/10)	-12.1768
▁geinkt	-12.1769
▁imponerend	-12.1769
icatie	-12.1777
1047	-12.1792
meng	-12.1793
▁vat	-12.1796
duodenale	-12.1802
-20	-12.1803
▁ductal	-12.1805
▁cilinder	-12.181
weefselstukjes	-12.1817
diepe	-12.182
med	-12.182
oppervlakkige	-12.1822
▁verk	-12.1834
ompleet	-12.1841
itu	-12.1843
▁huidadnex	-12.1844
kel	-12.1845
▁haemo	-12.1845
▁immuunglobuline	-12.1845
alk	-12.1847
888	-12.1849
845	-12.1851
uraal	-12.1851
▁sigmoidpoliep	-12.1852
follikels	-12.1859
▁bloedvat	-12.1861
▁leucocyt	-12.1864
-05-199	-12.1868
▁gla	-12.187
▁verwacht	-12.187
▁late	-12.1871
▁tuber	-12.1874
▁zwar	-12.1875
▁colo	-12.1875
▁semi	-12.1875
▁nodi	-12.1877
afhankelijk	-12.1877
heidshalve	-12.1878
lanke	-12.1878
▁ontaard	-12.1878
ringetje	-12.1878
▁follicular	-12.188
▁concl	-12.188
ulatiestoornis	-12.188
▁adenomyo	-12.188
bundels	-12.188
manchet	-12.188
▁femor	-12.188
wortel	-12.1881
▁vermoed	-12.1881
▁chromofo	-12.1881
▁chromosoom	-12.1881
▁herschikking	-12.1881
▁neusbijholte	-12.1881
40241	-12.1881
72920	-12.1881
97193	-12.1881
haematopoietisch	-12.1881
lomerulonefritis	-12.1881
ophoping	-12.1881
verstoring	-12.1881
▁aannemelijk	-12.1881
▁absolu	-12.1881
▁advise	-12.1881
▁afstoting	-12.1881
▁afzonderlijk	-12.1881
▁aggregaten	-12.1881
▁akkoord	-12.1881
▁amelanotisch	-12.1881
▁amenorroeduur	-12.1881
▁anthracotisch	-12.1881
▁basaliomen	-12.1881
▁bekkenkam	-12.1881
▁bevelen	-12.1881
▁bijbehorend	-12.1881
▁budel	-12.1881
▁diathermisch	-12.1881
▁durum	-12.1881
▁enteropathie	-12.1881
▁erytrocyten	-12.1881
▁foliumzuur	-12.1881
▁galsteenlijden	-12.1881
▁geformuleerd	-12.1881
▁gehyaliniseerd	-12.1881
▁gemelli	-12.1881
▁gerangschikt	-12.1881
▁gerapporteerd	-12.1881
▁geserreerd	-12.1881
▁gespecificeerd	-12.1881
▁haematologisch	-12.1881
▁hechtmateriaal	-12.1881
▁homogeen	-12.1881
▁interlobair	-12.1881
▁involvement	-12.1881
▁laatstgenoemde	-12.1881
▁leesbaar	-12.1881
▁longarts	-12.1881
▁megakaryopoese	-12.1881
▁moderate	-12.1881
▁mycose	-12.1881
▁occult	-12.1881
▁onleesbaar	-12.1881
▁onveranderd	-12.1881
▁onychomycosis	-12.1881
▁organiserend	-12.1881
▁palmaris	-12.1881
▁parameters	-12.1881
▁phylloides	-12.1881
▁plasmacytose	-12.1881
▁pneumonectomie	-12.1881
▁positive	-12.1881
▁superficeel	-12.1881
▁toegepast	-12.1881
▁traumatisatie	-12.1881
▁trombo	-12.1881
▁tumorcelkernen	-12.1881
▁tumorveldje	-12.1881
▁verwerkt	-12.1881
duodenectomie	-12.1881
▁arthritis	-12.1881
▁breast	-12.1881
▁continu	-12.1881
▁geschieden	-12.1881
▁intensiteit	-12.1881
▁laparoscopi	-12.1881
▁leeuwen	-12.1881
▁potential	-12.1881
▁schedeldak	-12.1881
▁testikel	-12.1881
▁voorgrond	-12.1881
irregulariteit	-12.1881
▁conventione	-12.1881
▁eortc	-12.1881
▁hnpcc	-12.1881
▁integra	-12.1881
▁mitosefiguren	-12.1881
▁papillomen	-12.1881
igniteit	-12.1881
bijeenkomst	-12.1881
deposits	-12.1881
rijgingstechniek	-12.1881
▁ingebed	-12.1881
▁relevant	-12.1881
▁venster	-12.1881
▁fibrolipoom	-12.1881
▁actinomyces	-12.1881
▁haematoom	-12.1881
▁sarcoidose	-12.1881
▁cellijnen	-12.1881
▁spiervezels	-12.1881
▁chroniciteit	-12.1881
▁farynxboog	-12.1881
▁vlgs	-12.1881
▁bilobectomie	-12.1881
▁junctie	-12.1881
▁abnorma	-12.1881
serum	-12.1881
▁geteld	-12.1881
▁poroom	-12.1881
▁cristaboring	-12.1881
▁denudatie	-12.1881
▁mondholte	-12.1881
▁etmoid	-12.1881
▁pigmentosa	-12.1881
▁vertegenwoordig	-12.1881
▁melanine	-12.1881
88940	-12.1881
▁lymfkliertoilet	-12.1881
▁opticus	-12.1881
▁entiteit	-12.1881
▁lipomen	-12.1881
▁hepatis	-12.1881
▁differentieren	-12.1881
▁paraproteine	-12.1881
▁klassificeren	-12.1881
▁embryo	-12.1881
▁stenen	-12.1881
▁benige	-12.1881
30742	-12.1881
▁vaginamanchet	-12.1881
▁atrium	-12.1882
74450	-12.1882
82606	-12.1882
58005	-12.1882
▁samenvatt	-12.1882
ievelijk	-12.1882
▁gyn	-12.1882
▁(+/-	-12.1882
▁bedreigde	-12.1882
96853	-12.1882
43070	-12.1882
▁rectumstomp	-12.1882
▁betrokken	-12.1882
▁gegaan	-12.1882
▁macronodulair	-12.1882
quickscore	-12.1882
▁maagstomp	-12.1882
▁bloedverlies	-12.1882
▁+4=7	-12.1882
▁blaasperitoneum	-12.1882
30440	-12.1882
▁afwachten	-12.1882
32110	-12.1882
▁leverkapsel	-12.1882
▁spon	-12.1882
▁avitaal	-12.1883
▁zweetkliertumor	-12.1883
▁abortusrest	-12.1883
42040	-12.1883
75750	-12.1883
zocht	-12.1883
▁tweeling	-12.1883
▁cellaag	-12.1883
1624	-12.1883
transitional	-12.1883
▁ileumlis	-12.1883
▁globa	-12.1883
02-2	-12.1883
32620	-12.1884
▁zegelringcellen	-12.1884
▁botbalkjes	-12.1884
▁deposities	-12.1884
▁ontaarding	-12.1884
▁acuminatum	-12.1884
▁bloedvatinvasie	-12.1884
▁submentaal	-12.1884
33070	-12.1884
▁preex	-12.1885
▁(0/8)	-12.1885
▁bph	-12.1885
88311	-12.1885
10700	-12.1885
celnesten	-12.1885
▁21-11-0	-12.1885
select	-12.1886
72210	-12.1886
▁voorbestraling	-12.1886
▁bevonden	-12.1887
▁aankleurend	-12.1888
oort	-12.1888
▁ucc	-12.1889
epitheloidcellig	-12.1889
▁tubulairadenoom	-12.1889
ocele	-12.1889
▁huidafwijking	-12.1889
▁neuroom	-12.1889
48120	-12.1889
▁lig	-12.189
▁ontving	-12.189
▁palab	-12.189
▁comp	-12.189
▁longparenchym	-12.1891
richoepithelioom	-12.1891
▁neusgang	-12.1891
▁jukb	-12.1891
▁restlaesie	-12.1891
▁chondroblastair	-12.1891
▁mededeling	-12.1892
▁verwachten	-12.1892
37100	-12.1892
▁koilocyto	-12.1892
▁aannemen	-12.1892
▁kwadrant	-12.1892
40310	-12.1893
▁19-	-12.1893
▁invaginaties	-12.1893
▁intrapulmonaal	-12.1894
egd	-12.1894
eve	-12.1895
▁vlakke	-12.1895
pagetoide	-12.1895
lium	-12.1896
▁acantholyse	-12.1896
▁kratervormige	-12.1896
▁denk	-12.1897
▁ulna	-12.1897
73310	-12.1898
viii	-12.1898
▁4,7	-12.1898
▁uterina	-12.1899
▁partial	-12.1899
▁stelt	-12.1899
▁promo	-12.19
▁linkerkwab	-12.1901
32500	-12.1901
gaaf	-12.1901
▁verbred	-12.1903
▁blanco	-12.1903
▁geinduceerd	-12.1903
▁karakteristiek	-12.1903
▁synaptophysine	-12.1903
▁toxicodermie	-12.1903
▁dubbelzijdig	-12.1903
▁hypofarynx	-12.1903
▁uitgesneden	-12.1903
▁hamartoom	-12.1903
▁hotspotmutatie	-12.1903
▁variatie	-12.1903
▁paratrabeculair	-12.1903
▁invasion	-12.1903
▁telling	-12.1903
▁autoimmuun	-12.1903
▁opstijg	-12.1903
▁moment	-12.1903
▁kit	-12.1904
▁benader	-12.1904
▁>50%	-12.1904
-04-13/*******/	-12.1904
▁block	-12.1904
▁soort	-12.1904
▁24-02-	-12.1905
▁myocardbiopten	-12.1905
▁(95%)	-12.1906
▁0,45	-12.1906
▁lamellen	-12.1907
▁*******/15	-12.1907
hcg	-12.1908
▁gepre	-12.1908
zige	-12.1908
slijmnapepitheel	-12.191
▁0,75	-12.1911
▁cyto	-12.1912
▁nras	-12.1912
▁uteruscurettage	-12.1912
▁placentaweefsel	-12.1913
88103	-12.1914
▁niertumor	-12.1914
▁wijze	-12.1917
pathie	-12.1917
▁overheersen	-12.1919
▁hierom	-12.192
▁boor	-12.192
▁radiologisch	-12.192
▁granulair	-12.192
▁pigmentosi	-12.1921
▁ileumresectie	-12.1921
▁steen	-12.1921
▁choriocarcinoom	-12.1923
nier	-12.1925
▁genetica	-12.1927
▁sk	-12.1929
netto	-12.193
▁wie	-12.193
▁stel	-12.1931
▁rb	-12.1933
▁intratumora	-12.1935
▁partij	-12.1935
▁vaatlocalisatie	-12.1935
problemen	-12.1936
oesophagea	-12.1938
84003	-12.194
▁keloid	-12.194
▁stomp	-12.194
▁jb	-12.194
▁(0,8	-12.1941
▁buis	-12.1941
klievingsvlakken	-12.1941
▁welk	-12.1942
▁vlies	-12.1942
▁bovenkaak	-12.1943
rtex	-12.1943
mxg	-12.1944
▁0,55	-12.1945
▁verkeerd	-12.1946
kjes	-12.1946
▁topklieren	-12.1946
▁testistumor	-12.1947
▁verdeling	-12.1948
▁segmentectomie	-12.1949
▁epid	-12.1949
6-12	-12.1949
▁echte	-12.1949
▁fasciezijde	-12.1949
eur	-12.1949
▁adhesies	-12.195
▁aspiratie	-12.1953
sen	-12.1955
▁vu	-12.1956
▁(1,2	-12.1958
▁rectumtumor	-12.1958
bna	-12.1959
▁10-01-0	-12.1959
▁06-02-	-12.1959
▁omentumweefsel	-12.1961
▁*******/28	-12.1961
ablatiopreparaat	-12.1963
eku	-12.1964
▁parabronchia	-12.1965
▁<100.	-12.1965
▁centro	-12.1967
▁divertikels	-12.1969
▁wangslijmvlies	-12.1971
▁maagtumor	-12.1971
▁linkeronderbeen	-12.1971
▁myxo	-12.1972
iner	-12.1976
▁flo	-12.1976
▁klep	-12.1978
▁studie	-12.1978
▁uitpuilende	-12.1978
▁dermoidcyste	-12.1979
▁fractie	-12.1979
▁extravasatie	-12.1979
80009	-12.198
▁aktiviteit	-12.198
▁onderzijde	-12.1984
▁onderkaak	-12.1985
▁duodenumbiopsie	-12.1991
transplantaat	-12.1991
▁resectiemarge	-12.1992
▁typeren	-12.1993
▁rechterbovenarm	-12.1998
▁ongemarkeerd	-12.2011
▁are	-12.2017
▁pectoraal	-12.2018
▁resulta	-12.2019
▁anf	-12.2028
ringen	-12.2032
▁06-05-	-12.2033
▁10%.	-12.2034
940	-12.204
▁cilinders	-12.2041
98-	-12.2046
maken	-12.2051
▁lymffollikel	-12.2055
▁morphea	-12.2057
-06-10/*******/	-12.2059
3050	-12.2063
▁05-10-	-12.2069
070	-12.2071
antie	-12.2072
▁tdt	-12.2073
pan	-12.2073
652	-12.2076
tumortje	-12.2076
▁pnet	-12.2077
▁ret	-12.2081
receptoranalyse	-12.2082
▁broncho	-12.2083
iale	-12.2084
alwaar	-12.2089
441	-12.2091
incontinentie	-12.2094
immunohistochemi	-12.2095
▁therapeutisch	-12.2097
▁vocht	-12.2097
overgroei	-12.2099
▁cells	-12.2106
▁1^	-12.2108
9470	-12.211
-07-09/*******/	-12.211
▁(0/5).	-12.2113
▁meng	-12.2113
▁(3+).	-12.2116
ngs	-12.2119
▁65	-12.2122
▁bekleding	-12.2122
*******	-12.2125
▁gebracht	-12.2136
▁kl	-12.2143
aseerd	-12.215
▁zones	-12.2154
inale	-12.2165
38)	-12.2167
▁botbiopten	-12.2171
reven	-12.2171
96:	-12.2176
▁tub	-12.2177
▁wf	-12.2179
▁endometrial	-12.2179
▁artefacten	-12.2183
villoglandulair	-12.2185
▁gea	-12.2188
▁spr	-12.219
▁prep	-12.2192
og	-12.2194
81100	-12.2195
sotheliomenpanel	-12.2201
▁abdomina	-12.2211
▁tumortjes	-12.2231
8010	-12.2233
toplymfklieren	-12.2234
91000	-12.2243
▁ziet	-12.2246
8)	-12.2248
-08-07/	-12.2249
blastoma	-12.225
▁resektievlak	-12.2251
▁ne	-12.2257
no	-12.2257
bronchusspoeling	-12.2262
▁bijgevoegde	-12.2262
3345	-12.2264
osarcoma	-12.2278
)^	-12.2281
▁03-11-0	-12.2282
▁effecten	-12.2282
pleksgewij	-12.2284
▁lin	-12.2285
▁bos	-12.2291
1135	-12.2303
▁huidresecties	-12.2307
91:	-12.2308
bl	-12.2328
▁digit	-12.233
usexcisie	-12.2339
lekken	-12.2345
116	-12.2377
▁endocrien	-12.239
▁eind	-12.2394
07-1	-12.2414
ala	-12.2422
97):	-12.2424
▁(18	-12.2425
34-	-12.2426
▁14-11-0	-12.2427
▁randgebied	-12.2428
▁80%.	-12.2434
/4	-12.2436
-1,	-12.2438
pithelioidcellig	-12.244
px	-12.2447
pb	-12.2452
kv	-12.2453
ri	-12.2477
▁fu	-12.2482
▁125	-12.2496
ologisch	-12.2505
8):	-12.2517
▁retroperitonea	-12.2526
▁tumorexcisie	-12.2535
▁collagene	-12.254
22	-12.2552
▁tumordikte	-12.2557
▁grot	-12.2566
ba	-12.2579
▁componente	-12.2581
▁17-11-0	-12.2584
-10-07/*******/	-12.2585
jm	-12.2588
260	-12.2594
roma	-12.2595
▁11).	-12.2606
410	-12.2607
20000	-12.2611
▁site	-12.2623
▁longen	-12.2631
672	-12.2631
/29	-12.2641
▁excisieweefsel	-12.2643
-10-12/*******/	-12.2649
hepat	-12.2658
635	-12.2672
olair	-12.2673
atypisch	-12.2694
eic	-12.2744
316	-12.2753
735	-12.2762
tratum	-12.2763
474	-12.2764
maar	-12.2772
hi	-12.2776
fundi	-12.2783
satelliethaardje	-12.2791
car	-12.2793
ort	-12.2807
culi	-12.2813
▁07-12-	-12.282
▁28-10-	-12.2828
oc	-12.2842
077	-12.2846
▁basal	-12.2852
▁22-11-0	-12.2866
70%).	-12.2868
,5%	-12.2868
▁mammair	-12.2883
▁naschrift	-12.2894
▁kop	-12.2896
719	-12.2903
▁290	-12.2904
▁zi	-12.2904
dig	-12.2919
98/	-12.2923
oblastoom	-12.2924
98-1	-12.2926
▁colloide	-12.2936
oppen	-12.2942
toxische	-12.2954
▁17-10-	-12.2958
▁5%)	-12.296
▁microcyst	-12.2969
91-	-12.2983
/15).	-12.2999
matige	-12.301
▁aanv	-12.3019
▁2007	-12.3046
/7	-12.305
▁heterolo	-12.3074
icus	-12.3077
360	-12.3081
▁ze	-12.3081
97-1	-12.3086
▁95%	-12.3096
hu	-12.3097
09-3	-12.3115
▁24-12-	-12.3132
5).	-12.3139
▁cysto	-12.3142
▁synoviumbiopt	-12.3143
erscheiden	-12.315
590	-12.3152
28610	-12.3153
anal	-12.3161
.^2	-12.3174
▁toxisch	-12.3186
localisaties	-12.3207
clear	-12.3215
▁ouder	-12.3219
▁gaand	-12.3237
89-	-12.3252
▁brunn	-12.3255
8247	-12.3255
che	-12.3256
5491	-12.3263
matosis	-12.3263
▁plaveiselcellen	-12.3273
▁doorgroeid	-12.3281
(-	-12.3298
▁hetero	-12.3316
▁20-12-	-12.3345
▁fund	-12.3349
nos	-12.3353
sgewijs	-12.3363
13)	-12.34
▁12).	-12.3423
▁coagulatie	-12.3455
+/	-12.3466
▁mag	-12.3472
haardjes	-12.3474
restanten	-12.3483
^*******	-12.3495
2573	-12.3506
gische	-12.3506
-06-09/*******/	-12.3511
ius	-12.3515
nemen	-12.3522
▁trach	-12.3524
fragmentje	-12.3531
▁immunoglobuline	-12.3549
lv	-12.355
94:	-12.3568
arl	-12.3576
14)	-12.3579
▁18-02-	-12.358
▁12/13	-12.3581
▁18-08-	-12.3594
2008	-12.3599
12-1	-12.3602
480	-12.3606
▁prostaatpunctie	-12.3609
-01-10/*******/	-12.3618
27	-12.3626
065	-12.3644
08-8	-12.3652
▁smal	-12.3676
07-21	-12.3687
excisies	-12.3688
▁22-07-	-12.3719
-06-11/*******/	-12.3724
36).	-12.374
▁verm	-12.3742
▁ko	-12.3749
ob	-12.3753
▁rea	-12.3765
blaastumor	-12.3768
▁atherosclero	-12.3774
8820	-12.3781
▁epiderm	-12.3802
2%	-12.3805
▁12-04-	-12.3814
757	-12.3835
▁23-04-	-12.3837
din	-12.3842
pv	-12.3844
443	-12.3845
▁erythemato	-12.3853
fase	-12.3857
14-	-12.3859
▁mini	-12.3862
to	-12.3863
oven	-12.3867
61	-12.3872
kante	-12.3896
▁cervixs	-12.3924
jk	-12.3925
infiltraat	-12.3928
05-	-12.3933
▁('	-12.3935
▁muco	-12.3946
▁44	-12.3949
▁criteri	-12.3952
gaande	-12.3953
876	-12.4002
cribriform	-12.4007
▁+/-1	-12.4014
acanthotisch	-12.4016
isse	-12.4025
▁04-07-	-12.4035
mv	-12.4042
cellig	-12.4042
▁mondbodembiopt	-12.405
▁bio	-12.406
1380	-12.4063
▁ova	-12.4064
962	-12.4068
vast	-12.407
96-2	-12.4075
▁uitstrijk	-12.409
99-1	-12.4091
diep	-12.4098
▁exo	-12.41
oppervlakkig	-12.4101
▁muc	-12.4101
meting	-12.4108
▁basaa	-12.4108
villeu	-12.4113
oscopie	-12.4122
▁incisie	-12.4124
erde	-12.4126
5.2	-12.4127
stri	-12.4128
vol	-12.4132
ventrale	-12.4134
marker	-12.4134
hoek	-12.4135
13-5	-12.4136
pylorisch	-12.4144
uli	-12.415
veel	-12.4152
ovarie	-12.4155
lokveranderingen	-12.4158
pos	-12.416
fur	-12.4164
▁ogen	-12.417
hoe	-12.4173
fibromy	-12.4174
techniek	-12.4177
-7	-12.4183
gemarkeerde	-12.4191
▁(0%	-12.4192
reductie	-12.4192
anx	-12.4193
contaminatie	-12.4194
immunoblastair	-12.4194
▁nauw	-12.4195
▁kno	-12.4196
voorstel	-12.4196
▁pun	-12.4198
derde	-12.4198
inter	-12.4199
wenkbrauw	-12.4201
shave	-12.4201
8,	-12.4202
indicatie	-12.4203
abdominaal	-12.4204
mucineu	-12.4204
▁ep	-12.4206
epiderma	-12.4206
pectoraal	-12.4208
studie	-12.4208
kaak	-12.4208
cilinders	-12.4211
▁klo	-12.4212
schijnlijk	-12.4212
adequaat	-12.4213
geschikt	-12.4213
verandering	-12.4214
birads	-12.4215
atheroomcyste	-12.4215
transit	-12.4215
▁26-04-	-12.4215
▁malign	-12.4216
overgangszone	-12.4216
conc	-12.4216
spier	-12.4217
fractuur	-12.4217
clavicula	-12.4217
urethra	-12.4217
neoplastisch	-12.4218
destructie	-12.4218
**	-12.4218
ziekte	-12.4218
kwantitatie	-12.4218
comedotype	-12.4219
crista	-12.4219
tepel	-12.422
kruin	-12.422
carcinosarcoom	-12.422
architectuur	-12.422
binnen	-12.422
sternum	-12.422
lumen	-12.422
rbk	-12.4221
gemeten	-12.4221
pancreas	-12.4221
achterlip	-12.4221
trigonum	-12.4221
kaakhoek	-12.4221
kaakrand	-12.4222
massa	-12.4222
▁ontst	-12.4222
merg	-12.4222
chirurgie	-12.4222
wigexcisie	-12.4222
blauw	-12.4222
high	-12.4222
seminoom	-12.4223
mid	-12.4223
axillair	-12.4223
astrocytoom	-12.4223
scapula	-12.4223
ventraal	-12.4223
descendens	-12.4223
positiviteit	-12.4223
november	-12.4223
klierbuizen	-12.4223
advies	-12.4224
kappa	-12.4224
achterzijde	-12.4224
juni	-12.4224
rontgen	-12.4224
arge	-12.4224
fibroserende	-12.4224
subcutis	-12.4224
anaplastisch	-12.4224
egfr	-12.4224
benigne	-12.4224
lentigo	-12.4224
ziekenhuis	-12.4224
ovarium	-12.4224
wur	-12.4224
dunne	-12.4225
fibrose	-12.4225
radicaliteit	-12.4225
endocervix	-12.4225
tvu	-12.4225
patient	-12.4225
micronodulair	-12.4225
endometrium	-12.4225
lymfeklieren	-12.4226
sereus	-12.4228
hpv	-12.4228
▁25-08-0	-12.423
grens	-12.423
celrijk	-12.4231
lly	-12.4233
hormoonreceptor	-12.4237
linkerwang	-12.4238
!^	-12.4239
93-5	-12.424
rechterwang	-12.424
▁4,1	-12.4242
mutatie	-12.4244
onderrug	-12.4247
▁geperforeerd	-12.4247
onderste	-12.4248
ptag	-12.4249
92-1	-12.4249
▁huidadnextumor	-12.425
09-10	-12.4255
▁uitpuilend	-12.4257
diagnosticeerd	-12.4258
▁prognos	-12.4261
▁22-06-	-12.4262
noe	-12.4262
3140	-12.4266
maagbiopten	-12.4268
▁porta	-12.4268
vena	-12.4273
▁middelgro	-12.4276
▁03-04-0	-12.4278
twee	-12.4281
05-12	-12.4281
anf	-12.4283
3:^	-12.4289
cave	-12.4291
nephr	-12.4291
▁clo	-12.4294
769	-12.43
13-2	-12.4301
au	-12.4307
833	-12.431
▁circumferent	-12.4312
cea	-12.4313
10-10	-12.4324
▁varie	-12.4324
▁verwijd	-12.433
urethraal	-12.4331
16)	-12.4341
emia	-12.4346
crani	-12.4353
zicht	-12.4353
opathie	-12.4354
▁paraffinecoupe	-12.4355
▁endometrio	-12.4357
99-6	-12.4359
▁betreffend	-12.4359
▁oedemateu	-12.436
8720	-12.436
▁cylindercel	-12.4363
strumectomie	-12.4364
▁bedraag	-12.4364
▁13-08-	-12.4365
▁uitge	-12.4365
vragen	-12.4368
▁infarct	-12.4371
▁veld	-12.4371
▁element	-12.4371
pora	-12.4373
07-03	-12.4375
▁19-06-0	-12.4375
▁placentarest	-12.4375
-06-199	-12.4376
▁bauhin	-12.4377
▁woeker	-12.4378
banen	-12.438
▁koloni	-12.438
spleet	-12.438
ectasie	-12.438
▁hersenbiopt	-12.438
▁bedek	-12.4381
treffen	-12.4381
schacht	-12.4381
▁komp	-12.4381
▁uitvoer	-12.4381
toestand	-12.4381
▁secretar	-12.4381
▁spirochet	-12.4381
overgevoeligheid	-12.4381
▁eggink	-12.4381
▁necrobio	-12.4381
▁organoid	-12.4381
▁siliconen	-12.4381
#	-12.4381
(14;18)	-12.4381
96873	-12.4381
aspatiecm	-12.4381
erland	-12.4381
gereserceerd	-12.4381
hematomorfologie	-12.4381
hyalien	-12.4381
ileaca	-12.4381
ndiceerd	-12.4381
patronen	-12.4381
peripancreatisch	-12.4381
▁aanbeveling	-12.4381
▁alienum	-12.4381
▁amenorrhoe	-12.4381
▁atrophicus	-12.4381
▁chemoradiatie	-12.4381
▁ciliare	-12.4381
▁circumcisie	-12.4381
▁concentratie	-12.4381
▁deferentes	-12.4381
▁dentata	-12.4381
▁differentatie	-12.4381
▁doorbreken	-12.4381
▁doorslaggevend	-12.4381
▁dorso	-12.4381
▁dysgerminoom	-12.4381
▁dystrofisch	-12.4381
▁excideren	-12.4381
▁expansie	-12.4381
▁gedetecteerd	-12.4381
▁geinverteerd	-12.4381
▁gemuteerd	-12.4381
▁getypeerd	-12.4381
▁geëxcideerd	-12.4381
▁giemsa	-12.4381
▁glioma	-12.4381
▁gonorrhoeae	-12.4381
▁gynaecoloog	-12.4381
▁heftig	-12.4381
▁hemiglos	-12.4381
▁hyperkeratotica	-12.4381
▁inflammatie	-12.4381
▁invadeert	-12.4381
▁invasiviteit	-12.4381
▁lymfespleten	-12.4381
▁lymfevaten	-12.4381
▁mammaprint	-12.4381
▁mammoto	-12.4381
▁medicamenteu	-12.4381
▁meegereseceerd	-12.4381
▁nabothi	-12.4381
▁obliterans	-12.4381
▁oropharynx	-12.4381
▁primitieve	-12.4381
▁proctitis	-12.4381
▁reconstrueren	-12.4381
▁recurren	-12.4381
▁retroplacentair	-12.4381
▁rosacea	-12.4381
▁schatten	-12.4381
▁schimmelsporen	-12.4381
▁sclerotisch	-12.4381
▁sertoli	-12.4381
▁sjogren	-12.4381
▁spermatocele	-12.4381
▁splenomegalie	-12.4381
▁stagiering	-12.4381
▁synaptofysine	-12.4381
▁syringoom	-12.4381
▁uitgeblust	-12.4381
▁ventrikel	-12.4381
▁vocalis	-12.4381
▁voorlopercellen	-12.4381
▁zenuwschede	-12.4381
80704	-12.4381
_	-12.4381
snipper	-12.4381
▁adventitia	-12.4381
▁alpha	-12.4381
▁dermatologie	-12.4381
▁desquam	-12.4381
▁doorgeven	-12.4381
▁dupuytren	-12.4381
▁glycogeen	-12.4381
▁ileocaecaal	-12.4381
▁mindact	-12.4381
▁spinalioom	-12.4381
▁ventriculi	-12.4381
▁29-12-0	-12.4381
▁commissuur	-12.4381
▁direkt	-12.4381
▁fibrinoid	-12.4381
▁hepaticus	-12.4381
▁ligging	-12.4381
▁megaloblastair	-12.4381
▁omvat	-12.4381
▁orofarynx	-12.4381
▁panniculitis	-12.4381
▁massief	-12.4381
69360	-12.4381
▁chordo	-12.4381
▁haemorrhoid	-12.4381
▁meegeleverd	-12.4381
▁steatosis	-12.4381
00402	-12.4381
33610	-12.4381
wlt	-12.4381
▁niervene	-12.4381
▁staven	-12.4381
▁tyrosinase	-12.4381
▁myositis	-12.4381
zakelijk	-12.4381
▁kloksgewijs	-12.4381
▁medulloblastoom	-12.4381
cipien	-12.4381
▁tonsillectomie	-12.4381
46540	-12.4381
waarborg	-12.4381
▁serologie	-12.4381
▁variabel	-12.4381
57260	-12.4381
▁intervill	-12.4381
▁schimmeldraden	-12.4381
85422	-12.4381
▁pangastritis	-12.4381
▁nucleoli	-12.4381
35060	-12.4381
▁hemorr	-12.4381
▁overloop	-12.4381
▁verlaagd	-12.4381
▁endocarditis	-12.4381
▁meningeoom	-12.4381
▁chemie	-12.4381
▁mitra	-12.4381
▁beneden	-12.4381
35330	-12.4381
▁retetestis	-12.4381
▁wondrand	-12.4381
35050	-12.4381
▁hoekpunt	-12.4381
▁palga	-12.4381
▁vervolgantwoord	-12.4381
▁waarneembaar	-12.4381
89603	-12.4381
▁presentatie	-12.4381
▁pivu	-12.4381
▁architecture	-12.4381
▁geinvadeerd	-12.4381
▁gelukt	-12.4381
▁krater	-12.4381
▁plexi	-12.4381
strict	-12.4381
▁antraal	-12.4381
▁vezeltoename	-12.4381
▁vrouwelijk	-12.4381
▁06-09-1	-12.4381
iasis	-12.4381
▁cerebellum	-12.4381
91013	-12.4381
▁rich	-12.4381
▁microfocus	-12.4381
88513	-12.4381
94733	-12.4381
▁brokke	-12.4381
01517	-12.4381
general	-12.4381
▁glandularis	-12.4381
coloog	-12.4381
▁vervallen	-12.4381
▁lesion	-12.4381
▁malformatie	-12.4381
▁mitoseindex	-12.4381
▁ureterstomp	-12.4381
cytomorfologisch	-12.4381
▁enzym	-12.4381
▁nates	-12.4381
▁dooierzaktumor	-12.4381
▁fallopii	-12.4382
lopend	-12.4382
▁kernatypie	-12.4382
▁cervixconisatie	-12.4382
▁luteum	-12.4382
▁minor	-12.4382
56070	-12.4382
▁ulcusbodemdelen	-12.4382
▁bijkomend	-12.4382
91030	-12.4382
▁midfrontaal	-12.4382
▁adenomyose	-12.4382
▁vaatpool	-12.4382
▁interpectoraal	-12.4382
▁ovarii	-12.4382
▁plaatsvinden	-12.4382
▁show	-12.4382
▁hypertrof	-12.4382
72002	-12.4382
▁intermediate	-12.4382
areolair	-12.4382
▁premenopauza	-12.4382
89553	-12.4382
▁cholesta	-12.4382
32210	-12.4382
vervolgblad	-12.4382
▁herkennen	-12.4382
▁transitie	-12.4382
pharyngea	-12.4382
▁adenofibroom	-12.4382
▁sinistra	-12.4382
staart	-12.4382
▁aug	-12.4382
▁(30%)	-12.4382
▁achttien	-12.4382
31050	-12.4382
ysmegakaryopoese	-12.4382
▁subchoria	-12.4382
▁brengen	-12.4383
▁karakteriseren	-12.4383
▁bilateraal	-12.4383
75700	-12.4383
69220	-12.4383
row	-12.4383
▁gefra	-12.4383
61670	-12.4383
▁vaginalis	-12.4383
▁smo	-12.4383
▁vrijlaat	-12.4383
▁bestude	-12.4383
▁mesotheelcellen	-12.4383
▁spoelceltumor	-12.4383
▁cystica	-12.4383
12-36	-12.4383
▁cake	-12.4384
▁monotone	-12.4384
97-8	-12.4384
▁eber	-12.4384
celmarkers	-12.4384
▁dupl	-12.4384
▁fibroblast	-12.4384
▁vaatstructuren	-12.4384
-10-1996	-12.4384
▁gisttumor	-12.4384
69153	-12.4384
▁splenectomie	-12.4384
presentativiteit	-12.4384
09-8	-12.4384
▁beenmergcrista	-12.4385
▁tumornestjes	-12.4385
▁rechterhand	-12.4385
72120	-12.4385
>>	-12.4385
09020	-12.4385
89003	-12.4385
95300	-12.4385
▁ectopisch	-12.4385
▁dako	-12.4385
▁staaf	-12.4385
▁nabehandeling	-12.4385
80723	-12.4385
sll	-12.4385
▁predominant	-12.4385
▁zijsneevlak	-12.4385
ingsstoornissen	-12.4385
celorigine	-12.4386
▁lijnen	-12.4386
erythropoiese	-12.4386
▁satelieten	-12.4386
▁lymklier	-12.4386
▁vaatinfiltratie	-12.4386
▁longkwab	-12.4386
▁borstbeen	-12.4386
▁seborr	-12.4386
49720	-12.4386
▁verwijderen	-12.4386
osarcoom	-12.4387
▁maanden	-12.4387
94-2	-12.4387
91700	-12.4387
derend	-12.4387
▁dot	-12.4388
▁stervormig	-12.4388
▁reex	-12.4388
▁longtop	-12.4388
▁buitenrand	-12.4388
▁neushelft	-12.4388
▁tand	-12.4388
94423	-12.4388
75500	-12.4389
72020	-12.4389
▁xvi	-12.439
▁uitstrek	-12.439
▁rustig	-12.4391
40400	-12.4391
ldv	-12.4391
▁overzien	-12.4391
▁quadranten	-12.4392
▁duodenummucosa	-12.4392
tritis	-12.4392
▁temporalisbiopt	-12.4393
▁follikelcysten	-12.4393
▁moh	-12.4394
90140	-12.4394
▁reage	-12.4395
he	-12.4395
▁linkerlong	-12.4395
97:^	-12.4395
▁longpunctie	-12.4396
▁02-09-04	-12.4396
▁adnexectomie	-12.4397
▁botfragmenten	-12.4397
▁darmsegment	-12.4397
▁pleuraoppervlak	-12.4397
stase	-12.4398
▁28-06-0	-12.4398
▁congenitaal	-12.4398
▁zweetklieren	-12.4398
▁quadrant	-12.4398
/02/201	-12.4399
▁abortusweefsel	-12.4399
▁bloedingsresten	-12.4399
12-20	-12.4399
asie	-12.44
▁nota	-12.44
▁voren	-12.44
99-12	-12.44
76300	-12.44
▁bovenrand	-12.4401
▁remissie	-12.4401
▁groeifase	-12.4402
werkelijk	-12.4403
▁wanddikte	-12.4403
▁colorecta	-12.4404
arn	-12.4404
88800	-12.4404
colisch	-12.4404
▁lymfklierkapsel	-12.4405
▁bevatte	-12.4406
nerend	-12.4406
09-16	-12.4406
vatten	-12.4407
▁excisievlak	-12.4407
▁supraglottis	-12.4407
3239	-12.4409
▁assay	-12.4409
▁trojani	-12.4409
▁ijsselmeer	-12.441
▁insufficientie	-12.441
▁korrel	-12.441
▁matrix	-12.441
▁pityrosporum	-12.441
▁stuwing	-12.441
▁kernanaplasie	-12.441
▁lymfebanen	-12.441
▁gekeken	-12.441
▁osteochondroom	-12.441
▁prothese	-12.441
▁autoimmuniteit	-12.441
▁jni	-12.441
▁obliteratie	-12.441
▁uretermond	-12.441
▁mondhoek	-12.441
▁extrem	-12.441
▁retroperitoneum	-12.441
▁pankeratine	-12.441
▁histiocytose	-12.441
▁ongewone	-12.441
rdg	-12.441
▁tubulolobulair	-12.441
▁radikal	-12.441
▁verval	-12.441
paraoesophageaal	-12.441
iddelgrootcellig	-12.441
▁sternumpunctaat	-12.4411
▁bulla	-12.4411
▁laryngea	-12.4411
▁poliepvorming	-12.4411
▁longhilus	-12.4411
▁huidex	-12.4411
▁knieholte	-12.4411
▁radiatie	-12.4411
▁fibrosarcoom	-12.4412
▁capsulair	-12.4412
▁ileo	-12.4413
▁vliezen	-12.4414
ulolobulair	-12.4415
▁neusflank	-12.4415
▁vats	-12.4415
▁aanliggend	-12.4415
▁oorschelprand	-12.4415
▁(0,1	-12.4415
▁temporal	-12.4416
▁ondersteund	-12.4416
▁breslo	-12.4416
▁merker	-12.4417
31)	-12.4417
▁plaques	-12.4417
▁kwam	-12.4418
idu	-12.4418
▁lymflier	-12.4419
▁remmers	-12.4419
decidualis	-12.442
vangen	-12.442
wha	-12.4421
cystadenofibroom	-12.4421
-10-199	-12.4422
+)	-12.4423
▁ovula	-12.4424
▁1973	-12.4425
▁longwigexcisie	-12.4425
▁steunen	-12.4427
▁linkerwenkbrauw	-12.443
▁spongiose	-12.443
0546	-12.4432
rsten	-12.4434
▁subglottis	-12.4436
▁royale	-12.4436
▁hypofyse	-12.4437
94-7	-12.4437
▁persisterend	-12.4439
▁recht	-12.4439
08-5	-12.4441
aortawand	-12.4442
▁stembandbiopsie	-12.4442
▁(10%)	-12.4442
▁bronchiol	-12.4443
▁03-02-	-12.4443
▁leden	-12.4443
▁unc	-12.4447
▁linkeroksel	-12.4447
▁schouderbladen	-12.4449
▁linkerflank	-12.4449
▁millimeters	-12.445
▁potjes	-12.445
▁ventrocrania	-12.4451
▁sec	-12.4451
scapulair	-12.4453
▁sho	-12.4453
▁fibroadenoma	-12.4454
9442	-12.4454
▁4,6	-12.4454
▁09-06-0	-12.4457
rz	-12.4457
▁expert	-12.4457
▁okselvetweefsel	-12.4458
▁26-	-12.4458
▁nivo	-12.4458
▁screening	-12.4459
▁sigmoïd	-12.4459
▁verhouding	-12.4459
▁skelet	-12.4459
▁palliatie	-12.4459
1/*******/	-12.446
peptische	-12.4462
▁colonwand	-12.4462
broken	-12.4463
6+	-12.4463
▁antrumbiopt	-12.4463
gladspierweefsel	-12.4467
▁levermetastasen	-12.4469
▁1994/	-12.447
▁verlittekend	-12.4471
▁3,6	-12.4473
▁adnexresectie	-12.4476
82/	-12.4478
▁meet	-12.4479
▁vermelding	-12.448
▁uitgebreidheid	-12.4481
▁carcino	-12.4486
oster	-12.4486
▁word	-12.4487
▁4,0	-12.4491
▁3+5=8.	-12.4492
▁(0/17).	-12.4492
98-3	-12.4492
klie	-12.4493
▁(50%)	-12.4496
632	-12.4496
24600	-12.4497
▁toen	-12.4497
▁omentumbiopt	-12.4499
▁ci	-12.4499
▁06-10-0	-12.4505
markers	-12.4509
▁systeem	-12.451
▁gewricht	-12.451
▁omentumresectie	-12.4511
▁16-01-0	-12.4511
▁linkerborst	-12.4511
▁mediaan	-12.4512
▁borstel	-12.4512
▁ruimten	-12.4513
▁verbeterd	-12.4513
-09-13/*******/	-12.4514
▁chorion	-12.4516
▁actine	-12.4517
98-7	-12.4518
▁erosies	-12.4519
▁pleurabiopt	-12.4519
gelijk	-12.452
uter	-12.4521
▁aden	-12.4521
ton	-12.4522
▁jv	-12.4522
▁zonbeschadig	-12.4525
▁^(	-12.4532
▁tbc	-12.4536
romp	-12.4537
1540	-12.4537
▁09-04-0	-12.4543
▁brokkelige	-12.4547
▁weefselbiopt	-12.4547
▁*******/30	-12.4548
▁bak	-12.4548
▁stembandpoliep	-12.4549
▁16-06-0	-12.455
:068	-12.455
▁cop	-12.455
▁afd	-12.4551
▁metast	-12.4553
09-07	-12.456
▁indicatie	-12.4563
oxie	-12.4563
▁abdominaal	-12.457
▁colontumor	-12.457
aw	-12.4574
▁corpusbiopt	-12.4576
poliepjes	-12.4577
▁rub	-12.4582
▁vallecula	-12.4582
▁huma	-12.4584
703	-12.4585
▁26-11-	-12.4587
▁1992/	-12.4588
▁1997/	-12.459
!).	-12.4595
satie	-12.4596
▁9-	-12.4603
▁28-11-	-12.4606
:082	-12.4608
824	-12.4608
▁factor	-12.4612
▁eic	-12.4614
▁placentair	-12.4614
▁sturen	-12.4615
13/	-12.4619
▁geba	-12.462
vier	-12.4622
▁ovariumresectie	-12.4626
▁rechtsboven	-12.4627
▁hot	-12.4628
0653	-12.463
▁erbij	-12.4632
▁20-07-0	-12.4634
cervixlisexcisie	-12.4638
▁ikw	-12.4638
▁08-07-	-12.464
mige	-12.4643
▁gii	-12.4648
▁beeldvorming	-12.4652
▁idh	-12.4656
zelfs	-12.4658
▁11.	-12.4664
▁core	-12.4666
▁onderzoeken	-12.4667
▁19-12-	-12.4672
veneus	-12.4674
rg	-12.468
▁tumorembolie	-12.468
.08.	-12.4682
▁gi	-12.4683
▁tumorresten	-12.4686
▁01-02-	-12.4691
10-7	-12.4694
975	-12.4695
▁gerelateerde	-12.4696
▁product	-12.4698
^^^	-12.4699
95-	-12.4705
ijl	-12.4708
▁huidexci	-12.4708
10-2	-12.4709
▁botnaald	-12.4716
▁like	-12.4722
vijfmaal	-12.4725
▁aandoend	-12.4729
▁+/-5	-12.4735
-45	-12.4745
part	-12.4746
6370	-12.475
▁vermelden	-12.4755
▁oncoc	-12.4764
dige	-12.4773
▁carcinoomcellen	-12.4775
▁gekomen	-12.4775
3-4	-12.478
▁+2).	-12.4781
▁++	-12.4782
elde	-12.4783
▁letsels	-12.4789
ist	-12.4789
▁ster	-12.4791
ichting	-12.4793
94-4	-12.4795
10-1	-12.4801
▁mnf	-12.4807
8610	-12.481
03-1	-12.481
▁09-11-0	-12.481
98).	-12.4815
04-	-12.4818
▁59	-12.482
906	-12.4824
▁5.2	-12.4828
▁barretts	-12.4832
▁interstitie	-12.4836
▁hoed	-12.4846
▁1987	-12.4855
▁plasma	-12.4855
02-5	-12.4862
▁ro	-12.4874
celpopulatie	-12.4876
crm	-12.4885
▁fibromatos	-12.4889
▁4+4=8.	-12.4893
▁oesofaguss	-12.4896
98003	-12.4896
:05-	-12.4902
▁thyreoidectomie	-12.4913
+).	-12.4919
▁(25	-12.4929
▁31-03-	-12.4935
42).	-12.4935
080	-12.4938
▁toel	-12.4938
01-4	-12.4942
tine	-12.4943
/22	-12.4945
noom	-12.4946
sels	-12.4947
rechterslaap	-12.4951
▁traumatisch	-12.4957
dw	-12.4958
ijf	-12.4974
12-5	-12.4974
▁membran	-12.4975
▁(60	-12.4975
ellen	-12.4978
▁erbb	-12.4978
▁08-03-	-12.4981
▁18-07-	-12.4991
▁versch	-12.4993
nf	-12.5001
▁(94	-12.5001
▁3%	-12.5005
tis	-12.5007
▁beslaa	-12.5008
andibularesectie	-12.5011
▁lager	-12.5013
▁1+.	-12.5021
02-6	-12.5021
09-31	-12.5022
2/*******/	-12.5024
1650	-12.5024
8840	-12.5025
741.	-12.503
▁lichtbeschadig	-12.5037
tl	-12.5037
-10-09:	-12.5038
▁mesorect	-12.5045
06-3	-12.5065
▁neem	-12.5066
.^*******	-12.507
apri	-12.5071
-09-08/*******/	-12.5083
430	-12.5086
celnaevus	-12.5099
corpustype	-12.5102
klein	-12.5108
▁14-07-0	-12.5112
55	-12.5123
90-	-12.5155
▁260	-12.5156
07-29	-12.517
13-1	-12.5188
dex	-12.5195
756	-12.5196
▁+3)	-12.5208
▁gega	-12.5231
ktie	-12.5238
dus	-12.5246
▁13-	-12.5247
▁vaa	-12.5255
scha	-12.5256
▁9:	-12.5256
89	-12.5257
elli	-12.5271
09/	-12.5278
celsarcoom	-12.528
616	-12.5306
▁3+4.	-12.531
▁ring	-12.5313
lymfklierpunctie	-12.5339
▁08-09-0	-12.5345
kend	-12.5349
▁08-07-0	-12.5353
ast	-12.5356
aten	-12.5386
-09-07/*******/	-12.5392
▁beenmergbiopten	-12.5397
59	-12.54
10-8	-12.541
▁lipo	-12.5416
snijden	-12.5417
01-1	-12.5422
▁12-12-0	-12.543
▁sma	-12.5431
▁2007)	-12.5435
▁subepiderma	-12.5439
oud	-12.544
oïd	-12.5451
▁digita	-12.546
▁03-07-	-12.5469
-3).	-12.5469
▁1-3	-12.5475
.17	-12.5478
oth	-12.5485
▁70-	-12.5504
ich	-12.5511
cf	-12.5524
12-2	-12.5532
▁oc	-12.5535
del	-12.5547
▁ra	-12.5568
▁47	-12.558
/31	-12.5584
▁thorac	-12.5593
613	-12.56
/15	-12.5604
▁verrichte	-12.5612
▁(10/	-12.5613
lca	-12.5613
▁2010)	-12.5624
leg	-12.5627
▁bovenkwabs	-12.5631
▁04-11-0	-12.5633
▁*******).	-12.564
▁2009)	-12.5641
320	-12.5649
komst	-12.5668
▁ak	-12.567
euroradiologisch	-12.5678
▁lieslymfklier	-12.5691
▁pharynx	-12.572
loo	-12.5732
vorm	-12.5733
040	-12.5739
-12-07/*******/	-12.5744
-10-13/	-12.576
▁12-07-0	-12.5769
▁snede	-12.5775
io	-12.5783
▁21-04-	-12.5792
▁......	-12.5798
▁consultblokje	-12.5817
▁75	-12.582
1-2).	-12.5825
1994	-12.5836
403	-12.5854
51	-12.5867
▁15-05-	-12.5868
colloidcarcinoom	-12.5905
1859	-12.5911
mss	-12.5918
▁to	-12.5921
53-	-12.5937
/*******/26	-12.5945
▁82	-12.5945
ier	-12.5946
geleverde	-12.5954
dium	-12.5954
▁sid	-12.5962
2001:	-12.5969
/5).	-12.598
gesteronreceptor	-12.5982
02-1	-12.5985
▁cervical	-12.6014
prostatectomie	-12.602
sp	-12.6036
346	-12.6039
▁neuspoliep	-12.6042
▁29-03-	-12.6052
ana	-12.6063
▁kant	-12.6071
▁(11/	-12.6076
▁(12)	-12.6077
gaat	-12.6084
▁ingroeit	-12.6092
ronchuscytologie	-12.6099
▁satellit	-12.6101
▁wond	-12.6101
.^^2	-12.6119
eling	-12.6147
▁15-04-	-12.615
05-10	-12.6156
lie	-12.6157
-01-08/*******/	-12.617
▁namelijk	-12.6172
atus	-12.6173
▁demo	-12.6178
73:	-12.6179
8920	-12.618
▁prem	-12.6189
▁0.2	-12.6196
▁stra	-12.6197
hy	-12.6212
nt	-12.6216
ex	-12.6218
-2.	-12.6243
▁150	-12.6247
voldoende	-12.6251
▁03-05-	-12.6253
▁26-07-	-12.6268
men	-12.6298
894	-12.6301
▁clearcel	-12.6305
05-5	-12.6321
▁hui	-12.6324
▁17-11-	-12.6343
92-	-12.6344
3%	-12.6345
02-3	-12.6352
▁16-07-	-12.6359
2014	-12.6367
▁(*******/	-12.6394
angiectasieen	-12.6395
mammair	-12.6401
984	-12.6414
▁08-10-	-12.6417
▁26-10-0	-12.6424
▁reuma	-12.6428
-09-13/	-12.6439
ous	-12.6459
81/	-12.6467
13-	-12.6471
nitis	-12.6473
entie	-12.648
460	-12.6486
114	-12.6489
-01-11/*******/	-12.6504
voeren	-12.6507
▁darmmucosabiopt	-12.6517
▁bri	-12.6518
▁lichtmicroscopi	-12.6527
oon	-12.656
91.	-12.6568
nenmicroscopi	-12.6573
▁steroid	-12.6574
366	-12.6574
2006	-12.6587
11-2	-12.6597
av	-12.6599
▁epithelioma	-12.6608
520	-12.6624
98,	-12.6626
kern	-12.664
stabl	-12.6642
resectieweefsel	-12.6645
▁12:	-12.6647
13-10	-12.6649
▁02-07-	-12.665
ero	-12.6653
▁2001,	-12.6677
pitheelbekleding	-12.6716
▁halslymfklier	-12.6719
834	-12.6729
0713	-12.6744
tb	-12.6751
ani	-12.6755
▁31-12-	-12.6756
07-3	-12.6757
fibro	-12.6764
▁monocyt	-12.6768
▁09-12-	-12.677
583	-12.6777
▁(4)	-12.6786
teus	-12.679
roe	-12.6797
521	-12.6798
beschadiging	-12.6799
95)	-12.6811
▁renaal	-12.6828
▁epithelioid	-12.683
▁mass	-12.685
▁pl	-12.6853
-08-11/*******/	-12.6853
▁10).	-12.6855
lymf	-12.6863
▁ovariae	-12.6865
bil	-12.6868
636	-12.6868
44).	-12.6871
14:	-12.6882
su	-12.6896
kliermetastasen	-12.6898
370	-12.6906
6:^	-12.692
▁vaststell	-12.6924
deerd	-12.6927
▁30-12-0	-12.6929
457	-12.6932
▁bo	-12.6937
04-13	-12.6965
▁04-04-	-12.6967
▁indi	-12.697
4903	-12.6972
▁lag	-12.6973
▁43	-12.6977
▁gedifferenti	-12.6987
▁40%.	-12.6992
14).	-12.6995
▁(3+4)	-12.7006
▁(100	-12.7013
▁megakary	-12.7031
▁4+4=8	-12.7042
naald	-12.7052
traumatische	-12.7058
slijmvliespoliep	-12.7062
ku	-12.7065
219	-12.7069
▁baso	-12.7069
918	-12.7073
▁04-03-	-12.7084
550	-12.7085
▁stromacel	-12.7086
▁krab	-12.709
822	-12.7093
ace	-12.7102
cysten	-12.7105
▁mammalump	-12.7107
minste	-12.7115
516	-12.7121
▁oesofagusbiopt	-12.7129
renale	-12.713
-07-13/*******/	-12.7132
ned	-12.7133
pen	-12.7147
pin	-12.7153
▁maxim	-12.7159
▁diabeti	-12.7164
vervett	-12.7175
▁16-11-	-12.7179
▁ar	-12.719
▁villo	-12.7193
05-26	-12.7195
dui	-12.7207
91-1	-12.7209
▁mediastinoscopi	-12.7215
▁oo	-12.7215
dicht	-12.7236
▁4+5=9	-12.7239
▁27-11-0	-12.7242
09):	-12.7248
240	-12.7248
och	-12.7249
▁80%)	-12.7254
96-3	-12.727
▁immunokleuring	-12.7286
arterie	-12.7289
▁(1+/	-12.7289
gus	-12.7291
▁15-11-	-12.7292
▁16-	-12.7294
▁25-09-	-12.7318
▁biologi	-12.7321
628	-12.7326
432	-12.7332
▁synovi	-12.7336
1995	-12.7341
oni	-12.7341
▁sa	-12.7342
comedo	-12.7349
aktiviteit	-12.7363
▁ant	-12.7364
04-23	-12.7368
10/*******/	-12.7369
55)	-12.7371
clusters	-12.7371
60%	-12.7392
epe	-12.7395
-08-2005	-12.7396
709	-12.7401
kerato	-12.7408
▁10-03-	-12.7408
nische	-12.7409
725	-12.7412
▁27-05-	-12.7414
▁22-10-	-12.7414
epidermoid	-12.7416
ichtbeschadiging	-12.7417
riserend	-12.7419
secreet	-12.7423
▁markerings	-12.7427
gemarkeerd	-12.7427
▁(0%)	-12.7427
bene	-12.7428
10-3	-12.7428
echter	-12.7428
ut	-12.743
▁uretersnijvlak	-12.7432
▁26-11-0	-12.7435
usie	-12.7441
▁5).	-12.7444
11-7465	-12.7444
06-14	-12.7447
▁11-06-0	-12.745
▁chorio	-12.7456
thoracaal	-12.7456
▁thyreoid	-12.7463
0,8	-12.7464
sigmoidresectie	-12.7465
foto	-12.7468
lam	-12.7468
elijke	-12.7471
enkel	-12.7474
▁16-06-	-12.7475
▁verbrokkel	-12.7475
▁eviden	-12.7476
33,	-12.7476
-09-11/	-12.7478
uis	-12.7478
▁(16	-12.7484
/12	-12.749
-07-1998	-12.7497
10).	-12.75
lijden	-12.7502
▁gest	-12.7504
microscopie	-12.7504
gezwel	-12.7508
cellulariteit	-12.7509
passend	-12.7514
net	-12.7514
pas	-12.7514
adhesie	-12.7514
zijwand	-12.7516
▁11-05-	-12.7516
long	-12.7517
latend	-12.7518
▁aansluit	-12.7521
man	-12.7521
1999	-12.7522
membran	-12.7522
50%	-12.7523
▁16-05-0	-12.7525
morfea	-12.7528
07-12	-12.7528
wij	-12.753
eruptie	-12.753
krab	-12.7533
rok	-12.7533
ion	-12.7533
gegroeid	-12.7533
coli	-12.7534
▁verbeter	-12.7534
inclusiecyste	-12.7534
mediaan	-12.7536
gewricht	-12.7537
systeem	-12.7537
letsel	-12.7537
hot	-12.7538
pl	-12.7538
ov	-12.7539
▁09-02-	-12.754
dermoidcyste	-12.7542
extravasatie	-12.7542
klep	-12.7542
80%	-12.7542
fractie	-12.7543
onderkaak	-12.7543
▁heteroge	-12.7544
pylorus	-12.7544
scrotum	-12.7545
arteriitis	-12.7545
weke	-12.7545
stoma	-12.7546
breuk	-12.7547
haematopoese	-12.7547
scannen	-12.7547
horizontal	-12.7549
uid	-12.7549
posterior	-12.755
daumas	-12.755
differentiated	-12.7551
myxo	-12.7552
stagering	-12.7552
occipitaal	-12.7552
carina	-12.7552
seminoma	-12.7552
vervolg	-12.7552
anamnes	-12.7553
secretoir	-12.7553
conus	-12.7553
sclerose	-12.7553
▁*******):^	-12.7553
parietaal	-12.7553
ikw	-12.7554
zogenaamd	-12.7554
▁liesklier	-12.7554
basaloid	-12.7554
kapje	-12.7554
gewijzigd	-12.7554
rond	-12.7555
protocol	-12.7555
pneumectomie	-12.7555
anterior	-12.7555
voorlip	-12.7555
serie	-12.7555
tonsil	-12.7556
penis	-12.7556
palatum	-12.7556
morfometrisch	-12.7556
patholoog	-12.7556
gastritis	-12.7556
centrocytair	-12.7556
fraai	-12.7556
hoge	-12.7557
mondbodem	-12.7557
locatie	-12.7557
augustus	-12.7557
scheenbeen	-12.7557
vitale	-12.7557
vulva	-12.7557
lymfatisch	-12.7557
middenkwab	-12.7557
bepaald	-12.7557
pretibiaal	-12.7557
hoofdbronchus	-12.7557
afwijkend	-12.7557
variant	-12.7557
pcr	-12.7557
subcutaan	-12.7558
endocervicaal	-12.7558
juist	-12.7558
zwelling	-12.7558
flex	-12.7558
appendix	-12.7558
transversum	-12.7558
voorkeur	-12.7558
ascendens	-12.7558
overexpressie	-12.7558
gaarne	-12.7558
extern	-12.7558
samengesteld	-12.7558
bovenkwadrant	-12.7558
omentum	-12.7558
superficiele	-12.7558
separaat	-12.7558
hemicolectomie	-12.7559
multifocaal	-12.7559
propria	-12.7559
bowen	-12.7559
geheel	-12.7559
plaatselijk	-12.7559
grawitztumor	-12.7559
keratosis	-12.7559
wig	-12.7559
lingse	-12.756
exon	-12.756
vlies	-12.7561
maagantrum	-12.7561
tumorlengte	-12.7562
overige	-12.7562
blaaswand	-12.7562
gegevens	-12.7563
arteria	-12.7563
kort	-12.7565
doorsneden	-12.7566
granulomen	-12.7567
rechtermamma	-12.7567
tweede	-12.7569
voorzijde	-12.757
acraal	-12.757
langs	-12.7572
▁04-02-	-12.7573
ki	-12.7573
rectumresectie	-12.7574
▁10-07-0	-12.7574
prostaatbiopsie	-12.7576
msr	-12.7577
kliertjes	-12.7577
waarin	-12.7578
▁huidexcochlea	-12.7578
unohistochemisch	-12.7579
reactieve	-12.7579
854	-12.7581
-20%	-12.7582
iva	-12.7583
825	-12.7584
controle	-12.7585
248	-12.7585
▁15-07-	-12.7587
jan	-12.7588
▁echt	-12.759
mucineus	-12.7591
▁suggere	-12.7594
540	-12.7597
▁famili	-12.7599
▁neoplasi	-12.7601
▁abcederend	-12.7601
intig	-12.7602
▁focal	-12.7602
bls	-12.7603
ienteerd	-12.7603
▁superficiel	-12.7604
▁benign	-12.7605
▁30-06-	-12.7609
celhyperplasie	-12.761
puntjes	-12.761
▁rece	-12.7612
▁18-05-0	-12.7615
▁19-10-0	-12.7615
atief	-12.7616
alcelcarcinoom	-12.7617
1023	-12.7617
rd	-12.7619
-07-10/*******/	-12.7626
▁solid	-12.7634
doorheen	-12.7636
geassocieerde	-12.7636
▁16-03-	-12.7641
▁glandulair	-12.7646
▁24-04-	-12.7652
-11-199	-12.7653
ibd	-12.7654
▁excisiefragment	-12.7659
erta	-12.7659
▁bulleu	-12.7661
▁29-07-	-12.7662
):^	-12.7665
▁1989	-12.7666
▁proble	-12.7667
▁3+4=7)	-12.7669
▁metastati	-12.767
anse	-12.7673
tumordiameter	-12.7673
laesies	-12.7675
▁16-11-0	-12.7677
▁afvoer	-12.7678
▁31-08-	-12.7678
▁atyp	-12.768
▁cytostati	-12.7682
▁monotypi	-12.7687
▁beschouw	-12.7688
/10/201	-12.7688
▁imponeren	-12.7689
arcinoom	-12.7691
▁invaginatie	-12.7692
enkele	-12.7693
▁nestje	-12.7693
▁23-08-	-12.7693
▁celgroepje	-12.7693
▁alveol	-12.7694
▁middelgroot	-12.7694
▁hypoplas	-12.7695
▁casu	-12.7696
▁aankleur	-12.7698
▁immunologi	-12.7698
▁bewijzen	-12.7698
▁cylinder	-12.7698
19)	-12.7699
▁berei	-12.77
gevuld	-12.7702
▁07-06-0	-12.7703
841	-12.7703
1-2011	-12.7703
%).	-12.7703
▁dwars	-12.7703
▁bevond	-12.7704
▁hilusklier	-12.7704
schrift	-12.7705
▁chronic	-12.7705
▁snij	-12.7706
▁inflammato	-12.7706
raad	-12.7706
▁plastic	-12.7706
▁31-05-0	-12.7707
▁carin	-12.7708
▁submenta	-12.7708
▁infra	-12.7708
▁paratrachea	-12.7709
8850	-12.7709
cuminatum	-12.7709
▁leukocyt	-12.7709
▁doorsnijding	-12.771
-7-201	-12.771
▁vries	-12.771
ß	-12.7711
▁belang	-12.7711
▁cartilag	-12.7711
oesofag	-12.7711
▁discus	-12.7712
quick	-12.7712
amnionitis	-12.7712
sprong	-12.7712
▁anaplasti	-12.7713
produkt	-12.7713
▁beschikba	-12.7713
poese	-12.7714
▁hemangio	-12.7714
1057	-12.7714
▁circumfer	-12.7714
▁glottis	-12.7714
recidiv	-12.7714
▁afweer	-12.7714
▁fascia	-12.7714
▁chemo	-12.7714
bridisatie	-12.7714
rriteerde	-12.7714
▁curvatu	-12.7714
nsclc	-12.7714
phlegmon	-12.7714
▁twijfel	-12.7714
herschikkings	-12.7714
keurig	-12.7714
▁02-02-0	-12.7714
▁parieto	-12.7714
▁vrucht	-12.7714
09-05507	-12.7714
96-33606	-12.7714
96-8239	-12.7714
acuut	-12.7714
antilichamen	-12.7714
asbestlichaampje	-12.7714
astrocytaire	-12.7714
chromatine	-12.7714
echogeen	-12.7714
endothelioom	-12.7714
geprepareerd	-12.7714
gevorderd	-12.7714
hashimoto	-12.7714
ibrinedeposities	-12.7714
ibrocartilagineu	-12.7714
immunoperoxidase	-12.7714
ingsideroblasten	-12.7714
malherbe	-12.7714
meltump	-12.7714
naevuscellularis	-12.7714
ohistiocytoom	-12.7714
parathyreoidie	-12.7714
pemphigoid	-12.7714
pemphigus	-12.7714
portioresectie	-12.7714
ranulosaceltumor	-12.7714
tetraploid	-12.7714
zaai	-12.7714
▁(<1	-12.7714
▁*******(1996)	-12.7714
▁*******(1998)	-12.7714
▁4+3=7	-12.7714
▁aangeraden	-12.7714
▁aanvraagbrief	-12.7714
▁aanvrager	-12.7714
▁accessoir	-12.7714
▁alcohol	-12.7714
▁alopecia	-12.7714
▁angiolipomen	-12.7714
▁beloop	-12.7714
▁bevolkings	-12.7714
▁bovenfront	-12.7714
▁bovenvermeld	-12.7714
▁brenner	-12.7714
▁bundelig	-12.7714
▁cavernosum	-12.7714
▁chorioidea	-12.7714
▁choroidea	-12.7714
▁chronsich	-12.7714
▁cilindrisch	-12.7714
▁cloacoge	-12.7714
▁commando	-12.7714
▁consulent	-12.7714
▁continuitatum	-12.7714
▁decollete	-12.7714
▁detecteerba	-12.7714
▁ectatisch	-12.7714
▁endosalpingiose	-12.7714
▁epiploicum	-12.7714
▁fasciitis	-12.7714
▁features	-12.7714
▁fgfr	-12.7714
▁fibrinopurulent	-12.7714
▁galstenen	-12.7714
▁geconstateerd	-12.7714
▁geevalueerd	-12.7714
▁genecrotiseerd	-12.7714
▁geopereerd	-12.7714
▁gewekt	-12.7714
▁growth	-12.7714
▁gunstig	-12.7714
▁haematopoetisch	-12.7714
▁haematurie	-12.7714
▁hematoom	-12.7714
▁hogdkin	-12.7714
▁icterus	-12.7714
▁inneemt	-12.7714
▁insectenbeet	-12.7714
▁insteekopening	-12.7714
▁intercosta	-12.7714
▁involutie	-12.7714
▁jugularis	-12.7714
▁kalkneerslag	-12.7714
▁kruisband	-12.7714
▁levercirrhose	-12.7714
▁limits	-12.7714
▁lingua	-12.7714
▁lipoidica	-12.7714
▁lymfadenopathie	-12.7714
▁mamilla	-12.7714
▁medegedeeld	-12.7714
▁meerkamerig	-12.7714
▁midjugulair	-12.7714
▁morphaea	-12.7714
▁mycobacteri	-12.7714
▁netwerken	-12.7714
▁neurinoom	-12.7714
▁onscherp	-12.7714
▁onsteking	-12.7714
▁ontvangst	-12.7714
▁oogbol	-12.7714
▁osteotomievlak	-12.7714
▁pancytopenie	-12.7714
▁papilliferum	-12.7714
▁pendulum	-12.7714
▁percentiel	-12.7714
▁peritonei	-12.7714
▁phyllodes	-12.7714
▁polycytemi	-12.7714
▁profylactisch	-12.7714
▁rafelig	-12.7714
▁ruggenmerg	-12.7714
▁röntgen	-12.7714
▁schaveren	-12.7714
▁schedelgroeve	-12.7714
▁schuimcellen	-12.7714
▁semicirculair	-12.7714
▁sialo	-12.7714
▁silverberg	-12.7714
▁spinocellulare	-12.7714
▁ssdz	-12.7714
▁stapler	-12.7714
▁surveillance	-12.7714
▁thymusweefsel	-12.7714
▁transitione	-12.7714
▁triploidie	-12.7714
▁verbening	-12.7714
▁verdwijnt	-12.7714
▁verklaren	-12.7714
▁vriendelijk	-12.7714
▁wertheim	-12.7714
▁fimbri	-12.7714
▁hidrocystoma	-12.7714
▁mannelijk	-12.7714
▁material	-12.7714
▁myelomonocyt	-12.7714
▁neusgat	-12.7714
▁prostaatkwabben	-12.7714
▁pyelonefritis	-12.7714
▁anthracosilico	-12.7714
▁gecaut	-12.7714
▁gesampled	-12.7714
▁hangen	-12.7714
▁hydrosalpinx	-12.7714
▁infraglottisch	-12.7714
▁malignancy	-12.7714
▁melanomenpanel	-12.7714
▁myofibroblast	-12.7714
▁princip	-12.7714
▁psoas	-12.7714
▁scirrh	-12.7714
▁secreetstase	-12.7714
▁slijmmeren	-12.7714
▁yolk	-12.7714
30741	-12.7714
99642	-12.7714
articulair	-12.7714
▁centroblasten	-12.7714
▁error	-12.7714
▁fibrolipomat	-12.7714
▁frontoparietaal	-12.7714
▁gestoord	-12.7714
▁granulopoese	-12.7714
▁hoornlamellen	-12.7714
▁leiomyosarcomen	-12.7714
▁nodosa	-12.7714
▁spermagranuloom	-12.7714
gescheurde	-12.7714
▁eug	-12.7714
▁fissure	-12.7714
▁portec	-12.7714
:22-0	-12.7714
arran	-12.7714
▁gewrichtskapsel	-12.7714
▁aangeven	-12.7714
▁colostoma	-12.7714
▁densiteit	-12.7714
▁slijmvacuole	-12.7714
▁tonsillaris	-12.7714
coeloom	-12.7714
▁geclusterd	-12.7714
▁homogen	-12.7714
▁verwant	-12.7714
44940	-12.7714
73700	-12.7714
▁genezen	-12.7714
▁hematopoetisch	-12.7714
▁monomorf	-12.7714
▁nevus	-12.7714
▁resection	-12.7714
▁antraco	-12.7714
▁blaarvorming	-12.7714
drukk	-12.7714
scheuring	-12.7714
▁caecum	-12.7714
versum	-12.7714
▁pilomatrixoom	-12.7714
72230	-12.7714
azvu	-12.7714
boeck	-12.7714
▁abcesholte	-12.7714
▁argumentatie	-12.7714
▁reparatie	-12.7714
▁toegevoegd	-12.7714
▁hoornmassa	-12.7714
▁irradicaliteit	-12.7714
▁trombocytose	-12.7714
▁villitis	-12.7714
▁elastine	-12.7714
▁vulvectomie	-12.7714
nyh	-12.7714
▁(75%)	-12.7714
▁epidermoidcyste	-12.7714
▁mgmt	-12.7714
▁nefroblastoom	-12.7714
▁monotoon	-12.7714
48960	-12.7714
lisklep	-12.7714
▁etmoidalis	-12.7714
▁fascialis	-12.7714
▁inguinalis	-12.7714
▁inzichten	-12.7714
▁oligo	-12.7714
▁sequenc	-12.7714
▁zijwaarts	-12.7714
rechteronderkwab	-12.7714
▁06-04-0	-12.7714
▁mestceltoename	-12.7714
▁24-07-0	-12.7714
▁promineren	-12.7714
36360	-12.7714
▁genital	-12.7714
▁weggenomen	-12.7714
▁afgrensba	-12.7714
▁gekwe	-12.7714
▁arteriosclerose	-12.7714
▁thrombosering	-12.7714
▁pouch	-12.7714
▁intermedia	-12.7714
48007	-12.7714
78-67	-12.7714
urerend	-12.7714
toire	-12.7714
▁bereikba	-12.7714
51570	-12.7715
▁uitvoergang	-12.7715
▁myomatosis	-12.7715
gebonden	-12.7715
▁abcesvorming	-12.7715
▁kaakbot	-12.7715
omorf	-12.7715
▁geïsoleerd	-12.7715
▁heupkapsel	-12.7715
12-14157	-12.7715
▁(0,7	-12.7715
06-2654	-12.7715
99453	-12.7715
▁lateralis	-12.7715
90203	-12.7715
▁30-06-04	-12.7715
▁ongekleurd	-12.7715
▁vaginazijwand	-12.7715
▁darminhoud	-12.7715
▁(0/11).	-12.7715
90803	-12.7715
besnier	-12.7715
▁mediocaudaal	-12.7715
04-32	-12.7715
ofagen	-12.7715
▁overgrijp	-12.7715
▁neusseptum	-12.7715
▁liposarcoma	-12.7715
▁buisvorming	-12.7715
▁staining	-12.7715
▁ontkalking	-12.7715
▁wisseling	-12.7715
40700	-12.7715
▁bilspleet	-12.7715
▁rosen	-12.7715
99403	-12.7715
▁labeling	-12.7715
▁interlobulair	-12.7715
▁leder	-12.7715
grepen	-12.7715
myxofibrosarcoom	-12.7715
▁desmine	-12.7715
▁gleas	-12.7715
91210	-12.7715
▁tempi	-12.7715
plasmacellulair	-12.7715
▁acini	-12.7715
▁coeci	-12.7715
▁achtergebleven	-12.7715
▁extramedullair	-12.7715
▁inguina	-12.7715
95700	-12.7715
48730	-12.7715
80166	-12.7715
ostomie	-12.7715
11560	-12.7715
vuldig	-12.7716
draden	-12.7716
▁endoscopisch	-12.7716
▁meniscusweefsel	-12.7716
▁brede	-12.7716
95603	-12.7716
eleangiectasieen	-12.7716
▁17068	-12.7716
sstoornissen	-12.7716
▁fistelvorming	-12.7716
01450	-12.7716
▁bestond	-12.7716
▁96%	-12.7716
▁perifolliculair	-12.7716
▁igh	-12.7716
▁denud	-12.7716
▁poging	-12.7716
ikst	-12.7716
▁myeloma	-12.7716
▁intakt	-12.7716
▁beantwoord	-12.7716
▁groeten	-12.7716
▁fenotypering	-12.7716
▁teratoma	-12.7716
▁anderszins	-12.7716
19999	-12.7716
▁17-02-	-12.7716
▁sprietvormig	-12.7716
▁presacraal	-12.7716
48080	-12.7716
▁npm	-12.7716
▁lute	-12.7716
▁(2/16	-12.7716
phia	-12.7717
▁architectura	-12.7717
01.00	-12.7717
▁rontgenologisch	-12.7717
sonscore	-12.7717
96-5	-12.7717
▁bedragen	-12.7717
▁zijsneeranden	-12.7717
72004	-12.7717
▁28-02-1	-12.7717
▁17-12-12	-12.7717
▁vatlokalisatie	-12.7717
▁voetrand	-12.7717
▁vumc	-12.7717
▁mesosigmoid	-12.7717
▁doorbloed	-12.7718
▁langerhans	-12.7718
▁aangedaan	-12.7718
▁bcg	-12.7718
▁piek	-12.7718
lux	-12.7718
agisch	-12.7718
03-116	-12.7718
▁>10%	-12.7718
reef	-12.7718
steenlijden	-12.7718
▁salping	-12.7718
▁aub	-12.7718
▁delingen	-12.7718
88310	-12.7718
▁brokstuk	-12.7718
▁infilt	-12.7718
84503	-12.7719
▁sana	-12.7719
▁craniolateraal	-12.7719
▁gepro	-12.7719
▁darmringetje	-12.7719
▁28-12-12	-12.7719
somie	-12.7719
▁linkeradnex	-12.7719
▁reticular	-12.7719
▁vaatsnijvlakken	-12.7719
neurale	-12.7719
/07/2013	-12.7719
▁edu	-12.7719
▁11-12-1	-12.7719
▁06-07-201	-12.7719
▁littekenzone	-12.7719
▁02-08-01	-12.7719
36100	-12.7719
▁5/6	-12.772
00-26	-12.772
▁peritumorale	-12.772
▁flow	-12.772
▁2+3=5).	-12.772
▁voldoet	-12.772
▁cystadenoma	-12.772
▁nodulus	-12.772
▁buikspoelvocht	-12.772
▁uitstrijkjes	-12.772
zuur	-12.772
▁ileus	-12.772
75400	-12.7721
▁coecumbodem	-12.7721
buisvormend	-12.7721
▁coccen	-12.7721
▁vaatwand	-12.7721
▁verklevingen	-12.7721
▁leukemisch	-12.7721
▁neurocrien	-12.7721
▁metastastisch	-12.7721
▁spil	-12.7721
monster	-12.7722
▁zijsneevlakken	-12.7722
▁linkerhand	-12.7722
▁microcysteus	-12.7722
▁uchl	-12.7722
▁18-04-00	-12.7722
▁uwerzijds	-12.7723
erbaar	-12.7723
33110	-12.7723
▁05-12-	-12.7723
▁radius	-12.7723
▁keratocyste	-12.7723
▁hersenmetastase	-12.7723
▁present	-12.7723
76820	-12.7724
▁chondrotumor	-12.7724
▁botvorming	-12.7724
▁voorhuid	-12.7725
▁plasmablastair	-12.7725
▁gedu	-12.7725
▁heengroeiend	-12.7725
45810	-12.7725
55200	-12.7726
▁pyelumtumor	-12.7726
▁18-09-06	-12.7726
▁mesenteriol	-12.7726
▁ontkalkt	-12.7726
▁1998/*******/	-12.7727
▁metastasectomie	-12.7727
▁neusbodem	-12.7727
▁06-12-05	-12.7727
▁immunohistologi	-12.7727
06-0490	-12.7728
92-5	-12.7728
▁sind	-12.7728
▁1996/*******/	-12.7728
▁posttraumatisch	-12.7728
▁02-11-00	-12.7728
▁16-08-0	-12.7729
▁consequenties	-12.7729
▁diagnosis	-12.7729
▁hla	-12.7729
▁03-11-10	-12.7729
vervezeling	-12.7729
▁granulocytair	-12.7729
▁dagen	-12.7729
49300	-12.7729
▁opge	-12.773
▁15-07-09	-12.773
▁uvula	-12.773
▁dwarsdoorsnede	-12.773
lmp	-12.7731
▁margins	-12.7731
28077	-12.7731
▁cwz	-12.7732
▁zwakker	-12.7732
▁11-02-05	-12.7732
05-6	-12.7732
keling	-12.7733
▁05-01-11	-12.7733
▁xvii	-12.7733
welk	-12.7734
▁galblaaswand	-12.7734
▁rechterzijwand	-12.7735
▁rechterlong	-12.7735
▁duodenumwand	-12.7735
telen	-12.7735
▁linkerzijwand	-12.7735
▁transbronchia	-12.7735
▁breslowdiepte	-12.7736
aliteit	-12.7736
14020	-12.7736
>80%	-12.7737
▁placentaresten	-12.7737
▁adenocarci	-12.7737
▁daarvoor	-12.7737
08-347	-12.7737
▁buitenaf	-12.7737
▁papilla	-12.7738
▁24-12-12	-12.7738
▁30-07-	-12.7738
▁tumoruitloper	-12.774
cederende	-12.7741
▁veronderstell	-12.7741
▁beperken	-12.7741
▁opges	-12.7741
98-12	-12.7741
yometriumbreedte	-12.7742
▁rectumpoliep	-12.7742
▁portiobiopt	-12.7743
▁(0/1).^	-12.7743
▁leucocyto	-12.7743
▁tuberculose	-12.7744
enzymhistochemie	-12.7744
▁sateliethaard	-12.7744
▁parakerato	-12.7744
▁urologie	-12.7745
▁fla	-12.7745
41010	-12.7745
94-8	-12.7746
▁(2,2	-12.7747
▁gluten	-12.7747
▁cytostatisch	-12.7747
stenosering	-12.7747
▁+3)).	-12.7748
03-17	-12.7748
▁whippleresectie	-12.7748
?^^	-12.7748
▁overeenkomsten	-12.7749
▁14-04-	-12.7749
▁08-11-06	-12.7749
▁you	-12.775
23)	-12.775
▁neuswand	-12.775
868	-12.775
05-32	-12.7751
▁prog	-12.7751
▁carc	-12.7751
▁08-03-11	-12.7752
▁08-05-200	-12.7753
craniomediaal	-12.7753
cto	-12.7753
▁kiemcel	-12.7753
29720	-12.7754
6330	-12.7754
05.00	-12.7755
▁serosazijde	-12.7755
▁lepel	-12.7756
▁chromosom	-12.7756
▁ampullair	-12.7756
▁burkitt	-12.7756
▁correctie	-12.7756
▁eigenschappen	-12.7756
▁geexideerd	-12.7756
▁smith	-12.7756
▁spinocellulair	-12.7756
▁thyreoglobuline	-12.7756
▁enteritis	-12.7756
▁onrust	-12.7756
▁technisch	-12.7756
▁contour	-12.7756
▁medicatie	-12.7756
▁abces	-12.7756
8830	-12.7756
effen	-12.7756
▁cmmol	-12.7756
▁frequentie	-12.7756
▁ileocoecaalhoek	-12.7756
▁angulus	-12.7757
▁uretra	-12.7757
▁uteruswand	-12.7757
▁jß	-12.7757
▁leverhilus	-12.7757
▁resectiemarges	-12.7757
▁ewingsarcoom	-12.7758
▁glottisch	-12.7758
▁*******/22	-12.7758
▁vriesmateriaal	-12.7759
chondroom	-12.776
fibroepithelioom	-12.776
▁fibroompje	-12.776
▁linkerknie	-12.776
▁letselvrij	-12.776
▁aanzien	-12.7761
▁forme	-12.7761
95003	-12.7761
eczemateus	-12.7762
▁verschijnselen	-12.7762
06550	-12.7763
06-32	-12.7764
▁gema	-12.7764
▁1989)	-12.7764
▁half	-12.7765
▁merkelceltumor	-12.7766
▁ulnair	-12.7766
▁rechteroog	-12.7768
▁prox	-12.7769
lij	-12.7771
▁8,5	-12.7771
09-32	-12.7772
ow	-12.7772
▁voortzett	-12.7773
▁ulcusmateriaal	-12.7773
95-5	-12.7774
▁pancreastumor	-12.7774
▁bob	-12.7775
bronchoalveolair	-12.7775
▁1,5-2	-12.7775
▁lymfklierp	-12.7775
▁okseltopklieren	-12.7776
09-12	-12.7776
▁vesicul	-12.7777
▁shavebiopsie	-12.7778
▁atrofic	-12.7778
93-31	-12.778
▁rectumca	-12.7781
▁(0/1	-12.7782
07-06	-12.7783
▁21-02-01	-12.7783
04.0	-12.7784
▁1982	-12.7784
ka	-12.7785
▁12-07-06	-12.7786
97-24	-12.7787
▁turprostaat	-12.7788
▁rese	-12.7789
pk	-12.779
▁iliacabiopt	-12.779
05-18	-12.7791
81202	-12.7792
557	-12.7792
▁diversen	-12.7792
▁12-8	-12.7793
▁05-08-0	-12.7793
stb	-12.7793
mlo	-12.7795
▁diepreikende	-12.7796
(2)	-12.7796
▁endobronchia	-12.7797
▁dlb	-12.78
plaatse	-12.7801
faecale	-12.7802
▁35%	-12.7803
▁gna	-12.7804
sphenoidale	-12.7804
▁emfysemateu	-12.7806
▁kapselinvasie	-12.7806
▁naevusrest	-12.7806
▁longtumoren	-12.7807
▁09-08-0	-12.7807
▁loop	-12.7808
▁sigmoidbiopsie	-12.7808
▁talgklieren	-12.7809
▁musc	-12.781
?^	-12.7812
59100	-12.7812
0680	-12.7813
84/	-12.7815
▁linkeronderarm	-12.7816
▁artefact	-12.7818
▁transthoraca	-12.7818
▁rechterhandrug	-12.7819
▁15-08-	-12.7821
?).^^	-12.7822
daan	-12.7823
▁wervels	-12.7825
▁mucinose	-12.7826
4345	-12.7827
▁beschadigingen	-12.7828
▁uiteenvallend	-12.7828
▁super	-12.7828
▁instabiliteit	-12.7828
▁psap	-12.7828
▁menstrue	-12.7828
▁sleutelbeen	-12.7829
▁nierresectie	-12.783
▁00-2	-12.783
lisatie	-12.7832
driehoek	-12.7833
▁19-11-0	-12.7835
▁leverresectie	-12.7835
▁migra	-12.7837
crypthyperplasie	-12.7837
▁kiel	-12.7838
▁colonca	-12.7839
▁6/11	-12.7843
emie	-12.7843
-01-1995	-12.7845
▁itp	-12.7846
alcl	-12.7848
▁adenomatoid	-12.7849
11420	-12.7849
▁tubul	-12.7851
▁tepelzijde	-12.7855
47000	-12.7856
▁thrombose	-12.7856
▁borstwand	-12.7856
▁51	-12.7857
sacraal	-12.7858
-02-10/*******/	-12.7858
▁1013	-12.7859
▁slijmig	-12.7862
exondelen	-12.7863
▁sli	-12.7863
19-9	-12.7863
▁versn	-12.7864
▁dag	-12.7866
:050	-12.7867
iar	-12.7868
09-20	-12.7868
▁vormen	-12.787
▁excisierand	-12.7872
681	-12.7874
▁extratumora	-12.7874
itc	-12.7876
▁(4+4).	-12.7877
9866	-12.7877
5-03-99	-12.7881
anoma	-12.7883
▁3=	-12.7886
▁stromainvasie	-12.7888
/26	-12.7888
0,5	-12.7888
839.	-12.789
15000	-12.7892
▁30-11-12	-12.7895
09-35	-12.7897
▁zh	-12.7897
04-5	-12.7898
14-8	-12.7898
▁22-06-0	-12.79
▁eruptie	-12.7902
▁geperforeerde	-12.7903
▁morfea	-12.7904
baard	-12.7906
07-2	-12.7907
▁uitgroeiend	-12.7908
jh	-12.791
▁fibromatose	-12.791
▁tumorbodem	-12.7912
▁*******/2	-12.7913
▁tepelh	-12.7914
▁oment	-12.7915
-09-10/*******/	-12.7915
07-46	-12.7916
▁cervixepitheel	-12.7917
05-73	-12.792
poiese	-12.7921
▁2+3.	-12.7921
ryptabcesvorming	-12.7921
steund	-12.7925
00-54	-12.793
▁strek	-12.7932
▁horen	-12.7933
▁pink	-12.7934
▁360	-12.7943
ola	-12.7944
fuus	-12.7946
minst	-12.7947
80004	-12.7947
01-6	-12.7948
tu	-12.7951
335	-12.7952
▁hyp	-12.7952
mic	-12.7954
▁zeld	-12.7954
fer	-12.7955
▁kolven	-12.7955
▁mammabespreking	-12.7959
92100	-12.7959
▁propriaweefsel	-12.796
urotheelcel	-12.796
654	-12.7962
12-3	-12.7963
▁granulo	-12.7964
▁xv	-12.7966
▁techniek	-12.7967
▁androgeen	-12.7968
▁aa	-12.7969
-06-13/*******/	-12.7969
07-572	-12.7972
8130	-12.7972
splooi	-12.7973
idt	-12.7979
▁contaminatie	-12.798
▁irradical	-12.7982
▁immunoblastair	-12.7982
▁reresectie	-12.7983
ure	-12.7988
81010	-12.7988
2-11-11/*******/	-12.7989
659	-12.799
▁1996/	-12.7993
▁itc	-12.7997
▁code	-12.7997
273	-12.8003
▁gastroscopi	-12.8004
arterio	-12.8004
▁malig	-12.8006
▁+5	-12.8008
▁07-12-0	-12.8009
stitis	-12.801
▁dubbele	-12.8011
▁20-09-10	-12.8016
▁09-03-1	-12.802
sarcoma	-12.8027
3618	-12.8028
▁12-10-0	-12.8033
sectomie	-12.8033
neg	-12.804
3058	-12.8042
▁27-09-0	-12.8042
knop	-12.8043
sloten	-12.8044
7-09-12/*******/	-12.8051
▁richtingen	-12.8058
▁0,13	-12.8061
▁huidzijde	-12.8063
▁ogend	-12.8063
▁erom	-12.8064
atieve	-12.8065
▁dysplastic	-12.8067
▁hypocellulaire	-12.8067
7294	-12.8068
72100	-12.8069
-04-07/*******/	-12.8069
son	-12.807
dam	-12.8073
585	-12.8073
95/	-12.8073
▁naevuscomponent	-12.8077
/*******	-12.8079
:02-	-12.808
▁lymfoplasmacyt	-12.8081
!!)	-12.8082
-02.	-12.8084
07-19	-12.8085
08-12	-12.8085
vb	-12.8087
aadje	-12.8088
productie	-12.8089
▁alt	-12.8091
raat	-12.8091
ew	-12.8092
▁epitheelcel	-12.8093
783)	-12.8096
▁bodembiopt	-12.8097
▁01-12-0	-12.8099
742	-12.8099
▁07-09-0	-12.8101
▁rectaal	-12.8109
09-53	-12.8111
reas	-12.8118
▁25-08-	-12.8119
nodulaire	-12.812
▁ovarie	-12.8121
▁nietjes	-12.8134
6-08-10/*******/	-12.8136
olobulair	-12.8136
▁060	-12.8138
4709	-12.8138
99):	-12.8142
10-24	-12.8145
intranodaal	-12.8148
97-70	-12.8149
▁revisiebiopt	-12.815
proliferaties	-12.8153
▁elasto	-12.8154
??)	-12.8155
▁blaasbiopsie	-12.8163
▁huidbioptje	-12.8163
▁1/2	-12.817
▁tumorgebied	-12.8172
▁detecti	-12.8174
9-03-10/*******/	-12.8175
▁10-05-	-12.8175
ontsteking	-12.8178
22).	-12.8178
▁verdikt	-12.8179
7-11-09/*******/	-12.8183
▁03-05-13	-12.8184
▁lymphkliertje	-12.8189
▁aller	-12.819
▁menen	-12.8192
san	-12.8193
▁03-	-12.8194
12-12	-12.8202
4,5	-12.8202
sneden	-12.8213
71.	-12.8213
▁4+5=9)	-12.8215
433	-12.8221
▁dis	-12.8221
orp	-12.8227
ros	-12.8227
orbitaal	-12.8233
tra	-12.8247
▁4+3.	-12.8249
duid	-12.825
▁21-04-0	-12.8251
998	-12.8251
▁01-08-0	-12.8253
lla	-12.8254
▁iiia	-12.8255
▁15-	-12.8255
tief	-12.8256
carcinoomhaardje	-12.8265
biliair	-12.8269
eter	-12.8284
▁bucca	-12.8285
▁signa	-12.8295
▁14-05-	-12.8299
caal	-12.8318
omateus	-12.832
78)	-12.8321
81/2	-12.8326
12-83	-12.8336
vul	-12.8337
▁microinvasie	-12.8341
▁lymfoplasmocyto	-12.8344
▁antr	-12.8354
aangezi	-12.8359
enpanel	-12.8361
epithelien	-12.8364
oss	-12.838
reed	-12.838
tibiaal	-12.8384
▁stag	-12.8385
3-04-09/*******/	-12.8392
▁pari	-12.8394
▁littekenachtig	-12.8397
2-4	-12.8399
▁29-08-	-12.84
-04-1997	-12.8401
orde	-12.8402
▁18-11-	-12.8402
75).	-12.8407
22300	-12.8408
688	-12.8417
▁ka	-12.8436
▁col	-12.8439
▁10-10-	-12.8441
07-22	-12.8441
org	-12.8444
▁16,	-12.8448
1255)	-12.8448
9-01-09/*******/	-12.8448
7-12-07/*******/	-12.8451
651	-12.8453
▁formatie	-12.8456
▁minipoliep	-12.8457
▁2+3).	-12.8458
473	-12.8458
379	-12.8458
iib	-12.846
rie	-12.8467
iloculair	-12.847
▁05-11-0	-12.847
▁epigastri	-12.847
his	-12.8471
▁diffu	-12.8472
▁3+4=7).	-12.8473
▁(3+4).	-12.8476
3426	-12.848
ning	-12.8481
aematopathologie	-12.8483
1-08-09	-12.8488
:01-0	-12.8505
▁1.3	-12.8517
849	-12.8521
ru	-12.8528
690)	-12.8534
934	-12.8537
ogene	-12.8546
172)	-12.8549
▁weefselexcisie	-12.8555
▁sal	-12.8555
▁exoge	-12.8558
bben	-12.8562
▁bezi	-12.8563
06-08	-12.857
▁(1/2	-12.8572
28).	-12.8599
mie	-12.8606
aag	-12.8617
▁genoeg	-12.8623
1992	-12.8623
43:	-12.8628
6700	-12.8632
678	-12.8642
enen	-12.8643
metastatische	-12.8643
8560	-12.8644
225.	-12.8651
▁pla	-12.867
-08-2006:	-12.8672
▁vermeldt	-12.8678
gn	-12.8681
▁06-11-0	-12.8685
▁venetak	-12.8685
▁05-08-	-12.8692
10-82	-12.8693
▁02-06-	-12.8697
▁pnx	-12.8697
/27	-12.8698
▁31-07-0	-12.8698
▁med	-12.8699
761	-12.8703
▁za	-12.8707
pecimenmammogram	-12.8713
06-8	-12.872
▁peripelvi	-12.8725
▁080	-12.8726
-01-07/*******/	-12.8727
oeg	-12.873
kg	-12.8736
ur	-12.8739
01-23	-12.8745
graf	-12.8746
poliepen	-12.8765
▁naso	-12.8766
▁(19	-12.8768
▁intr	-12.877
94,	-12.8778
13-3	-12.8786
endometroidtype	-12.8788
▁neurona	-12.8792
▁24-03-	-12.8798
▁flegmon	-12.8798
rim	-12.8804
▁infiltrat	-12.881
▁onderkwabs	-12.8812
▁06	-12.8815
▁fluorescentie	-12.8817
022	-12.8821
▁irradi	-12.8824
/10).	-12.8833
536	-12.8854
so	-12.8863
▁20-05-	-12.8866
brisk	-12.8875
103	-12.8877
▁20%)	-12.8886
▁mons	-12.8893
centra	-12.8897
▁pou	-12.8906
340	-12.8909
09-15	-12.8917
▁02-04-	-12.8933
aspiratie	-12.8948
blaaswandbiopten	-12.8949
▁18-02-200	-12.8951
908	-12.8954
▁bl	-12.8955
-08-1997	-12.8963
▁stab	-12.8967
07/*******/	-12.897
▁7,6	-12.8984
▁09-10-	-12.8986
421	-12.9
sel	-12.9002
-12-10/*******/	-12.9009
▁66	-12.9013
satellietlaesies	-12.9016
03-2	-12.9025
docervixepitheel	-12.9029
our	-12.9042
/6).	-12.9043
▁ru	-12.9043
+3).	-12.9046
):^^	-12.9046
ina	-12.9052
▁ui	-12.9058
3088	-12.9059
%)	-12.9081
minatie	-12.91
▁inge	-12.9104
08-31	-12.9106
▁lymfomato	-12.9129
04-10	-12.9131
myel	-12.9133
▁08-07-10/	-12.9134
▁clarke	-12.9135
▁ptn	-12.9139
123	-12.914
▁lie	-12.9148
wi	-12.9149
▁06-06-	-12.9149
mei	-12.9153
▁coagulatievlak	-12.9162
▁45,	-12.9162
630	-12.9173
▁gang	-12.9178
-01-09/*******/	-12.9179
▁gloss	-12.9183
^(	-12.9187
/8	-12.9188
▁reumato	-12.9189
03-6	-12.9189
-12-11/	-12.9193
▁2005)	-12.9214
plasmacytair	-12.9215
out	-12.9217
▁stam	-12.922
78).	-12.9227
00-2	-12.9228
ktiepreparaat	-12.9229
ymfangiectasieen	-12.923
▁16-08-07	-12.9232
▁02-10-	-12.9233
01:	-12.9241
▁patch	-12.9247
▁22-05-0	-12.9252
-01-2007	-12.9252
samputatie	-12.9255
celreaktie	-12.9285
▁24-08-	-12.9303
▁15-12-0	-12.9305
▁radioactie	-12.9313
un	-12.932
rine	-12.9328
▁61	-12.933
rad	-12.9339
▁peroperatie	-12.9352
93,	-12.9359
▁iib	-12.9364
98-22	-12.9369
▁anderzi	-12.938
▁28-04-	-12.9391
▁(50	-12.9398
206	-12.94
voorlopige	-12.9405
▁22-12-0	-12.9412
66)	-12.9416
glu	-12.9421
ft	-12.9421
721	-12.9423
▁cardiacarcinoom	-12.9427
93-	-12.9432
541	-12.9439
▁patienten	-12.9443
id	-12.9443
ole	-12.9446
pale	-12.9448
▁14-01-1	-12.947
pilaire	-12.9473
093	-12.9473
rechterbovenbeen	-12.9482
1,6	-12.9489
▁07-04-0	-12.9495
910	-12.9499
12/	-12.9514
07-18	-12.9518
▁lh	-12.9527
-12-2012	-12.953
ls	-12.9545
▁36.	-12.9548
▁ag	-12.955
02-71	-12.955
▁05	-12.9557
▁centr	-12.9558
5930	-12.9559
4416	-12.956
92.	-12.9563
-10-08/*******/	-12.9601
-01-05	-12.9607
8213	-12.9612
014	-12.9616
▁4+3	-12.963
ctomie	-12.9649
▁basaalcelcarci	-12.9667
93).	-12.9669
991	-12.9673
2-90	-12.9675
-06-08/*******/	-12.9685
211	-12.9686
▁*******.^^	-12.9701
▁29-06-11	-12.9705
▁30-03-0	-12.9714
-79	-12.9721
344	-12.9725
145	-12.9733
galgangcarcinoom	-12.9748
nis	-12.9748
852	-12.9752
▁lympho	-12.9772
7%	-12.9772
-11-09/*******/	-12.9776
▁12-07-	-12.9781
▁echo	-12.9802
06-56	-12.9809
471	-12.982
▁mul	-12.9825
eratiepreparaat	-12.9849
10-23	-12.9849
pjes	-12.9859
metatypisch	-12.9878
▁105	-12.9879
-03-10/*******/	-12.9913
▁03-08-1	-12.9919
▁02-09-0	-12.9925
▁18-01-	-12.9932
▁02-09-	-12.9935
ber	-12.9943
componenten	-12.9954
▁21-10-20	-12.9971
▁mucinos	-12.9971
▁str	-12.9978
▁90%.	-13.0019
▁conclusi	-13.0025
2,5	-13.0029
operatief	-13.0029
▁radiodiagnost	-13.0039
.*	-13.0041
69	-13.0062
14-2	-13.0068
antrumtype	-13.0079
ga	-13.0087
6,8	-13.0096
▁17-10-0	-13.0101
sreuscel	-13.0102
▁50%.	-13.0105
4950	-13.0119
5-05-07	-13.0123
▁310	-13.0127
logram	-13.0128
01440	-13.0133
mumc	-13.0133
▁resec	-13.0146
sg	-13.0163
uiteinden	-13.0165
:072	-13.0173
▁13-12-	-13.018
ekend	-13.0186
▁chrom	-13.0192
aagcorpusbiopsie	-13.0193
92):	-13.0199
stuk	-13.0209
091	-13.0214
▁13-12-0	-13.0223
cus	-13.0228
318	-13.0232
▁lamelle	-13.0251
-12-2010	-13.026
97-7	-13.0264
-08-12/*******/	-13.0268
arg	-13.0269
184	-13.027
08-3	-13.0276
vindt	-13.0284
▁iiib	-13.0288
8890	-13.0291
2001	-13.0307
ph	-13.0309
94-	-13.0329
▁27-07-09	-13.0334
ping	-13.0335
2).^	-13.0338
5223	-13.0346
0,28	-13.0353
▁11-08-	-13.0362
▁okseltopvet	-13.037
▁23-10-	-13.0371
▁6.5	-13.0376
▁atypieen	-13.0386
966	-13.0396
▁29-11-10	-13.0402
laasendoresectie	-13.0404
▁verkle	-13.0405
08)	-13.041
09-03	-13.0417
778	-13.0418
▁borstklier	-13.0418
▁papill	-13.042
393	-13.0426
700	-13.043
▁24-09-	-13.0435
:09	-13.0438
837	-13.0449
▁11-2	-13.0469
huis	-13.048
▁gek	-13.0484
02-25	-13.0487
cardi	-13.0492
▁poliepexcisie	-13.0497
5300	-13.0526
ap	-13.0528
▁27-03-	-13.0534
1988	-13.0538
2-3)	-13.0546
strek	-13.0549
▁15-12-	-13.0557
10-31	-13.0563
cortica	-13.0563
endo	-13.0566
▁24-06-	-13.0567
02-	-13.0578
282	-13.0579
tpo	-13.0589
179	-13.0589
872	-13.0592
-2)	-13.0595
▁omsp	-13.0595
▁14-05-9	-13.0597
ppen	-13.0609
▁verr	-13.0611
▁06-08-	-13.0613
▁05-02-	-13.0615
▁23-11-	-13.0631
▁07-04-	-13.0631
▁(4/	-13.0636
0/10)	-13.0642
mg	-13.066
7422	-13.0669
▁microcyste	-13.069
373	-13.0721
▁mammaexcisie	-13.0737
*******/30	-13.0748
ontstekings	-13.0757
487	-13.0773
922	-13.0777
itus	-13.0779
▁(12/	-13.078
raf	-13.0781
1/7	-13.0787
13-0	-13.079
olipi	-13.0791
-04-2006:	-13.0826
4026	-13.0834
453	-13.0847
immuunhistochemi	-13.0851
noma	-13.0864
ai	-13.0865
690	-13.0879
90-1	-13.0889
▁07-10-	-13.0902
▁satellietlaesie	-13.0908
theliale	-13.0919
nale	-13.0926
punkt	-13.0943
ducten	-13.0952
751	-13.0953
03-18	-13.0954
▁25-11-	-13.0962
03-12	-13.0972
▁infiltrati	-13.0998
▁cellig	-13.1028
▁nestvormi	-13.1033
▁30-05-	-13.1034
▁90.	-13.1038
461	-13.1039
771	-13.1053
97-	-13.1061
lokatie	-13.1063
188	-13.107
209	-13.107
▁26-03-	-13.1076
09-1	-13.109
-06-96	-13.109
1199	-13.1099
▁sessie	-13.1115
ntieerd	-13.1127
monding	-13.1128
▁30-09-1	-13.1138
7600	-13.1139
my	-13.114
determin	-13.1141
▁germ	-13.1143
97).	-13.1157
-2).	-13.1157
05-008	-13.1161
▁27-12-	-13.1165
ui	-13.1168
commissie	-13.1169
▁path	-13.1181
▁12-09-	-13.1184
▁05-08-9	-13.1185
▁niercarcinoom	-13.1197
segmentectomie	-13.1208
▁22-07-200	-13.1232
8290	-13.1233
▁07-02-	-13.1234
-10-2011	-13.1237
bio	-13.1239
eind	-13.1245
ere	-13.1245
▁01-10-	-13.1247
▁03-12-	-13.1248
ief	-13.1251
17).	-13.1254
ochemisch	-13.1255
▁pyelo	-13.1258
▁9).	-13.126
▁uitgebreider	-13.1265
mammogram	-13.1267
▁tumorinvasie	-13.1271
▁20-01-	-13.1278
792	-13.1286
795	-13.1291
▁27-04-	-13.1297
06-11-06	-13.1304
2-06-04	-13.1309
gi	-13.1311
174	-13.1315
06:	-13.1318
35).	-13.132
▁02-05-	-13.1321
gebieden	-13.1321
692	-13.1328
▁14-11-	-13.1334
▁25-10-07	-13.1336
eenmaal	-13.1348
▁pati	-13.1358
coll	-13.1367
5%.	-13.137
-07-12/*******/	-13.137
▁17-	-13.1373
▁19-11-	-13.1373
ositis	-13.1379
des	-13.1386
▁carci	-13.1392
▁urineblaasbiopt	-13.1392
17)	-13.1404
▁06-12-	-13.141
achtig	-13.1417
10-01	-13.1417
▁geh	-13.1418
▁besl	-13.1433
lu	-13.1434
np	-13.1436
950	-13.1439
llige	-13.1444
ult	-13.1477
con	-13.1482
▁huidbiopsies	-13.149
▁30-01-	-13.1501
▁cauda	-13.1508
▁ben	-13.1521
▁hepat	-13.1523
sb	-13.1528
lips	-13.1529
jl	-13.1544
24.	-13.155
07-25	-13.1558
▁volst	-13.1567
iet	-13.1582
5-	-13.1591
einde	-13.1594
296	-13.1596
▁19-05-	-13.1599
28,	-13.1606
1999)	-13.1607
▁bar	-13.1607
▁01-04-	-13.1611
225	-13.1612
99-14	-13.1613
07-4	-13.1615
164	-13.162
8/*******/	-13.1624
▁25-07-	-13.1625
▁hepato	-13.1627
▁thrombo	-13.1634
tegen	-13.1643
epithelioma	-13.1659
▁15-02-	-13.166
laire	-13.166
▁30-12-	-13.1666
050	-13.1672
▁21-12-	-13.1673
-02-06	-13.1678
▁26-06-	-13.1684
11-17	-13.1694
▁active	-13.1698
▁02-12-0	-13.17
0%	-13.1705
▁interstiti	-13.1708
6521	-13.1714
▁25-06-	-13.1724
0141	-13.1744
06)	-13.1745
▁tonsilbiopt	-13.1752
16).	-13.1756
haardje	-13.1756
08-40	-13.1758
▁membraneu	-13.1765
▁26-09-08/	-13.1776
-12-1991	-13.1787
19,	-13.1789
▁09-11-	-13.179
02-8	-13.179
sitis	-13.1808
▁(40	-13.1809
ver	-13.1816
▁sign	-13.1824
-10%	-13.1832
▁17-03-	-13.1833
gp	-13.1836
326	-13.1836
▁17-01-	-13.1838
art	-13.1842
715	-13.1846
-03-12/*******/	-13.1852
▁asp	-13.1864
▁myoma	-13.1875
▁07-09-	-13.1876
▁hersenbiopsie	-13.1883
ha	-13.1895
▁12-05-	-13.1899
-05-13/	-13.19
-11-2011	-13.1901
05-4	-13.1902
189	-13.1904
2),	-13.1907
beenmergbiopt	-13.1911
▁12-01-11	-13.1911
▁elast	-13.1916
▁chondroblast	-13.1916
9050	-13.1931
-01-2010	-13.1931
:090	-13.1932
▁cir	-13.1933
25).	-13.1947
urotheel	-13.1956
▁18-09-	-13.1963
295	-13.1966
▁ventro	-13.1973
904	-13.199
-02-00/	-13.2002
▁bioptje	-13.2002
12-15	-13.2007
waarde	-13.2008
04-4	-13.2008
reus	-13.2018
▁20-08-	-13.202
-09-10/	-13.2045
05-09-	-13.205
septa	-13.2052
▁bronch	-13.2061
lijmvliesbioptje	-13.2063
▁complex	-13.2069
▁28-12-0	-13.2069
▁(0/5)	-13.207
▁03-10-	-13.2074
▁14-02-	-13.2075
▁(>2	-13.2076
81)	-13.2076
953	-13.2078
ï	-13.2081
doende	-13.2087
▁29-01-	-13.2088
4%)	-13.2088
▁28-01-0	-13.2091
▁31-01-0	-13.2093
▁02-07-0	-13.2099
▁moei	-13.2104
ikt	-13.2105
▁ulceraties	-13.2106
▁(1/1)	-13.212
centr	-13.2127
▁pancreatic	-13.213
07-27	-13.2132
▁21-05-	-13.2136
ation	-13.2137
90000	-13.2143
angioinvasie	-13.2144
▁prominent	-13.2144
▁12-03-	-13.2155
ogeen	-13.2157
spierweefsel	-13.2158
▁01-05-0	-13.2162
5/11	-13.2164
04-06	-13.2171
▁psammoma	-13.2176
▁verschillen	-13.2181
239	-13.2182
cavaal	-13.2183
03-04	-13.2184
▁08-01-	-13.2188
▁tumorbiopt	-13.2198
tica	-13.2198
rst	-13.2207
llen	-13.2207
▁herni	-13.2208
00-5	-13.2209
337	-13.2211
room	-13.2212
lyse	-13.2212
581	-13.2212
uc	-13.2216
913	-13.2219
796	-13.2222
2020	-13.2227
▁17-06-	-13.2227
243	-13.2228
▁involv	-13.2228
▁omtr	-13.2231
▁09-03-	-13.2235
▁13-07-	-13.2239
arteri	-13.2242
361	-13.2243
mar	-13.2244
▁15-01-	-13.2245
▁doe	-13.2246
▁*******/3	-13.2251
▁10-11-	-13.2259
gestuurd	-13.2265
01-05	-13.2268
akken	-13.2269
▁30-10-0	-13.2274
▁(3+)	-13.2274
opt	-13.2276
cerb	-13.2278
▁170	-13.2282
endocrin	-13.2282
▁consist	-13.2285
▁06-05-0	-13.2285
▁27-08-	-13.2285
▁15-10-	-13.2287
▁31-01-	-13.229
▁09-01-	-13.229
sten	-13.2291
587	-13.2296
lisexcisie	-13.2299
ifu	-13.23
▁lymkflier	-13.2301
zame	-13.2303
dag	-13.2304
925	-13.2307
▁05-01-	-13.2308
ijn	-13.2309
pla	-13.2309
▁botmetastase	-13.231
573	-13.2312
recht	-13.2314
▁uiting	-13.2315
matische	-13.2319
ling	-13.2323
▁13-03-0	-13.2326
illen	-13.2329
gastrica	-13.233
lang	-13.233
acht	-13.2332
edi	-13.2334
littekenformatie	-13.2347
▁24-10-	-13.2354
vesicula	-13.2361
uitgebreid	-13.2363
▁darmsnijvlak	-13.2366
knobbel	-13.2367
adenomatoid	-13.2368
▁immunohis	-13.2369
▁22-02-13	-13.237
iculair	-13.2375
▁gro	-13.2377
▁2,9	-13.2379
wd	-13.2381
▁bronchio	-13.2382
-2010)	-13.2382
blaashals	-13.2386
okt	-13.2386
weg	-13.2386
24)	-13.2387
sluiten	-13.239
06-28	-13.2392
▁11-08-0	-13.2394
6201	-13.2396
▁maagcorpusbiopt	-13.2401
-09-12/	-13.2401
▁actin	-13.2403
▁bacteri	-13.2415
438	-13.2416
71)	-13.2419
▁02-02-200	-13.2421
▁-0,	-13.2424
geassocieerd	-13.2426
▁09-04-	-13.2427
idc	-13.2427
▁hairy	-13.2427
▁uretersneevlak	-13.2428
▁intranoda	-13.2429
▁25-03-	-13.243
▁21-06-	-13.243
ilt	-13.2431
73.	-13.2432
clitor	-13.2432
▁05-07-	-13.2433
streng	-13.2433
tuba	-13.2436
▁oph	-13.2436
90%)	-13.244
:06	-13.2441
▁hemithyreo	-13.2442
ezet	-13.2445
▁zw	-13.2447
07-11-	-13.2448
kliertoilet	-13.2449
▁75%	-13.2449
▁07-05-	-13.2456
tase	-13.2458
ant	-13.2459
-08-10/*******/	-13.246
ps	-13.246
▁04-10-	-13.2461
765	-13.2464
91-3	-13.2467
▁pancreat	-13.2471
▁04-05-0	-13.2471
-02-1997	-13.2474
halsklier	-13.2476
npanel	-13.2476
16-05-	-13.2477
▁intraepiderma	-13.2478
405	-13.2478
metastatisch	-13.2479
▁07-08-0	-13.2479
lok	-13.2481
▁+2)	-13.2482
axillaris	-13.2484
14-08-	-13.2485
▁hepatico	-13.2487
zaam	-13.2487
sac	-13.2487
▁bcell	-13.2488
▁cervixlis	-13.2489
08-2	-13.2492
acanthoma	-13.2493
richtlijn	-13.2494
verb	-13.2495
▁11-07-	-13.2498
tki	-13.2498
▁(90%	-13.2498
16-08-	-13.2501
capillaire	-13.2505
▁23-07-	-13.2505
▁immunochemi	-13.251
anterieur	-13.251
keratinis	-13.251
breedte	-13.251
intrekking	-13.2511
hyalin	-13.2511
retentiecyste	-13.2511
klatskin	-13.2511
methode	-13.2511
druppel	-13.2511
infestatie	-13.2511
solutio	-13.2511
wijziging	-13.2511
patella	-13.2511
embolus	-13.2511
gruis	-13.2512
▁verwij	-13.2512
muller	-13.2513
uitloper	-13.2513
▁curett	-13.2513
villus	-13.2513
1150	-13.2514
assistent	-13.2514
▁(3+	-13.2514
ellips	-13.2514
▁si	-13.2515
584	-13.2515
wond	-13.2516
1996.	-13.2516
folliculitis	-13.2517
colloid	-13.2517
17-03-98	-13.2518
specific	-13.2518
644	-13.2519
adenitis	-13.2519
artefact	-13.252
schildklier	-13.2522
ciforme	-13.2522
:28-	-13.2526
-06-07/*******/	-13.2526
813	-13.2526
bronchusbiopten	-13.2526
cellige	-13.2526
▁arti	-13.2527
bcl	-13.2528
thrombose	-13.253
sleutelbeen	-13.253
menstrue	-13.253
abces	-13.253
instabiliteit	-13.2531
partij	-13.2531
tepelzijde	-13.2532
dysplastische	-13.2532
geb	-13.2532
99-4	-13.2532
stomp	-13.2533
skelet	-13.2533
1998	-13.2533
typisch	-13.2534
bloeding	-13.2535
divertikel	-13.2536
borstwand	-13.2537
▁(100%	-13.2537
actine	-13.2538
screening	-13.2539
verhouding	-13.2539
sigmoïd	-13.2539
palliatie	-13.2539
structure	-13.2539
196	-13.254
nivo	-13.254
▁coup	-13.254
cluster	-13.2541
▁peptisch	-13.2541
lymphklier	-13.2541
ruimten	-13.2542
antrumbiopten	-13.2543
fasciezijde	-13.2543
keloid	-13.2543
vaatjes	-13.2544
▁exper	-13.2544
bovenkaak	-13.2544
membraan	-13.2544
bacterie	-13.2546
thoraca	-13.2546
lymphoom	-13.2546
glans	-13.2546
pneumonie	-13.2546
ooglid	-13.2547
maxilla	-13.2547
reuscellen	-13.2548
zenuw	-13.2548
lipoma	-13.2548
strukturen	-13.2549
reserve	-13.2549
sampling	-13.2549
raeb	-13.2549
stations	-13.2549
papilloma	-13.2549
low	-13.2549
tibia	-13.2549
structuur	-13.255
tubulo	-13.255
jukbeen	-13.255
cytogenetisch	-13.255
immunocytoom	-13.255
eosinofiel	-13.255
ruptuur	-13.255
cornea	-13.255
endometri	-13.255
fibr	-13.255
behandeling	-13.2551
uiteinde	-13.2551
cycline	-13.2551
evaluatie	-13.2551
beoordeeld	-13.2551
gemengdcellig	-13.2551
celgroepen	-13.2552
hoofdcarina	-13.2552
klassificatie	-13.2552
sarcomatoid	-13.2552
spitzoid	-13.2552
bestraald	-13.2552
mooi	-13.2552
stambronchus	-13.2552
virus	-13.2552
vinger	-13.2552
medullair	-13.2553
nasopharynx	-13.2553
blue	-13.2553
eiwit	-13.2553
corpusbiopten	-13.2553
gingiva	-13.2553
jejunum	-13.2554
aantasting	-13.2554
acinair	-13.2554
diafragma	-13.2554
anaemie	-13.2554
fundus	-13.2554
defect	-13.2554
marsh	-13.2554
embryonaal	-13.2554
achterhoofd	-13.2554
astrocytoma	-13.2554
peritoneum	-13.2554
vitaal	-13.2555
abdomen	-13.2555
hormona	-13.2555
zwart	-13.2555
submandibulair	-13.2555
codon	-13.2555
buizen	-13.2555
infiltraten	-13.2555
posterieur	-13.2555
opbouw	-13.2555
elston	-13.2555
lymfomen	-13.2555
debulking	-13.2555
resultaat	-13.2555
incisiebiopsie	-13.2555
contact	-13.2555
presternaal	-13.2556
blijven	-13.2556
transuretra	-13.2556
lymfkliertje	-13.2556
okseltoilet	-13.2556
submucosaal	-13.2556
neoplasie	-13.2556
prae	-13.2556
groot	-13.2556
endometriosis	-13.2556
nodularis	-13.2557
diverticulitis	-13.2557
corpusbiopt	-13.2557
blaasbodem	-13.2557
myxoid	-13.2557
retroauriculair	-13.2557
doorbraak	-13.2557
oorrand	-13.2557
blastair	-13.2557
borderline	-13.2557
gereviseerd	-13.2557
direct	-13.2558
anastomose	-13.2558
elastose	-13.2558
whipple	-13.2558
onderkwadrant	-13.2558
mesenterium	-13.2558
konklusie	-13.2558
eczeem	-13.2558
macroscopisch	-13.2558
endometroid	-13.2558
nasolabiaal	-13.2558
geisoleerd	-13.2558
mediastinum	-13.2558
representatief	-13.2558
geschat	-13.2558
transurethra	-13.2558
klassiek	-13.2558
grensvlak	-13.2559
amplificatie	-13.2559
intestinaal	-13.2559
lobectomie	-13.2559
obturatorius	-13.2559
onderpool	-13.2559
0,2	-13.2559
slokdarm	-13.2559
laatste	-13.2559
metaplastisch	-13.2559
immunologisch	-13.2559
barrett	-13.2559
heldercellig	-13.2559
minimaal	-13.2559
dubieus	-13.2559
gevolg	-13.2559
stemband	-13.2559
138	-13.256
carci	-13.256
archief	-13.256
dermis	-13.256
overtuigende	-13.256
kapseldoorbraak	-13.256
keratose	-13.256
aspect	-13.256
bericht	-13.256
actinisch	-13.256
muscularis	-13.256
bevatten	-13.256
medisch	-13.256
hyperplastisch	-13.256
maagwand	-13.2561
buitenoppervlak	-13.2561
schildwacht	-13.2561
groeipatroon	-13.2561
hierover	-13.2561
hl	-13.2563
hilus	-13.2563
macro	-13.2563
oorlel	-13.2564
rechterbovenarm	-13.2564
tumorvrije	-13.2564
aankleuring	-13.2565
▁09-08-	-13.2565
▁brun	-13.2565
gaan	-13.2565
gist	-13.2566
waarbij	-13.2566
rati	-13.2567
waren	-13.2567
lymphklieren	-13.2568
▁sphenoid	-13.2568
testis	-13.2569
-06-07/	-13.2569
hoogste	-13.2569
bare	-13.257
partijen	-13.257
''	-13.257
plastisch	-13.2571
zeker	-13.2571
03-4	-13.2571
nhl	-13.2571
deletie	-13.2571
▁08-05-0	-13.2572
▁faec	-13.2572
aneuploid	-13.2572
meest	-13.2574
super	-13.2574
psa	-13.2575
voorwand	-13.2575
malt	-13.2575
049	-13.2577
▁18-08-200	-13.2577
dieper	-13.2577
kan	-13.2578
du	-13.2578
▁(10%	-13.2578
apart	-13.2579
3-55	-13.258
local	-13.2582
lcis	-13.2582
ink	-13.2582
10-15	-13.2583
oppervlakte	-13.2583
digit	-13.2585
02-03-	-13.2585
rib	-13.2585
▁dundarm	-13.2585
wit	-13.2587
4/5	-13.2587
mogelijkheid	-13.2588
▁hypofys	-13.2589
▁20-02-	-13.2589
▁diepreikend	-13.2589
▁pijp	-13.259
voorts	-13.2591
ocu	-13.2592
hoeveel	-13.2593
atrofie	-13.2594
▁23-01-	-13.2594
▁represent	-13.2594
duodenumbiopten	-13.2595
997):	-13.2595
▁lichenoid	-13.2598
zender	-13.2598
▁macroscopi	-13.2599
▁25-06-0	-13.26
tov	-13.26
ptis	-13.2601
11-1	-13.2601
1101	-13.2601
356	-13.2602
▁mucosabiopt	-13.2602
▁overheers	-13.2603
▁granulerend	-13.2603
wezen	-13.2603
schatting	-13.2606
▁berust	-13.2606
▁kerat	-13.261
▁05-01	-13.261
04-03-	-13.2613
randen	-13.2616
▁dermatolo	-13.2617
huids	-13.2618
lage	-13.2619
▁invasi	-13.2619
erwij	-13.2619
▁17-08-	-13.2619
▁03-03-	-13.2619
zetting	-13.2621
cervixbiopten	-13.2621
▁embolie	-13.2623
reeds	-13.2625
▁21-02-0	-13.2625
▁cla	-13.2625
07-120	-13.2627
10-19	-13.2627
zijdig	-13.2627
05-3	-13.2627
▁volg	-13.2628
(3)	-13.2629
▁slijmnap	-13.263
▁06-10-	-13.2631
▁bresl	-13.2632
blaasbiopt	-13.2633
▁15-06-	-13.2635
gelijkend	-13.2636
differentieerd	-13.2637
01-11	-13.2637
▁inzenden	-13.2637
ductulo	-13.2638
jon	-13.2639
ijken	-13.2639
▁ethmoidresectie	-13.2639
oblast	-13.2639
maagslijmvlies	-13.2639
▁25-05-	-13.264
normal	-13.2641
10-4	-13.2641
▁22-02-	-13.2641
▁diffus	-13.2643
bac	-13.2643
plastische	-13.2643
▁uitbreiden	-13.2643
▁(50%	-13.2645
▁gladspier	-13.2645
behouden	-13.2646
-08-1996	-13.2647
▁(14	-13.2647
carc	-13.265
▁30-11-0	-13.2653
blok	-13.2653
-02-07/	-13.2654
▁sateliet	-13.2655
▁classificer	-13.2658
▁infiltreren	-13.2658
rectumbiopten	-13.2659
arci	-13.266
10-04	-13.266
▁glute	-13.2661
529	-13.2662
▁sarcom	-13.2663
-06-2007	-13.2663
▁telef	-13.2665
▁patholog	-13.2665
▁superfici	-13.2668
oesophageaal	-13.2668
▁10-09-0	-13.2668
ient	-13.267
receptorstatus	-13.2671
ota	-13.2671
▁21-08-	-13.2676
01-13	-13.2676
03-10	-13.2676
oraal	-13.2677
▁specific	-13.2677
▁tuberculo	-13.2678
▁spectr	-13.2679
▁rechteroksel	-13.2679
▁toeval	-13.2679
plakie	-13.268
▁22-03-1	-13.268
▁regel	-13.2681
694	-13.2681
03.0	-13.2681
▁plavei	-13.2681
ontrole	-13.2682
▁schimmelinfect	-13.2682
▁24-05-13	-13.2684
gelegd	-13.2684
▁seborrho	-13.2685
▁18-03-	-13.2685
▁retentie	-13.2686
▁01-09-0	-13.2687
uctaal	-13.2688
▁betr	-13.2688
08-11	-13.2688
iment	-13.2688
▁follik	-13.2688
derma	-13.2689
▁rijping	-13.2689
05-05	-13.269
ssend	-13.269
▁consequentie	-13.269
▁diagnosi	-13.269
schrijven	-13.2692
▁vezel	-13.2693
▁zaadblaasje	-13.2693
▁glia	-13.2693
▁huidstan	-13.2693
▁<1	-13.2694
▁adenocarc	-13.2694
atio	-13.2694
▁transversu	-13.2695
▁rust	-13.2696
▁tracheobronch	-13.2697
^(*******)	-13.2698
▁papillomato	-13.2698
▁huidpunt	-13.2699
▁infiltrer	-13.2699
02-10	-13.27
▁intracysteu	-13.27
illia	-13.27
adering	-13.27
▁jugul	-13.2701
▁18-04-0	-13.2701
▁luid	-13.2701
▁parasiet	-13.2702
▁vergroeiing	-13.2702
februar	-13.2702
▁but	-13.2702
08-03	-13.2702
▁verkleving	-13.2703
▁vliez	-13.2703
gevoerd	-13.2703
08-95	-13.2704
▁geneesmiddel	-13.2704
13-7	-13.2704
▁leuko	-13.2705
▁spiercel	-13.2705
29.	-13.2706
▁29-06-0	-13.2706
▁22-04-	-13.2706
ladder	-13.2706
▁candid	-13.2707
1-48	-13.2707
▁21-01-0	-13.2707
▁myocard	-13.2707
karakteris	-13.2708
▁definitie	-13.2708
3072	-13.2708
itional	-13.2708
▁panr	-13.2708
vesical	-13.2709
▁bevesti	-13.2709
▁crust	-13.2709
ieke	-13.271
braak	-13.271
▁15-12-200	-13.271
▁hypertro	-13.271
08-06	-13.271
-04-08/	-13.2711
wisseld	-13.2712
latero	-13.2712
▁meniscus	-13.2712
ficeren	-13.2712
noemd	-13.2712
osclerotisch	-13.2712
vaardigd	-13.2712
▁molec	-13.2712
▁clinic	-13.2712
laesionaal	-13.2712
danig	-13.2712
▁21-03-0	-13.2712
▁medulla	-13.2713
gebleven	-13.2713
klassific	-13.2713
▁dooierzak	-13.2713
▁amplifi	-13.2713
wijderd	-13.2713
boring	-13.2713
ocyten	-13.2713
treft	-13.2713
▁cerebell	-13.2713
▁epididym	-13.2713
▁vrouw	-13.2713
▁obstru	-13.2713
▁osteoporo	-13.2713
▁paraprote	-13.2713
therapeut	-13.2714
▁waarneemba	-13.2714
▁zaadbla	-13.2714
iselcelcarcinoom	-13.2714
▁dyserythropo	-13.2714
eefsel	-13.2714
▁frequent	-13.2714
▁(27	-13.2714
▁paraganglio	-13.2714
▁ampli	-13.2714
▁myometri	-13.2714
95/*******	-13.2714
▁evalu	-13.2714
▁endocard	-13.2714
▁13-05-	-13.2714
▁helder	-13.2714
arthro	-13.2714
▁trombocyt	-13.2714
12-141	-13.2714
▁ossifica	-13.2714
▁xanth	-13.2714
▁classi	-13.2714
immuniteit	-13.2714
▁planta	-13.2714
aspatiexaspatie	-13.2714
▁suppurati	-13.2714
▁tyrosin	-13.2714
ficiele	-13.2714
gestreept	-13.2714
hodgkinlymfo	-13.2714
▁acantolyt	-13.2714
13-39767	-13.2714
cirucla	-13.2714
erplasie	-13.2714
tamoxifen	-13.2714
voetzoolrand	-13.2714
▁29-05-06	-13.2714
▁alcian	-13.2714
▁cyclus	-13.2714
▁oogkamer	-13.2714
celsuspensie	-13.2714
haemosider	-13.2714
ometrie	-13.2714
osalpinx	-13.2714
▁08-06-07)	-13.2714
▁22-08-20	-13.2714
▁botboor	-13.2714
▁bronchiectasie	-13.2714
▁cautherisatie	-13.2714
▁conflue	-13.2714
▁gobletcel	-13.2714
▁hoornschilfer	-13.2714
▁intracerebra	-13.2714
▁knijp	-13.2714
▁kweek	-13.2714
▁lucht	-13.2714
▁oatcell	-13.2714
▁odontogene	-13.2714
▁pankreas	-13.2714
▁perichondr	-13.2714
▁precursor	-13.2714
▁proliferend	-13.2714
▁verontreinig	-13.2714
▁wondgenezing	-13.2714
/03/2013	-13.2714
/05/2011	-13.2714
/30-11-199	-13.2714
00.578	-13.2714
00033134	-13.2714
00427	-13.2714
03-34728	-13.2714
03-81529	-13.2714
04-3791)	-13.2714
05-01734	-13.2714
05-7209	-13.2714
06-478-	-13.2714
07-24843	-13.2714
07-30462)	-13.2714
07-5055	-13.2714
07-8214	-13.2714
08-30897	-13.2714
09-17262.	-13.2714
12-41667	-13.2714
13-09759)	-13.2714
13-15929	-13.2714
13-26406.	-13.2714
13-7085	-13.2714
15-03-00	-13.2714
92-3536	-13.2714
93-23728	-13.2714
95-7073	-13.2714
96-3324	-13.2714
98-2942	-13.2714
99-10101.	-13.2714
:21-05-5	-13.2714
anatomisch	-13.2714
aortavenster	-13.2714
asmaceldyscrasie	-13.2714
aspatiemm	-13.2714
baarmoederkanker	-13.2714
belasting	-13.2714
bottrauma	-13.2714
coringsformulier	-13.2714
cryptinvolvement	-13.2714
depleet	-13.2714
draai	-13.2714
eclampsie	-13.2714
endothoracica	-13.2714
epiglottica	-13.2714
epiploica	-13.2714
foetoproteine	-13.2714
guttata	-13.2714
intervertebralis	-13.2714
klachten	-13.2714
lepidic	-13.2714
lomerulosclerose	-13.2714
methylation	-13.2714
oblastenleukemie	-13.2714
ofagocytos	-13.2714
organiseerd	-13.2714
ortocavaal	-13.2714
perfusie	-13.2714
pilaris	-13.2714
prearaat	-13.2714
rophicans	-13.2714
suspici	-13.2714
syringocystadeno	-13.2714
thrombi	-13.2714
toevalsbevinding	-13.2714
unktion	-13.2714
wetenschappelijk	-13.2714
xalaatkristallen	-13.2714
ziekenhuizen	-13.2714
±	-13.2714
▁(0-1+)	-13.2714
▁04-11-99	-13.2714
▁11/2/'09	-13.2714
▁12-02-0	-13.2714
▁15-09-00/	-13.2714
▁15492.	-13.2714
▁17-09-201	-13.2714
▁18-12-03	-13.2714
▁2+5=7)	-13.2714
▁20-10-06	-13.2714
▁22-03-0	-13.2714
▁3-11-2010	-13.2714
▁31/33/35	-13.2714
▁627-633	-13.2714
▁<0,	-13.2714
▁aanbieden	-13.2714
▁accentuering	-13.2714
▁achterhalen	-13.2714
▁afloop	-13.2714
▁aggregraten	-13.2714
▁alcoholabusus	-13.2714
▁arytenoid	-13.2714
▁authoriseren	-13.2714
▁beordeel	-13.2714
▁berard	-13.2714
▁bizarre	-13.2714
▁blastencrisis	-13.2714
▁bloedcoagul	-13.2714
▁callosum	-13.2714
▁calret	-13.2714
▁capillaritis	-13.2714
▁caput	-13.2714
▁carotis	-13.2714
▁categorie	-13.2714
▁choriaalplaat	-13.2714
▁compartiment	-13.2714
▁concrement	-13.2714
▁coprostase	-13.2714
▁corticosteroide	-13.2714
▁cruris	-13.2714
▁cylindr	-13.2714
▁dendritisch	-13.2714
▁desmoplasie	-13.2714
▁discontinu	-13.2714
▁discordant	-13.2714
▁dubieer	-13.2714
▁ductulobulair	-13.2714
▁dysmorfie	-13.2714
▁eerstgenoemde	-13.2714
▁eiland	-13.2714
▁elderly	-13.2714
▁enterocyten	-13.2714
▁epulis	-13.2714
▁exarticulatie	-13.2714
▁exclusion	-13.2714
▁extreem	-13.2714
▁fibula	-13.2714
▁fields	-13.2714
▁follikelcenter	-13.2714
▁geactiveerd	-13.2714
▁gecoaguleerd	-13.2714
▁gecontroleerd	-13.2714
▁gecuretteerd	-13.2714
▁gegradeerd	-13.2714
▁gelobd	-13.2714
▁geneeskunde	-13.2714
▁geopperd	-13.2714
▁gerevideerd	-13.2714
▁gesitueerd	-13.2714
▁gestapeld	-13.2714
▁getransformeerd	-13.2714
▁getraumatiseerd	-13.2714
▁gevoeligheid	-13.2714
▁geworden	-13.2714
▁glandulo	-13.2714
▁gliosarcoom	-13.2714
▁hechtdraden	-13.2714
▁hematologisch	-13.2714
▁hoogradig	-13.2714
▁hypercoiling	-13.2714
▁iliocoecaal	-13.2714
▁immunophenotype	-13.2714
▁indifferent	-13.2714
▁inflammation	-13.2714
▁involuerend	-13.2714
▁inzetten	-13.2714
▁kalkdeposities	-13.2714
▁keratinocyten	-13.2714
▁kidney	-13.2714
▁kiembaan	-13.2714
▁lactase	-13.2714
▁laparotomie	-13.2714
▁laterocraniaal	-13.2714
▁laxantia	-13.2714
▁mammografie	-13.2714
▁masthopathie	-13.2714
▁maturatie	-13.2714
▁merkwaardig	-13.2714
▁morgagni	-13.2714
▁morpheiforme	-13.2714
▁nagegaan	-13.2714
▁omschreven	-13.2714
▁onbetrouwbaar	-13.2714
▁onderfront	-13.2714
▁ondergetekende	-13.2714
▁ongunstig	-13.2714
▁oorzaken	-13.2714
▁ortho	-13.2714
▁osteoclast	-13.2714
▁osteomyelitis	-13.2714
▁overschrijd	-13.2714
▁pancoast	-13.2714
▁pemfigoid	-13.2714
▁perforata	-13.2714
▁periductitis	-13.2714
▁peroxydase	-13.2714
▁pityrosporon	-13.2714
▁porocarcinoom	-13.2714
▁porokeratosis	-13.2714
▁postpartum	-13.2714
▁praeputium	-13.2714
▁prepareervlak	-13.2714
▁purpura	-13.2714
▁radiolucent	-13.2714
▁rapport	-13.2714
▁rechterheup	-13.2714
▁retractiesple	-13.2714
▁rupturering	-13.2714
▁sample	-13.2714
▁seminiferi	-13.2714
▁slijmbekercel	-13.2714
▁stagnatie	-13.2714
▁sublingua	-13.2714
▁subperiosta	-13.2714
▁supratentorieel	-13.2714
▁sympatectomie	-13.2714
▁tandenrij	-13.2714
▁thoracotomie	-13.2714
▁toevoegen	-13.2714
▁toevoeging	-13.2714
▁toilet	-13.2714
▁tonsillitis	-13.2714
▁traanklier	-13.2714
▁trilharen	-13.2714
▁tumordepositie	-13.2714
▁tumornodi	-13.2714
▁tumorpermeatie	-13.2714
▁tumorregressie	-13.2714
▁uncinatus	-13.2714
▁urachus	-13.2714
▁vaatmalformatie	-13.2714
▁vanzelfsprekend	-13.2714
▁vergroting	-13.2714
▁verhoornd	-13.2714
▁verkrijg	-13.2714
▁veroorzaken	-13.2714
▁verslijming	-13.2714
▁versmalling	-13.2714
▁voortgezet	-13.2714
▁vruchtdood	-13.2714
▁wijsvinger	-13.2714
▁yersini	-13.2714
▁zuiltjes	-13.2714
▁aanvuling	-13.2714
▁sectio	-13.2714
▁sindram	-13.2714
-12-2013	-13.2714
/04/201	-13.2714
geinfarceerd	-13.2714
satelit	-13.2714
▁06-01-0	-13.2714
▁24-07-200	-13.2714
▁27-02-	-13.2714
▁beschikk	-13.2714
▁cytometrie	-13.2714
▁dood	-13.2714
▁enterocoli	-13.2714
▁gestuwd	-13.2714
▁insektenbe	-13.2714
▁kalkspat	-13.2714
▁neurilemmo	-13.2714
▁oesofagitis	-13.2714
▁oetrogeen	-13.2714
▁prostectomie	-13.2714
▁rozet	-13.2714
▁strookje	-13.2714
▁stucco	-13.2714
▁trilhaar	-13.2714
▁vascularisatie	-13.2714
▁veroudering	-13.2714
▁waarschijnlj	-13.2714
▁zangersknobbel	-13.2714
▁zuiver	-13.2714
-4-2010	-13.2714
10-31855	-13.2714
85106	-13.2714
90-25832	-13.2714
96523	-13.2714
cosmic	-13.2714
effekt	-13.2714
elasma	-13.2714
lymphatisch	-13.2714
ternocleidomasto	-13.2714
▁02-02-11	-13.2714
▁05-0545	-13.2714
▁17-04-200	-13.2714
▁20-30%	-13.2714
▁22-01-0	-13.2714
▁29-05-13	-13.2714
▁antracosilicose	-13.2714
▁cytogenetica	-13.2714
▁dermatofibromen	-13.2714
▁faecoli	-13.2714
▁funiculitis	-13.2714
▁gezichtsveld	-13.2714
▁glomeruli	-13.2714
▁hechtgranulomen	-13.2714
▁hydatid	-13.2714
▁includ	-13.2714
▁lymangio	-13.2714
▁mesothelioma	-13.2714
▁oxy	-13.2714
▁professor	-13.2714
▁ragged	-13.2714
▁superfis	-13.2714
▁trekken	-13.2714
02-1188	-13.2714
common	-13.2714
schoten	-13.2714
▁02-01-	-13.2714
▁caudatus	-13.2714
▁fenotypi	-13.2714
▁necrosis	-13.2714
▁plasmacytoom	-13.2714
▁sweet	-13.2714
▁twijfelachtig	-13.2714
▁vacuolisatie	-13.2714
▁xanthogranulo	-13.2714
▁bricker	-13.2714
▁gebleken	-13.2714
▁tumorspil	-13.2714
▁umbilicalis	-13.2714
12-28484	-13.2714
89242	-13.2714
98203	-13.2714
convolu	-13.2714
idceltumor	-13.2714
quo	-13.2714
tertiair	-13.2714
▁01-12-2005	-13.2714
▁27-08-2008	-13.2714
▁ascensie	-13.2714
▁body	-13.2714
▁classe	-13.2714
▁glom	-13.2714
▁noemen	-13.2714
▁slooff	-13.2714
▁triliniair	-13.2714
▁19-01-0	-13.2714
▁19-02-9	-13.2714
▁28-03-0	-13.2714
▁hoofdza	-13.2714
▁uterusmyomatos	-13.2714
07-3397	-13.2714
57201	-13.2714
99-859	-13.2714
extraheerba	-13.2714
mammillair	-13.2714
▁12-11-0	-13.2714
▁14-12-2005	-13.2714
▁21-10-9	-13.2714
▁antero	-13.2714
▁benut	-13.2714
▁cobas	-13.2714
▁endocervicitis	-13.2714
▁frontopari	-13.2714
▁hyalinisatie	-13.2714
▁hypogastrica	-13.2714
▁inhibi	-13.2714
▁lymfevatinvasie	-13.2714
▁polipectomie	-13.2714
▁pterygoid	-13.2714
▁suppurativa	-13.2714
▁(3/13)	-13.2714
▁milex	-13.2714
▁myeloblasten	-13.2714
01-1648	-13.2714
1-8-201	-13.2714
palmala	-13.2714
▁17-09-9	-13.2714
▁bandering	-13.2714
▁mesangio	-13.2714
▁permeatie	-13.2714
▁synoviosarcoom	-13.2714
/12/2013	-13.2714
/26-06-199	-13.2714
12-14154	-13.2714
▁02-05-2011	-13.2714
▁dyskeratose	-13.2714
▁ependymoma	-13.2714
▁oestr	-13.2714
▁osteoplastische	-13.2714
▁plano	-13.2714
▁plantaris	-13.2714
▁zygoma	-13.2714
stulp	-13.2714
▁markeer	-13.2714
haily	-13.2714
▁23-06-200	-13.2714
▁coloscopie	-13.2714
vloe	-13.2714
▁osteoid	-13.2714
10-051	-13.2714
10-3250	-13.2714
:25-12-	-13.2714
▁21-07-05	-13.2714
▁other	-13.2714
▁standaard	-13.2714
99-2107	-13.2714
cellym	-13.2714
ilament	-13.2714
▁+3=7	-13.2714
▁biosp	-13.2714
▁diastase	-13.2714
▁ezh	-13.2714
▁verklaar	-13.2714
▁zenden	-13.2714
11-21802	-13.2714
97-918	-13.2714
:01-09-	-13.2714
indefinit	-13.2714
▁20-11-2003	-13.2714
▁anemie	-13.2714
▁daco	-13.2714
▁diafragmatica	-13.2714
▁discussie	-13.2714
▁interfere	-13.2714
▁ossificatie	-13.2714
▁stimulatie	-13.2714
▁bullectomie	-13.2714
▁histologic	-13.2714
10364	-13.2714
ecologie	-13.2714
lebitis	-13.2714
thrombocytopenie	-13.2714
▁10-08-06	-13.2714
▁26-10-20	-13.2714
▁26/06/2012	-13.2714
▁ilica	-13.2714
▁xanthofibro	-13.2714
01-629	-13.2714
96-1983	-13.2714
▁smear	-13.2714
▁units	-13.2714
infektie	-13.2714
▁bulbo	-13.2714
06-357	-13.2714
83533	-13.2714
97143	-13.2714
▁aggregaatje	-13.2714
▁omkapseld	-13.2714
▁perineaal	-13.2714
8-08-08/	-13.2714
ohn	-13.2714
▁07-06-20	-13.2714
▁helices	-13.2714
ocellulare	-13.2714
▁wondbodem	-13.2714
▁08-04-2011	-13.2714
lvsi	-13.2714
▁afweerreactie	-13.2714
▁07-07-	-13.2715
▁split	-13.2715
menteerd	-13.2715
▁dissociatie	-13.2715
▁dundarmsegment	-13.2715
▁nsip	-13.2715
02-159	-13.2715
▁ijzergebrek	-13.2715
▁11-10-13	-13.2715
▁fascieblad	-13.2715
[...]
