<unk>	0
<s>	0
</s>	0
.	-2.61907
:	-3.47478
F	-3.78311
]	-3.91568
,	-3.92245
[	-4.01409
C	-4.08101
RL	-4.12525
▁met	-4.19205
▁van	-4.3331
▁(	-4.35607
▁een	-4.36456
▁Geen	-4.45831
▁en	-4.54236
▁	-4.55495
e	-4.61932
▁geen	-4.82272
▁de	-4.82609
▁voor	-4.86252
▁in	-4.87167
▁maligniteit	-4.9106
-	-4.92843
L	-4.99238
▁het	-4.99538
CR	-5.06162
▁rechts	-5.10487
▁bij	-5.10989
▁links	-5.11133
▁ontsteking	-5.23627
):	-5.3147
▁is	-5.33778
carcinoom	-5.34166
▁beeld	-5.34297
)	-5.364
▁[	-5.41947
▁Huidexcisie	-5.43137
▁dysplasie	-5.47605
▁of	-5.50704
▁I	-5.52179
▁zonder	-5.60112
▁niet	-5.61361
▁aanwijzingen	-5.6814
▁basaalcel	-5.72229
▁Huidbiopt	-5.73489
II	-5.93463
▁afwijkingen	-5.96329
▁passend	-5.97527
/	-6.04495
▁op	-6.04815
▁chronische	-6.0605
;	-6.06155
▁*******	-6.08944
▁vrij	-6.10759
▁naevus	-6.18289
▁geringe	-6.19965
d	-6.22542
▁te	-6.23354
▁kan	-6.24388
▁veranderingen	-6.25383
▁materiaal	-6.27283
▁T	-6.28032
▁actieve	-6.2805
▁waarin	-6.29795
▁biopten	-6.31839
▁reactieve	-6.3228
).	-6.34118
▁d	-6.34842
▁zijn	-6.36055
▁tot	-6.38202
▁De	-6.38343
▁biopt	-6.3956
▁mm	-6.40117
▁adenocarcinoom	-6.41247
Aanvulling	-6.42812
▁onderzoek	-6.44299
le	-6.45294
▁passen	-6.49648
▁worden	-6.4996
A	-6.51248
en	-6.52358
▁dit	-6.52502
s	-6.54604
▁cm	-6.55611
▁laesie	-6.56136
▁verruca	-6.56468
▁rechter	-6.58763
▁metaplasie	-6.59493
▁atypie	-6.61381
▁linker	-6.61937
▁verwijderd	-6.62211
▁tumor	-6.63903
▁nodulair	-6.6485
▁Excisie	-6.64933
▁naevocellularis	-6.65177
▁Het	-6.65362
▁groeiend	-6.68081
▁Biopten	-6.68463
▁groei	-6.68912
▁II	-6.71239
▁seborrhoica	-6.71834
▁excisie	-6.71934
▁carcinoom	-6.73988
▁type	-6.74635
▁volgt	-6.79117
▁wordt	-6.79674
▁Er	-6.80252
▁2	-6.80338
▁Huid	-6.805
▁lymfklier	-6.80969
▁deels	-6.81394
▁1	-6.81623
▁In	-6.82034
▁goed	-6.83298
▁3	-6.86404
▁intestinale	-6.86448
▁lokalisatie	-6.86834
▁negatief	-6.86884
▁huid	-6.8776
▁dermale	-6.89831
▁focaal	-6.90508
▁Helicobacter	-6.91949
▁endometrium	-6.9255
▁conclusie	-6.94181
▁plaveiselcel	-6.94879
▁metastase	-6.9496
▁hyperplasie	-6.97019
▁maligne	-6.97699
▁onder	-6.97932
▁rug	-6.98109
▁past	-6.9935
▁ook	-7.00339
▁aan	-7.01555
▁mamma	-7.02233
gedifferentieerd	-7.03217
2	-7.0352
▁mogelijk	-7.05644
▁na	-7.06987
1	-7.07111
▁colon	-7.07738
biopten	-7.08539
t	-7.088
▁keratose	-7.09643
▁pylori	-7.1009
▁uit	-7.10191
III	-7.10308
▁benigne	-7.10859
▁kenmerken	-7.10891
▁poliep	-7.11828
▁adenoom	-7.1317
▁diagnose	-7.15235
▁HPV	-7.1534
▁Biopt	-7.16295
excisie	-7.17109
▁slijmvlies	-7.17629
▁cellen	-7.18534
▁aanvullend	-7.18657
▁conform	-7.18829
▁superficieel	-7.19352
tekenen	-7.20112
us	-7.22013
▁als	-7.22719
▁aangetroffen	-7.23279
▁uitgebreide	-7.23582
▁positief	-7.24572
▁/	-7.24894
▁epitheel	-7.25738
▁actinisch	-7.26246
T	-7.26566
▁uitslag	-7.26661
▁atypische	-7.27548
▁4	-7.27615
▁laaggradige	-7.27701
▁aanwezig	-7.28005
▁er	-7.30357
▁specifieke	-7.31959
▁gezien	-7.32016
▁uur	-7.36372
▁aangetoond	-7.38231
▁matig	-7.38388
▁t	-7.39912
▁mutatie	-7.41189
▁cyste	-7.41203
▁solide	-7.41877
▁huidexcisie	-7.42985
?	-7.43648
▁hals	-7.43938
▁huidbiopt	-7.44769
▁ter	-7.45584
▁weefsel	-7.46918
▁enkele	-7.47103
▁B	-7.47845
slijmvlies	-7.47872
▁dan	-7.48129
▁resectie	-7.48504
▁graad	-7.48768
▁C	-7.48933
▁samengestelde	-7.48946
▁atrofie	-7.49685
I	-7.49973
▁morb	-7.50637
▁kunnen	-7.50949
▁afwijking	-7.51876
▁naar	-7.51955
Geen	-7.5304
▁chronisch	-7.5343
▁dat	-7.53662
▁nog	-7.53714
▁werd	-7.541
▁argumenten	-7.54412
▁klinische	-7.54518
▁voorkeur	-7.54806
pre	-7.5488
▁wang	-7.55008
v	-7.5585
▁delen	-7.56229
▁bericht	-7.5719
▁onvoldoende	-7.57837
▁tubulair	-7.58187
▁prostaat	-7.58478
▁door	-7.59286
▁geheel	-7.5947
▁maag	-7.59539
▁perineurale	-7.60882
▁reikend	-7.60934
▁invasieve	-7.62105
▁deze	-7.62244
▁onderbeen	-7.64006
al	-7.6403
▁waarbij	-7.64361
▁enige	-7.64583
▁*******,	-7.66044
▁5	-7.66264
▁dermatitis	-7.67593
▁corpus	-7.68021
▁Zie	-7.68072
▁toont	-7.68248
),	-7.69807
▁p	-7.69898
▁zeer	-7.70417
▁radicaal	-7.71243
▁antrum	-7.71523
▁lymfklieren	-7.71536
▁lymfoom	-7.72265
▁maar	-7.72374
▁III	-7.72499
▁marge	-7.72637
▁basis	-7.73031
▁histologisch	-7.7304
▁kader	-7.73101
▁nummer	-7.73177
▁colitis	-7.74732
▁over	-7.74869
▁sprieterig	-7.75199
m	-7.75461
▁weinig	-7.75506
▁uitgesloten	-7.75685
▁klinisch	-7.75712
de	-7.75918
▁situ	-7.76036
▁melanoom	-7.76755
▁gevonden	-7.77151
▁aanwezigheid	-7.77474
▁Onvoldoende	-7.77972
▁bovenbeen	-7.78421
▁analyse	-7.78486
B	-7.79702
▁overwogen	-7.80338
▁punctie	-7.81068
]*******	-7.81247
▁fibrose	-7.81315
▁cervix	-7.81452
▁volgen	-7.81578
▁diameter	-7.81783
▁beide	-7.8192
▁Tevens	-7.8229
▁gering	-7.82295
▁betreft	-7.82806
▁Revisie	-7.83052
▁A	-7.83177
▁waarschijnlijk	-7.83368
▁pathologie	-7.83514
▁acute	-7.83546
▁rest	-7.83589
▁6	-7.8371
▁duidelijke	-7.84765
▁voorhoofd	-7.84778
▁Resectie	-7.85017
▁verdacht	-7.85869
▁microscopie	-7.86884
▁matige	-7.87349
3	-7.87352
▁eventue	-7.87407
▁Punctie	-7.87868
▁reactief	-7.8892
▁snijvlak	-7.89071
▁keratosis	-7.89235
▁best	-7.89744
▁Urine	-7.89792
▁moleculair	-7.90077
▁kleine	-7.90199
▁Endometrium	-7.90229
▁melanocytaire	-7.90372
▁onderarm	-7.91074
▁schouder	-7.91094
G	-7.911
▁duodenum	-7.91241
Deze	-7.91929
b	-7.92151
preparaat	-7.92406
▁echter	-7.92981
V	-7.93074
▁oppervlakkig	-7.93419
▁g	-7.93591
▁actinica	-7.93769
▁litteken	-7.93852
▁reikt	-7.94008
ze	-7.94209
▁hoog	-7.94224
▁wat	-7.95179
De	-7.95386
▁celbeeld	-7.95526
▁Bowen	-7.9566
wel	-7.96147
▁intra	-7.96389
▁-	-7.96517
▁boven	-7.96704
▁bodem	-7.96869
▁component	-7.9773
▁temporaal	-7.98127
histochemisch	-7.98208
ve	-7.98218
«	-7.98272
a	-7.98608
▁classificeren	-7.98912
▁specifiek	-7.98918
▁proliferatie	-7.99371
▁oppervlakkige	-7.99383
▁P	-7.99575
▁wel	-7.99698
▁Moleculair	-8.00538
▁rectum	-8.00681
▁bovenarm	-8.00685
▁bekende	-8.01153
▁snijvlakken	-8.01398
(	-8.0194
▁beoordelen	-8.01989
▁diagnostiek	-8.0264
▁c	-8.02659
IV	-8.0283
▁zie	-8.03122
▁eczeem	-8.035
▁zou	-8.03651
▁Beeld	-8.03696
▁long	-8.0391
in	-8.04074
▁lichenoide	-8.04306
▁Een	-8.04358
▁lichen	-8.04421
▁minimale	-8.04439
p	-8.0456
▁u	-8.05774
▁eerder	-8.06309
▁kleuring	-8.07303
▁lateraal	-8.07613
▁waarvan	-8.0795
E	-8.08112
▁diagnostisch	-8.08123
epitheliale	-8.08285
▁Maagbiopten	-8.0829
▁groeiwijze	-8.08752
▁EGFR	-8.09978
▁daar	-8.10388
▁afkomstig	-8.10518
▁verder	-8.10518
▁aanwijzing	-8.10637
▁ascendens	-8.1108
▁+	-8.1144
invasieve	-8.11832
▁immuun	-8.12133
*******/	-8.12235
▁epidermale	-8.12288
▁Snijvlakken	-8.12579
▁exon	-8.12688
▁resectievlak	-8.12773
epitheel	-8.12932
▁name	-8.1299
▁colonslijmvlies	-8.13518
▁vermeld	-8.13567
nummer	-8.14058
▁toto	-8.15068
▁klein	-8.15335
▁fragmenten	-8.15406
▁plaveisel	-8.15588
▁hyperplastische	-8.15937
▁beoordeelbaar	-8.16163
▁beenmerg	-8.16276
>	-8.16365
▁dieper	-8.16705
▁eosinofiele	-8.16764
▁S	-8.17624
▁granulomen	-8.18071
▁invasief	-8.18226
▁shave	-8.18389
▁neus	-8.18615
n	-8.18666
▁dermatofibroom	-8.18818
▁KRAS	-8.19339
el	-8.19504
▁vlokatrofie	-8.19551
▁meer	-8.2016
▁7	-8.20195
▁re	-8.20724
▁midden	-8.20828
▁zijde	-8.20916
▁coeur	-8.21115
▁Gleason	-8.21798
▁snijranden	-8.22034
▁ten	-8.22154
▁die	-8.22283
▁littekenweefsel	-8.22388
▁bekend	-8.22703
Het	-8.22781
▁minder	-8.23016
▁alle	-8.24284
▁differentiaal	-8.24338
▁ileum	-8.24761
▁volledig	-8.24973
▁micro	-8.25036
▁urotheelcel	-8.25374
▁maagslijmvlies	-8.25409
▁oesofagus	-8.25431
In	-8.25438
▁score	-8.2634
Voor	-8.27116
▁BRAF	-8.27419
▁superficiele	-8.27672
▁eosinofilie	-8.27999
▁12	-8.28042
▁overige	-8.28043
materiaal	-8.28855
naaldbiopten	-8.2945
▁;	-8.29516
▁contact	-8.29609
biopt	-8.30216
Zie	-8.30427
▁cytologisch	-8.30495
▁toename	-8.30508
▁oksel	-8.30514
▁Pleuravocht	-8.30555
▁papillair	-8.30644
▁oesophagus	-8.31518
▁normaal	-8.32031
▁centraal	-8.32068
rechts	-8.32129
▁elders	-8.32225
▁sterk	-8.32297
▁evident	-8.32352
Conclusie	-8.33343
▁weke	-8.33353
▁(*******	-8.33365
▁ulceratie	-8.33528
▁sigmoid	-8.33893
mw	-8.3408
▁eerdere	-8.3454
▁lipoom	-8.34768
links	-8.34916
cel	-8.3492
▁aanknopingspunt	-8.35005
▁beiderzijds	-8.35307
▁vetweefsel	-8.35466
▁verdenking	-8.36519
▁Aanvullend	-8.36555
▁gedacht	-8.36696
▁ductaal	-8.36702
▁diepe	-8.36983
▁nodulaire	-8.36997
▁M	-8.37251
▁Diagnostiek	-8.37405
HPV	-8.37423
neu	-8.37457
▁zo	-8.37516
re	-8.38169
▁risico	-8.38235
Aanvullend	-8.38272
▁concordant	-8.38313
▁Barrett	-8.38582
▁overwegend	-8.38586
▁overtuigend	-8.38672
▁zekere	-8.38694
▁Consult	-8.38745
▁onbekend	-8.38877
▁V	-8.39054
▁aantoonbaar	-8.394
▁transversum	-8.39456
▁Mohs	-8.39893
risico	-8.40171
▁patient	-8.4029
▁resectievlakken	-8.40452
▁opnemen	-8.40501
▁genen	-8.40629
▁ernstige	-8.40874
▁*******/	-8.41098
▁ca	-8.41137
▁PA	-8.41491
▁10	-8.42643
▁dysplastische	-8.42668
▁IV	-8.42951
▁hooggradig	-8.42959
▁tenminste	-8.4301
▁borst	-8.43014
]-	-8.43657
▁dermis	-8.4447
▁biopsie	-8.44882
▁lateral	-8.44936
D	-8.45024
▁om	-8.45114
▁Colonbiopten	-8.45303
▁kun	-8.45348
▁consult	-8.45406
▁ge	-8.45566
R	-8.45782
▁Voor	-8.46137
▁plaatse	-8.46161
](	-8.46374
▁afwezig	-8.46405
▁mutaties	-8.46415
▁Huidbiopsie	-8.46686
▁gelegen	-8.46908
▁Conclusie	-8.4702
▁hoofd	-8.47058
▁coupes	-8.47146
invasie	-8.47532
▁dd	-8.47628
▁kleincellig	-8.47983
CIN	-8.48147
zie	-8.48706
▁pT	-8.48734
c	-8.4898
▁gastritis	-8.49014
▁plaatselijk	-8.49024
▁zwelling	-8.49036
▁status	-8.49662
▁oor	-8.50019
▁derhalve	-8.50035
▁hooggradige	-8.50059
▁infiltrerend	-8.50444
▁flank	-8.50907
▁G	-8.51256
▁bespreking	-8.51302
▁eerste	-8.5134
▁tumorcellen	-8.51482
▁forse	-8.51606
▁andere	-8.51758
▁HER	-8.51768
▁invasie	-8.51795
▁Pipelle	-8.51871
▁Poliepectomie	-8.51885
4	-8.51955
▁Dit	-8.52287
▁twee	-8.52723
hyperplasie	-8.52883
N	-8.52949
▁Gaarne	-8.53408
ontstekingsbeeld	-8.53417
▁CD	-8.5377
▁vragen	-8.54589
▁Duodenumbiopten	-8.54883
▁secret	-8.55001
ariaa	-8.55036
ing	-8.55157
▁IBD	-8.55246
▁folliculitis	-8.5529
S	-8.55387
▁stroma	-8.55522
▁H	-8.55568
▁lijkt	-8.55899
linker	-8.56065
Cholecystectomie	-8.56301
▁mediaal	-8.56403
▁Huidstukje	-8.56519
▁TUR	-8.56976
rechter	-8.57613
▁granulomateuze	-8.57876
▁aspecifieke	-8.58058
▁betreffende	-8.58384
▁primaire	-8.58831
▁dunne	-8.59349
▁maagantrum	-8.59713
Er	-8.5996
▁zekerheid	-8.60064
celcarcinoom	-8.60265
▁respectievelijk	-8.603
▁Appendectomie	-8.60748
▁revisie	-8.61784
▁perivasculaire	-8.62137
▁dorsaal	-8.62388
▁Hoog	-8.62608
▁appendicitis	-8.62724
resectie	-8.6289
▁papilloom	-8.6335
▁8	-8.63557
▁slecht	-8.63599
▁9	-8.63614
▁level	-8.63628
▁*******.	-8.63653
▁beoordeling	-8.64035
Huidbiopt	-8.64146
▁endocervicale	-8.64205
▁squameu	-8.64347
▁infiltratie	-8.64598
Revisie	-8.64786
▁tevens	-8.64903
▁descendens	-8.64969
▁O	-8.65084
▁bepaling	-8.65297
▁spongiotische	-8.65385
▁panel	-8.65943
▁microscopische	-8.66024
▁Op	-8.66076
▁hemangioom	-8.66088
▁sterke	-8.66177
maligniteit	-8.66563
▁uitbreiding	-8.66601
▁verricht	-8.669
PA	-8.6703
▁hoeveelheid	-8.67288
▁lymfocytose	-8.67306
▁granulocyten	-8.67312
▁lies	-8.67329
▁sprieterige	-8.67337
▁tussen	-8.67812
▁schimmels	-8.67825
▁verwerkt	-8.68014
▁Lymfklier	-8.68368
▁Voorts	-8.68373
▁schildklier	-8.685
▁retour	-8.68501
▁hier	-8.68639
▁vulgaris	-8.68747
M	-8.69205
53	-8.69548
▁infectie	-8.69585
▁lentigo	-8.69747
▁folliculair	-8.69847
▁Naaldbiopten	-8.70189
▁invasiediepte	-8.70304
▁epitheliale	-8.70956
▁extern	-8.71011
ast	-8.71044
▁frontaal	-8.7105
tal	-8.71152
▁mediale	-8.71153
▁pre	-8.71813
▁placenta	-8.71853
▁buik	-8.71873
▁gen	-8.72208
▁bevindingen	-8.72313
▁CIN	-8.7258
▁derden	-8.72758
▁celrijk	-8.7283
▁overgang	-8.72943
▁ALK	-8.73522
▁representatief	-8.74071
▁vaso	-8.74075
▁kleuringen	-8.74111
▁epidermis	-8.74282
▁i	-8.74392
▁Giardia	-8.74815
weefsel	-8.74966
▁ovarium	-8.75231
▁uterus	-8.75482
▁grootcellig	-8.75729
▁Bij	-8.7586
▁=	-8.75943
▁classificatie	-8.75981
▁sprake	-8.76152
▁bloed	-8.76191
▁poliepectomie	-8.76191
▁naast	-8.76316
▁grensvlak	-8.77195
negatief	-8.77341
▁̄d	-8.77484
▁fibro	-8.77691
▁pathogene	-8.77788
▁bijbehorend	-8.77999
▁Her	-8.78005
▁sluiten	-8.78339
▁11	-8.78378
▁rand	-8.78488
▁morfologisch	-8.78514
▁nader	-8.78662
▁Huidshave	-8.79068
▁tel	-8.79202
w	-8.79247
▁veel	-8.79655
▁Prostaatbiopten	-8.8003
▁15	-8.80265
▁DNA	-8.80317
organismen	-8.80445
1,	-8.80575
▁FISH	-8.80693
▁bindweefsel	-8.8076
▁therapie	-8.81446
f	-8.82225
▁angio	-8.82334
veranderingen	-8.82356
▁hyperkeratose	-8.82402
▁origine	-8.82435
▁PR	-8.82646
▁laaggradig	-8.82995
▁geirriteerde	-8.83048
ale	-8.83426
▁Niet	-8.83465
▁dermaal	-8.83599
uw	-8.83754
▁ontstoken	-8.83827
▁coecum	-8.83908
exon	-8.83912
Huidexcisie	-8.8399
▁primair	-8.84012
▁N	-8.84214
▁Cervixbiopt	-8.84281
▁ventraal	-8.84452
rug	-8.84676
▁diep	-8.84964
▁distale	-8.8505
▁Biopsie	-8.85149
ient	-8.8524
▁blaas	-8.85379
▁lymfeklier	-8.85427
▁immunohistochem	-8.85433
▁NGS	-8.8583
▁doorgemaakte	-8.86545
▁granuloma	-8.86563
▁mucosa	-8.86579
▁proces	-8.86997
▁Cytologisch	-8.87056
▁m	-8.87093
▁Mamma	-8.8728
▁Conform	-8.87768
-1	-8.88041
▁1.	-8.88115
▁planus	-8.88189
▁Weke	-8.88279
'	-8.88547
▁ER	-8.88769
▁prostaatbiopten	-8.88816
▁krap	-8.89112
▁vasculitis	-8.89401
▁Huidstansbiopt	-8.89706
▁urine	-8.8977
▁reactie	-8.89959
Moleculair	-8.90155
lijmvliesbiopten	-8.90349
P	-8.90473
▁uitgebreid	-8.90538
ok	-8.90567
▁vooralsnog	-8.90615
▁DD	-8.907
▁regio	-8.90815
▁fibroadenoom	-8.9093
▁terminale	-8.90984
▁localisatie	-8.91047
▁0	-8.91136
▁positieve	-8.91347
▁waar	-8.91582
12	-8.91611
1;	-8.91635
▁%	-8.91847
▁intradermale	-8.91852
of	-8.92102
▁regressie	-8.92152
▁nr	-8.9224
voor	-8.92539
▁vermoedelijk	-8.92561
▁Definitieve	-8.92607
▁Colonslijmvlies	-8.92722
▁hoogte	-8.92722
PCL	-8.92775
hyperkeratotisch	-8.92798
▁MET	-8.92817
▁maagcorpus	-8.92833
▁nek	-8.9291
▁thorax	-8.92922
lokalisatie	-8.93132
▁deel	-8.93136
▁achtergrond	-8.93279
▁carcinoma	-8.93326
▁zeker	-8.93373
▁meest	-8.93428
▁correlatie	-8.93725
▁*******)	-8.93865
▁necrose	-8.93883
▁neusrug	-8.93889
▁kliniek	-8.94205
▁Prostaat	-8.94264
lab	-8.94549
▁gegevens	-8.94724
▁immuno	-8.94951
▁enkel	-8.94982
▁non	-8.95077
▁nieuwe	-8.95186
GIE	-8.95611
x	-8.95631
▁licht	-8.95742
te	-8.95809
▁multifocaal	-8.95947
▁leiomyoom	-8.9595
isch	-8.96173
▁coeliakie	-8.96261
▁20	-8.96282
▁maagbiopten	-8.96302
▁nodus	-8.96922
mm	-8.97156
▁Snijvlak	-8.97284
▁peri	-8.97285
▁darm	-8.97294
▁recidief	-8.97432
nt	-8.97651
ver	-8.97683
op	-8.9769
diameter	-8.97939
▁squameus	-8.9854
▁beginnende	-8.98663
▁zoals	-8.98668
▁lymfocyten	-8.98744
▁blokje	-8.98868
▁mammacarcinoom	-8.98924
▁amplificatie	-8.99075
▁beperkte	-8.99174
▁diepte	-8.99253
▁pigment	-8.99508
▁vriescoupe	-8.99513
▁R	-8.99693
bij	-8.99762
▁bovenkwab	-8.99888
▁bloeding	-9.00438
▁bestaande	-9.01476
▁parotis	-9.02298
▁handrug	-9.02358
CBD	-9.02818
▁achter	-9.03047
▁ontstekingsrest	-9.03051
▁dank	-9.03302
name	-9.03352
▁onderlip	-9.03391
▁Ge	-9.03477
▁maxima	-9.03764
▁hierin	-9.04035
▁1,5	-9.04084
▁Hier	-9.04107
▁slokdarm	-9.04245
▁lever	-9.04373
eer	-9.04413
Biopten	-9.04423
▁extra	-9.04488
lijk	-9.04541
▁slechts	-9.04594
▁tonen	-9.04688
▁instantie	-9.05035
▁diffuus	-9.05057
▁focus	-9.05057
▁subcutis	-9.0508
2-	-9.05202
▁syndroom	-9.05418
▁arm	-9.05657
NB	-9.05716
▁lichte	-9.05752
▁Crohn	-9.05754
▁Differentiaal	-9.0581
▁neoplasie	-9.06175
kleincellig	-9.06176
);	-9.06391
HMH	-9.06449
▁tuba	-9.06478
▁knie	-9.06501
▁slaap	-9.06508
▁uteri	-9.06623
Bij	-9.06784
▁station	-9.0687
l	-9.0689
behaarde	-9.06947
cellymfoom	-9.07079
▁lymfocytaire	-9.07117
▁Mogelijk	-9.07258
antrum	-9.07406
0	-9.07517
▁naaldbiopten	-9.07708
▁beste	-9.07923
▁atypisch	-9.08035
▁meerdere	-9.08297
▁focale	-9.08322
skenmerken	-9.08432
▁cholecystitis	-9.08619
▁zijdigheid	-9.08826
▁opvallende	-9.0889
▁nee	-9.09
▁ontvangen	-9.09021
▁klasse	-9.09094
hooguit	-9.0924
▁DCIS	-9.09286
graad	-9.09618
TNM	-9.09716
▁Placenta	-9.09869
Coupes	-9.09943
16	-9.10007
5	-9.10152
▁neuro	-9.10473
▁Daarna	-9.10659
▁ulcus	-9.10779
▁ulcerosa	-9.10838
▁Maagslijmvlies	-9.10854
▁weken	-9.10901
dometriumpoliep	-9.1097
▁Maag	-9.11091
▁onderkwab	-9.1124
▁corpustype	-9.11307
mateuze	-9.11537
▁doorsnijdingen	-9.11608
▁wenkbrauw	-9.1186
auriculair	-9.11897
Na	-9.12208
▁Uitslag	-9.12226
receptor	-9.12254
▁ontvangt	-9.1235
ocellulair	-9.12352
na	-9.12381
Consult	-9.12481
▁verslag	-9.12652
▁editie	-9.12727
▁onderrug	-9.12976
▁sclerosus	-9.13109
▁definitieve	-9.13121
▁bas	-9.13175
▁distaal	-9.13312
▁oog	-9.13406
▁correleren	-9.13512
g	-9.1356
▁vorm	-9.13585
sche	-9.13826
▁axilla	-9.13943
▁afwijkend	-9.13983
laveiselepitheel	-9.14019
▁inflammatoire	-9.14361
2,	-9.14414
▁ulcererende	-9.14491
▁TP	-9.14596
▁blijft	-9.14654
▁infiltraat	-9.147
▁onderliggend	-9.1476
o	-9.14892
▁resectieranden	-9.15104
▁darmslijmvlies	-9.15912
6	-9.15932
▁Verder	-9.15939
▁ROS	-9.16029
Mutatie	-9.16185
▁Galblaas	-9.16197
▁anus	-9.16346
▁Re	-9.16384
▁psoriasis	-9.166
▁gastropathie	-9.16619
▁Beenmergbiopt	-9.16627
▁actief	-9.16666
▁profiel	-9.16671
▁variant	-9.16893
geen	-9.17247
▁totaal	-9.17662
▁variatie	-9.17733
▁Shave	-9.17738
▁plasmacellen	-9.18221
▁uitspraak	-9.18238
]2	-9.18259
▁lymfoide	-9.18481
▁Cervix	-9.18567
▁Aanvullende	-9.1872
▁craniaal	-9.18749
▁a	-9.18772
type	-9.18978
▁papillomatosus	-9.19037
▁bedraagt	-9.19081
▁14	-9.19209
▁differentiatie	-9.19292
positief	-9.19863
▁fragment	-9.19864
▁Tumor	-9.1998
▁basaal	-9.20068
▁preparaat	-9.20125
▁Diameter	-9.20328
zijdigheid	-9.20419
▁tubulovilleu	-9.20601
▁zal	-9.20693
met	-9.20796
▁behandeling	-9.21112
▁gelaat	-9.21132
▁NRAS	-9.21176
▁gebied	-9.21204
▁celarm	-9.21334
ranulatieweefsel	-9.21384
▁aspect	-9.21484
▁spierweefsel	-9.21495
▁galblaas	-9.21496
▁sereus	-9.21531
▁neusvleugel	-9.21604
▁casus	-9.21636
sinfiltraat	-9.21675
naast	-9.21753
mmuunhistochemie	-9.21925
▁laag	-9.21953
▁CMV	-9.21987
▁<	-9.2222
▁scapula	-9.22418
curettage	-9.22636
fragmenten	-9.22707
ie	-9.22752
▁reexcisie	-9.22868
▁kin	-9.22878
▁gefragmenteerd	-9.23032
verruceuze	-9.2317
▁̄de	-9.23271
▁caudaal	-9.23302
▁suggestief	-9.23586
klinisch	-9.2367
▁endocervicaal	-9.24025
▁lastig	-9.24043
▁Gering	-9.24063
VI	-9.24224
▁Huidstans	-9.24265
▁abcederende	-9.24453
▁16	-9.2449
▁hand	-9.24498
▁mammaweefsel	-9.24581
▁fibroserende	-9.24734
▁bovenlip	-9.2502
▁adeno	-9.25114
ezien	-9.25181
▁romp	-9.25385
▁duodenumbiopten	-9.25678
▁D	-9.25743
▁0,5	-9.25791
▁schade	-9.25811
▁translocatie	-9.26076
▁cholelithiasis	-9.26159
▁uitgesproken	-9.26182
▁verkregen	-9.26255
▁pretibiaal	-9.26264
-)	-9.26569
▁curettage	-9.27252
▁13	-9.27283
▁betrouwba	-9.27488
▁veranderd	-9.27492
▁19	-9.27666
kleuring	-9.27873
▁opruimreactie	-9.27934
▁BRCA	-9.27968
▁Invasiediepte	-9.28053
▁30	-9.28155
▁appendix	-9.28372
H	-9.28413
▁tumorvrij	-9.28527
Resectievlakken	-9.28997
▁drie	-9.29086
▁Bethesda	-9.29093
▁ruim	-9.29186
▁tegen	-9.29445
▁lymfangio	-9.29736
▁multipel	-9.29748
plaveiselcellige	-9.29757
▁expressie	-9.29785
▁mediaan	-9.30002
▁virale	-9.30172
▁gaarn	-9.30196
▁ooghoek	-9.30196
deels	-9.30202
▁2.	-9.30596
▁ingreep	-9.30633
▁Met	-9.30693
▁tepel	-9.31086
▁radicaliteit	-9.31087
▁pleuravocht	-9.31118
▁kuit	-9.31147
▁oorschelp	-9.31151
▁Slijmvliesbiopt	-9.31402
▁bijzonderheden	-9.31537
▁detrusor	-9.31586
▁proximaal	-9.31645
▁welke	-9.32043
▁via	-9.32171
▁aantal	-9.32175
▁metastasen	-9.32392
sactiviteit	-9.32425
▁speekselklier	-9.32837
▁1:	-9.32939
▁basale	-9.32963
▁geruptureerde	-9.33028
▁CONCLUSIE	-9.33055
▁lab	-9.33064
curettement	-9.33155
▁Huidresectie	-9.3316
▁PAS	-9.33203
▁plaveiselcellig	-9.33294
sch	-9.3331
▁U	-9.3342
▁bovenrug	-9.33535
▁bil	-9.33538
▁colonbiopten	-9.33712
▁uitgevoerd	-9.33869
▁oesofagitis	-9.33874
▁PCR	-9.3404
▁Deze	-9.34135
▁klier	-9.34137
AANVULLEND	-9.34174
.(	-9.34182
specifieke	-9.34213
ste	-9.34517
▁Z	-9.34553
Neu	-9.34555
▁helicobacter	-9.34657
▁ingroei	-9.34695
K	-9.34752
filtratiediepte	-9.34825
▁adnex	-9.35151
actieve	-9.35159
▁nodularis	-9.35287
▁E	-9.35444
▁been	-9.35463
▁zijsnijvlak	-9.35768
▁Liquor	-9.35781
▁punctaat	-9.35786
2/	-9.36125
▁spreidend	-9.36236
▁context	-9.36245
▁*******:	-9.36262
▁uitsluiten	-9.36267
▁uiteinden	-9.36282
▁structuren	-9.36592
▁relatie	-9.36697
▁v	-9.36804
▁onderzochte	-9.37124
▁oorzaak	-9.37208
Stv	-9.37211
▁Klinisch	-9.37276
▁Gleasonscore	-9.37297
▁immuunhisto	-9.37336
▁urotheel	-9.37382
▁scalp	-9.3741
▁vet	-9.37673
analyse	-9.37724
▁beoordeeld	-9.37745
chemische	-9.37777
biopsie	-9.378
▁(1)	-9.37935
▁random	-9.37969
onderzoek	-9.38007
▁uiteinde	-9.3818
ndien	-9.38221
▁25	-9.38334
▁Echogeleid	-9.38726
▁schouderblad	-9.38761
onder	-9.38802
ALE	-9.38828
gen	-9.3909
ng	-9.39112
▁toegenomen	-9.3918
▁was	-9.39196
▁HP	-9.39454
▁kerato	-9.39481
▁vulva	-9.39639
▁lamblia	-9.39668
▁maligna	-9.39671
▁annulare	-9.39674
supraclaviculair	-9.39678
▁pati	-9.39732
punctaat	-9.3979
▁atrofisch	-9.40205
▁necrotiserende	-9.40329
▁poliepen	-9.40379
▁(2)	-9.40615
▁gehe	-9.40669
▁aangegeven	-9.40678
▁simplex	-9.41179
▁Slijmvlies	-9.4118
▁coupe	-9.41202
▁22	-9.41286
punctie	-9.41303
acanthoom	-9.41629
▁hiervan	-9.417
▁stansbiopt	-9.41765
Oesofagusbiopten	-9.41852
▁BERICHT	-9.42194
▁oppervlak	-9.42221
▁lobulair	-9.42303
incontinentie	-9.42645
▁Naaldbiopt	-9.42691
NTAL	-9.42706
▁oedeem	-9.42751
▁helix	-9.42801
▁Is	-9.43083
▁grensvlaknaevus	-9.43226
tumor	-9.43452
▁chirurgie	-9.43751
▁locatie	-9.43796
▁thoracaal	-9.43852
▁Radicaal	-9.43876
▁behoe	-9.44151
2;	-9.44294
▁besproken	-9.44303
▁VI	-9.44321
▁pancreas	-9.44588
AA	-9.44672
▁heeft	-9.44793
▁matuur	-9.448
▁scheenbeen	-9.44915
▁aanvulling	-9.45023
NGS	-9.45334
▁lymfo	-9.45376
▁lengte	-9.45409
▁digitus	-9.45441
raag	-9.45566
▁interpretatie	-9.45843
▁bovenkwadrant	-9.45854
▁ongewijzigd	-9.45877
▁hypertrofische	-9.46197
reactie	-9.46265
▁nasi	-9.46378
▁biologisch	-9.46386
▁bot	-9.4639
▁sessiel	-9.46408
▁metaplastisch	-9.46459
▁overwegingen	-9.46507
▁antrumtype	-9.46839
▁beperkt	-9.47043
▁h	-9.4727
▁(8	-9.47369
▁serrated	-9.47453
▁erosieve	-9.47468
▁proximale	-9.47505
▁duidelijk	-9.47559
▁DEFINITIEF	-9.47568
▁duiden	-9.47599
▁tumorpositief	-9.47632
▁tubae	-9.47846
▁zone	-9.48121
▁maagtype	-9.4816
▁2,5	-9.4817
▁RET	-9.48171
HER	-9.48193
rest	-9.48449
▁onderooglid	-9.48473
▁mid	-9.48491
▁diffuse	-9.48535
▁granulerende	-9.48557
▁18	-9.48594
rs	-9.48706
▁Materiaal	-9.49003
▁grote	-9.49047
▁Ascites	-9.49118
▁degeneratieve	-9.49134
over	-9.49261
▁cysteuze	-9.49457
▁bevestigd	-9.49686
▁micronodulair	-9.49782
▁voet	-9.50001
▁intern	-9.50034
onderverdelingen	-9.50124
▁Centrum	-9.50177
▁tractus	-9.50179
▁Histologisch	-9.50304
on	-9.50325
▁interstitiele	-9.5044
▁onderscheid	-9.50448
▁z	-9.50529
▁Lisexcisie	-9.50784
▁lumbaal	-9.50831
▁Hodgkin	-9.50892
▁bronchus	-9.50896
▁massa	-9.50901
▁17	-9.51057
▁nier	-9.51114
▁Snijranden	-9.51361
8	-9.51466
▁neuspunt	-9.51528
▁21	-9.51583
OOM	-9.51738
▁activiteit	-9.51789
▁verband	-9.51862
▁GEEN	-9.52158
▁beschouwen	-9.52419
BBL	-9.5242
▁compleet	-9.52425
▁labium	-9.52518
▁geadviseerd	-9.52989
▁waarop	-9.53012
Op	-9.53039
▁adnexen	-9.53173
▁ERBB	-9.5322
endocriene	-9.53222
Biopt	-9.53363
▁hetgeen	-9.5341
▁doorsnijden	-9.53561
▁BCL	-9.53725
▁Oesophagusbiopt	-9.53811
dysplasie	-9.53997
▁verrukeuze	-9.54154
▁Bronchus	-9.54442
▁1).	-9.54626
▁verrichte	-9.54723
▁Oppervlakkig	-9.54725
▁extranoda	-9.54751
hals	-9.54799
fluorescentie	-9.55093
▁ontbreken	-9.55295
hyperpigmentatie	-9.55297
▁oesophagitis	-9.55313
▁ingezet	-9.55321
▁parakeratose	-9.55345
▁normocellulair	-9.55441
20	-9.55758
▁Curettage	-9.5588
▁verzoek	-9.5588
▁IgA	-9.55892
▁ischemie	-9.55898
▁pleiomorf	-9.55905
beeld	-9.56192
▁segment	-9.56219
▁node	-9.56341
▁klierbuizen	-9.56512
score	-9.56545
▁lymfoid	-9.5665
▁slijm	-9.5686
▁aankleuring	-9.57073
▁PD	-9.57074
normale	-9.5751
▁behouden	-9.57666
▁Kan	-9.57714
▁ongev	-9.57757
▁fibroom	-9.57762
▁ml	-9.57897
Uterusextirpatie	-9.57992
▁eveneens	-9.58266
eerd	-9.58277
▁celmateriaal	-9.58278
▁perforatie	-9.58279
▁et	-9.58319
▁WHO	-9.5844
▁randen	-9.58686
▁al	-9.58709
▁glandula	-9.58843
7	-9.58852
▁separaat	-9.5887
▁architectuur	-9.58891
▁minimaal	-9.58927
▁net	-9.58947
ontsteking	-9.58998
Nieuwe	-9.59009
Invasie	-9.59012
▁beschadigde	-9.59274
▁sinus	-9.59311
jw	-9.5946
▁Whipple	-9.59484
▁Foca	-9.5956
▁compact	-9.59685
▁Dunne	-9.597
▁richting	-9.59913
▁pyogenicum	-9.60068
▁Cristabiopt	-9.60107
hr	-9.60395
ic	-9.60548
reticulaire	-9.60667
▁voldoende	-9.60702
▁opzicht	-9.60721
AANVULLING	-9.60827
▁verhoornend	-9.60849
▁gepigmenteerde	-9.60916
▁MMR	-9.60962
▁Uterus	-9.60963
▁oude	-9.60967
Aanvullende	-9.61088
▁Maagantrum	-9.61089
is	-9.61193
▁ontstaan	-9.61343
▁prurigo	-9.61391
▁apex	-9.61408
▁af	-9.61463
▁acuta	-9.6192
▁plaats	-9.61955
▁Colon	-9.61976
▁Pathologie	-9.62057
▁EBUS	-9.6207
Uitslag	-9.62115
Her	-9.62119
▁hebben	-9.62545
▁solair	-9.62569
▁gram	-9.6257
▁myometrium	-9.62582
▁typering	-9.62708
van	-9.6293
▁pipelle	-9.62985
▁endometriose	-9.63019
▁doch	-9.63189
▁sneevlak	-9.63237
proliferatie	-9.63334
ectomie	-9.63384
▁nadere	-9.6355
▁hr	-9.63613
▁geven	-9.63828
▁verlies	-9.63854
▁mucineus	-9.63911
intern	-9.64025
voorhoofd	-9.6403
▁W	-9.64037
▁(3	-9.64179
▁typisch	-9.64179
▁acti	-9.64232
▁specificiteit	-9.64444
▁mediastinum	-9.64468
adenocarcinoom	-9.64469
prostaat	-9.64578
ische	-9.6478
▁naaldbiopt	-9.64823
▁interesse	-9.65085
▁ronde	-9.65269
Bethesda	-9.6532
Excisie	-9.6549
▁overwegen	-9.6552
js	-9.65737
▁Punctaat	-9.65844
verende	-9.65874
sreactie	-9.6597
▁hematopoese	-9.66383
marge	-9.66432
▁lisexcisie	-9.66592
▁overleg	-9.6684
▁resten	-9.66894
vasculaire	-9.66916
▁fibreus	-9.67044
▁hierover	-9.67058
i	-9.6716
▁NST	-9.67199
micro	-9.67257
histiocytaire	-9.67397
▁geA	-9.67632
"	-9.67638
▁ziekenhuis	-9.67691
▁lupus	-9.67716
▁kapsel	-9.67744
▁afstand	-9.67805
cf	-9.67883
▁indien	-9.67929
cilinderepitheel	-9.67986
▁fragmentjes	-9.68102
▁grond	-9.68203
▁beenmergbiopt	-9.68372
▁inzendingen	-9.68407
▁TUMOR	-9.68482
gewicht	-9.6863
▁erythema	-9.68735
▁gewicht	-9.68743
aire	-9.68802
▁haarfollikel	-9.68941
rh	-9.69012
▁propria	-9.69024
▁neurofibroom	-9.69025
▁elleboog	-9.69047
▁blasten	-9.69074
▁vanwege	-9.69571
▁oncogene	-9.69709
▁poliepeus	-9.69723
▁pols	-9.69774
▁milde	-9.69799
▁prostaatweefsel	-9.69823
glandulaire	-9.69876
▁calcificaties	-9.70038
▁necrotisch	-9.70064
▁per	-9.7028
▁mesotheel	-9.70373
▁bijschildklier	-9.70398
▁afdeling	-9.70401
▁hierbij	-9.70419
▁reflux	-9.70516
▁hypercellulair	-9.70704
▁hyperplastisch	-9.70752
600	-9.7077
▁betekenis	-9.71066
▁middels	-9.71074
▁perifeer	-9.71113
▁poliepje	-9.71119
▁mede	-9.71286
▁sigmoA	-9.71357
▁IgG	-9.71818
▁IDH	-9.7186
▁MSI	-9.71881
IK	-9.71953
▁onderbuik	-9.7196
▁respons	-9.72125
▁overweging	-9.72387
maal	-9.72406
▁Nodulair	-9.72422
▁geduid	-9.72448
▁0,1	-9.72526
lymf	-9.72902
▁plaveiselepithe	-9.7299
▁3)	-9.73143
▁infectieuze	-9.73144
▁paramediaan	-9.73197
▁stemband	-9.73283
▁auto	-9.73439
▁Huidbiopten	-9.73537
▁verspreid	-9.7355
▁extirpatie	-9.73796
Bls	-9.73819
Next	-9.73824
▁gaat	-9.73844
▁clavicula	-9.73886
toch	-9.73888
eds	-9.74099
▁pleura	-9.74268
melijk	-9.74323
▁Poliep	-9.74482
▁ja	-9.74526
▁papillomateuze	-9.74539
ER	-9.74692
clusief	-9.74717
▁Marge	-9.7472
▁aspiratie	-9.74769
Advies	-9.74874
▁lymfeklieren	-9.74907
▁aanvraag	-9.74945
cm	-9.75179
▁gezichtspunten	-9.75229
codon	-9.75233
▁darmziekte	-9.75243
▁sarcoom	-9.75332
▁Huidcurettage	-9.75421
▁Breslow	-9.75433
▁pathologisch	-9.75494
▁35	-9.75641
euze	-9.75717
▁1,2	-9.75877
anaal	-9.75877
▁laesies	-9.75931
▁consultatie	-9.75951
▁cervixbiopt	-9.75962
▁Door	-9.75976
door	-9.76278
eration	-9.7644
?).	-9.76495
▁metastatisch	-9.76694
▁subcutaan	-9.76722
▁vaten	-9.76726
▁musculus	-9.7673
ISO	-9.76928
▁rond	-9.77069
calcificaties	-9.77083
▁TTF	-9.7712
▁Mammareductie	-9.77392
▁verlittekening	-9.77401
▁dubieus	-9.77422
▁HR	-9.77428
▁alleen	-9.77439
▁talgklier	-9.77751
▁dikke	-9.77897
ter	-9.77933
▁uitsluiting	-9.78122
▁rondom	-9.78131
▁sarcoidose	-9.78131
▁suboptimaal	-9.78132
▁glomeruli	-9.78136
▁iliaca	-9.78149
▁morfologie	-9.7818
▁Derhalve	-9.78191
▁inactief	-9.78195
▁mogelijkheid	-9.78203
▁acinair	-9.78223
▁peritoneum	-9.78247
gezonden	-9.78301
▁laboratorium	-9.78379
▁gevolg	-9.78462
▁komt	-9.78857
▁solaris	-9.78864
▁combinatie	-9.78864
▁groten	-9.7888
▁cavum	-9.7889
▁infiltratief	-9.78918
▁gedetecteerd	-9.78927
▁Excisiebiopt	-9.78939
▁tumoren	-9.78967
▁geneesmiddelen	-9.78994
partiele	-9.79063
▁chroniciteit	-9.79071
▁foetal	-9.7909
▁gebruik	-9.7917
PD	-9.7924
tische	-9.7928
inverted	-9.79403
▁geeft	-9.79608
▁K	-9.79677
▁subcutane	-9.79702
▁krapst	-9.79709
▁50%	-9.79875
▁NM	-9.80073
▁oud	-9.8016
▁herhalen	-9.80344
▁fragmentje	-9.80344
▁aanduiding	-9.80352
▁beschouwd	-9.80355
▁Echter	-9.80391
▁toxicodermie	-9.80391
▁proliferatieve	-9.80522
ND	-9.80596
▁2)	-9.80828
▁papel	-9.80861
▁para	-9.80912
▁geisoleerd	-9.81091
▁preauriculair	-9.81201
▁Vriescoupe	-9.81253
cs	-9.81268
▁Definitief	-9.81297
▁mycose	-9.81815
iding	-9.81851
▁elastose	-9.81902
▁(2	-9.81903
angio	-9.8193
▁Representatief	-9.81934
▁(*******):	-9.81944
para	-9.81987
▁rectosigmoid	-9.8204
▁wegen	-9.82054
▁kruin	-9.82113
coeur	-9.82324
uteriene	-9.82587
▁binnen	-9.82589
Vooralsnog	-9.82612
?)	-9.82653
▁epidermiscyste	-9.82685
▁cho	-9.82707
▁testis	-9.82711
▁zwangerschaps	-9.82926
mede	-9.83134
▁vier	-9.83255
▁AD	-9.83277
▁Appendix	-9.83278
▁mesothelioom	-9.83291
▁fusie	-9.83323
▁2).	-9.83332
▁aangevraagd	-9.83383
▁leiomyomen	-9.8339
▁Schildklier	-9.83418
▁gisten	-9.8346
▁recente	-9.83829
▁IN	-9.8387
▁juist	-9.83941
▁microsatelliet	-9.84044
Ontstekingsbeeld	-9.84174
▁heup	-9.84184
EN	-9.8435
▁circa	-9.84379
metastase	-9.84435
baar	-9.84582
diagnostisch	-9.84667
Een	-9.84793
▁receptor	-9.84915
▁Tuba	-9.84994
▁puntjes	-9.8503
diagnose	-9.8513
▁on	-9.85138
▁patiente	-9.85185
▁40	-9.85243
-2	-9.85282
▁(0	-9.85478
▁dermatose	-9.85503
dat	-9.85574
▁spongiose	-9.8575
▁opsnijden	-9.85761
▁Beenmerg	-9.85857
▁Aan	-9.85907
▁snijrand	-9.86367
▁inzage	-9.86519
▁miljoen	-9.86524
resectievlak	-9.86625
▁bulbus	-9.86629
▁MLH	-9.86677
▁aanle	-9.8687
sigmoid	-9.86911
TUMOR	-9.87064
WHO	-9.87065
▁gland	-9.87111
status	-9.87148
▁dunnedarm	-9.87221
▁0,6	-9.87241
KSF	-9.87319
niet	-9.87323
Gly	-9.87338
▁0,8	-9.87381
▁b	-9.8743
lecystolithiasis	-9.87448
ARD	-9.87473
▁endocervix	-9.87584
▁Ter	-9.87677
▁Oesophagus	-9.8782
▁pseudo	-9.87879
▁verandering	-9.88017
▁digestivus	-9.88121
▁dankzegging	-9.88125
text	-9.88128
+	-9.88135
anks	-9.88173
▁minste	-9.88203
▁0,2	-9.88265
immuun	-9.88267
▁bovenstaande	-9.88282
Hodgkin	-9.88693
klasse	-9.88699
r	-9.88876
▁retro	-9.88909
▁ductus	-9.88967
▁omentum	-9.89001
▁negatieve	-9.89013
▁intestinaal	-9.89083
▁progesteron	-9.89097
▁Celrijke	-9.89365
▁n	-9.89495
q	-9.89576
▁o	-9.89669
▁Accreditatie	-9.89758
▁lentigineuze	-9.89772
▁fase	-9.89836
▁gevolge	-9.8986
▁huidbiopten	-9.89919
▁gr	-9.90169
▁Duodenums	-9.90188
▁vagina	-9.90404
▁ureter	-9.9048
▁longcarcinoom	-9.90545
▁geassocieerd	-9.90551
INVASIE	-9.90584
▁melanoma	-9.90589
▁zich	-9.90606
▁Lynch	-9.90606
▁staat	-9.90607
▁doorgroei	-9.90614
▁0,3	-9.90671
▁ziekte	-9.90822
14:	-9.90862
▁schimmel	-9.90931
▁geassocieerde	-9.91027
3:	-9.91392
▁keratoacanthoom	-9.91463
▁daarbij	-9.91504
▁abdomen	-9.91538
▁daarin	-9.91615
1.	-9.91615
▁brush	-9.91652
wang	-9.91661
▁deposities	-9.91671
▁procedure	-9.91678
▁apocriene	-9.91694
▁wisselende	-9.92045
▁topografie	-9.92061
▁erosie	-9.92117
▁resultaat	-9.92259
▁kwaliteit	-9.92265
▁0,4	-9.92269
▁discrete	-9.92272
▁temporalis	-9.92282
▁beschreven	-9.9229
Bronchusspoeling	-9.92356
▁gemarkeerde	-9.92451
▁curettement	-9.92477
y	-9.92488
O	-9.9256
▁Twee	-9.93005
▁cel	-9.93022
ascendens	-9.93036
NVE	-9.93108
▁sequencing	-9.93138
▁MSH	-9.93158
▁erytrocyten	-9.93261
▁pityriasis	-9.93972
▁hrHPV	-9.93992
at	-9.94004
▁hiervoor	-9.94012
heid	-9.94041
▁wand	-9.94071
▁nabij	-9.94211
▁parietaal	-9.94219
▁(1	-9.94232
▁uitstrijk	-9.94378
effect	-9.94485
iets	-9.9473
▁Pap	-9.94768
▁uitrijpend	-9.94847
▁Hoe	-9.94886
▁paranasaal	-9.94958
▁volgende	-9.94964
▁zijwand	-9.94968
▁3).	-9.95037
keursdiagnose	-9.95187
▁Q	-9.95231
16:	-9.9528
▁toe	-9.95357
▁perivasculair	-9.9559
▁reuscelreactie	-9.95627
13	-9.95634
poliep	-9.95711
▁percentage	-9.95714
▁verwijzing	-9.95727
17	-9.95796
▁gedilateerde	-9.9585
▁enig	-9.95887
▁sentinel	-9.95893
▁middel	-9.95895
CA	-9.95907
3/*******/	-9.95965
▁heldercellig	-9.95999
▁man	-9.9605
lijn	-9.96289
▁1/	-9.9638
▁algemeen	-9.96584
▁24	-9.96821
▁100%	-9.97058
▁zien	-9.97263
15	-9.97294
▁granuloom	-9.97336
▁Botbiopt	-9.97447
▁muscularis	-9.97455
JSL	-9.97459
▁vetnecrose	-9.97473
▁betrouwbaar	-9.97486
▁Medisch	-9.97537
▁Te	-9.97773
▁Duodenum	-9.97854
▁adequa	-9.9792
▁hart	-9.97924
zien	-9.97931
▁cell	-9.98151
Snijvlak	-9.98187
▁leukemie	-9.98385
▁uitrijping	-9.98408
▁buikwand	-9.98434
▁fund	-9.98515
corpus	-9.9866
11	-9.98678
dikte	-9.99051
▁ooglid	-9.99136
▁rejectie	-9.99253
▁flegmoneuze	-9.99281
ransformatiezone	-9.99403
▁vreemdlichaams	-9.99868
▁celrijke	-10.0002
LOY	-10.0016
▁mammareductie	-10.0016
Met	-10.0017
▁beginnend	-10.0021
▁mate	-10.0064
niercelcarcinoom	-10.0073
▁capillair	-10.0085
pas	-10.0085
18	-10.0087
Klinisch	-10.0094
ediagnosticeerde	-10.0102
▁moet	-10.0108
▁adenomyosis	-10.0109
▁FGFR	-10.0114
existente	-10.0117
▁frequentie	-10.0117
▁PIN	-10.0118
▁Slokdarmbiopten	-10.0119
▁dikte	-10.0123
▁breuk	-10.0141
▁linkerwang	-10.0142
cellen	-10.0146
▁patroon	-10.016
▁onregelmatig	-10.0163
Endometriumbiopt	-10.0167
▁secundaire	-10.0192
▁meerkernige	-10.0209
▁Benigne	-10.0209
▁axillair	-10.0215
VII	-10.022
▁deletie	-10.0223
ca	-10.0226
3):	-10.0236
▁tumorweefsel	-10.0249
lymfoom	-10.0272
▁MC	-10.0273
therapeutisch	-10.0277
▁gelijktijdi	-10.0294
rt	-10.0294
Skh	-10.0294
▁histologie	-10.0295
EHE	-10.0296
▁bevestiging	-10.0296
▁geinkte	-10.0299
neer	-10.0303
▁blue	-10.0303
▁MYC	-10.0309
▁cysteus	-10.0315
▁Wel	-10.0338
▁'	-10.034
▁dien	-10.0341
▁Mammabiopten	-10.0351
▁Na	-10.0356
▁Dieper	-10.0362
▁26	-10.0364
hondrodermatitis	-10.0367
Tevens	-10.0377
▁0,7	-10.038
▁7,	-10.0385
▁Voorkeur	-10.0385
▁trilineair	-10.0388
▁foci	-10.0388
MMA	-10.0389
▁Maligne	-10.0392
▁Bowenoide	-10.0396
ook	-10.0401
▁Nader	-10.0403
pT	-10.0423
3;	-10.0464
▁cardia	-10.0465
regio	-10.0471
▁afwezigheid	-10.0486
▁groeipatroon	-10.049
14	-10.0494
▁occipitaal	-10.0498
▁urticaria	-10.0508
X	-10.053
Lymfklierpunctie	-10.0531
▁>	-10.0543
dorsale	-10.0565
▁restant	-10.0568
respectievelijk	-10.057
▁merg	-10.0571
Dit	-10.0571
▁leeftijd	-10.0581
▁KIT	-10.0582
▁oestrogeen	-10.0584
▁onzeker	-10.0585
▁sternum	-10.059
▁bovenbuik	-10.0594
Galblaasresectie	-10.0617
*******	-10.0622
▁23	-10.0649
▁klassiek	-10.0666
EGFR	-10.0669
▁gegeven	-10.0671
▁amyloid	-10.0673
▁geexcideerd	-10.0676
▁lobulaire	-10.068
▁degeneratie	-10.0684
▁volume	-10.0686
▁plasmacel	-10.0687
▁crista	-10.069
▁aorta	-10.069
▁1)	-10.0695
kd	-10.0696
▁ala	-10.0702
INGEN	-10.0712
▁5%	-10.0739
▁wan	-10.0754
dermatitis	-10.0756
gezien	-10.0775
EEP	-10.0775
▁bestaat	-10.0776
▁jaar	-10.0776
▁etiologie	-10.0777
▁binnenzijde	-10.0791
▁achterzijde	-10.0792
▁28	-10.0847
▁Marsh	-10.0848
▁zijsnijrand	-10.0858
▁beschadiging	-10.086
cinoom	-10.0863
MD	-10.0867
]2.	-10.0867
▁tweede	-10.087
▁noemenswaardig	-10.0873
▁aantoonba	-10.0874
▁neutrofiele	-10.0874
▁moeilijk	-10.0876
▁significant	-10.0876
▁vraagstelling	-10.0877
▁Brush	-10.0877
▁blauw	-10.0878
▁(4	-10.088
▁genomen	-10.0885
▁27	-10.0893
ring	-10.0899
▁microscopisch	-10.0909
▁vriescoupes	-10.0918
▁goedaardige	-10.0928
19	-10.0929
EVI	-10.0951
▁letsel	-10.0961
ANDER	-10.0974
▁populatie	-10.0975
▁geanalyseerd	-10.0976
▁lichenoA	-10.0977
meer	-10.0979
▁ischemisch	-10.0981
▁obductie	-10.0983
▁darmbiopten	-10.0999
INGR	-10.1008
perifolliculitis	-10.1009
▁rechterwang	-10.1024
bijzijn	-10.1041
▁arteri	-10.1044
spoelvocht	-10.1067
▁anastomose	-10.1071
▁archief	-10.1074
▁LYMFKLIEREN	-10.1075
▁Stansbiopt	-10.1075
▁pigmentosus	-10.1077
▁effect	-10.1081
▁congenitale	-10.1083
▁anders	-10.1087
onderbeen	-10.111
▁exact	-10.1119
▁voorlopig	-10.1131
▁marges	-10.1139
▁100	-10.1166
▁lamina	-10.1176
▁administratie	-10.1176
▁cholesterolose	-10.1176
▁gehandhaafd	-10.1177
▁overlijden	-10.1177
▁macrofagen	-10.118
▁Matig	-10.1183
▁aspecifiek	-10.1183
ide	-10.1183
existent	-10.1183
▁hoofdhuid	-10.1189
▁externa	-10.1192
▁kappa	-10.1197
▁flexura	-10.1198
▁hele	-10.1213
▁slijmvliesbiopt	-10.1214
▁Zij	-10.1215
▁hoge	-10.1227
▁1,3	-10.1231
2)	-10.1233
mucosa	-10.1233
▁IHC	-10.1239
▁serosa	-10.1266
▁Warthin	-10.1279
▁cutaneum	-10.128
▁hepatica	-10.128
▁behoort	-10.128
▁onduidelijk	-10.1282
▁opgestuurd	-10.1284
grootste	-10.1284
uurs	-10.1285
▁normal	-10.129
▁langer	-10.1291
▁achterlip	-10.1292
▁stase	-10.1294
vitale	-10.1303
▁gefragmenteerde	-10.1315
een	-10.1317
parenchym	-10.1317
▁kraakbeen	-10.1322
▁margina	-10.1331
▁Cervixbiopten	-10.136
▁DEFINITIEVE	-10.137
ALK	-10.1383
▁gedaan	-10.1384
▁schimmeldraden	-10.1384
▁parasieten	-10.1387
▁aldaar	-10.1388
▁10%	-10.1389
▁ulceratieve	-10.1404
▁hotspots	-10.1406
▁rechterschouder	-10.1406
▁voorlip	-10.1413
h	-10.1435
▁varianten	-10.1436
hv	-10.1468
▁blijk	-10.1469
chemisch	-10.1472
▁(7	-10.1479
▁irritatie	-10.1482
mogelijk	-10.1488
▁chronicus	-10.1489
klierdissectie	-10.1502
▁TVU	-10.1507
▁vertex	-10.1508
▁allel	-10.152
10	-10.1527
▁Nierbiopt	-10.156
▁lage	-10.1562
aal	-10.157
▁transformatie	-10.1583
Kwaliteit	-10.1595
▁spectrum	-10.1596
▁steatose	-10.1597
▁graviditeit	-10.1598
▁dichtst	-10.1598
▁kalk	-10.1604
▁be	-10.1605
▁Richardson	-10.1606
▁Bloom	-10.1607
11;	-10.1611
▁bacterien	-10.1619
schimmelinfectie	-10.1627
um	-10.1642
▁29	-10.1643
▁nu	-10.1644
▁bepalingen	-10.1667
epitheelcellen	-10.1673
ende	-10.1675
▁dig	-10.1687
▁geindiceerd	-10.1703
▁inzichten	-10.1705
▁acanthose	-10.1705
▁atherosclerose	-10.1705
▁CDKN	-10.1707
▁hersenen	-10.171
proliferatieve	-10.1711
▁Adnex	-10.1711
extirpatie	-10.1713
▁penis	-10.1719
ulp	-10.172
▁Panel	-10.1724
▁0.	-10.1736
▁proliferatief	-10.1739
▁gastro	-10.1768
▁hyper	-10.1771
k	-10.1778
corpusslijmvlies	-10.1786
NM	-10.1792
▁zijrand	-10.1797
anwege	-10.1805
▁geval	-10.1812
▁inclusiecyste	-10.1812
▁cornu	-10.1812
▁loka	-10.1813
▁bevestigt	-10.1813
▁rosacea	-10.1813
▁Enkel	-10.1818
▁2,0	-10.1822
▁Rectumbiopten	-10.1824
▁VIN	-10.185
istomorfologisch	-10.1851
▁groot	-10.1856
▁Alle	-10.1886
15:	-10.1889
▁beh	-10.1903
▁cytologie	-10.1909
Blokje	-10.192
▁helicis	-10.1921
▁medisch	-10.1922
▁denken	-10.1922
▁reden	-10.1923
▁gemaakt	-10.1923
▁Huidexcochleaat	-10.1923
▁neuroom	-10.1924
▁behandelend	-10.1927
▁Gen	-10.1947
▁paraffine	-10.1963
▁2,	-10.198
▁maagcorpustype	-10.1988
PR	-10.2001
bovenbeen	-10.2002
▁0,9	-10.2032
CLASSIFICATIE	-10.2033
▁Resectieranden	-10.2033
▁mastopathisch	-10.2033
▁choledochus	-10.2033
▁ganglion	-10.2041
▁basaalcelcar	-10.2041
▁compatibel	-10.2043
▁Immuunhistochem	-10.2043
▁ductale	-10.2045
celpercentage	-10.2048
▁Cave	-10.2049
▁secundair	-10.205
▁tubulo	-10.2057
▁EUS	-10.2062
▁(0/1).	-10.208
stansbiopsie	-10.21
▁7:	-10.2116
▁pigmentatie	-10.2129
dissectie	-10.2139
▁Leverbiopt	-10.2143
▁navelstreng	-10.2144
blaas	-10.2144
nstrumenta	-10.2145
▁bekleed	-10.2145
▁myeloom	-10.2145
▁Borg	-10.2145
▁intestinaaltype	-10.2149
▁reuscellen	-10.2152
▁ventrale	-10.2153
Schimmelkleuring	-10.2154
AANVULLENDE	-10.2155
▁ingenomen	-10.2155
▁JBZ	-10.216
▁ablatio	-10.2163
▁mutatieanalyse	-10.2166
▁*******):	-10.2177
▁submucosa	-10.2186
▁2-	-10.2195
istopathologisch	-10.222
▁ver	-10.2222
▁gevoelig	-10.2223
▁achterwand	-10.2226
3)	-10.2232
ne	-10.2259
▁doorsneden	-10.2264
MOLECULAIR	-10.2267
reuscelreactie	-10.2267
uitslag	-10.2268
▁vanaf	-10.2276
▁krabeffecten	-10.2278
rectum	-10.2282
▁verwijderde	-10.2284
▁FNA	-10.2304
1-	-10.233
scomponent	-10.234
spoliep	-10.2341
▁prolifererend	-10.2341
▁micronodulaire	-10.2351
▁condyloma	-10.2373
▁vlokken	-10.2373
▁deferens	-10.2373
TYPE	-10.2374
▁fragmentatie	-10.2375
▁pneumonie	-10.238
▁endometrioid	-10.2381
▁gewenst	-10.2382
▁portale	-10.2382
▁beoordeelbare	-10.2382
▁AJCC	-10.2384
Snijvlakken	-10.2384
▁urethra	-10.2389
▁(<	-10.2395
▁myelo	-10.24
▁linkerschouder	-10.2404
▁BCC	-10.2407
▁Daar	-10.2435
mee	-10.2436
.35	-10.2438
▁verstoring	-10.2441
▁vorming	-10.2442
mucosale	-10.2458
TER	-10.2463
ed	-10.2467
4;	-10.2467
▁Levernaaldbiopt	-10.2477
▁hoe	-10.2479
▁mandibula	-10.2488
▁hepatitis	-10.2491
▁sampling	-10.2494
▁corpusbiopten	-10.2496
▁aanwezige	-10.2527
tumorlokalisatie	-10.253
fstand	-10.2581
▁depositie	-10.2602
▁Indi	-10.2607
▁nierbiopt	-10.2607
Zekerheidshalve	-10.2608
▁geneticus	-10.2608
▁adenose	-10.2611
▁diverticulitis	-10.2616
▁Eventue	-10.2617
Gleason	-10.262
consult	-10.2621
▁nefropathie	-10.2622
▁haargrens	-10.2622
▁APC	-10.2624
Overige	-10.2624
▁suspect	-10.2626
▁onderzocht	-10.2629
▁gescleroseerd	-10.2629
Appendixresectie	-10.2629
air	-10.2633
▁middenkwab	-10.2633
FISH	-10.265
antal	-10.266
<	-10.2663
▁spier	-10.2672
eel	-10.2673
pathologie	-10.2684
epitheliaal	-10.2711
▁Partie	-10.2718
▁Maagbiopt	-10.2719
▁gradering	-10.2721
chorioamnionitis	-10.2727
▁doorgesneden	-10.2727
stb	-10.2728
▁Vulvabiopt	-10.2728
▁cystadenoom	-10.2729
▁vitaal	-10.273
cytologie	-10.273
17:	-10.2758
▁fibrine	-10.2759
]1	-10.2783
▁diagnosen	-10.2805
▁interne	-10.2822
▁krabeffect	-10.2836
diagnosticeerde	-10.284
▁leverbiopt	-10.2845
▁vrouw	-10.2846
▁repair	-10.2846
▁zonbeschadigd	-10.2847
▁Plaatselijk	-10.285
DEFINITIEVE	-10.2863
Materiaal	-10.2863
▁dus	-10.2865
▁CTI	-10.2866
▁Minima	-10.2871
er	-10.2876
▁kleiner	-10.2886
10)	-10.2907
groei	-10.2925
basaalcel	-10.2926
▁zwak	-10.2933
▁38	-10.2939
intestinale	-10.2953
▁tong	-10.2955
se	-10.296
eku	-10.2969
jr	-10.2969
▁mismatch	-10.297
▁opgesneden	-10.2971
▁prolaps	-10.2971
▁tijdens	-10.2972
▁post	-10.2976
▁NOS	-10.2982
▁Dikke	-10.2983
▁ernstig	-10.2983
dd	-10.2983
gediagnosticeerd	-10.2984
▁geschat	-10.2987
2:	-10.2991
▁gebieden	-10.3016
▁idiopathisch	-10.3019
▁ovaria	-10.3041
acuut	-10.3081
▁embryona	-10.3089
▁peritonitis	-10.3093
▁spoeling	-10.3093
Sneevlakken	-10.3094
▁hoornmateriaal	-10.3094
▁radiculaire	-10.3094
▁mechanisch	-10.3097
▁3,5	-10.3098
▁sclerose	-10.3099
▁cervixpoliep	-10.31
▁ROK	-10.3102
▁Radicaliteit	-10.3104
▁bulleus	-10.3105
▁vooral	-10.3107
▁EBV	-10.3113
▁langs	-10.3131
▁Voorlopig	-10.3133
▁groep	-10.314
Z	-10.315
ingstechniek	-10.3151
zelfde	-10.3173
▁Oestrogeen	-10.3183
▁geneesmiddel	-10.321
▁verklaring	-10.3217
lomerulonefritis	-10.3218
Verkrijg	-10.3218
▁overleden	-10.3218
▁mitosen	-10.322
▁celgroepen	-10.3221
▁ware	-10.3225
colon	-10.3245
▁inflammatoir	-10.325
▁fors	-10.3252
▁bovenooglid	-10.3274
▁kans	-10.3275
▁Reexcisie	-10.3278
lp	-10.3289
naaldbiopt	-10.3309
▁vijf	-10.3328
CD	-10.3333
▁lip	-10.3335
▁infarcering	-10.3337
ostinflammatoire	-10.3337
▁gerelateerde	-10.3337
JTH	-10.3344
▁St	-10.3344
▁insectenbeet	-10.3345
▁subtiel	-10.3346
▁urotheelcellen	-10.3346
▁LBK	-10.3353
▁colonmucosa	-10.3354
▁hoogste	-10.336
▁complete	-10.3365
▁lambda	-10.3369
▁Vagina	-10.3375
▁mogelijke	-10.3392
▁coloncarcinoom	-10.3403
3,	-10.3421
component	-10.3448
epidermale	-10.3455
ard	-10.3463
▁Tubectomie	-10.3474
▁(100%)	-10.3475
DCIS	-10.3497
aanwijzingen	-10.3497
▁1,1	-10.3499
▁EM	-10.3501
▁50	-10.3511
▁even	-10.3519
▁40%	-10.3519
▁polyp	-10.3521
1).	-10.3549
▁"	-10.355
▁VII	-10.3559
▁ruime	-10.3562
▁huidafwijking	-10.3583
▁placentarest	-10.3589
sverschijnselen	-10.3602
▁betrekk	-10.3602
seq	-10.3602
▁Morb	-10.3603
88	-10.3604
▁maakt	-10.3604
▁genherschikking	-10.3604
▁waargenomen	-10.3606
▁littekenvorming	-10.3607
▁tongrand	-10.3607
▁s	-10.3607
▁laatste	-10.3611
▁uitgaand	-10.3612
▁RBK	-10.3613
▁gekend	-10.3615
cyste	-10.3615
▁MDS	-10.362
risk	-10.3622
temporaal	-10.3626
▁botbiopt	-10.3627
cutaan	-10.3629
▁3-	-10.3661
▁blokjes	-10.3663
W	-10.3703
▁erfelijk	-10.3709
▁herhaling	-10.3718
▁bewijs	-10.3734
▁herkenbaar	-10.3734
▁micrografi	-10.3734
▁beter	-10.3735
▁1,8	-10.3736
▁kon	-10.3737
▁Klass	-10.3738
▁myeloide	-10.3739
▁we	-10.3742
▁Mammabiopt	-10.3742
34	-10.3751
▁referentie	-10.3754
▁ons	-10.3767
▁opvallend	-10.3769
▁lymfocytair	-10.3771
▁x	-10.3773
▁transplantatie	-10.3778
▁vaatinvasie	-10.3794
▁histomorfologi	-10.3805
▁Over	-10.3808
villeus	-10.3808
test	-10.3816
ocaal	-10.3832
▁PDL	-10.3849
▁zijresectievlak	-10.3853
rw	-10.3857
▁Overige	-10.3857
ns	-10.3862
▁Excochlea	-10.3867
▁superficiA	-10.3868
▁adenomen	-10.3868
▁microkalk	-10.3868
▁arts	-10.3872
▁simpele	-10.3872
▁MDO	-10.3874
▁chromosoom	-10.3876
▁hypertrofe	-10.3878
▁stadium	-10.3882
▁36	-10.389
▁37	-10.3895
▁Endocervica	-10.3899
▁spoelcellige	-10.3902
▁cystewand	-10.3914
heel	-10.3919
IN	-10.3924
9	-10.3954
microscopische	-10.3971
ancer	-10.3997
▁angioom	-10.4002
▁wekedelen	-10.4003
▁telefonisch	-10.4004
▁assay	-10.4006
▁PPI	-10.4006
▁ostium	-10.4007
▁laat	-10.4008
▁lesie	-10.401
▁adenoid	-10.4014
▁purulente	-10.4024
ele	-10.4027
▁high	-10.403
schimmelkleuring	-10.4033
▁acantholytische	-10.4038
▁wisselend	-10.4041
▁CIS	-10.4044
▁plaatsen	-10.4058
slijmvliesbiopt	-10.4059
Huid	-10.4065
▁cysten	-10.4075
▁vanuit	-10.4096
79	-10.4122
▁polyposis	-10.4139
▁steun	-10.4139
aj	-10.414
neus	-10.4142
▁collageneuze	-10.4146
▁eiwitten	-10.4146
z	-10.4149
▁Long	-10.4149
▁PTEN	-10.415
▁therapiekeuze	-10.4155
▁subtype	-10.4156
▁huidlaesie	-10.4157
transversum	-10.417
klierweefsel	-10.4171
AIN	-10.4175
het	-10.4199
▁Helicobacters	-10.4201
19:	-10.4213
▁at	-10.4222
▁excisiebiopt	-10.424
erende	-10.4243
▁geworden	-10.4278
▁UITSLAG	-10.4279
▁VOORLOPIGE	-10.4279
▁geld	-10.4279
▁fibreuze	-10.4282
▁vastgesteld	-10.4284
▁lichaamsvreemd	-10.4285
▁solitair	-10.4286
▁positiviteit	-10.4286
▁perifere	-10.4288
▁bowenoide	-10.4288
▁ontstekings	-10.4296
▁2):	-10.4297
▁macroscopisch	-10.4304
▁groter	-10.4311
endocrien	-10.432
rale	-10.4358
extraprostatisch	-10.437
▁20%	-10.4379
▁colonpoliep	-10.4387
Immuunhistochemi	-10.4413
▁bijnier	-10.4415
▁Verruca	-10.4419
▁resultaten	-10.4419
DIGHEID	-10.4419
gediagnostiseerd	-10.442
▁Acute	-10.4421
▁trofoblast	-10.4421
▁extensie	-10.4421
▁minus	-10.4421
▁PMS	-10.4423
▁caudale	-10.4424
▁promotor	-10.4433
▁EORTC	-10.4435
▁MAP	-10.4437
pipelle	-10.4451
▁31	-10.4452
▁par	-10.4453
▁1,4	-10.4453
lateral	-10.4455
Marsh	-10.4455
conform	-10.4456
satypie	-10.4475
▁bestaand	-10.4475
activiteit	-10.4482
atische	-10.4488
excisiepreparaat	-10.4495
▁ileumbiopten	-10.4495
▁mola	-10.4508
0.	-10.452
▁(*******)	-10.4526
▁chole	-10.4527
18:	-10.4532
▁darmtype	-10.4551
▁glad	-10.4556
▁acuminatum	-10.4562
▁majus	-10.4562
▁angiolipoom	-10.4562
▁bepalen	-10.4562
▁Ampli	-10.4568
▁retroauriculair	-10.4572
▁BIRADS	-10.4576
▁achterhoofd	-10.4578
▁Hotspot	-10.4582
▁lumpectomie	-10.4587
▁prominente	-10.4593
▁longen	-10.4594
structuren	-10.46
topografie	-10.46
minder	-10.4602
GROEI	-10.4602
▁beschadigd	-10.4609
▁radiologisch	-10.4615
▁ander	-10.4618
Val	-10.4619
resectievlakken	-10.4659
▁spontaan	-10.4663
oet	-10.4688
roup	-10.4695
asus	-10.4703
ZIJ	-10.4707
▁teratoom	-10.4707
▁toezending	-10.4707
▁lijken	-10.4707
▁hematurie	-10.4709
laesie	-10.471
▁clonale	-10.4711
▁essentie	-10.4711
▁craniale	-10.4712
▁histiocytoom	-10.4714
▁resp	-10.474
▁grade	-10.4754
▁kenmerkend	-10.4773
evel	-10.483
▁ventrikel	-10.4834
esultaat	-10.4835
▁keratocyste	-10.4851
▁duodeni	-10.4854
▁naevi	-10.4854
▁valt	-10.4854
▁transmurale	-10.4854
▁posterior	-10.4856
▁zijsnijvlakken	-10.4857
ageren	-10.4863
▁proficient	-10.4864
▁materna	-10.4866
▁trauma	-10.4868
▁cutane	-10.487
▁zijsnijranden	-10.4881
Tumordiameter	-10.4886
METASTASEN	-10.4891
▁overgevoe	-10.4897
▁gesteld	-10.4906
▁toxisch	-10.4913
appendicitis	-10.4926
▁lokalisaties	-10.4948
tenzij	-10.4953
▁sluit	-10.4986
▁parenchym	-10.5002
▁synovium	-10.5002
©	-10.5003
▁spermatozoa	-10.5003
lymforeticulaire	-10.5006
▁Ileumbiopten	-10.5007
▁milt	-10.5008
▁Mammapunctie	-10.5008
▁Lumpectomie	-10.5012
▁informatie	-10.5012
▁controle	-10.5023
▁LOK	-10.5025
buik	-10.5034
inhoud	-10.5034
▁CTN	-10.5037
Variant	-10.5039
▁weefselfragment	-10.5039
▁anterior	-10.5042
▁and	-10.5042
▁levert	-10.5042
ligheidsreactie	-10.5047
▁top	-10.5049
▁infectieus	-10.5053
spontaan	-10.5057
▁os	-10.506
invasief	-10.5063
▁zij	-10.5065
rechteronderbeen	-10.5073
!	-10.5073
▁potje	-10.5074
vaatproliferatie	-10.5081
▁vaat	-10.5119
▁kaak	-10.5122
cysteuze	-10.5126
▁onderkaak	-10.5136
▁Duodenumbiopt	-10.5143
▁LE	-10.5147
▁aandoening	-10.515
JBE	-10.5154
▁reading	-10.5154
▁gereviseerd	-10.5155
▁macroscopie	-10.5155
▁crusta	-10.5155
▁opnieuw	-10.516
▁genereren	-10.516
▁psoriasiforme	-10.5161
▁middermaal	-10.5162
TK	-10.5163
▁maken	-10.5165
▁(12	-10.517
▁Lymfklierbiopt	-10.5189
▁lymfoA	-10.5196
▁Mutatie	-10.5201
▁oorspronkelijk	-10.5201
▁inder	-10.5202
▁1/3	-10.5208
differentiatie	-10.5217
ts	-10.5233
rmale	-10.5269
▁grootcellige	-10.5273
cystolithiasis	-10.5284
▁0).	-10.5289
▁+3	-10.5292
▁reeks	-10.5295
▁puntje	-10.5298
▁MOLECULAIR	-10.5299
▁liquor	-10.5308
▁behandeladvies	-10.5308
▁erythematosus	-10.5308
▁haematurie	-10.5308
▁cylindrisch	-10.5309
▁Krap	-10.5309
▁sclerotisch	-10.5311
▁overeen	-10.5311
▁Huidre	-10.5312
▁alopecia	-10.5312
▁megakaryocyten	-10.5315
▁NA	-10.5315
▁debris	-10.5315
▁ruptuur	-10.5316
▁antistoffen	-10.5316
▁gastrisch	-10.5316
15189	-10.5317
▁Blaas	-10.5319
▁dorsum	-10.5322
▁types	-10.5329
▁Chronische	-10.5329
▁NSAID	-10.5332
Tumor	-10.5335
▁cribriform	-10.535
kans	-10.5356
Mohs	-10.5359
Oestrogeen	-10.5362
NEN	-10.5362
maxima	-10.5366
▁33	-10.538
▁Lokalisatie	-10.5384
▁Spitz	-10.5386
ul	-10.5391
13:	-10.5395
▁Cytologi	-10.5399
segmentale	-10.5403
▁Corpus	-10.5416
▁betreffen	-10.5439
▁externe	-10.5455
rsi	-10.5461
▁beschrijving	-10.5464
▁verhoogd	-10.5465
▁candida	-10.5465
▁irradicaal	-10.5465
mucineuze	-10.5466
▁mesenchymale	-10.5466
▁sneevlakken	-10.5468
▁direct	-10.5469
enigszins	-10.5469
▁fistel	-10.5471
▁epitheelcellen	-10.5472
▁detecteert	-10.5472
sond	-10.5473
Tumortype	-10.5474
▁Crista	-10.5485
noch	-10.5489
deel	-10.5492
▁Maxima	-10.5495
IM	-10.5506
▁neuroendocrien	-10.5515
mediaan	-10.5516
▁voorzijde	-10.5516
VAF	-10.5519
uterusextirpatie	-10.552
▁nieuw	-10.5532
▁Immuun	-10.5534
▁Oesofagus	-10.5552
30	-10.5564
aste	-10.5568
AD	-10.5575
▁Curettement	-10.5623
▁inflammatie	-10.5624
▁mucocele	-10.5624
▁duodenitis	-10.5624
▁reusceltumor	-10.5625
▁decidua	-10.5625
▁buiten	-10.5627
▁navel	-10.5627
▁buizen	-10.5628
▁target	-10.5628
▁advies	-10.5629
▁ivm	-10.5629
▁halscyste	-10.563
▁leverweefsel	-10.563
▁celrijkdom	-10.5631
▁mammaparenchym	-10.5637
▁(5	-10.5641
▁palatum	-10.5643
daad	-10.5643
▁Uitgebreide	-10.5653
▁eosinofielen	-10.5659
eneuze	-10.5668
coecum	-10.5678
achtergrond	-10.5679
Arg	-10.568
▁klieren	-10.5681
peri	-10.5682
▁gerelateerd	-10.5695
carcinoma	-10.5703
▁30%	-10.5704
plaveiselcel	-10.5706
epithelioom	-10.5718
▁preparaten	-10.5719
aad	-10.574
ge	-10.5765
▁contagiosum	-10.5784
▁mastopathie	-10.5784
▁veroorzaakt	-10.5784
▁zuurv	-10.5788
▁botweefsel	-10.579
▁huidadnextumor	-10.5792
src	-10.5793
▁waren	-10.5794
▁ingesloten	-10.5795
119.	-10.5806
="	-10.5809
bovenarm	-10.5811
▁datum	-10.5811
folliculaire	-10.5811
▁amenorroeduur	-10.5815
▁sprietig	-10.5848
TKI	-10.585
▁endo	-10.5851
▁1,6	-10.5865
▁behaard	-10.5886
▁(3)	-10.5896
▁tricho	-10.5898
▁Focaa	-10.5903
▁Immuno	-10.5911
▁huidstansbiopt	-10.5917
▁39	-10.5922
mamma	-10.5933
min	-10.594
▁Weefsel	-10.5943
Glu	-10.5948
accredit	-10.5948
▁ondersteunt	-10.5948
cobas	-10.5948
▁onderkwadrant	-10.5949
▁pubis	-10.5949
▁darmlijden	-10.595
▁zouden	-10.5951
▁voorgelegd	-10.5951
▁collagene	-10.5956
▁Volledig	-10.5958
schouder	-10.5958
▁NTRK	-10.5962
▁blaashals	-10.5964
yelodysplastisch	-10.5975
▁FFPE	-10.5985
▁vol	-10.5997
reikend	-10.5998
fibroserende	-10.6009
recidief	-10.6009
midden	-10.6009
▁sub	-10.6013
▁complexe	-10.6015
▁dysplastisch	-10.6022
▁clonaliteits	-10.6023
▁TPS	-10.6027
▁vast	-10.6031
21	-10.6041
▁max	-10.6106
67	-10.6113
▁circulatie	-10.6115
▁error	-10.6115
▁mogelijkheden	-10.6115
▁opgevraagd	-10.6116
▁getroffen	-10.6116
▁radical	-10.6116
▁cilindrisch	-10.6117
▁bekken	-10.6118
▁huidbiopsie	-10.6118
▁papil	-10.6119
els	-10.6123
▁tonsil	-10.6127
▁huidexcisies	-10.6128
▁lineaire	-10.6128
▁tumorrest	-10.6133
▁Morfologisch	-10.6134
▁lichenoides	-10.6136
▁insufficientie	-10.6137
▁CNV	-10.6151
granuloomvorming	-10.6153
onwaarschijnlijk	-10.6154
▁keratine	-10.6155
▁EIN	-10.6155
mediale	-10.616
DIAMETER	-10.6174
revisie	-10.6179
KRAS	-10.6179
▁ulcererend	-10.6187
▁losse	-10.6193
del	-10.6208
7:	-10.6215
▁ab	-10.6229
▁vas	-10.6232
afwijkingen	-10.624
▁stukje	-10.6277
▁Resectievlak	-10.6278
▁molluscum	-10.6285
▁ascites	-10.6286
▁verklaren	-10.6286
▁bekledend	-10.6286
▁basaalmembraan	-10.6286
▁impetiginisatie	-10.6287
▁leiomyosarcoom	-10.6287
▁zes	-10.6288
▁schwannoom	-10.6289
▁kaaklijn	-10.6292
▁TERT	-10.6293
▁kaakrand	-10.6295
▁MDM	-10.6295
▁Wekedelen	-10.6306
▁dicht	-10.631
▁Kleuring	-10.6313
▁krappe	-10.6321
▁behorend	-10.6328
▁squamo	-10.6346
PS	-10.6347
▁bepaald	-10.6353
▁cave	-10.636
▁secretoir	-10.6366
▁crypt	-10.6419
periappendicitis	-10.6426
▁70	-10.6426
voorgeschiedenis	-10.6451
boven	-10.6451
▁helft	-10.6451
▁endometriosis	-10.6457
▁gevalideerd	-10.6458
▁toelichting	-10.6458
▁toonde	-10.646
▁intraductaal	-10.646
▁Normaal	-10.6462
▁zodat	-10.6463
▁4,5	-10.6465
▁Progesteron	-10.6469
▁insturen	-10.6473
▁snijden	-10.648
▁recidiverende	-10.648
▁Basaal	-10.6483
▁sequentie	-10.649
aortaal	-10.6497
▁junctione	-10.6499
▁linkerbovenbeen	-10.6503
▁anti	-10.6509
*	-10.6509
▁linkeronderbeen	-10.6511
Punctie	-10.6527
level	-10.6529
▁PI	-10.6548
▁Mammanaaldbiopt	-10.6551
▁34	-10.6559
1/	-10.6579
lomerulosclerose	-10.6579
▁perifolliculair	-10.6597
station	-10.662
eerde	-10.6622
▁studie	-10.6626
▁interna	-10.6629
matig	-10.663
aarschijnlijk	-10.6631
LOKALISATIE	-10.6632
▁submandibularis	-10.6632
▁regelmatig	-10.6633
▁BVO	-10.6633
▁Randen	-10.6633
▁gastrale	-10.6634
▁daarom	-10.6634
▁molle	-10.6635
▁gebiopteerd	-10.6637
▁Beide	-10.6639
▁PDGFRA	-10.6639
▁Sigmoid	-10.664
▁zwart	-10.6643
▁niveaus	-10.6647
▁fundus	-10.6648
▁presternaal	-10.6651
▁traject	-10.6654
▁rechtermamma	-10.6658
pontaan	-10.6668
▁celpopulatie	-10.667
TOT	-10.6683
▁vocht	-10.6683
biopsiemateriaal	-10.6683
▁arterie	-10.6686
▁poliepjes	-10.6686
▁vroege	-10.6693
Conform	-10.6707
gemedieerde	-10.6709
IHC	-10.671
▁goedaardig	-10.6712
▁pro	-10.6718
▁hypertrofisch	-10.6721
▁der	-10.6728
▁omgevend	-10.6743
▁ileumslijmvlies	-10.6751
▁junction	-10.6765
laaggradig	-10.6786
kin	-10.6797
preparaten	-10.6798
▁tumorlengte	-10.6802
▁planopilaris	-10.6811
▁geschikt	-10.6812
▁communis	-10.6812
▁fibromusculair	-10.6812
▁meerlagig	-10.6812
▁imponerend	-10.6813
▁Voldoende	-10.6814
25	-10.6814
▁gecombineerd	-10.6816
▁overigens	-10.6817
▁posterieur	-10.6818
▁oorlel	-10.6818
▁mondbodem	-10.6822
▁colorectaal	-10.6822
▁cilindercel	-10.6825
▁voetrug	-10.6828
▁reductie	-10.683
▁niveau	-10.683
▁globa	-10.6832
ao	-10.6834
verstoring	-10.6835
▁1,	-10.6842
▁Gefragmenteerde	-10.6846
▁5)	-10.6856
▁coli	-10.6861
xcisie	-10.6877
hun	-10.6882
▁maagantrumtype	-10.6884
">	-10.6943
13/*******/	-10.6955
stoornissen	-10.6965
4/*******/	-10.6966
23	-10.6976
▁collega	-10.6993
▁meningeoom	-10.6993
▁verknepen	-10.6993
▁Tepelvocht	-10.6993
▁panniculitis	-10.6993
▁cauterisatie	-10.6993
▁plaatepitheel	-10.6993
▁hepatocellulair	-10.6993
AHA	-10.6994
▁hybridisatie	-10.6994
▁maanden	-10.6996
▁lymfatisch	-10.7
▁hemicolectomie	-10.7002
▁submandibulair	-10.7002
▁TNM	-10.7002
▁genetisch	-10.7007
▁zijranden	-10.7022
▁1%	-10.7027
rechterbovenbeen	-10.7027
▁Bronchusbiopten	-10.7028
▁hemorragische	-10.7032
1:	-10.7035
lymfklier	-10.7041
▁hechting	-10.7046
▁teken	-10.7049
.34	-10.7071
2).	-10.7078
gens	-10.7083
VIII	-10.7119
▁GROEI	-10.7128
▁biopsies	-10.7132
ten	-10.7147
necrose	-10.7152
▁HE	-10.7166
karakteristieken	-10.7169
▁gestelde	-10.7171
▁aangeboden	-10.7178
▁anaplastisch	-10.7178
▁compound	-10.7178
▁diverticulose	-10.7178
▁stellen	-10.7178
▁multiforme	-10.7178
MBR	-10.7178
▁defect	-10.7179
▁dermatoloog	-10.7179
▁fungoides	-10.7179
▁lavage	-10.7179
▁bevatten	-10.718
▁mycosis	-10.7183
▁maturatie	-10.7185
Type	-10.7185
▁aspiraat	-10.7185
zonder	-10.7188
▁subacut	-10.7188
▁Celarm	-10.7189
▁flowcytometrie	-10.7189
▁paravertebraal	-10.7189
Immunohistochemi	-10.719
▁kaakhoek	-10.7191
▁Wigexcisie	-10.7196
uur	-10.7199
▁RNA	-10.7201
▁linkermamma	-10.7204
▁blaasslijmvlies	-10.7206
▁vlak	-10.7207
fragment	-10.7209
▁aangeleverde	-10.7226
patroon	-10.7243
▁BAL	-10.7244
▁SP	-10.7247
VCM	-10.7258
random	-10.7261
TTF	-10.7266
cylinderepitheel	-10.7281
metaplasie	-10.7284
_	-10.729
spoliepen	-10.7297
▁Celrijk	-10.731
▁the	-10.7317
clon	-10.7319
adenoom	-10.7321
▁stromal	-10.7324
uit	-10.7334
▁haard	-10.7349
▁stolsel	-10.7353
▁Assay	-10.7367
▁staven	-10.7367
▁̄rriteerde	-10.7368
▁mediastinale	-10.7368
▁familie	-10.7369
▁colontype	-10.7369
▁MYD	-10.737
▁omgeving	-10.737
▁immuunprofiel	-10.737
▁Bronchusbrush	-10.7371
▁chemotherapie	-10.7374
▁herkomst	-10.7374
microscopie	-10.7375
▁verwijde	-10.7375
▁femur	-10.7378
▁obturatorius	-10.7378
▁schildklierkwab	-10.7384
iteit	-10.7388
▁thoraxwand	-10.7389
▁GE	-10.7394
▁bovenste	-10.7396
▁derde	-10.7407
:12	-10.7407
▁linkerzijde	-10.7407
▁haarfollikels	-10.7408
▁apicaal	-10.7421
9/	-10.7428
ma	-10.7439
4):	-10.7449
?):	-10.7452
gelegen	-10.7453
Beeld	-10.7453
BRAF	-10.7454
snijvlak	-10.7461
▁anterieur	-10.7464
4);	-10.7475
▁TKI	-10.7478
▁extravasatie	-10.748
4:	-10.7481
▁02	-10.7498
2):	-10.7512
aesie	-10.7517
▁Lever	-10.752
▁huidig	-10.7536
▁epitheliaal	-10.7538
sn	-10.7541
▁vinger	-10.7548
▁foto	-10.7552
▁beschikbaar	-10.7559
▁irregulair	-10.7559
▁siliconen	-10.7559
▁HRAS	-10.756
▁Verwijdering	-10.756
▁gemodificeerd	-10.756
▁pancreaskop	-10.7561
columnair	-10.7561
▁hematoom	-10.7562
▁viraal	-10.7562
▁immature	-10.7563
▁protocol	-10.7564
▁flardjes	-10.7568
Cys	-10.7568
▁disease	-10.757
▁acanthoom	-10.7576
▁nasolabiaal	-10.7579
vorming	-10.7582
▁gemengd	-10.7589
▁LOH	-10.7594
▁lange	-10.7594
▁restmateriaal	-10.7606
▁cellulariteit	-10.7614
▁dubbelbrekend	-10.7619
▁vreemdlichaam	-10.7626
▁45	-10.7634
▁scleroserend	-10.7642
distaal	-10.7649
GEEN	-10.765
▁serie	-10.7661
RAD	-10.7666
▁duodenums	-10.767
6,	-10.7677
iepreparaat	-10.7677
▁Rectum	-10.7682
▁ijzer	-10.7704
▁Nieuwe	-10.7724
atie	-10.7724
1):	-10.7741
voorlopig	-10.7747
▁GNA	-10.7753
LYMFANGIO	-10.7755
▁curvatuur	-10.7755
▁Demodex	-10.7755
▁gehoorgang	-10.7755
▁lienalis	-10.7755
▁trichilemm	-10.7755
Differentiatie	-10.7755
▁tekst	-10.776
▁verwijdering	-10.7761
▁villitis	-10.7763
▁cristabiopt	-10.7765
▁blijvende	-10.7766
ROS	-10.7776
▁(6	-10.7779
▁2,2	-10.7781
▁rechterzijde	-10.7782
▁lis	-10.7787
athogene	-10.7792
gesteronreceptor	-10.7793
cellulaire	-10.7794
▁diepreikende	-10.78
wangerschapsduur	-10.7806
komende	-10.7809
lymfklierpunctie	-10.7821
lateraal	-10.7824
4,	-10.783
▁stabiel	-10.7836
DNA	-10.7849
▁Galblaasresect	-10.785
Naaldbiopten	-10.7857
u	-10.7859
aar	-10.7867
▁galgang	-10.7872
51	-10.7876
▁hoorn	-10.7881
▁naaldbiopsie	-10.7883
▁elektronen	-10.7933
5:	-10.7937
▁aangrenzend	-10.7955
▁adenomyose	-10.7955
▁darmkanker	-10.7955
▁voorhanden	-10.7955
▁onverdacht	-10.7955
▁tangentieel	-10.7957
▁order	-10.7958
▁ectocervicaal	-10.7958
▁leverparenchym	-10.7959
▁nefritis	-10.7961
▁with	-10.7961
▁losliggend	-10.7961
▁dagen	-10.7961
▁klep	-10.7963
▁Transurethra	-10.7964
▁schedel	-10.7967
▁Naruke	-10.7967
▁ductectasieen	-10.7972
jarige	-10.7976
▁Total	-10.7977
▁chirurgisch	-10.7977
▁1,7	-10.7979
▁gericht	-10.798
▁voorlopige	-10.7982
▁gemethyleerd	-10.7984
▁poliepeuze	-10.799
▁bijvoor	-10.7993
▁pTaG	-10.8004
▁intraductal	-10.8014
▁wij	-10.8027
mutatie	-10.8034
▁ano	-10.8035
regionale	-10.8038
gebruik	-10.8039
product	-10.8041
-2-	-10.8044
KIN	-10.8044
TUR	-10.8044
Voorstel	-10.805
thorax	-10.8053
▁recent	-10.8054
▁subepithelia	-10.8076
king	-10.8102
bijmenging	-10.8102
proces	-10.8112
22	-10.8114
61	-10.8115
▁risk	-10.812
▁03	-10.8131
receptorbepaling	-10.8146
▁rijping	-10.815
▁Colonbiopt	-10.8152
▁Lymfeklier	-10.8152
3);	-10.8158
ren	-10.8159
▁tandenrij	-10.8159
▁Blaasspoeling	-10.8159
▁neig	-10.816
▁geweest	-10.816
▁malperfusie	-10.816
▁mitotisch	-10.816
RADS	-10.8161
▁melanocyten	-10.8161
▁vliezen	-10.8162
▁nevus	-10.8163
3.	-10.8163
18-	-10.8164
▁hormona	-10.8165
▁polypeus	-10.8167
▁Torre	-10.8169
▁preputium	-10.8169
▁Beperkt	-10.8171
▁geulcereerd	-10.8171
▁plooi	-10.8176
▁seborroisch	-10.8178
▁inkt	-10.8184
▁GEWIJZIGD	-10.8185
prostatisch	-10.8187
▁MARGE	-10.8194
ige	-10.8203
▁uurs	-10.821
immuunhistochemi	-10.8213
▁borderline	-10.822
▁componenten	-10.8224
▁variaties	-10.8234
-3	-10.8253
carcinomen	-10.8257
Definitieve	-10.8262
submucosaal	-10.8265
Cytologisch	-10.8266
itis	-10.828
▁date	-10.8284
▁myocard	-10.8299
▁inhoud	-10.8309
centrale	-10.8337
roep	-10.8339
▁los	-10.8342
▁Bodem	-10.8349
▁marker	-10.8362
▁Ki	-10.8364
▁inzending	-10.8365
▁bevat	-10.8366
einig	-10.8367
▁geprikkeld	-10.8367
▁immunoloog	-10.8368
▁infiltraten	-10.8369
nasolabiaalplooi	-10.837
▁isthmus	-10.8371
▁serositis	-10.8371
▁gemengdcellig	-10.8372
▁urineblaas	-10.8374
▁alhier	-10.8376
▁glioblastoom	-10.8376
▁bloedvaten	-10.8377
▁kristallen	-10.8377
▁maagmucosa	-10.8378
.1799	-10.8378
▁uitbreidend	-10.8382
▁shavebiopt	-10.8383
▁Breslowdikte	-10.8391
▁longweefsel	-10.8394
▁relevant	-10.8395
▁basaloide	-10.8397
rechterbovenkwab	-10.8398
▁Clark	-10.84
▁RIP	-10.8412
▁Intern	-10.8422
borst	-10.8436
▁huidresectie	-10.8439
▁conclusief	-10.8441
▁Tubulair	-10.8445
▁Archer	-10.8448
Marge	-10.8459
▁CLL	-10.8462
▁6,	-10.8468
▁Advies	-10.8473
▁circumferentie	-10.8476
neusrug	-10.8477
adequaat	-10.8477
chronische	-10.8481
schouderblad	-10.8491
▁60	-10.8492
▁32	-10.8507
vraag	-10.8509
behandeling	-10.8509
▁90%	-10.8518
tisch	-10.855
nl	-10.8551
▁1,0	-10.8553
▁supra	-10.8563
segment	-10.8563
▁bevinding	-10.8566
groep	-10.8574
▁elk	-10.8575
▁resectierand	-10.8575
ATIE	-10.858
▁progressie	-10.858
Interpretatie	-10.858
▁ONDERZOEK	-10.858
▁Paget	-10.858
▁geloosd	-10.858
▁fibroxanthoom	-10.858
time	-10.858
▁afgenomen	-10.858
Asp	-10.8581
architecturele	-10.8582
▁vaatjes	-10.8582
▁soms	-10.8583
▁amyloidose	-10.8583
▁eenduidig	-10.8584
▁fibromatose	-10.8584
vrijwel	-10.8585
▁doen	-10.8588
▁Low	-10.8588
▁stenen	-10.8591
▁groepjes	-10.8592
▁systemisch	-10.8593
▁galwegen	-10.8595
▁gesneden	-10.8596
▁resttumor	-10.8598
▁usual	-10.86
▁JAK	-10.86
▁test	-10.8601
▁Superficie	-10.8607
ose	-10.861
▁linkeronderarm	-10.8617
▁artefacten	-10.8623
▁eczemateu	-10.8635
nos	-10.8639
▁Sta	-10.8645
schildwachtklier	-10.867
duodenum	-10.8679
▁waarde	-10.8683
Lokalisatie	-10.8691
Resectie	-10.8692
Pleuravocht	-10.8692
pTNM	-10.8709
▁(90%)	-10.8718
▁+4	-10.8733
▁reiken	-10.8761
▁Subcutis	-10.8765
▁1):	-10.8771
▁divertikel	-10.8787
waarschijnlijk	-10.8792
▁cerebri	-10.8798
▁foetus	-10.8798
▁blaarvorming	-10.8798
▁pemphigoid	-10.8799
▁Transuret	-10.8799
Polypectomie	-10.8801
▁rubriek	-10.8801
▁Slecht	-10.8801
▁werkgroep	-10.8801
▁chronica	-10.8802
▁Reactief	-10.8804
▁Sigmoidresectie	-10.8806
▁colloid	-10.8808
▁sporadisch	-10.8808
▁systematisch	-10.8808
▁tumorpercentage	-10.8809
▁verkalkingen	-10.881
▁glomerulaire	-10.8812
▁SISH	-10.8814
▁betrokkenheid	-10.8816
▁crypten	-10.882
▁ZN	-10.8825
▁atheroomcyste	-10.8827
▁aard	-10.883
0,	-10.8832
▁glandulair	-10.8836
▁alveolair	-10.8839
inflammatoire	-10.8851
▁afge	-10.8859
tot	-10.8861
Q	-10.8862
▁Antrum	-10.8863
▁duct	-10.8877
▁excisies	-10.888
▁endometrial	-10.8883
interstitiele	-10.8887
▁3,	-10.8895
▁%).	-10.8903
▁voorste	-10.8904
▁-)	-10.8906
coupes	-10.8915
nek	-10.8916
▁afd	-10.892
▁Mede	-10.8923
▁nauwe	-10.8943
▁80%	-10.8945
dieringsvoorstel	-10.8951
▁lipomateu	-10.8956
cervicale	-10.8971
▁Wat	-10.8989
kh	-10.9003
21:	-10.9008
▁heel	-10.9013
▁basalioom	-10.902
▁prostatitis	-10.902
▁liposarcoom	-10.902
▁septum	-10.902
▁toepassing	-10.902
▁immunologisch	-10.9021
▁betekent	-10.9021
▁ondersteuning	-10.9021
▁cryptitis	-10.9021
▁linkeroor	-10.9022
▁dwarsgestreept	-10.9022
▁stenose	-10.9025
▁80	-10.9027
▁bacteriele	-10.9027
▁vergelijking	-10.9029
▁zijdelings	-10.9029
nodulair	-10.903
▁duim	-10.9031
▁Adenocarcinoom	-10.9031
▁ATM	-10.9033
▁Bericht	-10.9035
▁High	-10.9038
▁Blaasbiopten	-10.9048
caverneus	-10.9052
▁MGMT	-10.9053
▁duodenumbiopt	-10.9055
▁We	-10.9059
▁onderverdeling	-10.9075
▁2,3	-10.9109
▁5%.	-10.9121
jes	-10.913
totaal	-10.9132
▁later	-10.9135
▁Zo	-10.9145
Voorts	-10.9145
versus	-10.9147
▁gedegenereerd	-10.9147
▁schildwacht	-10.9166
▁05	-10.9193
▁hypertensie	-10.9198
▁immunofenotype	-10.921
▁plasma	-10.9226
▁fibroma	-10.9244
1)	-10.9245
▁pilonidalis	-10.9247
Tumorgrootte	-10.9247
▁Sjogren	-10.9247
▁talrijk	-10.9247
▁GNAQ	-10.9247
▁zoek	-10.9249
▁avitaal	-10.9249
▁optimaal	-10.9249
▁bewerkt	-10.9251
▁cryptabcessen	-10.9251
▁koilocytose	-10.9251
▁vacuolair	-10.9251
▁hierboven	-10.9253
▁stuwing	-10.9256
▁inguinaal	-10.9256
▁voetzool	-10.9256
▁Ovarium	-10.9256
▁baso	-10.9256
▁hal	-10.9261
▁gegroeid	-10.9263
▁Hemicolectomie	-10.9268
interstitieel	-10.9275
▁huidshave	-10.9284
infectie	-10.9317
▁verdikt	-10.9317
▁onderste	-10.9324
naevus	-10.9343
▁*******;	-10.9356
MET	-10.9367
mediaal	-10.9373
aanvulling	-10.9374
Gaarne	-10.9374
potje	-10.9374
▁(100%),	-10.9375
tie	-10.9424
▁aanvragen	-10.9437
laas	-10.9453
▁metaplastische	-10.9454
-*******	-10.9455
▁calcificatie	-10.9471
▁haardje	-10.9472
verwege	-10.948
▁epicrise	-10.948
▁pemfigoid	-10.948
▁peesschede	-10.948
▁platform	-10.948
▁Aspiratie	-10.948
▁bewijzend	-10.948
▁myelofibrose	-10.9481
▁lymfomenpanel	-10.9481
▁cytonucleair	-10.9482
Totaal	-10.9483
▁reuscel	-10.9483
▁bloedbijmenging	-10.9483
▁myomatosus	-10.9484
▁IUVD	-10.9484
▁Stereotactisch	-10.9486
▁spirocheten	-10.9486
▁spoelvocht	-10.9488
▁cq	-10.9489
▁conjunctiva	-10.949
▁leukocytoclas	-10.9492
▁rode	-10.9494
▁bloedingsresten	-10.9494
▁acanthotisch	-10.9494
▁gingiva	-10.9496
▁ogend	-10.9496
▁criteria	-10.95
▁pylorus	-10.9501
▁Huidshavebiopt	-10.9503
morbu	-10.9508
▁LDT	-10.9509
▁steel	-10.9509
nte	-10.9521
▁ulcusbodem	-10.9535
▁gronden	-10.9536
localisatie	-10.9543
even	-10.9543
▁07	-10.9544
▁voorwand	-10.9552
centraal	-10.957
PCR	-10.9575
▁intraepithelial	-10.958
onderarm	-10.9581
lc	-10.9582
classificatie	-10.9584
-67	-10.9601
descendens	-10.9612
▁zwangerschap	-10.9613
volgen	-10.9618
▁(100%).	-10.9643
endometrium	-10.9647
gebied	-10.9662
▁HPF	-10.9662
nfiltratiediepte	-10.968
▁mucine	-10.9692
▁(11	-10.9695
▁myoom	-10.9712
▁biopsy	-10.9718
▁correlaat	-10.9718
▁stemplooi	-10.9718
▁verslaglegging	-10.9718
▁hematopoiese	-10.9718
ISUP	-10.9718
Opmerking	-10.9718
▁vergrote	-10.9718
▁zekerheidshalve	-10.9719
▁lesion	-10.9719
▁dermatomycose	-10.9719
▁bevonden	-10.9719
▁proctitis	-10.9719
▁herkend	-10.972
▁bloederig	-10.972
▁leversegment	-10.9721
▁opgegeven	-10.9723
▁Uterusresectie	-10.9728
▁Adnexextirpatie	-10.9728
▁urticariele	-10.973
▁OP	-10.973
▁typeren	-10.9733
▁BAP	-10.9743
▁bacteri	-10.9743
▁hilair	-10.9748
▁low	-10.9749
▁haarden	-10.9753
-2).	-10.9753
▁markers	-10.9753
▁Metastase	-10.9759
pseudo	-10.9762
▁Enig	-10.9764
]3.	-10.9767
▁bekleding	-10.977
▁infarct	-10.9771
▁waarna	-10.9773
▁fundustype	-10.9773
▁Ontsteking	-10.9778
Ad	-10.9779
▁granulatie	-10.9779
▁linkerbovenarm	-10.9781
▁angioinvasie	-10.9828
Hodgkinlymfoom	-10.9847
▁punt	-10.9855
Hoog	-10.9856
Onvoldoende	-10.9856
Helicobacter	-10.9856
papilloom	-10.9856
exact	-10.9856
positieve	-10.9856
VEN	-10.9858
squameus	-10.9859
nten	-10.9867
▁geleide	-10.9867
tatus	-10.9873
▁Klein	-10.9874
▁her	-10.9879
-1).	-10.9898
gelet	-10.9909
▁follikel	-10.9909
▁Maagcorpus	-10.9932
▁gaan	-10.9954
ompleet	-10.9958
▁semen	-10.9962
▁ANALYSE	-10.9962
▁ieder	-10.9962
▁slijmvormend	-10.9962
▁vlakke	-10.9963
▁NOTCH	-10.9963
▁erytrocyturie	-10.9963
▁Hysteroscopisch	-10.9963
▁condyloom	-10.9963
▁artritis	-10.9964
▁Orchidectomie	-10.9966
▁steatohepatitis	-10.9966
▁Litteken	-10.9966
▁voorafgaand	-10.9967
▁scrotum	-10.9968
▁serologie	-10.9968
▁reepjes	-10.9969
▁graderen	-10.9971
▁mesenterium	-10.9974
▁aantasting	-10.9975
▁intradermaal	-10.9976
▁diafragma	-10.9977
▁(10	-10.9977
▁knieholte	-10.9979
▁TKIs	-10.9981
vena	-10.9982
▁overgangstype	-10.999
▁karakter	-10.9994
▁NIEUWE	-10.9995
fragmentjes	-10.9997
panel	-10.9998
▁Naaldbiopsie	-11
▁5:	-11.0004
▁myxoide	-11.0005
▁erg	-11.001
aan	-11.0012
passend	-11.0012
▁Als	-11.0015
▁nodig	-11.0017
▁CK	-11.0023
▁slokdarmbiopten	-11.0026
▁hypertrofie	-11.0034
infiltratie	-11.0057
▁Kleine	-11.0066
40	-11.0067
flank	-11.0071
▁70%	-11.0077
blokje	-11.0087
Leu	-11.009
NEUR	-11.009
J	-11.0098
scalp	-11.0106
neuspunt	-11.0106
db	-11.011
▁VIII	-11.0111
Ser	-11.0113
▁uitgaa	-11.0123
▁voorkomen	-11.0128
▁Klier	-11.0161
▁sereu	-11.0171
▁stasis	-11.0182
▁11)	-11.0184
▁bewerking	-11.0189
▁trombus	-11.019
▁doorsnede	-11.0204
eoordeling	-11.0207
reventie	-11.0209
▁clear	-11.0212
▁acantholyse	-11.0212
▁scannen	-11.0212
▁trimester	-11.0212
▁Vermoedelijk	-11.0212
▁maxillaris	-11.0212
▁Vater	-11.0212
▁motiel	-11.0212
cholecystectomie	-11.0213
▁graft	-11.0213
▁buitenoppervlak	-11.0213
▁prostatectomie	-11.0213
▁villi	-11.0216
▁haemangioom	-11.0216
▁intracavitair	-11.0216
▁multifocale	-11.0217
▁5,5	-11.0219
▁cervicaal	-11.022
▁bovenkaak	-11.0222
Lys	-11.0223
▁Sentinel	-11.0225
rand	-11.0228
▁Longbiopt	-11.0229
▁Pleurabiopten	-11.0231
▁eccrien	-11.0232
GRAA	-11.0233
▁ingeblokt	-11.0238
▁2,1	-11.0244
▁dissectie	-11.0244
▁paratubair	-11.0256
microsatellieten	-11.0289
paard	-11.0291
▁subepiderma	-11.0292
▁definitief	-11.0301
▁celarme	-11.0309
anwezigheid	-11.0319
▁IK	-11.0331
moleculaire	-11.036
Vriescoupe	-11.0362
ERBB	-11.0362
Bronchusspoelsel	-11.037
▁eerst	-11.0385
▁no	-11.0389
▁hotspot	-11.0406
▁klierweefsel	-11.0415
ouble	-11.0428
▁onsteking	-11.0438
▁Voorlopige	-11.0441
▁antrumbiopten	-11.0449
▁bloedingsrest	-11.0449
cylinders	-11.0452
▁maart	-11.0452
▁MA	-11.0458
▁mond	-11.0465
kenmerken	-11.0465
▁herbeoordeeld	-11.0468
▁Hyperplastisch	-11.0469
▁tubuli	-11.047
▁dyskeratose	-11.047
▁arteriitis	-11.047
▁darmmucosa	-11.0471
▁serologisch	-11.0472
▁Delen	-11.0473
▁radiotherapie	-11.0475
▁sleeve	-11.0475
▁medebeoordeeld	-11.0476
▁(22	-11.0477
▁thermisch	-11.0478
▁Slokdarm	-11.0478
▁1,9	-11.0478
▁celgroepjes	-11.0479
▁onze	-11.0479
▁zijkant	-11.0481
▁CDK	-11.0481
▁Overigens	-11.0481
amengestelde	-11.0485
](*******)	-11.0488
▁IEL	-11.0491
▁satellieten	-11.0493
omtrent	-11.0495
▁rechterbovenarm	-11.052
stabiel	-11.0525
▁AANVULLEND	-11.0529
▁Th	-11.053
▁prostaatbiopt	-11.0532
5),	-11.0535
▁verminderd	-11.0538
▁placentair	-11.0543
▁blaasbiopten	-11.0547
▁intacte	-11.0549
AKT	-11.0554
▁2014	-11.0557
▁neusslijmvlies	-11.057
▁WE	-11.0575
263	-11.0581
▁vraag	-11.0603
uitstrijk	-11.0603
▁ruimer	-11.0608
Som	-11.0626
betreffende	-11.0627
FNA	-11.0629
beide	-11.0637
stom	-11.0641
▁Om	-11.0643
atypische	-11.0649
diepte	-11.0649
▁neo	-11.0664
volgende	-11.0666
dissect	-11.068
regeneratieve	-11.0681
63	-11.0682
▁gescleroseerde	-11.0698
STA	-11.0705
6:	-11.0705
bodem	-11.0707
▁bestaan	-11.0711
ase	-11.0711
ctieve	-11.0722
▁borstkas	-11.0726
neeranden	-11.0731
▁Heupkop	-11.0731
▁galstenen	-11.0731
▁lingula	-11.0731
▁Tonsillectomie	-11.0731
▁hematopoetisch	-11.0731
▁neusbijholte	-11.0732
▁keratinocyten	-11.0732
bulleuze	-11.0732
▁mestcellen	-11.0733
▁skipping	-11.0733
▁lymfomen	-11.0733
▁macronodulair	-11.0733
▁Ascitesvocht	-11.0736
▁larynx	-11.0738
▁Random	-11.0739
▁Nefrectomie	-11.0741
▁pulmonale	-11.0744
▁zin	-11.0749
afw	-11.0761
▁Extern	-11.0761
▁aanzien	-11.0767
14/*******/	-11.0767
▁ingestuurd	-11.0772
▁groepen	-11.0775
▁tweemaal	-11.0789
▁medicamenteuze	-11.0793
▁linkszijdig	-11.0795
▁beeldvorming	-11.0797
17-	-11.0808
▁remmers	-11.0809
Angioinvasie	-11.0812
▁(*******).	-11.0829
classificeerd	-11.0832
▁CT	-11.0841
intra	-11.085
allergische	-11.0865
▁bloedingen	-11.0865
▁REC	-11.087
Groeiwijze	-11.0878
Door	-11.0881
▁(4)	-11.0881
MSS	-11.0886
licht	-11.0892
voorkeur	-11.0892
deficientie	-11.0893
maligne	-11.0894
locatie	-11.0895
situ	-11.0895
▁secretoire	-11.0896
via	-11.0898
tenminste	-11.0899
3).	-11.0905
reactieve	-11.0926
histologisch	-11.0932
▁monotypisch	-11.0937
▁wijzen	-11.0938
taal	-11.0954
▁60%	-11.0968
▁immuuncytochemi	-11.0979
▁kern	-11.0986
rechteronderkwab	-11.0987
▁blaar	-11.0991
▁tumorvolume	-11.0992
▁ruimte	-11.0994
handeld	-11.1001
▁gespecificeerd	-11.1002
▁erythematodes	-11.1002
▁nodosum	-11.1002
▁aanbevolen	-11.1002
Gln	-11.1002
▁chorionvlokken	-11.1002
▁prostatica	-11.1002
▁erythrocyten	-11.1002
▁collageen	-11.1003
▁gezamenlijk	-11.1003
▁Goed	-11.1003
▁malformatie	-11.1005
Beenmergaspiraat	-11.1006
▁hoofdbronchus	-11.1007
▁nerv	-11.1009
▁seborrhoisch	-11.1009
▁Laboratorium	-11.1009
▁zogenaamd	-11.1009
▁wervel	-11.1009
▁evenals	-11.1009
▁Prostaatbiopt	-11.1009
IA	-11.1009
▁centrum	-11.1012
▁ectocervix	-11.1012
▁satellitose	-11.1012
▁kwab	-11.1016
▁minuscule	-11.1017
▁Diagnose	-11.1018
8:	-11.1019
▁for	-11.1025
▁fossa	-11.1027
▁kleincellige	-11.1028
genoemde	-11.1029
▁ulceroflegmoneu	-11.1033
▁rechteronderarm	-11.1034
▁interstiti	-11.1036
gv	-11.1037
ly	-11.1042
▁innemend	-11.106
▁foveolaire	-11.1069
▁Dep	-11.1093
▁ex	-11.111
tubulaire	-11.1144
▁cin	-11.1169
PERI	-11.1171
Archer	-11.1172
zoals	-11.1173
nvasieve	-11.1174
▁06	-11.1191
▁rectumbiopten	-11.1199
7/*******/	-11.1226
▁maagcardia	-11.1229
je	-11.1231
▁verminderde	-11.1233
GRADERING	-11.1244
5,	-11.1253
▁minuscu	-11.1264
▁wig	-11.1267
ar	-11.127
▁tibia	-11.1274
niversit	-11.1276
EUZE	-11.1279
▁ilium	-11.1279
▁endocarditis	-11.1279
▁erytropoese	-11.1279
IENFD	-11.1279
DIFFERENT	-11.1279
▁cystitis	-11.1279
▁blastentoename	-11.128
▁Goedaardig	-11.1281
▁ischaemie	-11.1281
▁bijtfibroom	-11.1281
▁laten	-11.1282
▁hypofyse	-11.1282
▁ligament	-11.1284
▁blastair	-11.1285
▁wigexcisie	-11.1285
▁peritoneale	-11.1286
▁perianaal	-11.1287
▁Pylori	-11.1287
▁verschillende	-11.1287
▁fimbriae	-11.129
▁daarvan	-11.1293
▁sarcomatoid	-11.1295
▁pari	-11.1297
▁He	-11.1298
▁struma	-11.1309
an	-11.1309
▁X	-11.131
▁restlokalisatie	-11.1315
▁zegelringcel	-11.1319
▁skintag	-11.1322
▁2,7	-11.1326
▁RB	-11.133
▁excochleaat	-11.133
▁Sterk	-11.1333
st	-11.1338
▁he	-11.1357
gebl	-11.1362
BP	-11.1364
anale	-11.1369
▁dikkedarm	-11.1375
rmatopathologie	-11.1405
▁Huidexcisies	-11.1405
▁Dunnedarm	-11.1407
22:	-11.1407
peptische	-11.1422
=	-11.1427
-3).	-11.1445
oesofagusbiopten	-11.1451
6)	-11.1453
HSIL	-11.1457
breuk	-11.1459
radiologisch	-11.1459
tussen	-11.1459
bovenlip	-11.1459
Poliepectomie	-11.146
▁diverse	-11.147
bepaling	-11.1476
▁Maligniteit	-11.1494
▁04	-11.1496
elders	-11.1508
WE	-11.1528
▁pleit	-11.1549
▁DE	-11.1555
▁fibrosering	-11.1556
ommissie	-11.1558
▁cyto	-11.156
4/	-11.1565
▁POSITIEF	-11.1565
▁Sperma	-11.1565
▁follow	-11.1565
▁insectensteek	-11.1565
▁noodzakelijk	-11.1565
▁straal	-11.1565
▁adenomateus	-11.1565
▁cirrose	-11.1565
▁infect	-11.1566
▁trombose	-11.1566
▁papilloma	-11.1566
▁millimeter	-11.1567
▁rosea	-11.1567
▁genitalis	-11.1567
▁premaligne	-11.1567
▁reA	-11.1567
▁overexpressie	-11.1568
▁prikkeling	-11.1568
▁dilatatie	-11.1568
▁astrocytoom	-11.157
▁vaginatop	-11.157
▁plasmocytose	-11.157
▁glans	-11.1572
▁evt	-11.1576
▁prepylorisch	-11.1576
▁linkerhand	-11.1577
ken	-11.1577
▁AML	-11.1577
▁handpalm	-11.1579
▁kernen	-11.1582
▁9-	-11.1585
▁Primair	-11.1586
▁prothese	-11.1592
▁ectocervicale	-11.1595
▁Bot	-11.1601
▁Hemi	-11.1603
pathologisch	-11.1605
ras	-11.1606
▁media	-11.1606
▁submucosale	-11.1608
lb	-11.161
snijvlakken	-11.1622
VAN	-11.1622
▁2,4	-11.163
eerdere	-11.1633
ig	-11.1647
▁tumortje	-11.1655
▁2020	-11.1662
▁translocaties	-11.1662
ubcutane	-11.1663
▁vasculair	-11.1665
-1.	-11.1693
▁gedegenereerde	-11.1694
▁mb	-11.1698
▁4:	-11.1699
▁%)	-11.171
os	-11.1723
▁wangslijmvlies	-11.1728
vriescoupe	-11.1734
oesophagus	-11.1751
lymfocyten	-11.1753
laboratorium	-11.1753
vermoedelijk	-11.1753
verwijderd	-11.1753
Barrett	-11.1754
▁gelokaliseerd	-11.176
▁gepigmenteerd	-11.1775
▁adnexa	-11.1782
long	-11.1784
▁Endocervix	-11.1788
]0	-11.1789
like	-11.1802
▁En	-11.1837
▁galweg	-11.1838
lijks	-11.1843
▁70%.	-11.1845
-2.	-11.1852
screen	-11.1857
▁abces	-11.1858
▁Erytrocyturie	-11.1859
▁nefrectomie	-11.1859
▁cervixbiopten	-11.1859
▁reads	-11.1859
▁heupkop	-11.186
▁aanleg	-11.186
▁aansnijding	-11.186
▁ligging	-11.1861
▁SMARC	-11.1861
▁karakteristiek	-11.1862
▁hiermee	-11.1864
▁GNAS	-11.1864
▁Gewijzigd	-11.1864
▁vergelijkbaar	-11.1864
▁thoracal	-11.1864
▁mesangiale	-11.1865
▁pyelum	-11.1867
▁rechteroor	-11.1868
▁tpv	-11.1868
▁duodenummucosa	-11.187
▁Buikspoelvocht	-11.1871
0(	-11.1871
▁mondhoek	-11.1871
▁tumorkenmerken	-11.1875
▁morfea	-11.1877
▁geamplificeerd	-11.1877
▁ductaaltype	-11.1878
▁grootte	-11.1881
ry	-11.1883
aat	-11.1885
▁thv	-11.1886
▁Receptoren	-11.1886
▁cholangio	-11.1903
den	-11.1906
▁ratio	-11.1906
▁diam	-11.1906
clinicopathologi	-11.1907
aN	-11.1907
▁holte	-11.191
▁Candida	-11.1916
▁maagresectie	-11.1923
solide	-11.1931
▁iliacaal	-11.1944
▁SMA	-11.1945
specifiek	-11.1948
Mamma	-11.1958
▁fibrotische	-11.1969
bespreking	-11.1974
▁stembandpoliep	-11.1975
1),	-11.1991
▁inter	-11.2013
fs	-11.2018
craniaal	-11.2023
]20	-11.2024
▁hetzelfde	-11.2024
▁allergisch	-11.2032
microscopisch	-11.2036
litteken	-11.2039
▁opgebouwd	-11.2051
definitief	-11.2055
kruin	-11.2056
aspiratie	-11.2056
▁hypocellulair	-11.2056
caudaal	-11.2056
benigne	-11.2061
scleroserende	-11.2063
▁08	-11.2065
DD	-11.208
▁li	-11.2082
▁overliggend	-11.2083
typeslijmvlies	-11.2087
geassocieerde	-11.2098
OR	-11.21
ml	-11.2104
▁haar	-11.2129
ziekte	-11.2135
ullen	-11.2137
▁probe	-11.2146
-6	-11.2147
▁oedemateu	-11.2148
▁nagel	-11.2152
▁2-3	-11.2153
rende	-11.2154
▁myo	-11.216
ijdigheid	-11.2161
▁antracose	-11.2162
▁bevindt	-11.2162
▁cholangitis	-11.2162
▁seminales	-11.2162
▁senilis	-11.2162
▁vruchtdood	-11.2162
▁ruber	-11.2162
▁geserreerd	-11.2162
▁spermatozoon	-11.2162
▁familieanamnese	-11.2162
▁amorf	-11.2163
▁Zoom	-11.2163
▁subtypering	-11.2163
▁Speekselklier	-11.2164
▁dysplasia	-11.2164
▁interface	-11.2164
▁oorzaken	-11.2164
▁opbouw	-11.2164
▁epididymis	-11.2164
▁begeleid	-11.2164
▁significantie	-11.2165
▁adenocarcinoma	-11.2166
▁vriesmateriaal	-11.2168
▁41	-11.217
▁motiliteit	-11.2171
▁nvt	-11.2171
▁teen	-11.2173
▁macrometastase	-11.2173
▁jicht	-11.2177
▁krabben	-11.2177
▁obstructie	-11.2181
▁infarcten	-11.2184
▁Incisiebiopt	-11.2185
▁intimafibrose	-11.2187
beoordeling	-11.219
▁perineum	-11.219
Extra	-11.2193
beenmergaspiraat	-11.2194
▁globale	-11.2195
▁protocollair	-11.2204
▁Oesofagusbiopt	-11.2207
▁restanten	-11.2213
▁blaaswand	-11.2222
▁Keratos	-11.2231
▁locaties	-11.2249
STE	-11.2256
13-	-11.2257
transplantatie	-11.228
sproces	-11.231
858	-11.2314
▁overgangs	-11.2326
▁Cyste	-11.233
DA	-11.2336
▁2+	-11.2338
RET	-11.2341
coupe	-11.2352
Ala	-11.2361
MMR	-11.2364
▁48	-11.2365
▁keloid	-11.237
rechterwang	-11.2376
onderrug	-11.2378
Immuun	-11.2381
cin	-11.2381
IX	-11.2382
gerelateerde	-11.2386
proliferatief	-11.239
geringe	-11.2406
▁nav	-11.2417
▁3+3=6	-11.2455
▁digniteit	-11.2461
▁maagcorpusbiopt	-11.2466
cytochemisch	-11.247
▁bevestigen	-11.2475
▁cerebrospinalis	-11.2475
▁galsteenlijden	-11.2475
▁verbreed	-11.2475
▁cystoscopie	-11.2475
gemeld	-11.2475
▁plana	-11.2475
▁vaatlaesie	-11.2475
▁Actinisch	-11.2477
▁Kahler	-11.2477
▁hallux	-11.2477
▁mastocytose	-11.2477
▁mucokele	-11.2477
▁NIET	-11.248
▁vasculopathie	-11.248
▁neusbrug	-11.248
▁uiterst	-11.2482
▁predictie	-11.2482
▁lymfoompanel	-11.2482
▁excoriatie	-11.2483
▁Beentumoren	-11.2483
▁monoklonal	-11.2484
▁parasitair	-11.2486
▁tongbasis	-11.2487
presentativiteit	-11.2487
▁onvolledig	-11.2487
▁Fuhrman	-11.249
▁dijbeen	-11.2494
▁verruceus	-11.2497
▁echogeleid	-11.2497
▁rechterhand	-11.2498
▁Ongewijzigd	-11.25
▁CPS	-11.2501
poliepen	-11.2503
7;	-11.2511
▁12/13)	-11.2529
mmunohistochemie	-11.2535
eren	-11.2536
▁RAS	-11.2546
rcinoom	-11.258
▁3+3=6.	-11.2585
▁Som	-11.2608
▁09	-11.2623
▁4-	-11.2624
56	-11.2626
EPT	-11.264
tubaire	-11.2661
▁compacte	-11.2682
Localisatie	-11.2685
indicatie	-11.2689
Intern	-11.269
focaal	-11.2695
casus	-11.2696
▁gedeeltelijk	-11.2699
▁reumato	-11.2703
▁apocrien	-11.2704
▁fibrotisch	-11.2705
▁traumatisch	-11.2716
cribriforme	-11.2724
▁AA	-11.2728
Lymfklierexcisie	-11.2745
▁ont	-11.2746
▁2016	-11.2757
dien	-11.2777
▁Slokdarmbiopt	-11.279
▁sepsis	-11.2797
▁SITU	-11.2797
▁gescand	-11.2797
▁oktober	-11.2797
▁parakeratotisch	-11.2797
▁centrifugum	-11.2797
▁̄ndiceerd	-11.2797
▁Terminal	-11.2797
▁gevallen	-11.2797
▁neusgang	-11.2798
▁lumen	-11.2799
▁pseudomelanosis	-11.2799
▁hidrocystoom	-11.2799
▁Spoelvocht	-11.2799
▁fusietranscript	-11.28
▁sclerodermie	-11.2802
▁papillomatose	-11.2803
▁special	-11.2803
dreig	-11.2803
▁vezels	-11.2804
▁onderpool	-11.2804
▁bursa	-11.2806
▁UICC	-11.2806
▁glioom	-11.2806
▁MALT	-11.2806
▁deciduaal	-11.2807
▁intramusculair	-11.2807
▁februari	-11.281
Methylation	-11.2811
▁2,8	-11.2812
▁Serologisch	-11.2813
▁residu	-11.2813
eve	-11.2816
gaand	-11.2819
▁MK	-11.2819
▁trigonum	-11.282
me	-11.2821
▁markering	-11.2824
crypthyperplasie	-11.2831
▁embryonaal	-11.2835
terminaal	-11.2837
▁8,	-11.2838
▁hormoonreceptor	-11.2843
▁8:	-11.2851
▁XII	-11.2855
dit	-11.2901
▁schouderbladen	-11.2904
▁bijkomende	-11.2919
overgang	-11.2923
hoofd	-11.2943
huid	-11.2956
▁anaal	-11.2956
adipeu	-11.2958
eheel	-11.2963
non	-11.299
oksel	-11.2993
▁(9	-11.2995
achtige	-11.2998
▁basaalcelca	-11.3003
verschuiving	-11.3018
grade	-11.3023
Weke	-11.3025
onderlip	-11.3025
▁intact	-11.3031
23/	-11.3038
TPS	-11.304
▁complex	-11.3043
LMS	-11.3045
4)	-11.3059
Schildwachtklier	-11.3089
▁alles	-11.3103
▁tijd	-11.3107
▁BA	-11.3109
▁abortusrest	-11.3113
▁kopie	-11.3115
▁doorsnijding	-11.3118
▁huidfragment	-11.312
▁opmerking	-11.3121
▁Blaasbiopt	-11.3122
cardiatype	-11.3123
▁4)	-11.3129
verantwoordelijk	-11.3131
▁Sequencing	-11.3131
▁herpetiformis	-11.3131
▁verbrede	-11.3131
▁alienum	-11.3131
▁rectosigmoA	-11.3131
▁myelopoese	-11.3131
flr	-11.3131
▁clearcell	-11.3131
▁odontogene	-11.3132
▁december	-11.3133
▁fibrinoid	-11.3133
▁patholoog	-11.3133
▁anemie	-11.3133
▁romphuidtype	-11.3133
▁vulvabiopt	-11.3134
▁avitale	-11.3134
▁element	-11.3135
MIN	-11.3135
▁Ingeblokt	-11.3136
▁elastosis	-11.3136
▁aangewezen	-11.3136
▁myocarditis	-11.3137
▁adnexextirpatie	-11.3139
▁fenotype	-11.3139
▁glabella	-11.314
▁klierbuis	-11.314
▁hechtdraad	-11.3141
▁sleutelbeen	-11.3143
▁carcinoid	-11.3144
▁adenosis	-11.3144
▁Fors	-11.3145
▁wijs	-11.3145
▁HLA	-11.3146
▁ANCA	-11.3147
▁samen	-11.3147
▁velden	-11.3147
▁instabiliteit	-11.3147
▁lobectomie	-11.3149
nagenoeg	-11.315
▁haardvormig	-11.3151
▁tubair	-11.3153
▁rechterlies	-11.3153
▁me	-11.3154
▁HSV	-11.3154
▁Rest	-11.3155
▁littekenreactie	-11.3156
▁spoelcel	-11.3157
▁medenem	-11.3158
▁angulus	-11.3162
▁indefinite	-11.3163
omateuze	-11.3163
▁microorganismen	-11.3163
▁claviculair	-11.3171
▁eind	-11.3176
-11-13:	-11.318
▁immunokleuring	-11.3185
ZH	-11.319
▁subserosa	-11.3192
erzijds	-11.3193
-3.	-11.3195
▁Fragment	-11.3196
]*	-11.3198
alhoe	-11.3203
juiste	-11.3205
up	-11.3206
scellen	-11.3215
▁Gene	-11.3215
▁details	-11.3217
esproken	-11.3224
▁abortus	-11.3232
folliculitis	-11.3248
▁1+	-11.3251
117	-11.3265
▁<1	-11.3272
▁TBC	-11.3272
maag	-11.3281
▁data	-11.3292
ert	-11.3307
▁anterieure	-11.3308
ogene	-11.3311
▁poliepexcisie	-11.3312
mature	-11.3312
vl	-11.3321
Y	-11.3326
CIS	-11.3329
CLL	-11.3357
oorspronkelijk	-11.3369
procedure	-11.3369
Verder	-11.337
neusvleugel	-11.337
▁toxische	-11.337
CNV	-11.337
Invasiediepte	-11.337
▁vesicula	-11.3372
abortusmateriaal	-11.3374
▁gemetastaseerd	-11.3374
aanwezigheid	-11.3375
▁st	-11.3378
▁lichenoid	-11.3384
Dieper	-11.3387
KO	-11.3404
brush	-11.3411
▁protonpomp	-11.3417
▁Verricht	-11.3417
wand	-11.3421
▁mitose	-11.3423
▁staan	-11.3427
es	-11.3432
clonaal	-11.3455
PDL	-11.3456
▁ductectasie	-11.3456
▁rectumcarcinoom	-11.3461
▁groepje	-11.3468
▁hidradenitis	-11.3475
▁cholesterolosis	-11.3475
▁myopathie	-11.3475
koa	-11.3476
▁gallig	-11.3476
▁neoplasma	-11.3476
▁Actinomyces	-11.3478
▁inferior	-11.3478
▁Grover	-11.3478
▁lymfadenopathie	-11.3478
klinische	-11.3478
▁tbv	-11.3479
▁herkenba	-11.3479
▁celproliferatie	-11.348
▁ecto	-11.348
▁fractuur	-11.3481
▁organen	-11.3481
▁naevocellulares	-11.3482
▁verwachten	-11.3483
▁trombi	-11.3483
▁hilus	-11.3485
▁stoma	-11.3486
▁gladde	-11.3487
▁PZ	-11.3491
om	-11.3493
▁Sigmoidbiopten	-11.3493
middelste	-11.3493
▁dermoidcyste	-11.3495
▁littekenachtige	-11.3499
▁wild	-11.3499
TP	-11.3503
▁oncocytaire	-11.3511
▁gestuurd	-11.3516
▁amputatie	-11.3523
▁index	-11.3532
NEU	-11.354
▁overal	-11.3548
790	-11.3555
▁voorgaand	-11.3565
ABL	-11.3565
▁maagbiopt	-11.3569
ryptarchitectuur	-11.358
U	-11.3581
21/	-11.3589
▁teleangiectasie	-11.3593
▁pTa	-11.3597
▁digiti	-11.3608
gestelde	-11.362
hooggradig	-11.3623
MN	-11.3628
dermale	-11.363
lies	-11.3656
reexcisie	-11.3677
afwijking	-11.369
handrug	-11.3693
5)	-11.3694
▁contra	-11.3697
thyroidectomie	-11.3716
▁histiocytair	-11.3716
▁concha	-11.3722
borderline	-11.3726
Breslow	-11.3726
CONCLUSIE	-11.3727
Niet	-11.3727
invasiediepte	-11.373
▁verrichten	-11.3731
Daarna	-11.3733
▁Muscul	-11.3733
▁IX	-11.3746
▁rondkernig	-11.3757
beginnende	-11.3773
▁verd	-11.3779
ra	-11.378
%).	-11.3787
zijdig	-11.3799
vormige	-11.3807
▁verlo	-11.3809
▁di	-11.3813
▁nemen	-11.3818
▁snede	-11.3827
olipectomie	-11.3828
▁Ureter	-11.383
6):	-11.383
▁plaque	-11.3832
▁Vulva	-11.3832
▁plek	-11.3832
▁THERAPIE	-11.3833
▁detecteerbaar	-11.3833
▁geretourneerd	-11.3833
▁inzender	-11.3833
▁sigmoideum	-11.3833
▁pilomatrixoom	-11.3833
▁bilateral	-11.3833
Concentratie	-11.3833
▁pigmentosa	-11.3833
▁gynaecomastie	-11.3833
▁transit	-11.3834
▁ligt	-11.3834
025)	-11.3835
▁Preputium	-11.3835
▁april	-11.3835
▁resistentie	-11.3835
▁SMO	-11.3835
▁aggregaten	-11.3835
▁inziens	-11.3835
epidermaal	-11.3836
▁sneeranden	-11.3836
His	-11.3837
▁spermatogenese	-11.3839
▁evaluatie	-11.3839
▁RMK	-11.3839
▁darmresectie	-11.3839
▁Bronchoalveol	-11.3842
▁Verspreid	-11.3842
▁sebaceus	-11.3843
▁afmeting	-11.3846
▁vestibulum	-11.3846
▁mediane	-11.3848
▁3,0	-11.385
mantelcellymfoom	-11.3851
▁huidsnijvlak	-11.3852
▁ejaculaat	-11.3854
▁juli	-11.3854
▁3+3	-11.3861
▁stukjes	-11.3864
▁membraneuze	-11.387
▁Hals	-11.3872
geschiedenis	-11.3877
15189).	-11.3893
apicaal	-11.3895
]19	-11.3901
▁dermatologie	-11.3903
▁2013	-11.3904
volumepercentage	-11.3905
GP	-11.3912
▁rondes	-11.3917
EERDE	-11.3923
▁Derma	-11.3938
▁Leverbiopten	-11.394
▁lymfklierbiopt	-11.3945
resten	-11.3953
▁like	-11.3965
postinflammatoir	-11.397
Path	-11.397
US	-11.3976
▁zwakke	-11.3979
proliferatiefase	-11.398
klierstation	-11.398
▁colonbiopt	-11.4004
Endometrium	-11.4013
▁small	-11.4021
▁pseudodecidual	-11.4026
organiserende	-11.403
▁(2-4	-11.4031
klier	-11.404
▁sprietige	-11.4056
VIN	-11.4063
▁fascie	-11.4065
▁terug	-11.409
▁9,	-11.4094
hypertrofie	-11.4096
frontaal	-11.4096
cellulariteit	-11.4096
Pro	-11.4096
circa	-11.4097
eosinofiele	-11.41
▁vel	-11.41
▁respiratoir	-11.4102
▁aortaklep	-11.4111
61)	-11.4112
schelp	-11.4139
celpopulatie	-11.4141
Bovenstaand	-11.4156
poliepje	-11.4177
▁cu	-11.4189
▁3,2	-11.4192
▁3+4=7	-11.4198
▁remmer	-11.4199
Protocol	-11.4201
▁LYMFKLIER	-11.4202
▁sprieten	-11.4203
▁verstoord	-11.4203
▁verklaard	-11.4203
▁secretiefase	-11.4203
▁PARP	-11.4203
▁anderszins	-11.4203
▁periportale	-11.4203
▁horizontale	-11.4203
▁macula	-11.4204
.2573	-11.4205
▁herpes	-11.4205
▁contaminatie	-11.4205
▁identiek	-11.4205
▁bloedverlies	-11.4206
▁groen	-11.4208
▁vorig	-11.4208
▁imponeer	-11.4208
▁ontbreekt	-11.4209
▁gevraagd	-11.4209
▁naam	-11.4211
▁hydropisch	-11.4212
▁CWZ	-11.4213
▁monoclonale	-11.4213
▁restlaesie	-11.4213
▁amylo	-11.4214
▁plm	-11.4214
Graderings	-11.4214
▁longparenchym	-11.4215
▁tekening	-11.4215
▁oppervlakte	-11.4216
▁valvula	-11.4217
▁samenhangend	-11.4217
▁FSGS	-11.4217
▁jejunum	-11.4217
▁blaasdak	-11.4217
▁submammair	-11.4217
▁nates	-11.4217
▁(0%)	-11.4218
▁chondrosarcoom	-11.4221
▁discordant	-11.4224
▁gewijzigd	-11.4225
▁genetica	-11.423
▁jukbeen	-11.423
▁gewricht	-11.4231
▁klierparenchym	-11.4233
▁TBNA	-11.4234
▁EMR	-11.4236
▁COMPONENT	-11.4242
▁virus	-11.4242
mb	-11.4243
▁KM	-11.4243
50	-11.4253
▁EBER	-11.4254
▁NSCLC	-11.4255
MAX	-11.4256
nr	-11.4263
▁volair	-11.4282
▁SN	-11.431
▁Anusbiopt	-11.4313
▁ijzerpigment	-11.4314
persisterende	-11.4314
all	-11.4322
▁Merkelcel	-11.4325
-11-14:	-11.4329
▁Hart	-11.4338
▁naald	-11.4339
▁BV	-11.4342
▁HSIL	-11.4345
▁maagcarcinoom	-11.435
angiomateuze	-11.4359
▁periadnexa	-11.4384
vocht	-11.4392
enzij	-11.4394
▁peptisch	-11.4403
▁maagantrumbiopt	-11.4406
Lymfklier	-11.4417
9.	-11.4424
▁Arteri	-11.4439
99	-11.4444
sonderzoek	-11.4445
00	-11.4448
coli	-11.4449
shave	-11.4457
mail	-11.4464
Naaldbiopt	-11.4466
EVE	-11.4466
houdend	-11.4468
xcideerd	-11.4468
7,	-11.4478
Definitief	-11.4481
verhoornend	-11.4482
Pipelle	-11.4482
NRAS	-11.4483
geleide	-11.4486
doorgemaakte	-11.4488
▁aangeleverd	-11.4496
Stadiering	-11.4497
(-	-11.4504
onderbuik	-11.452
31	-11.4539
bewa	-11.4542
▁centimeter	-11.4572
▁meso	-11.4577
ries	-11.4578
murale	-11.4579
▁decidual	-11.4582
▁Brunners	-11.4587
Frequentie	-11.4588
▁BUITEN	-11.4588
▁superior	-11.4588
▁tyrosine	-11.4588
▁scabies	-11.4588
▁zsm	-11.4588
▁hoornlaag	-11.4588
▁Douglasi	-11.4588
▁PATHOLOGIE	-11.4588
▁VHL	-11.4588
▁Laaggradig	-11.4588
▁mastectomie	-11.4588
it	-11.4589
▁medebeoordeling	-11.4589
▁interpreteren	-11.459
▁aangesneden	-11.459
▁luidt	-11.459
▁obv	-11.4591
▁ischaemisch	-11.4591
▁mesotheelcellen	-11.4593
▁oorrand	-11.4593
▁inhibitors	-11.4594
▁indolent	-11.4594
▁Drie	-11.4594
▁midline	-11.4594
▁tgv	-11.4597
VANT	-11.4597
▁Aangevulde	-11.4597
▁introitus	-11.4598
▁mondslijmvlies	-11.4598
▁colectomie	-11.4598
▁leverkwab	-11.46
▁pseudolymfoom	-11.46
▁Distal	-11.4602
▁augustus	-11.4602
▁POLE	-11.4602
▁vals	-11.4603
▁Weefselexcisie	-11.4606
▁intermediair	-11.4607
TPN	-11.4607
▁parasternaal	-11.4607
▁CEA	-11.4608
▁neoplastische	-11.4609
lymfklierexcisie	-11.4611
▁Lymfocytose	-11.4611
eikend	-11.4611
afhankelijk	-11.4614
▁oudere	-11.4615
▁seminoom	-11.4615
▁strekzijde	-11.4615
▁IgM	-11.4616
ieptegroei	-11.4616
italiteit	-11.4616
▁bewaard	-11.4619
▁Ventana	-11.462
bronchusspoeling	-11.4633
huidbiopt	-11.4635
▁spoelsel	-11.4636
libra	-11.4637
▁ypT	-11.4637
▁infarceringen	-11.4639
▁linkerflank	-11.4641
▁kwaliteits	-11.4643
▁relatieve	-11.4646
Placenta	-11.4653
▁Longbiopten	-11.4654
SRC	-11.4663
erfelijke	-11.4665
St	-11.4682
▁anusslijmvlies	-11.4695
Dieptegroei	-11.4709
▁Deel	-11.4714
RADICA	-11.4716
21-	-11.4716
▁CS	-11.472
▁methylering	-11.4725
JU	-11.4728
can	-11.4734
▁1-2	-11.4747
0),	-11.4754
naevoide	-11.4775
▁NR	-11.4776
erineurale	-11.4783
▁01	-11.4787
▁loc	-11.4803
▁immuunhistoch	-11.4807
DR	-11.4811
▁bloedvat	-11.4821
▁l	-11.4825
▁min	-11.4825
▁zelf	-11.4831
▁aangetoonde	-11.4832
▁gelocaliseerd	-11.4836
▁gedenudeerd	-11.4868
Onco	-11.4872
▁inclusie	-11.4875
Radicaal	-11.4882
distale	-11.4882
EUS	-11.4885
toont	-11.4885
▁foveolair	-11.4888
▁NEO	-11.4894
cave	-11.4896
Lymfklieren	-11.4896
▁spoelcellig	-11.4904
ker	-11.491
huidexcisie	-11.4923
▁Dikkedarm	-11.4942
oide	-11.4943
▁Lymfklieren	-11.4949
▁1-2.	-11.4953
▁organismen	-11.4953
45	-11.4954
▁Diepte	-11.4963
▁huidadnex	-11.4965
▁vaatwand	-11.4971
▁verkalking	-11.4974
▁tag	-11.4975
▁nodule	-11.4977
▁kapje	-11.498
overage	-11.4982
▁clon	-11.4983
heidshalve	-11.4987
▁fecaal	-11.4987
&	-11.4988
1⁄4	-11.4988
Bevindingen	-11.4988
▁MUTYH	-11.4988
▁opmerkelijk	-11.4988
▁representatieve	-11.4988
▁ongeschikt	-11.4988
▁osteomyelitis	-11.4988
▁polyclonal	-11.4988
▁hypoxie	-11.4988
▁vervallen	-11.4988
▁interfase	-11.4988
▁Board	-11.4988
▁biologie	-11.4988
▁eigen	-11.4988
zakelijk	-11.4988
▁stromaceltumor	-11.4988
▁bronchopneumoni	-11.4988
▁belangrijk	-11.4988
▁pyoderma	-11.4988
▁vaatstructuren	-11.4988
Locatie	-11.4989
▁polymorf	-11.4989
▁parietale	-11.499
▁bespreken	-11.499
▁ileitis	-11.499
▁melanosis	-11.499
▁mesenchymaal	-11.499
▁apoptotisch	-11.499
▁monoclonaal	-11.499
▁nasofarynx	-11.499
▁beslag	-11.499
▁excochleatie	-11.4991
▁Bronchusbiopt	-11.4992
▁dysmorfie	-11.4993
▁CIC	-11.4993
▁verbreding	-11.4994
▁zygoma	-11.4994
▁overeenkomstig	-11.4994
▁Subcutaan	-11.4995
▁Cervixpoliep	-11.4996
▁mesothelia	-11.4997
▁rib	-11.4999
▁signaal	-11.4999
▁degeneratief	-11.5001
▁lateralis	-11.5002
▁pouch	-11.5003
▁linkerslaap	-11.5003
▁osteochondroom	-11.5003
▁Hemithyreoid	-11.5004
▁kapjes	-11.5005
▁sporen	-11.5008
▁hierop	-11.5009
▁cystevocht	-11.5018
▁discontinue	-11.5018
▁ducten	-11.5021
▁MD	-11.5021
7):	-11.5023
▁rechteroksel	-11.5025
▁gesteelde	-11.5026
▁linkerbovenkwab	-11.5026
▁insnijden	-11.5027
▁dorsal	-11.5037
▁incomplete	-11.5039
▁sturen	-11.5039
▁HN	-11.5046
6/*******/	-11.5047
▁partieel	-11.5048
▁(95%)	-11.5049
]1.	-11.5055
matoide	-11.5062
▁mammapunctie	-11.5066
▁pancreatico	-11.5067
▁longbiopt	-11.5068
▁co	-11.5074
▁Peritoneumbiopt	-11.5082
erifeer	-11.5082
▁herhaald	-11.5082
▁4,	-11.5098
04	-11.5099
▁nieren	-11.5104
▁J	-11.5108
▁omliggend	-11.511
8,	-11.5111
▁ontwikkeling	-11.5116
▁receptoren	-11.5127
dedifferentieerd	-11.513
▁lager	-11.5134
▁regeneratie	-11.5138
▁tumorcel	-11.5139
basis	-11.5148
▁verslagen	-11.516
▁(2,	-11.5166
Twee	-11.5182
terminale	-11.5182
▁tangentiel	-11.5186
krap	-11.5204
Multipel	-11.5215
Progesteron	-11.5216
▁stoornissen	-11.5224
ONS	-11.523
idiopathische	-11.5236
▁mee	-11.5243
SCH	-11.5247
▁+5	-11.5248
]16	-11.5252
▁dens	-11.5259
scapula	-11.5266
/19	-11.5271
par	-11.5273
scheenbeen	-11.5275
nzeker	-11.5281
remmers	-11.5282
dorsaal	-11.529
▁uitslagen	-11.5292
NST	-11.5292
details	-11.5297
rectosigmoid	-11.5298
Mogelijk	-11.5298
superficieel	-11.5298
proximaal	-11.5299
middels	-11.5299
max	-11.5302
Perineura	-11.5303
out	-11.5303
minimale	-11.5305
Maagbiopten	-11.5305
ingroei	-11.531
▁vroeg	-11.5312
cervix	-11.5313
AAL	-11.5319
▁lymfoplasmacyt	-11.5321
opy	-11.5325
263)	-11.5333
stelling	-11.5358
et	-11.536
delen	-11.5369
▁4).	-11.537
zicht	-11.5377
▁strip	-11.5389
▁casu	-11.539
▁exostose	-11.5394
emarkeerde	-11.5395
▁microsatellitos	-11.5396
▁2-4)	-11.5396
unica	-11.5396
▁vlok	-11.5401
▁Extirpatie	-11.5404
eimpetiginiseerd	-11.5404
‚	-11.5404
▁melanofagen	-11.5404
▁sialoadenitis	-11.5404
▁megakaryopoese	-11.5404
▁november	-11.5404
▁Hysterectomie	-11.5404
▁MICRO	-11.5404
▁alopecie	-11.5404
▁chemie	-11.5404
▁literatuur	-11.5404
▁schimmelhyfen	-11.5404
▁kratervormige	-11.5404
▁teruggevonden	-11.5404
▁zaadcellen	-11.5404
▁gegeneraliseerd	-11.5404
▁spoelcellipoom	-11.5404
▁comedonecrose	-11.5404
▁hechtmateriaal	-11.5407
▁desmoid	-11.5407
▁homogeen	-11.5407
▁lithiasis	-11.5407
▁durum	-11.5407
▁̄dose	-11.5407
▁endometroid	-11.5407
▁purpura	-11.5407
ldb	-11.5408
▁voetrand	-11.5408
▁hoger	-11.541
▁Licht	-11.5411
▁PSA	-11.5411
▁interscapulair	-11.5411
▁hamartoom	-11.5411
▁gangren	-11.5411
▁beloop	-11.5411
▁erosief	-11.5414
▁labia	-11.5415
mn	-11.5415
▁focusscore	-11.5415
▁wildtype	-11.5417
▁september	-11.542
elbeeld	-11.5421
▁colorecta	-11.5421
zijde	-11.5423
▁plaveiselcellen	-11.5424
▁comedo	-11.5424
▁gerapporteerd	-11.5425
▁Ziehl	-11.5425
▁persisterend	-11.5426
▁linkeroksel	-11.5429
irritatiefibroom	-11.5433
▁Ond	-11.5433
▁decollete	-11.5434
▁MRI	-11.5435
witte	-11.5436
ain	-11.5437
CRO	-11.5437
▁Normal	-11.5438
▁SNIJVLAK	-11.5439
tracht	-11.5442
▁feite	-11.5445
uitgebluste	-11.5447
SP	-11.5456
ovenstaande	-11.5462
▁Atypische	-11.5464
▁Ileumslijmvlies	-11.5464
▁haardjes	-11.5475
▁peroperatie	-11.5483
▁fusies	-11.5485
▁NB	-11.5498
▁promoter	-11.5499
8/	-11.55
arm	-11.5501
▁lytisch	-11.5504
▁Middels	-11.5516
▁pa	-11.5528
.38	-11.5531
▁satelliet	-11.5552
▁hypo	-11.5554
▁behandeld	-11.5566
oom	-11.5572
5):	-11.5573
▁ha	-11.5577
tje	-11.5579
▁Huidfragment	-11.559
▁reuma	-11.5599
▁90%.	-11.5601
netisch	-11.5618
▁1+).	-11.5622
▁endometri	-11.5632
▁TB	-11.5646
▁kop	-11.5667
▁drug	-11.5669
grote	-11.5673
dermaal	-11.5678
▁Extra	-11.568
Ter	-11.5682
▁Spoel	-11.5699
interstiti	-11.5699
▁ond	-11.5699
studi	-11.573
Middels	-11.5731
volledig	-11.5731
diagnostiek	-11.5732
EBUS	-11.5733
goed	-11.5733
pretibiaal	-11.5734
hoogte	-11.5734
▁adenoma	-11.5735
geirriteerde	-11.5736
20:	-11.5737
▁dergelijk	-11.5741
▁diepreikend	-11.5746
retroperitoneaal	-11.5751
-2)	-11.5751
▁%.	-11.5761
▁operatie	-11.5764
histiocytose	-11.5772
▁genoemd	-11.5796
▁vervolg	-11.5797
▁Fibro	-11.5802
▁Kapsel	-11.5813
▁blijven	-11.5819
▁feit	-11.5825
Angio	-11.5827
reparaten	-11.5832
oesofagea	-11.5834
▁megakaryocyt	-11.5835
▁Spier	-11.5836
▁gangrenosum	-11.5839
▁Bcl	-11.5839
▁migrans	-11.5839
▁wenst	-11.5839
▁Hirschsprung	-11.5839
▁steenlijden	-11.5839
▁thyreoiditis	-11.5839
▁afwachten	-11.5839
▁postmenopauza	-11.5839
▁myocardinfarct	-11.5839
▁papillomateus	-11.5839
▁somscore	-11.5839
▁doorgevoerd	-11.5839
500	-11.584
▁Centraal	-11.584
▁Vocht	-11.584
▁ww	-11.5841
▁korte	-11.5841
▁lamel	-11.5841
▁flow	-11.5841
▁voorgrond	-11.5841
▁Giemsa	-11.5842
▁carcinomatosa	-11.5842
▁funiculus	-11.5842
▁wervelkolom	-11.5842
▁miniem	-11.5842
▁multiple	-11.5842
▁incompleet	-11.5842
▁ddPCR	-11.5843
DQ	-11.5843
▁2,6	-11.5846
▁Dupuytren	-11.5846
▁exofytisch	-11.5846
▁quadriceps	-11.5846
▁tongpunt	-11.5846
▁Borrelia	-11.5847
oging	-11.5847
▁komen	-11.5848
▁aangevuld	-11.5848
▁endoscopisch	-11.5849
▁gedeelte	-11.585
▁hyalinose	-11.5851
▁huidsnijvlakken	-11.5855
▁LVSI	-11.5856
▁ethmoid	-11.5856
▁humerus	-11.5856
▁Genom	-11.5857
▁array	-11.5857
▁Invasief	-11.5857
expressie	-11.5857
▁naad	-11.5859
▁dominant	-11.586
▁Congorood	-11.5861
5/	-11.5864
▁bp	-11.5869
▁kort	-11.5871
▁Onderzoek	-11.5885
microsatellitose	-11.5888
▁grens	-11.5893
▁Obductie	-11.5895
▁<=	-11.5897
kop	-11.5898
▁DLBCL	-11.59
cellige	-11.591
▁GIST	-11.5934
▁dergelijke	-11.5941
AX	-11.5942
4-	-11.5947
▁Pas	-11.5949
▁cardiale	-11.5949
-12-13:	-11.5956
▁Loka	-11.596
▁Weefselfragment	-11.5967
PAS	-11.5983
▁gelokaliseerde	-11.5993
23:	-11.5998
▁80%.	-11.6
▁omgeven	-11.6009
▁achtige	-11.6027
▁Ner	-11.6031
basaal	-11.6039
AƒA	-11.6055
grootcellig	-11.6069
vrij	-11.6073
▁90	-11.6075
68	-11.6082
Zij	-11.6096
or	-11.6099
-03-14:	-11.6102
▁Graa	-11.6109
100	-11.611
▁(0/2).	-11.6112
satelliethaarden	-11.6121
39	-11.6129
aanvullend	-11.6137
hand	-11.6142
▁separa	-11.6147
bil	-11.6158
-02-14:	-11.6158
▁60%.	-11.6161
ventraal	-11.6161
▁circumscript	-11.6162
Neelsen	-11.6178
▁No	-11.6178
normaal	-11.6183
medicamenteuze	-11.6186
resp	-11.6187
sentinel	-11.6187
DEFINITIEF	-11.6188
verslag	-11.6188
voorlip	-11.6188
Histologisch	-11.6189
▁Maagcorpusbiopt	-11.6189
pTaG	-11.619
▁bulla	-11.6191
▁oesophagusbiopt	-11.6198
OLD	-11.6202
ek	-11.6202
bijvoor	-11.6202
Mammabiopten	-11.6206
▁r	-11.6207
▁trachea	-11.6214
▁mijn	-11.6221
▁Ileum	-11.6222
stoornis	-11.623
ine	-11.6244
anamnese	-11.625
spraak	-11.6254
▁(0%).	-11.6263
▁stans	-11.6265
▁snel	-11.6269
acrale	-11.6273
co	-11.6275
▁naevo	-11.6279
adjuvante	-11.628
reslowdikte	-11.6284
atypie	-11.6286
▁medicatie	-11.6288
▁Matige	-11.629
Elektronen	-11.6294
’	-11.6294
▁Bench	-11.6294
▁DIAGNOSTIEK	-11.6294
▁Sputum	-11.6294
▁bijeenkomst	-11.6294
▁endofytisch	-11.6294
▁januari	-11.6294
RESECTIEVLAK	-11.6294
▁chemoradiatie	-11.6294
▁gynaecoloog	-11.6294
▁micronoduli	-11.6294
▁papulose	-11.6294
geboren	-11.6294
▁erythrocyturie	-11.6294
▁zichtbaar	-11.6294
▁syringoom	-11.6294
▁mondholte	-11.6294
▁zware	-11.6294
▁Longspoeling	-11.6294
▁mannelijk	-11.6294
▁condylomateuze	-11.6294
▁subcornea	-11.6294
▁adenomyomateuze	-11.6294
▁Vrij	-11.6294
▁angiosarcoom	-11.6295
▁zenuwweefsel	-11.6295
▁linkeroog	-11.6295
▁zenuwvezels	-11.6295
▁mei	-11.6295
▁vaatrijk	-11.6295
Mol	-11.6295
▁Leverbiopsie	-11.6296
▁portio	-11.6296
▁Jessner	-11.6296
▁aanvrager	-11.6296
▁fasciitis	-11.6296
▁associatie	-11.6296
▁Disclaimer	-11.6296
▁diabetes	-11.6297
▁Vaso	-11.6297
▁6,5	-11.6297
▁macro	-11.6298
▁doorgegeven	-11.6298
LLEN	-11.6299
ans	-11.6299
▁linkeronderkwab	-11.6299
▁invaginatie	-11.63
▁cheilitis	-11.6301
▁buisjes	-11.6302
▁bodemsnijvlak	-11.6302
▁tumorcelkernen	-11.6302
▁plekje	-11.6304
obturatoriusloge	-11.6306
▁eiwit	-11.6306
▁merendeel	-11.6306
▁intramucosaal	-11.6306
▁kapseldoorbraak	-11.6306
▁Vacuum	-11.6306
▁Keratine	-11.6309
▁waarden	-11.631
▁erytroid	-11.6311
lyse	-11.6316
▁abdominale	-11.6316
▁Van	-11.6318
▁epitheelcyste	-11.6319
▁Nog	-11.6323
▁linkerlies	-11.6324
▁linkerborst	-11.6326
hoog	-11.6329
plasmacellulaire	-11.6331
▁LP	-11.6332
▁18,	-11.6333
▁insertie	-11.6337
inder	-11.6338
immunohistochemi	-11.6354
▁rechterflank	-11.6358
8)	-11.6365
▁parti	-11.6373
]3	-11.6376
Abortuscurettage	-11.6379
▁Neusslijmvlies	-11.6382
hvd	-11.6383
▁(0/3).	-11.639
▁gecauteriseerde	-11.639
▁1/2	-11.6395
▁talgklieren	-11.6396
▁antrumbiopt	-11.6405
ovariumcarcinoom	-11.6411
monotypische	-11.6413
9:	-11.6417
inds	-11.6418
matofibrosarcoma	-11.6438
▁helicobacters	-11.6439
EIN	-11.644
cytomorfologisch	-11.6451
08	-11.6508
bekleding	-11.6511
7.	-11.6524
▁activ	-11.6537
▁Bijnier	-11.6538
AP	-11.6549
▁Diepe	-11.6608
Thr	-11.6608
▁longbiopten	-11.6609
NOD	-11.6622
OE	-11.6628
▁Li	-11.6635
axilla	-11.6638
achter	-11.6648
▁Intra	-11.6649
ileum	-11.665
ekenen	-11.665
▁(100%	-11.6652
RAS	-11.6656
Grade	-11.6657
Dysplasie	-11.666
promoter	-11.6662
Celrijk	-11.6663
middenkwab	-11.6664
Pathologie	-11.6664
digitus	-11.6664
FFPE	-11.6664
verkregen	-11.6664
Diameter	-11.6664
romp	-11.6664
subcutis	-11.6664
zwelling	-11.6664
iliacaal	-11.6665
CMV	-11.6665
Duodenumbiopten	-11.6668
keratine	-11.6669
end	-11.6669
▁gecauteriseerd	-11.6672
nodig	-11.6673
▁hemorragisch	-11.6673
linkerwang	-11.6675
▁prominent	-11.6678
▁neotermina	-11.668
▁desmoplastisch	-11.6682
liggende	-11.6682
lhoe	-11.6692
▁uterina	-11.6693
▁Anus	-11.6698
▁grenzen	-11.6709
emisch	-11.6731
▁uitgeblust	-11.6731
▁10%.	-11.6744
▁grove	-11.6744
▁Wig	-11.6747
reerde	-11.6753
▁gist	-11.6754
%.	-11.6755
▁patienten	-11.676
▁subtota	-11.6764
▁techniek	-11.6764
▁optima	-11.6766
populatie	-11.6767
▁major	-11.6769
areolair	-11.6769
▁belang	-11.6769
DIEPTE	-11.677
▁Circumcisie	-11.677
▁Epstein	-11.677
▁Lobectomie	-11.677
▁homozygo	-11.677
▁ingevroren	-11.677
▁instrumentatie	-11.677
▁microcirculatie	-11.677
▁oncocytoom	-11.677
▁vergeleken	-11.677
▁vitiligo	-11.677
▁acuminata	-11.677
▁cervicitis	-11.677
▁porokeratose	-11.677
▁poroom	-11.677
▁hepatocyten	-11.677
▁verwijderen	-11.677
▁hyperkeratotica	-11.677
▁Vasectomie	-11.677
▁lymfangiectasie	-11.6771
medium	-11.6771
▁klierbuisjes	-11.6771
differentiated	-11.6771
▁Sneevlak	-11.6772
▁mons	-11.6773
▁chalazion	-11.6773
▁protuberans	-11.6773
esluit	-11.6773
▁stimulatie	-11.6773
▁nagelbed	-11.6773
▁truncus	-11.6773
▁bemoeilijkt	-11.6773
Gradering	-11.6773
9);	-11.6774
▁pigmentlaesie	-11.6774
▁coecumbodem	-11.6775
▁abcessen	-11.6778
▁incidentie	-11.6778
▁chromosomale	-11.6778
▁Beenmergbiopsie	-11.6778
▁ectopisch	-11.6779
▁ganglioncellen	-11.678
▁CDX	-11.678
▁scopie	-11.678
▁synoviale	-11.6781
▁herschikkingen	-11.6781
▁coverage	-11.6782
▁Mortons	-11.6782
▁Afwijking	-11.6783
▁wond	-11.6784
▁veldjes	-11.6784
▁clusters	-11.6786
▁stop	-11.6786
02	-11.6788
▁structuur	-11.6788
▁SWK	-11.6788
▁onderzijde	-11.6789
▁VRI	-11.6789
▁vera	-11.6789
▁subcarinaal	-11.6791
▁additione	-11.6791
▁LCIS	-11.6793
▁tubulusatrofie	-11.6794
▁vaginawand	-11.6795
▁(>5	-11.6796
▁FL	-11.6798
vervette	-11.6804
▁incidentiedatum	-11.6804
▁Solide	-11.6807
50)	-11.6807
▁Rechter	-11.681
▁gelijkende	-11.6811
▁Microscopisch	-11.6811
▁Risk	-11.6815
▁Rechts	-11.6815
schildkliernodus	-11.6815
▁IFTA	-11.6815
ber	-11.682
▁concentratie	-11.6826
▁Gehe	-11.683
▁eenderde	-11.6831
▁medicamenteus	-11.6836
RES	-11.6846
▁or	-11.6848
▁diastase	-11.6852
▁Ulceratie	-11.6853
bN	-11.6856
kleuringspatroon	-11.686
triple	-11.6861
thoracaal	-11.6867
▁5,	-11.6885
▁ven	-11.6891
37	-11.6899
tijd	-11.6902
]11	-11.6903
▁pN	-11.6913
decidualisatie	-11.6914
OG	-11.6923
▁Abortus	-11.6926
▁indicatie	-11.6933
▁12-	-11.694
▁0%	-11.6944
▁Rectums	-11.6956
▁Hersen	-11.6962
DK	-11.6963
%	-11.6969
▁Vas	-11.6971
▁4+4=8	-11.6971
▁2/3	-11.6972
hypermethylering	-11.6976
dometriosecyste	-11.6984
Long	-11.6986
▁NET	-11.6989
▁longtumor	-11.7021
▁Trans	-11.7032
▁Linker	-11.7036
ntie	-11.7036
▁*:	-11.7052
▁dermatopath	-11.7056
▁43	-11.7058
diep	-11.7062
ond	-11.7064
lisexcisie	-11.7067
▁naevoid	-11.7071
]25	-11.7073
epitheliomateu	-11.7078
waar	-11.7093
VE	-11.7101
▁antibod	-11.7113
▁(5)	-11.7118
Maag	-11.7141
ct	-11.7142
Coupe	-11.7151
▁Perife	-11.7156
▁va	-11.7162
GIST	-11.7162
innemend	-11.7163
skintag	-11.7163
linkerschouder	-11.7163
high	-11.7163
Differentiaal	-11.7164
Biopsie	-11.7164
flexura	-11.7164
deletie	-11.7165
Beenmergbiopt	-11.7165
overwegend	-11.7166
MSI	-11.7166
weinig	-11.7168
▁zon	-11.7171
naar	-11.7174
]24	-11.7183
▁12/13	-11.7188
tis	-11.7189
RIP	-11.7198
bevindingen	-11.7205
isatie	-11.7219
▁wil	-11.722
▁linkerventrikel	-11.7238
dm	-11.7238
ronde	-11.7243
erend	-11.7248
-09-13:	-11.725
▁weefselstukje	-11.7255
▁Moh	-11.7259
▁Mucosa	-11.7263
blauwe	-11.7264
▁incisiebiopt	-11.7265
redictie	-11.7266
RON	-11.7266
▁structure	-11.7267
▁Fusion	-11.727
MOTILITEIT	-11.727
▁fijn	-11.727
Concluderend	-11.727
cadherine	-11.727
dyscrasie	-11.727
▁Meest	-11.727
▁appendectomie	-11.727
▁carcinosarcoom	-11.727
▁exantheem	-11.727
▁geregistreerd	-11.727
▁getromboseerd	-11.727
▁ingescand	-11.727
▁malleolus	-11.727
▁pathologen	-11.727
▁ziekenhuizen	-11.727
▁Sweet	-11.727
▁pleuritis	-11.727
▁geinterpreteerd	-11.727
▁tubectomie	-11.727
▁Overwegen	-11.727
OVERIG	-11.727
▁substr	-11.7271
▁versie	-11.7271
splitsing	-11.7271
▁Maagantrumbiopt	-11.7271
▁agens	-11.7273
▁Administratie	-11.7273
▁uitwendig	-11.7273
▁Eczeem	-11.7273
▁INTERPRETATIE	-11.7273
▁gemist	-11.7273
▁infestatie	-11.7273
▁GBM	-11.7273
▁parietalis	-11.7273
▁myxoom	-11.7273
DUCT	-11.7273
zo	-11.7273
▁transuret	-11.7273
▁pijpjes	-11.7274
▁alsnog	-11.7274
▁myelodysplasie	-11.7276
Mb	-11.7278
▁Sertoli	-11.7278
▁acetabulum	-11.7278
▁tepelhof	-11.7278
▁placentavlokken	-11.7278
▁Cystevocht	-11.7278
▁excisieranden	-11.7279
▁etmoid	-11.7279
▁ascitesvocht	-11.7279
>25	-11.7279
▁crustavorming	-11.7279
▁spoelvormig	-11.7279
▁hoofdcarina	-11.7279
pathogene	-11.7279
▁7,5	-11.728
▁inactivatie	-11.728
econd	-11.7281
▁Littekenweefsel	-11.7282
▁3,6	-11.7283
▁Pityrosporum	-11.7284
▁epidermoidcyste	-11.7284
▁vasectomie	-11.7286
▁maagwand	-11.7286
▁15%	-11.7292
▁uiteindelijk	-11.7294
▁kit	-11.7294
▁oedemateus	-11.7294
▁koud	-11.7295
buitenzijde	-11.7295
▁differenti	-11.7296
▁biopteren	-11.73
▁Protocollair	-11.7301
▁biopsiename	-11.7302
▁lokatie	-11.7304
▁Micro	-11.7304
▁Invasie	-11.7306
▁pas	-11.7307
▁Melan	-11.7309
▁Naast	-11.7316
enemen	-11.7317
▁Links	-11.7317
▁kleur	-11.7317
▁EXTRA	-11.7317
▁<1%	-11.7319
▁3,1	-11.7325
▁Diagnostisch	-11.7334
▁grenzend	-11.7338
▁(0/1)	-11.7344
stroma	-11.7345
▁PAP	-11.7354
▁restmaligniteit	-11.7357
▁immunocytochemi	-11.7361
_000546.5:	-11.7363
▁host	-11.7363
▁7)	-11.7365
18/	-11.7365
6);	-11.7366
inoom	-11.7372
▁ablatie	-11.7374
7/	-11.7374
▁3,8	-11.7377
▁*******-*******	-11.7377
▁OS	-11.7389
erdacht	-11.7396
▁out	-11.74
▁retroperitonea	-11.7403
-1)	-11.7405
▁Sub	-11.7407
ris	-11.741
▁ste	-11.7416
▁predominant	-11.7418
granulomateuze	-11.7418
ire	-11.7423
HP	-11.7429
klierprocedure	-11.7436
aorta	-11.744
)).	-11.7445
-08-13:	-11.7447
ala	-11.7475
▁2019	-11.7477
▁cyst	-11.7495
neoplasie	-11.7496
▁gaand	-11.7496
fibrose	-11.7499
▁daarna	-11.7515
▁tumorexcisie	-11.7522
Ple	-11.7532
▁44	-11.754
▁verdwijn	-11.7542
▁maxilla	-11.7542
id	-11.7555
sprieterig	-11.7581
▁ovari	-11.7584
alis	-11.7593
-06-14:	-11.7597
▁47	-11.7599
▁pTNM	-11.7605
▁55	-11.7624
▁6:	-11.7632
▁(1+).	-11.7632
▁(30	-11.7632
mid	-11.7643
real	-11.765
extra	-11.7654
▁fibroglandulair	-11.7668
7)	-11.7669
och	-11.7669
gradige	-11.7672
percentage	-11.768
Amplificatie	-11.7683
▁65	-11.7686
echter	-11.7686
ablatie	-11.7688
achterwand	-11.7689
lambda	-11.769
atrofie	-11.769
Panel	-11.769
kappa	-11.769
MLH	-11.769
necrotiserende	-11.769
18-21	-11.7692
▁Reed	-11.7693
bovenrug	-11.7695
oude	-11.7704
SLL	-11.7705
▁acantholytisch	-11.7712
▁Endo	-11.7714
ity	-11.7717
▁VAF	-11.7724
xtracapsulair	-11.7729
▁0.5	-11.7733
STRO	-11.7737
achtig	-11.7737
▁reticuline	-11.7738
▁bind	-11.7742
-10-15:	-11.7756
▁6-	-11.7758
gevangen	-11.7766
bronchiale	-11.7771
dup	-11.7774
▁0.6	-11.7775
fragmentje	-11.7783
▁flardje	-11.7785
▁Aspecifiek	-11.7787
innen	-11.7792
▁cystic	-11.7795
▁second	-11.7796
AFMETING	-11.7796
schappe	-11.7796
▁Laparoscopisch	-11.7796
▁bijnierschors	-11.7796
▁clitoris	-11.7796
▁decalvans	-11.7796
▁discreet	-11.7796
▁erythropoiese	-11.7796
▁reanimatie	-11.7796
▁verbrokkeld	-11.7796
▁aangepast	-11.7796
▁brede	-11.7796
▁database	-11.7796
▁implicaties	-11.7796
▁traumatisatie	-11.7796
▁wijsvinger	-11.7796
▁giardiasis	-11.7796
▁paratracheaal	-11.7796
▁alveolaris	-11.7796
▁fistelgang	-11.7796
▁genummerd	-11.7796
▁afgegeven	-11.7796
▁kiemceltumor	-11.7796
▁Bijschildklier	-11.7797
▁(3+3)	-11.7797
▁cyclus	-11.7797
cryptinvolvement	-11.7797
▁naschrift	-11.7797
▁medullair	-11.7797
rova	-11.7797
Samenvattend	-11.7798
▁Beck	-11.7798
▁botvorming	-11.7798
▁FOX	-11.7799
▁apoptose	-11.7799
▁bekeken	-11.7799
▁tubulopathie	-11.7799
▁lues	-11.7799
▁2000	-11.7799
▁schimmelsporen	-11.7799
▁splijting	-11.78
▁glioblastoma	-11.78
▁hieraan	-11.78
▁nierparenchym	-11.78
ROGE	-11.78
▁prog	-11.7801
▁overlap	-11.7802
▁tov	-11.7802
▁Controle	-11.7802
ac	-11.7804
Prognostisch	-11.7804
▁littekengebied	-11.7804
▁hematopo	-11.7804
▁Uteruscurettage	-11.7805
▁Alcian	-11.7805
▁gevormd	-11.7805
▁microbiologie	-11.7805
▁retromamillair	-11.7805
▁arteriosclerose	-11.7805
▁ketens	-11.7806
chronicum	-11.7807
▁4,0	-11.7807
krapst	-11.7809
▁̄dectomie	-11.781
▁jun	-11.7811
▁webspace	-11.7811
▁mycobacterien	-11.7812
▁Word	-11.7815
▁koepel	-11.7817
▁PeIN	-11.7817
▁Nierbiopsie	-11.7817
▁periorbitaal	-11.7818
▁Regiona	-11.7819
neemt	-11.782
▁flard	-11.7821
▁gemeten	-11.7823
59	-11.7823
▁iP	-11.7825
conventioneel	-11.7831
▁vacuum	-11.7832
▁rechterslaap	-11.7835
▁ongebruikelijk	-11.7835
▁celhyperplasie	-11.7838
gedrag	-11.7839
▁dermatitisbeeld	-11.784
]15	-11.784
▁obturatori	-11.7841
▁MPL	-11.7843
▁tenosynovia	-11.7849
▁sigmoidresectie	-11.7854
▁Subtota	-11.7865
fusie	-11.7867
▁ileumbiopt	-11.7867
site	-11.787
▁gedifferentieer	-11.7876
subacuut	-11.7878
▁5-10%	-11.7878
PT	-11.788
▁huidstans	-11.7886
▁resterend	-11.7893
metastasen	-11.7894
15):	-11.79
4,7	-11.791
▁extracapillair	-11.7914
deposities	-11.7919
-03-15:	-11.7919
▁4,2	-11.7924
Mede	-11.7925
▁capillaire	-11.7927
▁voorhuid	-11.7933
▁corpusbiopt	-11.7934
▁huidcurettage	-11.7936
▁ve	-11.7946
adenomatoide	-11.7946
ol	-11.796
▁Gele	-11.7961
▁traumatische	-11.7967
]10	-11.7995
▁--	-11.7996
▁deficientie	-11.7999
▁PERI	-11.8009
▁TURT	-11.8015
750	-11.8016
▁adenomat	-11.8016
▁tumordiameter	-11.802
effecten	-11.8032
▁EN	-11.8037
▁myelodysplast	-11.8039
▁Volume	-11.804
▁5%)	-11.8041
▁puncties	-11.8041
-07-13:	-11.8048
-02-16:	-11.8058
98	-11.806
immuno	-11.8067
ub	-11.81
▁blaastumor	-11.81
▁5).	-11.8105
extern	-11.8108
2040	-11.8115
11,	-11.8129
▁Nerv	-11.813
▁tw	-11.8135
▁2015	-11.8141
▁vers	-11.8142
homogen	-11.8142
klein	-11.8143
intestinaal	-11.8152
gebracht	-11.8168
▁?	-11.8175
]*******/	-11.8177
]14	-11.8184
typen	-11.8184
]4.	-11.8184
adeno	-11.8198
acute	-11.8207
ovarium	-11.8209
lengte	-11.8212
0):	-11.8218
Als	-11.8218
▁gebruikt	-11.8221
▁w	-11.8228
Steel	-11.8235
diepe	-11.8235
Classificatie	-11.8241
Microscopie	-11.8241
kloon	-11.8242
▁k	-11.8243
Candida	-11.8244
Sterk	-11.8244
Maxima	-11.8245
amenorroeduur	-11.8245
helix	-11.8245
macroscopisch	-11.8245
IDH	-11.8246
variatie	-11.8246
beiderzijds	-11.8246
niveau	-11.8246
lichen	-11.8246
differentiaal	-11.8246
Huidbiopsie	-11.825
▁bovenstaand	-11.8253
▁epithelioid	-11.8272
-01-15:	-11.8278
▁myxoid	-11.8279
omheen	-11.8282
▁preexistent	-11.8284
▁gelijk	-11.8286
massa	-11.8292
▁lymfoplasmocyt	-11.8301
▁5-	-11.8307
ese	-11.8309
▁Ander	-11.8317
oppervlakkige	-11.8325
tukje	-11.8326
▁emfysemateu	-11.8328
24	-11.8331
▁lichaam	-11.8335
▁bloedstolsel	-11.8336
▁ongemarkeerd	-11.8337
ntraepidermal	-11.8337
▁vat	-11.8337
ctive	-11.8338
74	-11.8339
▁Morton	-11.8341
erwerkt	-11.8344
gemeen	-11.8345
▁mesenteria	-11.8346
rogressief	-11.8347
fdeling	-11.8347
cu	-11.835
▁multi	-11.8351
▁Bauhin	-11.8351
▁junctie	-11.8351
▁suppurati	-11.8352
¶	-11.8352
5,6-10,14,18,21)	-11.8352
aemia	-11.8352
viscositeit	-11.8352
▁cholesteatoom	-11.8352
▁dikwandig	-11.8352
▁fraai	-11.8352
▁inversum	-11.8352
▁tricholemma	-11.8352
▁verstuurd	-11.8352
▁atroficus	-11.8352
▁milj	-11.8352
▁epiglottis	-11.8352
Motiliteit	-11.8352
▁vaak	-11.8352
▁femoris	-11.8352
eiwitanalyse	-11.8352
▁PDGFRB	-11.8352
▁presentatie	-11.8352
▁vaginalis	-11.8352
▁Vaginatop	-11.8352
▁week	-11.8352
kalib	-11.8352
▁Tubulo	-11.8352
▁cutis	-11.8352
▁thymoom	-11.8353
▁immunoprofiel	-11.8353
▁jaren	-11.8353
▁aantonen	-11.8354
▁darmwand	-11.8354
POT	-11.8354
▁parotidectomie	-11.8355
▁testisparenchym	-11.8355
▁funisitis	-11.8355
▁neerslagen	-11.8355
▁verwantschap	-11.8355
▁gebouwd	-11.8355
▁tuberculose	-11.8355
▁neusgat	-11.8355
▁Reik	-11.8355
▁setting	-11.8356
▁paracolisch	-11.8356
oment	-11.8357
,14,15,1	-11.8358
▁cardiomyopathie	-11.836
aalf	-11.8361
▁organisatie	-11.8361
▁buismaag	-11.8361
▁pleomorf	-11.8361
▁Proxima	-11.8362
▁vrouwelijk	-11.8362
▁immunotherapie	-11.8362
▁buikholte	-11.8363
▁minor	-11.8364
▁Atypie	-11.8364
▁rechterknie	-11.8365
▁Radical	-11.8366
▁somatisch	-11.8366
▁cytogenetica	-11.8367
▁nierweefsel	-11.8368
▁verdeling	-11.8369
▁1/4	-11.837
troebel	-11.8371
▁Uitstrijk	-11.8372
▁fixatie	-11.8373
▁apart	-11.8374
▁kleinere	-11.8375
▁hieronder	-11.8375
▁achterste	-11.8376
▁biopsielitteken	-11.8378
▁mediaanlijn	-11.838
▁SSTR	-11.838
▁radiatie	-11.838
▁CVU	-11.8381
▁Volgen	-11.8382
▁nodi	-11.8383
▁nasal	-11.8384
▁*	-11.8387
▁corticale	-11.8389
▁skin	-11.8398
▁scherp	-11.8399
▁celpopulaties	-11.8399
▁carina	-11.8405
schatting	-11.8407
▁Fibrose	-11.8408
▁tumorgroei	-11.8412
▁dag	-11.842
▁biliaire	-11.8432
▁dVIN	-11.8439
Mutaties	-11.8447
▁tumordikte	-11.8453
▁arterio	-11.8457
▁aanvragend	-11.8458
▁capillairen	-11.8459
▁geel	-11.8466
snijranden	-11.8469
toename	-11.8474
SO	-11.8491
▁proliferaties	-11.8498
29	-11.8501
▁respiratoire	-11.8517
▁vesiculae	-11.8519
▁kanaal	-11.8521
▁overlegd	-11.8531
▁verdien	-11.8547
▁lokal	-11.8555
laaggradige	-11.8567
▁2012	-11.8576
▁(90%).	-11.858
tumoren	-11.8581
ax	-11.8581
▁PT	-11.8585
▁59	-11.8589
atief	-11.8589
▁Urineblaas	-11.859
fibroom	-11.8596
▁organiserend	-11.8621
▁pseudocyste	-11.8631
▁tumornegatief	-11.8644
-06-16:	-11.8653
▁Dd	-11.8656
▁autoimmuun	-11.8656
20-3	-11.8656
9):	-11.8656
3000	-11.8658
▁muco	-11.8663
▁KIN	-11.8663
-07-15:	-11.8668
tom	-11.8679
▁30%.	-11.8681
Aan	-11.8681
▁VCM	-11.8687
▁acht	-11.8691
▁process	-11.87
spoeling	-11.8702
oor	-11.8715
▁lang	-11.8722
▁75	-11.8733
▁40%.	-11.8737
ICAAL	-11.8745
ulaire	-11.8749
▁2018	-11.875
▁+).	-11.8751
▁do	-11.8754
▁hersen	-11.8754
15-	-11.8772
▁bev	-11.8787
artefacten	-11.8787
CHPv	-11.8794
helder	-11.8796
▁AANVULLING	-11.8798
eert	-11.8798
myxoma	-11.881
neurale	-11.8813
histiocytair	-11.8813
▁cylinder	-11.8813
overweging	-11.8815
1400	-11.882
Eerst	-11.8821
excochleaat	-11.8821
MYC	-11.8822
kleur	-11.8822
host	-11.8827
▁flor	-11.8829
crista	-11.8831
worden	-11.8832
lumbaal	-11.8833
vertex	-11.8834
achterzijde	-11.8834
Punctaat	-11.8834
apex	-11.8834
granuloma	-11.8834
schade	-11.8834
wordt	-11.8834
labium	-11.8835
linkerzijde	-11.8836
LOH	-11.8836
maar	-11.8837
tweemaal	-11.884
linkerbovenarm	-11.884
lders	-11.884
▁95%	-11.8841
8,2	-11.8841
Prostaatbiopten	-11.8842
▁gedilateerd	-11.8842
linkeronderbeen	-11.8845
▁doorgemaakt	-11.8846
pTa	-11.8851
-3)	-11.8855
sgraad	-11.8855
ongev	-11.8861
17-4	-11.8868
▁7;	-11.8884
MCL	-11.8887
▁aneurysma	-11.8888
▁cytoplasma	-11.8901
▁pulmona	-11.8924
▁ijzerdepositie	-11.8929
▁flegmoneu	-11.8937
toe	-11.8937
+,	-11.8938
verwogen	-11.8938
10-12,15,16);	-11.894
Cadherine	-11.894
large	-11.894
▁architectural	-11.894
▁funiculitis	-11.894
▁geinfarceerd	-11.894
▁gesuggereerd	-11.894
▁pemfigus	-11.894
▁spreken	-11.894
myxofibrosarcoom	-11.894
▁Chisholm	-11.894
▁thrombus	-11.894
▁necrobiosis	-11.894
▁sommige	-11.894
▁Sturm	-11.894
▁pericardvocht	-11.894
Vraagstelling	-11.894
▁weg	-11.894
▁immatuur	-11.894
▁cicatrici	-11.894
▁mesotheliomen	-11.894
▁cholestase	-11.894
▁condylomata	-11.894
Histocytologisch	-11.894
▁losgelegen	-11.894
▁MEK	-11.8941
▁aplastisch	-11.8941
▁Genetica	-11.8941
uunhistochemisch	-11.8941
▁breed	-11.8942
herrangschikking	-11.8942
▁4,8	-11.8943
▁phyllodes	-11.8943
▁Cristabiopsie	-11.8943
▁Tepel	-11.8943
▁vertegenwoordig	-11.8944
▁Malherbe	-11.8944
▁richtlijn	-11.8944
▁shift	-11.8944
▁species	-11.8944
▁begrensd	-11.8944
▁ijzerstapeling	-11.8944
▁pankeratine	-11.8944
▁(+/-	-11.8944
▁Cystectomie	-11.8944
▁subclaviculair	-11.8944
▁immunologie	-11.8944
▁Zou	-11.8944
klonale	-11.8944
20/	-11.8946
▁blaasbodem	-11.8947
▁PIP	-11.8948
▁Lab	-11.8949
▁Hierdoor	-11.8949
▁sterilisatie	-11.895
▁bronchiaal	-11.895
▁microbiologisch	-11.895
▁detectie	-11.8951
▁breedte	-11.8951
▁(15	-11.8952
▁zeven	-11.8952
▁oorschelprand	-11.8952
545	-11.8953
ppendicitis	-11.8953
▁hierdoor	-11.8954
▁septale	-11.8956
▁orofarynx	-11.8957
▁pyoge	-11.8957
▁lamellen	-11.8957
▁expansie	-11.8957
▁destructie	-11.8957
neoadjuvante	-11.8958
▁(35	-11.8958
▁neuspoliepen	-11.8959
▁rechterlong	-11.8959
▁Cervixbiopsie	-11.8961
▁NHL	-11.8962
▁histiocyten	-11.8962
▁dys	-11.8962
▁MLPA	-11.8964
sein	-11.8964
▁PET	-11.8966
▁mammabiopt	-11.8966
▁bovenzijde	-11.8968
▁penetr	-11.8969
▁ingesneden	-11.8972
▁corpusmucosa	-11.8972
▁rood	-11.8976
▁technisch	-11.8978
▁only	-11.8978
▁Spierbiopt	-11.898
▁laesionaal	-11.8981
-09-14:	-11.8982
▁TMB	-11.8985
lumpectomie	-11.8987
▁cystisch	-11.8987
▁3-4	-11.8988
9-18)	-11.8992
▁Diffu	-11.8996
▁rechterborst	-11.8997
▁zijresectierand	-11.9001
oorschelp	-11.9003
▁incontinentie	-11.9012
angioinvasie	-11.9013
▁100%.	-11.9013
▁Schildwacht	-11.9015
▁loge	-11.902
tation	-11.9021
▁LSIL	-11.9023
lone	-11.9027
▁jonge	-11.9033
▁polypoide	-11.9034
▁BK	-11.9034
▁Vulvabiopten	-11.9036
*)	-11.9037
▁Non	-11.9038
▁(40	-11.904
▁overgangszone	-11.9043
▁erosies	-11.9047
▁MM	-11.905
▁5),	-11.9053
▁Vriescoupes	-11.906
man	-11.9067
-4	-11.9072
▁eo	-11.9075
▁desmoplastische	-11.9084
▁HMC	-11.9085
iliaire	-11.9089
▁Ca	-11.9096
▁20%.	-11.9099
▁PL	-11.9108
▁MS	-11.9119
lymfangioinvasie	-11.9119
-08-16:	-11.9123
▁mesangio	-11.9124
eus	-11.9129
▁Mondslijmvlies	-11.9131
▁46	-11.9136
▁generati	-11.9147
gevoeligheid	-11.9156
▁effecten	-11.916
tt	-11.9174
ologiebespreking	-11.9177
plasmocellulaire	-11.9185
sub	-11.9186
797	-11.9194
Tel	-11.9196
holte	-11.9198
27	-11.9199
▁bo	-11.92
▁diabet	-11.9206
operatieve	-11.9206
assing	-11.9237
spoelsel	-11.9244
▁Pancreas	-11.9255
▁Broncho	-11.9257
edebeoordeling	-11.9258
▁2017	-11.9265
▁tangentie	-11.9269
am	-11.9278
sequenties	-11.9287
▁onderzoeken	-11.9295
placenta	-11.9299
▁5%).	-11.9312
▁70%)	-11.9317
nale	-11.9326
601	-11.9332
NET	-11.9336
▁2%	-11.934
▁verse	-11.9347
uitbreiding	-11.9353
▁lipo	-11.9354
▁2-3)	-11.9361
▁geleid	-11.9365
zijwand	-11.9366
Re	-11.937
zijn	-11.938
cysteus	-11.9391
papillair	-11.9398
▁polycyth	-11.9401
▁coronair	-11.9418
-5	-11.9424
kuit	-11.9425
aanvullende	-11.9425
slaap	-11.9426
bn	-11.9434
PGM	-11.9437
fluxoesofagitis	-11.9439
KLINI	-11.9443
Bronchus	-11.9443
▁tumormateriaal	-11.9448
uVIN	-11.9454
melanoom	-11.9455
overgangszone	-11.9456
Ulceratie	-11.9457
diastase	-11.9457
▁rechtervoet	-11.9457
Metastase	-11.9458
MARGE	-11.9458
Kleuring	-11.9458
binnenzijde	-11.9459
▁gynaecologi	-11.9459
bedraagt	-11.9459
gelaat	-11.9459
Botbiopt	-11.9459
melanocytaire	-11.9459
colitis	-11.9459
Nierbiopt	-11.946
TVU	-11.946
EBV	-11.946
rechterschouder	-11.9462
▁multinodulair	-11.9467
▁RIC	-11.9468
▁suspecte	-11.9469
▁Gefragmenteerd	-11.947
nh	-11.947
▁vagin	-11.9499
stations	-11.9507
19-	-11.9507
▁chirurg	-11.9512
▁late	-11.9512
ovula	-11.9518
▁Zoon	-11.9521
▁peritoneumbiopt	-11.9524
▁56	-11.9532
eh	-11.9533
delingse	-11.954
ous	-11.9544
▁rearrangement	-11.9548
▁veldje	-11.955
▁levernaaldbiopt	-11.9551
▁pustel	-11.9554
rootste	-11.9554
IRE	-11.9555
gren	-11.9557
iaire	-11.9557
▁Al	-11.9559
globuline	-11.9561
▁Rectumbiopt	-11.9561
▁plekke	-11.9562
nucleatie	-11.9564
▁myxo	-11.9564
enminste	-11.9565
DIKTE	-11.9565
ICULA	-11.9565
SPECIMEN	-11.9565
‘	-11.9565
▁Dermatofibroom	-11.9565
▁LABPON	-11.9565
▁Sprieterig	-11.9565
▁androgenetica	-11.9565
▁fibrinopurulent	-11.9565
▁inwendig	-11.9565
▁orchidectomie	-11.9565
▁seminalis	-11.9565
▁glomerulopathie	-11.9565
▁mediastinaal	-11.9565
▁opinion	-11.9565
▁6495)	-11.9565
▁Waldenstrom	-11.9565
▁variabel	-11.9565
Proton	-11.9565
▁zijwaarts	-11.9565
▁synoviitis	-11.9565
▁staafjes	-11.9565
▁blanco	-11.9565
▁tubulitis	-11.9565
▁miniscu	-11.9565
1047	-11.9565
flowcytometrisch	-11.9565
▁blaaskoepel	-11.9565
▁herbeoordeling	-11.9565
▁bekkenwand	-11.9565
▁angioleiomyoom	-11.9565
▁lipomatosus	-11.9565
▁bloedvaatjes	-11.9565
▁regel	-11.9566
VOLG	-11.9567
▁haren	-11.9567
▁Sj	-11.9567
condylomateus	-11.9568
▁antrumgastritis	-11.9568
▁telken	-11.9568
▁CDLE	-11.9569
▁dik	-11.9569
▁Rectosigmoid	-11.9569
▁antilichaam	-11.9569
▁nevenbevinding	-11.9569
▁excideren	-11.9569
▁omslagplooi	-11.9569
▁doel	-11.9569
▁classifier	-11.9569
▁endometritis	-11.9569
▁angiokeratoom	-11.9569
▁strikt	-11.9569
▁Myometrium	-11.9569
▁granulomateus	-11.9569
▁ulnair	-11.957
sthenospermie	-11.957
leangiectaticum	-11.957
▁poli	-11.957
▁mastoid	-11.957
rechtzijdig	-11.9571
▁tonsillair	-11.9573
infraclaviculair	-11.9573
▁CISH	-11.9575
▁grillige	-11.9575
0,5	-11.9575
▁Kliniek	-11.9576
▁bilnaad	-11.9576
▁leverhilus	-11.9576
▁acne	-11.9576
▁immuuncomplex	-11.9576
▁epitheelatypie	-11.9576
▁subepidermaal	-11.9577
▁driemaal	-11.9578
▁Omentum	-11.9578
▁placentabed	-11.9578
▁Variati	-11.958
▁vasculitisbeeld	-11.958
▁ophoping	-11.9583
▁subcapsulair	-11.9583
▁frontotemporaal	-11.9583
▁indruk	-11.9583
▁capillaritis	-11.9583
SN	-11.9584
▁geinc	-11.9585
▁linkerlong	-11.9585
▁linkerknie	-11.9588
▁rustig	-11.959
▁renaal	-11.9591
▁plaques	-11.9591
▁sneden	-11.9591
14-1	-11.9592
▁glia	-11.9595
▁systeem	-11.9597
▁Ewing	-11.9597
▁Grocott	-11.9597
▁mucoid	-11.9599
afstand	-11.9601
▁blaasbiopt	-11.9606
decidualis	-11.9607
erde	-11.9617
▁WDP	-11.9618
elijk	-11.9619
▁ovarieel	-11.9626
wenkbrauw	-11.9626
▁precie	-11.9633
▁XI	-11.9639
▁pleurabiopten	-11.9641
-07-16:	-11.9643
eling	-11.9645
▁Dens	-11.9651
▁(14/	-11.9658
▁tumoraal	-11.966
▁sperm	-11.9664
▁bronchusbiopten	-11.9664
▁blijken	-11.9664
▁Num	-11.9665
▁tien	-11.9668
▁Hp	-11.967
▁BH	-11.9675
rd	-11.9679
▁mammatumor	-11.968
▁epithelioide	-11.9681
rond	-11.9682
▁ik	-11.9686
▁Voorna	-11.9687
2);	-11.9688
-02-15:	-11.9689
Cervixlisexcisie	-11.9695
papillaire	-11.9708
transplantaat	-11.9709
▁PCC	-11.971
icrocalcificatie	-11.9722
▁+/-	-11.9724
▁(3-	-11.974
Mutatieanalyse	-11.9752
228	-11.9754
tumorlocalisatie	-11.9755
▁19,	-11.9766
ntestinale	-11.9782
138	-11.9786
voorlopige	-11.979
DERM	-11.9793
5.	-11.9796
loopt	-11.98
265	-11.9804
3/	-11.9808
Web	-11.9809
nier	-11.9814
-09-17:	-11.983
▁vormen	-11.9836
▁squam	-11.9849
drietal	-11.9854
▁than	-11.9854
ypering	-11.9855
Hyperkeratotisch	-11.9856
▁Even	-11.9858
alveolair	-11.9864
▁kind	-11.9867
▁leveren	-11.9868
uitstrijken	-11.9869
ablatio	-11.9874
▁0.4	-11.9875
▁bloc	-11.9875
▁herschikking	-11.9881
profiel	-11.9889
▁geinverteerd	-11.9895
▁xanthogranulo	-11.9898
net	-11.99
▁IP	-11.9905
.182	-11.9905
IP	-11.9918
mA	-11.9923
▁intima	-11.9927
Bacterie	-11.9928
▁clonaliteit	-11.9956
keratose	-11.997
▁+4)	-11.9979
35	-11.9989
]06	-11.9993
sluiten	-12.0004
Stat	-12.0005
vlak	-12.001
uterien	-12.0013
-10-14:	-12.002
▁lymfaden	-12.002
▁opname	-12.0021
▁MED	-12.0027
]21	-12.0059
contact	-12.0064
]08	-12.0067
▁too	-12.0075
▁On	-12.0087
▁ma	-12.0092
centrifug	-12.0094
▁cholesterol	-12.0107
Prostaat	-12.0113
orbitaal	-12.0117
membraneus	-12.0117
gevuld	-12.0118
for	-12.012
ovariele	-12.0121
Mandard	-12.0122
sperm	-12.0122
diam	-12.0125
Clark	-12.0125
extravasatie	-12.0125
conclusie	-12.0125
NSAID	-12.0125
bulbus	-12.0125
paranasaal	-12.0125
occipitaal	-12.0125
prurigo	-12.0125
referentie	-12.0126
derhalve	-12.0126
parotis	-12.0126
aangetoond	-12.0126
aangetroffen	-12.0126
ratio	-12.0126
kapsel	-12.0127
infiltrerend	-12.0127
bacterien	-12.0128
Nader	-12.0128
▁polypoid	-12.013
parietaal	-12.0131
onderverdeling	-12.0131
hotspots	-12.0132
perineurale	-12.0132
▁mild	-12.0133
werken	-12.014
MAI	-12.015
15/	-12.0157
▁atrium	-12.0158
Basal	-12.0158
14):	-12.0171
▁halsklier	-12.0172
▁73	-12.0177
▁osteo	-12.0178
▁testisbiopt	-12.0182
▁thymus	-12.0184
▁NP	-12.0189
▁Boweno	-12.0189
▁uitbreiden	-12.0196
▁behandelen	-12.0203
elefonisch	-12.021
19-1	-12.0211
▁Lipbiopt	-12.0213
▁hydro	-12.0218
▁Coecum	-12.0219
rocedure	-12.0224
▁ante	-12.0224
flux	-12.0225
mark	-12.0227
▁Lip	-12.0227
▁clinico	-12.0227
▁uitloper	-12.0228
ichting	-12.0228
6.	-12.0229
▁dubieu	-12.023
▁trilin	-12.0231
▁Fib	-12.0231
ANGIO	-12.0231
Mitosen	-12.0232
olkingsonderzoek	-12.0232
▁Navelstreng	-12.0232
▁ameloblastoom	-12.0232
▁glomerulus	-12.0232
▁opgave	-12.0232
▁panitumumab	-12.0232
▁pilaris	-12.0232
▁preexsistent	-12.0232
▁benigna	-12.0232
▁fysiologisch	-12.0232
▁orientatie	-12.0232
▁radiologie	-12.0232
Dikte	-12.0232
▁lipoidica	-12.0232
▁cerebellum	-12.0232
▁hysterectomie	-12.0232
746_	-12.0232
▁zeggen	-12.0232
▁standaard	-12.0232
▁Lipoom	-12.0232
▁naevuscelnaevus	-12.0232
▁Anusuitstrijk	-12.0232
▁berichtgeving	-12.0232
▁hepaticus	-12.0232
▁serum	-12.0232
▁omsneden	-12.0232
▁aldus	-12.0232
▁pancreasstaart	-12.0232
▁Normospermie	-12.0232
▁Bauhini	-12.0232
▁metastasering	-12.0233
▁moment	-12.0233
▁phyllodestumor	-12.0233
▁rechteroog	-12.0233
▁helixrand	-12.0234
▁2,9	-12.0235
▁huidstukje	-12.0235
▁cryptabcesjes	-12.0235
▁plavei	-12.0235
▁differentieren	-12.0235
▁cMYC	-12.0235
▁MGUS	-12.0236
▁auramine	-12.0236
▁daadwerkelijk	-12.0236
▁hepatoduodenale	-12.0236
▁LBQ	-12.0236
▁lymfkliertje	-12.0236
▁ontwikkeld	-12.0236
▁myopathisch	-12.0236
▁twijfel	-12.0236
▁Gram	-12.0236
▁retroperitoneum	-12.0236
▁omental	-12.0237
▁trombosering	-12.0237
▁chondroid	-12.0238
▁PSC	-12.0239
▁Coecumbiopten	-12.024
▁trombo	-12.0241
▁lumina	-12.0243
▁Macroscopisch	-12.0243
▁AANGEPAST	-12.0243
▁balanitis	-12.0243
▁cornea	-12.0243
▁getraumatiseerd	-12.0243
▁vaatmalformatie	-12.0243
▁accessoir	-12.0243
▁antihelix	-12.0243
▁pink	-12.0244
▁Tumorpercentage	-12.0244
▁Synoviumbiopten	-12.0245
▁opgemerkt	-12.0246
▁Transplantaat	-12.0246
▁pustels	-12.0247
▁ileocoecaal	-12.0248
▁Geschat	-12.0251
▁opgenomen	-12.0251
▁vervezeling	-12.0251
▁LETZ	-12.0251
▁Negatief	-12.0252
▁MIB	-12.0252
▁tubulairadenoom	-12.0253
▁ijzerdeposities	-12.0253
ASS	-12.0254
▁Concordant	-12.0258
▁Pericardvocht	-12.0258
▁bovenpool	-12.026
▁aberrante	-12.0261
▁0)	-12.0262
▁digitu	-12.0263
▁georganiseerde	-12.0263
-01-14/*******/	-12.0265
▁areola	-12.0266
▁LLETZ	-12.0266
▁mutant	-12.0266
▁lesionaal	-12.0271
▁antral	-12.0271
▁cellulair	-12.0272
▁overeenkomend	-12.0273
▁gemiddeld	-12.0274
▁tumorproces	-12.0279
▁punten	-12.0281
flat	-12.0282
▁secretie	-12.0284
▁follikels	-12.0285
▁rechterbil	-12.0287
oderende	-12.0288
▁67	-12.0296
▁sinonasal	-12.0299
6).	-12.0307
▁IGH	-12.0307
▁immunofenotyp	-12.031
▁pTis	-12.0313
▁MZH	-12.0316
celrijk	-12.0319
▁Patient	-12.0322
▁prep	-12.0325
▁band	-12.0326
▁Bespreking	-12.0327
▁voorvoet	-12.0327
00.000	-12.0328
▁ingebracht	-12.0329
XI	-12.033
▁dist	-12.033
eta	-12.0336
▁men	-12.0348
assiste	-12.0349
als	-12.0352
▁tussenliggend	-12.0357
nb	-12.0365
▁kloon	-12.0365
▁pustul	-12.037
▁maagcardiatype	-12.0375
▁Botbiopten	-12.0378
▁Dysplasie	-12.0388
▁con	-12.0402
▁arterioveneu	-12.0406
▁2014:	-12.0407
▁Poliepje	-12.0412
legmoneuze	-12.0428
80	-12.043
ad	-12.043
278	-12.0432
]09	-12.0435
sb	-12.0437
▁Aanwijzing	-12.0439
▁Bi	-12.0449
▁<5%	-12.0453
▁BI	-12.0456
▁LMS	-12.0459
-01-17:	-12.0459
sarcoom	-12.0463
pm	-12.0472
-02-13:	-12.0474
▁ME	-12.0475
▁leverbiopten	-12.049
▁lipoma	-12.0491
25)	-12.0492
▁gefibroseerd	-12.0498
Indi	-12.0523
11)	-12.0524
▁(25	-12.0527
179	-12.0538
ontactallergisch	-12.0539
16-	-12.0548
▁50%.	-12.0549
▁excisiebiopten	-12.0555
69	-12.0555
dan	-12.0562
portaal	-12.0567
been	-12.0573
stase	-12.058
▁MCP	-12.059
PM	-12.0601
▁Voorstel	-12.0607
TS	-12.0612
▁ondersteunen	-12.0625
16/	-12.0636
cN	-12.0639
ia	-12.0639
▁spin	-12.0654
▁1-2).	-12.0661
dr	-12.0666
]04	-12.0672
lokale	-12.0674
▁up	-12.0674
146	-12.0687
-06-15:	-12.0691
ier	-12.072
oppervlakkig	-12.0739
geassocieerd	-12.074
▁gebiedje	-12.074
spatroon	-12.074
index	-12.0748
▁Ten	-12.0748
1/2	-12.0749
voet	-12.075
542	-12.075
▁Sponta	-12.0752
che	-12.0754
actief	-12.0757
dacht	-12.0758
geschat	-12.0758
PL	-12.0762
▁radio	-12.0765
20-	-12.0766
]5.	-12.0778
penis	-12.0782
allen	-12.0783
buis	-12.0784
▁mix	-12.0785
capillaire	-12.0788
zak	-12.0791
▁overig	-12.0792
▁epitheloid	-12.0792
Is	-12.0803
knie	-12.0807
Colon	-12.0816
staart	-12.0817
trial	-12.0818
Myc	-12.0825
Volledigheid	-12.0826
sclerose	-12.0826
UI	-12.0827
▁Colonpoliep	-12.0828
laag	-12.0829
UITBREIDING	-12.0832
▁1.5	-12.0832
ulcus	-12.0834
band	-12.0834
oa	-12.0834
Regressie	-12.0835
celveranderingen	-12.0836
Patient	-12.0836
therapie	-12.0836
partieel	-12.0838
MGMT	-12.0839
controle	-12.0839
Hotspot	-12.0839
gemethyleerd	-12.0839
abdomen	-12.084
acinair	-12.084
translocatie	-12.084
kliniek	-12.084
ductie	-12.0841
▁transplantaat	-12.0841
voorzijde	-12.0842
actinisch	-12.0843
Gleasonscore	-12.0845
Colonbiopten	-12.0848
post	-12.085
▁geruptureerd	-12.0852
linkerbovenbeen	-12.0852
afwijkende	-12.0853
ta	-12.0858
195	-12.0867
Regio	-12.0872
▁Pre	-12.0876
subcutane	-12.0877
LOK	-12.0882
CE	-12.0886
pH	-12.089
randen	-12.0895
eerste	-12.0901
Vulvabiopt	-12.0906
▁conclusieI	-12.0907
▁4+3=7	-12.0911
hylation	-12.0914
▁samenhang	-12.0916
▁atrof	-12.0917
oraal	-12.0921
▁synovia	-12.0927
atellitose	-12.0928
▁sperma	-12.0929
▁zenuw	-12.093
▁naevocellulare	-12.0931
2017	-12.0931
bv	-12.0934
▁(80%)	-12.0937
10):	-12.0939
men	-12.094
▁Ileocoecaal	-12.0943
▁bestralings	-12.0943
LE	-12.0943
▁endotheel	-12.0944
▁2/2	-12.0945
▁giardia	-12.0946
▁Bulbus	-12.0946
▁gasthuis	-12.0946
BRONCHUSSNIJVLAK	-12.0946
Idylla	-12.0946
druppel	-12.0946
zoospermie	-12.0946
▁Ultra	-12.0946
▁beleid	-12.0946
▁commentaar	-12.0946
▁discrepant	-12.0946
▁elastine	-12.0946
▁fallopii	-12.0946
▁guttata	-12.0946
▁peritonei	-12.0946
▁primers	-12.0946
▁research	-12.0946
▁right	-12.0946
▁spermaticus	-12.0946
▁versicolor	-12.0946
▁verzonden	-12.0946
ladderwash	-12.0946
▁volvulus	-12.0946
FIGO	-12.0946
▁eerstelijns	-12.0946
▁verklaart	-12.0946
▁suppurativa	-12.0946
▁verhoorning	-12.0946
▁left	-12.0946
▁LORD	-12.0946
▁vezeltoename	-12.0946
▁Melanoom	-12.0946
▁kleppen	-12.0946
▁glomustumor	-12.0946
▁perniones	-12.0946
▁polipeu	-12.0946
▁bewezen	-12.0946
▁mucinose	-12.0946
▁bereikt	-12.0946
▁spierlaag	-12.0946
▁aanleveren	-12.0946
▁plaatsgevonden	-12.0946
▁glycogen	-12.0947
▁aangemaakt	-12.0947
▁doorgebeld	-12.0947
▁VOORLOPIG	-12.0947
wederom	-12.0947
aevus	-12.0948
▁immuuntherapie	-12.0948
Immunologisch	-12.0948
▁vinden	-12.0949
▁longorigine	-12.0949
▁meng	-12.0949
▁3+4	-12.0949
▁spirochetose	-12.095
▁pelvien	-12.095
▁pericard	-12.095
▁bh	-12.095
plg	-12.095
▁Lichen	-12.095
▁Parotis	-12.095
▁verwacht	-12.095
▁juveniel	-12.095
▁langdurig	-12.095
▁CONSULT	-12.095
▁afbraak	-12.095
▁sacro	-12.095
▁verwant	-12.095
▁parametrium	-12.095
▁omkapseld	-12.095
▁ATRX	-12.095
▁anatomisch	-12.095
▁follikelcentrum	-12.095
▁ileocoecaalklep	-12.095
▁hidradenoom	-12.095
▁borstwand	-12.0951
▁lymfadenitis	-12.0951
▁Fibroadenoom	-12.0951
▁destijds	-12.0951
▁hyfen	-12.0951
▁majora	-12.0951
▁Corpuscurettage	-12.0951
▁transitie	-12.0951
coronairsclerose	-12.0952
▁lymfangioom	-12.0953
▁uitgenomen	-12.0953
▁DIP	-12.0953
▁slokdarmmucosa	-12.0955
▁osteoporose	-12.0955
gebrek	-12.0955
▁6,0	-12.0956
▁blaasmucosa	-12.0956
gene	-12.0958
▁donor	-12.0958
▁hyalien	-12.0958
▁pericolisch	-12.0958
▁zaadje	-12.0958
▁methode	-12.0958
▁Burkitt	-12.0958
▁Onderlip	-12.0959
▁neuspoliep	-12.0959
▁beta	-12.096
▁borstbeen	-12.0961
▁cysticus	-12.0961
▁Duodenumbiopsie	-12.0961
▁orbita	-12.0962
▁IGK	-12.0963
▁frontal	-12.0963
VATS	-12.0965
▁schaamstreek	-12.0966
▁stereotactisch	-12.0966
-125	-12.0966
▁melanose	-12.0967
sinonasaal	-12.0967
TZI	-12.0967
▁telling	-12.0968
▁4,3	-12.0968
▁AS	-12.0968
▁Hormoonreceptor	-12.0968
▁Passend	-12.0969
▁hiel	-12.0969
▁leukoplakie	-12.097
▁scapulair	-12.097
▁cut	-12.097
▁continue	-12.0973
▁lymfkliertjes	-12.0973
▁stapeling	-12.0974
▁klachten	-12.0975
▁vezel	-12.0975
▁spitzoide	-12.0977
▁glaasjes	-12.0979
▁dura	-12.098
▁(1,5	-12.098
▁(0)	-12.0982
▁megakaryopoiese	-12.0982
▁cortex	-12.0983
▁4%	-12.0984
▁bijdragend	-12.0985
▁mut	-12.0992
oche	-12.0994
▁verlittekende	-12.1
▁2016:	-12.1001
▁ulcusmateriaal	-12.1002
▁Of	-12.1005
genomen	-12.1005
▁uurszijde	-12.1008
▁Vries	-12.1014
/*******	-12.1015
▁ARAF	-12.1023
▁aankleurend	-12.1029
▁cystebeeld	-12.103
▁Pipellebiopt	-12.1038
▁cytoplasmatisch	-12.1039
▁lijden	-12.104
]*******/*******	-12.105
IS	-12.1052
eit	-12.1056
▁25%	-12.1059
▁multinodulaire	-12.1064
41	-12.1066
otje	-12.107
neurogene	-12.1075
tjes	-12.1079
derde	-12.1081
▁rectumbiopt	-12.1083
▁histiocytose	-12.1084
132	-12.1087
▁site	-12.1088
-03-16:	-12.1092
ermate	-12.1094
maagbiopten	-12.1104
▁EI	-12.1104
ierbij	-12.1111
▁lijn	-12.1113
sie	-12.1114
▁oogt	-12.1116
22-1	-12.1117
72	-12.1119
▁Transcervica	-12.1122
▁intratubulair	-12.1125
EM	-12.1129
leucocyten	-12.1133
▁Stemband	-12.1134
▁Shaveexcisie	-12.114
▁gevolgd	-12.1153
▁mucosabiopten	-12.1156
▁('	-12.1164
▁0,	-12.1176
HPF	-12.1177
▁RA	-12.1184
----------------	-12.1187
4).	-12.1188
▁excisiebiopsie	-12.119
low	-12.1202
▁vs	-12.1204
EZ	-12.1218
▁naresectie	-12.1232
atuur	-12.1234
teuze	-12.1234
▁Secundair	-12.1237
-06-17:	-12.1257
▁keratotisch	-12.1259
8):	-12.1265
matige	-12.127
▁hemorrhagisch	-12.1271
]28	-12.1272
26	-12.1276
▁amplificaties	-12.1283
23):	-12.1292
▁sigmoidbiopten	-12.1303
90	-12.1319
lo	-12.1323
rijk	-12.1329
vraagformulier	-12.1335
▁porta	-12.1338
4,6	-12.134
▁Vet	-12.1342
cutane	-12.1342
marginaal	-12.1343
il	-12.1359
fractie	-12.1362
rondcell	-12.1371
pl	-12.1376
*,	-12.1382
tratum	-12.1389
bb	-12.139
corpusbiopten	-12.14
anus	-12.1412
▁zegelring	-12.1413
▁coronairarterie	-12.1414
Excisiebiopt	-12.1414
weemaal	-12.1418
▁mycobacteri	-12.1433
▁La	-12.1438
identificeer	-12.1457
waarde	-12.1457
22/	-12.1458
▁Mond	-12.1467
aard	-12.147
EE	-12.1482
lobulair	-12.1506
beginnend	-12.1509
no	-12.1516
lytische	-12.1522
-01-19:	-12.1533
▁Nier	-12.1543
sstoornissen	-12.1545
typering	-12.1546
▁Peritoneum	-12.1554
ductaal	-12.1557
-02-14/*******/	-12.1557
methylering	-12.156
axillair	-12.1561
volume	-12.1562
▁AIN	-12.1574
Tyr	-12.1576
classificeren	-12.1577
▁plaveiselcelcar	-12.1578
▁Langerhans	-12.1579
moleculair	-12.158
amputatie	-12.1592
retro	-12.1594
falen	-12.1603
vulva	-12.1606
Bespreking	-12.1606
origine	-12.1606
relevant	-12.1606
medicamenteus	-12.1607
DLBCL	-12.1607
drie	-12.1607
EBER	-12.1608
NIEUWE	-12.1608
atheroomcyste	-12.1608
pigment	-12.1608
NSCLC	-12.1608
gemengd	-12.1608
JBZ	-12.1609
bovenooglid	-12.1609
▁lepidisch	-12.1609
representatief	-12.1609
eventue	-12.1609
dermatofibroom	-12.1609
verruca	-12.1609
▁Onze	-12.1609
onderooglid	-12.1609
Bowen	-12.1609
mucineus	-12.161
weke	-12.161
bovenbuik	-12.161
▁redelijk	-12.1612
CTI	-12.1612
▁Uitgebreid	-12.1616
▁necrotiserend	-12.1616
-09-13/*******/	-12.1622
onderste	-12.1623
MDS	-12.1624
LSIL	-12.1625
herapiekeuzetest	-12.1636
2.5	-12.1641
Cave	-12.1641
zeer	-12.1644
▁hormoon	-12.1647
AE	-12.1647
vanwege	-12.1648
0)	-12.1655
onbekend	-12.1658
5/*******/	-12.1659
agenoeg	-12.1668
▁dun	-12.1669
▁sarco	-12.1676
▁verlitteken	-12.1688
dag	-12.1689
Consensus	-12.1693
cytoplasm	-12.1694
▁maagfundus	-12.1695
▁to	-12.1696
▁hemorroid	-12.1697
oid	-12.1698
snijden	-12.17
▁mening	-12.1702
▁vesikel	-12.1704
▁kristal	-12.1705
▁keten	-12.1705
▁celgroepje	-12.1711
▁Onder	-12.1711
▁METASTASE	-12.1713
irriteerde	-12.1714
▁morphaea	-12.1714
lg	-12.1714
▁follicular	-12.1714
▁sectio	-12.1715
MORFOLOGI	-12.1715
amenteuze	-12.1715
▁Positief	-12.1715
▁Prostatectomie	-12.1715
▁aanmerking	-12.1715
▁dunwandige	-12.1715
▁gepunch	-12.1715
▁hemorragie	-12.1715
▁piriformis	-12.1715
▁rommelig	-12.1715
▁rubra	-12.1715
▁transmuraal	-12.1715
▁versneld	-12.1715
interpreteerbaar	-12.1715
▁Bartholin	-12.1715
▁criterium	-12.1715
▁doodsoorzaak	-12.1715
▁agarcyto	-12.1715
▁plasmocytoom	-12.1715
▁cryptdestructie	-12.1715
▁intensiteit	-12.1715
▁mitosefiguren	-12.1715
▁betrof	-12.1715
▁aangedaan	-12.1715
▁korstvorming	-12.1715
▁celtelling	-12.1715
▁tonsillen	-12.1715
▁stervormig	-12.1715
▁aspergillus	-12.1715
▁vaattoename	-12.1715
▁intralumina	-12.1715
▁cytogenetisch	-12.1715
▁parapsoriasis	-12.1716
welling	-12.1716
plica	-12.1716
▁myeloblasten	-12.1716
▁hersentumor	-12.1716
▁peribronchiale	-12.1717
▁tepelvocht	-12.1717
▁biopsietraject	-12.1717
▁lamellair	-12.1717
▁hypoxisch	-12.1717
▁neusholte	-12.1719
▁middenoor	-12.1719
▁3,9	-12.1719
▁ijzerkleuring	-12.1719
▁stadi	-12.172
▁tatoeage	-12.172
▁Chirurgisch	-12.172
▁Gewrichts	-12.172
▁sacrum	-12.172
▁Beiderzijds	-12.172
▁minora	-12.172
▁papillomatosis	-12.172
▁hypoplasie	-12.172
▁paratrabeculair	-12.172
▁side	-12.172
▁Morfologie	-12.172
▁EWSR	-12.172
▁2008	-12.1721
▁dichtbij	-12.1721
▁3,7	-12.1721
▁uterussegment	-12.1721
▁mammaprothese	-12.1722
▁3/4	-12.1722
▁obliteratie	-12.1722
▁erythemateuze	-12.1722
▁overgrijpen	-12.1724
▁BTG	-12.1725
▁hyperkeratoti	-12.1725
-02-18:	-12.1725
▁rapport	-12.1726
▁MTP	-12.1727
mediadegeneratie	-12.1727
▁negen	-12.1728
▁Breuninger	-12.1729
▁Serologie	-12.1729
▁gemuteerd	-12.1729
▁screening	-12.1729
▁signalen	-12.1729
▁trabeculair	-12.1729
▁gemerkt	-12.1729
▁conus	-12.1729
▁craniolateraal	-12.1729
▁congorood	-12.1729
epithelialisatie	-12.1729
▁virusinfectie	-12.1729
▁productie	-12.1729
▁midfrontaal	-12.173
▁verwijz	-12.173
▁VER	-12.1732
▁cystectomie	-12.1733
▁thyreoidectomie	-12.1733
▁(60%)	-12.1733
▁recurrent	-12.1733
▁LAD	-12.1735
▁rechterovarium	-12.1735
▁Additione	-12.1737
▁Geadviseerd	-12.1737
▁gereseceerd	-12.1737
▁schacht	-12.1737
▁lymfoidweefsel	-12.1737
▁Ectocervica	-12.1738
itiele	-12.1738
▁genese	-12.1738
▁Fragmentje	-12.1738
▁cetuximab	-12.1738
▁celblok	-12.1738
pons	-12.1738
▁Colonresectie	-12.1739
▁bioptlengte	-12.174
REN	-12.174
▁vasoinvasie	-12.174
▁Doorsnijding	-12.1743
14-4	-12.1745
▁isolat	-12.1746
▁matrix	-12.1746
▁reconstructie	-12.1746
▁tonsillectomie	-12.1746
▁Lymfoom	-12.1746
▁Buikvocht	-12.1746
▁gekleurd	-12.1746
▁verhevenheid	-12.1746
rad	-12.1747
▁DISH	-12.1748
▁Opvallend	-12.1748
▁5,2	-12.1748
▁teleangiectati	-12.175
delijke	-12.175
21):	-12.1751
kleine	-12.1754
▁volledigheid	-12.1754
▁HRD	-12.1754
▁Hailey	-12.1755
▁boweno	-12.1756
▁cystevorming	-12.1758
▁elementen	-12.1758
85	-12.1759
▁MAR	-12.176
▁huidadnexen	-12.1761
▁artefact	-12.1762
MSP	-12.1763
▁(13/	-12.1766
469	-12.1767
groeiend	-12.1772
▁echo	-12.1778
▁DDR	-12.1779
▁gestuwde	-12.179
▁ulceratief	-12.1791
bronchusepitheel	-12.1791
▁endometrio	-12.1792
▁rete	-12.1793
▁66	-12.1794
▁AIS	-12.1795
▁WT	-12.1808
09	-12.1809
▁3,3	-12.1811
▁trial	-12.1823
▁spierinvasie	-12.1824
▁myeloA	-12.1825
18):	-12.1834
10),	-12.1837
aq	-12.1838
kant	-12.1843
▁Mandard	-12.1844
▁qua	-12.1846
oA	-12.1865
▁decidualisatie	-12.1876
▁CM	-12.188
overgevoeligheid	-12.1881
▁3+	-12.189
▁0.7	-12.189
loge	-12.1891
273	-12.1921
receptoren	-12.1927
719	-12.1929
0);	-12.1954
▁abnormal	-12.1973
▁8-9	-12.1974
stwaarschijnlijk	-12.1975
▁segmenten	-12.1982
▁bijzonder	-12.1988
cardia	-12.1989
▁geinduceerd	-12.1993
eeft	-12.1993
▁linea	-12.2003
ion	-12.2005
gelocaliseerde	-12.2019
▁f	-12.2034
-07-14:	-12.2041
gere	-12.2048
UC	-12.2053
▁58	-12.2054
▁Plaveiselcel	-12.2057
▁mucosae	-12.2062
▁oesofagusbiopt	-12.2063
250	-12.2067
inushistiocytose	-12.2073
]29-	-12.2078
dig	-12.2088
th	-12.2093
▁2022)	-12.2094
excisies	-12.2104
cal	-12.2112
▁42	-12.2114
gang	-12.2119
▁ileo	-12.212
Abortusmateriaal	-12.2123
urotheliale	-12.2124
-05-13:	-12.2142
▁carcinomen	-12.2143
▁2022	-12.2144
-10-17:	-12.2146
mber	-12.215
▁PAL	-12.2154
75)	-12.2161
liggend	-12.2166
▁ad	-12.2169
richting	-12.218
▁10:	-12.2181
-2,	-12.2187
ijkt	-12.2206
ium	-12.2206
-04-13:	-12.221
/*******/	-12.2213
19-6	-12.2214
▁Betref	-12.2219
bed	-12.2221
▁nummers	-12.2225
circumferentieel	-12.2237
▁Coupe	-12.224
ISIE	-12.2243
rteriolosclerose	-12.2248
95	-12.2251
▁nos	-12.2254
geinduceerde	-12.2255
forme	-12.2258
▁ontv	-12.2272
▁Bloed	-12.2278
▁Incisie	-12.2308
▁11:	-12.232
pancreatische	-12.2326
▁urticari	-12.2331
Voorlopig	-12.2338
primair	-12.2339
▁+3)	-12.2339
eerder	-12.2344
gering	-12.2346
tubulair	-12.2348
▁trans	-12.2352
heen	-12.2358
nog	-12.2373
70	-12.2378
sigmoA	-12.2391
sturen	-12.2394
▁ongevoelig	-12.2394
▁spierbiopt	-12.2395
Pot	-12.2399
Poliep	-12.2407
myc	-12.2408
▁voorz	-12.241
pols	-12.2411
▁liggen	-12.2413
afwijkend	-12.2414
poeling	-12.2417
16/18	-12.2419
trauma	-12.2426
Cervixbiopt	-12.2426
EPIC	-12.2427
slecht	-12.2428
WERK	-12.2428
Cervix	-12.2428
lijden	-12.2431
▁ulceraties	-12.2434
Thy	-12.2438
Beenmerg	-12.2438
▁vene	-12.2438
traject	-12.2439
Diagnostisch	-12.244
Obductie	-12.244
Volume	-12.244
protocollair	-12.2441
RNA	-12.2441
GEWIJZIGD	-12.2442
oesofagus	-12.2442
gericht	-12.2442
palatum	-12.2442
haargrens	-12.2442
nefropathie	-12.2442
cytologisch	-12.2442
achterlip	-12.2442
minimaal	-12.2442
verspreid	-12.2442
radicaal	-12.2443
Minima	-12.2443
IgG	-12.2443
onvoldoende	-12.2443
bindweefsel	-12.2443
subtype	-12.2443
hyleringsanalyse	-12.2444
13):	-12.2444
meest	-12.2444
LDT	-12.2444
insufficientie	-12.2445
ypT	-12.2445
Gering	-12.2447
HMC	-12.2448
tweede	-12.2449
48	-12.2452
verdacht	-12.2452
▁Ductu	-12.2455
hilair	-12.2456
lymfocytaire	-12.2456
▁grof	-12.2457
-10-13:	-12.2457
slechts	-12.2457
▁purulent	-12.2464
▁gemarkeerd	-12.2464
ij	-12.2465
reactief	-12.2471
ali	-12.2473
Non	-12.2474
103	-12.2474
duodenumbiopten	-12.2476
20-6	-12.2478
▁micropapillair	-12.2479
hypertrofische	-12.2483
▁0.3	-12.2492
73	-12.2495
▁inzenden	-12.2496
eparaat	-12.2502
▁basaloid	-12.2502
erytrocyten	-12.2506
▁ecze	-12.2509
bcd	-12.2511
▁cluster	-12.2511
mits	-12.2511
lymfklieren	-12.2519
▁Tumorvolume	-12.2522
▁fix	-12.2523
▁10-20%	-12.2526
▁Infiltratie	-12.2526
Nano	-12.2531
ignaal	-12.2531
▁adhesie	-12.2532
▁entiteit	-12.2532
▁gezicht	-12.2533
oont	-12.2533
▁buisje	-12.2534
atrofische	-12.2534
immuniteit	-12.2536
▁Synovium	-12.2536
MAP	-12.2537
8%	-12.2538
▁granulair	-12.2539
atio	-12.2539
▁rijp	-12.2541
elvien	-12.2544
▁Specifi	-12.2547
▁urachus	-12.2548
▁combin	-12.2548
▁bestraling	-12.2548
▁Portio	-12.2548
▁vrucht	-12.2548
INFILTRATIE	-12.2548
▁coeliacus	-12.2548
▁papillomen	-12.2548
SNIJVLAKKEN	-12.2548
UNIC	-12.2548
rhabdomyosarcoom	-12.2548
▁(1-11).	-12.2548
▁COVID	-12.2548
▁Darier	-12.2548
▁Dubieu	-12.2548
▁Laser	-12.2548
▁Lupus	-12.2548
▁Morgagni	-12.2548
▁Toxicodermie	-12.2548
▁achterhalen	-12.2548
▁atrophicans	-12.2548
▁breid	-12.2548
▁dentata	-12.2548
▁denudatie	-12.2548
▁enchondroom	-12.2548
▁gefixeerd	-12.2548
▁gekeken	-12.2548
▁interfereren	-12.2548
▁kolonisatie	-12.2548
▁levercirrose	-12.2548
▁luteum	-12.2548
▁miskraam	-12.2548
▁opbrengst	-12.2548
▁ossificatie	-12.2548
▁oxyuren	-12.2548
▁pancreatitis	-12.2548
▁papilliferum	-12.2548
▁procent	-12.2548
▁schatten	-12.2548
▁venster	-12.2548
▁wenselijk	-12.2548
ligospermie	-12.2548
▁20-30%	-12.2548
▁paraganglioom	-12.2548
BRONCH	-12.2548
MULTIFOCA	-12.2548
▁farynxboog	-12.2548
▁ribbenboog	-12.2548
_033360.2:	-12.2548
▁consistent	-12.2548
▁geopend	-12.2548
▁synovitis	-12.2548
▁myositis	-12.2548
▁vertonen	-12.2548
▁verleden	-12.2549
▁eiwitexpressie	-12.2549
ecompleteerd	-12.2549
aktinische	-12.2549
▁umc	-12.2549
▁Behcet	-12.2549
▁selectie	-12.2549
▁kernatypie	-12.2549
▁normaalwaarden	-12.2549
▁ileus	-12.2549
▁ondersteund	-12.2549
▁overgangsgebied	-12.2549
▁hartfalen	-12.2549
▁zegelringcellen	-12.2549
Reinkes	-12.2549
▁longarts	-12.2549
▁plaatsvinden	-12.2549
immunoblastair	-12.255
▁Lymfoid	-12.255
▁aantallen	-12.255
▁weefselpijpjes	-12.2551
▁halslymfklier	-12.2551
▁4+4	-12.2551
▁Relatie	-12.2552
▁deficient	-12.2553
ossale	-12.2553
▁neuroblastoom	-12.2553
▁gemacereerde	-12.2553
▁erytheem	-12.2554
▁linguaal	-12.2554
▁gesampled	-12.2554
▁Kaak	-12.2554
▁Intracavitair	-12.2554
▁Bindweefsel	-12.2554
▁configuratie	-12.2554
▁calcinosis	-12.2554
▁COPD	-12.2554
▁kernhoudend	-12.2554
NIS	-12.2556
▁Cervixuitstrijk	-12.2557
Gastric	-12.2558
▁cerebellair	-12.2558
▁midprostaat	-12.2559
▁basalo	-12.256
▁vaatafwijkingen	-12.256
▁biamniotisch	-12.2561
▁̄nkte	-12.2562
▁Histologie	-12.2563
▁mgl	-12.2563
▁infraorbitaal	-12.2563
▁commissu	-12.2563
▁Liquorpunctie	-12.2563
▁uitval	-12.2564
▁genezen	-12.2564
▁verval	-12.2564
▁bovengenoemd	-12.2564
-10-13/*******/	-12.2566
▁(80%).	-12.2566
▁TNF	-12.2567
▁glaasje	-12.2567
▁SLE	-12.2569
▁congestie	-12.257
▁verdikking	-12.2573
17-0	-12.2573
lobulaire	-12.2574
▁ECL	-12.2575
▁histochemisch	-12.2576
▁maagfundustype	-12.2576
▁sinusoidale	-12.2576
▁Urinecytologie	-12.2576
▁onrijpe	-12.2577
ORI	-12.2577
1633	-12.2579
▁linkerbeen	-12.258
off	-12.2581
▁falanx	-12.2582
▁Ernstig	-12.2583
▁GCB	-12.2585
▁Maagbiopsie	-12.2587
▁entiteiten	-12.2589
▁linkerbil	-12.259
▁radiair	-12.2591
▁(4,5	-12.2592
microangiopathie	-12.2593
▁strips	-12.2594
▁Pleura	-12.2594
▁overgroei	-12.2596
linkerscheenbeen	-12.2598
▁enteritis	-12.2607
▁divertikels	-12.2609
OS	-12.2611
▁tumornecrose	-12.2612
▁vaginaal	-12.2613
▁stolsels	-12.2617
▁laesiona	-12.2618
▁cava	-12.262
▁WGS	-12.2621
▁bioptisch	-12.2627
▁leiomyomateu	-12.2629
true	-12.263
57	-12.2631
20-0	-12.2631
denoid	-12.2642
21)	-12.2643
▁ingeschat	-12.2644
▁buis	-12.2645
▁STR	-12.2649
▁Analyse	-12.265
▁SOC	-12.266
▁2;	-12.266
slijmnapepitheel	-12.2666
▁vulvair	-12.2669
▁3,4	-12.2674
▁Regressie	-12.268
-11-15:	-12.2684
▁mucosaal	-12.2689
▁ovariele	-12.269
▁act	-12.2692
SOC	-12.27
▁graderings	-12.2712
▁20%)	-12.2712
▁(19/	-12.2715
19):	-12.2723
▁(0/4).	-12.2731
▁banal	-12.2732
emische	-12.2732
▁middermal	-12.2733
▁klin	-12.2737
▁bullae	-12.2743
claviculair	-12.2751
▁(15/	-12.2755
top	-12.2763
5;	-12.2766
▁atro	-12.2773
emie	-12.2776
▁Ex	-12.278
▁1.8	-12.2789
▁ronden	-12.2789
▁thyroidectomie	-12.2797
gewricht	-12.2801
▁membraan	-12.2817
ZON	-12.2834
▁ta	-12.2836
▁cylindercel	-12.2841
159	-12.2843
28	-12.2844
▁Hemithyreo	-12.2868
▁instabiel	-12.2873
etreft	-12.2885
▁1;	-12.2885
3140	-12.2894
olorectaal	-12.29
/59/6	-12.2901
excisiebiopt	-12.2913
▁huidweefsel	-12.2915
grens	-12.292
CONC	-12.2928
▁Onge	-12.2931
▁central	-12.2951
tubulo	-12.2967
14-3	-12.2983
▁occlusie	-12.2997
morfologisch	-12.301
▁2015)	-12.3017
]1/	-12.302
MOL	-12.3023
SIE	-12.3031
▁DA	-12.3042
23)	-12.305
ish	-12.3052
diabetisch	-12.3057
5).	-12.3089
05	-12.3098
▁2017:	-12.3102
submuceus	-12.3104
ISH	-12.3106
hele	-12.3112
]17	-12.3114
nierbiopt	-12.3119
▁DIAMETER	-12.3131
▁mag	-12.3135
xtraprostatisch	-12.314
▁0.9	-12.314
71.	-12.314
▁intravasculair	-12.3144
geperforeerde	-12.3154
▁genamplificatie	-12.3156
progestageen	-12.3168
to	-12.3184
80,	-12.3185
▁vl	-12.3189
Hier	-12.3195
endocervixpoliep	-12.3197
▁pan	-12.3203
eur	-12.3225
▁overheers	-12.3235
▁perivilleu	-12.3238
gestuurd	-12.3242
▁cerebra	-12.3246
j	-12.3248
chronisch	-12.3253
8.	-12.3258
standig	-12.3262
▁ductepitheel	-12.3264
ir	-12.3266
ET	-12.3278
65	-12.3284
monocytaire	-12.3286
▁infra	-12.3294
▁weer	-12.3297
19-11	-12.3306
▁Pro	-12.3307
lipoom	-12.331
lik	-12.3311
datum	-12.3312
▁jong	-12.3314
15-1	-12.3317
markering	-12.3317
22-	-12.3321
▁14).	-12.3322
verricht	-12.3323
Ander	-12.3331
degeneratie	-12.3331
stadium	-12.3333
kwaliteit	-12.3335
variant	-12.3335
▁eosinofiel	-12.3337
▁samengesteld	-12.3337
Longbiopt	-12.3338
duodenectomie	-12.3338
]03-	-12.3339
117/146	-12.3344
MPNST	-12.3344
zelf	-12.3346
Oud	-12.3347
▁DIAGNOSE	-12.3347
Analyse	-12.3347
Sigmoid	-12.3349
peritoneum	-12.3349
concentratie	-12.3349
Leverbiopt	-12.335
Extern	-12.335
schildklierkwab	-12.3351
Morfologisch	-12.3351
EORTC	-12.3351
sternum	-12.3351
achterhoofd	-12.3351
auto	-12.3351
aanwezig	-12.3351
pancreas	-12.3351
thoraxwand	-12.3351
nasolabiaal	-12.3351
Bloom	-12.3351
bevestigd	-12.3351
hoofdhuid	-12.3352
vermeld	-12.3352
BRCA	-12.3352
Snijranden	-12.3352
Representatief	-12.3352
MZH	-12.3353
evident	-12.3353
▁verkalkt	-12.3353
proximale	-12.3354
▁gerangschikt	-12.3354
paramediaan	-12.3355
waarbij	-12.3355
small	-12.3356
751	-12.3357
linkeronderarm	-12.3359
rechterbovenarm	-12.3362
▁schimmelinfect	-12.3363
ernstige	-12.3367
lichenoide	-12.3367
952	-12.3371
trusor	-12.3372
vrije	-12.3376
uitgebreide	-12.3386
▁granulocyt	-12.3388
19/	-12.3404
▁methylatie	-12.3404
mtrent	-12.3406
▁mantelcel	-12.3414
Leverbiopten	-12.3414
3,4	-12.3419
samengestelde	-12.3421
-01-16:	-12.3424
23-	-12.3425
▁recidiveren	-12.3431
.00	-12.344
▁Larynxbiopt	-12.3441
▁paraffinecoupe	-12.3444
geA	-12.3448
errukeuze	-12.3451
erminderd	-12.3451
oven	-12.3452
arotidectomie	-12.3453
-05-16:	-12.3456
▁betrokken	-12.3457
▁haemangio	-12.3457
▁Aorta	-12.3457
▁Kaposi	-12.3457
▁zeldzaam	-12.3457
TRATIE	-12.3457
Therapeutisch	-12.3457
afbreking	-12.3457
ecrospermie	-12.3457
erkrijgingswijze	-12.3457
ruba	-12.3457
–	-12.3457
▁CHEK	-12.3457
▁DICER	-12.3457
▁Gecombineerd	-12.3457
▁NKX	-12.3457
▁Paneth	-12.3457
▁absolu	-12.3457
▁albuginea	-12.3457
▁anulare	-12.3457
▁bauhini	-12.3457
▁celreeksen	-12.3457
▁choriaalplaat	-12.3457
▁demodex	-12.3457
▁effluvium	-12.3457
▁emfyseem	-12.3457
▁gekweekt	-12.3457
▁gemelli	-12.3457
▁getypeerd	-12.3457
▁loslating	-12.3457
▁nevocellularis	-12.3457
▁periferie	-12.3457
▁pyelonefritis	-12.3457
▁solutio	-12.3457
▁striatus	-12.3457
▁therapy	-12.3457
▁uiteengevallen	-12.3457
▁uitgerijpt	-12.3457
▁verrukeus	-12.3457
▁atroficans	-12.3457
▁cellijnen	-12.3457
▁cylindroom	-12.3457
▁omentectomie	-12.3457
▁hyalinisatie	-12.3457
▁accuminatum	-12.3458
▁areata	-12.3458
▁beduidend	-12.3458
▁stadiering	-12.3458
▁onveranderd	-12.3458
▁renalis	-12.3458
▁behandelaar	-12.3458
▁lichteruptie	-12.3458
▁pendulum	-12.3458
▁systeemziekte	-12.3458
▁tubulusnecrose	-12.3458
▁retroplacentair	-12.3458
▁hormoongebruik	-12.3458
sdu	-12.3458
▁intramuraal	-12.3458
▁ontaarding	-12.3458
▁fibromatosis	-12.3458
▁geautoriseerd	-12.3458
▁agressief	-12.3458
acraal	-12.3458
▁clavus	-12.3458
▁ongewone	-12.3458
▁monoto	-12.3458
▁cerebrum	-12.3458
▁presacraal	-12.3458
▁collageenrijk	-12.3458
▁reaktief	-12.3458
▁sana	-12.3458
▁hernia	-12.3458
▁transitioneel	-12.3458
▁trombusvorming	-12.3458
▁Deppreparaten	-12.3458
▁pigmentverlies	-12.3458
▁idem	-12.3458
▁reperfusie	-12.3458
▁aanbev	-12.3459
▁EEM	-12.3459
▁melanomenpanel	-12.3459
Naschrift	-12.3459
▁subcarina	-12.3459
sneldiagnostiek	-12.3459
▁meegereseceerd	-12.3459
▁ringsideroblast	-12.346
▁fistelende	-12.346
▁seromucineu	-12.346
▁discordantie	-12.346
▁hersenweefsel	-12.346
▁inhibitor	-12.3461
toestand	-12.3462
13-5	-12.3462
▁fibroadipeu	-12.3462
kenmerkende	-12.3462
erdenking	-12.3463
▁betrouwbaarheid	-12.3463
▁Douglas	-12.3463
▁pieken	-12.3463
13-05	-12.3463
der	-12.3463
preventief	-12.3463
▁abcedering	-12.3463
▁PLEVA	-12.3463
▁dermatomyositis	-12.3463
▁impetigo	-12.3463
▁spiradenoom	-12.3463
▁meatus	-12.3463
▁CAVE	-12.3463
▁EPICRISE	-12.3463
▁buccaal	-12.3463
▁polyklonale	-12.3463
▁PTLD	-12.3463
▁cordis	-12.3463
▁koilocyto	-12.3464
▁coagulatie	-12.3464
▁wijziging	-12.3464
▁agar	-12.3464
▁Translocatie	-12.3464
▁Corpustype	-12.3464
▁perfor	-12.3464
▁abcesvorming	-12.3464
▁nesten	-12.3464
▁leukocyten	-12.3464
kiemcelneoplasie	-12.3465
▁inactiv	-12.3465
ias	-12.3465
20-2	-12.3467
▁vervalt	-12.3467
excisiemateriaal	-12.3468
▁32%	-12.3468
▁diagnosis	-12.3468
▁potentie	-12.3469
▁ATP	-12.3469
poliepectomie	-12.3469
▁blaarziekte	-12.347
▁ontstekingsg	-12.347
gekerfde	-12.3472
▁palmair	-12.3474
▁Irradicaal	-12.3474
▁neuswal	-12.3474
▁schouw	-12.3474
▁pretracheaal	-12.3474
▁sectie	-12.3474
▁AIH	-12.3474
▁partikels	-12.3475
▁myoma	-12.3475
▁commissie	-12.3475
]13	-12.3477
ROI	-12.3478
▁artrose	-12.3479
▁varierend	-12.3479
▁rechterbeen	-12.3483
▁periost	-12.3483
endothelioom	-12.3483
elproliferatie	-12.3484
▁MELTUMP	-12.3484
▁STUMP	-12.3484
▁oncoloog	-12.3484
▁Hematologie	-12.3484
▁antehelix	-12.3484
▁SAMPUS	-12.3484
▁heterogen	-12.3485
▁linkerpols	-12.3489
▁karakteristieke	-12.3492
▁SNP	-12.3493
▁Sporadisch	-12.3495
▁dood	-12.3495
▁Immunologie	-12.3495
▁TRG	-12.3498
-12-15:	-12.3499
▁vervaardigd	-12.3499
▁cirro	-12.3501
▁trials	-12.3502
▁pipellebiopt	-12.3502
▁harde	-12.3504
▁termijn	-12.3505
-11-16:	-12.3507
▁IRF	-12.3509
▁OM	-12.3514
▁gegaan	-12.3517
LYMF	-12.3517
▁1/1	-12.3518
▁opening	-12.3518
itspraak	-12.3519
▁Per	-12.352
▁8,5	-12.3523
lijke	-12.3524
opathie	-12.3525
▁satelliethaard	-12.3525
▁PAX	-12.3536
▁bi	-12.3537
▁anal	-12.3537
▁MOHS	-12.3537
▁traanklier	-12.3538
▁2+.	-12.3541
ZE	-12.3544
tieve	-12.3545
▁11,15)	-12.3547
4646	-12.3558
▁stomp	-12.3559
emurkop	-12.3559
af	-12.356
alwaar	-12.3561
▁Antrumtype	-12.3561
▁inductie	-12.3561
▁OK	-12.3564
▁bovenop	-12.3564
▁Oud	-12.357
6,7	-12.3579
gastritis	-12.3583
CBI	-12.3584
▁80%)	-12.3589
▁Postmorta	-12.359
MF	-12.359
▁Longen	-12.3598
cher	-12.3601
▁cast	-12.3602
866	-12.3619
▁mo	-12.3622
▁50%)	-12.3622
▁therapeutisch	-12.3633
▁merkelcel	-12.3634
▁kl	-12.3638
▁heen	-12.3647
▁Microscopie	-12.3651
2(	-12.3658
▁ASC	-12.3664
oppervlakkigheid	-12.3666
▁(1/1).	-12.367
▁SigmoA	-12.3671
]05	-12.3677
kleuringen	-12.368
03	-12.3683
lated	-12.3691
▁Hooggradig	-12.3704
▁pH	-12.3706
erd	-12.3707
0).	-12.3714
▁Pn	-12.3719
▁Marges	-12.3721
▁forme	-12.3722
740	-12.3723
ut	-12.3726
▁spiercel	-12.3726
▁lopend	-12.3727
▁IA	-12.3736
▁(18	-12.3738
IE	-12.3747
90)	-12.3753
iverende	-12.3762
ingen	-12.3764
▁MT	-12.3769
▁geperforeerd	-12.377
07	-12.3773
▁aanliggend	-12.3775
▁84	-12.3778
▁divers	-12.3779
90):	-12.3783
▁kwadrant	-12.3785
▁immunofluores	-12.3787
▁Lu	-12.3789
immunohistochem	-12.3798
▁uitstrijken	-12.3803
15-2	-12.3812
▁markeringshecht	-12.3833
▁Nabothi	-12.3835
83	-12.3837
-3);	-12.3837
9,	-12.3842
-11-13/*******/	-12.3847
▁(23/	-12.3855
cerebraal	-12.3865
▁tubulus	-12.3875
▁ReA	-12.3882
▁poly	-12.3888
DI	-12.389
▁matur	-12.3894
▁Glandula	-12.3906
Lymfklierbiopt	-12.3909
20,	-12.3912
▁(21/	-12.3919
▁response	-12.3928
16/*******/	-12.3929
▁(14	-12.3929
16-5	-12.3939
▁imm	-12.3946
▁hypercellulaire	-12.395
▁analyses	-12.3963
▁Oksel	-12.3964
-08-14:	-12.3965
bovenkwab	-12.3977
sel	-12.3983
▁dermo	-12.3984
complexe	-12.4002
▁stations	-12.4038
-04-13/*******/	-12.4039
245	-12.404
!)	-12.4071
Imm	-12.4079
▁are	-12.4092
1(	-12.4101
-12-19:	-12.4101
205	-12.4102
▁VC	-12.4102
_000	-12.4105
8-11-13/*******/	-12.4109
vlakken	-12.411
▁cilinder	-12.4113
ica	-12.4123
]07	-12.4124
gs	-12.4128
1.0	-12.413
EP	-12.4144
="162	-12.4147
▁(70%).	-12.4148
MM	-12.4149
▁atherosclero	-12.4151
kleincellige	-12.4156
]12	-12.4157
embraanexpressie	-12.4159
16-1	-12.4162
_00	-12.4164
▁Ib	-12.4181
parameters	-12.4195
haardjes	-12.4195
-8	-12.4198
▁normocellulaire	-12.4199
23-00	-12.4201
▁Lymfeklierbiopt	-12.4225
54	-12.4235
▁54	-12.4236
veer	-12.4243
768	-12.4245
Duodenum	-12.4254
▁0/1	-12.4255
▁51	-12.4259
bei	-12.4261
▁61	-12.4264
cre	-12.4269
gn	-12.4274
Klier	-12.4285
coronairarterien	-12.4287
2574	-12.4288
arteri	-12.429
2021:	-12.429
▁pus	-12.4293
▁villeu	-12.4293
▁(90	-12.4299
▁dy	-12.4302
nd	-12.4305
▁62	-12.4306
osis	-12.431
musculair	-12.4312
nomenclatuur	-12.4315
▁streng	-12.4317
▁Nu	-12.4318
nodulaire	-12.4322
▁decompensati	-12.4326
▁granular	-12.4326
▁negativ	-12.4327
kan	-12.4328
▁Ruime	-12.4329
stansbiopt	-12.4329
erb	-12.4329
Onderzoek	-12.433
bericht	-12.4331
]18	-12.4331
vormend	-12.4333
syndroom	-12.4333
▁echt	-12.4333
RSH	-12.4336
▁longembolie	-12.4336
93	-12.4338
fundus	-12.4341
▁werk	-12.4343
reductie	-12.4344
Mammabiopt	-12.4344
Stadium	-12.4345
3,7,15,18-21)	-12.4346
netto	-12.4346
iliaca	-12.4347
sinus	-12.4347
16,	-12.4349
granulomen	-12.4349
AZN	-12.4349
fibro	-12.4349
IGH	-12.4349
COMPONENT	-12.435
membraneuze	-12.435
precie	-12.435
ectocervicale	-12.435
struma	-12.435
focus	-12.435
ingeblokt	-12.435
sneevlak	-12.4351
Ascites	-12.4351
gevonden	-12.4351
promotor	-12.4351
clavicula	-12.4351
Richardson	-12.4351
BIRADS	-12.4351
Benigne	-12.4351
bulleus	-12.4351
frequentie	-12.4351
Derhalve	-12.4351
gedetecteerd	-12.4351
Echogeleid	-12.4352
pleuravocht	-12.4352
JNI	-12.4352
volgt	-12.4352
plaatselijk	-12.4352
Urine	-12.4352
Huidstans	-12.4352
TURP	-12.4352
granulocyten	-12.4353
Ki	-12.4353
NOS	-12.4354
voorwand	-12.4354
presternaal	-12.4354
Huidstansbiopt	-12.4355
stomp	-12.4355
rechterzijde	-12.4356
Kan	-12.4357
geruptureerde	-12.4358
waarin	-12.4359
Sem	-12.4361
Over	-12.4366
2014	-12.4366
19-4	-12.4367
varianten	-12.4369
wn	-12.4372
cell	-12.4372
SAR	-12.4379
▁HUI	-12.4379
voorste	-12.4381
komstig	-12.4382
▁zenuwschede	-12.4383
virus	-12.4384
▁dystrof	-12.439
diagnosen	-12.4392
ur	-12.4395
The	-12.4401
-1:	-12.4401
core	-12.4402
▁gastric	-12.4406
▁bowen	-12.441
dVIN	-12.441
biliaire	-12.4415
▁digit	-12.4418
▁beentumoren	-12.4425
TG	-12.4425
erwij	-12.4427
▁radi	-12.4432
▁auriculair	-12.4433
▁ontvang	-12.4433
▁celgroep	-12.4444
▁Uit	-12.4445
▁vari	-12.4446
1549	-12.4448
richomonas	-12.445
sich	-12.4452
ormocellulair	-12.4452
etreffende	-12.4452
▁Latera	-12.4453
hepatisch	-12.4453
ellient	-12.4454
eucocyten	-12.4455
▁PPP	-12.4456
akjes	-12.4456
▁shock	-12.4457
▁stuk	-12.4457
▁Stans	-12.4457
ncompleet	-12.4457
Motilit	-12.4457
otheel	-12.4457
▁Kweldam	-12.4457
▁pulmonalisklep	-12.4457
grepen	-12.4457
gunstig	-12.4457
▁Folliculair	-12.4457
▁Marker	-12.4457
▁Mirena	-12.4457
▁achillespees	-12.4457
▁bleek	-12.4457
▁cardiomyocyten	-12.4457
▁genoeg	-12.4457
▁glandulo	-12.4457
▁intervillositis	-12.4457
▁kiemcentra	-12.4457
▁klievingsvlak	-12.4457
▁monotypie	-12.4457
▁mucositis	-12.4457
▁ongewoon	-12.4457
▁partijen	-12.4457
▁plomp	-12.4457
▁restrictie	-12.4457
▁trombocytemie	-12.4457
▁verstreken	-12.4457
▁LINKS	-12.4457
▁abdominalis	-12.4457
▁actinomyces	-12.4457
▁bcl	-12.4457
▁integra	-12.4457
▁specificatie	-12.4457
▁trombocytose	-12.4457
▁trombopenie	-12.4457
stapelingsziekte	-12.4457
▁ileocoecaalhoek	-12.4457
▁pulmonalis	-12.4457
,8,12,1	-12.4457
▁chromo	-12.4457
▁genomisch	-12.4457
▁melaninepigment	-12.4458
▁hoornlamellen	-12.4458
▁suprabasale	-12.4458
▁afgekapseld	-12.4458
▁pangastritis	-12.4458
▁verdeeld	-12.4458
▁Midden	-12.4458
▁zinvol	-12.4458
▁Onverdacht	-12.4458
▁intradermalis	-12.4458
▁verkrijgen	-12.4458
TNO	-12.4458
▁geevalueerd	-12.4458
▁geteld	-12.4458
FORM	-12.4458
nummulair	-12.4458
▁pectoralis	-12.4458
▁psoriatiform	-12.4458
▁codeletie	-12.4458
▁ectatisch	-12.4458
▁xanthogranuloom	-12.4458
▁pustulose	-12.4458
ohs	-12.4458
Identi	-12.4458
▁buisstructuren	-12.4458
▁telogeen	-12.4458
NEX	-12.4458
▁spierbundel	-12.4458
▁intracornea	-12.4458
▁0/3	-12.4458
▁eerstgenoemde	-12.4458
▁slow	-12.4458
▁nascens	-12.4458
.2235	-12.4458
▁contralatera	-12.4459
▁Giardiasis	-12.4459
▁lan	-12.4459
▁blaasperitoneum	-12.4459
▁fibrolipoom	-12.4459
▁FSH	-12.4459
▁suboptima	-12.4459
▁immunotypering	-12.446
▁atypia	-12.4461
▁partus	-12.4461
psi	-12.4461
▁cocco	-12.4462
▁nagekomen	-12.4462
ilocytair	-12.4462
▁organoid	-12.4462
boog	-12.4462
Microsatelliet	-12.4462
▁plekken	-12.4463
▁plasmacytose	-12.4463
▁genitaal	-12.4464
▁Alth	-12.4464
▁Urethra	-12.4464
▁doorheen	-12.4464
▁ulcerende	-12.4464
▁Beginnend	-12.4464
▁Peyer	-12.4464
▁drain	-12.4464
▁inklemming	-12.4464
▁malignancy	-12.4464
▁plantaardig	-12.4464
▁torsio	-12.4464
▁folliculorum	-12.4464
▁formaline	-12.4464
▁hemosiderine	-12.4464
▁rontgen	-12.4464
▁rabdomyosarcoom	-12.4464
▁chorionitis	-12.4464
▁jugularis	-12.4464
▁nodulus	-12.4464
▁supraglottisch	-12.4464
▁Epiderma	-12.4464
▁urticarieel	-12.4465
▁cystica	-12.4465
▁acellulair	-12.4465
bst	-12.4465
▁tuberculosis	-12.4465
▁Fibreu	-12.4465
▁tumorregressie	-12.4465
▁subpleuraal	-12.4466
ocht	-12.4466
▁Differenti	-12.4467
▁EX	-12.4468
▁vetcellen	-12.4468
▁peroperatief	-12.4468
▁opgetreden	-12.4468
38	-12.4468
corticaal	-12.4468
▁<<	-12.4469
▁antracosilicos	-12.4469
▁corpora	-12.4469
▁neusflank	-12.447
▁kiemcel	-12.4471
ILA	-12.4473
▁acro	-12.4474
77	-12.4474
infundibulaire	-12.4474
".	-12.4474
▁fornix	-12.4475
▁antilichamen	-12.4475
▁leiomyomatosis	-12.4475
▁Lichenoide	-12.4476
▁glanspenis	-12.4476
▁melanoompanel	-12.4476
do	-12.4476
▁Alk	-12.4476
▁herbiopteren	-12.4476
▁nodaal	-12.4476
▁lisnecrose	-12.4477
Voorlopige	-12.4477
▁pore	-12.4477
▁linkervoet	-12.4478
primaire	-12.4478
▁5,0	-12.4478
▁bovenrand	-12.4479
▁dak	-12.448
▁Polypeu	-12.448
▁buikhuid	-12.4481
]7	-12.4483
▁berusten	-12.4484
▁tumorstroma	-12.4485
▁Hypertrofisch	-12.4485
]26	-12.4486
ating	-12.4486
shy	-12.4487
▁Eerder	-12.4487
▁kweek	-12.4487
▁enteropathie	-12.4487
▁arrest	-12.4487
perisinusoidale	-12.4488
▁endotheliale	-12.4492
▁neutrofielen	-12.4494
erwijzing	-12.4498
kb	-12.4499
lijkt	-12.4499
▁hypofarynx	-12.4499
▁intermammair	-12.4499
▁vreemd	-12.4499
▁rechterkuit	-12.4499
TME	-12.45
▁(2,4	-12.45
▁botinvasie	-12.4501
▁lymf	-12.4502
▁Barret	-12.4502
▁PartiA	-12.4503
▁voeren	-12.4504
▁huidfragmentje	-12.4505
preauriculair	-12.4505
binnenkant	-12.4506
▁fenotypisch	-12.4507
▁warm	-12.4509
▁eruptie	-12.4511
▁monocytose	-12.4511
▁rechterscapula	-12.4512
▁Mycobacteri	-12.4512
▁wigexcisies	-12.4514
▁afgeronde	-12.4518
▁(60	-12.4518
▁eczeembeeld	-12.4519
▁doorsnedes	-12.452
▁(23	-12.4521
▁rechterhandrug	-12.4523
▁gestatione	-12.4523
▁darmbiopt	-12.4526
doende	-12.4527
▁uren	-12.4528
▁draad	-12.4528
epithelio	-12.453
▁tumorbodem	-12.453
560	-12.453
01	-12.4534
▁grijs	-12.4534
▁MPN	-12.4535
▁68	-12.4535
▁0,0	-12.4536
▁(1,2,	-12.4537
2020:	-12.4538
Asn	-12.4544
▁incisie	-12.4544
▁Kit	-12.4545
▁intramammair	-12.4548
▁lymffollikel	-12.455
▁optie	-12.4556
▁uiter	-12.4557
eferentie	-12.4558
▁epidermoid	-12.4558
▁cardiaal	-12.4561
ongemarkeerde	-12.4565
▁hematologie	-12.4565
▁reeksen	-12.457
▁3,7,15,18-21)	-12.457
zamen	-12.4571
▁netto	-12.4571
▁achtig	-12.4573
▁gerangschikte	-12.4573
17-9	-12.4576
-03-17:	-12.4578
75	-12.4582
psine	-12.4583
▁95	-12.4587
▁Lymfocyt	-12.4588
▁vlakken	-12.4589
chr	-12.4594
▁placentaresten	-12.4596
▁paraffineblokje	-12.4598
▁Thy	-12.4598
▁>50%	-12.4601
▁elektronendicht	-12.4605
▁falen	-12.4606
▁onderscheiden	-12.4608
arcinoom	-12.4609
▁vermelding	-12.4611
▁septa	-12.4615
▁(99%)	-12.4619
▁rijk	-12.4625
22-05	-12.4627
ch	-12.4629
209	-12.4632
remmergebruik	-12.4635
renale	-12.4648
sensitiviteit	-12.4651
ESP	-12.4651
▁uVIN	-12.4652
503	-12.4652
15-6	-12.4654
▁Naald	-12.4656
hooggradige	-12.4657
▁2.5	-12.4659
beoordeeld	-12.466
veel	-12.4665
23-10	-12.467
▁Cervixexcisie	-12.467
ARAF	-12.468
obductie	-12.4696
▁rondkernige	-12.4697
14-7	-12.4706
idectomie	-12.4721
28)	-12.4724
▁(50%)	-12.4736
▁spina	-12.474
▁SLL	-12.4741
]15-	-12.4752
prolifererende	-12.4753
2018:	-12.4759
17/	-12.4765
89	-12.477
▁74	-12.4771
Blaas	-12.4772
urotheelcel	-12.4773
ehalve	-12.4774
▁gede	-12.4775
31,	-12.4781
23-03	-12.4793
▁cartilagineu	-12.4798
▁(70%)	-12.48
▁sarcoid	-12.4801
▁2016.	-12.4805
▁MEDI	-12.4811
37.	-12.4813
.37	-12.4817
JD	-12.4821
infarct	-12.4821
marges	-12.4827
fibrinedepositie	-12.4835
centieonderzoek	-12.4838
aartoe	-12.4838
▁100%)	-12.4855
▁behandelings	-12.4859
2019	-12.4862
-12-2022:	-12.4863
▁opge	-12.4865
21-10	-12.4872
▁stagering	-12.4879
▁(1+)	-12.4885
▁neg	-12.4886
▁52	-12.4891
▁digital	-12.49
producten	-12.4913
▁gastrointestina	-12.4916
evestiging	-12.4917
▁Peri	-12.4922
tru	-12.4927
ation	-12.4928
antrumtype	-12.4939
-10-19:	-12.494
uwelijk	-12.4945
TO	-12.4946
▁dichte	-12.4948
94	-12.4953
ligodendroglioom	-12.4956
iertransplantaat	-12.4957
Mx	-12.4961
▁intrapulmona	-12.4962
▁hepato	-12.4966
einde	-12.4974
▁hoogtes	-12.4982
oloog	-12.4985
68)	-12.499
geinverteerde	-12.4994
ls	-12.5001
iPA	-12.5002
22,	-12.5019
21-1	-12.5025
▁myofibroblast	-12.503
KLE	-12.5037
plasma	-12.5038
ALIS	-12.5058
▁rheumat	-12.5069
▁10,	-12.507
21-02	-12.5076
ureter	-12.5077
ESE	-12.5084
-11-2020:	-12.509
▁atypi	-12.509
▁53	-12.509
15-16	-12.5094
-06-13/*******/	-12.5095
naevuscellularis	-12.5098
Oesophagusbiopt	-12.5106
▁Colorecta	-12.5106
▁60%)	-12.5112
▁vo	-12.5115
▁0.1	-12.5118
▁hematologisch	-12.5123
fase	-12.5129
▁mat	-12.513
oma	-12.5139
▁Cristabeenmerg	-12.5142
▁pap	-12.5153
orale	-12.5163
UM	-12.5166
olaire	-12.5172
▁vaste	-12.5185
Uit	-12.5189
-05-19:	-12.5191
▁(80	-12.5211
SMA	-12.5212
3-17	-12.5214
+).	-12.5222
prothese	-12.5224
-10-18:	-12.5237
fundi	-12.5242
23,	-12.5244
23-02	-12.5249
▁Multip	-12.5253
ty	-12.5258
Methylatie	-12.5265
▁Epitheel	-12.5266
').	-12.5271
choriale	-12.5277
Halsklier	-12.5278
▁METASTASEN	-12.5281
▁methylerings	-12.5281
▁Granuloma	-12.5284
19-02	-12.5297
▁lymfomato	-12.5309
]17-01-1	-12.5314
▁lymfang	-12.5317
▁cervixexcisie	-12.5323
16-0	-12.5324
▁mammanaaldbiopt	-12.5326
ondom	-12.5327
289	-12.5327
▁focal	-12.5332
▁botombouw	-12.5332
preparaatje	-12.5332
▁Negatie	-12.534
ies	-12.534
▁epi	-12.534
va	-12.5343
ervicale	-12.5345
ering	-12.5346
2014):	-12.5351
ingang	-12.5352
33	-12.5361
atypisch	-12.5364
he	-12.5368
wat	-12.5374
▁Barretts	-12.5377
15-0	-12.5386
Onder	-12.5391
pylori	-12.5396
granuloom	-12.5404
gegeven	-12.5407
21-0	-12.5413
▁hypoplastisch	-12.5415
ph	-12.5415
bekende	-12.5419
spier	-12.5426
PMID	-12.5427
98%	-12.5428
Lymfangio	-12.5428
wer	-12.5433
47	-12.5433
▁(?)	-12.5433
maagovergang	-12.5437
oesophagea	-12.5447
uiteinde	-12.5449
carina	-12.5451
IgH	-12.5453
protonpompremmer	-12.5454
angulus	-12.5454
bestudeerd	-12.5455
▁adenomatoid	-12.5456
resectieranden	-12.5457
epidermoid	-12.5457
▁fibrocysteu	-12.5457
oedeem	-12.5458
▁syn	-12.5459
ovarieel	-12.546
lymfocytose	-12.546
Links	-12.546
EXTRA	-12.546
Rechts	-12.546
Risk	-12.546
IFTA	-12.546
insertie	-12.5461
perineum	-12.5461
Hemicolectomie	-12.5462
Bericht	-12.5462
infiltraat	-12.5462
pylorus	-12.5462
usual	-12.5462
fossa	-12.5462
dorsum	-12.5462
JAK	-12.5462
AJCC	-12.5462
Medisch	-12.5462
Radicaliteit	-12.5462
compatibel	-12.5462
glandula	-12.5463
multipel	-12.5463
endocervix	-12.5463
langer	-12.5463
Shave	-12.5463
buikwand	-12.5463
lastig	-12.5463
focale	-12.5464
negatieve	-12.5464
IBD	-12.5465
11,15)	-12.5465
sd	-12.5465
▁gestuwd	-12.5466
Atypische	-12.5467
musculus	-12.5467
perifeer	-12.5467
betreft	-12.5468
verminderd	-12.5468
▁purpuri	-12.5469
littekenweefsel	-12.5469
▁Chronisch	-12.5469
-01-18:	-12.5472
▁nefroge	-12.5473
Breslowdikte	-12.5474
tumorvrij	-12.5477
AIS	-12.5484
Maagslijmvlies	-12.5484
indien	-12.5485
▁NF	-12.5487
afd	-12.5487
▁oncocytair	-12.5489
fhankelijk	-12.5489
▁Nieuw	-12.5489
14,	-12.549
Wel	-12.5492
▁maal	-12.5499
▁klonaliteit	-12.5499
▁seborro	-12.5505
ceme	-12.551
onderkwab	-12.5513
▁Epidermis	-12.5514
▁welk	-12.5514
▁embryo	-12.5514
▁Trauma	-12.5522
▁Anders	-12.5532
capsula	-12.5532
ise	-12.5533
kt	-12.5539
ergelijking	-12.5539
▁2021	-12.5542
▁6-7	-12.5546
cust	-12.5546
beste	-12.5547
hoeve	-12.555
▁onderbouw	-12.555
trikt	-12.5552
▁zweetklier	-12.5552
▁nestje	-12.5553
li	-12.5555
▁Naboth	-12.5555
▁Ileumbiopt	-12.5559
▁Snijrand	-12.556
SPEC	-12.5561
▁Grade	-12.5563
▁Synovia	-12.5564
fwezigheid	-12.5565
jz	-12.5565
Incisiebiopt	-12.5566
wicht	-12.5566
onisatie	-12.5566
▁Myoom	-12.5567
otiel	-12.5567
lectronen	-12.5568
▁kiembaan	-12.5568
▁Leishmania	-12.5569
▁Mediastinum	-12.5569
▁melanine	-12.5569
▁mozai	-12.5569
15,16);	-12.5569
▁Adnectomie	-12.5569
,9,10,11,	-12.5569
Auramine	-12.5569
▁Apex	-12.5569
▁Dysplastisch	-12.5569
▁EXTERN	-12.5569
▁Millin	-12.5569
▁Neusbijholte	-12.5569
▁Prurigo	-12.5569
▁Secretoir	-12.5569
▁Suboptima	-12.5569
▁Teratospermie	-12.5569
▁VISCERALIS	-12.5569
▁aangeraden	-12.5569
▁abortion	-12.5569
▁afstoting	-12.5569
▁cryptdistorsie	-12.5569
▁geconsulteerd	-12.5569
▁georienteerd	-12.5569
▁heftig	-12.5569
▁helices	-12.5569
▁horizontalis	-12.5569
▁hydatide	-12.5569
▁malignteit	-12.5569
▁mesenterica	-12.5569
▁nabothi	-12.5569
▁nuchae	-12.5569
▁schaamlip	-12.5569
▁seminiferi	-12.5569
▁spits	-12.5569
▁vacuolisatie	-12.5569
▁verdwenen	-12.5569
▁verlaagd	-12.5569
▁̄soleerd	-12.5569
▁granulopoese	-12.5569
▁tempi	-12.5569
drempel	-12.5569
▁Aortaklep	-12.5569
▁weggebiopteerd	-12.5569
▁4-8,11)	-12.5569
▁polysomie	-12.5569
▁culicosis	-12.5569
▁Fallopii	-12.5569
▁dysmaturiteit	-12.5569
▁involutie	-12.5569
▁chondroom	-12.5569
▁mutation	-12.5569
▁olecrani	-12.5569
▁stambronchus	-12.5569
▁besmetting	-12.5569
▁Schonlein	-12.5569
▁epiploica	-12.5569
▁heterogeniteit	-12.5569
Lauren	-12.5569
▁vimentine	-12.5569
▁schedelobductie	-12.5569
RUS	-12.5569
▁reaction	-12.5569
▁KIAA	-12.5569
▁ESD	-12.5569
▁spoelcelnaevus	-12.5569
▁imbalance	-12.5569
▁vlekkig	-12.5569
▁hoornschilfers	-12.557
▁polyclonaal	-12.557
▁jl	-12.557
▁Pleurapunctie	-12.557
▁aortawand	-12.557
transitiezone	-12.557
Onderzoeksnummer	-12.557
▁weefselverval	-12.557
▁Ovaria	-12.557
▁plasmacytoid	-12.5571
▁placentavolume	-12.5571
▁Graves	-12.5571
bandje	-12.5572
1624	-12.5572
ramus	-12.5572
▁appendixwand	-12.5572
▁Vaginabiopt	-12.5572
▁plus	-12.5572
▁System	-12.5572
▁levend	-12.5572
▁Papillair	-12.5572
▁keer	-12.5572
▁Endoresectie	-12.5573
▁Slokdarmbiopsie	-12.5573
▁spiervezels	-12.5573
cystadenofibroom	-12.5573
▁voldoe	-12.5573
▁reepje	-12.5574
▁fototoxisch	-12.5575
▁geboorte	-12.5575
▁prostate	-12.5575
▁verheven	-12.5575
SZO	-12.5576
▁staaf	-12.5576
▁stent	-12.5576
▁bruin	-12.5576
▁Hashimoto	-12.5576
▁Infiltrerend	-12.5576
▁budding	-12.5576
▁celopbrengst	-12.5576
▁elleboogsplooi	-12.5576
▁gesuperponeerd	-12.5576
▁transgender	-12.5576
▁cirrhose	-12.5576
▁contour	-12.5576
▁morphea	-12.5576
▁significance	-12.5576
▁concrementen	-12.5576
▁milium	-12.5576
▁parapemphigus	-12.5576
▁Tongbiopt	-12.5577
▁darmfragment	-12.5577
cfk	-12.5577
▁transurethra	-12.5577
▁4+3	-12.5578
15-0260	-12.5578
▁FUS	-12.5578
▁zh	-12.5578
ness	-12.5579
▁angiofibroom	-12.5579
]05-07-16/	-12.5579
▁Vier	-12.558
▁APAS	-12.558
▁retentiecyste	-12.558
splits	-12.558
▁bandvormig	-12.558
▁Omgevend	-12.5581
▁bloedrijk	-12.5582
▁Atrofisch	-12.5582
▁body	-12.5582
▁linkerelleboog	-12.5584
correleer	-12.5584
▁fibroblasten	-12.5584
▁alcohol	-12.5584
▁optreden	-12.5585
▁vries	-12.5586
▁TAM	-12.5587
▁midlijn	-12.5587
▁progressief	-12.5587
ysmegakaryopoese	-12.5587
▁pancreaspunctie	-12.5587
▁uitgebreidheid	-12.5588
▁SANO	-12.5589
▁Lambda	-12.5589
▁doorbraak	-12.5589
▁fenomeen	-12.5589
▁seminoma	-12.5589
▁Kappa	-12.5589
▁pectoraal	-12.5589
▁Uitsluiten	-12.5589
▁Conus	-12.5589
▁zuur	-12.5589
▁Basis	-12.5589
▁krab	-12.5589
▁paraffinecoupes	-12.5589
▁drainage	-12.559
▁diathermisch	-12.5593
▁3.5	-12.5594
▁chondromatose	-12.5594
▁halo	-12.5595
▁fibroblastair	-12.5598
▁Let	-12.56
▁nestjes	-12.56
▁tumormetastasen	-12.56
▁FESS	-12.5602
▁tragus	-12.5602
▁AGEP	-12.5602
▁plusminus	-12.5602
▁superficiale	-12.5603
▁lint	-12.5604
EURA	-12.5605
▁bronchusbiopt	-12.5605
▁lymfoblastair	-12.5605
>*******	-12.5605
▁lagen	-12.5606
▁SPE	-12.5607
22-01	-12.561
▁cervixcytologie	-12.561
Slijmvlies	-12.5611
▁fibroadenomateu	-12.5611
gemarkeerde	-12.5612
▁locus	-12.5612
▁KE	-12.5613
▁LAM	-12.5613
▁RCA	-12.5615
▁linkerzijwand	-12.5615
▁gevorderd	-12.5615
▁lekkage	-12.5615
▁geacht	-12.5616
▁arteritis	-12.5616
▁onafhankelijk	-12.5617
▁etc	-12.5619
▁Antrumbiopten	-12.562
hemihepatectomie	-12.5621
▁hoek	-12.5622
▁follikelcyste	-12.5623
oorgroei	-12.5623
BCL	-12.5626
▁betreffend	-12.5627
_224	-12.5628
13-11	-12.5634
50):	-12.5637
19-10	-12.5637
▁steen	-12.5638
▁Verslag	-12.5642
▁Gla	-12.5642
▁eczemateus	-12.5646
▁grover	-12.5647
▁slokdarmbiopt	-12.5648
▁adenoompje	-12.5648
▁(<1	-12.5653
▁uterusresectie	-12.5653
▁Mediastina	-12.5656
▁Bilatera	-12.5657
Huidexcochleatie	-12.5658
▁JA	-12.5659
zenuwschedetumor	-12.566
bite	-12.5661
▁(20%)	-12.5661
▁Pr	-12.5662
▁fusiegen	-12.5666
▁GPA	-12.5666
▁kwabben	-12.5667
▁abdominaal	-12.5668
_004333.4:	-12.5669
pen	-12.5675
otinib	-12.5676
▁anamnes	-12.5678
vul	-12.5685
spoliepje	-12.5687
▁HCC	-12.5698
▁verkalkte	-12.5699
▁5/6	-12.57
ARC	-12.5701
167	-12.5706
▁146	-12.5708
20-20	-12.5709
▁expert	-12.5712
TUMORGRADERING	-12.5716
orrelatie	-12.5718
Telling	-12.5726
opt	-12.573
male	-12.5732
>=	-12.5739
binding	-12.574
1,3	-12.5741
past	-12.5741
▁colonpoliepen	-12.5742
▁EMA	-12.5743
▁epitheloide	-12.5745
-03-19:	-12.5746
91.	-12.5746
▁regiona	-12.5747
▁basaalcelcarc	-12.5749
nig	-12.5753
ce	-12.5758
EI	-12.576
▁orbitaal	-12.577
16-01	-12.5772
21-14	-12.5772
▁percentages	-12.5775
klassieke	-12.578
▁85	-12.5784
genen	-12.5785
▁huidbeeld	-12.5791
cardiaresectie	-12.5795
87	-12.5796
REG	-12.5796
63,	-12.5796
▁homogen	-12.5802
626	-12.5806
XII	-12.5809
]30-	-12.5816
▁acini	-12.5823
▁(2/2).	-12.5826
▁10%)	-12.583
23-0	-12.5842
▁huidcurettement	-12.5848
▁stromatumor	-12.5852
011	-12.5857
▁wijzend	-12.5858
▁83	-12.5859
▁naevuscel	-12.586
endocapillair	-12.5861
▁0.8	-12.5871
cellig	-12.5883
Fragment	-12.5884
sequentieanalyse	-12.5885
mandibula	-12.5895
zegelringceltype	-12.5897
▁Blaasslijmvlies	-12.591
-08-14/*******/	-12.591
deze	-12.5912
▁nefro	-12.5918
▁mitochondria	-12.5925
▁79	-12.5931
BI	-12.5935
ning	-12.5936
21-20	-12.5939
▁(50	-12.5951
foo	-12.5951
▁gedeeltelijke	-12.5952
lever	-12.5959
14/	-12.5962
▁mycobacterie	-12.5965
Immuno	-12.5971
▁2-3).	-12.5978
▁Localisatie	-12.5982
▁<10	-12.5986
▁tri	-12.5991
sbeeld	-12.6004
perirenaal	-12.6014
morfologie	-12.6023
cytaire	-12.6028
RG	-12.6031
▁perirena	-12.604
▁slijmkleuring	-12.6041
hematologische	-12.6042
▁Ev	-12.6043
▁DIS	-12.6049
(2	-12.6049
onregelmatigheid	-12.6053
▁(7)	-12.6055
BU	-12.6056
▁2021:	-12.6059
dige	-12.6061
▁(0/2)	-12.6074
orme	-12.6076
Lymfeklieren	-12.6078
268	-12.6084
▁2015.	-12.6093
5-	-12.6096
15-8	-12.6098
vaginale	-12.6101
▁wenkbrauwen	-12.6102
▁ac	-12.6104
▁Ver	-12.6115
▁lymfk	-12.6115
▁(0).	-12.6123
▁eindsta	-12.6123
▁Zijsnijvlak	-12.6132
echo	-12.6134
▁Herhaling	-12.6137
▁armen	-12.6138
Nx	-12.6143
HG	-12.6143
7%)	-12.615
▁13/	-12.6161
ductale	-12.6164
16-2	-12.6174
sterkte	-12.6177
sparen	-12.6182
18-04	-12.6185
sprake	-12.6188
oi	-12.6192
vum	-12.6208
▁cr	-12.6216
tte	-12.6216
▁Obturatorius	-12.6219
58	-12.6228
▁(0/	-12.6235
-07-2016:	-12.6242
▁prostatisch	-12.6244
TOR	-12.6245
▁(6)	-12.6251
▁cor	-12.6268
741	-12.6269
▁Angioinvasie	-12.627
We	-12.627
Gr	-12.6272
+)	-12.6274
282	-12.6284
ichaamsobductie	-12.6295
▁Neuro	-12.6297
8).	-12.6317
▁hemithyroid	-12.6319
21-3	-12.632
-03-13/*******/	-12.6323
tief	-12.6325
recht	-12.6336
19-53	-12.6347
▁spongieu	-12.6361
▁un	-12.6371
VD	-12.6372
23-3	-12.6374
Lymf	-12.6375
▁persisteren	-12.6401
5%	-12.6405
kalk	-12.6405
darmslijmvlies	-12.6413
20-10	-12.6413
Huidbiopten	-12.6413
="161	-12.6415
44	-12.6421
308	-12.6423
165	-12.6437
-03-2016:	-12.6439
ficiA	-12.644
340	-12.6443
KM	-12.6448
10-	-12.6449
56)	-12.645
▁tradition	-12.6454
▁(=	-12.6454
7,7	-12.6474
ld	-12.6478
plooi	-12.6479
ted	-12.6488
Ten	-12.649
▁aden	-12.6494
▁2014.	-12.6504
▁(5,	-12.6507
RS	-12.6508
861	-12.6514
▁herhaalde	-12.6516
ASTI	-12.6525
22-4	-12.6526
cardiale	-12.6527
evernaaldbiopten	-12.6535
▁Psoriasi	-12.6537
ncreaticobiliair	-12.6538
alle	-12.6538
4+	-12.654
hechting	-12.6548
blasten	-12.6552
▁+5)	-12.6558
▁Stembandbiopt	-12.6558
22-3	-12.6562
▁(16	-12.6573
▁po	-12.6576
nieuw	-12.658
oud	-12.6582
-02-13/*******/	-12.6587
21-04	-12.6588
criteria	-12.6592
▁stolling	-12.6594
ruim	-12.6601
▁Steel	-12.6604
178	-12.6607
**	-12.6607
diagnosestelling	-12.6607
beperkt	-12.6608
▁ovariae	-12.661
dragen	-12.6612
▁*******+	-12.662
bronchus	-12.6625
16-4	-12.6631
iseerd	-12.6631
▁Anusslijmvlies	-12.6632
▁Mono	-12.6639
Representatie	-12.6662
MS	-12.6667
plaats	-12.6669
cilinders	-12.6675
▁borsten	-12.6676
70)	-12.6677
schraapsel	-12.6677
------------	-12.6678
aandoening	-12.6679
-11-2023:	-12.6681
VAT	-12.6681
duct	-12.6683
lymfeklier	-12.6684
artefact	-12.6686
bloeding	-12.6689
▁cf	-12.6692
▁dermatopatholog	-12.6693
load	-12.6694
19-32	-12.6695
oppervlak	-12.6695
opmerkingen	-12.6696
vagina	-12.6697
13-3	-12.6697
Klassiek	-12.6698
gradering	-12.6698
828	-12.6699
▁(99%	-12.6699
uitstrijkjes	-12.6699
streek	-12.6699
Slokdarm	-12.67
▁Darm	-12.67
HIX	-12.6702
074	-12.6704
▁nucleair	-12.6704
Receptorstatus	-12.6705
1801	-12.6705
Afmeting	-12.6706
Sentinel	-12.6706
▁morfometri	-12.6706
twee	-12.6706
abdominaal	-12.6706
target	-12.6707
97,	-12.6707
MOHS	-12.6708
WGS	-12.6708
gain	-12.6709
WDP	-12.671
uurszijde	-12.671
Microscopisch	-12.671
SNIJVLAK	-12.6711
Ventana	-12.6711
TBNA	-12.6711
Ongewijzigd	-12.6711
ganglion	-12.6711
intimafibrose	-12.6711
High	-12.6712
hyoid	-12.6712
Adnex	-12.6712
recidiverende	-12.6712
betrokkenheid	-12.6712
Rest	-12.6712
hypertrofe	-12.6712
Eventue	-12.6712
scherp	-12.6712
blue	-12.6712
reikt	-12.6712
Whipple	-12.6713
ooghoek	-12.6713
ontvangen	-12.6713
diffuus	-12.6713
sereus	-12.6713
beoordelen	-12.6713
subcutaan	-12.6713
incomplete	-12.6713
ZN	-12.6713
linkerbovenkwab	-12.6713
PTEN	-12.6714
neuro	-12.6714
RBK	-12.6714
NTRK	-12.6714
Receptoren	-12.6714
ROK	-12.6714
Lisexcisie	-12.6714
-06-2021:	-12.6715
klierbuizen	-12.6715
14-9	-12.6716
▁thrombo	-12.6716
pTis	-12.6716
zwak	-12.6717
loop	-12.6718
▁Solid	-12.6718
ulceratie	-12.6718
ITEIT	-12.6718
▁bijkomend	-12.6719
parakeratose	-12.6719
bovenste	-12.6719
▁100%).	-12.6719
eccrien	-12.6719
Laag	-12.672
rechterflank	-12.6721
linkerflank	-12.6722
▁72	-12.6722
▁spitz	-12.6723
besproken	-12.6728
▁Clin	-12.6728
gegevens	-12.673
▁functione	-12.6731
PIN	-12.6731
▁neurovasculair	-12.6732
pje	-12.6734
vroege	-12.6734
▁(0%	-12.6735
TX	-12.6736
doorgroei	-12.6742
46.	-12.6743
▁bron	-12.6744
52	-12.6746
acantholytische	-12.6748
Endocervica	-12.6755
abc	-12.6756
vier	-12.6758
MPL	-12.676
▁liesklier	-12.676
werd	-12.6765
▁discontinu	-12.677
serosaal	-12.6773
iare	-12.6777
▁ui	-12.6778
CTN	-12.6781
▁som	-12.6781
▁recht	-12.6785
17-12	-12.6792
▁schimmeldraad	-12.6792
▁2013:	-12.6792
PAP	-12.6794
▁histo	-12.6796
▁SDH	-12.6797
tien	-12.6798
80)	-12.6803
▁duid	-12.6803
▁vaatafwijking	-12.6803
▁diagnosi	-12.6804
▁dundarm	-12.6805
18-017	-12.6806
ehouden	-12.681
▁Myo	-12.6811
▁Gingiva	-12.6816
▁neur	-12.6816
ncert	-12.6817
▁begin	-12.6817
▁subglottis	-12.6817
lexura	-12.6817
ormospermie	-12.6817
gewone	-12.6818
▁melanomen	-12.6818
eticuline	-12.6818
▁galsteen	-12.6819
eclampsie	-12.6819
hodgkin	-12.6819
erozygosit	-12.6819
ultidisciplinair	-12.6819
weefselopbrengst	-12.6819
▁Coeliakie	-12.6819
▁Myocardbiopt	-12.6819
▁abruptio	-12.6819
▁ascensie	-12.6819
▁bakkebaard	-12.6819
▁bdz	-12.6819
▁breekpunt	-12.6819
▁cito	-12.6819
▁corneum	-12.6819
▁enhanced	-12.6819
▁exocytose	-12.6819
▁fissuur	-12.6819
▁geconstateerd	-12.6819
▁geformuleerd	-12.6819
▁gehyaliniseerd	-12.6819
▁haematopoese	-12.6819
▁hyperplasia	-12.6819
▁impliceert	-12.6819
▁lichenificatie	-12.6819
▁necrobiotisch	-12.6819
▁omvormd	-12.6819
▁overeenkomsten	-12.6819
▁raadzaam	-12.6819
▁retromolare	-12.6819
▁wanordelijk	-12.6819
▁GAVE	-12.6819
▁cohesief	-12.6819
▁conflue	-12.6819
▁exsudati	-12.6819
▁inflammation	-12.6819
▁palmaris	-12.6819
▁pedis	-12.6819
▁plasmacytoom	-12.6819
▁(5,8,1	-12.6819
▁Sleeve	-12.6819
▁functionerend	-12.6819
▁herkennen	-12.6819
nkno	-12.6819
▁accreditatie	-12.6819
▁ctDNA	-12.6819
▁deposits	-12.6819
eaktief	-12.6819
▁beneden	-12.6819
▁germinal	-12.6819
▁dyshematopoese	-12.6819
▁polyoma	-12.6819
▁samenvatt	-12.6819
schimmen	-12.6819
▁humora	-12.6819
▁sublingualis	-12.6819
▁soort	-12.6819
▁umbilicalis	-12.6819
▁arterietakken	-12.6819
▁laatstgenoemde	-12.6819
▁cellulitis	-12.6819
▁sarcomen	-12.6819
beperkte	-12.6819
▁EDU	-12.6819
▁nauwkeurig	-12.6819
▁penisschacht	-12.6819
▁hypercoiling	-12.6819
▁vulvectomie	-12.6819
▁verhoging	-12.6819
▁cytomorfologie	-12.6819
▁lymphoma	-12.6819
punctaten	-12.6819
▁vaatstructuur	-12.6819
▁neonaat	-12.6819
▁specificeren	-12.6819
▁toegevoegd	-12.6819
▁bichoriale	-12.6819
▁hypertroof	-12.6819
▁<0,1	-12.6819
▁postpartum	-12.6819
▁pericarditis	-12.6819
▁schuimcellen	-12.6819
▁thrombosering	-12.6819
▁haarresten	-12.6819
slijmbekercellen	-12.6819
▁paragranuloom	-12.6819
▁architecture	-12.6819
▁kalkdeposities	-12.6819
▁submentaal	-12.682
▁Blaaswand	-12.682
▁perivasculitis	-12.682
▁adventitia	-12.682
▁tertiair	-12.682
▁gebaseerd	-12.682
▁luchtwegen	-12.682
▁frontalis	-12.682
2,4,5,	-12.682
▁koper	-12.682
▁brugvorming	-12.682
heidsonderzoek	-12.682
▁Will	-12.682
▁fistelvorming	-12.682
▁hak	-12.682
▁parametria	-12.682
▁fibrosis	-12.6821
▁adenofibroom	-12.6821
▁Lies	-12.6821
▁CCND	-12.6821
skin	-12.6821
,6,7,8	-12.6821
▁categori	-12.6821
color	-12.6821
▁clustering	-12.6822
,6,7,	-12.6822
▁bouw	-12.6822
▁masto	-12.6822
▁pubisregio	-12.6822
▁venectasie	-12.6822
▁longoedeem	-12.6823
▁haemorrhagisch	-12.6823
▁galblaaswand	-12.6823
▁Systematisch	-12.6823
▁SLI	-12.6823
▁collo	-12.6824
ntogene	-12.6824
IGE	-12.6825
AmpliSeq	-12.6826
▁frictie	-12.6826
▁Lengte	-12.6826
▁bilirubinostase	-12.6826
▁INTER	-12.6827
Rechter	-12.6827
▁granulopoiese	-12.6827
▁hiertussen	-12.6827
▁LDH	-12.6827
▁Microbiologie	-12.6827
▁Recidief	-12.6827
▁Urotheel	-12.6827
▁mucus	-12.6827
▁toxiciteit	-12.6827
▁vervetting	-12.6827
▁dysmorfe	-12.6827
▁mitralisklep	-12.6827
▁verdrongen	-12.6827
▁monoklonaal	-12.6827
▁opstijgend	-12.6827
▁neuropatholoog	-12.6827
▁heterogeen	-12.6827
▁naadlekkage	-12.6827
▁opvragen	-12.6827
▁staal	-12.6827
▁menstrue	-12.6827
▁palatinaal	-12.6827
▁osteosarcoom	-12.6827
▁pemphigus	-12.6827
▁thrombose	-12.6827
▁targetable	-12.6827
197	-12.6827
▁IPMN	-12.6827
▁gastraal	-12.6827
▁synoviaal	-12.6828
▁rechteradnex	-12.6828
▁stam	-12.6828
▁rectumpoliep	-12.6828
▁Loss	-12.6829
▁MMB	-12.6829
▁zoda	-12.6829
▁weefselvolume	-12.6829
▁PIRADS	-12.6829
▁sample	-12.6829
▁synovi	-12.6829
▁extr	-12.683
immuunhepatitis	-12.6831
!!	-12.6831
▁oncologisch	-12.6832
▁ani	-12.6832
▁RT	-12.6833
▁Maagmucosa	-12.6834
▁fisteling	-12.6836
▁1/5	-12.6836
▁celtype	-12.6837
▁Ontstekingsrest	-12.6837
▁ependymoom	-12.6838
▁adnexectomie	-12.6838
▁weing	-12.6839
▁prognose	-12.684
▁tumorbed	-12.6841
Nota	-12.6841
▁Foet	-12.6841
▁Cycline	-12.6842
▁psoas	-12.6842
▁exsudaat	-12.6842
▁salpingitis	-12.6842
▁pathogeniciteit	-12.6842
▁CNS	-12.6842
▁commissuur	-12.6842
▁STIC	-12.6842
▁seroom	-12.6842
▁jugulair	-12.6842
▁Grote	-12.6842
▁kapseldoorgroei	-12.6842
▁1.9	-12.6842
navelstrengvaten	-12.6843
▁longembolieen	-12.6843
▁spot	-12.6843
▁0,25	-12.6843
▁UIP	-12.6844
▁blaasspoeling	-12.6845
▁conisatie	-12.6846
▁rectumstomp	-12.6846
▁Naresectie	-12.6846
▁3+4=7.	-12.6846
▁Blokje	-12.6846
23-35	-12.6847
▁temporal	-12.6848
▁vlokjes	-12.6848
▁bifurcatie	-12.6849
kwabben	-12.6849
▁genmutatie	-12.6849
▁vue	-12.6854
▁bloedstolsels	-12.6854
▁coronairen	-12.6855
▁Vacu	-12.6856
▁pees	-12.6856
▁Aangepast	-12.6857
▁Ileocaecaal	-12.6857
▁extramedullair	-12.6857
▁Johnson	-12.6857
▁linkerkuit	-12.6857
▁patchy	-12.6857
▁activatie	-12.6858
11-	-12.6859
*******>	-12.686
20-01	-12.6862
stant	-12.6862
465	-12.6864
▁2009):	-12.6867
▁ontst	-12.6867
hb	-12.6868
▁CRM	-12.687
oprostatectomie	-12.6871
600)	-12.6871
▁uitlopers	-12.6871
▁PTaG	-12.6872
▁monomorf	-12.6872
▁vervolgen	-12.6875
▁functie	-12.6878
mk	-12.6881
▁an	-12.6881
▁HM	-12.6881
▁IKN	-12.6883
▁file	-12.6883
▁64	-12.6883
586	-12.6886
▁active	-12.6888
▁genfusie	-12.6891
▁uitgroei	-12.6891
▁kopieen	-12.6893
▁alge	-12.6893
herhalingsrisico	-12.6895
17-3	-12.6895
▁pleiten	-12.6896
▁Percentage	-12.6898
▁+3).	-12.6899
▁3-5	-12.6899
CIFICATIE	-12.6901
▁rechterarm	-12.6903
▁granulocytair	-12.6903
▁Mass	-12.6904
▁stof	-12.6905
▁placentaweefsel	-12.6908
icopathologisch	-12.6913
▁Best	-12.6913
96	-12.6914
▁2013.	-12.6916
22-03	-12.6916
▁terme	-12.6917
]25-02-13/	-12.6919
▁urothelial	-12.692
HUID	-12.6922
▁TRK	-12.6929
▁linkerarm	-12.6932
▁Afmeting	-12.6933
▁metabo	-12.6934
lencarcinoom	-12.6937
▁weefsels	-12.6938
▁CNVs	-12.6941
vary	-12.6942
▁studies	-12.6943
▁gain	-12.6945
473	-12.6949
]-->	-12.695
▁mor	-12.6951
▁2018)	-12.6952
-11-18:	-12.6958
▁misse	-12.6959
-09-15:	-12.6961
▁JNI	-12.6962
▁Stadium	-12.6963
ledig	-12.6964
▁parameters	-12.6965
teerde	-12.6967
▁maagovergang	-12.6967
23-2	-12.6973
▁aandoeningen	-12.6974
▁(12,14	-12.6977
▁=7	-12.6977
▁uitge	-12.6979
blatio	-12.6981
▁IKA	-12.6988
182	-12.6988
Ile	-12.699
_000038.	-12.6991
▁redelijke	-12.6998
0-01-14/*******/	-12.6999
21-8	-12.7003
▁fractie	-12.7003
▁AR	-12.7005
▁CML	-12.7006
135	-12.7006
▁as	-12.7006
▁(27	-12.7008
dieper	-12.701
▁chr	-12.7012
-01-2019:	-12.7019
uscularis	-12.7021
475	-12.7023
▁ISH	-12.7024
▁90%)	-12.7025
▁1%).	-12.7032
▁2004)	-12.7033
▁consensus	-12.704
15-25	-12.704
]02-	-12.7043
▁vergroot	-12.7053
▁TURP	-12.7055
RAI	-12.7056
21-22	-12.7058
elanomenpanel	-12.7059
2015	-12.7062
22-0	-12.7068
entaal	-12.7071
▁(26	-12.7074
mine	-12.7083
14)	-12.7093
▁zijden	-12.7098
▁papels	-12.7102
▁Amplificatie	-12.7102
ostomie	-12.7104
2013	-12.7107
ierover	-12.7108
▁uterinae	-12.7111
bijt	-12.7112
ijns	-12.7113
14-	-12.7119
hypertensieve	-12.713
acte	-12.7138
▁(29	-12.7142
▁(20/	-12.7144
sindex	-12.7144
markers	-12.7148
]01-10-1	-12.7161
delins	-12.7169
▁bied	-12.7172
-03-2023:	-12.7172
32	-12.7183
▁bv	-12.7198
15-14	-12.72
▁cervixcarcinoom	-12.7201
)?	-12.7206
▁6).	-12.7217
STS	-12.7223
ature	-12.7232
▁IIB	-12.7243
23-017	-12.7243
svoorstel	-12.7243
20-15	-12.7245
▁OR	-12.7245
▁ch	-12.7248
-11-2018:	-12.7258
▁verschuiving	-12.7275
]07-06-13/	-12.729
▁lichaams	-12.7293
Slijmvliesbiopt	-12.73
▁ker	-12.7301
34+	-12.7302
KW	-12.7303
eldysplasie	-12.7303
36	-12.7304
▁2016)	-12.7306
▁06-09-	-12.731
▁PLC	-12.7315
-05-21:	-12.7319
15-3	-12.7324
▁sterno	-12.7327
ndige	-12.7329
▁0.2	-12.7332
17-03	-12.7332
▁linksboven	-12.7334
236	-12.7335
cysten	-12.7336
-10-2019:	-12.7336
▁RAF	-12.736
▁BR	-12.7361
04)	-12.7362
▁gal	-12.7394
allergisch	-12.7396
201	-12.74
6/	-12.7401
amniotisch	-12.7408
▁(8-	-12.7409
▁ondersteunend	-12.7422
_004985	-12.7423
041	-12.7425
272	-12.7442
CTC	-12.7444
▁2/	-12.7447
▁hemithyreo	-12.7453
▁SE	-12.7453
myofibroblastair	-12.7453
22-21	-12.747
▁chemo	-12.7472
oestrogeen	-12.748
veneus	-12.748
-1,	-12.7481
VO	-12.7481
▁75%	-12.7486
kanaal	-12.7499
▁Co	-12.7501
wegen	-12.7509
adnexa	-12.7517
▁95%)	-12.7518
▁15%.	-12.7524
896	-12.7534
17-15	-12.7534
▁paar	-12.7537
16-7	-12.7542
8/*******/	-12.7548
662	-12.755
resectaat	-12.7552
▁(3+)	-12.7554
og	-12.756
9)	-12.7561
▁117	-12.7573
ONT	-12.7574
▁0%.	-12.7574
▁(3+).	-12.7579
2016	-12.7579
ke	-12.7585
▁̄n	-12.7588
_004985.	-12.7592
ov	-12.7598
-04-14/*******/	-12.7602
delentumor	-12.7611
▁VA	-12.7613
▁*******/*******	-12.7617
▁2016).	-12.7624
tiA	-12.7629
▁area	-12.763
▁Pa	-12.7634
163	-12.7636
344	-12.765
▁09-01-	-12.7652
formatie	-12.7652
▁crypte	-12.7654
59):	-12.7654
ieve	-12.7659
▁+6	-12.7659
▁2015:	-12.7659
15-4	-12.7661
▁bepaalde	-12.7663
pro	-12.767
verlies	-12.7683
▁infecties	-12.7684
20-4	-12.7685
43.	-12.7687
sis	-12.769
▁loss	-12.7707
65):	-12.7708
olumepercentage	-12.7714
16):	-12.7718
uurt	-12.7722
uele	-12.7728
lymfangio	-12.7735
75):	-12.7748
16-19	-12.7754
ISCH	-12.7757
▁Ba	-12.7757
▁membran	-12.776
▁huma	-12.777
ent	-12.7775
▁600	-12.7782
▁Endomyocard	-12.7783
lende	-12.7784
-05-22:	-12.7791
▁Para	-12.7793
▁markerings	-12.7794
18-3	-12.7801
822	-12.7812
▁normo	-12.7817
Lever	-12.7841
283	-12.7845
▁chroniciteits	-12.7847
22)	-12.7854
88)	-12.7859
▁16:	-12.7879
▁<10%	-12.7887
▁EML	-12.7901
18-28	-12.7903
ERDE	-12.7919
immuunziekte	-12.7921
▁pos	-12.7932
adnexaal	-12.7935
0-50%	-12.7958
▁Exp	-12.7961
vol	-12.7963
europathologisch	-12.7966
as	-12.7969
▁0;	-12.7976
▁(34	-12.7977
▁fi	-12.7977
22-7	-12.7979
best	-12.7981
ronchusspoelsel	-12.7982
peroxidase	-12.7984
39,	-12.7984
▁Conjunctiva	-12.7985
▁10-	-12.8003
▁1-2)	-12.8004
enkel	-12.8005
2020	-12.8007
icrocurettage	-12.801
▁AP	-12.801
▁laryngea	-12.8014
iebespreking	-12.8021
toxisch	-12.8023
sterk	-12.8027
gesneden	-12.8032
▁lymfoplasm	-12.8034
▁10%).	-12.8035
▁ki	-12.8045
ost	-12.8046
▁2004	-12.8048
kaak	-12.8052
per	-12.8053
96):	-12.8054
wangerschapsrest	-12.8075
schildklier	-12.8077
malig	-12.8084
ezamen	-12.8084
iment	-12.8089
22-02	-12.8095
18-20	-12.8099
collectie	-12.8102
Retroperitonea	-12.8103
54):	-12.8104
20-02	-12.8106
▁polytypisch	-12.8106
22-40	-12.8106
pseudoepitheli	-12.8108
tuba	-12.8108
myelo	-12.811
kenmerk	-12.8114
iet	-12.8115
Voorkeur	-12.8116
▁wart	-12.8116
Overweging	-12.8117
corpustype	-12.8117
enduidig	-12.8118
naaldvormige	-12.8119
bene	-12.8119
▁exper	-12.812
Overall	-12.812
passen	-12.8122
embolieen	-12.8123
SCLC	-12.8124
hotspot	-12.8125
▁leiomyoma	-12.8127
infarcering	-12.8127
-06-2015:	-12.8128
Linker	-12.8128
HE	-12.8129
helft	-12.8129
Alle	-12.813
▁bijbevinding	-12.8131
0,05	-12.8133
DOOR	-12.8133
93.	-12.8133
14-26	-12.8134
ingsstoornissen	-12.8134
gastric	-12.8134
Percentage	-12.8134
TRK	-12.8134
Mediastina	-12.8135
▁druk	-12.8135
14-5	-12.8136
grijs	-12.8136
ventrale	-12.8136
18)	-12.8136
reuscel	-12.8137
buiten	-12.8137
wit	-12.8137
MPN	-12.8137
Uterus	-12.8138
▁ovariumcyste	-12.8138
beenmerg	-12.8139
incidentiedatum	-12.8139
decollete	-12.8139
genetica	-12.8139
seminoom	-12.8139
strekzijde	-12.8139
jukbeen	-12.814
vasculitis	-12.814
anterior	-12.814
trigonum	-12.814
IgM	-12.814
verruceus	-12.814
Primair	-12.814
TMB	-12.814
gingiva	-12.814
materna	-12.814
kaakhoek	-12.8141
beoordeelbaar	-12.8141
proficient	-12.8141
perifere	-12.8141
diverticulitis	-12.8141
gewenst	-12.8141
Tuba	-12.8141
gisten	-12.8141
Echter	-12.8141
toxicodermie	-12.8141
ontstaan	-12.8141
FGFR	-12.8141
Liquor	-12.8141
chromosoom	-12.8141
Appendectomie	-12.8141
naevocellularis	-12.8141
endocervicale	-12.8142
Dunne	-12.8142
fibroadenoom	-12.8142
beoordeelbare	-12.8142
HSV	-12.8142
ongewijzigd	-12.8142
maken	-12.8142
argumenten	-12.8142
obturatorius	-12.8142
bot	-12.8142
nav	-12.8142
kleiner	-12.8143
MRI	-12.8144
SISH	-12.8144
Pap	-12.8144
correlatie	-12.8144
EMR	-12.8145
ingestuurd	-12.8146
▁Myc	-12.8146
urine	-12.8147
geneesmiddelen	-12.8148
▁spongiotisch	-12.8149
overgangstype	-12.8149
hyperplastische	-12.8151
linkszijdig	-12.8151
blaashals	-12.8151
patienten	-12.8152
gegroeid	-12.8152
▁lichtmicroscopi	-12.8155
tumorcellen	-12.8156
maagantrum	-12.8156
wij	-12.8157
▁intestinal	-12.8158
▁reserve	-12.8158
▁geirriteerd	-12.8159
gesloten	-12.816
-2/	-12.816
age	-12.8161
▁Diep	-12.8162
elastose	-12.8164
▁erytro	-12.8164
infiltr	-12.8164
▁plantair	-12.8168
alleen	-12.8168
-05-14/*******/	-12.8171
knieholte	-12.8172
Corpusslijmvlies	-12.8173
▁Okselklier	-12.8173
penetrerend	-12.8174
▁minimal	-12.8177
sen	-12.8178
20-14	-12.8179
LBK	-12.8179
▁pla	-12.8181
▁ra	-12.8185
33,	-12.8186
▁verlittekend	-12.8186
(1-6)	-12.8186
genome	-12.8189
▁07-01-	-12.8189
lymfo	-12.8192
slag	-12.8193
▁uitsluit	-12.8193
TURT	-12.8195
▁toest	-12.8195
Lab	-12.8198
▁2009	-12.8199
meerdere	-12.8204
klierparenchym	-12.8205
▁(6,	-12.8205
▁Discre	-12.8208
''	-12.8209
▁Was	-12.8211
▁aggregaat	-12.8212
Naast	-12.8214
Om	-12.8223
▁1%.	-12.8225
▁lymfvat	-12.8226
OK	-12.8226
▁haarschacht	-12.8227
19-0	-12.8227
myomateuze	-12.8228
464	-12.8232
▁plaat	-12.8233
394	-12.8233
▁Larynx	-12.8236
▁Synoviumbiopt	-12.8236
▁schuim	-12.8236
16-15	-12.8237
▁wijzig	-12.8237
TERT	-12.8239
emming	-12.824
▁capsul	-12.8242
irca	-12.8243
▁pijn	-12.8243
▁perivesica	-12.8243
▁ritmestoornis	-12.8243
▁Genetic	-12.8244
▁neoplasm	-12.8244
nderzochte	-12.8245
verweeg	-12.8245
▁endometro	-12.8245
oth	-12.8245
▁retentie	-12.8245
▁suggestie	-12.8246
▁nodular	-12.8246
▁leesbaar	-12.8247
▁ernst	-12.8247
▁staple	-12.8247
▁inflammato	-12.8247
fertiliteit	-12.8247
▁exanthemateu	-12.8247
Bepaling	-12.8247
Sampling	-12.8247
Schwannoom	-12.8247
chillblain	-12.8247
ndri	-12.8247
richofolliculoom	-12.8247
▁Aangrenzend	-12.8247
▁BEWERKING	-12.8247
▁Dubreuilh	-12.8247
▁Hemangioom	-12.8247
▁KNO	-12.8247
▁ONGEWIJZIGD	-12.8247
▁Respectievelijk	-12.8247
▁aangehecht	-12.8247
▁aureola	-12.8247
▁bullosa	-12.8247
▁canthus	-12.8247
▁carunkel	-12.8247
▁chorionvilli	-12.8247
▁duimmuis	-12.8247
▁epidermotroop	-12.8247
▁epulis	-12.8247
▁erysipelas	-12.8247
▁hospita	-12.8247
▁macrofaag	-12.8247
▁neutrofilie	-12.8247
▁nitidus	-12.8247
▁noduli	-12.8247
▁paravesicalis	-12.8247
▁pathognomonisch	-12.8247
▁pattern	-12.8247
▁plugging	-12.8247
▁prolactine	-12.8247
▁retromammillair	-12.8247
▁stigmata	-12.8247
▁vermiformis	-12.8247
▁verschijnselen	-12.8247
▁verwisseld	-12.8247
▁wandlagen	-12.8247
▁Agendia	-12.8247
▁atrophy	-12.8247
▁calcaneus	-12.8247
▁change	-12.8247
▁gezegd	-12.8247
[...]
